{
  "version": "1.0",
  "truncation": null,
  "padding": null,
  "added_tokens": [
    {
      "id": 0,
      "content": "<|PAD|>",
      "single_word": false,
      "lstrip": false,
      "rstrip": false,
      "normalized": false,
      "special": true
    },
    {
      "id": 1,
      "content": "<|BOS|>",
      "single_word": false,
      "lstrip": false,
      "rstrip": false,
      "normalized": false,
      "special": true
    },
    {
      "id": 2,
      "content": "<|EOS|>",
      "single_word": false,
      "lstrip": false,
      "rstrip": false,
      "normalized": false,
      "special": true
    },
    {
      "id": 3,
      "content": "<|UNK|>",
      "single_word": false,
      "lstrip": false,
      "rstrip": false,
      "normalized": false,
      "special": true
    }
  ],
  "normalizer": {
    "type": "NFKC"
  },
  "pre_tokenizer": {
    "type": "Sequence",
    "pretokenizers": [
      {
        "type": "UnicodeScripts"
      },
      {
        "type": "Digits",
        "individual_digits": true
      },
      {
        "type": "Metaspace",
        "replacement": "▁",
        "prepend_scheme": "never",
        "split": true
      }
    ]
  },
  "post_processor": {
    "type": "TemplateProcessing",
    "single": [
      {
        "SpecialToken": {
          "id": "<|BOS|>",
          "type_id": 0
        }
      },
      {
        "Sequence": {
          "id": "A",
          "type_id": 0
        }
      },
      {
        "SpecialToken": {
          "id": "<|EOS|>",
          "type_id": 0
        }
      }
    ],
    "pair": [
      {
        "SpecialToken": {
          "id": "<|BOS|>",
          "type_id": 0
        }
      },
      {
        "Sequence": {
          "id": "A",
          "type_id": 0
        }
      },
      {
        "SpecialToken": {
          "id": "<|EOS|>",
          "type_id": 0
        }
      },
      {
        "SpecialToken": {
          "id": "<|BOS|>",
          "type_id": 1
        }
      },
      {
        "Sequence": {
          "id": "B",
          "type_id": 1
        }
      },
      {
        "SpecialToken": {
          "id": "<|EOS|>",
          "type_id": 1
        }
      }
    ],
    "special_tokens": {
      "<|BOS|>": {
        "id": "<|BOS|>",
        "ids": [
          1
        ],
        "tokens": [
          "<|BOS|>"
        ]
      },
      "<|EOS|>": {
        "id": "<|EOS|>",
        "ids": [
          2
        ],
        "tokens": [
          "<|EOS|>"
        ]
      }
    }
  },
  "decoder": {
    "type": "Metaspace",
    "replacement": "▁",
    "prepend_scheme": "never",
    "split": true
  },
  "model": {
    "type": "BPE",
    "dropout": null,
    "unk_token": "<|UNK|>",
    "continuing_subword_prefix": null,
    "end_of_word_suffix": null,
    "fuse_unk": false,
    "byte_fallback": false,
    "ignore_merges": false,
    "vocab": {
      "<|PAD|>": 0,
      "<|BOS|>": 1,
      "<|EOS|>": 2,
      "<|UNK|>": 3,
      "\n": 4,
      "!": 5,
      "\"": 6,
      "$": 7,
      "%": 8,
      "&": 9,
      "'": 10,
      "(": 11,
      ")": 12,
      "*": 13,
      "+": 14,
      ",": 15,
      "-": 16,
      ".": 17,
      "/": 18,
      "0": 19,
      "1": 20,
      "2": 21,
      "3": 22,
      "4": 23,
      "5": 24,
      "6": 25,
      "7": 26,
      "8": 27,
      "9": 28,
      ":": 29,
      ";": 30,
      "=": 31,
      "?": 32,
      "A": 33,
      "B": 34,
      "C": 35,
      "D": 36,
      "E": 37,
      "F": 38,
      "G": 39,
      "H": 40,
      "I": 41,
      "J": 42,
      "K": 43,
      "L": 44,
      "M": 45,
      "N": 46,
      "O": 47,
      "P": 48,
      "Q": 49,
      "R": 50,
      "S": 51,
      "T": 52,
      "U": 53,
      "V": 54,
      "W": 55,
      "X": 56,
      "Y": 57,
      "Z": 58,
      "_": 59,
      "a": 60,
      "b": 61,
      "c": 62,
      "d": 63,
      "e": 64,
      "f": 65,
      "g": 66,
      "h": 67,
      "i": 68,
      "j": 69,
      "k": 70,
      "l": 71,
      "m": 72,
      "n": 73,
      "o": 74,
      "p": 75,
      "q": 76,
      "r": 77,
      "s": 78,
      "t": 79,
      "u": 80,
      "v": 81,
      "w": 82,
      "x": 83,
      "y": 84,
      "z": 85,
      "Ç": 86,
      "Ö": 87,
      "Ü": 88,
      "â": 89,
      "ç": 90,
      "ö": 91,
      "ü": 92,
      "Ğ": 93,
      "ğ": 94,
      "İ": 95,
      "ı": 96,
      "œ": 97,
      "Ş": 98,
      "ş": 99,
      "€": 100,
      "▁": 101,
      "ar": 102,
      "▁b": 103,
      "ir": 104,
      "▁v": 105,
      "er": 106,
      "▁k": 107,
      "in": 108,
      "di": 109,
      "an": 110,
      "▁g": 111,
      "▁ve": 112,
      "en": 113,
      "dı": 114,
      "lar": 115,
      "▁s": 116,
      "▁o": 117,
      "ma": 118,
      "ın": 119,
      "or": 120,
      "▁bir": 121,
      "du": 122,
      "▁y": 123,
      "da": 124,
      "la": 125,
      "il": 126,
      "de": 127,
      "yor": 128,
      "\n\n": 129,
      "▁a": 130,
      "un": 131,
      "▁ç": 132,
      "▁i": 133,
      "ek": 134,
      ".\n\n": 135,
      "ak": 136,
      "ler": 137,
      "▁e": 138,
      "ün": 139,
      "▁h": 140,
      "le": 141,
      "tı": 142,
      "ey": 143,
      "es": 144,
      "ok": 145,
      "ti": 146,
      "lı": 147,
      "ya": 148,
      "▁t": 149,
      "dü": 150,
      "▁ka": 151,
      "li": 152,
      "ük": 153,
      "▁gö": 154,
      "na": 155,
      "ini": 156,
      "am": 157,
      "Bir": 158,
      "▁m": 159,
      "im": 160,
      "▁ol": 161,
      "ka": 162,
      "▁ba": 163,
      "ını": 164,
      "yordu": 165,
      "▁ş": 166,
      "▁çok": 167,
      "ra": 168,
      "yı": 169,
      "em": 170,
      "▁ya": 171,
      "et": 172,
      "üz": 173,
      "edi": 174,
      "ut": 175,
      "▁oy": 176,
      "ily": 177,
      "▁iç": 178,
      "▁d": 179,
      "Lily": 180,
      "▁\"": 181,
      "▁gör": 182,
      "▁de": 183,
      "el": 184,
      "on": 185,
      "▁p": 186,
      "▁et": 187,
      "▁gün": 188,
      "ız": 189,
      "▁z": 190,
      "ev": 191,
      "▁var": 192,
      "ür": 193,
      "▁için": 194,
      "An": 195,
      "lu": 196,
      "yle": 197,
      "ış": 198,
      "st": 199,
      "ır": 200,
      "▁ar": 201,
      "▁da": 202,
      "▁an": 203,
      "den": 204,
      "ce": 205,
      "ur": 206,
      "ladı": 207,
      "aman": 208,
      "üy": 209,
      "▁gi": 210,
      "ha": 211,
      "▁sev": 212,
      "üç": 213,
      "unu": 214,
      "eye": 215,
      "ları": 216,
      "ine": 217,
      "▁on": 218,
      "▁oldu": 219,
      "is": 220,
      "ne": 221,
      "▁zaman": 222,
      "nes": 223,
      "ına": 224,
      "ül": 225,
      "mak": 226,
      "ba": 227,
      "öyle": 228,
      "ta": 229,
      "dedi": 230,
      "üçük": 231,
      "ık": 232,
      "iz": 233,
      "▁ö": 234,
      "▁sa": 235,
      "bil": 236,
      "cak": 237,
      "▁ko": 238,
      "maya": 239,
      "▁bu": 240,
      "yorlar": 241,
      "mış": 242,
      "▁yap": 243,
      "▁oyna": 244,
      "▁ha": 245,
      "üyük": 246,
      "▁u": 247,
      "▁mut": 248,
      "üm": 249,
      "uş": 250,
      "▁baş": 251,
      "erdi": 252,
      "ye": 253,
      "ldı": 254,
      "ca": 255,
      "ında": 256,
      "arı": 257,
      "▁mutlu": 258,
      "eş": 259,
      "lan": 260,
      "ydu": 261,
      "tu": 262,
      "▁gördü": 263,
      "!\"": 264,
      "▁olduğ": 265,
      "▁f": 266,
      "dan": 267,
      "▁ist": 268,
      "Ben": 269,
      "kada": 270,
      "kadaş": 271,
      "▁şey": 272,
      "Tim": 273,
      "dar": 274,
      "▁kadar": 275,
      "▁küçük": 276,
      "mayı": 277,
      "ardı": 278,
      "om": 279,
      "▁ama": 280,
      "sı": 281,
      "mek": 282,
      "▁Lily": 283,
      "ark": 284,
      "endi": 285,
      "ğı": 286,
      "▁büyük": 287,
      "ara": 288,
      "▁kız": 289,
      "▁zamanlar": 290,
      "nesi": 291,
      "▁gül": 292,
      "yi": 293,
      "te": 294,
      "dın": 295,
      "my": 296,
      "cu": 297,
      "ğini": 298,
      "iyordu": 299,
      "▁kar": 300,
      "▁etti": 301,
      "az": 302,
      "▁di": 303,
      "▁son": 304,
      "eri": 305,
      "▁arkadaş": 306,
      "▁du": 307,
      "Tom": 308,
      "ki": 309,
      "▁üz": 310,
      "ği": 311,
      "yla": 312,
      "eni": 313,
      "ik": 314,
      "um": 315,
      "lik": 316,
      "▁varmış": 317,
      "▁olduğunu": 318,
      "ğını": 319,
      "▁daha": 320,
      "üms": 321,
      "▁çık": 322,
      ".\n\n\"": 323,
      "ğa": 324,
      "leri": 325,
      "eyi": 326,
      "▁git": 327,
      "▁vardı": 328,
      "bilir": 329,
      "▁ne": 330,
      "▁dü": 331,
      "?\"": 332,
      ".\"": 333,
      "inde": 334,
      "▁gülüms": 335,
      "ocu": 336,
      "▁her": 337,
      "ydı": 338,
      "▁ça": 339,
      "▁sonra": 340,
      "▁bak": 341,
      "▁ta": 342,
      "▁adın": 343,
      "▁do": 344,
      "larını": 345,
      "Bu": 346,
      "▁onu": 347,
      "ğr": 348,
      "▁ge": 349,
      "▁adında": 350,
      "▁verdi": 351,
      "▁gel": 352,
      "On": 353,
      "▁ona": 354,
      "▁sor": 355,
      "ardım": 356,
      "▁oyun": 357,
      "▁söyle": 358,
      "meye": 359,
      "▁bil": 360,
      "can": 361,
      "ştı": 362,
      "likte": 363,
      "▁ki": 364,
      "ocuk": 365,
      "nem": 366,
      "▁bul": 367,
      "Timmy": 368,
      "▁ev": 369,
      "me": 370,
      "▁is": 371,
      "▁his": 372,
      "▁hiss": 373,
      "man": 374,
      "▁dedi": 375,
      "▁istedi": 376,
      "▁koş": 377,
      "▁iyi": 378,
      "▁yardım": 379,
      "lerini": 380,
      "op": 381,
      "▁başladı": 382,
      "ğl": 383,
      "▁düş": 384,
      "▁par": 385,
      "▁isti": 386,
      "Ama": 387,
      "erek": 388,
      "▁mutluydu": 389,
      "gün": 390,
      "Çok": 391,
      "▁gülümsedi": 392,
      "▁ara": 393,
      "inin": 394,
      "it": 395,
      "sını": 396,
      "▁annesi": 397,
      "ana": 398,
      "tü": 399,
      "üzel": 400,
      "▁söyledi": 401,
      "iyor": 402,
      "▁S": 403,
      "▁yer": 404,
      "▁şöyle": 405,
      "madı": 406,
      "▁çocuk": 407,
      "iş": 408,
      "▁birlikte": 409,
      "va": 410,
      "▁eğl": 411,
      "▁kö": 412,
      "ol": 413,
      ".\"\n\n": 414,
      "ul": 415,
      "ork": 416,
      "Ha": 417,
      "bi": 418,
      "ünü": 419,
      "▁ma": 420,
      "enin": 421,
      "▁çalı": 422,
      "iler": 423,
      "Ma": 424,
      "esi": 425,
      "iç": 426,
      "▁değ": 427,
      "cek": 428,
      "▁güzel": 429,
      "bir": 430,
      "▁sordu": 431,
      "nin": 432,
      "▁Ben": 433,
      "yu": 434,
      "Ba": 435,
      "ların": 436,
      "▁r": 437,
      "şı": 438,
      "▁el": 439,
      "▁geldi": 440,
      "sın": 441,
      "lık": 442,
      "yorlardı": 443,
      "▁sal": 444,
      "tır": 445,
      "unda": 446,
      "▁dö": 447,
      "cı": 448,
      "eyecan": 449,
      "lara": 450,
      "▁oyuncak": 451,
      "▁sarı": 452,
      "▁al": 453,
      "lü": 454,
      "uz": 455,
      "▁değil": 456,
      "▁heyecan": 457,
      "iy": 458,
      "▁yak": 459,
      "meyi": 460,
      "▁kork": 461,
      "▁karar": 462,
      "▁geç": 463,
      "irdi": 464,
      "sa": 465,
      "▁hisset": 466,
      "▁yan": 467,
      "ekk": 468,
      "şa": 469,
      "▁pa": 470,
      "▁J": 471,
      "▁baktı": 472,
      "▁uz": 473,
      "eşekk": 474,
      "▁ses": 475,
      "end": 476,
      "eşekkür": 477,
      "ıp": 478,
      "ep": 479,
      "▁üzgün": 480,
      "raf": 481,
      "▁aç": 482,
      "▁yeni": 483,
      "▁tek": 484,
      "sına": 485,
      "Annesi": 486,
      "▁yüz": 487,
      "tık": 488,
      "eğ": 489,
      "▁öz": 490,
      "▁oynamayı": 491,
      "der": 492,
      "▁sür": 493,
      "▁aldı": 494,
      "diye": 495,
      "▁gitti": 496,
      "▁in": 497,
      "▁uç": 498,
      "unun": 499,
      "Annem": 500,
      "ken": 501,
      "▁dön": 502,
      "▁kuş": 503,
      "ledi": 504,
      "▁onun": 505,
      "Da": 506,
      "▁top": 507,
      "▁buldu": 508,
      "tiler": 509,
      "Son": 510,
      "ydi": 511,
      "dam": 512,
      "inden": 513,
      "Ev": 514,
      "ika": 515,
      "▁üzer": 516,
      "ece": 517,
      "▁c": 518,
      "Her": 519,
      "▁at": 520,
      "dış": 521,
      "ip": 522,
      "▁yem": 523,
      "▁öğr": 524,
      "▁geri": 525,
      "Anna": 526,
      "tan": 527,
      "▁dış": 528,
      "Max": 529,
      "▁na": 530,
      "lıydı": 531,
      "utu": 532,
      "▁ver": 533,
      "Ar": 534,
      "si": 535,
      "▁koştu": 536,
      "▁Tom": 537,
      "sin": 538,
      "landı": 539,
      "ten": 540,
      "lak": 541,
      "yan": 542,
      "Ka": 543,
      "kat": 544,
      "ıl": 545,
      "▁istiyordu": 546,
      "muş": 547,
      "▁fark": 548,
      "▁dışarı": 549,
      "▁su": 550,
      "▁sı": 551,
      "Küçük": 552,
      "▁en": 553,
      "▁ağa": 554,
      "▁yür": 555,
      "▁annes": 556,
      "▁eğlen": 557,
      "larıyla": 558,
      "endini": 559,
      "ırdı": 560,
      "▁har": 561,
      "▁seviyordu": 562,
      "ıyor": 563,
      "bu": 564,
      "diyor": 565,
      "▁baba": 566,
      "▁iz": 567,
      "▁gerek": 568,
      "▁köp": 569,
      "ly": 570,
      "▁kendi": 571,
      "ck": 572,
      "▁Timmy": 573,
      "▁gibi": 574,
      "cağını": 575,
      "▁ola": 576,
      "ğru": 577,
      "van": 578,
      "▁kap": 579,
      "ede": 580,
      "rar": 581,
      "esini": 582,
      "▁biraz": 583,
      "miş": 584,
      "oş": 585,
      "▁severdi": 586,
      "hç": 587,
      "Ta": 588,
      "▁doğru": 589,
      "▁duydu": 590,
      "up": 591,
      "▁göst": 592,
      "eli": 593,
      "▁dik": 594,
      "▁oyn": 595,
      "üks": 596,
      "ven": 597,
      "▁istem": 598,
      "lerine": 599,
      "▁hay": 600,
      "▁düşün": 601,
      "▁şek": 602,
      "▁ay": 603,
      "▁hissetti": 604,
      "laştı": 605,
      "▁salladı": 606,
      "▁olma": 607,
      "eb": 608,
      "▁teşekkür": 609,
      "▁sö": 610,
      "arak": 611,
      "yun": 612,
      "ack": 613,
      "▁anne": 614,
      "▁çalıştı": 615,
      "▁or": 616,
      "▁şeyler": 617,
      "▁gü": 618,
      "medi": 619,
      "▁yaptı": 620,
      "mız": 621,
      "urur": 622,
      "▁sarıldı": 623,
      "▁araba": 624,
      "at": 625,
      "▁dikkat": 626,
      "▁ku": 627,
      "▁özel": 628,
      "vr": 629,
      "▁ağ": 630,
      "ap": 631,
      "▁yapa": 632,
      "ça": 633,
      "yır": 634,
      "üş": 635,
      "iden": 636,
      "ia": 637,
      "▁çıktı": 638,
      "Büyük": 639,
      "Sa": 640,
      "larına": 641,
      "dılar": 642,
      "ot": 643,
      "▁adam": 644,
      "▁oynamak": 645,
      "Ne": 646,
      "ğu": 647,
      "sun": 648,
      "▁dev": 649,
      "ıyordu": 650,
      "san": 651,
      "Anne": 652,
      "▁etraf": 653,
      "▁alı": 654,
      "üt": 655,
      "▁eve": 656,
      "cer": 657,
      "▁gurur": 658,
      "▁hız": 659,
      "ıs": 660,
      "▁kır": 661,
      "Daha": 662,
      "▁ben": 663,
      "ğında": 664,
      "▁bahç": 665,
      "▁yüks": 666,
      "tur": 667,
      "▁ede": 668,
      "Mia": 669,
      "Onu": 670,
      "▁din": 671,
      "▁kaldı": 672,
      "lım": 673,
      "celi": 674,
      "▁ön": 675,
      "▁tak": 676,
      "ob": 677,
      "▁iş": 678,
      "▁biliyordu": 679,
      "bilece": 680,
      "▁kon": 681,
      "▁kendini": 682,
      "mıştı": 683,
      "▁den": 684,
      "rada": 685,
      "şan": 686,
      "lamaya": 687,
      "fet": 688,
      "▁düşündü": 689,
      "Sara": 690,
      "▁tut": 691,
      "!\"\n\n": 692,
      "una": 693,
      "▁dur": 694,
      "eği": 695,
      "▁yaş": 696,
      "▁kul": 697,
      "arkta": 698,
      "▁tekrar": 699,
      "▁devam": 700,
      "▁sevdi": 701,
      "cağı": 702,
      "!\n\n": 703,
      "▁eder": 704,
      "erak": 705,
      "çok": 706,
      "Evet": 707,
      "ının": 708,
      "larla": 709,
      "iye": 710,
      "▁il": 711,
      "kes": 712,
      "ünde": 713,
      "uyordu": 714,
      "manın": 715,
      "yorum": 716,
      "Aniden": 717,
      "?\"\n\n": 718,
      "ım": 719,
      "▁şekil": 720,
      "dir": 721,
      "▁bo": 722,
      "iyorum": 723,
      "▁kal": 724,
      "vşan": 725,
      "▁n": 726,
      "▁kur": 727,
      "ğer": 728,
      "isi": 729,
      "us": 730,
      "▁güven": 731,
      "oh": 732,
      "▁sah": 733,
      "▁fik": 734,
      "üyor": 735,
      "▁üzgündü": 736,
      "▁ak": 737,
      "Sam": 738,
      "▁as": 739,
      "▁bağ": 740,
      "▁oda": 741,
      "Kö": 742,
      "▁heyecanlıydı": 743,
      "▁keş": 744,
      "indi": 745,
      "▁köpek": 746,
      "El": 747,
      "▁hoş": 748,
      "tiğini": 749,
      "ırak": 750,
      "▁anla": 751,
      "▁kutu": 752,
      "▁payla": 753,
      "▁olan": 754,
      "ele": 755,
      "zik": 756,
      "emiz": 757,
      "▁etmek": 758,
      "▁eğlenceli": 759,
      "düler": 760,
      "dece": 761,
      "ttı": 762,
      "sıl": 763,
      "▁Sam": 764,
      "▁çek": 765,
      "▁başını": 766,
      "▁hayvan": 767,
      "▁diyor": 768,
      "esine": 769,
      "▁sak": 770,
      "Ancak": 771,
      "▁parlak": 772,
      "yüz": 773,
      "sında": 774,
      "▁hiç": 775,
      "▁koydu": 776,
      "sta": 777,
      "sini": 778,
      "▁dikkatli": 779,
      "ğinde": 780,
      "uyor": 781,
      "endiler": 782,
      "▁miy": 783,
      "masını": 784,
      "▁gördüler": 785,
      "fa": 786,
      "▁L": 787,
      "▁bırak": 788,
      "ıldı": 789,
      "▁oynaya": 790,
      "mızı": 791,
      "ga": 792,
      "mam": 793,
      "▁der": 794,
      "Ya": 795,
      "▁ik": 796,
      "▁edi": 797,
      "▁duyu": 798,
      "tür": 799,
      "kyüz": 800,
      "▁can": 801,
      "▁nazik": 802,
      "azla": 803,
      "▁yüksek": 804,
      "isin": 805,
      "dur": 806,
      "etli": 807,
      "mesini": 808,
      "ohn": 809,
      "▁yara": 810,
      "▁olduğu": 811,
      "▁ra": 812,
      "▁harika": 813,
      "▁onları": 814,
      "▁görün": 815,
      "▁fazla": 816,
      "içek": 817,
      "▁yol": 818,
      "rak": 819,
      "▁günden": 820,
      "▁şekilde": 821,
      "tir": 822,
      "uc": 823,
      "iyorlardı": 824,
      "▁götür": 825,
      "öylece": 826,
      "▁yüzden": 827,
      "ğın": 828,
      "▁önce": 829,
      "laş": 830,
      "▁kay": 831,
      "▁yere": 832,
      "arkı": 833,
      "▁otur": 834,
      "▁parkta": 835,
      "muştu": 836,
      "Onlar": 837,
      "esur": 838,
      "▁B": 839,
      "ması": 840,
      "▁annesine": 841,
      "▁bit": 842,
      "▁görünü": 843,
      "▁uzak": 844,
      "▁alıp": 845,
      "▁sık": 846,
      "▁gerektiğini": 847,
      "se": 848,
      "lıyor": 849,
      "ucy": 850,
      "▁yok": 851,
      "▁Max": 852,
      "ecek": 853,
      "Oyun": 854,
      "Arkadaş": 855,
      "ane": 856,
      "▁yu": 857,
      "lim": 858,
      "andı": 859,
      "▁kötü": 860,
      "bileceğini": 861,
      "▁ren": 862,
      "ny": 863,
      "▁çıkardı": 864,
      "Hadi": 865,
      "Gö": 866,
      "▁ederim": 867,
      "if": 868,
      "▁yanına": 869,
      "▁göz": 870,
      "▁bunu": 871,
      "zz": 872,
      "Annes": 873,
      "lem": 874,
      "▁ayı": 875,
      "arken": 876,
      "ku": 877,
      "ğunu": 878,
      "▁arkadaşı": 879,
      "▁haz": 880,
      "ay": 881,
      "aret": 882,
      "▁Tim": 883,
      "▁hissedi": 884,
      "erç": 885,
      "layı": 886,
      "▁döndü": 887,
      "erha": 888,
      "erhaba": 889,
      "▁nasıl": 890,
      "ğına": 891,
      "Ve": 892,
      "▁zor": 893,
      "Kuş": 894,
      "▁içinde": 895,
      "▁üzerine": 896,
      "var": 897,
      "ğim": 898,
      "▁merak": 899,
      "▁keşfet": 900,
      "hat": 901,
      "▁başka": 902,
      "▁ağaç": 903,
      "▁misin": 904,
      "meden": 905,
      "▁get": 906,
      "▁bilm": 907,
      "▁parka": 908,
      "bilirsin": 909,
      "mişti": 910,
      "▁ıs": 911,
      "eç": 912,
      "▁söy": 913,
      "▁açtı": 914,
      "▁birbir": 915,
      "Ona": 916,
      "Böylece": 917,
      "maz": 918,
      "sız": 919,
      "▁olmak": 920,
      "kü": 921,
      "▁artık": 922,
      "ütün": 923,
      "▁bunun": 924,
      "larında": 925,
      "zzetli": 926,
      "Jack": 927,
      "▁ail": 928,
      "Gün": 929,
      "biliriz": 930,
      "▁kedi": 931,
      "cera": 932,
      "ez": 933,
      "▁yerde": 934,
      "▁onlara": 935,
      "▁olmadı": 936,
      "lerin": 937,
      "▁orman": 938,
      "ed": 939,
      "▁yaka": 940,
      "▁beb": 941,
      "▁üzerinde": 942,
      "yr": 943,
      "▁süre": 944,
      "Sen": 945,
      "zı": 946,
      "▁ettiler": 947,
      "▁hızlı": 948,
      "▁kullan": 949,
      "Köp": 950,
      "erçek": 951,
      "laya": 952,
      "▁temiz": 953,
      "▁le": 954,
      "Hayır": 955,
      "▁tüm": 956,
      "▁karşı": 957,
      "▁res": 958,
      "▁cesur": 959,
      "▁bek": 960,
      "gi": 961,
      "ila": 962,
      "▁içeri": 963,
      "bar": 964,
      "▁gökyüz": 965,
      "anın": 966,
      "▁birçok": 967,
      "Artık": 968,
      "ren": 969,
      "ans": 970,
      "▁düşünü": 971,
      "▁ala": 972,
      "bam": 973,
      "▁oynamaya": 974,
      "▁bula": 975,
      "▁davr": 976,
      "▁yakın": 977,
      "▁benim": 978,
      "▁kaç": 979,
      "Su": 980,
      "▁onunla": 981,
      "pot": 982,
      "▁uzun": 983,
      "▁göster": 984,
      "▁şarkı": 985,
      "▁yürü": 986,
      "lardı": 987,
      "▁önem": 988,
      "▁kı": 989,
      "▁macera": 990,
      "▁çiçek": 991,
      "▁görmek": 992,
      "▁şeyi": 993,
      "▁değildi": 994,
      "masına": 995,
      "Oyuncak": 996,
      "▁gittiler": 997,
      "elki": 998,
      "let": 999,
      "▁heyecanlandı": 1000,
      "▁etmeye": 1001,
      "ola": 1002,
      "▁dok": 1003,
      "▁hatır": 1004,
      "▁Sara": 1005,
      "▁tat": 1006,
      "▁es": 1007,
      "▁babası": 1008,
      "bet": 1009,
      "şağı": 1010,
      "▁oynadılar": 1011,
      "vi": 1012,
      "▁güneş": 1013,
      "▁istemedi": 1014,
      "eket": 1015,
      "aş": 1016,
      "ünkü": 1017,
      "▁bağırdı": 1018,
      "ri": 1019,
      "▁sağ": 1020,
      "▁kita": 1021,
      "▁tır": 1022,
      "▁çiz": 1023,
      "▁lezzetli": 1024,
      "▁iki": 1025,
      "▁Jack": 1026,
      "▁tavşan": 1027,
      "▁üzül": 1028,
      "▁haya": 1029,
      "▁gösterdi": 1030,
      "▁un": 1031,
      "Üz": 1032,
      "Kız": 1033,
      "Gül": 1034,
      "ci": 1035,
      "▁güç": 1036,
      "▁duyuyordu": 1037,
      "gın": 1038,
      "mem": 1039,
      "Merhaba": 1040,
      "epsi": 1041,
      "siz": 1042,
      "▁alt": 1043,
      "Sonunda": 1044,
      "deş": 1045,
      "▁Mia": 1046,
      "▁yemek": 1047,
      "ve": 1048,
      "▁so": 1049,
      "tiya": 1050,
      "John": 1051,
      "▁geli": 1052,
      "▁fır": 1053,
      "Bak": 1054,
      "▁yaşa": 1055,
      "vaş": 1056,
      "▁rahat": 1057,
      "▁sıcak": 1058,
      "▁yapmak": 1059,
      "▁verdiler": 1060,
      "▁kapı": 1061,
      "Sonra": 1062,
      "▁seven": 1063,
      "▁asla": 1064,
      "▁öğrendi": 1065,
      "Teşekkür": 1066,
      "▁dışarıda": 1067,
      "▁önemli": 1068,
      "ene": 1069,
      "▁hava": 1070,
      "▁oynu": 1071,
      "Bunun": 1072,
      "▁insan": 1073,
      "Çocuk": 1074,
      "lerinde": 1075,
      "▁hav": 1076,
      "nı": 1077,
      "al": 1078,
      "üp": 1079,
      "▁atı": 1080,
      "Belki": 1081,
      "▁çıkar": 1082,
      "htiya": 1083,
      "▁kes": 1084,
      "▁yiye": 1085,
      "▁ister": 1086,
      "▁geçmeden": 1087,
      "▁sevdiği": 1088,
      "▁söylü": 1089,
      "ğin": 1090,
      "▁arka": 1091,
      "▁çünkü": 1092,
      "▁M": 1093,
      "▁kaz": 1094,
      "▁herkes": 1095,
      "▁renk": 1096,
      "▁duy": 1097,
      "▁fikir": 1098,
      "ğm": 1099,
      "▁iti": 1100,
      "İç": 1101,
      "▁diğer": 1102,
      "nın": 1103,
      "caman": 1104,
      "▁şaş": 1105,
      "malı": 1106,
      "▁hareket": 1107,
      "fen": 1108,
      "üne": 1109,
      "▁sab": 1110,
      "üyorlar": 1111,
      "bildi": 1112,
      "ef": 1113,
      "▁konuş": 1114,
      "▁sevindi": 1115,
      "▁Anna": 1116,
      "larının": 1117,
      "▁ed": 1118,
      "▁annem": 1119,
      "▁karış": 1120,
      "▁eğlendiler": 1121,
      "eğe": 1122,
      "▁dinle": 1123,
      "▁dolu": 1124,
      "▁söz": 1125,
      "▁büy": 1126,
      "▁gidi": 1127,
      "▁aşağı": 1128,
      "▁cev": 1129,
      "▁miyim": 1130,
      "onu": 1131,
      "Birlikte": 1132,
      "▁güvende": 1133,
      "lere": 1134,
      "▁paylaş": 1135,
      "ert": 1136,
      "▁geçirdi": 1137,
      "dy": 1138,
      "Ara": 1139,
      "mesi": 1140,
      "ındaki": 1141,
      "▁çalış": 1142,
      "▁gerçek": 1143,
      "▁istiyorum": 1144,
      "▁ihtiya": 1145,
      "layıp": 1146,
      "Tamam": 1147,
      "sının": 1148,
      "▁tırman": 1149,
      "▁unut": 1150,
      "ah": 1151,
      "bı": 1152,
      "leriyle": 1153,
      "nun": 1154,
      "▁uçtu": 1155,
      "suz": 1156,
      "eti": 1157,
      "▁güldü": 1158,
      "iyorlar": 1159,
      "ıyorlar": 1160,
      "▁parça": 1161,
      "Bil": 1162,
      "▁öğren": 1163,
      "Bunu": 1164,
      "ladılar": 1165,
      "cağım": 1166,
      "▁annesinin": 1167,
      "▁uy": 1168,
      "▁olmadığını": 1169,
      "▁izledi": 1170,
      "▁kardeş": 1171,
      "Onun": 1172,
      "▁neden": 1173,
      "▁bilmiyordu": 1174,
      "bis": 1175,
      "oe": 1176,
      "▁kocaman": 1177,
      "lamak": 1178,
      "▁seviyor": 1179,
      "Adam": 1180,
      "▁görünüyordu": 1181,
      "baren": 1182,
      "▁itibaren": 1183,
      "emb": 1184,
      "▁oldular": 1185,
      "▁um": 1186,
      "▁takip": 1187,
      "▁korkmuştu": 1188,
      "▁ek": 1189,
      "Seni": 1190,
      "raya": 1191,
      "izi": 1192,
      "▁kırmızı": 1193,
      "ürül": 1194,
      "Baba": 1195,
      "▁sin": 1196,
      "tak": 1197,
      "▁vak": 1198,
      "▁gide": 1199,
      "▁cevap": 1200,
      ".\n": 1201,
      "oz": 1202,
      "kaç": 1203,
      "▁gir": 1204,
      "▁aynı": 1205,
      "İk": 1206,
      "cın": 1207,
      "▁bö": 1208,
      "ift": 1209,
      "nız": 1210,
      "▁sabır": 1211,
      "encer": 1212,
      "▁seviyorum": 1213,
      "umuş": 1214,
      "▁seviyorlardı": 1215,
      "erler": 1216,
      "eden": 1217,
      "▁yürüy": 1218,
      "▁hissediyordu": 1219,
      "sine": 1220,
      "len": 1221,
      "▁ormanda": 1222,
      "▁bal": 1223,
      "tar": 1224,
      "Par": 1225,
      "Köpek": 1226,
      "▁arkadaşlarıyla": 1227,
      "▁korktu": 1228,
      "zen": 1229,
      "şıyordu": 1230,
      "▁zıp": 1231,
      "Vay": 1232,
      "▁bahçede": 1233,
      "uk": 1234,
      "▁istiyor": 1235,
      "Güneş": 1236,
      "▁kim": 1237,
      "dır": 1238,
      "undan": 1239,
      "▁sahip": 1240,
      "ize": 1241,
      "öz": 1242,
      "umuşak": 1243,
      "Mut": 1244,
      "▁yedi": 1245,
      "▁orta": 1246,
      "kuş": 1247,
      "▁bile": 1248,
      "bağa": 1249,
      "▁ör": 1250,
      "▁düştü": 1251,
      "lnız": 1252,
      "lerdi": 1253,
      "▁getir": 1254,
      "Kar": 1255,
      "imdi": 1256,
      "yarak": 1257,
      "Herkes": 1258,
      "Öz": 1259,
      "▁hazır": 1260,
      "▁ış": 1261,
      "▁almak": 1262,
      "▁beğ": 1263,
      "tik": 1264,
      "Yeni": 1265,
      "▁arkadaşları": 1266,
      "lerim": 1267,
      "meli": 1268,
      "klarını": 1269,
      "lamayı": 1270,
      "ete": 1271,
      "▁hayal": 1272,
      "▁davran": 1273,
      "▁hoşlan": 1274,
      "▁yavaş": 1275,
      "sından": 1276,
      "Bob": 1277,
      "Tek": 1278,
      "hir": 1279,
      "dını": 1280,
      "lok": 1281,
      "pr": 1282,
      "▁veda": 1283,
      "rabi": 1284,
      "eleb": 1285,
      "menin": 1286,
      "▁sonunda": 1287,
      "ıca": 1288,
      "▁kitap": 1289,
      "▁yı": 1290,
      "▁veri": 1291,
      "düğ": 1292,
      "ğaz": 1293,
      "orun": 1294,
      "▁tuttu": 1295,
      "▁tan": 1296,
      "leş": 1297,
      "bol": 1298,
      "▁para": 1299,
      "olly": 1300,
      "lerinin": 1301,
      "▁kab": 1302,
      "▁hem": 1303,
      "âl": 1304,
      "âlâ": 1305,
      "ğmur": 1306,
      "▁kom": 1307,
      "▁elbis": 1308,
      "Baş": 1309,
      "lardan": 1310,
      "tal": 1311,
      "lıyordu": 1312,
      "rt": 1313,
      "▁orada": 1314,
      "Pa": 1315,
      "▁Lucy": 1316,
      "ceğini": 1317,
      "▁san": 1318,
      "▁gürül": 1319,
      "İyi": 1320,
      "Onlara": 1321,
      "tın": 1322,
      "▁kok": 1323,
      "isy": 1324,
      "▁oku": 1325,
      "▁dal": 1326,
      "eğin": 1327,
      "▁dokun": 1328,
      "esinde": 1329,
      "▁gece": 1330,
      "▁dans": 1331,
      "▁kaldır": 1332,
      "▁yürüyüş": 1333,
      "Eve": 1334,
      "▁yaşlı": 1335,
      "üc": 1336,
      "çe": 1337,
      "▁zar": 1338,
      "usu": 1339,
      "▁kamy": 1340,
      "mesine": 1341,
      "▁girdi": 1342,
      "▁oynadı": 1343,
      "lığı": 1344,
      "▁balık": 1345,
      "klarında": 1346,
      "Em": 1347,
      "Et": 1348,
      "Annesine": 1349,
      "▁sadece": 1350,
      "Kendi": 1351,
      "Gülüms": 1352,
      "▁başladılar": 1353,
      "▁zorunda": 1354,
      "▁oynuyorlardı": 1355,
      "▁atladı": 1356,
      "iniz": 1357,
      "▁gülümsem": 1358,
      "▁yanında": 1359,
      "eyle": 1360,
      "apka": 1361,
      "ildi": 1362,
      "▁mey": 1363,
      "Araba": 1364,
      "▁attı": 1365,
      "▁resim": 1366,
      "Sadece": 1367,
      "Lucy": 1368,
      "▁hiçbir": 1369,
      "anta": 1370,
      "▁izin": 1371,
      "Üzgün": 1372,
      "▁güçlü": 1373,
      "ğaza": 1374,
      "Onları": 1375,
      "üyordu": 1376,
      "Ah": 1377,
      "▁etrafında": 1378,
      "▁geldiğini": 1379,
      "▁kol": 1380,
      "inç": 1381,
      "▁denem": 1382,
      "▁la": 1383,
      "▁farklı": 1384,
      "Top": 1385,
      "pa": 1386,
      "▁tep": 1387,
      "▁yiyecek": 1388,
      "▁yavr": 1389,
      "▁çı": 1390,
      "bilecek": 1391,
      "anat": 1392,
      "Bütün": 1393,
      "Etraf": 1394,
      "▁çocu": 1395,
      "▁miyiz": 1396,
      "siniz": 1397,
      "▁mem": 1398,
      "ıllı": 1399,
      "▁arkadaşlar": 1400,
      "▁ile": 1401,
      "kları": 1402,
      "lendi": 1403,
      "Biraz": 1404,
      "▁görünce": 1405,
      "rabiye": 1406,
      "▁diledi": 1407,
      "▁yaz": 1408,
      "▁hızla": 1409,
      "▁yalnız": 1410,
      "erin": 1411,
      "arış": 1412,
      "▁gidip": 1413,
      "▁yapmaya": 1414,
      "ünya": 1415,
      "▁Su": 1416,
      "▁nef": 1417,
      "min": 1418,
      "▁durdu": 1419,
      "Sal": 1420,
      "▁bebek": 1421,
      "endiş": 1422,
      "▁oynarken": 1423,
      "ge": 1424,
      "uyorlar": 1425,
      "▁eş": 1426,
      "Kendini": 1427,
      "ındaydı": 1428,
      "▁mu": 1429,
      "▁bazı": 1430,
      "▁kızgın": 1431,
      "▁yor": 1432,
      "▁senin": 1433,
      "▁ilg": 1434,
      "▁hâlâ": 1435,
      "▁A": 1436,
      "▁andan": 1437,
      "▁izle": 1438,
      "▁canlı": 1439,
      "ınca": 1440,
      "Daisy": 1441,
      "▁götürdü": 1442,
      "▁olmayı": 1443,
      "Tavşan": 1444,
      "▁si": 1445,
      "ğine": 1446,
      "ebilir": 1447,
      "▁tam": 1448,
      "Ağa": 1449,
      "▁T": 1450,
      "üs": 1451,
      "▁tu": 1452,
      "▁fikri": 1453,
      "▁ban": 1454,
      "lüt": 1455,
      "▁birbirlerine": 1456,
      "▁hayr": 1457,
      "ından": 1458,
      "▁endiş": 1459,
      "▁söylüyor": 1460,
      "gar": 1461,
      "yon": 1462,
      "▁bıraktı": 1463,
      "ili": 1464,
      "Uz": 1465,
      "are": 1466,
      "Birbir": 1467,
      "▁hika": 1468,
      "▁baktılar": 1469,
      "ff": 1470,
      "▁kaydı": 1471,
      "İkisi": 1472,
      "kleri": 1473,
      "▁memnun": 1474,
      "▁sabırsız": 1475,
      "▁evine": 1476,
      "ver": 1477,
      "eh": 1478,
      "▁görüyor": 1479,
      "▁tadını": 1480,
      "müş": 1481,
      "▁topu": 1482,
      "▁kaçtı": 1483,
      "▁etmeyi": 1484,
      "▁söylediler": 1485,
      "▁ner": 1486,
      "▁yapmayı": 1487,
      "▁yapıyor": 1488,
      "▁ihtiyacı": 1489,
      "larak": 1490,
      "Ayr": 1491,
      "lerle": 1492,
      "▁pasta": 1493,
      "▁gökyüzünde": 1494,
      "▁hak": 1495,
      "klerini": 1496,
      "lama": 1497,
      "Mutlu": 1498,
      "Spot": 1499,
      "ere": 1500,
      "▁yanı": 1501,
      "Kork": 1502,
      "▁ok": 1503,
      "Sorun": 1504,
      "▁kova": 1505,
      "▁be": 1506,
      "▁etme": 1507,
      "▁yardımcı": 1508,
      "▁sef": 1509,
      "Lila": 1510,
      "bah": 1511,
      "▁tatlı": 1512,
      "şi": 1513,
      "▁kor": 1514,
      "Dış": 1515,
      "▁şeyleri": 1516,
      "▁tar": 1517,
      "Merak": 1518,
      "daki": 1519,
      "ill": 1520,
      "ıldız": 1521,
      "▁ediyordu": 1522,
      "▁Bob": 1523,
      "Dışarı": 1524,
      "▁çar": 1525,
      "▁yine": 1526,
      "gun": 1527,
      "şam": 1528,
      "▁babam": 1529,
      "▁boya": 1530,
      "luk": 1531,
      "tr": 1532,
      "▁ediyor": 1533,
      "▁yürüyüşe": 1534,
      "▁ikisi": 1535,
      "Ku": 1536,
      "▁iy": 1537,
      "▁istediler": 1538,
      "▁ağaca": 1539,
      "▁özür": 1540,
      "▁üç": 1541,
      "ondur": 1542,
      "▁kabul": 1543,
      "Baz": 1544,
      "▁çıkıp": 1545,
      "oğ": 1546,
      "▁ayak": 1547,
      "▁yumuşak": 1548,
      "▁bulmak": 1549,
      "En": 1550,
      "lana": 1551,
      "anne": 1552,
      "▁taşı": 1553,
      "attı": 1554,
      "▁kendisi": 1555,
      "lına": 1556,
      "ğe": 1557,
      "ptal": 1558,
      "▁kah": 1559,
      "▁mi": 1560,
      "▁gider": 1561,
      "lıp": 1562,
      "▁koy": 1563,
      "▁koşup": 1564,
      "▁yeniden": 1565,
      "▁hep": 1566,
      "▁hayır": 1567,
      "▁sürpr": 1568,
      "▁ders": 1569,
      "▁pek": 1570,
      "ştır": 1571,
      "▁giy": 1572,
      "▁mavi": 1573,
      "▁min": 1574,
      "tor": 1575,
      "isik": 1576,
      "▁kaya": 1577,
      "dek": 1578,
      "▁etrafına": 1579,
      "lütfen": 1580,
      "▁dol": 1581,
      "net": 1582,
      "madan": 1583,
      "▁oyuncaklarıyla": 1584,
      "Ayrıca": 1585,
      "▁annesiyle": 1586,
      "▁uçup": 1587,
      "▁gitmek": 1588,
      "▁çim": 1589,
      "▁saç": 1590,
      "rens": 1591,
      "eng": 1592,
      "tladı": 1593,
      "haf": 1594,
      "▁işaret": 1595,
      "şlı": 1596,
      "bilirim": 1597,
      "Sana": 1598,
      "▁vakit": 1599,
      "▁hatırladı": 1600,
      "▁Sue": 1601,
      "▁zamanı": 1602,
      "eydi": 1603,
      "ban": 1604,
      "▁meyve": 1605,
      "▁sıç": 1606,
      "▁keleb": 1607,
      "▁bütün": 1608,
      "Yak": 1609,
      "▁ağacın": 1610,
      "▁görür": 1611,
      "▁komik": 1612,
      "▁buldular": 1613,
      "opa": 1614,
      "▁severler": 1615,
      "▁piş": 1616,
      "za": 1617,
      "▁üzüldü": 1618,
      "▁tara": 1619,
      "os": 1620,
      "▁dünya": 1621,
      "▁seç": 1622,
      "▁şapka": 1623,
      "iydi": 1624,
      "▁karıştır": 1625,
      "kı": 1626,
      "Kap": 1627,
      "ptı": 1628,
      "ırmızı": 1629,
      "Benim": 1630,
      "▁aklına": 1631,
      "▁katı": 1632,
      "lıyorlar": 1633,
      "kin": 1634,
      "▁ailesi": 1635,
      "enç": 1636,
      "▁say": 1637,
      "▁çanta": 1638,
      "▁mı": 1639,
      "ör": 1640,
      "▁bana": 1641,
      "▁canlısı": 1642,
      "lıkla": 1643,
      "Eğl": 1644,
      "▁sert": 1645,
      "Kedi": 1646,
      "Ağ": 1647,
      "▁gerçekten": 1648,
      "men": 1649,
      "usunda": 1650,
      "▁koştular": 1651,
      "lam": 1652,
      "▁kağı": 1653,
      "▁bulu": 1654,
      "İçeri": 1655,
      "ile": 1656,
      "kan": 1657,
      "▁ip": 1658,
      "caklarını": 1659,
      "▁konusunda": 1660,
      "lanıyordu": 1661,
      "▁akıllı": 1662,
      "▁Sarah": 1663,
      "▁yerine": 1664,
      "▁kurabiye": 1665,
      "sen": 1666,
      "üydü": 1667,
      "eğini": 1668,
      "▁bulamadı": 1669,
      "▁sıçra": 1670,
      "▁uzaklaştı": 1671,
      "▁zamanda": 1672,
      "Har": 1673,
      "dediler": 1674,
      "▁kalem": 1675,
      "üst": 1676,
      "ıştı": 1677,
      "▁çıkarı": 1678,
      "▁zarar": 1679,
      "larından": 1680,
      "▁kav": 1681,
      "▁getirdi": 1682,
      "▁oynuyordu": 1683,
      "▁göre": 1684,
      "▁yaşıyordu": 1685,
      "▁sana": 1686,
      "▁ağladı": 1687,
      "▁çocuklar": 1688,
      "▁anlattı": 1689,
      "bette": 1690,
      "ürken": 1691,
      "iyaret": 1692,
      "ülü": 1693,
      "▁şeyin": 1694,
      "Ayı": 1695,
      "Tommy": 1696,
      "Özür": 1697,
      "Sue": 1698,
      "▁yaklaştı": 1699,
      "▁açık": 1700,
      "▁sarıldılar": 1701,
      "▁yaşındaydı": 1702,
      "Senin": 1703,
      "▁gid": 1704,
      "▁mağaza": 1705,
      "Neden": 1706,
      "Hepsi": 1707,
      "▁dilerim": 1708,
      "▁acı": 1709,
      "▁eski": 1710,
      "amur": 1711,
      "▁kir": 1712,
      "▁çift": 1713,
      "▁hedi": 1714,
      "▁olmalı": 1715,
      "▁minnet": 1716,
      "▁gördüğ": 1717,
      "val": 1718,
      "izim": 1719,
      "▁öğret": 1720,
      "▁yıldız": 1721,
      "▁yaprak": 1722,
      "karı": 1723,
      "▁kamyon": 1724,
      "Bun": 1725,
      "yna": 1726,
      "▁ut": 1727,
      "embe": 1728,
      "▁geldiğinde": 1729,
      "▁hal": 1730,
      "eyaz": 1731,
      "ceğim": 1732,
      "▁istemiyordu": 1733,
      "kış": 1734,
      "Şimdi": 1735,
      "Jane": 1736,
      "Beb": 1737,
      "▁saat": 1738,
      "▁tuhaf": 1739,
      "▁ziyaret": 1740,
      "eyen": 1741,
      "▁blok": 1742,
      "ğun": 1743,
      "▁güldüler": 1744,
      "▁bin": 1745,
      "▁aradı": 1746,
      "▁P": 1747,
      "▁adı": 1748,
      "lış": 1749,
      "▁bulun": 1750,
      "▁ağlamaya": 1751,
      "mel": 1752,
      "▁Spot": 1753,
      "ğuk": 1754,
      "▁kullandı": 1755,
      "eşil": 1756,
      "imdiye": 1757,
      "eyn": 1758,
      "bildiği": 1759,
      "uç": 1760,
      "▁yağmur": 1761,
      "suza": 1762,
      "▁altında": 1763,
      "Ert": 1764,
      "Ertesi": 1765,
      "▁John": 1766,
      "▁seni": 1767,
      "▁dost": 1768,
      "▁yata": 1769,
      "▁düşünüyor": 1770,
      "ırken": 1771,
      "▁sesle": 1772,
      "▁yemeği": 1773,
      "▁giz": 1774,
      "▁ayr": 1775,
      "▁vardıklarında": 1776,
      "▁hepsi": 1777,
      "tardı": 1778,
      "ükem": 1779,
      "ley": 1780,
      "▁yoktu": 1781,
      "▁yaptılar": 1782,
      "ükemmel": 1783,
      "illy": 1784,
      "▁kale": 1785,
      "▁evde": 1786,
      "▁etrafta": 1787,
      "▁sahi": 1788,
      "▁evet": 1789,
      "▁sürü": 1790,
      "▁taş": 1791,
      "ie": 1792,
      "▁aptal": 1793,
      "▁almaya": 1794,
      "çı": 1795,
      "ram": 1796,
      "cağına": 1797,
      "▁gitme": 1798,
      "▁kuyr": 1799,
      "▁oyuncağı": 1800,
      "▁hikaye": 1801,
      "▁it": 1802,
      "Gülümsedi": 1803,
      "▁olacağını": 1804,
      "lerinden": 1805,
      "▁yanıtladı": 1806,
      "ttan": 1807,
      "ehlik": 1808,
      "biliyordu": 1809,
      "▁olmanın": 1810,
      "▁ait": 1811,
      "▁birkaç": 1812,
      "▁F": 1813,
      "▁gelip": 1814,
      "arlar": 1815,
      "▁göstermek": 1816,
      "▁olur": 1817,
      "▁görüyorlar": 1818,
      "▁yapacağını": 1819,
      "▁kum": 1820,
      "▁odasına": 1821,
      "annes": 1822,
      "▁olarak": 1823,
      "Yap": 1824,
      "Di": 1825,
      "Yaşlı": 1826,
      "▁geçirdiler": 1827,
      "▁eğleni": 1828,
      "▁yuvar": 1829,
      "id": 1830,
      "▁iler": 1831,
      "▁kaybet": 1832,
      "▁eğlendi": 1833,
      "▁oturdu": 1834,
      "▁yarış": 1835,
      "yip": 1836,
      "akta": 1837,
      "urt": 1838,
      "▁sıra": 1839,
      "tiği": 1840,
      "Bay": 1841,
      "▁keşfetmeyi": 1842,
      "düğünü": 1843,
      "ikay": 1844,
      "Sarah": 1845,
      "▁sopa": 1846,
      "▁yukarı": 1847,
      "▁sabah": 1848,
      "▁yürüdü": 1849,
      "Gü": 1850,
      "Güzel": 1851,
      "aka": 1852,
      "▁sıkı": 1853,
      "İn": 1854,
      "Parkta": 1855,
      "▁olmaya": 1856,
      "▁gerekiyor": 1857,
      "▁benz": 1858,
      "▁çal": 1859,
      "ğlık": 1860,
      "▁tamir": 1861,
      "▁emin": 1862,
      "Elbette": 1863,
      "▁R": 1864,
      "anlık": 1865,
      "▁kapıyı": 1866,
      "▁pencer": 1867,
      "▁alkış": 1868,
      "▁kendisine": 1869,
      "▁bekledi": 1870,
      "▁arkadaşlarına": 1871,
      "İş": 1872,
      "endine": 1873,
      "▁sonsuza": 1874,
      "▁dondur": 1875,
      "liydi": 1876,
      "sınız": 1877,
      "▁günün": 1878,
      "ıncak": 1879,
      "▁kan": 1880,
      "elim": 1881,
      "▁kaybol": 1882,
      "cap": 1883,
      "uldu": 1884,
      "yafet": 1885,
      "▁Jane": 1886,
      "▁düşünüyordu": 1887,
      "ita": 1888,
      "vet": 1889,
      "▁olacak": 1890,
      "▁geçir": 1891,
      "▁görünüyor": 1892,
      "▁beğendi": 1893,
      "cil": 1894,
      "▁çıktılar": 1895,
      "Joe": 1896,
      "ro": 1897,
      "Git": 1898,
      "ilki": 1899,
      "▁yaptığını": 1900,
      "oli": 1901,
      "▁bas": 1902,
      "liyordu": 1903,
      "erken": 1904,
      "elen": 1905,
      "▁aldılar": 1906,
      "mi": 1907,
      "bileceği": 1908,
      "▁uyu": 1909,
      "▁bisik": 1910,
      "▁güvenli": 1911,
      "▁geçti": 1912,
      "yaş": 1913,
      "▁giderek": 1914,
      "ym": 1915,
      "Babası": 1916,
      "▁kırık": 1917,
      "Sı": 1918,
      "▁hemen": 1919,
      "lay": 1920,
      "▁uyan": 1921,
      "▁olduklarını": 1922,
      "▁günü": 1923,
      "▁göl": 1924,
      "Annesinin": 1925,
      "tta": 1926,
      "su": 1927,
      "▁bah": 1928,
      "▁mak": 1929,
      "Uzun": 1930,
      "▁sürpriz": 1931,
      "Tekrar": 1932,
      "▁içine": 1933,
      "lemek": 1934,
      "Diğer": 1935,
      "▁şaşır": 1936,
      "eyif": 1937,
      "malısın": 1938,
      "▁çekti": 1939,
      "Bahç": 1940,
      "lie": 1941,
      "▁biri": 1942,
      "yo": 1943,
      "katli": 1944,
      "▁elini": 1945,
      "▁sinir": 1946,
      "▁hale": 1947,
      "▁keyif": 1948,
      "▁edip": 1949,
      "▁kas": 1950,
      "Jim": 1951,
      "miyordu": 1952,
      "ütfen": 1953,
      "Lütfen": 1954,
      "ht": 1955,
      "▁gez": 1956,
      "jder": 1957,
      "utucu": 1958,
      "maları": 1959,
      "Babam": 1960,
      "▁park": 1961,
      "▁oyuncaklarını": 1962,
      "emeye": 1963,
      "çi": 1964,
      "kabı": 1965,
      "Yan": 1966,
      "▁şaşırdı": 1967,
      "▁aniden": 1968,
      "▁fil": 1969,
      "▁kafa": 1970,
      "▁sır": 1971,
      "ğle": 1972,
      "Yardım": 1973,
      "▁böcek": 1974,
      "kten": 1975,
      "▁ken": 1976,
      "▁kavga": 1977,
      "▁şeker": 1978,
      "Or": 1979,
      "▁neş": 1980,
      "▁müz": 1981,
      "▁deniz": 1982,
      "▁tele": 1983,
      "▁kendisiyle": 1984,
      "olu": 1985,
      "Molly": 1986,
      "▁yavrusu": 1987,
      "▁kurbağa": 1988,
      "▁meş": 1989,
      "▁kıs": 1990,
      "▁kadın": 1991,
      "sıyla": 1992,
      "yız": 1993,
      "▁öp": 1994,
      "leye": 1995,
      "▁ter": 1996,
      "▁rüz": 1997,
      "renses": 1998,
      "▁canına": 1999,
      "mıyor": 2000,
      "lete": 2001,
      "▁sabırsızlanıyordu": 2002,
      "▁soğuk": 2003,
      "▁odasında": 2004,
      "▁akşam": 2005,
      "ümeye": 2006,
      "▁mükemmel": 2007,
      "Hay": 2008,
      "▁sessiz": 2009,
      "larda": 2010,
      "Bana": 2011,
      "▁tab": 2012,
      "▁doldur": 2013,
      "▁şimdiye": 2014,
      "▁maceraya": 2015,
      "▁hakk": 2016,
      "▁ikram": 2017,
      "▁eşya": 2018,
      "▁tehlik": 2019,
      "ire": 2020,
      "▁sesi": 2021,
      "▁olmasını": 2022,
      "▁tüy": 2023,
      "▁tamam": 2024,
      "ıyı": 2025,
      "tirdi": 2026,
      "▁giydi": 2027,
      "▁yükseğe": 2028,
      "▁salladılar": 2029,
      "▁çalıştılar": 2030,
      "lemeye": 2031,
      "▁yet": 2032,
      "arda": 2033,
      "▁elinden": 2034,
      "▁dola": 2035,
      "▁ada": 2036,
      "▁başına": 2037,
      "▁olması": 2038,
      "eceğini": 2039,
      "cağ": 2040,
      "▁yolcu": 2041,
      "As": 2042,
      "mı": 2043,
      "▁balon": 2044,
      "▁olabilir": 2045,
      "sunu": 2046,
      "ary": 2047,
      "▁yeşil": 2048,
      "armış": 2049,
      "lerden": 2050,
      "her": 2051,
      "▁gürült": 2052,
      "▁öğrendiler": 2053,
      "▁taraf": 2054,
      "▁utan": 2055,
      "▁tav": 2056,
      "ral": 2057,
      "Pek": 2058,
      "tıcı": 2059,
      "▁yola": 2060,
      "baba": 2061,
      "▁sorun": 2062,
      "▁masa": 2063,
      "▁kuyru": 2064,
      "Hikay": 2065,
      "▁kendine": 2066,
      "▁gözlerini": 2067,
      "▁babasına": 2068,
      "ağı": 2069,
      "ally": 2070,
      "fağa": 2071,
      ".\"\n\n\"": 2072,
      "as": 2073,
      "▁duydular": 2074,
      "ırda": 2075,
      "▁bur": 2076,
      "re": 2077,
      "▁düzen": 2078,
      "memiş": 2079,
      "orba": 2080,
      "▁çır": 2081,
      "▁gidelim": 2082,
      "emedi": 2083,
      "▁fare": 2084,
      "▁uyku": 2085,
      "Oyna": 2086,
      "Benny": 2087,
      "▁düz": 2088,
      "▁çev": 2089,
      "▁Joe": 2090,
      "jderha": 2091,
      "▁boy": 2092,
      "▁dinlemedi": 2093,
      "▁hakkında": 2094,
      "▁ısır": 2095,
      "öp": 2096,
      "Koş": 2097,
      "▁anladı": 2098,
      "üra": 2099,
      "▁ellerini": 2100,
      "▁ikiz": 2101,
      "▁istiyorlar": 2102,
      "▁edin": 2103,
      "ayı": 2104,
      "urdu": 2105,
      "ben": 2106,
      "▁hayran": 2107,
      "▁Sally": 2108,
      "▁yakaladı": 2109,
      "▁soruyor": 2110,
      "▁burada": 2111,
      "▁bay": 2112,
      "▁istediğini": 2113,
      "▁verir": 2114,
      "▁yaşayan": 2115,
      "▁kıyafet": 2116,
      "Birbirlerine": 2117,
      "Emma": 2118,
      "Başka": 2119,
      "Üzgünüm": 2120,
      "diyorlar": 2121,
      "▁sok": 2122,
      "▁keşf": 2123,
      "▁köpeği": 2124,
      "lattı": 2125,
      "Dik": 2126,
      "▁ondan": 2127,
      "▁kapattı": 2128,
      "▁beyaz": 2129,
      "Kam": 2130,
      "▁lütfen": 2131,
      "▁nedir": 2132,
      "Hikayenin": 2133,
      "▁ulaş": 2134,
      "▁anda": 2135,
      "▁inc": 2136,
      "▁kut": 2137,
      "▁inşa": 2138,
      "▁sallan": 2139,
      "▁kaş": 2140,
      "ağa": 2141,
      "ıştır": 2142,
      "▁düşür": 2143,
      "▁sayı": 2144,
      "▁ce": 2145,
      "esinin": 2146,
      "▁onların": 2147,
      "lek": 2148,
      "Onunla": 2149,
      "▁yapıyorsun": 2150,
      "Eğlen": 2151,
      "Birkaç": 2152,
      "eliydi": 2153,
      ",\"": 2154,
      "Üç": 2155,
      "Ay": 2156,
      "▁derin": 2157,
      "cağız": 2158,
      "▁dah": 2159,
      "▁görmedi": 2160,
      "▁başardı": 2161,
      "Sally": 2162,
      "▁inan": 2163,
      "▁yemeyi": 2164,
      "yıp": 2165,
      "▁tes": 2166,
      "melisin": 2167,
      "Bugün": 2168,
      "▁ana": 2169,
      "Kötü": 2170,
      "▁gürültü": 2171,
      "▁nerede": 2172,
      "Kutu": 2173,
      "gı": 2174,
      "▁düğ": 2175,
      "isini": 2176,
      "▁dolaş": 2177,
      "ceği": 2178,
      "▁elinde": 2179,
      "▁kullana": 2180,
      "▁dikkatlice": 2181,
      "▁etmedi": 2182,
      "Tam": 2183,
      "layarak": 2184,
      "madılar": 2185,
      "▁unuttu": 2186,
      "▁gülümsediler": 2187,
      "▁gülümsemeyle": 2188,
      "▁oyuncakları": 2189,
      "▁yolunu": 2190,
      "▁kalk": 2191,
      "▁korkuyordu": 2192,
      "▁arkadaşlardı": 2193,
      "ke": 2194,
      "▁pembe": 2195,
      "▁kür": 2196,
      "▁suyu": 2197,
      "imli": 2198,
      "▁bitti": 2199,
      "det": 2200,
      "dık": 2201,
      "dığını": 2202,
      "ğının": 2203,
      "Billy": 2204,
      "▁hayvanlar": 2205,
      "lmak": 2206,
      "▁tur": 2207,
      "▁ot": 2208,
      "mayacağını": 2209,
      "▁hediye": 2210,
      "▁gülümsüyor": 2211,
      "enny": 2212,
      "▁elma": 2213,
      "▁arasında": 2214,
      "Parlak": 2215,
      "▁aya": 2216,
      "Den": 2217,
      "Beni": 2218,
      "▁başlarını": 2219,
      "Ör": 2220,
      "mez": 2221,
      "▁tekne": 2222,
      "▁tane": 2223,
      "▁yuva": 2224,
      "son": 2225,
      "şıyor": 2226,
      "Kırmızı": 2227,
      "bileceklerini": 2228,
      "▁paylaştı": 2229,
      "▁ulaştı": 2230,
      "▁vardığında": 2231,
      "Kim": 2232,
      "San": 2233,
      "Bazen": 2234,
      "yım": 2235,
      "hirli": 2236,
      "ymun": 2237,
      "klerinde": 2238,
      "▁dünyayı": 2239,
      "▁kelebek": 2240,
      "Bayan": 2241,
      "▁dinledi": 2242,
      "▁kuru": 2243,
      "▁yürürken": 2244,
      "▁yaşarmış": 2245,
      "Etrafına": 2246,
      "▁seviyorlar": 2247,
      "lerde": 2248,
      "▁davrandı": 2249,
      "Göz": 2250,
      "Gökyüz": 2251,
      "▁ti": 2252,
      "▁altına": 2253,
      "▁haf": 2254,
      "ffy": 2255,
      "▁koyu": 2256,
      "▁doğ": 2257,
      "▁tez": 2258,
      "▁ördek": 2259,
      "vanoz": 2260,
      "ön": 2261,
      "▁geliyor": 2262,
      "▁güzeldi": 2263,
      "ğiş": 2264,
      "▁bahçesinde": 2265,
      "▁laz": 2266,
      "▁şiş": 2267,
      "▁bağır": 2268,
      "▁bulut": 2269,
      "▁peş": 2270,
      "▁battan": 2271,
      "Amy": 2272,
      "lır": 2273,
      "dal": 2274,
      "uzur": 2275,
      "▁kil": 2276,
      "▁ederek": 2277,
      "▁ışı": 2278,
      "▁sırada": 2279,
      "▁buz": 2280,
      "▁değiş": 2281,
      "▁suya": 2282,
      "▁tutu": 2283,
      "▁kağıt": 2284,
      "▁mutf": 2285,
      "şıp": 2286,
      "▁arabayı": 2287,
      "ona": 2288,
      "▁mutluydular": 2289,
      "▁ettiği": 2290,
      "▁yanlış": 2291,
      "yunca": 2292,
      "▁sevinç": 2293,
      "▁yavaşça": 2294,
      "▁bazen": 2295,
      "taki": 2296,
      "Keş": 2297,
      "▁atıştır": 2298,
      "Oda": 2299,
      "din": 2300,
      "▁bitirdi": 2301,
      "eyerek": 2302,
      "▁minnettardı": 2303,
      "luffy": 2304,
      "▁olabileceğini": 2305,
      "sinin": 2306,
      "imi": 2307,
      "▁kadarki": 2308,
      "Üzer": 2309,
      "▁kapa": 2310,
      "▁hissettiler": 2311,
      "▁aslan": 2312,
      "▁denemek": 2313,
      "▁doluydu": 2314,
      "▁oynuyorlar": 2315,
      "▁Daisy": 2316,
      "aki": 2317,
      "Harika": 2318,
      "▁sahibi": 2319,
      "yah": 2320,
      "ederek": 2321,
      "dün": 2322,
      "▁çığlık": 2323,
      "▁birik": 2324,
      "▁dönüş": 2325,
      "▁adım": 2326,
      "par": 2327,
      "▁parti": 2328,
      "▁uğ": 2329,
      "▁oynayabilir": 2330,
      "Ağaç": 2331,
      "▁yemeğ": 2332,
      "erde": 2333,
      "▁eğleniyorlar": 2334,
      "▁alabilir": 2335,
      "▁keşfetmek": 2336,
      "▁aile": 2337,
      "alım": 2338,
      "▁oraya": 2339,
      "ğunda": 2340,
      "tıp": 2341,
      "▁kardeşi": 2342,
      "▁büyü": 2343,
      "Hız": 2344,
      "▁yorgun": 2345,
      "ğından": 2346,
      "▁tür": 2347,
      "▁kem": 2348,
      "arıl": 2349,
      "tmaya": 2350,
      "mu": 2351,
      "▁tatlım": 2352,
      "▁edebilir": 2353,
      "Hayvan": 2354,
      "▁C": 2355,
      "▁kaba": 2356,
      "▁oturup": 2357,
      "üksek": 2358,
      "kil": 2359,
      "▁ediyorlar": 2360,
      "▁oynayalım": 2361,
      "▁döndüğ": 2362,
      "tına": 2363,
      "▁kala": 2364,
      "yanın": 2365,
      "Yür": 2366,
      "▁dahaki": 2367,
      "▁cana": 2368,
      "oyun": 2369,
      "▁kü": 2370,
      "▁sefere": 2371,
      "malık": 2372,
      "▁paylaşmak": 2373,
      "▁döndüler": 2374,
      "▁işe": 2375,
      "▁ayakkabı": 2376,
      "emek": 2377,
      "ükr": 2378,
      "yın": 2379,
      "tlı": 2380,
      "İçinde": 2381,
      "eyip": 2382,
      "▁koşuyor": 2383,
      "▁karanlık": 2384,
      "▁korkutucu": 2385,
      "▁rüzgar": 2386,
      "▁değer": 2387,
      "▁gökyüzüne": 2388,
      "▁gölet": 2389,
      "▁tehlikeli": 2390,
      "ry": 2391,
      "osta": 2392,
      "▁plan": 2393,
      "Dikkatli": 2394,
      "Kur": 2395,
      "▁pişir": 2396,
      "▁gerekiyordu": 2397,
      "üyü": 2398,
      "eşem": 2399,
      "▁bulduğu": 2400,
      "kkuş": 2401,
      "▁kez": 2402,
      "▁veya": 2403,
      "hteşem": 2404,
      "▁ettiğini": 2405,
      "▁çöz": 2406,
      "▁mik": 2407,
      "leyen": 2408,
      "▁mağazaya": 2409,
      "ekli": 2410,
      "enk": 2411,
      "we": 2412,
      "▁koydular": 2413,
      "▁peşinden": 2414,
      "▁görürler": 2415,
      "arın": 2416,
      "Ça": 2417,
      "by": 2418,
      "▁kaldırdı": 2419,
      "hta": 2420,
      "esinden": 2421,
      "▁ilk": 2422,
      "▁dalga": 2423,
      "▁gündü": 2424,
      "▁ortaya": 2425,
      "▁dondurma": 2426,
      "Du": 2427,
      "▁Tommy": 2428,
      "Bal": 2429,
      "▁tanıştı": 2430,
      "Kita": 2431,
      "erdiven": 2432,
      "engi": 2433,
      "meleri": 2434,
      "dından": 2435,
      "▁şans": 2436,
      "▁Benny": 2437,
      "▁yaptığı": 2438,
      "▁kızın": 2439,
      "lığına": 2440,
      "sie": 2441,
      "Sah": 2442,
      "▁yokmuş": 2443,
      "▁koru": 2444,
      "ze": 2445,
      "ısır": 2446,
      "▁bakmak": 2447,
      "▁etmesini": 2448,
      "büyük": 2449,
      "verengi": 2450,
      "uştur": 2451,
      "Ail": 2452,
      "▁Billy": 2453,
      "iri": 2454,
      "miyor": 2455,
      "miyorum": 2456,
      "▁adama": 2457,
      "▁kendisini": 2458,
      "▁delik": 2459,
      "▁hissediyor": 2460,
      "▁annesini": 2461,
      "bii": 2462,
      "oya": 2463,
      "▁saklan": 2464,
      "Oraya": 2465,
      "▁öğrenmek": 2466,
      "▁öl": 2467,
      "▁öyle": 2468,
      "▁alan": 2469,
      "▁parlıyordu": 2470,
      "▁kabu": 2471,
      "ina": 2472,
      "▁sefer": 2473,
      "Hey": 2474,
      "rağa": 2475,
      "▁çi": 2476,
      "malarını": 2477,
      "▁huzur": 2478,
      "▁sarılıyor": 2479,
      "▁yüzünde": 2480,
      "▁dök": 2481,
      "▁ardından": 2482,
      "▁kule": 2483,
      "banın": 2484,
      "memişti": 2485,
      "▁Lila": 2486,
      "ürat": 2487,
      "▁yağ": 2488,
      "▁kenar": 2489,
      "ırlar": 2490,
      "ahürat": 2491,
      "▁çocuktu": 2492,
      "▁yatak": 2493,
      "eceğim": 2494,
      "▁adamın": 2495,
      "liği": 2496,
      "▁çaldı": 2497,
      "▁çocuğun": 2498,
      "▁kazan": 2499,
      "▁dolayı": 2500,
      "tmak": 2501,
      "lüydü": 2502,
      "leştir": 2503,
      "▁kuşa": 2504,
      "▁sen": 2505,
      "▁sevimli": 2506,
      "Çift": 2507,
      "▁vermek": 2508,
      "▁çu": 2509,
      "Yüz": 2510,
      "▁kuşu": 2511,
      "Payla": 2512,
      "▁çıka": 2513,
      "Ann": 2514,
      "▁kaydırak": 2515,
      "▁çimen": 2516,
      "▁yediler": 2517,
      "▁denedi": 2518,
      "▁görmüş": 2519,
      "▁kutuyu": 2520,
      "eyin": 2521,
      "Do": 2522,
      "ıla": 2523,
      "▁keşfetmeye": 2524,
      "▁sincap": 2525,
      "▁onlarla": 2526,
      "▁lazım": 2527,
      "▁kuşun": 2528,
      "▁taktı": 2529,
      "▁boz": 2530,
      "▁şeye": 2531,
      "Orada": 2532,
      "ğinden": 2533,
      "eme": 2534,
      "▁onlar": 2535,
      "Gör": 2536,
      "lamış": 2537,
      "▁çiç": 2538,
      "cık": 2539,
      "▁yürümeye": 2540,
      "▁kanat": 2541,
      "▁oturma": 2542,
      "▁koşmayı": 2543,
      "viç": 2544,
      "dil": 2545,
      "küçük": 2546,
      "▁ışık": 2547,
      "dviç": 2548,
      "▁beni": 2549,
      "▁ser": 2550,
      "▁üst": 2551,
      "layan": 2552,
      "Tabii": 2553,
      "▁babasıyla": 2554,
      "mana": 2555,
      "▁seviyoruz": 2556,
      "▁muhteşem": 2557,
      "▁bizim": 2558,
      "▁kimse": 2559,
      "▁bundan": 2560,
      "▁yakından": 2561,
      "sunuz": 2562,
      "▁sevindim": 2563,
      "▁öğle": 2564,
      "Yüksek": 2565,
      "Sarı": 2566,
      "▁bahçeye": 2567,
      "▁prenses": 2568,
      "▁Amy": 2569,
      "bine": 2570,
      "▁göm": 2571,
      "▁tezahürat": 2572,
      "Arkadaşları": 2573,
      "Dok": 2574,
      "▁man": 2575,
      "▁yürüyordu": 2576,
      "oğraf": 2577,
      "▁böyle": 2578,
      "▁bittiğinde": 2579,
      "otoğraf": 2580,
      "▁kendilerini": 2581,
      "▁çarptı": 2582,
      "▁istediği": 2583,
      "▁dinlen": 2584,
      "sanın": 2585,
      "▁keli": 2586,
      "▁bulur": 2587,
      "Anneleri": 2588,
      "hay": 2589,
      "eddy": 2590,
      "ty": 2591,
      "İki": 2592,
      "Uç": 2593,
      "▁ateş": 2594,
      "▁renkli": 2595,
      "▁gele": 2596,
      "lice": 2597,
      "ıkı": 2598,
      "▁koşarak": 2599,
      "▁yaşadılar": 2600,
      "etti": 2601,
      "Emily": 2602,
      "umur": 2603,
      "Jill": 2604,
      "▁büyüktü": 2605,
      "▁yolculu": 2606,
      "▁anah": 2607,
      "▁ağır": 2608,
      "▁kıza": 2609,
      "▁sever": 2610,
      "▁bebeği": 2611,
      "▁atıştırmalık": 2612,
      "▁tırmandı": 2613,
      "▁bulmaya": 2614,
      "▁genç": 2615,
      "▁sihirli": 2616,
      "▁mutfağa": 2617,
      "Burada": 2618,
      "gul": 2619,
      "▁olduğundan": 2620,
      "▁salıncak": 2621,
      "▁bakıyor": 2622,
      "▁uğra": 2623,
      "anı": 2624,
      "▁hissederek": 2625,
      "likle": 2626,
      "radan": 2627,
      "▁dilediler": 2628,
      "▁gösteri": 2629,
      "ıkırda": 2630,
      "▁isteyen": 2631,
      "aket": 2632,
      "Dışarıda": 2633,
      "duğu": 2634,
      "saba": 2635,
      "▁yürüdüler": 2636,
      "▁ca": 2637,
      "▁daki": 2638,
      "▁yaptık": 2639,
      "▁hasta": 2640,
      "▁düzel": 2641,
      "mıyordu": 2642,
      "Yara": 2643,
      "üb": 2644,
      "▁arkasına": 2645,
      "▁yaramaz": 2646,
      "▁birikin": 2647,
      "Arkadaşı": 2648,
      "Seninle": 2649,
      "Bebek": 2650,
      "▁alır": 2651,
      "▁olmalısın": 2652,
      "▁karşılaştı": 2653,
      "▁babasının": 2654,
      "▁üzerinden": 2655,
      "rağı": 2656,
      "▁eğlenceliydi": 2657,
      "▁uzan": 2658,
      "isa": 2659,
      "▁kavanoz": 2660,
      "▁havuz": 2661,
      "Bazı": 2662,
      "▁memnundu": 2663,
      "ileş": 2664,
      "▁diz": 2665,
      "▁dakika": 2666,
      "▁satın": 2667,
      "ücev": 2668,
      "lo": 2669,
      "▁peri": 2670,
      "Ner": 2671,
      "Hep": 2672,
      "▁ise": 2673,
      "▁hazırdı": 2674,
      "kça": 2675,
      "danın": 2676,
      "▁baktığında": 2677,
      "▁koşmaya": 2678,
      "▁arı": 2679,
      "▁elbise": 2680,
      "▁yıka": 2681,
      "ardıma": 2682,
      "▁meraklı": 2683,
      "annesinin": 2684,
      "▁daldı": 2685,
      "Benimle": 2686,
      "lerken": 2687,
      "▁tas": 2688,
      "▁görmeye": 2689,
      "▁araya": 2690,
      "▁meşgul": 2691,
      "▁konuştu": 2692,
      "ıltı": 2693,
      "Özel": 2694,
      "Jimmy": 2695,
      "umurta": 2696,
      "ğım": 2697,
      "Hen": 2698,
      "Oyuncaklarıyla": 2699,
      "▁bisiklet": 2700,
      "▁tren": 2701,
      "mayacak": 2702,
      "▁yel": 2703,
      "lk": 2704,
      "▁diş": 2705,
      "Le": 2706,
      "üya": 2707,
      "Bunları": 2708,
      "arkadaş": 2709,
      "anamadı": 2710,
      "▁gelen": 2711,
      "▁mısır": 2712,
      "▁indi": 2713,
      "▁insanlar": 2714,
      "▁gr": 2715,
      "▁er": 2716,
      "Eğlenceli": 2717,
      "ber": 2718,
      "▁pal": 2719,
      "▁çıkardılar": 2720,
      "ceklerini": 2721,
      "▁havuç": 2722,
      "▁sinirlendi": 2723,
      "▁sevdiğini": 2724,
      "gür": 2725,
      "▁sesler": 2726,
      "Aslan": 2727,
      "▁oğ": 2728,
      "ğince": 2729,
      "▁korkmuş": 2730,
      "▁ilerleyen": 2731,
      "Yol": 2732,
      "ünün": 2733,
      "▁çıkmaya": 2734,
      "unç": 2735,
      "▁mah": 2736,
      "etiş": 2737,
      "▁ıslak": 2738,
      "uyorlardı": 2739,
      "Mavi": 2740,
      "Gerçek": 2741,
      "▁saatlerinde": 2742,
      "Kamyon": 2743,
      "▁evin": 2744,
      "Aç": 2745,
      "▁sep": 2746,
      "ğü": 2747,
      "▁biliyor": 2748,
      "▁yas": 2749,
      "Topu": 2750,
      "▁sevin": 2751,
      "▁verici": 2752,
      "tin": 2753,
      "▁merhaba": 2754,
      "▁bun": 2755,
      "▁kızdı": 2756,
      "▁olsa": 2757,
      "▁hızlıydı": 2758,
      "▁arabaya": 2759,
      "▁ejderha": 2760,
      "İnsan": 2761,
      "siy": 2762,
      "▁canavar": 2763,
      "laşa": 2764,
      "ake": 2765,
      "vanat": 2766,
      "leti": 2767,
      "▁uzandı": 2768,
      "sah": 2769,
      "▁Jim": 2770,
      "▁tilki": 2771,
      "Siz": 2772,
      "▁uykuya": 2773,
      "▁oynayarak": 2774,
      "▁ces": 2775,
      "senin": 2776,
      "▁gitmeye": 2777,
      "Kı": 2778,
      "▁yavru": 2779,
      "▁nefis": 2780,
      "Büyükanne": 2781,
      "?\"\n\n\"": 2782,
      "▁kestir": 2783,
      "▁biliyorlardı": 2784,
      "▁buldum": 2785,
      "ektu": 2786,
      "▁tuta": 2787,
      "Adı": 2788,
      "▁nefes": 2789,
      "şu": 2790,
      "▁vardır": 2791,
      "garenk": 2792,
      "Biz": 2793,
      "▁gururlu": 2794,
      "ümcek": 2795,
      "▁musun": 2796,
      "▁hayvanları": 2797,
      "▁kuyruğunu": 2798,
      "Öğr": 2799,
      "▁olup": 2800,
      "viz": 2801,
      "ğır": 2802,
      "▁söylüyorlar": 2803,
      "▁gördüğü": 2804,
      "▁yaşadı": 2805,
      "Hala": 2806,
      "Fare": 2807,
      "deki": 2808,
      "Hiç": 2809,
      "▁kısa": 2810,
      "umu": 2811,
      "▁dediler": 2812,
      "▁gidiyor": 2813,
      "▁gelir": 2814,
      "Arkadaşlarıyla": 2815,
      "▁paylaşa": 2816,
      "ilen": 2817,
      "onun": 2818,
      "▁parıl": 2819,
      "▁döne": 2820,
      "eldi": 2821,
      "Çiçek": 2822,
      "!\"\n\n\"": 2823,
      "▁istiyorlardı": 2824,
      "▁gelene": 2825,
      "han": 2826,
      "ğınık": 2827,
      "▁kayboldu": 2828,
      "▁topla": 2829,
      "▁sevinçle": 2830,
      "Paylaş": 2831,
      "▁incit": 2832,
      "▁hoşlanmadı": 2833,
      "ktan": 2834,
      "▁kaldılar": 2835,
      "▁sil": 2836,
      "▁ilginç": 2837,
      "▁süs": 2838,
      "▁ı": 2839,
      "▁gökkuş": 2840,
      "▁düşürdü": 2841,
      "▁seslendi": 2842,
      "ılmaz": 2843,
      "rası": 2844,
      "▁mor": 2845,
      "har": 2846,
      "▁saygı": 2847,
      "lum": 2848,
      "Ak": 2849,
      "Sin": 2850,
      "▁posta": 2851,
      "▁dek": 2852,
      "▁bulma": 2853,
      "▁uzakta": 2854,
      "sana": 2855,
      "▁etkil": 2856,
      "öm": 2857,
      "▁mutfakta": 2858,
      "uncu": 2859,
      "lıklı": 2860,
      "ğara": 2861,
      "eter": 2862,
      "▁gözleri": 2863,
      "▁uçurt": 2864,
      "kar": 2865,
      "▁başarı": 2866,
      "▁herkese": 2867,
      "yaz": 2868,
      "▁Jill": 2869,
      "▁şaşırmıştı": 2870,
      "▁iyileş": 2871,
      "▁davet": 2872,
      "▁şaka": 2873,
      "▁uzaklaş": 2874,
      "usunu": 2875,
      "▁telef": 2876,
      "trol": 2877,
      "▁uyandı": 2878,
      "malıyız": 2879,
      "Hava": 2880,
      "▁kırıklığına": 2881,
      "mazsın": 2882,
      "▁burn": 2883,
      "mayın": 2884,
      "▁aramaya": 2885,
      "Cesur": 2886,
      "▁bahs": 2887,
      "▁kıkırda": 2888,
      "neye": 2889,
      "kın": 2890,
      "▁banyo": 2891,
      "İşte": 2892,
      "▁tadı": 2893,
      "▁pan": 2894,
      "▁giderler": 2895,
      "Keşke": 2896,
      "lamıştı": 2897,
      "▁siyah": 2898,
      "annesi": 2899,
      "▁güçlüydü": 2900,
      "▁çocuğa": 2901,
      "▁rahatsız": 2902,
      "tıyor": 2903,
      "fis": 2904,
      "ikn": 2905,
      "▁vedalaştı": 2906,
      "fk": 2907,
      "▁av": 2908,
      "Kapıyı": 2909,
      "Günün": 2910,
      "dular": 2911,
      "ıyla": 2912,
      "Yağmur": 2913,
      "▁arabası": 2914,
      "Ko": 2915,
      "yiz": 2916,
      "▁çit": 2917,
      "▁cesurdu": 2918,
      "▁boyunca": 2919,
      "▁sakin": 2920,
      "▁bakın": 2921,
      "▁heyecanla": 2922,
      "▁ince": 2923,
      "▁bırakıp": 2924,
      "arklı": 2925,
      "eki": 2926,
      "uy": 2927,
      "Mary": 2928,
      "gan": 2929,
      "▁arkadaşlarını": 2930,
      "▁dinlem": 2931,
      "Es": 2932,
      "▁uça": 2933,
      "▁duvar": 2934,
      "▁yapalım": 2935,
      "▁sandviç": 2936,
      "Yuk": 2937,
      "▁endişelen": 2938,
      "Yukarı": 2939,
      "▁dönüp": 2940,
      "ürüz": 2941,
      "lığa": 2942,
      "▁vakti": 2943,
      "▁ödü": 2944,
      "maktan": 2945,
      "▁heyecanlı": 2946,
      "▁sarılıyorlar": 2947,
      "Bit": 2948,
      "▁yetiş": 2949,
      "Haydi": 2950,
      "▁göründüğünü": 2951,
      "▁eden": 2952,
      "omuz": 2953,
      "bak": 2954,
      "mal": 2955,
      "▁oyunu": 2956,
      "Naz": 2957,
      "Nazik": 2958,
      "▁kontrol": 2959,
      "▁vermeye": 2960,
      "▁korkut": 2961,
      "faiye": 2962,
      "▁topladı": 2963,
      "▁hazine": 2964,
      "Kurbağa": 2965,
      "Hav": 2966,
      "▁diye": 2967,
      "▁kitabı": 2968,
      "▁şeylerin": 2969,
      "Üzerinde": 2970,
      "stan": 2971,
      "▁az": 2972,
      "▁fazlasını": 2973,
      "suna": 2974,
      "▁gülümseyerek": 2975,
      "▁bulunan": 2976,
      "▁çıkarıp": 2977,
      "ikola": 2978,
      "▁yolu": 2979,
      "▁gön": 2980,
      "sıkı": 2981,
      "▁yakında": 2982,
      "engin": 2983,
      "▁mutluluk": 2984,
      "▁barda": 2985,
      "▁ısırık": 2986,
      "kırmızı": 2987,
      "▁mutlular": 2988,
      "baç": 2989,
      "andy": 2990,
      "daly": 2991,
      "sonra": 2992,
      "▁büyülü": 2993,
      "ide": 2994,
      "lığın": 2995,
      "▁istemiyorum": 2996,
      "▁cesaret": 2997,
      "At": 2998,
      "weet": 2999,
      "▁uzattı": 3000,
      "Güven": 3001,
      "▁kükr": 3002,
      "ğuna": 3003,
      "▁veriyor": 3004,
      "▁izlediler": 3005,
      "ulu": 3006,
      "liğe": 3007,
      "▁buna": 3008,
      "▁fotoğraf": 3009,
      "madığı": 3010,
      "▁şef": 3011,
      "▁sayıda": 3012,
      "▁sağladı": 3013,
      "imiz": 3014,
      "▁kulüb": 3015,
      "Geri": 3016,
      "Der": 3017,
      "caya": 3018,
      "▁edeceğim": 3019,
      "ilir": 3020,
      "Orman": 3021,
      "tma": 3022,
      "▁çorba": 3023,
      "▁arabasını": 3024,
      "▁umuyordu": 3025,
      "ıyorum": 3026,
      "▁arkasında": 3027,
      "▁etmenin": 3028,
      "▁gitmeyi": 3029,
      "▁bitir": 3030,
      "▁mücev": 3031,
      "▁pes": 3032,
      "▁vaz": 3033,
      "inc": 3034,
      "ğiz": 3035,
      "Kaydı": 3036,
      "Ön": 3037,
      "Blok": 3038,
      "oyu": 3039,
      "▁yapma": 3040,
      "dür": 3041,
      "▁yaklaş": 3042,
      "Arka": 3043,
      "eynir": 3044,
      "▁kutuya": 3045,
      "ıyorlardı": 3046,
      "▁evlerine": 3047,
      "▁ağacı": 3048,
      "▁yemeye": 3049,
      "▁sağlıklı": 3050,
      "Birçok": 3051,
      "▁çıkmak": 3052,
      "▁makin": 3053,
      "▁çırptı": 3054,
      "▁arkadaşım": 3055,
      "▁müzik": 3056,
      "▁etmekten": 3057,
      "Hem": 3058,
      "Parka": 3059,
      "▁birikinti": 3060,
      "sün": 3061,
      "parlak": 3062,
      "▁vur": 3063,
      "▁izlemeyi": 3064,
      "▁eğ": 3065,
      "▁güneşin": 3066,
      "tes": 3067,
      "▁havalı": 3068,
      "▁merdiven": 3069,
      "ikolata": 3070,
      "bilirsiniz": 3071,
      "itten": 3072,
      "inik": 3073,
      "▁yelken": 3074,
      "▁yaban": 3075,
      "▁günde": 3076,
      "▁parlaktı": 3077,
      "İçeride": 3078,
      "▁tarla": 3079,
      "▁döndüğünde": 3080,
      "▁doktor": 3081,
      "Kom": 3082,
      "▁mo": 3083,
      "▁açıp": 3084,
      "▁inanamadı": 3085,
      "▁doğum": 3086,
      "▁kart": 3087,
      "▁yardıma": 3088,
      "▁havaya": 3089,
      "Çocuklar": 3090,
      "▁hata": 3091,
      "▁kızgındı": 3092,
      "▁açıkladı": 3093,
      "▁bakıyorlar": 3094,
      "ılmış": 3095,
      "▁fırça": 3096,
      "Oyuncaklarını": 3097,
      "Tep": 3098,
      "▁olduğuna": 3099,
      "ğırdı": 3100,
      "▁olduğunda": 3101,
      "▁görmemişti": 3102,
      "ter": 3103,
      "▁ah": 3104,
      "▁olmayan": 3105,
      "müştü": 3106,
      "▁alkışladı": 3107,
      "Balık": 3108,
      "▁olmasına": 3109,
      "▁toplayıp": 3110,
      "irv": 3111,
      "▁köş": 3112,
      "▁mer": 3113,
      "▁güc": 3114,
      "▁parçası": 3115,
      "yeni": 3116,
      "▁raf": 3117,
      "▁yüzünü": 3118,
      "▁düzenli": 3119,
      "okta": 3120,
      "yeyi": 3121,
      "▁umur": 3122,
      "şıyorlar": 3123,
      "▁far": 3124,
      "▁tartı": 3125,
      "▁oyuncağını": 3126,
      "vru": 3127,
      "ücü": 3128,
      "▁kucak": 3129,
      "eniş": 3130,
      "Ördek": 3131,
      "Ses": 3132,
      "▁sarılıp": 3133,
      "▁Molly": 3134,
      "▁diliyordu": 3135,
      "▁dokundu": 3136,
      "▁dile": 3137,
      "▁baykuş": 3138,
      "▁yanlışlıkla": 3139,
      "Yerde": 3140,
      "▁kra": 3141,
      "ittens": 3142,
      "▁hatta": 3143,
      "▁kanep": 3144,
      "▁kasaba": 3145,
      "▁istemediğini": 3146,
      "'\n\n": 3147,
      "Güneşli": 3148,
      "Yakında": 3149,
      "▁lezzetliydi": 3150,
      "Dur": 3151,
      "▁birini": 3152,
      "Farklı": 3153,
      "yse": 3154,
      "iyi": 3155,
      "diş": 3156,
      "Gözlerini": 3157,
      "▁arkadaşına": 3158,
      "arım": 3159,
      "cky": 3160,
      "İlk": 3161,
      "▁bilmiyorlardı": 3162,
      "▁kalan": 3163,
      "▁girip": 3164,
      "msıkı": 3165,
      "▁çöp": 3166,
      "▁yapıştır": 3167,
      "▁pat": 3168,
      "▁ağz": 3169,
      "▁titr": 3170,
      "▁yakınında": 3171,
      "▁maymun": 3172,
      "▁sımsıkı": 3173,
      "rdı": 3174,
      "ğünü": 3175,
      "▁battaniy": 3176,
      "▁ölç": 3177,
      "▁G": 3178,
      "dünç": 3179,
      "Bahçede": 3180,
      "▁edecek": 3181,
      "uysuz": 3182,
      "▁mü": 3183,
      "▁istemiyor": 3184,
      "▁köpeğe": 3185,
      "şır": 3186,
      "lağa": 3187,
      "▁ayır": 3188,
      "Rüz": 3189,
      "▁mektu": 3190,
      "▁şanslı": 3191,
      "▁ihtiyaç": 3192,
      "layacak": 3193,
      "▁yeri": 3194,
      "Bilmiyorum": 3195,
      "▁çıkara": 3196,
      "▁eğleniyordu": 3197,
      "▁Bay": 3198,
      "▁ilgili": 3199,
      "▁dük": 3200,
      "Park": 3201,
      "Kol": 3202,
      "▁bes": 3203,
      "▁meraklıydı": 3204,
      "lediler": 3205,
      "verc": 3206,
      "ora": 3207,
      "▁çizdi": 3208,
      "▁mağara": 3209,
      "▁köpeğin": 3210,
      "Al": 3211,
      "zi": 3212,
      "▁fı": 3213,
      "Ailesi": 3214,
      "▁çamur": 3215,
      "mekten": 3216,
      "▁denemeye": 3217,
      "liyor": 3218,
      "ela": 3219,
      "▁koltu": 3220,
      "▁havada": 3221,
      "umara": 3222,
      "▁bol": 3223,
      "lend": 3224,
      "Pasta": 3225,
      "ğmen": 3226,
      "▁zamanının": 3227,
      "ebileceğini": 3228,
      "▁yakalamaya": 3229,
      "▁rağmen": 3230,
      "▁kaf": 3231,
      "▁başkalarına": 3232,
      "▁kirli": 3233,
      "▁ileri": 3234,
      "biliyor": 3235,
      "olis": 3236,
      "▁ger": 3237,
      "mini": 3238,
      "Eğer": 3239,
      "kek": 3240,
      "▁rüya": 3241,
      "▁resmi": 3242,
      "larken": 3243,
      "▁hayrete": 3244,
      "▁birine": 3245,
      "Kutuyu": 3246,
      "ex": 3247,
      "Bö": 3248,
      "▁kırıldı": 3249,
      "▁saklandı": 3250,
      "dola": 3251,
      "▁kilit": 3252,
      "▁gizli": 3253,
      "lamayacağını": 3254,
      "▁gizem": 3255,
      "▁manz": 3256,
      "lambaç": 3257,
      "▁neh": 3258,
      "▁kurtar": 3259,
      "▁şu": 3260,
      "neyi": 3261,
      "▁içeride": 3262,
      "▁ödünç": 3263,
      "▁keskin": 3264,
      "gaç": 3265,
      "raman": 3266,
      "bilmek": 3267,
      "▁ekmek": 3268,
      "▁duya": 3269,
      "▁ormana": 3270,
      "Kızgın": 3271,
      "▁gelmişti": 3272,
      "mediğini": 3273,
      "Çim": 3274,
      "ilah": 3275,
      "çak": 3276,
      "▁olun": 3277,
      "▁kafası": 3278,
      "▁deneye": 3279,
      "süz": 3280,
      "Aile": 3281,
      "▁sesini": 3282,
      "lığını": 3283,
      "▁çalışıyor": 3284,
      "▁kolay": 3285,
      "▁hafif": 3286,
      "iği": 3287,
      "▁yemeğini": 3288,
      "ünden": 3289,
      "▁içini": 3290,
      "Öğret": 3291,
      "▁tüylü": 3292,
      "memiz": 3293,
      "manız": 3294,
      "▁başara": 3295,
      "vara": 3296,
      "lük": 3297,
      "▁etrafındaki": 3298,
      "▁biliyorum": 3299,
      "▁hap": 3300,
      "▁atlayıp": 3301,
      "tılar": 3302,
      "Endiş": 3303,
      "Hızla": 3304,
      "▁çimenlerin": 3305,
      "Res": 3306,
      "▁inanılmaz": 3307,
      "▁seb": 3308,
      "Sıcak": 3309,
      "py": 3310,
      "Yavaş": 3311,
      "▁kahverengi": 3312,
      "▁yaratıcı": 3313,
      "sev": 3314,
      "▁Emma": 3315,
      "▁başlar": 3316,
      "iddet": 3317,
      "▁beğen": 3318,
      "isinin": 3319,
      "▁arıyordu": 3320,
      "▁tahta": 3321,
      "ıcı": 3322,
      "▁soru": 3323,
      "▁ayrıl": 3324,
      "▁oynayacak": 3325,
      "▁dür": 3326,
      "ömert": 3327,
      "inip": 3328,
      "▁önünde": 3329,
      "vıl": 3330,
      "▁lim": 3331,
      "▁annesinden": 3332,
      "▁söylemeyi": 3333,
      "eveyn": 3334,
      "▁odaya": 3335,
      "▁am": 3336,
      "ahşi": 3337,
      "gen": 3338,
      "Tilki": 3339,
      "▁koşuyorlar": 3340,
      "▁yapıyorlar": 3341,
      "▁evi": 3342,
      "▁nokta": 3343,
      "▁kelime": 3344,
      "▁mot": 3345,
      "tıl": 3346,
      "▁bindi": 3347,
      "sal": 3348,
      "▁kuşlar": 3349,
      "▁temizle": 3350,
      "▁pikn": 3351,
      "▁tırmanmaya": 3352,
      "▁ün": 3353,
      "▁gürültülü": 3354,
      "▁zıpladı": 3355,
      "ök": 3356,
      "Keleb": 3357,
      "vizyon": 3358,
      "umuz": 3359,
      "▁Le": 3360,
      "▁geliyordu": 3361,
      "▁ulaşa": 3362,
      "tığı": 3363,
      "▁adını": 3364,
      "▁tutmak": 3365,
      "▁etmesi": 3366,
      "yim": 3367,
      "▁yaptın": 3368,
      "lerce": 3369,
      "▁gem": 3370,
      "▁K": 3371,
      "▁nereye": 3372,
      "▁anlam": 3373,
      "▁parladı": 3374,
      "▁çiçekler": 3375,
      "▁j": 3376,
      "▁aşağıya": 3377,
      "▁kazandı": 3378,
      "kele": 3379,
      "ürüzsüz": 3380,
      "▁ziyarete": 3381,
      "▁kızı": 3382,
      "▁boyn": 3383,
      "▁durdur": 3384,
      "▁süt": 3385,
      "▁numara": 3386,
      "Pencer": 3387,
      "▁past": 3388,
      "▁öfk": 3389,
      "▁minnettar": 3390,
      "▁yumurta": 3391,
      "mıza": 3392,
      "hadi": 3393,
      "▁sahile": 3394,
      "ortu": 3395,
      "Mağaza": 3396,
      "▁ayağa": 3397,
      "▁evcil": 3398,
      "baş": 3399,
      "ayıf": 3400,
      "Gerçekten": 3401,
      "▁doldurdu": 3402,
      "▁birinin": 3403,
      "Ra": 3404,
      "▁olmaktan": 3405,
      "Çiftçi": 3406,
      "▁olanları": 3407,
      "▁bakmaya": 3408,
      "▁seninle": 3409,
      "▁parılda": 3410,
      "▁kırıl": 3411,
      "gu": 3412,
      "▁aradılar": 3413,
      "▁neşeli": 3414,
      "▁okyan": 3415,
      "ormal": 3416,
      "▁bize": 3417,
      "ucu": 3418,
      "▁kalmak": 3419,
      "▁ormanın": 3420,
      "▁endişeliydi": 3421,
      "▁vermedi": 3422,
      "▁şimdi": 3423,
      "▁çiğ": 3424,
      "nenin": 3425,
      "▁mis": 3426,
      "ileri": 3427,
      "▁sallıyor": 3428,
      "muyordu": 3429,
      "▁masanın": 3430,
      "ırıl": 3431,
      "▁ortalığı": 3432,
      "zıp": 3433,
      "▁aff": 3434,
      "▁pastayı": 3435,
      "▁istemediler": 3436,
      "▁gölete": 3437,
      "bını": 3438,
      "▁dolaştı": 3439,
      "lmaya": 3440,
      "▁görev": 3441,
      "anda": 3442,
      "▁ödül": 3443,
      "Sıra": 3444,
      "▁mal": 3445,
      "Yavru": 3446,
      "▁böl": 3447,
      "▁çay": 3448,
      "▁rengarenk": 3449,
      "▁dağınık": 3450,
      "▁türlü": 3451,
      "▁isteyip": 3452,
      "▁üzülüyordu": 3453,
      "Bul": 3454,
      "yacak": 3455,
      "▁itti": 3456,
      "diven": 3457,
      "Sammy": 3458,
      "▁kulak": 3459,
      "▁suda": 3460,
      "▁hır": 3461,
      "▁l": 3462,
      "▁yapması": 3463,
      "ihay": 3464,
      "ihayet": 3465,
      "▁evinin": 3466,
      "▁öptü": 3467,
      "▁dokunmak": 3468,
      "Fluffy": 3469,
      "▁yapacak": 3470,
      "▁aldığı": 3471,
      "▁ikizler": 3472,
      "▁rahatladı": 3473,
      "meni": 3474,
      "▁sandaly": 3475,
      "gül": 3476,
      "▁içinden": 3477,
      "▁Jen": 3478,
      "▁edindi": 3479,
      "▁teker": 3480,
      "engeç": 3481,
      "▁çarp": 3482,
      "Dev": 3483,
      "▁parkın": 3484,
      "▁parma": 3485,
      "▁tencer": 3486,
      "▁çikolata": 3487,
      "▁aça": 3488,
      "▁istedim": 3489,
      "lanmıştı": 3490,
      "amıyordu": 3491,
      "▁solu": 3492,
      "▁işi": 3493,
      "▁bahçesine": 3494,
      "ermu": 3495,
      "beveyn": 3496,
      "Henüz": 3497,
      "▁oynadığını": 3498,
      "▁ele": 3499,
      "ıntı": 3500,
      "▁dir": 3501,
      "ker": 3502,
      "▁N": 3503,
      "▁çırp": 3504,
      "eya": 3505,
      "▁ışıltı": 3506,
      "▁açtılar": 3507,
      "eyim": 3508,
      "mut": 3509,
      "▁başta": 3510,
      "▁yapabiliriz": 3511,
      "▁küçüktü": 3512,
      "▁şiddet": 3513,
      "Hoş": 3514,
      "▁sevmiyordu": 3515,
      "lata": 3516,
      "▁hepsini": 3517,
      "▁bakmayı": 3518,
      "▁değiştir": 3519,
      "▁fırlattı": 3520,
      "arkete": 3521,
      "elik": 3522,
      "ella": 3523,
      "izza": 3524,
      "▁kutusu": 3525,
      "▁olsun": 3526,
      "▁yakalamak": 3527,
      "▁oluş": 3528,
      "Jenny": 3529,
      "▁yorul": 3530,
      "▁daire": 3531,
      "▁sıkıcı": 3532,
      "▁arkadaşının": 3533,
      "▁söyley": 3534,
      "▁bilge": 3535,
      "Haz": 3536,
      "Si": 3537,
      "▁kahraman": 3538,
      "etini": 3539,
      "▁af": 3540,
      "▁kurt": 3541,
      "▁havladı": 3542,
      "Dan": 3543,
      "▁bel": 3544,
      "kçe": 3545,
      "of": 3546,
      "▁manzara": 3547,
      "ımı": 3548,
      "mene": 3549,
      "▁sıcaktı": 3550,
      "Kendisi": 3551,
      "▁uçak": 3552,
      "Sür": 3553,
      "eyz": 3554,
      "▁sıçradı": 3555,
      "▁zordu": 3556,
      "▁ker": 3557,
      "kta": 3558,
      "▁düzelt": 3559,
      "▁boş": 3560,
      "▁El": 3561,
      "▁alma": 3562,
      "▁kaşık": 3563,
      "▁edebilirim": 3564,
      "Kaz": 3565,
      "▁küç": 3566,
      "▁pla": 3567,
      "▁yık": 3568,
      "▁dağı": 3569,
      "▁karınca": 3570,
      "▁kıyı": 3571,
      "cele": 3572,
      "▁zayıf": 3573,
      "▁düşünüyorlar": 3574,
      "▁verdiği": 3575,
      "etle": 3576,
      "▁ettir": 3577,
      "▁ağaçta": 3578,
      "▁büyükanne": 3579,
      "▁kamyonu": 3580,
      "İst": 3581,
      "▁arkadaşlarının": 3582,
      "obot": 3583,
      "▁zengin": 3584,
      "▁ısrar": 3585,
      "ura": 3586,
      "▁ıslık": 3587,
      "▁insanlara": 3588,
      "▁yapabileceğini": 3589,
      "ırım": 3590,
      "▁bulurlar": 3591,
      "▁muz": 3592,
      "yapa": 3593,
      "▁güvenilir": 3594,
      "▁erkek": 3595,
      "Fır": 3596,
      "por": 3597,
      "▁birbirlerini": 3598,
      "▁çıktığında": 3599,
      "▁utangaç": 3600,
      "larım": 3601,
      "▁grup": 3602,
      "dalye": 3603,
      "laşıp": 3604,
      "Kan": 3605,
      "dun": 3606,
      "▁acık": 3607,
      "▁solucan": 3608,
      "▁bayan": 3609,
      "Sak": 3610,
      "▁paylaştılar": 3611,
      "▁ederken": 3612,
      "▁yapıyordu": 3613,
      "özel": 3614,
      "Na": 3615,
      "▁ailesiyle": 3616,
      "▁va": 3617,
      "▁Fluffy": 3618,
      "oy": 3619,
      "▁açmaya": 3620,
      "▁örümcek": 3621,
      "▁açıldı": 3622,
      "Yürürken": 3623,
      "▁hoşuna": 3624,
      "▁fırtına": 3625,
      "▁ayrıldı": 3626,
      "irkin": 3627,
      "▁odanın": 3628,
      "cını": 3629,
      "Kısa": 3630,
      "▁geniş": 3631,
      "tim": 3632,
      "Bundan": 3633,
      "Şapka": 3634,
      "▁film": 3635,
      "mını": 3636,
      "▁Mary": 3637,
      "▁aptalca": 3638,
      "Tüm": 3639,
      "▁çocuğu": 3640,
      "Kağı": 3641,
      "▁gülüyor": 3642,
      "şil": 3643,
      "▁örde": 3644,
      "▁adil": 3645,
      "biraz": 3646,
      "melerini": 3647,
      "▁kat": 3648,
      "▁kenarında": 3649,
      "Kitap": 3650,
      "▁tuz": 3651,
      "▁kayb": 3652,
      "▁sıkış": 3653,
      "▁bastı": 3654,
      "Teşekkürler": 3655,
      "▁şeylere": 3656,
      "ike": 3657,
      "aratlı": 3658,
      "▁gitmişti": 3659,
      "Nefis": 3660,
      "▁gururla": 3661,
      "Kardeş": 3662,
      "▁hayvanat": 3663,
      "▁kase": 3664,
      "▁durum": 3665,
      "Gökyüzünde": 3666,
      "düğü": 3667,
      "Önce": 3668,
      "Haya": 3669,
      "▁çizim": 3670,
      "▁katılmak": 3671,
      "▁parmak": 3672,
      "▁çalışıyordu": 3673,
      "▁peynir": 3674,
      "▁cömert": 3675,
      "yaç": 3676,
      "▁oldukları": 3677,
      "▁ortadan": 3678,
      "▁Sammy": 3679,
      "▁özgür": 3680,
      "▁kardan": 3681,
      "▁sürün": 3682,
      "itty": 3683,
      "eder": 3684,
      "Ayak": 3685,
      "▁haline": 3686,
      "▁malz": 3687,
      "▁pis": 3688,
      "taat": 3689,
      "▁ağladığını": 3690,
      "▁çıkarmaya": 3691,
      "▁gittiğini": 3692,
      "Düş": 3693,
      "▁uğradı": 3694,
      "Salıncak": 3695,
      "▁değerli": 3696,
      "▁doldu": 3697,
      "▁dikkatle": 3698,
      "Aşağı": 3699,
      "▁verebilir": 3700,
      "▁hala": 3701,
      "▁göremedi": 3702,
      "▁tamamen": 3703,
      "▁turuncu": 3704,
      "▁zirv": 3705,
      "▁benimle": 3706,
      "▁söyler": 3707,
      "▁esk": 3708,
      "rin": 3709,
      "▁kurtardı": 3710,
      "▁fısıl": 3711,
      "Ban": 3712,
      "ekleri": 3713,
      "▁kararlıydı": 3714,
      "▁ikizlerdi": 3715,
      "▁karışık": 3716,
      "▁gibiydi": 3717,
      "sam": 3718,
      "▁bunları": 3719,
      "▁köy": 3720,
      "▁miktar": 3721,
      "▁cebine": 3722,
      "▁yakındaki": 3723,
      "Ağaca": 3724,
      "▁bugün": 3725,
      "▁adamı": 3726,
      "Otur": 3727,
      "▁sorunun": 3728,
      "▁tok": 3729,
      "Annemin": 3730,
      "▁huysuz": 3731,
      "rağın": 3732,
      "Doktor": 3733,
      "▁bakıp": 3734,
      "Din": 3735,
      "liyorlar": 3736,
      "Yemek": 3737,
      "br": 3738,
      "▁hissetmeye": 3739,
      "▁temizlem": 3740,
      "▁anlama": 3741,
      "ozor": 3742,
      "▁kili": 3743,
      "tular": 3744,
      "▁sebze": 3745,
      "▁normal": 3746,
      "ohum": 3747,
      "▁alıyor": 3748,
      "▁yılan": 3749,
      "▁bez": 3750,
      "leyi": 3751,
      "buk": 3752,
      "▁kral": 3753,
      "▁kaldırıp": 3754,
      "Yumuşak": 3755,
      "red": 3756,
      "ğrenç": 3757,
      "▁silah": 3758,
      "▁esn": 3759,
      "tıyordu": 3760,
      "▁tepeye": 3761,
      "▁suyun": 3762,
      "▁affet": 3763,
      "▁dönmeye": 3764,
      "Fil": 3765,
      "lerek": 3766,
      "luğunu": 3767,
      "Ol": 3768,
      "gis": 3769,
      "▁hissetmesini": 3770,
      "▁tr": 3771,
      "teşekkür": 3772,
      "madığını": 3773,
      "iyle": 3774,
      "▁paha": 3775,
      "▁kıskan": 3776,
      "uru": 3777,
      "emez": 3778,
      "▁çiçekleri": 3779,
      "▁etmem": 3780,
      "▁koya": 3781,
      "▁arkadaşını": 3782,
      "▁hikayeler": 3783,
      "üğ": 3784,
      "▁sürede": 3785,
      "staneye": 3786,
      "▁yüzdü": 3787,
      "▁pencereden": 3788,
      "▁yağmaya": 3789,
      "▁yaparken": 3790,
      "▁cı": 3791,
      "oyuncak": 3792,
      "ağ": 3793,
      "▁gökkuşağı": 3794,
      "▁kam": 3795,
      "▁saklambaç": 3796,
      "edinin": 3797,
      "▁kişi": 3798,
      "▁çevir": 3799,
      "hayır": 3800,
      "kork": 3801,
      "▁çıkarıyor": 3802,
      "▁em": 3803,
      "Kut": 3804,
      "▁oynama": 3805,
      "Yata": 3806,
      "▁ilgilen": 3807,
      "Bisik": 3808,
      "▁Jimmy": 3809,
      "araj": 3810,
      "▁tekme": 3811,
      "▁yaratık": 3812,
      "▁bulunduğu": 3813,
      "▁giden": 3814,
      "▁kuşları": 3815,
      "stik": 3816,
      "Kum": 3817,
      "▁ağr": 3818,
      "▁görebiliyordu": 3819,
      "▁duyar": 3820,
      "kendi": 3821,
      "Kapı": 3822,
      "▁ağırdı": 3823,
      "Çanta": 3824,
      "▁dürüst": 3825,
      "Hatta": 3826,
      "Onlarla": 3827,
      "▁yapabilir": 3828,
      "▁anneleri": 3829,
      "▁gökyüzü": 3830,
      "güneş": 3831,
      "▁kendisinin": 3832,
      "amuru": 3833,
      "▁nehir": 3834,
      "ince": 3835,
      "▁yığın": 3836,
      "▁cek": 3837,
      "▁nazikti": 3838,
      "▁müt": 3839,
      "daha": 3840,
      "▁iyiydi": 3841,
      "▁herkesin": 3842,
      "▁palt": 3843,
      "▁anlamına": 3844,
      "ceğine": 3845,
      "meliyiz": 3846,
      "▁toprak": 3847,
      "▁eğlenmek": 3848,
      "▁yır": 3849,
      "▁söyleye": 3850,
      "do": 3851,
      "▁umuyorlardı": 3852,
      "▁gitmesini": 3853,
      "emeyeceğini": 3854,
      "▁duyuyor": 3855,
      "▁sıkıca": 3856,
      "▁yoluna": 3857,
      "▁açtığında": 3858,
      "▁anahtar": 3859,
      "▁huzurlu": 3860,
      "Akşam": 3861,
      "bul": 3862,
      "▁kaşı": 3863,
      "▁fırladı": 3864,
      "▁za": 3865,
      "▁güle": 3866,
      "▁gülümseme": 3867,
      "▁girdiler": 3868,
      "▁tutuş": 3869,
      "▁kutusuna": 3870,
      "▁okula": 3871,
      "▁dokunma": 3872,
      "▁yapar": 3873,
      "Kır": 3874,
      "▁kibar": 3875,
      "Jen": 3876,
      "▁ailesine": 3877,
      "▁öde": 3878,
      "est": 3879,
      "▁vahşi": 3880,
      "eyik": 3881,
      "▁yapabilirsin": 3882,
      "azı": 3883,
      "▁hayvanlara": 3884,
      "dadı": 3885,
      "tüp": 3886,
      "Elinde": 3887,
      "yeşil": 3888,
      "▁boyu": 3889,
      "güzel": 3890,
      "▁giderken": 3891,
      "▁hoşlanıyordu": 3892,
      "Sincap": 3893,
      "▁yanından": 3894,
      "▁baka": 3895,
      "▁ağaçtan": 3896,
      "▁ayakkabılarını": 3897,
      "▁diler": 3898,
      "▁alet": 3899,
      "▁hafta": 3900,
      "▁gizemli": 3901,
      "oför": 3902,
      "▁birbirine": 3903,
      "co": 3904,
      "meyin": 3905,
      "▁araştır": 3906,
      "Etrafta": 3907,
      "▁yolda": 3908,
      "ğimiz": 3909,
      "wn": 3910,
      "▁hissettir": 3911,
      "▁alabilirsin": 3912,
      "▁köpr": 3913,
      "▁bulana": 3914,
      "bın": 3915,
      "▁başarılı": 3916,
      "▁yapıp": 3917,
      "▁arkasından": 3918,
      "▁sordular": 3919,
      "▁gidece": 3920,
      "Arabayı": 3921,
      "kiler": 3922,
      "▁gereken": 3923,
      "▁yaşında": 3924,
      "cuk": 3925,
      "annem": 3926,
      "▁olacağım": 3927,
      "▁gidiyordu": 3928,
      "▁sandı": 3929,
      "▁çeki": 3930,
      "▁çiftçi": 3931,
      "▁korkunç": 3932,
      "▁neredeyse": 3933,
      "Arı": 3934,
      "▁koyup": 3935,
      "▁insanları": 3936,
      "▁arkadaşsın": 3937,
      "▁haklı": 3938,
      "▁bitki": 3939,
      "Bunlar": 3940,
      "▁olmadığı": 3941,
      "eleri": 3942,
      "Ağacın": 3943,
      "▁yaladı": 3944,
      "ünyanın": 3945,
      "ümüş": 3946,
      "▁kalktı": 3947,
      "▁olursa": 3948,
      "▁markete": 3949,
      "▁ağlıyor": 3950,
      "bunu": 3951,
      "evr": 3952,
      "▁bekle": 3953,
      "vetli": 3954,
      "Eş": 3955,
      "▁itaat": 3956,
      "▁duyuyorum": 3957,
      "Sırayla": 3958,
      "▁ila": 3959,
      "Yapa": 3960,
      "▁şö": 3961,
      "▁keşfede": 3962,
      "▁giyi": 3963,
      "▁pürüzsüz": 3964,
      "▁sürdü": 3965,
      "▁battaniye": 3966,
      "ose": 3967,
      "vercin": 3968,
      "landır": 3969,
      "▁edebildiği": 3970,
      "geç": 3971,
      "Endişelen": 3972,
      "Kah": 3973,
      "▁konu": 3974,
      "Öğretmen": 3975,
      "▁deng": 3976,
      "▁paylaşmayı": 3977,
      "yıldı": 3978,
      "layabilir": 3979,
      "▁insanların": 3980,
      "▁ısırdı": 3981,
      "▁eri": 3982,
      "▁yiy": 3983,
      "▁yüzü": 3984,
      "▁yoruldu": 3985,
      "çiçek": 3986,
      "izin": 3987,
      "▁kutunun": 3988,
      "kaba": 3989,
      "▁yeten": 3990,
      "era": 3991,
      "rown": 3992,
      "▁durup": 3993,
      "Gel": 3994,
      "▁izlemek": 3995,
      "eğim": 3996,
      "seni": 3997,
      "Cana": 3998,
      "▁kırdı": 3999,
      "▁görünen": 4000,
      "▁suyla": 4001,
      "▁çayır": 4002,
      "gö": 4003,
      "▁per": 4004,
      "eceği": 4005,
      "▁malzeme": 4006,
      "▁yen": 4007,
      "▁resmini": 4008,
      "Sev": 4009,
      "tarı": 4010,
      "▁kokuyordu": 4011,
      "▁topunu": 4012,
      "lif": 4013,
      "üçlü": 4014,
      "▁elbisesini": 4015,
      "neden": 4016,
      "▁telefon": 4017,
      "▁gerg": 4018,
      "Burası": 4019,
      "rı": 4020,
      "▁salıncakta": 4021,
      "▁edil": 4022,
      "▁unutma": 4023,
      "▁masaya": 4024,
      "▁om": 4025,
      "▁çağırdı": 4026,
      "yken": 4027,
      "layalım": 4028,
      "yonu": 4029,
      "üldü": 4030,
      "▁kims": 4031,
      "▁demek": 4032,
      "▁kek": 4033,
      "▁söylemeye": 4034,
      "mavi": 4035,
      "ket": 4036,
      "▁rast": 4037,
      "ebiliriz": 4038,
      "▁eline": 4039,
      "Köpeğin": 4040,
      "obüs": 4041,
      "▁oynayabilirsin": 4042,
      "▁karıştırdı": 4043,
      "▁televizyon": 4044,
      "▁korkmuyordu": 4045,
      "işman": 4046,
      "▁döktü": 4047,
      "yap": 4048,
      "aga": 4049,
      "bazı": 4050,
      "▁hayat": 4051,
      "▁paket": 4052,
      "▁hatırla": 4053,
      "lumbağa": 4054,
      "▁takım": 4055,
      "▁uçmayı": 4056,
      "▁söylediklerini": 4057,
      "▁geldiğince": 4058,
      "Annesinden": 4059,
      "▁kalıp": 4060,
      "▁seçti": 4061,
      "▁oğlan": 4062,
      "weety": 4063,
      "▁teklif": 4064,
      "▁okul": 4065,
      "▁şaşkın": 4066,
      "▁sırayla": 4067,
      "▁ışığında": 4068,
      "▁havlu": 4069,
      "▁hissediyorlar": 4070,
      "Lisa": 4071,
      "ebilirsin": 4072,
      "▁etrafa": 4073,
      "▁Emily": 4074,
      "▁ancak": 4075,
      "araba": 4076,
      "Um": 4077,
      "▁öğretmen": 4078,
      "▁sön": 4079,
      "▁yapıla": 4080,
      "▁sakladı": 4081,
      "▁meşe": 4082,
      "▁oynayıp": 4083,
      "Böcek": 4084,
      "▁ber": 4085,
      "Korkmuştu": 4086,
      "▁şunu": 4087,
      "▁toz": 4088,
      "▁fermu": 4089,
      "▁çalmaya": 4090,
      "Yat": 4091,
      "manı": 4092,
      "sarı": 4093,
      "▁bencil": 4094,
      "▁ulaşana": 4095,
      "▁kana": 4096,
      "gü": 4097,
      "▁sevgi": 4098,
      "▁evini": 4099,
      "▁Ma": 4100,
      "▁iğ": 4101,
      "embel": 4102,
      "▁oturdular": 4103,
      "▁uzanıp": 4104,
      "▁yaprakları": 4105,
      "siye": 4106,
      "▁üzüldüler": 4107,
      "Beğ": 4108,
      "▁kıkırdadı": 4109,
      "▁oluyor": 4110,
      "▁meşguldü": 4111,
      "Bitirdi": 4112,
      "oru": 4113,
      "▁değilsin": 4114,
      "▁kapat": 4115,
      "Şek": 4116,
      "▁kediyi": 4117,
      "▁rengi": 4118,
      "▁oluştur": 4119,
      "Jake": 4120,
      "tamam": 4121,
      "▁sos": 4122,
      "ran": 4123,
      "Nasıl": 4124,
      "Heyecan": 4125,
      "Kutunun": 4126,
      "▁sabırlı": 4127,
      "▁tutuyor": 4128,
      "▁gönder": 4129,
      "▁olacağına": 4130,
      "▁mektup": 4131,
      "▁okyanu": 4132,
      "Şöyle": 4133,
      "Jo": 4134,
      "▁dua": 4135,
      "Kaç": 4136,
      "▁misiniz": 4137,
      "ılan": 4138,
      "▁böceği": 4139,
      "Tekne": 4140,
      "▁çocukların": 4141,
      "Eski": 4142,
      "▁büyükbaba": 4143,
      "Tele": 4144,
      "ündü": 4145,
      "▁dair": 4146,
      "Dondur": 4147,
      "▁domuz": 4148,
      "▁serin": 4149,
      "lemeyi": 4150,
      "Alice": 4151,
      "▁gördüğüne": 4152,
      "göz": 4153,
      "Müz": 4154,
      "▁tanı": 4155,
      "▁alamayacağını": 4156,
      "▁etik": 4157,
      "▁eğlenc": 4158,
      "Annesini": 4159,
      "Elini": 4160,
      "Kas": 4161,
      "esiyle": 4162,
      "▁görmeyi": 4163,
      "▁dileriz": 4164,
      "Hızlı": 4165,
      "▁utandı": 4166,
      "▁met": 4167,
      "lamasını": 4168,
      "▁vurdu": 4169,
      "eyve": 4170,
      "▁bekliyordu": 4171,
      "Şarkı": 4172,
      "▁izlerken": 4173,
      "▁olanı": 4174,
      "▁bilmek": 4175,
      "▁bizi": 4176,
      "malısınız": 4177,
      "▁tabela": 4178,
      "▁ebeveyn": 4179,
      "▁bulmaca": 4180,
      "Mutluydu": 4181,
      "Kendilerini": 4182,
      "landığını": 4183,
      "▁kısmını": 4184,
      "evazı": 4185,
      "▁oynuyor": 4186,
      "▁söylüyordu": 4187,
      "lendir": 4188,
      "dele": 4189,
      "sadece": 4190,
      "▁şeyden": 4191,
      "▁itfaiye": 4192,
      "vul": 4193,
      "▁çevr": 4194,
      "uzun": 4195,
      "▁annelerine": 4196,
      "Onların": 4197,
      "▁minik": 4198,
      "▁nazikçe": 4199,
      "▁hazin": 4200,
      "ortak": 4201,
      "atçı": 4202,
      "▁oyuncaklarla": 4203,
      "▁odasını": 4204,
      "▁bakalım": 4205,
      "▁yakınındaki": 4206,
      "▁kimin": 4207,
      "erince": 4208,
      "ıncağa": 4209,
      "dığı": 4210,
      "▁sadık": 4211,
      "Çu": 4212,
      "▁görmez": 4213,
      "▁buzdola": 4214,
      "Canavar": 4215,
      "▁başı": 4216,
      "▁yazık": 4217,
      "▁bi": 4218,
      "▁bahçe": 4219,
      "▁kuyruğu": 4220,
      "▁arabaları": 4221,
      "meyeceğini": 4222,
      "Güle": 4223,
      "ratik": 4224,
      "ğinin": 4225,
      "▁süp": 4226,
      "mamıştı": 4227,
      "▁duygu": 4228,
      "Rüzg": 4229,
      "▁hev": 4230,
      "▁fen": 4231,
      "▁kalp": 4232,
      "▁pişman": 4233,
      "▁şiddetli": 4234,
      "Han": 4235,
      "▁buradan": 4236,
      "▁halde": 4237,
      "Yu": 4238,
      "İp": 4239,
      "Balon": 4240,
      "▁büyükannes": 4241,
      "Başını": 4242,
      "emo": 4243,
      "▁bitirdikten": 4244,
      "osunu": 4245,
      "▁teslim": 4246,
      "▁dönmek": 4247,
      "▁davranmayı": 4248,
      "▁zıplamaya": 4249,
      "▁sandalye": 4250,
      "teydi": 4251,
      "▁çeş": 4252,
      "şek": 4253,
      "▁hediy": 4254,
      "▁kaydırağa": 4255,
      "Ejderha": 4256,
      "▁tanış": 4257,
      "Annelerinin": 4258,
      "▁gri": 4259,
      "eniyor": 4260,
      "▁yatağına": 4261,
      "Temiz": 4262,
      "Komik": 4263,
      "▁göle": 4264,
      "▁balığı": 4265,
      "yazan": 4266,
      "Ellerini": 4267,
      "iğe": 4268,
      "▁olmasından": 4269,
      "▁kanatlarını": 4270,
      "mışlardı": 4271,
      "Bakın": 4272,
      "bildiğince": 4273,
      "şana": 4274,
      "▁yuvarlan": 4275,
      "▁unutmadı": 4276,
      "Kurabiye": 4277,
      "▁çalışır": 4278,
      "kesi": 4279,
      "▁yaptım": 4280,
      "▁çak": 4281,
      "▁bakındı": 4282,
      "Pembe": 4283,
      "▁gittiğinde": 4284,
      "▁topa": 4285,
      "▁oynamaktan": 4286,
      "▁arabalarıyla": 4287,
      "laşık": 4288,
      "▁maka": 4289,
      "oph": 4290,
      "▁önerdi": 4291,
      "Köpeği": 4292,
      "ist": 4293,
      "▁piknik": 4294,
      "▁mücevher": 4295,
      "▁götürdüler": 4296,
      "▁eşyalarını": 4297,
      "valye": 4298,
      "▁oyuncaklar": 4299,
      "Dave": 4300,
      "▁bulup": 4301,
      "▁rok": 4302,
      "▁kup": 4303,
      "▁gürültüyü": 4304,
      "▁oynayan": 4305,
      "▁çıkarmak": 4306,
      "ehir": 4307,
      "binde": 4308,
      "▁tohum": 4309,
      "▁heves": 4310,
      "eğine": 4311,
      "Ok": 4312,
      "Aya": 4313,
      "ukur": 4314,
      "▁aydın": 4315,
      "ceğiz": 4316,
      "▁süz": 4317,
      "▁li": 4318,
      "irken": 4319,
      "Hiçbir": 4320,
      "ydılar": 4321,
      "bilmeyi": 4322,
      "▁anneme": 4323,
      "köp": 4324,
      "gel": 4325,
      "eor": 4326,
      "▁W": 4327,
      "ümü": 4328,
      "▁ihtiyacım": 4329,
      "▁yuvarlak": 4330,
      "▁etmiş": 4331,
      "onuş": 4332,
      "▁sözünü": 4333,
      "▁verirler": 4334,
      "▁büyüdü": 4335,
      "▁sar": 4336,
      "▁koyun": 4337,
      "▁yarattı": 4338,
      "▁kullanarak": 4339,
      "torit": 4340,
      "Tır": 4341,
      "Gittiği": 4342,
      "sever": 4343,
      "Oy": 4344,
      "▁pahalı": 4345,
      "▁söylediğini": 4346,
      "Lezzetli": 4347,
      "▁mahvet": 4348,
      "Nereye": 4349,
      "▁dilek": 4350,
      "▁geldiler": 4351,
      "mazdı": 4352,
      "▁anlattılar": 4353,
      "▁baharatlı": 4354,
      "▁uçan": 4355,
      "▁anı": 4356,
      "Peter": 4357,
      "▁Jenny": 4358,
      "▁bahsetti": 4359,
      "▁unutu": 4360,
      "Kay": 4361,
      "utbol": 4362,
      "irler": 4363,
      "Şaş": 4364,
      "ücük": 4365,
      "▁hikay": 4366,
      "Oynamak": 4367,
      "▁fikirde": 4368,
      "▁gaga": 4369,
      "▁kapıya": 4370,
      "Peri": 4371,
      "▁sahte": 4372,
      "İnsanlar": 4373,
      "▁yürüyorlardı": 4374,
      "Çek": 4375,
      "▁korkuyor": 4376,
      "▁kaşlarını": 4377,
      "fendi": 4378,
      "Anneme": 4379,
      "Annesiyle": 4380,
      "▁hortu": 4381,
      "▁parayı": 4382,
      "valtı": 4383,
      "Ducky": 4384,
      "▁kollarını": 4385,
      "▁kaptı": 4386,
      "▁istiyoruz": 4387,
      "▁kovaladı": 4388,
      "▁hissede": 4389,
      "▁beklediler": 4390,
      "▁özen": 4391,
      "ılmıştı": 4392,
      "▁attılar": 4393,
      "▁suç": 4394,
      "▁korsan": 4395,
      "Kaya": 4396,
      "Kes": 4397,
      "▁korku": 4398,
      "▁tepe": 4399,
      "▁arasından": 4400,
      "▁pizza": 4401,
      "▁rek": 4402,
      "▁yakalaya": 4403,
      "▁yerinde": 4404,
      "▁yerden": 4405,
      "▁cevapladı": 4406,
      "▁Jake": 4407,
      "▁tabak": 4408,
      "▁üzere": 4409,
      "yaço": 4410,
      "oppy": 4411,
      "▁kenara": 4412,
      "▁tah": 4413,
      "▁saçları": 4414,
      "Baykuş": 4415,
      "▁iyisini": 4416,
      "▁bina": 4417,
      "Kardan": 4418,
      "▁ov": 4419,
      "sak": 4420,
      "▁gec": 4421,
      "eğer": 4422,
      "▁ormanı": 4423,
      "▁ağaçların": 4424,
      "▁kokusunu": 4425,
      "▁şeyle": 4426,
      "eorge": 4427,
      "▁güvendeydi": 4428,
      "zaket": 4429,
      "▁kürk": 4430,
      "İt": 4431,
      "▁iğrenç": 4432,
      "Kelebek": 4433,
      "▁soğ": 4434,
      "Öğle": 4435,
      "▁düşündüler": 4436,
      "▁konuşa": 4437,
      "▁arkadaşıyla": 4438,
      "▁getirmek": 4439,
      "Yeşil": 4440,
      "▁sepet": 4441,
      "eve": 4442,
      "cıydı": 4443,
      "Yiye": 4444,
      "Is": 4445,
      "▁tepesine": 4446,
      "▁açmak": 4447,
      "leme": 4448,
      "ayda": 4449,
      "Yarış": 4450,
      "Ormanda": 4451,
      "▁sevdikleri": 4452,
      "▁gömle": 4453,
      "Hayvanlar": 4454,
      "ima": 4455,
      "▁kayanın": 4456,
      "mıyorum": 4457,
      "▁mutluluğunu": 4458,
      "Yaklaştı": 4459,
      "▁uzağa": 4460,
      "▁tün": 4461,
      "Oyuncakları": 4462,
      "▁başlarlar": 4463,
      "▁yolculuğa": 4464,
      "▁blokları": 4465,
      "▁başlamıştı": 4466,
      "▁gar": 4467,
      "▁kalemi": 4468,
      "Tatlı": 4469,
      "bire": 4470,
      "ğımsız": 4471,
      "cının": 4472,
      "▁inek": 4473,
      "denbire": 4474,
      "ızı": 4475,
      "▁görmezden": 4476,
      "▁çaba": 4477,
      "▁koyuyor": 4478,
      "▁güneşte": 4479,
      "▁çalışma": 4480,
      "ch": 4481,
      "▁etmişti": 4482,
      "▁anlamadı": 4483,
      "▁tim": 4484,
      "pop": 4485,
      "▁bı": 4486,
      "▁oturan": 4487,
      "üler": 4488,
      "isine": 4489,
      "▁kelebeği": 4490,
      "Güldü": 4491,
      "Dal": 4492,
      "aklı": 4493,
      "▁başladığında": 4494,
      "Mutfağa": 4495,
      "Rex": 4496,
      "▁çitin": 4497,
      "liçe": 4498,
      "Hemen": 4499,
      "▁acele": 4500,
      "sör": 4501,
      "luydu": 4502,
      "sanız": 4503,
      "oby": 4504,
      "▁ipi": 4505,
      "▁şapkasını": 4506,
      "▁altın": 4507,
      "▁toplamaya": 4508,
      "Prenses": 4509,
      "▁yolculuk": 4510,
      "▁dolaşırken": 4511,
      "▁bulmasına": 4512,
      "▁duvara": 4513,
      "▁neler": 4514,
      "kö": 4515,
      "Teddy": 4516,
      "muyor": 4517,
      "▁nihayet": 4518,
      "▁ortasında": 4519,
      "▁arabasıyla": 4520,
      "Tren": 4521,
      "kita": 4522,
      "benim": 4523,
      "endin": 4524,
      "Ek": 4525,
      "▁çalışa": 4526,
      "▁sildi": 4527,
      "lıyorum": 4528,
      "ücu": 4529,
      "▁asa": 4530,
      "▁yatağa": 4531,
      "lat": 4532,
      "▁palam": 4533,
      "ılgın": 4534,
      "▁çirkin": 4535,
      "tıpkı": 4536,
      "▁korktular": 4537,
      "▁uçmaya": 4538,
      "▁kılı": 4539,
      "Ot": 4540,
      "ret": 4541,
      "▁çök": 4542,
      "ıncaya": 4543,
      "esa": 4544,
      "▁alalım": 4545,
      "▁beş": 4546,
      "▁isim": 4547,
      "So": 4548,
      "ebek": 4549,
      "Ağlamaya": 4550,
      "▁pratik": 4551,
      "▁ül": 4552,
      "▁paylaşmaya": 4553,
      "ilde": 4554,
      "Çocu": 4555,
      "▁uçur": 4556,
      "▁yüzerek": 4557,
      "erini": 4558,
      "▁sorar": 4559,
      "cağından": 4560,
      "▁vermiş": 4561,
      "▁başaramadı": 4562,
      "▁yalnızca": 4563,
      "▁birer": 4564,
      "▁sevindiler": 4565,
      "▁sını": 4566,
      "elendi": 4567,
      "dirdi": 4568,
      "Maymun": 4569,
      "olipop": 4570,
      "▁yuvarlandı": 4571,
      "▁anahtarı": 4572,
      "Boya": 4573,
      "▁çalıştığını": 4574,
      "tını": 4575,
      "▁dinozor": 4576,
      "▁şeylerle": 4577,
      "aktan": 4578,
      "mama": 4579,
      "▁işleri": 4580,
      "▁dokuna": 4581,
      "ersiz": 4582,
      "mediler": 4583,
      "▁bırakmak": 4584,
      "top": 4585,
      "Bek": 4586,
      "Yere": 4587,
      "▁giyip": 4588,
      "▁görmekten": 4589,
      "▁bankta": 4590,
      "▁bulamadılar": 4591,
      "üf": 4592,
      "ldılar": 4593,
      "▁inatçı": 4594,
      "▁edelim": 4595,
      "▁karışmıştı": 4596,
      "koş": 4597,
      "▁üş": 4598,
      "inci": 4599,
      "▁toplamayı": 4600,
      "▁istemiyorlar": 4601,
      "▁aş": 4602,
      "Kral": 4603,
      "▁eldiven": 4604,
      "▁ayıyı": 4605,
      "duğunu": 4606,
      "▁gülümsüyorlar": 4607,
      "▁fikr": 4608,
      "▁tadına": 4609,
      "▁yapmıştı": 4610,
      "▁çalmayı": 4611,
      "▁çiçeği": 4612,
      "▁duyuyorlardı": 4613,
      "▁yar": 4614,
      "▁şoför": 4615,
      "▁okumayı": 4616,
      "▁çimlerin": 4617,
      "ibi": 4618,
      "▁sallanmaya": 4619,
      "Nerede": 4620,
      "ij": 4621,
      "▁timsah": 4622,
      "▁tartış": 4623,
      "▁değiller": 4624,
      "Büy": 4625,
      "çiç": 4626,
      "▁duruyordu": 4627,
      "▁hastaneye": 4628,
      "Yarın": 4629,
      "Sanırım": 4630,
      "ciydi": 4631,
      "▁yığını": 4632,
      "▁Mittens": 4633,
      "▁ormandaki": 4634,
      "kinden": 4635,
      "Yaprak": 4636,
      "▁yerler": 4637,
      "▁yüksekti": 4638,
      "▁elbisesi": 4639,
      "▁garaj": 4640,
      "▁evinde": 4641,
      "▁çatı": 4642,
      "▁kürek": 4643,
      "▁severim": 4644,
      "Endişelenme": 4645,
      "yaşında": 4646,
      "ru": 4647,
      "▁gelmesini": 4648,
      "▁topuyla": 4649,
      "Yukarıya": 4650,
      "raki": 4651,
      "▁gidebilir": 4652,
      "udu": 4653,
      "▁yaptıklarını": 4654,
      "yardım": 4655,
      "▁limon": 4656,
      "▁oynayabiliriz": 4657,
      "▁ihtiyacın": 4658,
      "▁yapacaklarını": 4659,
      "▁yapabilirim": 4660,
      "▁ayrı": 4661,
      "meyen": 4662,
      "liğin": 4663,
      "Deniz": 4664,
      "Elbis": 4665,
      "erry": 4666,
      "▁Bu": 4667,
      "▁yengeç": 4668,
      "▁olmalıyız": 4669,
      "▁hayalini": 4670,
      "ediğini": 4671,
      "mayacağı": 4672,
      "mediği": 4673,
      "▁söylemek": 4674,
      "dına": 4675,
      "iddi": 4676,
      "▁ediyorum": 4677,
      "Yine": 4678,
      "ama": 4679,
      "▁sinca": 4680,
      "▁tavuk": 4681,
      "▁yüzmeyi": 4682,
      "▁ilerledi": 4683,
      "mesinden": 4684,
      "▁olmadan": 4685,
      "▁kendilerine": 4686,
      "▁büyüy": 4687,
      "▁polis": 4688,
      "▁pastel": 4689,
      "▁geçen": 4690,
      "gisay": 4691,
      "vanın": 4692,
      "emiyordu": 4693,
      "Annelerine": 4694,
      "özellikle": 4695,
      "▁deliğe": 4696,
      "▁okşa": 4697,
      "▁daima": 4698,
      "▁çekmeye": 4699,
      "▁kayı": 4700,
      "▁bildi": 4701,
      "pag": 4702,
      "▁çil": 4703,
      "Ders": 4704,
      "▁düşünceli": 4705,
      "böylece": 4706,
      "▁oradaydı": 4707,
      "Johnny": 4708,
      "vasa": 4709,
      "▁şişe": 4710,
      "▁sevdiklerini": 4711,
      "ağaç": 4712,
      "ddi": 4713,
      "▁lam": 4714,
      "!'": 4715,
      "caktı": 4716,
      "dern": 4717,
      "▁kara": 4718,
      "bazen": 4719,
      "bilen": 4720,
      "▁düğmeye": 4721,
      "▁Teddy": 4722,
      "Korktu": 4723,
      "▁uza": 4724,
      "Göl": 4725,
      "Mar": 4726,
      "▁saçını": 4727,
      "▁tutuyordu": 4728,
      "▁olana": 4729,
      "veni": 4730,
      "▁düğme": 4731,
      "▁eğleniyorlardı": 4732,
      "Andy": 4733,
      "▁suçlu": 4734,
      "vallı": 4735,
      "Pat": 4736,
      "Tar": 4737,
      "▁mav": 4738,
      "mla": 4739,
      "▁nes": 4740,
      "barık": 4741,
      "yav": 4742,
      "▁kıyafetlerini": 4743,
      "▁iri": 4744,
      "▁mısın": 4745,
      "Mark": 4746,
      "Arkadaşlarına": 4747,
      "Kuşun": 4748,
      "▁test": 4749,
      "lmayı": 4750,
      "▁arkadaşımsın": 4751,
      "▁'": 4752,
      "▁bardak": 4753,
      "▁endişeli": 4754,
      "İşi": 4755,
      "▁red": 4756,
      "▁güldür": 4757,
      "▁öpücük": 4758,
      "▁izleye": 4759,
      "varlak": 4760,
      "▁taşıdı": 4761,
      "▁gittiği": 4762,
      "ıyorsun": 4763,
      "▁zıplamayı": 4764,
      "Aptal": 4765,
      "▁olduğudur": 4766,
      "▁edeceğini": 4767,
      "leşti": 4768,
      "▁dükkan": 4769,
      "▁gününü": 4770,
      "▁yoğ": 4771,
      "incan": 4772,
      "▁babasını": 4773,
      "Kulağa": 4774,
      "Güvende": 4775,
      "dip": 4776,
      "▁kapının": 4777,
      "▁karşısında": 4778,
      "▁yardımsever": 4779,
      "▁kalın": 4780,
      "Orta": 4781,
      "inal": 4782,
      "▁tarafından": 4783,
      "▁batı": 4784,
      "▁yüzmeye": 4785,
      "üyorlardı": 4786,
      "yum": 4787,
      "▁eğlence": 4788,
      "▁Lisa": 4789,
      "▁kayaya": 4790,
      "▁fayda": 4791,
      "▁konuşmaya": 4792,
      "eriş": 4793,
      "▁atmaya": 4794,
      "unus": 4795,
      "les": 4796,
      "▁sizi": 4797,
      "ürdü": 4798,
      "▁fa": 4799,
      "▁soğuktu": 4800,
      "Gürül": 4801,
      "▁tutarak": 4802,
      "▁gevr": 4803,
      "▁üzgünler": 4804,
      "▁zarif": 4805,
      "Kafa": 4806,
      "▁bağırdılar": 4807,
      "tırdı": 4808,
      "▁oyunca": 4809,
      "laştır": 4810,
      "başka": 4811,
      "asul": 4812,
      "Düğ": 4813,
      "▁ışığı": 4814,
      "▁ata": 4815,
      "▁portak": 4816,
      "▁mütevazı": 4817,
      "▁yat": 4818,
      "▁benziyordu": 4819,
      "▁Peter": 4820,
      "▁çattı": 4821,
      "▁düşüyor": 4822,
      "▁hayvanların": 4823,
      "▁yapıştırıcı": 4824,
      "▁tarafa": 4825,
      "Çı": 4826,
      "madık": 4827,
      "▁veriyorum": 4828,
      "tüs": 4829,
      "▁paz": 4830,
      "asyon": 4831,
      "▁otorit": 4832,
      "şıyorlardı": 4833,
      "▁üzgünüm": 4834,
      "▁cıvıl": 4835,
      "maşır": 4836,
      "Gi": 4837,
      "▁sallayıp": 4838,
      "▁bebekleriyle": 4839,
      "bilmesi": 4840,
      "▁nadir": 4841,
      "Kav": 4842,
      "▁çantasını": 4843,
      "ophie": 4844,
      "rayı": 4845,
      "▁kasabada": 4846,
      "▁önemlidir": 4847,
      "▁tembel": 4848,
      "▁çekici": 4849,
      "▁yazdı": 4850,
      "lex": 4851,
      "▁sürprizi": 4852,
      "mates": 4853,
      "▁kaydıraktan": 4854,
      "▁affedi": 4855,
      "▁tutmaya": 4856,
      "▁istemedim": 4857,
      "▁bandı": 4858,
      "▁çekiyor": 4859,
      "▁binip": 4860,
      "cuz": 4861,
      "urken": 4862,
      "▁geceler": 4863,
      "leştirdi": 4864,
      "mişlerdi": 4865,
      "▁uçurtma": 4866,
      "▁kiş": 4867,
      "bilirdi": 4868,
      "▁kuma": 4869,
      "▁nezaket": 4870,
      "▁istiyorsun": 4871,
      "▁yana": 4872,
      "▁erken": 4873,
      "Saç": 4874,
      "▁işten": 4875,
      "diniz": 4876,
      "▁okuya": 4877,
      "▁kuyruk": 4878,
      "Sık": 4879,
      "tikçe": 4880,
      "Annemi": 4881,
      "▁arabanın": 4882,
      "▁unuttular": 4883,
      "▁koku": 4884,
      "yaşındaki": 4885,
      "▁sonraki": 4886,
      "▁gülüyorlar": 4887,
      "eğinin": 4888,
      "▁gözyaş": 4889,
      "Dünya": 4890,
      "kitap": 4891,
      "şık": 4892,
      "emi": 4893,
      "▁hayvanlarla": 4894,
      "▁kapatıp": 4895,
      "engu": 4896,
      "▁öğretti": 4897,
      "▁parçaları": 4898,
      "esiz": 4899,
      "▁toplamak": 4900,
      "▁hazırlan": 4901,
      "▁tavşanı": 4902,
      "▁prens": 4903,
      "▁saklamak": 4904,
      "▁paylaşmanın": 4905,
      "oğum": 4906,
      "▁Bayan": 4907,
      "▁aldığını": 4908,
      "▁futbol": 4909,
      "▁kaçtılar": 4910,
      "Kuyr": 4911,
      "Buna": 4912,
      "yaşındaydı": 4913,
      "Dost": 4914,
      "▁beğendiler": 4915,
      "dum": 4916,
      "▁kullandılar": 4917,
      "Güneşin": 4918,
      "▁ekşi": 4919,
      "âr": 4920,
      "▁çocukları": 4921,
      "▁atkı": 4922,
      "▁robot": 4923,
      "ikaye": 4924,
      "▁yerken": 4925,
      "inize": 4926,
      "▁uydu": 4927,
      "tates": 4928,
      "Geldi": 4929,
      "▁küp": 4930,
      "▁renkleri": 4931,
      "özür": 4932,
      "▁bilmiyor": 4933,
      "▁devasa": 4934,
      "▁Leo": 4935,
      "▁Ka": 4936,
      "▁sürekli": 4937,
      "Yavaşça": 4938,
      "▁çuval": 4939,
      "pagetti": 4940,
      "yana": 4941,
      "Yiyecek": 4942,
      "▁anladılar": 4943,
      "▁sıkıştı": 4944,
      "▁küçül": 4945,
      "▁rüzg": 4946,
      "▁çizgi": 4947,
      "Aldı": 4948,
      "▁almıştı": 4949,
      "Hazır": 4950,
      "▁oldukça": 4951,
      "Bisiklet": 4952,
      "▁bağırıyor": 4953,
      "▁eşyaları": 4954,
      "!'\n\n": 4955,
      "▁belirdi": 4956,
      "▁belki": 4957,
      "▁umuyorlar": 4958,
      "▁giymeyi": 4959,
      "▁dest": 4960,
      "▁içeriye": 4961,
      "?\n\n": 4962,
      "Kal": 4963,
      "▁çocuklara": 4964,
      "ıstık": 4965,
      "▁çağır": 4966,
      "▁sanki": 4967,
      "Söz": 4968,
      "rista": 4969,
      "gil": 4970,
      "▁binmek": 4971,
      "Karanlık": 4972,
      "Bize": 4973,
      "▁parasını": 4974,
      "natı": 4975,
      "artık": 4976,
      "▁bilerek": 4977,
      "▁bakar": 4978,
      "▁sıradan": 4979,
      "▁hamur": 4980,
      "▁dünyanın": 4981,
      "▁bisiklete": 4982,
      "Resim": 4983,
      "▁slay": 4984,
      "▁sahib": 4985,
      "Ada": 4986,
      "maması": 4987,
      "▁han": 4988,
      "▁harita": 4989,
      "▁sarılır": 4990,
      "▁bulalım": 4991,
      "▁keşfetti": 4992,
      "▁duyarlar": 4993,
      "▁tekerlek": 4994,
      "▁ışıltılı": 4995,
      "Yıldız": 4996,
      "▁ciddi": 4997,
      "▁görmüşler": 4998,
      "▁mas": 4999,
      "ıknatı": 5000,
      "ertesi": 5001,
      "▁kızdır": 5002,
      "Para": 5003,
      "▁çukur": 5004,
      "▁fi": 5005,
      "▁meyv": 5006,
      "▁kedinin": 5007,
      "lah": 5008,
      "üylü": 5009,
      "Paul": 5010,
      "Pastayı": 5011,
      "▁dükk": 5012,
      "▁gölette": 5013,
      "▁kitapları": 5014,
      "▁bulmayı": 5015,
      "▁rastladı": 5016,
      "gg": 5017,
      "▁koly": 5018,
      "▁fincan": 5019,
      "uşturdu": 5020,
      "▁gol": 5021,
      "oka": 5022,
      "▁kolunu": 5023,
      "▁sokakta": 5024,
      "oyna": 5025,
      "birlikte": 5026,
      "tek": 5027,
      "kür": 5028,
      "Kor": 5029,
      "▁lamba": 5030,
      "▁herkesi": 5031,
      "▁çalışmaya": 5032,
      "Ateş": 5033,
      "▁yorgundu": 5034,
      "Mittens": 5035,
      "▁gı": 5036,
      "▁koşarken": 5037,
      "▁yardımıyla": 5038,
      "Meyve": 5039,
      "▁hareketsiz": 5040,
      "▁bebeğini": 5041,
      "Kitabı": 5042,
      "▁katıldı": 5043,
      "▁ağlamayı": 5044,
      "Ana": 5045,
      "Yolda": 5046,
      "Mandy": 5047,
      "▁okudu": 5048,
      "▁gölün": 5049,
      "▁birbirleriyle": 5050,
      "ddy": 5051,
      "▁pil": 5052,
      "▁boyut": 5053,
      "▁fısıldadı": 5054,
      "▁olmuş": 5055,
      "şıl": 5056,
      "▁oynamanın": 5057,
      "▁yerdi": 5058,
      "▁edebileceğini": 5059,
      "Bobby": 5060,
      "▁sevinmişti": 5061,
      "Masa": 5062,
      "▁mücevh": 5063,
      "▁olmaları": 5064,
      "▁koşar": 5065,
      "▁pe": 5066,
      "ese": 5067,
      "▁hatırlattı": 5068,
      "ceğin": 5069,
      "▁gülmeye": 5070,
      "▁pop": 5071,
      "▁yapılmış": 5072,
      "Av": 5073,
      "▁eğildi": 5074,
      "▁burnunu": 5075,
      "ow": 5076,
      "▁geyik": 5077,
      "▁kullanmak": 5078,
      "▁karşılık": 5079,
      "▁bıraktılar": 5080,
      "Pişman": 5081,
      "▁gökyüzünü": 5082,
      "▁kaçmaya": 5083,
      "▁kalkıp": 5084,
      "Koşarak": 5085,
      "mamız": 5086,
      "Tur": 5087,
      "▁korkuyorlar": 5088,
      "▁mesa": 5089,
      "▁kaza": 5090,
      "git": 5091,
      "uh": 5092,
      "▁oynamasını": 5093,
      "▁komşu": 5094,
      "▁naziksin": 5095,
      "Kendisiyle": 5096,
      "▁dinlemek": 5097,
      "▁ayna": 5098,
      "Biliyorum": 5099,
      "▁çıkmayı": 5100,
      "▁tırmanmak": 5101,
      "Sizi": 5102,
      "▁sorunu": 5103,
      "iyan": 5104,
      "rabilir": 5105,
      "▁döndür": 5106,
      "▁reddet": 5107,
      "▁tahmin": 5108,
      "Acı": 5109,
      "▁maceralara": 5110,
      "▁fırla": 5111,
      "▁oluşan": 5112,
      "▁nereden": 5113,
      "▁sayfa": 5114,
      "▁evden": 5115,
      "▁aramak": 5116,
      "▁korna": 5117,
      "Parti": 5118,
      "amı": 5119,
      "▁çılgın": 5120,
      "▁etiket": 5121,
      "▁sabırsızlıkla": 5122,
      "▁mum": 5123,
      "▁söyleyip": 5124,
      "Kaydırağa": 5125,
      "abet": 5126,
      "▁dürt": 5127,
      "▁duyuyorlar": 5128,
      "isinden": 5129,
      "varı": 5130,
      "▁tepeden": 5131,
      "▁çıkartma": 5132,
      "Af": 5133,
      "▁ediyorlardı": 5134,
      "bilecekleri": 5135,
      "kel": 5136,
      "Korkma": 5137,
      "▁dinlemeyi": 5138,
      "derdi": 5139,
      "tol": 5140,
      "ost": 5141,
      "▁böylece": 5142,
      "Sarılıp": 5143,
      "▁ertesi": 5144,
      "daj": 5145,
      "▁makine": 5146,
      "▁kırp": 5147,
      "Def": 5148,
      "▁kıyıya": 5149,
      "Kocaman": 5150,
      "▁fırına": 5151,
      "▁çıkarır": 5152,
      "▁benziyor": 5153,
      "Oynamayı": 5154,
      "▁çevirdi": 5155,
      "▁kediye": 5156,
      "▁bisikleti": 5157,
      "Size": 5158,
      "Böyle": 5159,
      "▁tarafına": 5160,
      "▁giyiyordu": 5161,
      "▁çekip": 5162,
      "▁batmaya": 5163,
      "▁halı": 5164,
      "▁kuşların": 5165,
      "▁bahçesi": 5166,
      "veriş": 5167,
      "▁çıkan": 5168,
      "ıllıydı": 5169,
      "rownie": 5170,
      "▁don": 5171,
      "luğu": 5172,
      "▁yapmanın": 5173,
      "Bizim": 5174,
      "▁komş": 5175,
      "▁vedalaştılar": 5176,
      "▁kutusunu": 5177,
      "▁çekildi": 5178,
      "Merdiven": 5179,
      "▁gürültüs": 5180,
      "▁sallayarak": 5181,
      "ınav": 5182,
      "▁babalarıyla": 5183,
      "yem": 5184,
      "weeti": 5185,
      "▁buraya": 5186,
      "▁yürüm": 5187,
      "▁annelerinin": 5188,
      "▁dolaşmayı": 5189,
      "▁çor": 5190,
      "weetie": 5191,
      "arını": 5192,
      "▁nehre": 5193,
      "▁yalnızdı": 5194,
      "▁gösteriyor": 5195,
      "otu": 5196,
      "gie": 5197,
      "Eğlendiler": 5198,
      "▁kazanmak": 5199,
      "Kul": 5200,
      "▁atıyor": 5201,
      "iki": 5202,
      "▁çadır": 5203,
      "▁bulmuştu": 5204,
      "ırı": 5205,
      "▁kost": 5206,
      "▁kenarına": 5207,
      "▁dört": 5208,
      "Buz": 5209,
      "▁öğrenmeyi": 5210,
      "▁keç": 5211,
      "▁kabuğu": 5212,
      "Şimdiye": 5213,
      "▁alış": 5214,
      "▁bahset": 5215,
      "▁Z": 5216,
      "Çit": 5217,
      "▁birdenbire": 5218,
      "▁ünlü": 5219,
      "Uzak": 5220,
      "Birbirlerini": 5221,
      "▁dura": 5222,
      "▁nefret": 5223,
      "▁duran": 5224,
      "▁esnek": 5225,
      "▁ayının": 5226,
      "▁ayısını": 5227,
      "▁şok": 5228,
      "▁yeterince": 5229,
      "▁çiğnem": 5230,
      "▁götürmek": 5231,
      "▁tavşanın": 5232,
      "▁reç": 5233,
      "Beyaz": 5234,
      "▁çıkıyor": 5235,
      "▁gitmesi": 5236,
      "▁bandaj": 5237,
      "▁Ann": 5238,
      "▁konuda": 5239,
      "oda": 5240,
      "vab": 5241,
      "▁fiş": 5242,
      "coot": 5243,
      "▁cila": 5244,
      "▁çıkardın": 5245,
      "▁çizerek": 5246,
      "▁çemb": 5247,
      "▁alıyordu": 5248,
      "▁kesildi": 5249,
      "▁duyunca": 5250,
      "▁yay": 5251,
      "İtfaiye": 5252,
      "lev": 5253,
      "inizi": 5254,
      "▁suy": 5255,
      "▁çat": 5256,
      "▁niy": 5257,
      "cooter": 5258,
      "▁saha": 5259,
      "Uçurt": 5260,
      "landılar": 5261,
      "▁acıkmıştı": 5262,
      "illie": 5263,
      "▁buradayım": 5264,
      "▁kop": 5265,
      "Kü": 5266,
      "meyecek": 5267,
      "lüğü": 5268,
      "onlar": 5269,
      "▁şeydi": 5270,
      "▁ettiğin": 5271,
      "▁parçalara": 5272,
      "▁sağlaya": 5273,
      "race": 5274,
      "▁gücü": 5275,
      "▁süzül": 5276,
      "▁götürüp": 5277,
      "Aynı": 5278,
      "▁sevinmiş": 5279,
      "▁saman": 5280,
      "bun": 5281,
      "▁koşuyordu": 5282,
      "▁lolipop": 5283,
      "Kitty": 5284,
      "ülüydü": 5285,
      "▁yabancı": 5286,
      "▁ulaştığında": 5287,
      "eksiy": 5288,
      "▁ekledi": 5289,
      "üye": 5290,
      "▁korkuttu": 5291,
      "▁kuz": 5292,
      "▁değildir": 5293,
      "arna": 5294,
      "▁açar": 5295,
      "▁etkileyi": 5296,
      "▁bloklarla": 5297,
      "Diz": 5298,
      "▁bağımsız": 5299,
      "tenkele": 5300,
      "yaşlı": 5301,
      "Doğru": 5302,
      "▁ikiye": 5303,
      "▁görmediği": 5304,
      "▁ayrılmak": 5305,
      "▁geleni": 5306,
      "erj": 5307,
      "Yor": 5308,
      "Salıncakta": 5309,
      "▁Jo": 5310,
      "rok": 5311,
      "ılıp": 5312,
      "eniyorlar": 5313,
      "▁üf": 5314,
      "▁edemedi": 5315,
      "▁vazgeç": 5316,
      "▁sardı": 5317,
      "▁almayı": 5318,
      "▁balonu": 5319,
      "▁üstüne": 5320,
      "tmayı": 5321,
      "▁yemeğine": 5322,
      "▁şapkası": 5323,
      "ony": 5324,
      "Dokun": 5325,
      "▁ihtiyacımız": 5326,
      "▁kahvaltı": 5327,
      "▁anlaya": 5328,
      "eyahat": 5329,
      "sy": 5330,
      "Eşya": 5331,
      "▁Johnny": 5332,
      "ıldığını": 5333,
      "▁götürmeye": 5334,
      "Susie": 5335,
      "▁görm": 5336,
      "omp": 5337,
      "▁bahçenin": 5338,
      "▁çizmeye": 5339,
      "▁çizmeyi": 5340,
      "dini": 5341,
      "Şans": 5342,
      "▁kaplan": 5343,
      "ğda": 5344,
      "▁zirveye": 5345,
      "Çığlık": 5346,
      "▁oradan": 5347,
      "▁uyardı": 5348,
      "üraf": 5349,
      "▁zıplayıp": 5350,
      "▁elbiseyi": 5351,
      "▁oyuncu": 5352,
      "bına": 5353,
      "Henry": 5354,
      "▁gaz": 5355,
      "▁gökkuşa": 5356,
      "bileceğim": 5357,
      "▁temizlemeye": 5358,
      "Karınca": 5359,
      "Kir": 5360,
      "▁uc": 5361,
      "▁tavşana": 5362,
      "▁hazırladı": 5363,
      "▁göletin": 5364,
      "Tav": 5365,
      "▁sırt": 5366,
      "▁zeki": 5367,
      "▁palamudu": 5368,
      "Arkadaşlar": 5369,
      "▁yemeğinde": 5370,
      "▁sizin": 5371,
      "▁çekme": 5372,
      "harlie": 5373,
      "▁görene": 5374,
      "ürah": 5375,
      "▁yakla": 5376,
      "▁şaşkınlıkla": 5377,
      "▁saydı": 5378,
      "▁kaplumbağa": 5379,
      "▁ayıya": 5380,
      "▁sopayı": 5381,
      "▁bulaşık": 5382,
      "Peki": 5383,
      "▁umursa": 5384,
      "▁uçtuğunu": 5385,
      "Dans": 5386,
      "▁yükseklere": 5387,
      "▁tava": 5388,
      "▁büyüm": 5389,
      "▁karda": 5390,
      "eyken": 5391,
      "▁sabun": 5392,
      "▁eğlenmeye": 5393,
      "yona": 5394,
      "▁bakıyordu": 5395,
      "per": 5396,
      "▁zil": 5397,
      "▁kütüp": 5398,
      "▁doktora": 5399,
      "▁mutsuz": 5400,
      "Kanep": 5401,
      "▁şem": 5402,
      "edeki": 5403,
      "▁bitirdiğinde": 5404,
      "▁tutun": 5405,
      "rof": 5406,
      "lüğ": 5407,
      "▁tasar": 5408,
      "▁oyunlar": 5409,
      "▁im": 5410,
      "▁kimsenin": 5411,
      "Oturma": 5412,
      "▁kr": 5413,
      "ırga": 5414,
      "▁ilaç": 5415,
      "▁özeldi": 5416,
      "Hepsini": 5417,
      "▁gölg": 5418,
      "▁iyidir": 5419,
      "▁beklem": 5420,
      "▁korumak": 5421,
      "Am": 5422,
      "Kırık": 5423,
      "▁yastık": 5424,
      "▁geyi": 5425,
      "▁dersini": 5426,
      "▁çaresiz": 5427,
      "▁üzüm": 5428,
      "elisin": 5429,
      "▁gördüğünde": 5430,
      "▁yapmaktan": 5431,
      "▁yaşındaki": 5432,
      "▁kardeşine": 5433,
      "Ayakkabı": 5434,
      "osu": 5435,
      "kız": 5436,
      "Ağladı": 5437,
      "Dön": 5438,
      "▁yemeğinden": 5439,
      "▁yıldı": 5440,
      "Duvar": 5441,
      "▁görmediler": 5442,
      "▁salıncağa": 5443,
      "▁kalanını": 5444,
      "▁güneşli": 5445,
      "▁kumdan": 5446,
      "▁koyuldu": 5447,
      "▁gelecek": 5448,
      "Uyan": 5449,
      "▁uçuyor": 5450,
      "nazik": 5451,
      "▁yük": 5452,
      "şap": 5453,
      "▁takıldı": 5454,
      "▁tekneye": 5455,
      "▁hey": 5456,
      "Paylaşmak": 5457,
      "▁çöktü": 5458,
      "▁babalarına": 5459,
      "▁derinlik": 5460,
      "▁incin": 5461,
      "Danny": 5462,
      "terin": 5463,
      "Mi": 5464,
      "Hayvanat": 5465,
      "▁blo": 5466,
      "elikop": 5467,
      "Yüzünde": 5468,
      "▁emindi": 5469,
      "▁vereceğim": 5470,
      "▁arkadaşa": 5471,
      "▁Susie": 5472,
      "▁gelmiş": 5473,
      "hal": 5474,
      "▁yapacağım": 5475,
      "▁patlamış": 5476,
      "▁ısı": 5477,
      "▁portakal": 5478,
      "▁temizleye": 5479,
      "uncaya": 5480,
      "▁atıp": 5481,
      "▁tırtıl": 5482,
      "▁mel": 5483,
      "Leo": 5484,
      "▁ülk": 5485,
      "▁kağıdı": 5486,
      "▁bozuldu": 5487,
      "▁baloncuk": 5488,
      "Üzerine": 5489,
      "▁koşa": 5490,
      "▁eğlenmeyi": 5491,
      "Aferin": 5492,
      "Tehlik": 5493,
      "ggie": 5494,
      "▁içti": 5495,
      "lanmış": 5496,
      "tanın": 5497,
      "balık": 5498,
      "Doğum": 5499,
      "Tak": 5500,
      "▁yarın": 5501,
      "▁uzundu": 5502,
      "▁köpekti": 5503,
      "▁alması": 5504,
      "▁anlatır": 5505,
      "Adın": 5506,
      "▁gerektiği": 5507,
      "▁resimler": 5508,
      "▁yön": 5509,
      "▁beğendim": 5510,
      "Polis": 5511,
      "▁torba": 5512,
      "▁iyis": 5513,
      "▁sürünerek": 5514,
      "▁şeh": 5515,
      "▁kapısını": 5516,
      "diğer": 5517,
      "▁alıyorlar": 5518,
      "imizi": 5519,
      "▁ayısı": 5520,
      "▁çiftlikte": 5521,
      "▁balkaba": 5522,
      "gisini": 5523,
      "Dola": 5524,
      "be": 5525,
      "imize": 5526,
      "onunu": 5527,
      "laf": 5528,
      "Zor": 5529,
      "▁kre": 5530,
      "▁sevdiler": 5531,
      "▁bulabiliriz": 5532,
      "▁sergil": 5533,
      "Şu": 5534,
      "▁kıvr": 5535,
      "▁arabam": 5536,
      "▁kalemleriyle": 5537,
      "Bizi": 5538,
      "▁saygılı": 5539,
      "▁sıktı": 5540,
      "Babasının": 5541,
      "▁duymadı": 5542,
      "▁ayg": 5543,
      "tıyorlar": 5544,
      "▁vücu": 5545,
      "▁bük": 5546,
      "hangi": 5547,
      "ençe": 5548,
      "▁çıktığını": 5549,
      "dığında": 5550,
      "Haklı": 5551,
      "▁yaparak": 5552,
      "▁kuğu": 5553,
      "▁gizlice": 5554,
      "▁çıkararak": 5555,
      "Hareket": 5556,
      "▁çalıların": 5557,
      "Hikaye": 5558,
      "▁verip": 5559,
      "▁anlatmak": 5560,
      "Büyükbaba": 5561,
      "▁güvercin": 5562,
      "▁burnu": 5563,
      "kendini": 5564,
      "üskür": 5565,
      "▁plaj": 5566,
      "▁koyar": 5567,
      "▁\n": 5568,
      "Güçlü": 5569,
      "▁düşünüyorlardı": 5570,
      "▁boylu": 5571,
      "Gülüyorlar": 5572,
      "yumuşak": 5573,
      "dde": 5574,
      "▁gururluydu": 5575,
      "▁veriyorlar": 5576,
      "▁otoriter": 5577,
      "▁size": 5578,
      "▁kızla": 5579,
      "▁yaşardı": 5580,
      "▁kokulu": 5581,
      "Oku": 5582,
      "ariş": 5583,
      "ipariş": 5584,
      "▁ters": 5585,
      "▁bulduğunu": 5586,
      "▁bitkiler": 5587,
      "ijinal": 5588,
      "▁çamaşır": 5589,
      "▁ederdi": 5590,
      "▁ekme": 5591,
      "enguen": 5592,
      "▁enerj": 5593,
      "!\n\n\"": 5594,
      "▁mutlulukla": 5595,
      "▁sap": 5596,
      "▁yeter": 5597,
      "▁daireler": 5598,
      "▁yakalayıp": 5599,
      "Pal": 5600,
      "tema": 5601,
      "▁maviydi": 5602,
      "Konuş": 5603,
      "▁spor": 5604,
      "▁almasını": 5605,
      "müyordu": 5606,
      "▁şekeri": 5607,
      "▁davrana": 5608,
      "▁çiçeğe": 5609,
      "▁H": 5610,
      "▁denizde": 5611,
      "▁Mar": 5612,
      "▁yetenekli": 5613,
      "Mak": 5614,
      "▁ucuz": 5615,
      "gaj": 5616,
      "▁arkasını": 5617,
      "▁zem": 5618,
      "▁başının": 5619,
      "Yılan": 5620,
      "miyorlar": 5621,
      "▁not": 5622,
      "Masanın": 5623,
      "▁şekiller": 5624,
      "Umarım": 5625,
      "▁düzelte": 5626,
      "▁ağrı": 5627,
      "dilli": 5628,
      "▁şi": 5629,
      "Keşfet": 5630,
      "▁tarlada": 5631,
      "Kadın": 5632,
      "aff": 5633,
      "şılmadık": 5634,
      "▁olduğun": 5635,
      "ikayet": 5636,
      "Ren": 5637,
      "memesini": 5638,
      "▁akıllıydı": 5639,
      "▁bant": 5640,
      "▁bine": 5641,
      "▁duman": 5642,
      "üdü": 5643,
      "▁yüzen": 5644,
      "▁partiye": 5645,
      "▁şekl": 5646,
      "▁onlardan": 5647,
      "▁sesleri": 5648,
      "▁sıkışıp": 5649,
      "▁hayvanı": 5650,
      "balığı": 5651,
      "▁bindiler": 5652,
      "Aşağıya": 5653,
      "▁restor": 5654,
      "▁dikkatsiz": 5655,
      "▁sabırsızlan": 5656,
      "▁dişleri": 5657,
      "▁gelenin": 5658,
      "▁yapış": 5659,
      "mayacaklarını": 5660,
      "▁üzerindeki": 5661,
      "▁dekor": 5662,
      "ebra": 5663,
      "Evde": 5664,
      "▁taban": 5665,
      "pu": 5666,
      "Harry": 5667,
      "▁korktuğunu": 5668,
      "▁iyileştir": 5669,
      "▁sınıf": 5670,
      "▁saatlerce": 5671,
      "inmeyen": 5672,
      "▁gösterdiler": 5673,
      "▁fasul": 5674,
      "Çalı": 5675,
      "Soğuk": 5676,
      "Sahibi": 5677,
      "oksa": 5678,
      "▁salata": 5679,
      "▁hırsız": 5680,
      "Oğ": 5681,
      "▁azar": 5682,
      "▁olabiliriz": 5683,
      "▁kucağına": 5684,
      "▁affediyorum": 5685,
      "demiş": 5686,
      "▁roket": 5687,
      "▁mahv": 5688,
      "mıyorsun": 5689,
      "▁gölge": 5690,
      "▁mus": 5691,
      "Kavga": 5692,
      "▁uçmak": 5693,
      "▁yarışı": 5694,
      "▁çakıl": 5695,
      "Parkın": 5696,
      "▁temizlemek": 5697,
      "Yem": 5698,
      "▁sesin": 5699,
      "▁paylaşıp": 5700,
      "▁bilgisay": 5701,
      "usura": 5702,
      "▁ısın": 5703,
      "▁boynuz": 5704,
      "▁çocuklarla": 5705,
      "▁bozuk": 5706,
      "eceklerini": 5707,
      "▁destek": 5708,
      "tüm": 5709,
      "pta": 5710,
      "ımar": 5711,
      "Pencereden": 5712,
      "▁elde": 5713,
      "▁vermelisin": 5714,
      "▁kaybetti": 5715,
      "▁omuz": 5716,
      "▁gördüm": 5717,
      "▁kel": 5718,
      "▁geze": 5719,
      "▁çalışıyorlar": 5720,
      "▁konuşmak": 5721,
      "▁dışında": 5722,
      "▁istemiş": 5723,
      "▁çiçeklerin": 5724,
      "▁D": 5725,
      "▁kemik": 5726,
      "enüz": 5727,
      "▁rekabet": 5728,
      "▁kumda": 5729,
      "Örümcek": 5730,
      "▁engel": 5731,
      "Zıp": 5732,
      "▁peç": 5733,
      "affle": 5734,
      "best": 5735,
      "lanmayı": 5736,
      "Saat": 5737,
      "İşleri": 5738,
      "▁reddetti": 5739,
      "▁yazı": 5740,
      "▁tıpkı": 5741,
      "▁kupa": 5742,
      "Çünkü": 5743,
      "▁değilim": 5744,
      "Ayağa": 5745,
      "▁kalbi": 5746,
      "▁kesti": 5747,
      "vardı": 5748,
      "▁Ayı": 5749,
      "Mükemmel": 5750,
      "▁öğrendiği": 5751,
      "Kanat": 5752,
      "▁etmelisin": 5753,
      "Koşmayı": 5754,
      "▁süslü": 5755,
      "▁kaka": 5756,
      "▁fın": 5757,
      "▁kardeşinin": 5758,
      "Göst": 5759,
      "osik": 5760,
      "▁Rex": 5761,
      "▁kural": 5762,
      "Gökyüzü": 5763,
      "ink": 5764,
      "▁huzursuz": 5765,
      "▁üzereyken": 5766,
      "▁parası": 5767,
      "▁parmağını": 5768,
      "ime": 5769,
      "areti": 5770,
      "▁şövalye": 5771,
      "▁kutus": 5772,
      "▁söndür": 5773,
      "▁sipariş": 5774,
      "▁ağzına": 5775,
      "ilerini": 5776,
      "memeye": 5777,
      "▁püskür": 5778,
      "▁yıl": 5779,
      "ekuş": 5780,
      "Evin": 5781,
      "yür": 5782,
      "laması": 5783,
      "zda": 5784,
      "Sopa": 5785,
      "▁izliyordu": 5786,
      "▁ailesinin": 5787,
      "kün": 5788,
      "▁eseri": 5789,
      "▁elmayı": 5790,
      ".\n\"": 5791,
      "▁incitti": 5792,
      "▁dil": 5793,
      "▁yüzünden": 5794,
      "▁anneleriyle": 5795,
      "▁kuşla": 5796,
      "oom": 5797,
      "Defol": 5798,
      "▁modern": 5799,
      "▁hissetmesine": 5800,
      "▁arasına": 5801,
      "▁Mark": 5802,
      "Pete": 5803,
      "lüğünü": 5804,
      "▁güneşi": 5805,
      "▁metal": 5806,
      "▁uçtular": 5807,
      "alan": 5808,
      "▁kullanmaya": 5809,
      "▁şarkılar": 5810,
      "▁kalmıştı": 5811,
      "Derslerini": 5812,
      "▁külah": 5813,
      "▁kaseye": 5814,
      "La": 5815,
      "tali": 5816,
      "▁babaları": 5817,
      "Kuşlar": 5818,
      "ith": 5819,
      "▁Bun": 5820,
      "▁parıldayan": 5821,
      "elli": 5822,
      "Adamın": 5823,
      "Macera": 5824,
      "▁teşekkürler": 5825,
      "▁çıkış": 5826,
      "mat": 5827,
      "caksın": 5828,
      "▁çalışan": 5829,
      "▁gitmedi": 5830,
      "▁görünmesini": 5831,
      "▁evlen": 5832,
      "▁sandalyeye": 5833,
      "▁çam": 5834,
      "iyon": 5835,
      "yen": 5836,
      "kaha": 5837,
      "ğıyla": 5838,
      "▁binmeyi": 5839,
      "kah": 5840,
      "▁atladılar": 5841,
      "▁olduk": 5842,
      "▁odalarına": 5843,
      "eceğiz": 5844,
      "Gülümseyip": 5845,
      "ürafa": 5846,
      "▁spagetti": 5847,
      "▁orijinal": 5848,
      "Kule": 5849,
      "▁miktarda": 5850,
      "Gidip": 5851,
      "Yalnız": 5852,
      "▁aramayı": 5853,
      "cır": 5854,
      "▁bahçeyi": 5855,
      "Rüzgar": 5856,
      "İnek": 5857,
      "▁yiyelim": 5858,
      "▁yal": 5859,
      "Oh": 5860,
      "▁olmuştu": 5861,
      "▁alkışladılar": 5862,
      "▁kaydırakta": 5863,
      "Tepeye": 5864,
      "mamaya": 5865,
      "▁sevmiyor": 5866,
      "▁parkı": 5867,
      "▁ağaçlar": 5868,
      "▁öfkeliydi": 5869,
      "mür": 5870,
      "Babasına": 5871,
      "▁şan": 5872,
      "▁kalmasını": 5873,
      "ğanın": 5874,
      "▁yolunda": 5875,
      "▁çiğn": 5876,
      "Büyükan": 5877,
      "▁domates": 5878,
      "▁bazılarını": 5879,
      "▁garip": 5880,
      "▁çıkarmayı": 5881,
      "Bobo": 5882,
      "▁çayırda": 5883,
      "▁malzemeleri": 5884,
      "kinin": 5885,
      "▁arkadaşlarından": 5886,
      "▁birikintisine": 5887,
      "▁mesaj": 5888,
      "guru": 5889,
      "laştılar": 5890,
      "▁hatırlaya": 5891,
      "melisiniz": 5892,
      "Çorba": 5893,
      "▁katıl": 5894,
      "Bella": 5895,
      "▁önems": 5896,
      "Derin": 5897,
      "▁ceza": 5898,
      "▁uçurdu": 5899,
      "▁dinlenmek": 5900,
      "Durdu": 5901,
      "▁uyk": 5902,
      "▁serbest": 5903,
      "lamasına": 5904,
      "bulan": 5905,
      "▁organ": 5906,
      "▁oturur": 5907,
      "atya": 5908,
      "▁dersi": 5909,
      "Ondan": 5910,
      "▁tom": 5911,
      "▁kıyafetler": 5912,
      "▁uyandığında": 5913,
      "▁dolaşmaya": 5914,
      "▁fıstık": 5915,
      "▁sulu": 5916,
      "ebeş": 5917,
      "▁elleriyle": 5918,
      "hatta": 5919,
      "▁ilgil": 5920,
      "▁otobüs": 5921,
      "▁kalemlerini": 5922,
      "▁Fred": 5923,
      "hayvan": 5924,
      "▁sıçrattı": 5925,
      "masından": 5926,
      "lamaca": 5927,
      "▁yaprağı": 5928,
      "lamanın": 5929,
      "cına": 5930,
      "▁çıkarıyordu": 5931,
      "ames": 5932,
      "▁samuru": 5933,
      "..": 5934,
      "▁dönüştü": 5935,
      "ciler": 5936,
      "▁diyorlar": 5937,
      "▁uygun": 5938,
      "▁çiçeğin": 5939,
      "Bulut": 5940,
      "▁gelinc": 5941,
      "▁gürültülüydü": 5942,
      "Tan": 5943,
      "▁çiftç": 5944,
      "sansör": 5945,
      "Kuyru": 5946,
      "▁pati": 5947,
      "▁Lee": 5948,
      "kötü": 5949,
      "▁içindeki": 5950,
      "▁işini": 5951,
      "▁telefonu": 5952,
      "Kusura": 5953,
      "Ro": 5954,
      "Za": 5955,
      "▁krista": 5956,
      "▁iplik": 5957,
      "▁kabarık": 5958,
      "▁ederler": 5959,
      "bazıları": 5960,
      "▁odası": 5961,
      "▁çektiler": 5962,
      "esin": 5963,
      "Kuşu": 5964,
      "▁göstermeye": 5965,
      "dalya": 5966,
      "Banyo": 5967,
      "cım": 5968,
      "Ella": 5969,
      "▁ine": 5970,
      "aranın": 5971,
      "▁yapmasına": 5972,
      "Gece": 5973,
      "▁kalması": 5974,
      "▁pantol": 5975,
      "▁kiraz": 5976,
      "kandı": 5977,
      "arin": 5978,
      "Mağazaya": 5979,
      "▁canlısıydı": 5980,
      "Minik": 5981,
      "▁kolye": 5982,
      "▁düzgün": 5983,
      "lında": 5984,
      "▁uzaktan": 5985,
      "▁savaş": 5986,
      "▁tatlıydı": 5987,
      "▁bası": 5988,
      "▁gülümsüyordu": 5989,
      "▁özledi": 5990,
      "▁yakınlarda": 5991,
      "▁yükseldi": 5992,
      "ürekk": 5993,
      "liyle": 5994,
      "▁kedisi": 5995,
      "eğl": 5996,
      "▁Rose": 5997,
      "Yaban": 5998,
      "▁alışveriş": 5999,
      "▁kızmıştı": 6000,
      "▁şudur": 6001,
      "Kil": 6002,
      "▁temizledi": 6003,
      "üzdan": 6004,
      "▁pas": 6005,
      "tıncaya": 6006,
      "▁tuva": 6007,
      "Bebeği": 6008,
      "▁Ellie": 6009,
      "meme": 6010,
      "▁oynar": 6011,
      "▁bağladı": 6012,
      "▁Pete": 6013,
      "▁oynadıktan": 6014,
      "▁seyahat": 6015,
      "▁niyetli": 6016,
      "▁Sm": 6017,
      "muşlardı": 6018,
      "▁dönerler": 6019,
      "şaf": 6020,
      ":\n\n": 6021,
      "▁mıknatı": 6022,
      "Utan": 6023,
      "ddia": 6024,
      "▁tepenin": 6025,
      "▁çantasına": 6026,
      "▁batıncaya": 6027,
      "▁sihir": 6028,
      "bana": 6029,
      "▁arabayla": 6030,
      "eyniri": 6031,
      "▁heyecanlandılar": 6032,
      "lecek": 6033,
      "▁gülüyordu": 6034,
      "▁veterin": 6035,
      "▁ulaştılar": 6036,
      "▁görünüyorsun": 6037,
      "▁soğu": 6038,
      "Uça": 6039,
      "▁görebilir": 6040,
      "▁bakarken": 6041,
      "izz": 6042,
      "Arabaya": 6043,
      "▁bakma": 6044,
      "▁vedalaşıp": 6045,
      "▁rahatlamış": 6046,
      "▁ağaçlara": 6047,
      "▁geçirdiği": 6048,
      "▁istedik": 6049,
      "kti": 6050,
      "▁çala": 6051,
      "▁iğne": 6052,
      "▁kilidini": 6053,
      "▁popüler": 6054,
      "▁üzereydi": 6055,
      "▁davul": 6056,
      "▁zamankinden": 6057,
      "ütük": 6058,
      "Ola": 6059,
      "▁dağ": 6060,
      "▁kazana": 6061,
      "▁birikintisi": 6062,
      "▁hissettiğini": 6063,
      "Ortalığı": 6064,
      "mayız": 6065,
      "▁koştur": 6066,
      "▁dinlemiyor": 6067,
      "▁yiyecekler": 6068,
      "▁şaşırdılar": 6069,
      "Lim": 6070,
      "▁düşüp": 6071,
      "▁girmek": 6072,
      "Ellie": 6073,
      "▁sahibine": 6074,
      "Ağz": 6075,
      "ğil": 6076,
      "▁hop": 6077,
      "omo": 6078,
      "▁papa": 6079,
      "▁sahilde": 6080,
      "▁kanatları": 6081,
      "▁plastik": 6082,
      "▁jö": 6083,
      "▁pırıl": 6084,
      "▁halinde": 6085,
      "▁yatağın": 6086,
      "Rahat": 6087,
      "Çiç": 6088,
      "şire": 6089,
      "▁iddia": 6090,
      "Bo": 6091,
      "▁gergindi": 6092,
      "orman": 6093,
      "▁benzeyen": 6094,
      "▁yalan": 6095,
      "yak": 6096,
      "▁devirdi": 6097,
      "▁hissediyorlardı": 6098,
      "▁görül": 6099,
      "▁gülümsemesi": 6100,
      "ceri": 6101,
      "bildiğini": 6102,
      "▁yerleri": 6103,
      "▁efendi": 6104,
      "▁olsaydı": 6105,
      "▁iyisi": 6106,
      "Fred": 6107,
      "▁sura": 6108,
      "▁yapılacağını": 6109,
      "▁sinirlen": 6110,
      "▁kestirmek": 6111,
      "▁toplu": 6112,
      "Veda": 6113,
      "▁dizini": 6114,
      "▁kelebeğin": 6115,
      "▁şehir": 6116,
      "inib": 6117,
      "▁etmesine": 6118,
      "Kavanoz": 6119,
      "▁tavsiye": 6120,
      "▁etmediler": 6121,
      "▁ası": 6122,
      "bır": 6123,
      "iyonk": 6124,
      "▁vide": 6125,
      "▁görelim": 6126,
      "Yanlış": 6127,
      "▁şikayet": 6128,
      "▁getirdiler": 6129,
      "tıklarında": 6130,
      "Fak": 6131,
      "▁okumak": 6132,
      "brit": 6133,
      "lıkta": 6134,
      "▁doğa": 6135,
      "▁yumuşaktı": 6136,
      "Denemek": 6137,
      "▁bacak": 6138,
      "▁kuyruklu": 6139,
      "Adama": 6140,
      "▁suyunu": 6141,
      "Çık": 6142,
      "▁izlemeye": 6143,
      "▁seslendiğini": 6144,
      "▁büyükannesi": 6145,
      "▁büyükannesinin": 6146,
      "▁gerekti": 6147,
      "▁kurtu": 6148,
      "▁belaya": 6149,
      "kaydı": 6150,
      "▁yaşadığı": 6151,
      "edef": 6152,
      "Giz": 6153,
      "lanmaya": 6154,
      "▁zararsız": 6155,
      "seydi": 6156,
      "▁dönerken": 6157,
      "Üzgündü": 6158,
      "ürler": 6159,
      "Buraya": 6160,
      "▁geldin": 6161,
      "▁keşfedi": 6162,
      "now": 6163,
      "üyorum": 6164,
      "▁koymaya": 6165,
      "tie": 6166,
      "▁kayayı": 6167,
      "▁çıkıyordu": 6168,
      "biliyorum": 6169,
      "▁kazara": 6170,
      "▁korkutucuydu": 6171,
      "▁sona": 6172,
      "rokoli": 6173,
      "▁patates": 6174,
      "▁süper": 6175,
      "Kuşa": 6176,
      "dik": 6177,
      "▁kondu": 6178,
      "emeyecek": 6179,
      "▁miyav": 6180,
      "osk": 6181,
      "▁piyan": 6182,
      "his": 6183,
      "▁sevmiyorum": 6184,
      "▁ağaçları": 6185,
      "met": 6186,
      "▁girdiğinde": 6187,
      "▁kurabiyeleri": 6188,
      "▁kurabi": 6189,
      "gökyüz": 6190,
      "▁şımar": 6191,
      "ıra": 6192,
      "▁kulağa": 6193,
      "▁Smith": 6194,
      "Bet": 6195,
      "▁hayvanın": 6196,
      "▁def": 6197,
      "▁giymek": 6198,
      "▁pencere": 6199,
      "Deli": 6200,
      "Prens": 6201,
      "rım": 6202,
      "▁yorulmuştu": 6203,
      "zıplamayı": 6204,
      "▁arkadaşın": 6205,
      "▁yangın": 6206,
      "▁takdir": 6207,
      "▁makas": 6208,
      "Gökyüzüne": 6209,
      "▁şefkatli": 6210,
      "▁sivr": 6211,
      "▁köprü": 6212,
      "▁etkileyici": 6213,
      "şarkı": 6214,
      "▁soktu": 6215,
      "annesine": 6216,
      "▁öğrene": 6217,
      "▁cip": 6218,
      "▁gözlem": 6219,
      "ceğe": 6220,
      "Fin": 6221,
      "▁gelin": 6222,
      "▁balıklar": 6223,
      "▁geliş": 6224,
      "▁kül": 6225,
      "▁atılmaya": 6226,
      "▁gülerek": 6227,
      "▁edebilirsin": 6228,
      "▁efendim": 6229,
      "Oyuncaklarla": 6230,
      "eyağı": 6231,
      "▁davrandılar": 6232,
      "gah": 6233,
      "▁yaramazlık": 6234,
      "▁uçarken": 6235,
      "▁yastı": 6236,
      "▁söylediği": 6237,
      "▁incitmek": 6238,
      "▁ruh": 6239,
      "▁hayranlıkla": 6240,
      "▁sessizdi": 6241,
      "Rüzgâr": 6242,
      "nabah": 6243,
      "ümkün": 6244,
      "bilya": 6245,
      "Telef": 6246,
      "stebek": 6247,
      "▁öğleden": 6248,
      "Rob": 6249,
      "▁bayrak": 6250,
      "Dedi": 6251,
      "▁heyecanlanmıştı": 6252,
      "▁babalarının": 6253,
      "▁yağı": 6254,
      "▁inip": 6255,
      "▁veril": 6256,
      "▁uzaklaştır": 6257,
      "▁etkilendi": 6258,
      "Battan": 6259,
      "▁Kim": 6260,
      "▁dikkatliydi": 6261,
      "▁ür": 6262,
      "▁gözyaşlarını": 6263,
      "▁taşıya": 6264,
      "▁yerini": 6265,
      "▁okşadı": 6266,
      "▁yapmasını": 6267,
      "Gar": 6268,
      "aketi": 6269,
      "▁almasına": 6270,
      "▁arabasına": 6271,
      "▁kostüm": 6272,
      "▁söylemişti": 6273,
      "▁çorap": 6274,
      "▁yö": 6275,
      "▁nehrin": 6276,
      "Tweety": 6277,
      "▁gitmiş": 6278,
      "▁olabilirsin": 6279,
      "▁gönderdi": 6280,
      "▁kahkaha": 6281,
      "zersiz": 6282,
      "▁odasının": 6283,
      "▁arada": 6284,
      "Ca": 6285,
      "AM": 6286,
      "Sır": 6287,
      "▁henüz": 6288,
      "▁lavab": 6289,
      "▁alışılmadık": 6290,
      "▁eşsiz": 6291,
      "emezsin": 6292,
      "▁atılmak": 6293,
      "Gülümseyerek": 6294,
      "▁çilek": 6295,
      "▁heyecanlıydılar": 6296,
      "Kardeşi": 6297,
      "Yakın": 6298,
      "biren": 6299,
      "▁dönüyordu": 6300,
      "▁ağı": 6301,
      "▁motor": 6302,
      "▁yiyecekleri": 6303,
      "▁okyanusta": 6304,
      "▁ağzı": 6305,
      "▁planı": 6306,
      "▁tabanca": 6307,
      "▁gözlerine": 6308,
      "tikten": 6309,
      "▁verdiğini": 6310,
      "▁çocukla": 6311,
      "▁çimlere": 6312,
      "▁annemin": 6313,
      "▁ihtiyaçları": 6314,
      "▁mutluyum": 6315,
      "▁hissettirdi": 6316,
      "▁sara": 6317,
      "▁scooter": 6318,
      "Sert": 6319,
      "▁tanıştığı": 6320,
      "▁bebekleri": 6321,
      "▁kızsın": 6322,
      "dının": 6323,
      "▁sağlamak": 6324,
      "▁zıplıyordu": 6325,
      "▁çür": 6326,
      "eceksin": 6327,
      "Kendisine": 6328,
      "▁yapıyorsunuz": 6329,
      "Kızı": 6330,
      "Mor": 6331,
      "Posta": 6332,
      "▁kıyafetleri": 6333,
      "▁duyduğunu": 6334,
      "lerimizi": 6335,
      "▁alev": 6336,
      "uma": 6337,
      "▁ulaşmak": 6338,
      "▁alanına": 6339,
      "▁Kitty": 6340,
      "▁döndüklerinde": 6341,
      "hisker": 6342,
      "▁dinlenmeye": 6343,
      "▁gidecek": 6344,
      "▁alçak": 6345,
      "Hayal": 6346,
      "▁biz": 6347,
      "kal": 6348,
      "hiskers": 6349,
      "yuvarlak": 6350,
      "▁farkına": 6351,
      "▁denize": 6352,
      "▁pro": 6353,
      "oril": 6354,
      "▁değillerdi": 6355,
      "Joey": 6356,
      "▁makarna": 6357,
      "ttü": 6358,
      "▁fiyonk": 6359,
      "▁buzlu": 6360,
      "▁topun": 6361,
      "▁yaramadı": 6362,
      "▁akıllısın": 6363,
      "Yolcu": 6364,
      "▁konuştular": 6365,
      "ört": 6366,
      "▁gölde": 6367,
      "▁tarafta": 6368,
      "ıştırdı": 6369,
      "▁seçim": 6370,
      "▁papağ": 6371,
      "▁korkutu": 6372,
      "▁\"\n\n": 6373,
      "leyerek": 6374,
      "larımızı": 6375,
      "▁gidiyorlar": 6376,
      "olucan": 6377,
      "▁tavan": 6378,
      "fak": 6379,
      "buğu": 6380,
      "Kağıt": 6381,
      "▁haber": 6382,
      "▁ağladılar": 6383,
      "meniz": 6384,
      "Bur": 6385,
      "▁konuşmayı": 6386,
      "▁palyaço": 6387,
      "ides": 6388,
      "▁oynaması": 6389,
      "▁faydalı": 6390,
      "Timsah": 6391,
      "Gölet": 6392,
      "▁kaydet": 6393,
      "Suya": 6394,
      "Dışarıya": 6395,
      "▁sonuç": 6396,
      "▁tutuşup": 6397,
      "yoksa": 6398,
      "▁kesi": 6399,
      "onları": 6400,
      "▁alına": 6401,
      "▁tombul": 6402,
      "▁ikiniz": 6403,
      "▁bıçak": 6404,
      "▁balina": 6405,
      "ancak": 6406,
      "pul": 6407,
      "oga": 6408,
      "Dük": 6409,
      "▁yaralandı": 6410,
      "▁dos": 6411,
      "▁adamdı": 6412,
      "▁cadde": 6413,
      "▁söyleyen": 6414,
      "▁kirliydi": 6415,
      "▁ayçiç": 6416,
      "▁çıkarıyorlar": 6417,
      "gara": 6418,
      "▁havlıyor": 6419,
      "▁Alice": 6420,
      "▁turta": 6421,
      "▁bor": 6422,
      "▁atlıyor": 6423,
      "Köy": 6424,
      "mutlu": 6425,
      "Haklısın": 6426,
      "lemişti": 6427,
      "▁sürah": 6428,
      "▁akıllıca": 6429,
      "▁Bobby": 6430,
      "Bırak": 6431,
      "▁gerçekleş": 6432,
      "▁yatağının": 6433,
      "Diş": 6434,
      "▁anlata": 6435,
      "▁sözlerini": 6436,
      "▁başlay": 6437,
      "▁odayı": 6438,
      "melerine": 6439,
      "▁sürprizle": 6440,
      "ümüz": 6441,
      "ğla": 6442,
      "gedan": 6443,
      "▁çalışırken": 6444,
      "▁dolaşıp": 6445,
      "Güldüler": 6446,
      "▁kaşığı": 6447,
      "Renk": 6448,
      "ib": 6449,
      "▁teknes": 6450,
      "▁pul": 6451,
      "▁bloğu": 6452,
      "▁sakız": 6453,
      "▁kalmaya": 6454,
      "▁şişman": 6455,
      "Hâlâ": 6456,
      "▁okumaya": 6457,
      "▁içindir": 6458,
      "üyüş": 6459,
      "▁endişelendi": 6460,
      "Ailesiyle": 6461,
      "Gökkuş": 6462,
      "lırken": 6463,
      "Kaydırak": 6464,
      "kay": 6465,
      "▁maden": 6466,
      "▁durdular": 6467,
      "Odasında": 6468,
      "▁olacağız": 6469,
      "Oyn": 6470,
      "mazlar": 6471,
      "▁kapıdan": 6472,
      "İstedi": 6473,
      "tıkları": 6474,
      "▁yayı": 6475,
      "çek": 6476,
      "▁Tweety": 6477,
      "Yaka": 6478,
      "▁taba": 6479,
      "▁kaçır": 6480,
      "▁durduğunu": 6481,
      "▁parçaya": 6482,
      "leyip": 6483,
      "▁zamandır": 6484,
      "▁pisliği": 6485,
      "▁izliyor": 6486,
      "gını": 6487,
      "▁kalanında": 6488,
      "ebilirim": 6489,
      "yazıyordu": 6490,
      "▁tekneyi": 6491,
      "ketbol": 6492,
      "▁yolculuğuna": 6493,
      "▁öğretmeni": 6494,
      "Geç": 6495,
      "aze": 6496,
      "▁uçuş": 6497,
      "Köpeğe": 6498,
      "opar": 6499,
      "▁karanlıktı": 6500,
      "umlu": 6501,
      "▁oğlum": 6502,
      "▁karışıklık": 6503,
      "ütü": 6504,
      "yy": 6505,
      "Nemo": 6506,
      "▁canım": 6507,
      "▁sudan": 6508,
      "ılda": 6509,
      "Tehlikeli": 6510,
      "rosk": 6511,
      "güldüler": 6512,
      "▁yeterli": 6513,
      "hil": 6514,
      "▁itaatkar": 6515,
      "Toby": 6516,
      "lada": 6517,
      "▁dala": 6518,
      "▁yemesi": 6519,
      "▁geride": 6520,
      "Şaşır": 6521,
      "▁sız": 6522,
      "▁dokunu": 6523,
      "Anladı": 6524,
      "▁gören": 6525,
      "▁salon": 6526,
      "▁görünüyorlardı": 6527,
      "▁mağazada": 6528,
      "▁ekip": 6529,
      "▁Bella": 6530,
      "▁surat": 6531,
      "▁gergin": 6532,
      "▁gökyüzündeki": 6533,
      "iyetle": 6534,
      "yaj": 6535,
      "▁bölündü": 6536,
      "▁büyükan": 6537,
      "▁tromp": 6538,
      "Çimlerin": 6539,
      "Etrafında": 6540,
      "▁sek": 6541,
      "liğini": 6542,
      "▁koymak": 6543,
      "esti": 6544,
      "Lola": 6545,
      "▁uçuyordu": 6546,
      "▁geziye": 6547,
      "▁perde": 6548,
      "emiş": 6549,
      "bilirler": 6550,
      "Suyu": 6551,
      "▁beceri": 6552,
      "▁Ro": 6553,
      "▁kraliçe": 6554,
      "\".\n\n": 6555,
      "▁eğer": 6556,
      "▁sormuş": 6557,
      "klerine": 6558,
      "Dikkatlice": 6559,
      "▁kütüphan": 6560,
      "düğünde": 6561,
      "▁amca": 6562,
      "bağanın": 6563,
      "▁pişirdi": 6564,
      "Gördün": 6565,
      "Uyu": 6566,
      "▁olmalarını": 6567,
      "▁sanat": 6568,
      "▁gelmeye": 6569,
      "▁duyarak": 6570,
      "▁sevmek": 6571,
      "Mik": 6572,
      "▁beğenmedi": 6573,
      "fade": 6574,
      "Kra": 6575,
      "Tu": 6576,
      "▁maceracı": 6577,
      "▁neyin": 6578,
      "▁tavsiy": 6579,
      "▁renkler": 6580,
      "▁desen": 6581,
      "masa": 6582,
      "Fakat": 6583,
      "Sanki": 6584,
      "▁dişlerini": 6585,
      "İs": 6586,
      "▁zek": 6587,
      "▁oyuncağıyla": 6588,
      "▁beri": 6589,
      "▁ifade": 6590,
      "▁çıkardığını": 6591,
      "▁gittikçe": 6592,
      "▁gömlek": 6593,
      "▁Ella": 6594,
      "Beğendi": 6595,
      "▁kayıp": 6596,
      "Fırtına": 6597,
      "▁cadı": 6598,
      "▁istek": 6599,
      "Çi": 6600,
      "▁durmasını": 6601,
      "▁giye": 6602,
      "▁taşın": 6603,
      "▁vermesini": 6604,
      "Siyah": 6605,
      "Kale": 6606,
      "leştirmeye": 6607,
      "Güvenli": 6608,
      "▁oturuyordu": 6609,
      "usunun": 6610,
      "Kasaba": 6611,
      "▁duyduğunda": 6612,
      "imo": 6613,
      "Yaramaz": 6614,
      "▁Sp": 6615,
      "▁döndüğünü": 6616,
      "▁asker": 6617,
      "▁yarı": 6618,
      "▁önüne": 6619,
      "▁duyduğu": 6620,
      "Hayvanları": 6621,
      "üse": 6622,
      "▁gıdık": 6623,
      "▁gücünü": 6624,
      "George": 6625,
      "▁saklana": 6626,
      "teki": 6627,
      "▁yulaf": 6628,
      "▁sırasında": 6629,
      "▁söylerdi": 6630,
      "▁insanlarla": 6631,
      "Şeker": 6632,
      "Pap": 6633,
      "Kova": 6634,
      "▁sallanmayı": 6635,
      "Rose": 6636,
      "▁bağırmaya": 6637,
      "▁yarata": 6638,
      "▁toplan": 6639,
      "Herkesin": 6640,
      "▁dosya": 6641,
      "▁buluş": 6642,
      "▁affetti": 6643,
      "▁gök": 6644,
      "▁dönme": 6645,
      "▁kadının": 6646,
      "▁meyveleri": 6647,
      "▁taç": 6648,
      "Tr": 6649,
      "▁has": 6650,
      "▁ahır": 6651,
      "▁inci": 6652,
      "Çitin": 6653,
      "beb": 6654,
      "▁rady": 6655,
      "▁küvet": 6656,
      "▁bip": 6657,
      "▁pir": 6658,
      "▁Bobo": 6659,
      "▁kabuk": 6660,
      "eytin": 6661,
      "▁yunus": 6662,
      "▁uyuya": 6663,
      "▁mümkün": 6664,
      "▁öğrenmeye": 6665,
      "▁koşarlar": 6666,
      "▁giderdi": 6667,
      "tam": 6668,
      "omet": 6669,
      "▁resimleri": 6670,
      "ggy": 6671,
      "Çizim": 6672,
      "▁us": 6673,
      "▁kafasına": 6674,
      "Eldiven": 6675,
      "▁kardeşler": 6676,
      "▁zarf": 6677,
      "▁saklamaya": 6678,
      "Kem": 6679,
      "▁yele": 6680,
      "Vaz": 6681,
      "lanmak": 6682,
      "▁tüp": 6683,
      "▁mutfak": 6684,
      "▁köpekle": 6685,
      "▁parktaki": 6686,
      "▁deneyelim": 6687,
      "▁oyuncağın": 6688,
      "payla": 6689,
      "ıt": 6690,
      "▁edebiliriz": 6691,
      "▁yeş": 6692,
      "▁keyifle": 6693,
      "▁şat": 6694,
      "fır": 6695,
      "umda": 6696,
      "▁kanepeye": 6697,
      "inle": 6698,
      "▁isterdi": 6699,
      "▁atılmayı": 6700,
      "▁kasvetli": 6701,
      "▁kaybolduğunu": 6702,
      "yalnız": 6703,
      "▁çiçeklere": 6704,
      "sinden": 6705,
      "▁gülüyorlardı": 6706,
      "▁unuta": 6707,
      "▁sayesinde": 6708,
      "▁tutan": 6709,
      "▁teselli": 6710,
      "▁almanın": 6711,
      "elam": 6712,
      "▁dert": 6713,
      "▁eskisinden": 6714,
      "Kahverengi": 6715,
      "▁dalı": 6716,
      "lanları": 6717,
      "▁kamyonun": 6718,
      "▁şeylerden": 6719,
      "▁dolaba": 6720,
      "lanma": 6721,
      "Yaptığı": 6722,
      "▁sessizce": 6723,
      "▁pençe": 6724,
      "ail": 6725,
      "▁ağab": 6726,
      "▁kelimeler": 6727,
      "▁vız": 6728,
      "Past": 6729,
      ":\n\n\"": 6730,
      "▁görüş": 6731,
      "▁organize": 6732,
      "Genç": 6733,
      "▁yüzlerini": 6734,
      "gzersiz": 6735,
      "Yer": 6736,
      "Ber": 6737,
      "Ormanın": 6738,
      "▁yüzüne": 6739,
      "▁görüp": 6740,
      "larımı": 6741,
      "▁Bet": 6742,
      "▁kırılgan": 6743,
      "▁tutup": 6744,
      "▁sarılmak": 6745,
      "Odasına": 6746,
      "Mo": 6747,
      "▁yerdeki": 6748,
      "Kuyruğunu": 6749,
      "▁katılmaya": 6750,
      "▁hapşır": 6751,
      "▁yağmurda": 6752,
      "▁sonu": 6753,
      "okey": 6754,
      "▁yetişkin": 6755,
      "Çocuğun": 6756,
      "ksiz": 6757,
      "ida": 6758,
      "▁meraklandı": 6759,
      "▁olabildiğince": 6760,
      "▁çiçeklerle": 6761,
      "▁resimlerini": 6762,
      "▁dilim": 6763,
      "▁edildi": 6764,
      "▁gitmesine": 6765,
      "▁kuştu": 6766,
      "Kendine": 6767,
      "▁karıştı": 6768,
      "nemli": 6769,
      "Kimse": 6770,
      "▁iyisin": 6771,
      "tematik": 6772,
      "Sürücü": 6773,
      "▁tebeş": 6774,
      "▁uzaklaşırken": 6775,
      "▁kaybolmuştu": 6776,
      "▁oynayamayacağını": 6777,
      "▁cesursun": 6778,
      "eviz": 6779,
      "denedi": 6780,
      "▁parlayan": 6781,
      "bla": 6782,
      "tura": 6783,
      "vaştı": 6784,
      "▁tünel": 6785,
      "luz": 6786,
      "Un": 6787,
      "▁edindiği": 6788,
      "▁fişek": 6789,
      "▁neşe": 6790,
      "far": 6791,
      "Etrafa": 6792,
      "sıcak": 6793,
      "Nihayet": 6794,
      "Ter": 6795,
      "Giy": 6796,
      "▁karardı": 6797,
      "▁kamyona": 6798,
      "▁utangaçtı": 6799,
      "▁uykulu": 6800,
      "Domuz": 6801,
      "▁herhangi": 6802,
      "Parça": 6803,
      "▁bitince": 6804,
      "Ker": 6805,
      "kap": 6806,
      "▁annemi": 6807,
      "▁motosik": 6808,
      "Olabildiğince": 6809,
      "▁yıldızlar": 6810,
      "▁zinc": 6811,
      "Tıp": 6812,
      "▁kuv": 6813,
      "ifor": 6814,
      "Dondurma": 6815,
      "Ceb": 6816,
      "▁fak": 6817,
      "▁bilgi": 6818,
      "▁nefesi": 6819,
      "▁öv": 6820,
      "▁kavanozu": 6821,
      "indeki": 6822,
      "▁geçtiğini": 6823,
      "▁teknesi": 6824,
      "▁istediğine": 6825,
      "▁müziği": 6826,
      "▁rol": 6827,
      "Kalem": 6828,
      "Tıpkı": 6829,
      "tım": 6830,
      "Korkunç": 6831,
      "▁giyin": 6832,
      "larca": 6833,
      "▁rafa": 6834,
      "haz": 6835,
      "▁geçit": 6836,
      "▁bebeğin": 6837,
      "▁partisi": 6838,
      "Birisi": 6839,
      "▁nedeniyle": 6840,
      "▁tel": 6841,
      "▁çantayı": 6842,
      "malarına": 6843,
      "Kurt": 6844,
      "▁düğüm": 6845,
      "▁sevinçten": 6846,
      "▁imza": 6847,
      "ati": 6848,
      "▁Nemo": 6849,
      "▁havai": 6850,
      "▁tarafında": 6851,
      "▁sepeti": 6852,
      "▁etrafı": 6853,
      "hane": 6854,
      "▁kestirmeye": 6855,
      "Mike": 6856,
      "▁reçel": 6857,
      "▁sevdiğim": 6858,
      "▁yıldızları": 6859,
      "▁kükredi": 6860,
      "sek": 6861,
      "kam": 6862,
      "▁evinden": 6863,
      "▁özlü": 6864,
      "▁topladılar": 6865,
      "▁kaleye": 6866,
      "▁çalışarak": 6867,
      "▁teyz": 6868,
      "▁şarkıyı": 6869,
      "İkiniz": 6870,
      "▁müca": 6871,
      "▁gerç": 6872,
      "waffle": 6873,
      "▁yapardı": 6874,
      "kez": 6875,
      "eniz": 6876,
      "▁istediklerini": 6877,
      "▁uzay": 6878,
      "ersen": 6879,
      "▁kaldıra": 6880,
      "▁sonuna": 6881,
      "▁çekiyorlar": 6882,
      "▁gelmek": 6883,
      "embol": 6884,
      "Suyun": 6885,
      "▁edemeyeceğini": 6886,
      "liğine": 6887,
      "▁dışarısı": 6888,
      "▁hoşlanıyor": 6889,
      "▁yudum": 6890,
      "▁isterim": 6891,
      "▁yattı": 6892,
      "▁alınacak": 6893,
      "▁uğr": 6894,
      "▁midilli": 6895,
      "▁karıştırmaya": 6896,
      "reddy": 6897,
      "▁tırmandılar": 6898,
      "▁kak": 6899,
      "▁helikop": 6900,
      "▁armut": 6901,
      "Kendisini": 6902,
      "▁veriyordu": 6903,
      "▁kokuyor": 6904,
      "▁topları": 6905,
      "▁atlamayı": 6906,
      "▁dostum": 6907,
      "este": 6908,
      "▁uçağı": 6909,
      "▁silkti": 6910,
      "▁dinlemenin": 6911,
      "▁sosis": 6912,
      "▁kablo": 6913,
      "lerimi": 6914,
      "▁kertenkele": 6915,
      "Rüya": 6916,
      "▁gru": 6917,
      "köpek": 6918,
      "▁tekerle": 6919,
      "iğini": 6920,
      "▁sürük": 6921,
      "Sabır": 6922,
      "▁rüzgarı": 6923,
      "Robot": 6924,
      "▁unutuyorlar": 6925,
      "▁palto": 6926,
      "Gittikçe": 6927,
      "cü": 6928,
      "ırcır": 6929,
      "▁kalb": 6930,
      "▁mersini": 6931,
      "▁umuyor": 6932,
      "Yatak": 6933,
      "▁pap": 6934,
      "Bitirdiğinde": 6935,
      "larlar": 6936,
      "▁ez": 6937,
      "imdik": 6938,
      "▁yıldızı": 6939,
      "Bilge": 6940,
      "▁edebildi": 6941,
      "Odanın": 6942,
      "▁Lola": 6943,
      "▁ediyorsun": 6944,
      "▁arabalarını": 6945,
      "▁nesne": 6946,
      "▁bulması": 6947,
      "esif": 6948,
      "▁sarıl": 6949,
      "▁oyuncakla": 6950,
      "tirdiler": 6951,
      "elend": 6952,
      "mayacağım": 6953,
      "Sp": 6954,
      "▁kuşlara": 6955,
      "Arkadaşım": 6956,
      "▁çimlerde": 6957,
      "Zaman": 6958,
      "▁banyoya": 6959,
      "▁davrandığını": 6960,
      "▁kokladı": 6961,
      "▁şeftali": 6962,
      "Sep": 6963,
      "kahverengi": 6964,
      "▁yemekler": 6965,
      "▁ulaşamadı": 6966,
      "▁ellerinden": 6967,
      "mm": 6968,
      "tış": 6969,
      "▁bacaklarını": 6970,
      "ören": 6971,
      "▁başkalarıyla": 6972,
      "▁ayaklarını": 6973,
      "emeyi": 6974,
      "▁güzelce": 6975,
      "Yengeç": 6976,
      "ırıldan": 6977,
      "▁alabiliriz": 6978,
      "▁kağıda": 6979,
      "▁bebeğe": 6980,
      "mamış": 6981,
      "▁kullanmayı": 6982,
      "▁atmak": 6983,
      "▁ceket": 6984,
      "▁davranış": 6985,
      "▁kaleler": 6986,
      "şini": 6987,
      "▁atmayı": 6988,
      "lendirdi": 6989,
      "▁kurtara": 6990,
      "adam": 6991,
      "Etrafındaki": 6992,
      "tiye": 6993,
      "Taş": 6994,
      "▁yetecek": 6995,
      "▁söylemedi": 6996,
      "▁paylaşıyorlar": 6997,
      "▁parçalarını": 6998,
      "▁narin": 6999,
      "▁fareyi": 7000,
      "▁hortum": 7001,
      "▁tartışmaya": 7002,
      "arp": 7003,
      "▁aygırı": 7004,
      "Gülümsediler": 7005,
      "Hır": 7006,
      "▁tük": 7007,
      "Zengin": 7008,
      "▁üzgünsün": 7009,
      "▁waffle": 7010,
      "Meraklı": 7011,
      "eğlen": 7012,
      "▁avoka": 7013,
      "▁merkez": 7014,
      "▁eşyalarına": 7015,
      "▁çimdik": 7016,
      "▁madalya": 7017,
      "Gürült": 7018,
      "▁gördükleri": 7019,
      "▁eğil": 7020,
      "▁alamadı": 7021,
      "Uy": 7022,
      "Evinin": 7023,
      "tinin": 7024,
      "▁yapan": 7025,
      "Sessiz": 7026,
      "▁dönmeyi": 7027,
      "▁renkliydi": 7028,
      "eryem": 7029,
      "▁neşeyle": 7030,
      "▁buğda": 7031,
      "▁tören": 7032,
      "▁kurdele": 7033,
      "▁kıvıl": 7034,
      "▁teraz": 7035,
      "▁düştüler": 7036,
      "haya": 7037,
      "şıyorum": 7038,
      "▁ellerinde": 7039,
      "▁biber": 7040,
      "▁isteye": 7041,
      "▁kaybettim": 7042,
      "▁çalışmak": 7043,
      "▁yürüyen": 7044,
      "▁karı": 7045,
      "lacak": 7046,
      "▁sağlam": 7047,
      "bora": 7048,
      "Kür": 7049,
      "Üst": 7050,
      "alı": 7051,
      "del": 7052,
      "▁mahal": 7053,
      "▁dinlemiş": 7054,
      "▁turp": 7055,
      "▁affede": 7056,
      "▁birbirlerinden": 7057,
      "▁yalvardı": 7058,
      "▁içmek": 7059,
      "▁bebeğim": 7060,
      "Mot": 7061,
      "Dışarısı": 7062,
      "iyorsun": 7063,
      "▁mikrof": 7064,
      "eyzbol": 7065,
      "▁maym": 7066,
      "tüylü": 7067,
      "▁figür": 7068,
      "▁kuvvetli": 7069,
      "▁temizlemesine": 7070,
      "▁penç": 7071,
      "▁bilmiyorlar": 7072,
      "ladığını": 7073,
      "yorsun": 7074,
      "▁mutfa": 7075,
      "boratu": 7076,
      "▁sınav": 7077,
      "uby": 7078,
      "bie": 7079,
      "Bahçeye": 7080,
      "▁mürekk": 7081,
      "▁umursamadı": 7082,
      "▁örüm": 7083,
      "▁barış": 7084,
      "Bazıları": 7085,
      "nowy": 7086,
      "Fotoğraf": 7087,
      "▁şemsiy": 7088,
      "brika": 7089,
      "Sophie": 7090,
      "etraf": 7091,
      "▁kırmak": 7092,
      "mas": 7093,
      "▁kibrit": 7094,
      "▁adamla": 7095,
      "Solucan": 7096,
      "▁kullanabiliriz": 7097,
      "korkunç": 7098,
      "▁fasulye": 7099,
      "▁sarılarak": 7100,
      "▁balığa": 7101,
      "▁cesurca": 7102,
      "Dersini": 7103,
      "Bloklarla": 7104,
      "▁filmi": 7105,
      "▁yaptıkları": 7106,
      "miyorlardı": 7107,
      "Yürüyüş": 7108,
      "memesi": 7109,
      "▁uyarı": 7110,
      "ildiğini": 7111,
      "Bill": 7112,
      "▁sol": 7113,
      "kileri": 7114,
      "Polly": 7115,
      "▁kamera": 7116,
      "ger": 7117,
      "▁dansçı": 7118,
      "▁penguen": 7119,
      "▁çantası": 7120,
      "Bizimle": 7121,
      "▁atlamaya": 7122,
      "ih": 7123,
      "▁kelimeleri": 7124,
      "▁sormaya": 7125,
      "▁şarkısını": 7126,
      "▁kütük": 7127,
      "▁yardımına": 7128,
      "▁kanepenin": 7129,
      "▁heyecanını": 7130,
      "▁havayı": 7131,
      "▁yanıt": 7132,
      "ampu": 7133,
      "kaz": 7134,
      "▁deliği": 7135,
      "▁kıp": 7136,
      "Alex": 7137,
      "lıyorlardı": 7138,
      "▁bagaj": 7139,
      "▁başladığını": 7140,
      "▁dinleye": 7141,
      "▁başardılar": 7142,
      "▁çuva": 7143,
      "Islak": 7144,
      "Kapıya": 7145,
      "▁koruya": 7146,
      "▁atıldı": 7147,
      "bur": 7148,
      "▁zorundaydı": 7149,
      "▁ağzını": 7150,
      "▁açıl": 7151,
      "▁flüt": 7152,
      "▁dediğini": 7153,
      "▁Mandy": 7154,
      "▁geldiniz": 7155,
      "▁geyiği": 7156,
      "elerini": 7157,
      "▁odada": 7158,
      "▁zorundasın": 7159,
      "beri": 7160,
      "▁buldun": 7161,
      "▁yerlere": 7162,
      "Arkasını": 7163,
      "▁bıraka": 7164,
      "▁delikten": 7165,
      "▁slayt": 7166,
      "▁aldın": 7167,
      "▁çizg": 7168,
      "▁kimseyi": 7169,
      "▁gürültüsü": 7170,
      "Mu": 7171,
      "▁dönmedi": 7172,
      "▁kalabilir": 7173,
      "▁Bill": 7174,
      "▁bakarlar": 7175,
      "▁çiftliğe": 7176,
      "▁denizana": 7177,
      "▁hazineyi": 7178,
      "bby": 7179,
      "Sürpr": 7180,
      "ekuşu": 7181,
      "Ollie": 7182,
      "▁böylesine": 7183,
      "▁kaymayı": 7184,
      "▁geçiriyordu": 7185,
      "▁üzün": 7186,
      "▁cüzdan": 7187,
      "▁çerç": 7188,
      "▁içecek": 7189,
      "Çiçekleri": 7190,
      "▁zili": 7191,
      "▁tırmanmayı": 7192,
      "▁perişan": 7193,
      "▁durdurdu": 7194,
      "▁parlaktır": 7195,
      "▁büyükannesine": 7196,
      "▁saçlarında": 7197,
      "▁Ducky": 7198,
      "▁kola": 7199,
      "▁bakarak": 7200,
      "▁tencere": 7201,
      "▁arıyor": 7202,
      "▁yaşıyorlardı": 7203,
      "▁yüksel": 7204,
      "Suda": 7205,
      "Ayakkabılarını": 7206,
      "▁buluna": 7207,
      "Güvercin": 7208,
      "eliğine": 7209,
      "Sandviç": 7210,
      "▁şekillerde": 7211,
      "▁bilg": 7212,
      "▁golf": 7213,
      "onuk": 7214,
      "▁titremeye": 7215,
      "ğunun": 7216,
      "▁fındık": 7217,
      "▁omz": 7218,
      "▁uydur": 7219,
      "▁oturuyor": 7220,
      "▁sağır": 7221,
      "Oynayacak": 7222,
      "▁yakınlaştır": 7223,
      "dışarı": 7224,
      "▁ayıydı": 7225,
      "▁hoşlanmazdı": 7226,
      "▁dilemek": 7227,
      "Ch": 7228,
      "Yumurta": 7229,
      "Yanına": 7230,
      "▁kitabını": 7231,
      "▁uçmasını": 7232,
      "seninle": 7233,
      "▁çiftlik": 7234,
      "!\n": 7235,
      "▁geleceğini": 7236,
      "▁görevli": 7237,
      "▁tuttular": 7238,
      "▁uyandır": 7239,
      "▁şapkayı": 7240,
      "mada": 7241,
      "düş": 7242,
      "ydın": 7243,
      "▁sağlayacak": 7244,
      "▁kızım": 7245,
      "Şö": 7246,
      "beyaz": 7247,
      "▁raha": 7248,
      "chel": 7249,
      "▁fotoğrafını": 7250,
      "vana": 7251,
      "▁eğlendiğini": 7252,
      "▁korkmuşlardı": 7253,
      "▁pastanın": 7254,
      "ğeri": 7255,
      "▁veranda": 7256,
      "▁kaybettiği": 7257,
      "▁tepesinde": 7258,
      "güçlü": 7259,
      "▁çıkalım": 7260,
      "▁gümüş": 7261,
      "▁çalmak": 7262,
      "▁dönüyor": 7263,
      "Kok": 7264,
      "▁öfkeli": 7265,
      "noz": 7266,
      "▁kaybetmek": 7267,
      "▁ailesini": 7268,
      "▁George": 7269,
      "▁uzaklaştırdı": 7270,
      "▁kardeşsin": 7271,
      ".\"\n": 7272,
      "▁bloklarıyla": 7273,
      "▁ahta": 7274,
      "▁vermeyi": 7275,
      "▁ulaşmaya": 7276,
      "▁sertçe": 7277,
      "üzer": 7278,
      "Oynarken": 7279,
      "▁beklemek": 7280,
      "▁içindeydi": 7281,
      "▁çarşaf": 7282,
      "htarı": 7283,
      "▁tokat": 7284,
      "Kollarını": 7285,
      "Bebeğini": 7286,
      "güven": 7287,
      "Şiş": 7288,
      "değil": 7289,
      "Grace": 7290,
      "▁baktığını": 7291,
      "▁pencereye": 7292,
      "▁atıyorlar": 7293,
      "▁sığ": 7294,
      "▁dönüştür": 7295,
      "▁kalkan": 7296,
      "▁şoförü": 7297,
      "▁deney": 7298,
      "▁bunların": 7299,
      "▁koltuk": 7300,
      "▁gezin": 7301,
      "▁bulmuş": 7302,
      "▁yemiş": 7303,
      "▁yakınına": 7304,
      "▁kalmadı": 7305,
      "Gülüp": 7306,
      "▁beceriksiz": 7307,
      "▁hissedebiliyordu": 7308,
      "▁taşıyordu": 7309,
      "salda": 7310,
      "▁kakao": 7311,
      "▁cam": 7312,
      "Kaplan": 7313,
      "▁olurdu": 7314,
      "mazsınız": 7315,
      "▁geriye": 7316,
      "▁kaldırmaya": 7317,
      "sür": 7318,
      "▁araç": 7319,
      "iyip": 7320,
      "▁unutmayın": 7321,
      "▁kurabiyeler": 7322,
      "▁oluyordu": 7323,
      "▁brokoli": 7324,
      "▁macerasını": 7325,
      "▁ettiğinde": 7326,
      "Zar": 7327,
      "▁etmeyin": 7328,
      ".'\n\n": 7329,
      "▁uyanık": 7330,
      "leyici": 7331,
      "▁serp": 7332,
      "▁olmalısınız": 7333,
      "▁pedal": 7334,
      "oyn": 7335,
      "▁hedef": 7336,
      "kaydırak": 7337,
      "enmişti": 7338,
      "▁rahattı": 7339,
      "ukat": 7340,
      "amıyor": 7341,
      "lezzetli": 7342,
      "▁değir": 7343,
      "▁ini": 7344,
      "▁süreliğine": 7345,
      "▁giydiler": 7346,
      "▁kömür": 7347,
      "▁gökten": 7348,
      "▁çivi": 7349,
      "Say": 7350,
      "▁umurunda": 7351,
      "▁etrafından": 7352,
      "▁bulutların": 7353,
      "▁çan": 7354,
      "▁diliyorlar": 7355,
      "liler": 7356,
      "▁reng": 7357,
      "▁Tan": 7358,
      "▁hisseden": 7359,
      "▁uzaklaştılar": 7360,
      "Durun": 7361,
      "▁tırmana": 7362,
      "inibüs": 7363,
      "▁salim": 7364,
      "oel": 7365,
      "larımız": 7366,
      "Dağınık": 7367,
      "ılacağını": 7368,
      "▁yalıyor": 7369,
      "▁panda": 7370,
      "▁oynadığı": 7371,
      "Otobüs": 7372,
      "Ormandaki": 7373,
      "boz": 7374,
      "▁çizmek": 7375,
      "▁hoplayıp": 7376,
      "gandı": 7377,
      "Oğlan": 7378,
      "▁oyuncakların": 7379,
      "banı": 7380,
      "▁ray": 7381,
      "▁papatya": 7382,
      "▁ikramlar": 7383,
      "▁babasından": 7384,
      "çağı": 7385,
      "Dalga": 7386,
      "kiş": 7387,
      "▁ovuşturdu": 7388,
      "▁ayısına": 7389,
      "▁sepete": 7390,
      "▁bahçedeki": 7391,
      "▁saçlarını": 7392,
      "▁iyisisin": 7393,
      "▁uzaklaşmaya": 7394,
      "▁oynamasına": 7395,
      "▁ceva": 7396,
      "▁katıla": 7397,
      "▁mobilya": 7398,
      "▁iyice": 7399,
      "▁heykel": 7400,
      "▁mantar": 7401,
      "liç": 7402,
      "Havuz": 7403,
      "▁kasa": 7404,
      "▁basketbol": 7405,
      "rf": 7406,
      "▁itip": 7407,
      "▁ettin": 7408,
      "▁etmiyor": 7409,
      "Ağaçların": 7410,
      "▁istemiyoruz": 7411,
      "▁çekmec": 7412,
      "▁hangi": 7413,
      "▁taze": 7414,
      "▁yarat": 7415,
      "▁hevesliydi": 7416,
      "▁kolu": 7417,
      "▁kıskanıyordu": 7418,
      "▁keşfeder": 7419,
      "▁treni": 7420,
      "▁bulacağını": 7421,
      "▁uykusu": 7422,
      "▁doğr": 7423,
      "▁sürprizim": 7424,
      "bahç": 7425,
      "Tamir": 7426,
      "▁gitmeleri": 7427,
      "▁edemiyordu": 7428,
      "▁kask": 7429,
      "Battaniy": 7430,
      "▁balıkları": 7431,
      "▁açıyor": 7432,
      "▁gücüyle": 7433,
      "İz": 7434,
      "▁köşesinde": 7435,
      "▁ayağı": 7436,
      "ardır": 7437,
      "tüydü": 7438,
      "▁umarak": 7439,
      "şimdi": 7440,
      "▁tepsi": 7441,
      "limat": 7442,
      "▁ıslaktı": 7443,
      "▁bulabileceğini": 7444,
      "▁kalmayı": 7445,
      "▁burun": 7446,
      "▁gezegen": 7447,
      "▁farklıydı": 7448,
      "▁tereyağı": 7449,
      "arkadaşı": 7450,
      "inlikle": 7451,
      "▁saymaya": 7452,
      "▁dolap": 7453,
      "Topa": 7454,
      "sas": 7455,
      "▁kaçırdı": 7456,
      "▁hissettiriyordu": 7457,
      "arlı": 7458,
      "▁saklaya": 7459,
      "▁adına": 7460,
      "▁ederiz": 7461,
      "▁spr": 7462,
      "▁davranmaya": 7463,
      "Hedi": 7464,
      "▁kadına": 7465,
      "sıydı": 7466,
      "▁gösterir": 7467,
      "▁makyaj": 7468,
      "▁gideceğini": 7469,
      "▁bacağını": 7470,
      "▁bilinmeyen": 7471,
      "▁kovan": 7472,
      "▁dinlediler": 7473,
      "tavşan": 7474,
      "meyeceklerini": 7475,
      "▁yöne": 7476,
      "Komşu": 7477,
      "nek": 7478,
      "▁Anne": 7479,
      "▁pişirmek": 7480,
      "Uçak": 7481,
      "laka": 7482,
      "Rok": 7483,
      "▁yiyip": 7484,
      "lıktan": 7485,
      "inim": 7486,
      "ymış": 7487,
      "▁hayalet": 7488,
      "Kapının": 7489,
      "gözlü": 7490,
      "▁jöle": 7491,
      "ökez": 7492,
      "▁kızdırmak": 7493,
      "▁başlamış": 7494,
      "Gurur": 7495,
      "▁sırtına": 7496,
      "▁kükreme": 7497,
      "▁uğram": 7498,
      "▁tutmayı": 7499,
      "▁edinmek": 7500,
      "Okul": 7501,
      "▁insanın": 7502,
      "▁kimsin": 7503,
      "▁havanın": 7504,
      "▁çalışmayı": 7505,
      "Yerdeki": 7506,
      "▁aldığında": 7507,
      "Kamyonun": 7508,
      "▁becer": 7509,
      "▁battı": 7510,
      "bağırdı": 7511,
      "▁kesip": 7512,
      "tıştır": 7513,
      "▁sörf": 7514,
      "liza": 7515,
      "▁ton": 7516,
      "▁altındaki": 7517,
      "vde": 7518,
      "▁sir": 7519,
      "▁cezalandır": 7520,
      "teve": 7521,
      "Müzik": 7522,
      "▁tamamını": 7523,
      "▁yerleştirdi": 7524,
      "▁duda": 7525,
      "▁karton": 7526,
      "Büyü": 7527,
      "▁egzersiz": 7528,
      "▁köyde": 7529,
      "▁topar": 7530,
      "▁kurtarmak": 7531,
      "▁paspa": 7532,
      "▁çabuk": 7533,
      "▁yukarıya": 7534,
      "▁kabak": 7535,
      "▁büyükannesini": 7536,
      "Yaz": 7537,
      "isyen": 7538,
      "▁lastik": 7539,
      "ick": 7540,
      "▁çatal": 7541,
      "▁uçurtmayı": 7542,
      "Sihirli": 7543,
      "ediler": 7544,
      "▁teş": 7545,
      "▁kasırga": 7546,
      "▁parıltı": 7547,
      "▁güzeller": 7548,
      "▁iskele": 7549,
      "▁boşa": 7550,
      "▁kürkü": 7551,
      "▁balığın": 7552,
      "bilseydi": 7553,
      "▁mahvol": 7554,
      "▁hediyeyi": 7555,
      "▁labiren": 7556,
      "▁yaklaştığında": 7557,
      "▁güv": 7558,
      "yapabilirsin": 7559,
      "vereng": 7560,
      "▁yoga": 7561,
      "▁karnabah": 7562,
      "Çalış": 7563,
      "Dünyayı": 7564,
      "▁gelmedi": 7565,
      "Sabah": 7566,
      "Arabasını": 7567,
      "▁karma": 7568,
      "Zirv": 7569,
      "▁kurdu": 7570,
      "▁anlatmaya": 7571,
      "▁sertti": 7572,
      "▁fakir": 7573,
      "▁damla": 7574,
      "Arkadaşlarını": 7575,
      "▁bayana": 7576,
      "▁atlamak": 7577,
      "▁renkte": 7578,
      "▁kütü": 7579,
      "Annie": 7580,
      "▁mırıldan": 7581,
      "uyorum": 7582,
      "▁çöpe": 7583,
      "▁buldukları": 7584,
      "▁alamaya": 7585,
      "lerindeki": 7586,
      "▁kuruş": 7587,
      "▁kilis": 7588,
      "Charlie": 7589,
      "▁hindi": 7590,
      "iğin": 7591,
      "▁Mike": 7592,
      "▁özlemişti": 7593,
      "dukça": 7594,
      "Herkese": 7595,
      "▁memnuniyetle": 7596,
      "▁düşmüştü": 7597,
      "▁Polly": 7598,
      "tran": 7599,
      "▁tüyleri": 7600,
      "▁bilmiyorum": 7601,
      "▁mücadele": 7602,
      "▁cebinde": 7603,
      "▁mektubu": 7604,
      "İhtiya": 7605,
      "mıyorlar": 7606,
      "erdiveni": 7607,
      "▁üçgen": 7608,
      "Keskin": 7609,
      "▁hissetmek": 7610,
      "▁bahçesini": 7611,
      "▁odun": 7612,
      "▁görem": 7613,
      "▁vermişti": 7614,
      "▁kıllı": 7615,
      "lacağını": 7616,
      "kır": 7617,
      "▁defa": 7618,
      "Ju": 7619,
      "Mutf": 7620,
      "▁yapıyorlardı": 7621,
      "Açtı": 7622,
      "▁kelebeğe": 7623,
      "▁kafata": 7624,
      "▁çorbayı": 7625,
      "▁dersin": 7626,
      "▁karıştırıp": 7627,
      "▁dengede": 7628,
      "▁parlamaya": 7629,
      "▁girelim": 7630,
      "▁kurtarmaya": 7631,
      "▁kamp": 7632,
      "ner": 7633,
      "▁kaçmak": 7634,
      "Annelerini": 7635,
      "▁kumaş": 7636,
      "▁rahatlamıştı": 7637,
      "▁yuvasına": 7638,
      "içinde": 7639,
      "▁bizimle": 7640,
      "▁los": 7641,
      "izmet": 7642,
      "▁sis": 7643,
      "▁bıyı": 7644,
      "▁sabırla": 7645,
      "ac": 7646,
      "▁olacağı": 7647,
      "▁gideceği": 7648,
      "▁oyuncaklarına": 7649,
      "▁bende": 7650,
      "▁sandığı": 7651,
      "▁olalım": 7652,
      "biga": 7653,
      "Kaf": 7654,
      "▁etmelerini": 7655,
      "▁kırdın": 7656,
      "▁yaşıyor": 7657,
      "Dikkat": 7658,
      "▁bisikletine": 7659,
      "geri": 7660,
      "▁alacak": 7661,
      "▁birikintiler": 7662,
      "▁azarladı": 7663,
      "eterin": 7664,
      "bat": 7665,
      "Veterin": 7666,
      "▁gidiyorlardı": 7667,
      "bigail": 7668,
      "▁zavallı": 7669,
      "eyiz": 7670,
      "gıç": 7671,
      "▁bitene": 7672,
      "▁duymak": 7673,
      "▁sembol": 7674,
      "Anahtarı": 7675,
      "▁yıldızlara": 7676,
      "▁kıskandı": 7677,
      "▁oynayacağı": 7678,
      "ılıyor": 7679,
      "▁vermesi": 7680,
      "▁dünyadaki": 7681,
      "vik": 7682,
      "▁kamyonunu": 7683,
      "bö": 7684,
      "▁uzaklara": 7685,
      "Barda": 7686,
      "▁almadan": 7687,
      "Yaşa": 7688,
      "▁hatırlıyor": 7689,
      "▁kaybettiğini": 7690,
      "▁zürafa": 7691,
      "biliyorlardı": 7692,
      "▁öğrenmişti": 7693,
      "Tırtıl": 7694,
      "Uyandığında": 7695,
      "▁etmiyordu": 7696,
      "▁gözlük": 7697,
      "▁merdivenlerden": 7698,
      "rue": 7699,
      "▁bast": 7700,
      "Yani": 7701,
      "Maggie": 7702,
      "▁yaratı": 7703,
      "▁tırmanıp": 7704,
      "▁eti": 7705,
      "▁rom": 7706,
      "▁köpekleri": 7707,
      "▁içi": 7708,
      "▁yardımlarından": 7709,
      "cağımı": 7710,
      "Kızın": 7711,
      "▁başar": 7712,
      "▁hokey": 7713,
      "▁girmeye": 7714,
      "Birbirlerinden": 7715,
      "▁annelerini": 7716,
      "▁parmaklarını": 7717,
      "▁bluz": 7718,
      "larındaki": 7719,
      "▁itmeye": 7720,
      "▁büyümeye": 7721,
      "cik": 7722,
      "▁belada": 7723,
      "Annemle": 7724,
      "burada": 7725,
      "▁çalışması": 7726,
      "▁tabla": 7727,
      "▁yanarda": 7728,
      "▁satran": 7729,
      "Sandy": 7730,
      "ağladı": 7731,
      "▁sallandı": 7732,
      "▁kula": 7733,
      "▁kapısı": 7734,
      "▁karn": 7735,
      "▁öğrete": 7736,
      "▁yapabileceği": 7737,
      "▁koyuyorlar": 7738,
      "ho": 7739,
      "ğımız": 7740,
      "▁toprağı": 7741,
      "Sıkı": 7742,
      "▁doğrul": 7743,
      "▁odan": 7744,
      "▁gözlerle": 7745,
      "lerler": 7746,
      "isinek": 7747,
      "▁mikrosk": 7748,
      "Dür": 7749,
      "▁büyüdüğünü": 7750,
      "▁gezdir": 7751,
      "▁teşvik": 7752,
      "essie": 7753,
      "▁boynuna": 7754,
      "▁tuğla": 7755,
      "▁getirmeye": 7756,
      "sinde": 7757,
      "▁yapılacak": 7758,
      "Işık": 7759,
      "dr": 7760,
      "hava": 7761,
      "Tadı": 7762,
      "▁mağazadan": 7763,
      "▁şükr": 7764,
      "Nedir": 7765,
      "▁kalır": 7766,
      "▁batak": 7767,
      "lardır": 7768,
      "▁yolun": 7769,
      "▁beyzbol": 7770,
      "▁bot": 7771,
      "▁olmasa": 7772,
      "onata": 7773,
      "▁bayıldı": 7774,
      "▁erim": 7775,
      "ınız": 7776,
      "elbette": 7777,
      "▁saldı": 7778,
      "urlar": 7779,
      "Kel": 7780,
      "▁fikirleri": 7781,
      "▁göstererek": 7782,
      "▁çekiş": 7783,
      "▁birisi": 7784,
      "▁yiyebilir": 7785,
      "▁gülümsemeden": 7786,
      "▁çekmek": 7787,
      "Sok": 7788,
      "▁geçtiler": 7789,
      "▁erik": 7790,
      "Lilly": 7791,
      "die": 7792,
      "cıya": 7793,
      "▁sırrı": 7794,
      "▁gevreği": 7795,
      "ganın": 7796,
      "▁dünyaya": 7797,
      "▁Dave": 7798,
      "malıydı": 7799,
      "▁takıyordu": 7800,
      "▁hikayeyi": 7801,
      "Yangın": 7802,
      "Blokları": 7803,
      "fik": 7804,
      "iver": 7805,
      "kaya": 7806,
      "▁boğa": 7807,
      "▁vida": 7808,
      "obüse": 7809,
      "▁Pat": 7810,
      "▁kapattılar": 7811,
      "▁cahil": 7812,
      "▁gülümset": 7813,
      "▁indiler": 7814,
      "▁ekmeği": 7815,
      "▁birbirlerinin": 7816,
      "▁fikrim": 7817,
      "Geldiklerinde": 7818,
      "▁tı": 7819,
      "▁şık": 7820,
      "▁peyniri": 7821,
      "▁sırı": 7822,
      "▁devr": 7823,
      "▁esti": 7824,
      "▁çalışmanın": 7825,
      "cayı": 7826,
      "▁söyleyerek": 7827,
      "▁mahs": 7828,
      "Tahta": 7829,
      "▁mar": 7830,
      "▁yakalamaca": 7831,
      "▁ayrılırken": 7832,
      "▁günüydü": 7833,
      "Hap": 7834,
      "ebileceklerini": 7835,
      "▁kış": 7836,
      "üzgün": 7837,
      "▁koştuğunu": 7838,
      "▁dinlemesi": 7839,
      "vizyonu": 7840,
      "emy": 7841,
      "▁esin": 7842,
      "▁oynayabileceği": 7843,
      "▁yüzdüler": 7844,
      "Kuğu": 7845,
      "▁sevg": 7846,
      "▁krava": 7847,
      "▁diy": 7848,
      "▁çalıştığında": 7849,
      "▁havaalan": 7850,
      "▁pazara": 7851,
      "▁elmaları": 7852,
      "bal": 7853,
      "▁yiyor": 7854,
      "▁günler": 7855,
      "▁alar": 7856,
      "lığında": 7857,
      "▁bisikletini": 7858,
      "Zirveye": 7859,
      "▁hissetmesi": 7860,
      "Paylaşmayı": 7861,
      "idye": 7862,
      "Arabaları": 7863,
      "ydiler": 7864,
      "nen": 7865,
      "▁uslu": 7866,
      "▁erkenden": 7867,
      "▁çalıyordu": 7868,
      "▁kristal": 7869,
      "▁kaleyi": 7870,
      "▁kanguru": 7871,
      "▁ağacına": 7872,
      "▁durumu": 7873,
      "Millie": 7874,
      "▁şeklinde": 7875,
      "memek": 7876,
      "iridye": 7877,
      "▁uzaktaydı": 7878,
      "Tes": 7879,
      "▁uyum": 7880,
      "▁arayarak": 7881,
      "▁meydan": 7882,
      "▁ördeği": 7883,
      "▁etmeleri": 7884,
      "Akıllı": 7885,
      "▁merdivene": 7886,
      "manıza": 7887,
      "insan": 7888,
      "▁uçağa": 7889,
      "Kuz": 7890,
      "▁alanı": 7891,
      "▁tebeşir": 7892,
      "Mektu": 7893,
      "▁onar": 7894,
      "lemenin": 7895,
      "▁atıştırmalıklar": 7896,
      "bek": 7897,
      "şırdı": 7898,
      "inky": 7899,
      "▁satranç": 7900,
      "▁keşif": 7901,
      "▁gideceklerini": 7902,
      "▁davranıp": 7903,
      "Açık": 7904,
      "Arabanın": 7905,
      "sapor": 7906,
      "▁geçmeye": 7907,
      "▁endişelenmemesini": 7908,
      "şapka": 7909,
      "Gid": 7910,
      "▁başkalarını": 7911,
      "▁isterler": 7912,
      "▁Fin": 7913,
      "paylaş": 7914,
      "Kağıdı": 7915,
      "ota": 7916,
      "▁ten": 7917,
      "Sor": 7918,
      "▁ettim": 7919,
      "▁yıkadı": 7920,
      "enip": 7921,
      "▁paraları": 7922,
      "eddü": 7923,
      "eddüt": 7924,
      "▁vag": 7925,
      "▁eliyle": 7926,
      "▁bağırıyorlar": 7927,
      "▁inceledi": 7928,
      "Kapa": 7929,
      "▁havuza": 7930,
      "Kamyonu": 7931,
      "Ördekler": 7932,
      "▁hevesle": 7933,
      "▁açmayı": 7934,
      "▁yatağında": 7935,
      "▁elmas": 7936,
      "▁mağaraya": 7937,
      "▁köpekbalığı": 7938,
      "▁bildiği": 7939,
      "▁harca": 7940,
      "▁melek": 7941,
      "▁ettirdi": 7942,
      "▁kitaplar": 7943,
      "Önemli": 7944,
      "▁bilet": 7945,
      "▁götürür": 7946,
      "▁ampul": 7947,
      "▁parktan": 7948,
      "▁durumda": 7949,
      "Arabam": 7950,
      "▁itfaiyeci": 7951,
      "Kanatlarını": 7952,
      "▁demiş": 7953,
      "▁Toby": 7954,
      "▁zaten": 7955,
      "muz": 7956,
      "▁geçerken": 7957,
      "▁deneyim": 7958,
      "harika": 7959,
      "▁zebra": 7960,
      "Çar": 7961,
      "laj": 7962,
      "▁Ju": 7963,
      "▁annemle": 7964,
      "▁sahipti": 7965,
      "▁kızına": 7966,
      "Arabalarını": 7967,
      "▁poli": 7968,
      "rarak": 7969,
      "▁çalın": 7970,
      "▁astı": 7971,
      "Topla": 7972,
      "▁yanındaki": 7973,
      "▁keşfederek": 7974,
      "▁sormadan": 7975,
      "sulu": 7976,
      "Zavallı": 7977,
      "▁derinliklerine": 7978,
      "Olanları": 7979,
      "▁düşündüğü": 7980,
      "▁bat": 7981,
      "▁Brownie": 7982,
      "ecekti": 7983,
      "giyi": 7984,
      "elendir": 7985,
      "▁ünifor": 7986,
      "▁vereceğini": 7987,
      "▁şımarık": 7988,
      "Davi": 7989,
      "Kendisinin": 7990,
      "Denedi": 7991,
      "eğimi": 7992,
      "▁geçirmeyi": 7993,
      "▁pilot": 7994,
      "seniz": 7995,
      "tren": 7996,
      "yıldız": 7997,
      "ardın": 7998,
      "▁hissetmeyi": 7999,
      "▁selam": 8000,
      "▁içtiler": 8001,
      "▁tencereye": 8002,
      "canın": 8003,
      "eceğine": 8004,
      "▁yapraklar": 8005,
      "dön": 8006,
      "▁umut": 8007,
      "momet": 8008,
      "▁yapılmıştı": 8009,
      "▁mız": 8010,
      "▁papağan": 8011,
      "Keç": 8012,
      "▁ceketini": 8013,
      "Geyik": 8014,
      "▁bulutları": 8015,
      "Gösteri": 8016,
      "▁istasyon": 8017,
      "▁bulduğuna": 8018,
      "ğs": 8019,
      "▁indir": 8020,
      "Başkalarına": 8021,
      "▁çekerek": 8022,
      "David": 8023,
      "▁defter": 8024,
      "Palyaço": 8025,
      "▁söylemiştim": 8026,
      "▁gecenin": 8027,
      "▁içer": 8028,
      "▁krema": 8029,
      "▁sıkıldı": 8030,
      "▁korkmadı": 8031,
      "▁gerçeği": 8032,
      "Mimi": 8033,
      "Yas": 8034,
      "bunun": 8035,
      "▁bırakır": 8036,
      "▁esnem": 8037,
      "▁kartı": 8038,
      "▁temizlik": 8039,
      "▁sopayla": 8040,
      "▁kanadı": 8041,
      "▁kardeşini": 8042,
      "sıldı": 8043,
      "▁feneri": 8044,
      "▁köpekten": 8045,
      "Bah": 8046,
      "Balina": 8047,
      "▁başlamak": 8048,
      "▁paltosunu": 8049,
      "▁geçmek": 8050,
      "▁parf": 8051,
      "Kaba": 8052,
      "▁gününde": 8053,
      "▁gitmem": 8054,
      "Va": 8055,
      "▁yapamadı": 8056,
      "bugün": 8057,
      "nie": 8058,
      "▁istemez": 8059,
      "ğum": 8060,
      "yaka": 8061,
      "▁yazmayı": 8062,
      "▁çubuk": 8063,
      "Birinin": 8064,
      "sındaki": 8065,
      "▁köşede": 8066,
      "▁gördüklerinde": 8067,
      "▁istemiyorlardı": 8068,
      "▁hassas": 8069,
      "▁yapı": 8070,
      "▁altından": 8071,
      "▁eskimo": 8072,
      "▁bulmana": 8073,
      "▁kabukları": 8074,
      "▁neşeliydi": 8075,
      "▁görünmüyordu": 8076,
      "birbir": 8077,
      "▁mutlaka": 8078,
      "lene": 8079,
      "▁tap": 8080,
      "▁meyveler": 8081,
      "▁hediyesi": 8082,
      "▁ölü": 8083,
      "▁aslında": 8084,
      "▁asansör": 8085,
      "Yakındaki": 8086,
      "▁dışına": 8087,
      "Neredeyse": 8088,
      "gör": 8089,
      "ğimi": 8090,
      "Gürültü": 8091,
      "yukarı": 8092,
      "▁ambulan": 8093,
      "▁zeytin": 8094,
      "▁tartıştı": 8095,
      "▁sıkıntı": 8096,
      "▁yazıyordu": 8097,
      "Far": 8098,
      "▁verildi": 8099,
      "▁ahtapot": 8100,
      "ğün": 8101,
      "▁evlerinin": 8102,
      "▁yapacağız": 8103,
      "Kuru": 8104,
      "hav": 8105,
      "▁hemfik": 8106,
      "mamak": 8107,
      "▁gelinceye": 8108,
      "▁güneşe": 8109,
      "Öğren": 8110,
      "İnsanların": 8111,
      "lanıp": 8112,
      "▁düştüğünü": 8113,
      "▁mücevheri": 8114,
      "tiyatr": 8115,
      "Pizza": 8116,
      "▁istemediği": 8117,
      "▁işler": 8118,
      "▁merakla": 8119,
      "Oldukça": 8120,
      "▁karides": 8121,
      "▁düğm": 8122,
      "▁kesmeye": 8123,
      "▁dondurmayı": 8124,
      "▁şampu": 8125,
      "Sahip": 8126,
      "▁geçip": 8127,
      "▁kazmaya": 8128,
      "▁Ch": 8129,
      "▁Sophie": 8130,
      "▁sende": 8131,
      "▁Andy": 8132,
      "▁naziksiniz": 8133,
      "▁aldım": 8134,
      "▁bekliyor": 8135,
      "▁tereddüt": 8136,
      "Gülümsüyorlar": 8137,
      "▁aitti": 8138,
      "▁Tweetie": 8139,
      "▁şiir": 8140,
      "▁kararlı": 8141,
      "Başarı": 8142,
      "▁babama": 8143,
      "▁unutmuştu": 8144,
      "▁yürümeyi": 8145,
      "▁balta": 8146,
      "▁sorumlu": 8147,
      "işi": 8148,
      "▁Alex": 8149,
      "▁hortumu": 8150,
      "▁okulda": 8151,
      "Can": 8152,
      "Parma": 8153,
      "▁ördekleri": 8154,
      "▁çekiç": 8155,
      "saport": 8156,
      "▁olabileceği": 8157,
      "sundan": 8158,
      "▁sallamaya": 8159,
      "Tweetie": 8160,
      "tıştırmalık": 8161,
      "▁aradığını": 8162,
      "pera": 8163,
      "eyze": 8164,
      "dunu": 8165,
      "jderh": 8166,
      "▁utanıyordu": 8167,
      "bının": 8168,
      "▁istemeye": 8169,
      "zla": 8170,
      "▁yaklaşıyordu": 8171,
      "▁Jerry": 8172,
      "tiş": 8173,
      "Koştu": 8174,
      "▁görmüyor": 8175,
      "▁gidişini": 8176,
      "▁halının": 8177,
      "▁hatırladılar": 8178,
      "▁alacağını": 8179,
      "▁dinleyip": 8180,
      "▁konuşup": 8181,
      "▁şaşırmış": 8182,
      "Deneye": 8183,
      "Mutlular": 8184,
      "▁cıv": 8185,
      "ebileceği": 8186,
      "Koyun": 8187,
      "▁kızar": 8188,
      "Tencer": 8189,
      "▁yükseklerde": 8190,
      "Brownie": 8191,
      "▁kafasını": 8192,
      "▁yeşildi": 8193,
      "▁füz": 8194,
      "▁dahil": 8195,
      "▁tezgah": 8196,
      "▁alabileceğini": 8197,
      "▁babanın": 8198,
      "▁takıyor": 8199,
      "▁gerçekleştir": 8200,
      "▁avcı": 8201,
      "▁nehirde": 8202,
      "▁korkutup": 8203,
      "▁kanepede": 8204,
      "kına": 8205,
      "tılı": 8206,
      "▁göstermeyi": 8207,
      "çiçekleri": 8208,
      "▁kaybetmişti": 8209,
      "Bencil": 8210,
      "▁yaklaştığını": 8211,
      "▁ısrarcıydı": 8212,
      "uttu": 8213,
      "▁jet": 8214,
      "▁gömleğini": 8215,
      "▁çıkmış": 8216,
      "▁koyalım": 8217,
      "forman": 8218,
      "eski": 8219,
      "▁tiyatr": 8220,
      "akladı": 8221,
      "Bakalım": 8222,
      "▁dolusu": 8223,
      "Bağır": 8224,
      "▁aydınlandı": 8225,
      "koştu": 8226,
      "▁yiyordu": 8227,
      "▁balkabağı": 8228,
      "▁gözleriyle": 8229,
      "renk": 8230,
      "▁yaktı": 8231,
      "umuzu": 8232,
      "Heyecanla": 8233,
      "▁yemeğinin": 8234,
      "başkalarına": 8235,
      "▁bununla": 8236,
      "▁bulutlar": 8237,
      "Dükkan": 8238,
      "beni": 8239,
      "▁kutlama": 8240,
      "▁ettikleri": 8241,
      "▁nefesini": 8242,
      "▁boyayı": 8243,
      "▁yollarını": 8244,
      "▁keçi": 8245,
      "▁yaradı": 8246,
      "▁duymayı": 8247,
      "▁kullanıyorlar": 8248,
      "▁olmayacağını": 8249,
      "▁fareye": 8250,
      "Ebeveyn": 8251,
      "önt": 8252,
      "▁endişelenmeye": 8253,
      "▁geçmiş": 8254,
      "Tab": 8255,
      "▁hatırlayacak": 8256,
      "aç": 8257,
      "▁gökyüzünün": 8258,
      "▁temizlemesini": 8259,
      "▁dalın": 8260,
      "▁duyuldu": 8261,
      "▁uyumak": 8262,
      "▁gidiyoruz": 8263,
      "▁göstereceğim": 8264,
      "▁baskı": 8265,
      "Jerry": 8266,
      "▁inatçıydı": 8267,
      "Mmm": 8268,
      "▁ufak": 8269,
      "Yorgun": 8270,
      "Meş": 8271,
      "▁yarışa": 8272,
      "▁koltuğa": 8273,
      "Yardıma": 8274,
      "▁hissetmiyordu": 8275,
      "▁karşılaştılar": 8276,
      "Biri": 8277,
      "▁hizmet": 8278,
      "▁resm": 8279,
      "Dokunmak": 8280,
      "dışı": 8281,
      "Kulüb": 8282,
      "▁çö": 8283,
      "Üzgünüz": 8284,
      "▁oturduğunu": 8285,
      "▁dağa": 8286,
      "▁askı": 8287,
      "▁taşını": 8288,
      "pembe": 8289,
      "▁kitaplarını": 8290,
      "▁süpür": 8291,
      "lamadı": 8292,
      "▁izliyorlar": 8293,
      "▁çıtır": 8294,
      "▁görünüm": 8295,
      "keli": 8296,
      "▁satıcı": 8297,
      "▁gövde": 8298,
      "▁tökez": 8299,
      "▁veren": 8300,
      "▁Brown": 8301,
      "▁parçasını": 8302,
      "▁utanmıştı": 8303,
      "▁kalacak": 8304,
      "▁bornoz": 8305,
      "▁hanı": 8306,
      "▁olacaksın": 8307,
      "▁makinesi": 8308,
      "▁dokunmaya": 8309,
      "çav": 8310,
      "siyle": 8311,
      "▁farenin": 8312,
      "Tavuk": 8313,
      "▁kıvılcım": 8314,
      "▁yüzlerinde": 8315,
      "amız": 8316,
      "!\"\n": 8317,
      "▁sahne": 8318,
      "▁keman": 8319,
      "▁dam": 8320,
      "▁kemiği": 8321,
      "▁otura": 8322,
      "Dünyanın": 8323,
      "Buzdola": 8324,
      "ttığı": 8325,
      "Çay": 8326,
      "▁biliyorsun": 8327,
      "▁etmeden": 8328,
      "▁çaldığını": 8329,
      "dikkatli": 8330,
      "▁sabırlıydı": 8331,
      "▁dere": 8332,
      "▁güne": 8333,
      "▁keşfederken": 8334,
      "▁senden": 8335,
      "▁büyüyüp": 8336,
      "vor": 8337,
      "denin": 8338,
      "▁yoksa": 8339,
      "▁erdi": 8340,
      "Nef": 8341,
      "yış": 8342,
      "Tırman": 8343,
      "epyeni": 8344,
      "▁kalenin": 8345,
      "▁kraliç": 8346,
      "mayacaktı": 8347,
      "▁pikniğe": 8348,
      "▁gidene": 8349,
      "emediği": 8350,
      "▁katır": 8351,
      "İpi": 8352,
      "Örde": 8353,
      "▁fok": 8354,
      "Yürümeye": 8355,
      "▁yaza": 8356,
      "Ger": 8357,
      "▁döneceğini": 8358,
      "Elma": 8359,
      "Ki": 8360,
      "ser": 8361,
      "▁şaşırtıcı": 8362,
      "▁güzelleştir": 8363,
      "▁herkesle": 8364,
      "gerçek": 8365,
      "▁gitmemiz": 8366,
      "▁soğan": 8367,
      "▁kullanıyor": 8368,
      "▁hisseder": 8369,
      "Kaplumbağa": 8370,
      "▁hikayelerini": 8371,
      "gin": 8372,
      "▁hamuru": 8373,
      "Kükr": 8374,
      "▁çantaya": 8375,
      "▁güverc": 8376,
      "▁titriyordu": 8377,
      "Başlarını": 8378,
      "▁kalemleri": 8379,
      "▁rüzgarda": 8380,
      "teri": 8381,
      "mda": 8382,
      "Sesi": 8383,
      "▁vazo": 8384,
      "▁yatma": 8385,
      "▁yemeğin": 8386,
      "▁çalışırlar": 8387,
      "lerimiz": 8388,
      "▁uyudu": 8389,
      "▁yürüyor": 8390,
      "▁yaprakların": 8391,
      "Tweet": 8392,
      "emeyeceklerini": 8393,
      "▁saklanma": 8394,
      "sorun": 8395,
      "▁takılıp": 8396,
      "▁gitar": 8397,
      "▁mahsur": 8398,
      "▁Mavi": 8399,
      "Günler": 8400,
      "Bununla": 8401,
      "▁çekil": 8402,
      "▁küreği": 8403,
      "yalım": 8404,
      "▁çıkaran": 8405,
      "▁çalılığın": 8406,
      "▁vazoyu": 8407,
      "▁matematik": 8408,
      "▁bekleye": 8409,
      "Man": 8410,
      "mefendi": 8411,
      "▁kendileriyle": 8412,
      "▁davranarak": 8413,
      "Parmak": 8414,
      "verengiydi": 8415,
      "yüksek": 8416,
      "▁maceralarını": 8417,
      "Korsan": 8418,
      "▁asılı": 8419,
      "▁kayalar": 8420,
      "▁garajda": 8421,
      "▁sürüc": 8422,
      "▁dönmesini": 8423,
      "jderhanın": 8424,
      "▁Küçük": 8425,
      "Kaybol": 8426,
      "Yet": 8427,
      "Bahçesinde": 8428,
      "▁dan": 8429,
      "▁kütüphaneye": 8430,
      "elip": 8431,
      "▁konuşuyor": 8432,
      "arl": 8433,
      "▁nedenini": 8434,
      "▁hafifçe": 8435,
      "şığı": 8436,
      "Köpr": 8437,
      "▁kumsalda": 8438,
      "▁eğlenceyi": 8439,
      "Ün": 8440,
      "▁ağzında": 8441,
      "▁kutusunda": 8442,
      "Ted": 8443,
      "James": 8444,
      "▁çıkmasını": 8445,
      "▁bardağı": 8446,
      "▁sıkışmış": 8447,
      "▁video": 8448,
      "latmak": 8449,
      "▁duyduklarında": 8450,
      "▁arabasının": 8451,
      "▁keşfettiler": 8452,
      "Çöp": 8453,
      "Maria": 8454,
      "▁saati": 8455,
      "▁tutacak": 8456,
      "▁benzersiz": 8457,
      "Kart": 8458,
      "ebilecek": 8459,
      "ğundan": 8460,
      "▁arıyorum": 8461,
      "▁görünüş": 8462,
      "Dürüst": 8463,
      "▁ekr": 8464,
      "▁bloklar": 8465,
      "Sonsuza": 8466,
      "▁duyup": 8467,
      "Yabancı": 8468,
      "ğiniz": 8469,
      "ğlıklı": 8470,
      "İçeriye": 8471,
      "Asla": 8472,
      "Hasta": 8473,
      "Dil": 8474,
      "▁sallıyorlar": 8475,
      "ralım": 8476,
      "▁resif": 8477,
      "▁sinirli": 8478,
      "▁tuttuğunu": 8479,
      "▁terk": 8480,
      "▁zirvesine": 8481,
      "▁defalarca": 8482,
      "▁dondurucu": 8483,
      "▁veterinere": 8484,
      "?'\n\n": 8485,
      "▁gülümser": 8486,
      "Şövalye": 8487,
      "▁gülümsemeye": 8488,
      "sik": 8489,
      "Arkadaşlarının": 8490,
      "▁vericiydi": 8491,
      "▁konuştuğunu": 8492,
      "gülüms": 8493,
      "▁atıldılar": 8494,
      "▁yığının": 8495,
      "ıma": 8496,
      "ira": 8497,
      "anıp": 8498,
      "▁vermiyor": 8499,
      "▁yapamayacağını": 8500,
      "▁kovalamaya": 8501,
      "▁ödülü": 8502,
      "▁girme": 8503,
      "▁getirdiği": 8504,
      "▁başlıyor": 8505,
      "▁takv": 8506,
      "üsü": 8507,
      "Bebeğin": 8508,
      "▁şanslıydı": 8509,
      "şir": 8510,
      "▁olmaz": 8511,
      "▁kılıç": 8512,
      "▁çalıyor": 8513,
      "▁macerasına": 8514,
      "▁biriydi": 8515,
      "lanın": 8516,
      "▁şapkalı": 8517,
      "▁sürücü": 8518,
      "Çamur": 8519,
      "▁yanlarına": 8520,
      "▁kayıyor": 8521,
      "Hortu": 8522,
      "tıldı": 8523,
      "▁vermez": 8524,
      "▁kurbağaya": 8525,
      "▁nane": 8526,
      "▁ız": 8527,
      "▁yoldan": 8528,
      "Okyan": 8529,
      "▁zamanında": 8530,
      "Kuşları": 8531,
      "Pil": 8532,
      "▁ışıltılıydı": 8533,
      "emesi": 8534,
      "▁kırmızıydı": 8535,
      "▁sanıyordu": 8536,
      "▁kürkünü": 8537,
      "▁koşu": 8538,
      "Kedinin": 8539,
      "▁ıslandı": 8540,
      "▁masaj": 8541,
      "▁bahçesindeki": 8542,
      "▁koşturdu": 8543,
      "▁kovalamayı": 8544,
      "▁Joey": 8545,
      "iftek": 8546,
      "▁ufaklık": 8547,
      "▁yazmaya": 8548,
      "Büyükannesi": 8549,
      "▁havuzda": 8550,
      "▁gezmeye": 8551,
      "▁kereviz": 8552,
      "▁korkutmak": 8553,
      "▁battaniyeyi": 8554,
      "▁bulduk": 8555,
      "Neh": 8556,
      "▁yaklaşmak": 8557,
      "Yuva": 8558,
      "ğaranın": 8559,
      "▁araştırmaya": 8560,
      "▁tekerleği": 8561,
      "emli": 8562,
      "▁aldığına": 8563,
      "▁çalının": 8564,
      "Sinir": 8565,
      "▁olacaklarını": 8566,
      "▁bittikten": 8567,
      "stra": 8568,
      "▁kötüydü": 8569,
      "▁kıskanç": 8570,
      "▁sprey": 8571,
      "▁ceb": 8572,
      "▁meyveyi": 8573,
      "dük": 8574,
      "Turuncu": 8575,
      "▁boyutlarda": 8576,
      "▁yakalamayı": 8577,
      "▁dükkâ": 8578,
      "▁görmüştü": 8579,
      "uşunu": 8580,
      "lemesi": 8581,
      "lenmek": 8582,
      "Papağ": 8583,
      "▁günlerini": 8584,
      "▁ağacının": 8585,
      "▁hemfikirdi": 8586,
      "▁yaptığında": 8587,
      "ımda": 8588,
      "lığının": 8589,
      "▁biriktir": 8590,
      "▁lek": 8591,
      "▁hayretle": 8592,
      "mamasını": 8593,
      "▁çör": 8594,
      "▁dinlemeli": 8595,
      "▁büyül": 8596,
      "▁toprağa": 8597,
      "Dizini": 8598,
      "ünüz": 8599,
      "▁yaraladı": 8600,
      "▁pişirmeye": 8601,
      "▁yapayalnız": 8602,
      "kedi": 8603,
      "▁hissediyorum": 8604,
      "▁odadan": 8605,
      "▁yanımıza": 8606,
      "▁fermuarını": 8607,
      "ymiş": 8608,
      "bilge": 8609,
      "▁yatağı": 8610,
      "▁anlatırlar": 8611,
      "▁tuvalete": 8612,
      "▁edemeyecek": 8613,
      "▁karmaşa": 8614,
      "vır": 8615,
      "▁ih": 8616,
      "▁taşları": 8617,
      "Büyülü": 8618,
      "bildikleri": 8619,
      "▁uyumayı": 8620,
      "▁ağabeyi": 8621,
      "Lam": 8622,
      "▁Baba": 8623,
      "▁fabrika": 8624,
      "oo": 8625,
      "▁yollarına": 8626,
      "▁balıkçı": 8627,
      "Pikn": 8628,
      "til": 8629,
      "▁açalım": 8630,
      "▁karşısına": 8631,
      "▁trene": 8632,
      "▁Paul": 8633,
      "masının": 8634,
      "▁Kate": 8635,
      "▁kısmı": 8636,
      "▁kırılmıştı": 8637,
      "▁Rob": 8638,
      "ohbet": 8639,
      "omobil": 8640,
      "ıncağı": 8641,
      "▁havucu": 8642,
      "ciye": 8643,
      "▁alana": 8644,
      "▁üzgündüler": 8645,
      "Güneşte": 8646,
      "▁buzdolabına": 8647,
      "ko": 8648,
      "▁kalkmasına": 8649,
      "▁kaça": 8650,
      "▁hikayeden": 8651,
      "▁kurtardığı": 8652,
      "Mutluydular": 8653,
      "▁karnı": 8654,
      "içeri": 8655,
      "▁durmaya": 8656,
      "Bulma": 8657,
      "inçle": 8658,
      "▁tabe": 8659,
      "▁oyuncağa": 8660,
      "▁sava": 8661,
      "▁tacı": 8662,
      "▁tanesini": 8663,
      "▁cırcır": 8664,
      "▁donuk": 8665,
      "osh": 8666,
      "▁paniğe": 8667,
      "▁paketi": 8668,
      "nu": 8669,
      "▁yiyeceği": 8670,
      "tele": 8671,
      "▁mutfaktan": 8672,
      "▁arkadaştı": 8673,
      "▁giydir": 8674,
      "▁noktaya": 8675,
      "lendiler": 8676,
      "▁dürttü": 8677,
      "Veteriner": 8678,
      "homas": 8679,
      "Delik": 8680,
      "▁elim": 8681,
      "▁bulduğunda": 8682,
      "▁arabalar": 8683,
      "▁teti": 8684,
      "▁görüyordu": 8685,
      "larınızı": 8686,
      "▁koleksiy": 8687,
      "▁zamandan": 8688,
      "▁yaralı": 8689,
      "küp": 8690,
      "▁kutudan": 8691,
      "Kumdan": 8692,
      "▁bacağı": 8693,
      "▁üstünde": 8694,
      "▁şeri": 8695,
      "▁fenerini": 8696,
      "▁cep": 8697,
      "Vahşi": 8698,
      "ılmak": 8699,
      "▁kapağını": 8700,
      "▁istersen": 8701,
      "biz": 8702,
      "▁kullandığı": 8703,
      "▁kilidi": 8704,
      "kie": 8705,
      "▁sıkılmıştı": 8706,
      "▁yangını": 8707,
      "▁tost": 8708,
      "▁gitmeden": 8709,
      "▁ahıra": 8710,
      "▁ormandan": 8711,
      "▁fermuar": 8712,
      "▁silahı": 8713,
      "iniyordu": 8714,
      "▁istemek": 8715,
      "▁zayıftı": 8716,
      "▁bulmacayı": 8717,
      "▁yaklaşmaya": 8718,
      "Be": 8719,
      "Mücev": 8720,
      "▁kararmaya": 8721,
      "Öfk": 8722,
      "▁sürmeye": 8723,
      "▁yaprağın": 8724,
      "room": 8725,
      "eral": 8726,
      "Renkli": 8727,
      "ena": 8728,
      "▁kalmasına": 8729,
      "Odalarına": 8730,
      "kim": 8731,
      "▁performan": 8732,
      "▁biliyorlar": 8733,
      "▁yazıyor": 8734,
      "layacağını": 8735,
      "▁alacağım": 8736,
      "▁dertte": 8737,
      "▁eskisi": 8738,
      "Çimlere": 8739,
      "▁yağıyordu": 8740,
      "Televizyon": 8741,
      "Haf": 8742,
      "▁sığa": 8743,
      "▁yetiştir": 8744,
      "diveni": 8745,
      "▁görmemiş": 8746,
      "▁boynuzlu": 8747,
      "▁korkmaya": 8748,
      "▁kare": 8749,
      "Rüzgarı": 8750,
      "▁abla": 8751,
      "▁göremiyordu": 8752,
      "▁getirip": 8753,
      "▁dikiş": 8754,
      "▁ılık": 8755,
      "▁dekore": 8756,
      "▁ayçiçeği": 8757,
      "▁ci": 8758,
      "Maka": 8759,
      "▁çevresinde": 8760,
      "▁kolyeyi": 8761,
      "Giderek": 8762,
      "uzy": 8763,
      "▁elbiseli": 8764,
      "unny": 8765,
      "Kraliçe": 8766,
      "▁tabağa": 8767,
      "amıyorum": 8768,
      "luğun": 8769,
      "ilik": 8770,
      "▁dalları": 8771,
      "karanlık": 8772,
      "zu": 8773,
      "ğazanın": 8774,
      "▁kalemini": 8775,
      "Kate": 8776,
      "dost": 8777,
      "loe": 8778,
      "▁yatakta": 8779,
      "▁dükkana": 8780,
      "üzerinde": 8781,
      "Tepenin": 8782,
      "▁kucaklaş": 8783,
      "▁oynayabileceklerini": 8784,
      "▁saymayı": 8785,
      "▁esinti": 8786,
      "▁fikrini": 8787,
      "▁ağzıyla": 8788,
      "▁beklediğini": 8789,
      "▁bitirip": 8790,
      "Kızgındı": 8791,
      "▁kuleler": 8792,
      "▁bilmediğini": 8793,
      "Korkmuş": 8794,
      "▁üzülüyor": 8795,
      "htar": 8796,
      "▁kesmek": 8797,
      "▁Maria": 8798,
      "▁ovuştur": 8799,
      "Kütüp": 8800,
      "Sarıldılar": 8801,
      "Tez": 8802,
      "▁edeceğine": 8803,
      "▁ittiler": 8804,
      "Hırsız": 8805,
      "ihtiya": 8806,
      "▁gülümsediğini": 8807,
      "▁babalarını": 8808,
      "▁maceralar": 8809,
      "İnan": 8810,
      "Silah": 8811,
      "Ayna": 8812,
      "şeker": 8813,
      "▁saklanmak": 8814,
      "▁kulübe": 8815,
      "kur": 8816,
      "▁sağlıyordu": 8817,
      "idor": 8818,
      "▁çocuksun": 8819,
      "▁yatmadan": 8820,
      "▁yavaştı": 8821,
      "evet": 8822,
      "omur": 8823,
      "▁kullanacağını": 8824,
      "▁görünse": 8825,
      "▁döner": 8826,
      "gram": 8827,
      "parkta": 8828,
      "eluş": 8829,
      "lue": 8830,
      "▁piyano": 8831,
      "Tüylü": 8832,
      "▁istemedik": 8833,
      "▁laboratu": 8834,
      "▁babamın": 8835,
      "▁madeni": 8836,
      "diyan": 8837,
      "Buddy": 8838,
      "▁mev": 8839,
      "Dir": 8840,
      "▁motoru": 8841,
      "▁gidiyorsun": 8842,
      "Pip": 8843,
      "ttu": 8844,
      "▁yüzmek": 8845,
      "▁yıkan": 8846,
      "Masaya": 8847,
      "▁keyifli": 8848,
      "▁gergedan": 8849,
      "▁mıknatıs": 8850,
      "▁denizci": 8851,
      "Bekle": 8852,
      "Sonuç": 8853,
      "▁kaymaya": 8854,
      "▁vazgeçmek": 8855,
      "Clara": 8856,
      "Koltu": 8857,
      "▁ailenin": 8858,
      "Ceket": 8859,
      "▁geçirdikleri": 8860,
      "laşıyor": 8861,
      "Senden": 8862,
      "▁şehirde": 8863,
      "lizas": 8864,
      "▁karın": 8865,
      "▁lezz": 8866,
      "▁yapıyorum": 8867,
      "▁benzer": 8868,
      "leniyor": 8869,
      "▁eşleştir": 8870,
      "▁ikisinin": 8871,
      "▁başkalarının": 8872,
      "▁çubu": 8873,
      "Çuval": 8874,
      "imşek": 8875,
      "Yaratık": 8876,
      "▁sürece": 8877,
      "▁alamazsın": 8878,
      "▁yaratmak": 8879,
      "▁taktılar": 8880,
      "▁hapşırdı": 8881,
      "Kirli": 8882,
      "?\"\n": 8883,
      "▁böcekleri": 8884,
      "Sürpriz": 8885,
      "Avcı": 8886,
      "▁eksik": 8887,
      "▁tutundu": 8888,
      "Cadı": 8889,
      "▁duvarda": 8890,
      "▁yüzük": 8891,
      "malıyım": 8892,
      "torun": 8893,
      "▁karıştırmak": 8894,
      "▁ressam": 8895,
      "▁böceğin": 8896,
      "▁bakmadı": 8897,
      "rank": 8898,
      "▁tuzak": 8899,
      "▁üzülmüştü": 8900,
      "▁yaşaya": 8901,
      "▁yoğun": 8902,
      "▁geldiği": 8903,
      "▁kurarak": 8904,
      "yara": 8905,
      "Sahte": 8906,
      "Eh": 8907,
      "▁gözden": 8908,
      "Anlıyor": 8909,
      "Mel": 8910,
      "konuş": 8911,
      "▁bebeklerini": 8912,
      "▁favor": 8913,
      "▁tarlaya": 8914,
      "▁seferinde": 8915,
      "Havuç": 8916,
      "▁sallana": 8917,
      "▁metro": 8918,
      "▁oluyorlar": 8919,
      "▁dönene": 8920,
      "▁birisinin": 8921,
      "İçini": 8922,
      "▁sözleri": 8923,
      "▁dengele": 8924,
      "▁kovaladılar": 8925,
      "▁birbirinize": 8926,
      "▁sun": 8927,
      "Sahile": 8928,
      "babasının": 8929,
      "▁model": 8930,
      "Nehir": 8931,
      "▁sinek": 8932,
      "ebilirsiniz": 8933,
      "▁kavanoza": 8934,
      "şuna": 8935,
      "▁geceleri": 8936,
      "Kab": 8937,
      "▁pu": 8938,
      "▁düzeltmek": 8939,
      "▁yatmaya": 8940,
      "▁kuyu": 8941,
      "▁kovayı": 8942,
      "▁yüzüyordu": 8943,
      "larınla": 8944,
      "▁inanamıyordu": 8945,
      "▁ceketi": 8946,
      "▁seçip": 8947,
      "▁kadi": 8948,
      "▁oynana": 8949,
      "yol": 8950,
[...]
