{
  "version": "1.0",
  "truncation": null,
  "padding": null,
  "added_tokens": [
    {
      "id": 0,
      "content": "<|PAD|>",
      "single_word": false,
      "lstrip": false,
      "rstrip": false,
      "normalized": false,
      "special": true
    },
    {
      "id": 1,
      "content": "<|BOS|>",
      "single_word": false,
      "lstrip": false,
      "rstrip": false,
      "normalized": false,
      "special": true
    },
    {
      "id": 2,
      "content": "<|EOS|>",
      "single_word": false,
      "lstrip": false,
      "rstrip": false,
      "normalized": false,
      "special": true
    },
    {
      "id": 3,
      "content": "<|UNK|>",
      "single_word": false,
      "lstrip": false,
      "rstrip": false,
      "normalized": false,
      "special": true
    }
  ],
  "normalizer": {
    "type": "NFKC"
  },
  "pre_tokenizer": {
    "type": "Sequence",
    "pretokenizers": [
      {
        "type": "UnicodeScripts"
      },
      {
        "type": "Digits",
        "individual_digits": true
      },
      {
        "type": "Metaspace",
        "replacement": "▁",
        "prepend_scheme": "never",
        "split": true
      }
    ]
  },
  "post_processor": {
    "type": "TemplateProcessing",
    "single": [
      {
        "SpecialToken": {
          "id": "<|BOS|>",
          "type_id": 0
        }
      },
      {
        "Sequence": {
          "id": "A",
          "type_id": 0
        }
      },
      {
        "SpecialToken": {
          "id": "<|EOS|>",
          "type_id": 0
        }
      }
    ],
    "pair": [
      {
        "SpecialToken": {
          "id": "<|BOS|>",
          "type_id": 0
        }
      },
      {
        "Sequence": {
          "id": "A",
          "type_id": 0
        }
      },
      {
        "SpecialToken": {
          "id": "<|EOS|>",
          "type_id": 0
        }
      },
      {
        "SpecialToken": {
          "id": "<|BOS|>",
          "type_id": 1
        }
      },
      {
        "Sequence": {
          "id": "B",
          "type_id": 1
        }
      },
      {
        "SpecialToken": {
          "id": "<|EOS|>",
          "type_id": 1
        }
      }
    ],
    "special_tokens": {
      "<|BOS|>": {
        "id": "<|BOS|>",
        "ids": [
          1
        ],
        "tokens": [
          "<|BOS|>"
        ]
      },
      "<|EOS|>": {
        "id": "<|EOS|>",
        "ids": [
          2
        ],
        "tokens": [
          "<|EOS|>"
        ]
      }
    }
  },
  "decoder": {
    "type": "Metaspace",
    "replacement": "▁",
    "prepend_scheme": "never",
    "split": true
  },
  "model": {
    "type": "BPE",
    "dropout": null,
    "unk_token": "<|UNK|>",
    "continuing_subword_prefix": null,
    "end_of_word_suffix": null,
    "fuse_unk": false,
    "byte_fallback": false,
    "ignore_merges": false,
    "vocab": {
      "<|PAD|>": 0,
      "<|BOS|>": 1,
      "<|EOS|>": 2,
      "<|UNK|>": 3,
      "\n": 4,
      "!": 5,
      "\"": 6,
      "'": 7,
      "(": 8,
      ")": 9,
      "*": 10,
      "+": 11,
      ",": 12,
      "-": 13,
      ".": 14,
      "/": 15,
      "0": 16,
      "1": 17,
      "2": 18,
      "3": 19,
      "4": 20,
      "5": 21,
      "6": 22,
      "7": 23,
      "8": 24,
      "9": 25,
      ":": 26,
      "=": 27,
      "?": 28,
      "A": 29,
      "B": 30,
      "C": 31,
      "D": 32,
      "E": 33,
      "F": 34,
      "G": 35,
      "H": 36,
      "I": 37,
      "J": 38,
      "K": 39,
      "L": 40,
      "M": 41,
      "N": 42,
      "O": 43,
      "P": 44,
      "R": 45,
      "S": 46,
      "T": 47,
      "U": 48,
      "V": 49,
      "W": 50,
      "X": 51,
      "Y": 52,
      "Z": 53,
      "a": 54,
      "b": 55,
      "c": 56,
      "d": 57,
      "e": 58,
      "f": 59,
      "g": 60,
      "h": 61,
      "i": 62,
      "j": 63,
      "k": 64,
      "l": 65,
      "m": 66,
      "n": 67,
      "o": 68,
      "p": 69,
      "q": 70,
      "r": 71,
      "s": 72,
      "t": 73,
      "u": 74,
      "v": 75,
      "w": 76,
      "x": 77,
      "y": 78,
      "z": 79,
      "â": 80,
      "،": 81,
      "؛": 82,
      "؟": 83,
      "ء": 84,
      "آ": 85,
      "أ": 86,
      "ؤ": 87,
      "إ": 88,
      "ئ": 89,
      "ا": 90,
      "ب": 91,
      "ة": 92,
      "ت": 93,
      "ث": 94,
      "ج": 95,
      "ح": 96,
      "خ": 97,
      "د": 98,
      "ذ": 99,
      "ر": 100,
      "ز": 101,
      "س": 102,
      "ش": 103,
      "ص": 104,
      "ض": 105,
      "ط": 106,
      "ظ": 107,
      "ع": 108,
      "غ": 109,
      "ـ": 110,
      "ف": 111,
      "ق": 112,
      "ك": 113,
      "ل": 114,
      "م": 115,
      "ن": 116,
      "ه": 117,
      "و": 118,
      "ى": 119,
      "ي": 120,
      "ً": 121,
      "ٍ": 122,
      "َ": 123,
      "ُ": 124,
      "ِ": 125,
      "ّ": 126,
      "ْ": 127,
      "ٔ": 128,
      "٬": 129,
      "پ": 130,
      "چ": 131,
      "ژ": 132,
      "ک": 133,
      "گ": 134,
      "ھ": 135,
      "ۀ": 136,
      "ہ": 137,
      "ی": 138,
      "ە": 139,
      "۰": 140,
      "۱": 141,
      "۲": 142,
      "۳": 143,
      "۵": 144,
      "‌": 145,
      "‍": 146,
      "‎": 147,
      "‏": 148,
      "‪": 149,
      "‫": 150,
      "‬": 151,
      "▁": 152,
      "▁ب": 153,
      "▁ک": 154,
      "ند": 155,
      "▁د": 156,
      "▁م": 157,
      "▁ر": 158,
      "▁ا": 159,
      "▁و": 160,
      "رد": 161,
      "ان": 162,
      "ست": 163,
      "▁با": 164,
      "▁خ": 165,
      "ید": 166,
      "▁می": 167,
      "▁ت": 168,
      "▁به": 169,
      "ود": 170,
      "▁را": 171,
      "ها": 172,
      "ام": 173,
      "لی": 174,
      "▁ن": 175,
      "یک": 176,
      "آن": 177,
      "▁کرد": 178,
      "▁ش": 179,
      "▁گ": 180,
      "▁پ": 181,
      "ار": 182,
      "فت": 183,
      "زی": 184,
      "اد": 185,
      "▁رو": 186,
      "▁بود": 187,
      "او": 188,
      "ای": 189,
      "▁س": 190,
      "اش": 191,
      "یم": 192,
      "▁ه": 193,
      "▁دو": 194,
      "▁خو": 195,
      "▁در": 196,
      "ین": 197,
      "▁که": 198,
      "رگ": 199,
      "اشت": 200,
      "می": 201,
      "ال": 202,
      "▁بازی": 203,
      "▁آن": 204,
      "▁شد": 205,
      "▁دوست": 206,
      "▁\n": 207,
      "▁یک": 208,
      "▁روز": 209,
      "رو": 210,
      "اب": 211,
      "▁از": 212,
      "▁آ": 213,
      "▁کن": 214,
      "▁\"": 215,
      "▁هم": 216,
      "▁گفت": 217,
      "▁ج": 218,
      "اه": 219,
      "▁ز": 220,
      "▁داشت": 221,
      "▁چ": 222,
      "خت": 223,
      "خو": 224,
      "▁بر": 225,
      "یلی": 226,
      "تو": 227,
      "▁خوش": 228,
      "▁بز": 229,
      "▁بزرگ": 230,
      "▁خیلی": 231,
      "های": 232,
      "آنها": 233,
      "▁کند": 234,
      "حال": 235,
      "▁تو": 236,
      "▁او": 237,
      "ری": 238,
      "به": 239,
      "است": 240,
      "▁ق": 241,
      "نگ": 242,
      "کرد": 243,
      "▁کو": 244,
      "▁دید": 245,
      "▁ف": 246,
      ".\n": 247,
      "▁پر": 248,
      "▁است": 249,
      "▁ل": 250,
      "تیم": 251,
      "▁کردند": 252,
      "با": 253,
      "▁گر": 254,
      "▁کوچ": 255,
      "رش": 256,
      "لیلی": 257,
      "از": 258,
      "نده": 259,
      "▁ح": 260,
      "اما": 261,
      "سی": 262,
      "▁خوشحال": 263,
      "را": 264,
      "▁اس": 265,
      ".\"": 266,
      "تی": 267,
      "انه": 268,
      "بی": 269,
      "ون": 270,
      "گر": 271,
      "▁برای": 272,
      "مک": 273,
      "▁تا": 274,
      "گی": 275,
      "در": 276,
      "شت": 277,
      "▁ی": 278,
      "اس": 279,
      "▁غ": 280,
      "▁رفت": 281,
      "لو": 282,
      "▁ع": 283,
      "▁پید": 284,
      "▁زد": 285,
      "وش": 286,
      "من": 287,
      "▁این": 288,
      "▁پیدا": 289,
      "باب": 290,
      "!\"": 291,
      "خواست": 292,
      "▁داد": 293,
      "تر": 294,
      "▁تیم": 295,
      "سید": 296,
      "▁بی": 297,
      "اق": 298,
      "▁نام": 299,
      "▁ص": 300,
      "▁کوچک": 301,
      "شان": 302,
      "ات": 303,
      "▁زی": 304,
      "ور": 305,
      "▁روی": 306,
      "▁کمک": 307,
      "توان": 308,
      "رم": 309,
      "ادرش": 310,
      "چه": 311,
      "▁\n\n": 312,
      "وی": 313,
      "اند": 314,
      "مام": 315,
      "▁چی": 316,
      "عد": 317,
      "▁بودند": 318,
      "▁گرفت": 319,
      "یر": 320,
      "▁نمی": 321,
      "تام": 322,
      "پس": 323,
      "▁اسباب": 324,
      "بار": 325,
      "ره": 326,
      "گاه": 327,
      "این": 328,
      "▁خانه": 329,
      "کن": 330,
      "▁دی": 331,
      "هم": 332,
      "کر": 333,
      "▁من": 334,
      "▁کنند": 335,
      "هر": 336,
      "ما": 337,
      "خند": 338,
      "زد": 339,
      "▁باش": 340,
      "▁درخت": 341,
      "مت": 342,
      "؟\"": 343,
      "▁دوستان": 344,
      "لا": 345,
      "مد": 346,
      "▁بد": 347,
      "قتی": 348,
      "▁پار": 349,
      "▁توپ": 350,
      "پر": 351,
      ".\n\n": 352,
      "▁لیلی": 353,
      "▁نگاه": 354,
      "▁برد": 355,
      "▁پرنده": 356,
      "▁کردن": 357,
      "اح": 358,
      "ختر": 359,
      "▁سو": 360,
      "▁آنها": 361,
      "▁دار": 362,
      "▁دا": 363,
      "گه": 364,
      "▁مادرش": 365,
      "روع": 366,
      "▁شدند": 367,
      "بخند": 368,
      "▁تر": 369,
      "انی": 370,
      "نه": 371,
      "▁تام": 372,
      "▁گذ": 373,
      "نا": 374,
      "الی": 375,
      "▁اح": 376,
      "▁لبخند": 377,
      "▁شروع": 378,
      "نج": 379,
      "اده": 380,
      "کس": 381,
      "یدند": 382,
      "ادر": 383,
      "که": 384,
      "ندگی": 385,
      "شه": 386,
      "▁کار": 387,
      "ساس": 388,
      "▁روزی": 389,
      "رون": 390,
      "▁سگ": 391,
      "▁پارک": 392,
      "▁هست": 393,
      "\n\n": 394,
      "▁شده": 395,
      "یه": 396,
      "▁مو": 397,
      "ولو": 398,
      "دید": 399,
      "▁خود": 400,
      "▁زندگی": 401,
      "▁برگ": 402,
      "باره": 403,
      "▁دست": 404,
      "▁کوچولو": 405,
      "▁بیرون": 406,
      "انست": 407,
      "▁احساس": 408,
      "▁پس": 409,
      "یا": 410,
      "▁همه": 411,
      "▁دیگر": 412,
      "دو": 413,
      "اشین": 414,
      "له": 415,
      "▁چیز": 416,
      "ادی": 417,
      "کردند": 418,
      "▁گربه": 419,
      "▁بعد": 420,
      "▁یه": 421,
      "▁سر": 422,
      "▁ات": 423,
      "اهی": 424,
      "بازی": 425,
      "مان": 426,
      "پرنده": 427,
      "▁بن": 428,
      "▁نی": 429,
      "▁صد": 430,
      "▁نب": 431,
      "سیار": 432,
      "رف": 433,
      "▁جدید": 434,
      "▁آمد": 435,
      "▁بزرگی": 436,
      "سو": 437,
      "▁تمام": 438,
      "▁یاد": 439,
      "▁هر": 440,
      "دی": 441,
      "▁بسیار": 442,
      "جا": 443,
      "▁فکر": 444,
      "عی": 445,
      "▁باز": 446,
      "▁بل": 447,
      "وقتی": 448,
      "بن": 449,
      "▁غم": 450,
      "اف": 451,
      "▁ط": 452,
      "▁افت": 453,
      "▁داشتند": 454,
      "▁بلند": 455,
      "کی": 456,
      "▁کنیم": 457,
      "بر": 458,
      "▁خواست": 459,
      "▁ماشین": 460,
      "گین": 461,
      "عبه": 462,
      "مامان": 463,
      "اری": 464,
      "توانست": 465,
      "▁غمگین": 466,
      "خل": 467,
      "وید": 468,
      "▁باید": 469,
      "▁نار": 470,
      "▁آب": 471,
      "▁دوباره": 472,
      "▁کنم": 473,
      "▁دوستانش": 474,
      "▁بهتر": 475,
      "▁بخو": 476,
      "میم": 477,
      "بان": 478,
      "▁بالا": 479,
      "▁کرده": 480,
      "▁نزد": 481,
      "▁پرسید": 482,
      "نی": 483,
      "شد": 484,
      "▁ما": 485,
      "▁جعبه": 486,
      "▁اسم": 487,
      "▁خوبی": 488,
      "▁پای": 489,
      "▁دختر": 490,
      "پات": 491,
      "▁رنگ": 492,
      "ایی": 493,
      "کان": 494,
      "▁ای": 495,
      "▁ده": 496,
      "▁مهر": 497,
      "▁ناراح": 498,
      "▁تص": 499,
      "▁نبود": 500,
      "گفت": 501,
      "میشه": 502,
      "دانست": 503,
      "کند": 504,
      "▁پرو": 505,
      "▁هی": 506,
      "▁پسر": 507,
      "گربه": 508,
      "زه": 509,
      "یده": 510,
      "ول": 511,
      "نب": 512,
      "بعد": 513,
      "▁ناراحت": 514,
      "▁ند": 515,
      "▁گذاشت": 516,
      "▁کش": 517,
      "▁سمت": 518,
      "▁های": 519,
      "وان": 520,
      "وب": 521,
      "مین": 522,
      "گهان": 523,
      "اون": 524,
      "▁رفتند": 525,
      "مادر": 526,
      "▁زیادی": 527,
      "▁کنه": 528,
      "مادرش": 529,
      "یدن": 530,
      "▁تع": 531,
      "مو": 532,
      "▁افتاد": 533,
      "▁همیشه": 534,
      "▁بگی": 535,
      "همه": 536,
      "▁خر": 537,
      "▁حال": 538,
      "▁دارد": 539,
      "▁سعی": 540,
      "▁دور": 541,
      "▁چه": 542,
      "▁خورد": 543,
      "بچه": 544,
      "▁سنگ": 545,
      "▁مرد": 546,
      "▁تکان": 547,
      "▁ها": 548,
      "▁نزدیک": 549,
      "بیا": 550,
      "گذ": 551,
      "▁پرواز": 552,
      "▁اش": 553,
      "تاب": 554,
      "▁قرم": 555,
      "▁پی": 556,
      "ظر": 557,
      "▁مام": 558,
      "سته": 559,
      "▁داخل": 560,
      "▁برگشت": 561,
      "▁کل": 562,
      "▁کنی": 563,
      "▁مامان": 564,
      "▁بب": 565,
      "قت": 566,
      "سگ": 567,
      "دختر": 568,
      "خواه": 569,
      "▁برداشت": 570,
      "▁اتاق": 571,
      "▁باشد": 572,
      "▁دوستش": 573,
      "▁خند": 574,
      "مه": 575,
      "بز": 576,
      "▁قرمز": 577,
      "جان": 578,
      "▁نیست": 579,
      "ارد": 580,
      "▁وقتی": 581,
      "▁ترسید": 582,
      "ازه": 583,
      "▁زمین": 584,
      "▁رسید": 585,
      "دوست": 586,
      "▁قد": 587,
      "امی": 588,
      "ویی": 589,
      "▁خواه": 590,
      "▁گل": 591,
      "قب": 592,
      "▁مهربان": 593,
      "فاق": 594,
      "▁غذ": 595,
      "فتاب": 596,
      "ولی": 597,
      "هایش": 598,
      "▁بال": 599,
      "▁فر": 600,
      "لام": 601,
      "جود": 602,
      "▁دوید": 603,
      "▁اون": 604,
      "▁نش": 605,
      "▁شود": 606,
      "▁خوب": 607,
      "▁زیبا": 608,
      "▁تصمیم": 609,
      "▁آر": 610,
      "▁بچه": 611,
      "▁درست": 612,
      "▁شن": 613,
      "▁دیدند": 614,
      "▁بهترین": 615,
      "▁هستند": 616,
      "قدر": 617,
      "شک": 618,
      "ریع": 619,
      "شم": 620,
      "بله": 621,
      "اخت": 622,
      "گوید": 623,
      "نجام": 624,
      "شن": 625,
      "▁انجام": 626,
      "نبال": 627,
      "کت": 628,
      "تون": 629,
      "میا": 630,
      "▁مرا": 631,
      "راند": 632,
      "رگوش": 633,
      "غل": 634,
      "▁گوش": 635,
      "▁پایین": 636,
      "تواند": 637,
      "▁بار": 638,
      "▁حرف": 639,
      "قط": 640,
      "▁کوچکی": 641,
      "سه": 642,
      "▁توی": 643,
      "▁سریع": 644,
      "ارا": 645,
      "▁مت": 646,
      "طور": 647,
      "▁نا": 648,
      "ثل": 649,
      "پسر": 650,
      "▁دنبال": 651,
      "▁تش": 652,
      "▁چون": 653,
      "▁راه": 654,
      "مزه": 655,
      "کنند": 656,
      "بانی": 657,
      "▁اینکه": 658,
      "خر": 659,
      "▁وجود": 660,
      "دیگر": 661,
      "▁نشان": 662,
      "ورد": 663,
      "مکس": 664,
      "▁آفتاب": 665,
      "وا": 666,
      "یوان": 667,
      "▁جنگ": 668,
      "▁سام": 669,
      "▁مح": 670,
      "▁شک": 671,
      "▁سرگ": 672,
      "▁آس": 673,
      "▁چیزی": 674,
      "▁گرفتند": 675,
      "▁بغل": 676,
      "▁صدای": 677,
      "▁زیر": 678,
      "▁مکس": 679,
      "▁دارم": 680,
      "▁هیجان": 681,
      "▁شیر": 682,
      "▁لذ": 683,
      "توانم": 684,
      "▁لو": 685,
      "لوسی": 686,
      "▁خودش": 687,
      "▁مثل": 688,
      "▁چیزهای": 689,
      "اسپات": 690,
      "سلام": 691,
      "قه": 692,
      ".\"\n": 693,
      "یب": 694,
      "جه": 695,
      "▁شو": 696,
      "▁زده": 697,
      "▁بیشت": 698,
      "خیلی": 699,
      "▁بده": 700,
      "▁دهد": 701,
      "▁لذت": 702,
      "▁مادر": 703,
      "▁جنگل": 704,
      "▁متو": 705,
      "سام": 706,
      "▁خا": 707,
      "▁کی": 708,
      "ناگهان": 709,
      "▁اتفاق": 710,
      "راندند": 711,
      "▁مراقب": 712,
      "مرد": 713,
      "وز": 714,
      "اره": 715,
      "رخ": 716,
      "▁مر": 717,
      "▁خوشمزه": 718,
      "وه": 719,
      "▁قدم": 720,
      "▁تشکر": 721,
      "▁اشت": 722,
      "▁خان": 723,
      "روز": 724,
      ".\"\n\n": 725,
      "▁سرگرم": 726,
      "▁کنار": 727,
      "نمی": 728,
      "روس": 729,
      "جب": 730,
      "یوانات": 731,
      "▁عص": 732,
      "▁نظر": 733,
      "▁ترسیده": 734,
      "بیند": 735,
      "▁داشته": 736,
      "کنم": 737,
      "دام": 738,
      "لاق": 739,
      "عه": 740,
      "▁درخ": 741,
      "عت": 742,
      "▁جو": 743,
      "▁باغ": 744,
      "باری": 745,
      "شره": 746,
      "▁شاد": 747,
      "جک": 748,
      "کش": 749,
      "▁میا": 750,
      "▁کیک": 751,
      "اید": 752,
      "تظ": 753,
      "▁ایده": 754,
      "طر": 755,
      "نش": 756,
      "▁آش": 757,
      "خانه": 758,
      "▁برود": 759,
      "▁آسمان": 760,
      "▁ماهی": 761,
      "▁آبی": 762,
      "گاری": 763,
      "ران": 764,
      "▁ببین": 765,
      "▁کمی": 766,
      "▁گری": 767,
      "▁غذا": 768,
      "▁جال": 769,
      "▁دارند": 770,
      "▁اسپات": 771,
      "درش": 772,
      "▁صدا": 773,
      "▁کوچولوی": 774,
      "▁مد": 775,
      "ودی": 776,
      "▁کتاب": 777,
      "▁جاد": 778,
      "▁وی": 779,
      "▁تل": 780,
      "وار": 781,
      "باید": 782,
      "▁تاب": 783,
      "ده": 784,
      "▁درخشان": 785,
      "▁غیر": 786,
      "باس": 787,
      "ایش": 788,
      "چی": 789,
      "▁بپ": 790,
      "▁اند": 791,
      "فا": 792,
      "▁دادند": 793,
      "▁نگه": 794,
      "تظره": 795,
      "▁نق": 796,
      "▁تم": 797,
      "میز": 798,
      "▁پرید": 799,
      "▁برو": 800,
      "قی": 801,
      "▁گذراندند": 802,
      "▁زدن": 803,
      "▁داست": 804,
      "▁لوسی": 805,
      "یمی": 806,
      "توانی": 807,
      "ژه": 808,
      "ایق": 809,
      "▁گریه": 810,
      ":\"": 811,
      "▁زدند": 812,
      "بت": 813,
      "▁عروس": 814,
      "تش": 815,
      "حالا": 816,
      "منون": 817,
      "▁تن": 818,
      "▁بگیرد": 819,
      "▁روزگاری": 820,
      "ماکس": 821,
      "راک": 822,
      "زده": 823,
      "فی": 824,
      "▁اما": 825,
      "▁عصبانی": 826,
      "بد": 827,
      "▁فار": 828,
      "رکت": 829,
      "▁فارسی": 830,
      "رز": 831,
      "ختری": 832,
      "▁بگذ": 833,
      "▁خرس": 834,
      "واده": 835,
      "!\"\n": 836,
      "باغ": 837,
      "قص": 838,
      "آیا": 839,
      "فاده": 840,
      "▁لی": 841,
      "سارا": 842,
      "▁داستان": 843,
      "▁استفاده": 844,
      "▁اشتراک": 845,
      "حالی": 846,
      "بو": 847,
      "آنا": 848,
      "▁شنید": 849,
      "▁مهم": 850,
      "▁ری": 851,
      "خش": 852,
      "▁حیوانات": 853,
      "▁لباس": 854,
      "▁فقط": 855,
      "ورباغ": 856,
      "قف": 857,
      "ورباغه": 858,
      "توانیم": 859,
      "▁مس": 860,
      "▁تمیز": 861,
      "باش": 862,
      "▁کوچولویی": 863,
      "▁کشید": 864,
      "بل": 865,
      "هایی": 866,
      "ینی": 867,
      ":\n\n": 868,
      "رفت": 869,
      "▁زیب": 870,
      "▁حالی": 871,
      "▁بالای": 872,
      "منتظره": 873,
      "فش": 874,
      "▁سخت": 875,
      "خواستند": 876,
      "▁تعجب": 877,
      "▁ان": 878,
      "▁جادویی": 879,
      "مع": 880,
      "▁نداشت": 881,
      "رگز": 882,
      "▁غیرمنتظره": 883,
      "انم": 884,
      "▁یا": 885,
      "▁ذ": 886,
      "▁خندیدند": 887,
      "▁صند": 888,
      "▁پدرش": 889,
      "▁خرگوش": 890,
      "▁حرکت": 891,
      "طفا": 892,
      "▁خواب": 893,
      "▁ناگهان": 894,
      "دا": 895,
      "مش": 896,
      "پی": 897,
      "▁ویژه": 898,
      "▁هستی": 899,
      "طرا": 900,
      "▁شما": 901,
      "▁صور": 902,
      "▁شدن": 903,
      "ممنون": 904,
      "بزرگ": 905,
      "▁باد": 906,
      "ابر": 907,
      "رشید": 908,
      "▁خوشحالی": 909,
      "سم": 910,
      "▁مورد": 911,
      "▁چطور": 912,
      "▁سرش": 913,
      "هایشان": 914,
      "▁جای": 915,
      "▁گفتند": 916,
      "▁آورد": 917,
      "▁چوب": 918,
      "▁آرام": 919,
      "سد": 920,
      "▁ساخت": 921,
      "▁هرگز": 922,
      "▁کنید": 923,
      "▁شگفت": 924,
      "▁درباره": 925,
      "▁ببیند": 926,
      "▁زودی": 927,
      "▁پا": 928,
      "رند": 929,
      "کم": 930,
      "▁کلاه": 931,
      "▁حشره": 932,
      "جمه": 933,
      "چرا": 934,
      "▁نو": 935,
      "▁خی": 936,
      "مند": 937,
      "گری": 938,
      "داد": 939,
      "▁برگرد": 940,
      "▁بست": 941,
      "▁شهر": 942,
      "انش": 943,
      "▁گرم": 944,
      "▁کا": 945,
      "▁گم": 946,
      "▁ماکس": 947,
      "▁تلاش": 948,
      "▁جدیدی": 949,
      "▁آنجا": 950,
      "فر": 951,
      "▁نتوانست": 952,
      "خورد": 953,
      "لف": 954,
      "روزی": 955,
      "▁باب": 956,
      "چرخ": 957,
      "وق": 958,
      "▁نکرد": 959,
      "یاط": 960,
      "▁قوی": 961,
      "▁موش": 962,
      "پز": 963,
      "▁خانواده": 964,
      "▁طرف": 965,
      "▁شجا": 966,
      "▁قایق": 967,
      "▁یکدیگر": 968,
      "▁سال": 969,
      "▁ك": 970,
      "▁حیاط": 971,
      "یل": 972,
      "▁نشست": 973,
      "▁جالب": 974,
      "▁پشت": 975,
      "▁\n\"": 976,
      "▁نیاز": 977,
      "▁فرو": 978,
      "▁غرو": 979,
      "▁پوش": 980,
      "▁فری": 981,
      "▁چیست": 982,
      "▁اطرا": 983,
      "▁گشت": 984,
      "▁شنا": 985,
      "▁مخ": 986,
      "▁بدی": 987,
      "ابراین": 988,
      "▁گرد": 989,
      "▁بیشتر": 990,
      "امیون": 991,
      "چن": 992,
      "▁نرم": 993,
      "نجاب": 994,
      "▁آفتابی": 995,
      "خوش": 996,
      "▁بخورد": 997,
      "جکاو": 998,
      "ماده": 999,
      "مر": 1000,
      "▁محکم": 1001,
      "▁گوید": 1002,
      "جو": 1003,
      "خرگوش": 1004,
      "▁مع": 1005,
      "بنابراین": 1006,
      "▁ادام": 1007,
      "▁ادامه": 1008,
      "نوز": 1009,
      "باد": 1010,
      "تظر": 1011,
      "▁هستم": 1012,
      "▁ظ": 1013,
      "▁بس": 1014,
      "خواهی": 1015,
      "▁بش": 1016,
      "نگی": 1017,
      "▁رفتن": 1018,
      "نگاه": 1019,
      "▁ترجمه": 1020,
      "▁هیچ": 1021,
      "حت": 1022,
      "بین": 1023,
      "▁دع": 1024,
      "▁وقت": 1025,
      "مس": 1026,
      "▁بودن": 1027,
      "هایت": 1028,
      "افظ": 1029,
      "▁خسته": 1030,
      "▁توانست": 1031,
      "مون": 1032,
      "▁کردم": 1033,
      "▁کنجکاو": 1034,
      "توپ": 1035,
      "زر": 1036,
      "روی": 1037,
      "غذ": 1038,
      "ناک": 1039,
      "لطفا": 1040,
      "▁خواهد": 1041,
      "سپس": 1042,
      "▁متوقف": 1043,
      "گرد": 1044,
      "▁بزند": 1045,
      "جرا": 1046,
      "کار": 1047,
      "▁سیب": 1048,
      "ابقه": 1049,
      "▁نباش": 1050,
      "▁باشند": 1051,
      "▁تخت": 1052,
      "▁خوردن": 1053,
      "په": 1054,
      "▁شی": 1055,
      "▁سرس": 1056,
      "شمال": 1057,
      "▁ترس": 1058,
      "▁مامانش": 1059,
      "▁شادی": 1060,
      "▁سبز": 1061,
      "بخت": 1062,
      "▁ماند": 1063,
      "▁قل": 1064,
      "▁فریاد": 1065,
      "▁دیگری": 1066,
      "▁آسی": 1067,
      "▁آشپز": 1068,
      ".\n\"": 1069,
      "▁دیگران": 1070,
      "▁تماش": 1071,
      "هنگ": 1072,
      "▁امت": 1073,
      "وت": 1074,
      "▁پیر": 1075,
      "▁سم": 1076,
      "▁کسی": 1077,
      "▁منتظر": 1078,
      "؟\"\n": 1079,
      "▁هوا": 1080,
      "▁یکی": 1081,
      "▁بلندی": 1082,
      "اشی": 1083,
      "▁قط": 1084,
      "▁جواب": 1085,
      "شاید": 1086,
      "ماشین": 1087,
      "▁خونه": 1088,
      "▁واق": 1089,
      "▁دریا": 1090,
      "▁امتح": 1091,
      "واز": 1092,
      "▁خندید": 1093,
      "▁تپه": 1094,
      "بال": 1095,
      "ضی": 1096,
      "▁عج": 1097,
      "شمالو": 1098,
      "وند": 1099,
      "▁تق": 1100,
      "!\"\n\n": 1101,
      "▁پسربچه": 1102,
      "▁قف": 1103,
      "▁مغ": 1104,
      "▁مسابقه": 1105,
      "▁بیشتری": 1106,
      "▁شجاع": 1107,
      "زن": 1108,
      "میر": 1109,
      "باه": 1110,
      "▁سرسره": 1111,
      "▁جا": 1112,
      ".\n\n\"": 1113,
      "▁برگشتند": 1114,
      "▁آنقدر": 1115,
      "▁سرد": 1116,
      "▁قر": 1117,
      "لکه": 1118,
      "اخ": 1119,
      "▁آماده": 1120,
      "گیری": 1121,
      "فکر": 1122,
      "▁حتی": 1123,
      "شود": 1124,
      "▁همچن": 1125,
      "▁ابد": 1126,
      "شون": 1127,
      "یف": 1128,
      "آمد": 1129,
      "▁اج": 1130,
      "▁پنه": 1131,
      "▁بردند": 1132,
      "راخ": 1133,
      "خواهم": 1134,
      "▁مش": 1135,
      "▁جمع": 1136,
      "▁میز": 1137,
      "▁ماجرا": 1138,
      "▁خوشبخت": 1139,
      "▁گی": 1140,
      "آورد": 1141,
      "▁مواف": 1142,
      "▁اطراف": 1143,
      "▁مردم": 1144,
      "تونم": 1145,
      "اموش": 1146,
      "▁امن": 1147,
      "ترین": 1148,
      "توانند": 1149,
      "شما": 1150,
      "▁دیدن": 1151,
      "▁نه": 1152,
      "▁کامیون": 1153,
      "▁مرت": 1154,
      "لاقه": 1155,
      "▁امتحان": 1156,
      "یکی": 1157,
      "رت": 1158,
      "▁آشپزخانه": 1159,
      "باشه": 1160,
      "▁قورباغه": 1161,
      "برای": 1162,
      "دار": 1163,
      "▁گیر": 1164,
      "زرعه": 1165,
      "▁فروش": 1166,
      "دانستند": 1167,
      "▁دویدند": 1168,
      "▁اتاقش": 1169,
      "▁نم": 1170,
      "▁تماشا": 1171,
      "▁انگ": 1172,
      "▁چند": 1173,
      "▁متن": 1174,
      "▁سوراخ": 1175,
      "▁تنها": 1176,
      "▁شب": 1177,
      "▁عروسک": 1178,
      "▁\n\n\"": 1179,
      "▁خورشید": 1180,
      "▁ریخت": 1181,
      "▁کث": 1182,
      "▁متوجه": 1183,
      "▁پنهان": 1184,
      "صد": 1185,
      "کو": 1186,
      "▁حو": 1187,
      "درخت": 1188,
      "افل": 1189,
      "خرس": 1190,
      "کننده": 1191,
      "▁وح": 1192,
      "▁صح": 1193,
      "خوشحال": 1194,
      "▁داری": 1195,
      "▁کاغذ": 1196,
      "▁قش": 1197,
      "ماهی": 1198,
      "کیتی": 1199,
      "▁بلو": 1200,
      "▁فهم": 1201,
      "▁صندلی": 1202,
      "▁ام": 1203,
      "▁هنوز": 1204,
      "▁اومد": 1205,
      "▁مزرعه": 1206,
      "سیم": 1207,
      "برد": 1208,
      "▁لمس": 1209,
      "▁آنا": 1210,
      "▁نگر": 1211,
      "▁آسیب": 1212,
      "▁مرتب": 1213,
      "جاد": 1214,
      "جام": 1215,
      "▁دیگه": 1216,
      "▁نشد": 1217,
      "▁مال": 1218,
      "▁شوند": 1219,
      "▁فرار": 1220,
      "▁نهایت": 1221,
      "▁پنج": 1222,
      "▁آغ": 1223,
      "▁شاخ": 1224,
      "لوی": 1225,
      "▁آرز": 1226,
      "تری": 1227,
      "▁زیبایی": 1228,
      "بوب": 1229,
      "▁موافقت": 1230,
      "▁خنده": 1231,
      "پسربچه": 1232,
      "▁علاقه": 1233,
      "▁خواند": 1234,
      "▁آواز": 1235,
      "▁نقاشی": 1236,
      "▁کردی": 1237,
      "دختری": 1238,
      "▁کاری": 1239,
      "▁رقص": 1240,
      "▁اگر": 1241,
      "لت": 1242,
      "وری": 1243,
      "دهد": 1244,
      "يد": 1245,
      "▁شر": 1246,
      "امید": 1247,
      "ترسید": 1248,
      "▁خاطر": 1249,
      "ایم": 1250,
      "داح": 1251,
      "▁دادن": 1252,
      "داحافظ": 1253,
      "گل": 1254,
      "▁تند": 1255,
      "▁ذه": 1256,
      "▁آغوش": 1257,
      "سف": 1258,
      "شی": 1259,
      "▁کثیف": 1260,
      "▁تار": 1261,
      "سالی": 1262,
      "کنی": 1263,
      "▁جان": 1264,
      "▁برمی": 1265,
      "غول": 1266,
      "▁سف": 1267,
      "▁ال": 1268,
      "▁خوشش": 1269,
      "؟\"\n\n": 1270,
      "روند": 1271,
      "▁روشن": 1272,
      "▁وارد": 1273,
      "ویند": 1274,
      "تونی": 1275,
      "سای": 1276,
      "▁سه": 1277,
      "▁باشی": 1278,
      "پسری": 1279,
      "▁تعمیر": 1280,
      "▁چرخ": 1281,
      "هوش": 1282,
      "ایید": 1283,
      "▁چرا": 1284,
      "متن": 1285,
      "▁گرس": 1286,
      "▁اجازه": 1287,
      "▁باهوش": 1288,
      "▁دختری": 1289,
      "انند": 1290,
      "▁شاخه": 1291,
      "▁میوه": 1292,
      "▁جست": 1293,
      "▁مط": 1294,
      "اسف": 1295,
      "بدی": 1296,
      "▁عالی": 1297,
      "▁سارا": 1298,
      "جات": 1299,
      "▁خوردند": 1300,
      "رسید": 1301,
      "سر": 1302,
      "▁دوستاش": 1303,
      "عا": 1304,
      "▁آیا": 1305,
      "▁بساز": 1306,
      "اونا": 1307,
      "تص": 1308,
      "▁زرد": 1309,
      "ورچه": 1310,
      "عث": 1311,
      "▁چیزها": 1312,
      "ظه": 1313,
      "احساس": 1314,
      "▁جدیدش": 1315,
      "جن": 1316,
      "▁دستش": 1317,
      "▁گذاشتند": 1318,
      "▁مل": 1319,
      "هی": 1320,
      "▁دراز": 1321,
      "داشت": 1322,
      "خواهد": 1323,
      "اسباب": 1324,
      "موش": 1325,
      "▁بخ": 1326,
      "اتفاق": 1327,
      "▁انداخت": 1328,
      "▁صحبت": 1329,
      "▁افتاده": 1330,
      "▁غافل": 1331,
      "▁کام": 1332,
      "▁داده": 1333,
      "▁کیسه": 1334,
      "▁ذهنش": 1335,
      "نگران": 1336,
      "▁اتفاقی": 1337,
      "▁پسری": 1338,
      "▁گرسنه": 1339,
      "▁فروشگاه": 1340,
      "قای": 1341,
      "▁ایجاد": 1342,
      "▁سالی": 1343,
      "گان": 1344,
      "مانی": 1345,
      "▁بدهد": 1346,
      "سب": 1347,
      "زار": 1348,
      "▁خاک": 1349,
      "خوام": 1350,
      "بدیل": 1351,
      "داحافظی": 1352,
      "نک": 1353,
      "ستاره": 1354,
      "▁پایان": 1355,
      "زند": 1356,
      "خلاق": 1357,
      "▁یخ": 1358,
      "▁اینجا": 1359,
      "▁خیس": 1360,
      "▁تبدیل": 1361,
      "▁غرور": 1362,
      "▁براق": 1363,
      "ئن": 1364,
      "▁هایش": 1365,
      "▁پش": 1366,
      "▁قشنگ": 1367,
      "▁آتش": 1368,
      "لاقات": 1369,
      "▁سا": 1370,
      "▁سوار": 1371,
      "راه": 1372,
      "▁تقسیم": 1373,
      "هاش": 1374,
      "▁باعث": 1375,
      "▁فراموش": 1376,
      "چرخه": 1377,
      "فقط": 1378,
      "خندیدند": 1379,
      "▁شدید": 1380,
      "▁رنگی": 1381,
      "اهر": 1382,
      "ذر": 1383,
      "▁ملاقات": 1384,
      "▁درون": 1385,
      "▁خداحافظی": 1386,
      "▁سنجاب": 1387,
      "تا": 1388,
      "▁بزن": 1389,
      "شکرم": 1390,
      "نام": 1391,
      "▁دک": 1392,
      "▁مشغول": 1393,
      "▁آمو": 1394,
      "▁ارد": 1395,
      "▁سرعت": 1396,
      "▁غمگینی": 1397,
      "يک": 1398,
      "▁قه": 1399,
      "▁شیرینی": 1400,
      "▁رسیدند": 1401,
      "▁ببینند": 1402,
      "جویی": 1403,
      "▁دانست": 1404,
      "▁بروند": 1405,
      "▁ض": 1406,
      "ریم": 1407,
      "پای": 1408,
      "▁مج": 1409,
      "▁آرزو": 1410,
      "▁حل": 1411,
      "▁باران": 1412,
      "▁بابا": 1413,
      "▁هد": 1414,
      "▁رنگار": 1415,
      "اشق": 1416,
      "!\n": 1417,
      "▁پرت": 1418,
      "▁نگران": 1419,
      "چیز": 1420,
      "▁آز": 1421,
      "راحت": 1422,
      "شته": 1423,
      "ارند": 1424,
      "▁بستنی": 1425,
      "▁مهربانی": 1426,
      "▁فهمید": 1427,
      "▁پرتاب": 1428,
      "متشکرم": 1429,
      "▁خراب": 1430,
      "ریف": 1431,
      "▁قرار": 1432,
      "▁دویدن": 1433,
      "▁چقدر": 1434,
      "▁صب": 1435,
      "▁غذای": 1436,
      "غد": 1437,
      "▁دهند": 1438,
      "تصمیم": 1439,
      "رمی": 1440,
      "وم": 1441,
      "قیه": 1442,
      "گو": 1443,
      "▁گرفته": 1444,
      "اگر": 1445,
      "▁استراحت": 1446,
      "▁باشیم": 1447,
      "▁سی": 1448,
      "▁دعوا": 1449,
      "▁طول": 1450,
      "▁پنجره": 1451,
      "حتی": 1452,
      "▁پدر": 1453,
      "▁دل": 1454,
      "دون": 1455,
      "ارم": 1456,
      "ندگان": 1457,
      "▁لانه": 1458,
      "▁ساح": 1459,
      "بیایید": 1460,
      "حشره": 1461,
      "▁داره": 1462,
      "▁بدون": 1463,
      "▁انت": 1464,
      "کنه": 1465,
      "▁زیاد": 1466,
      "▁بپرد": 1467,
      "▁مدتی": 1468,
      "انگی": 1469,
      "تان": 1470,
      "▁قبل": 1471,
      "▁همین": 1472,
      "▁داریم": 1473,
      "▁هل": 1474,
      "▁دوستی": 1475,
      "▁ماجراجویی": 1476,
      "▁برج": 1477,
      "▁نجات": 1478,
      "▁t": 1479,
      "▁شکسته": 1480,
      "▁بین": 1481,
      "▁ساحل": 1482,
      "اسه": 1483,
      "▁صورتی": 1484,
      "پا": 1485,
      "▁مهمانی": 1486,
      "▁درد": 1487,
      "▁چش": 1488,
      "▁همراه": 1489,
      "\".": 1490,
      "▁چیزهایی": 1491,
      "▁توپش": 1492,
      "قورباغه": 1493,
      "دخترک": 1494,
      "تونست": 1495,
      "▁بهتری": 1496,
      "▁دوچرخه": 1497,
      "وای": 1498,
      "داری": 1499,
      "▁پیش": 1500,
      "خم": 1501,
      "مق": 1502,
      "▁داشتن": 1503,
      "پیم": 1504,
      "▁نوب": 1505,
      "ناب": 1506,
      "▁بو": 1507,
      "▁لح": 1508,
      "ماند": 1509,
      "▁دیده": 1510,
      "▁آموخت": 1511,
      "▁ظرف": 1512,
      "‌‌": 1513,
      "مئن": 1514,
      "▁گاز": 1515,
      "ونی": 1516,
      "▁مشک": 1517,
      "▁دیوار": 1518,
      "▁رنگارنگ": 1519,
      "شاه": 1520,
      "باز": 1521,
      "گشت": 1522,
      "یدار": 1523,
      "▁عکس": 1524,
      "▁همچنان": 1525,
      "▁قدیمی": 1526,
      "▁ستاره": 1527,
      "▁درس": 1528,
      "وقت": 1529,
      "▁ببر": 1530,
      "▁گاهی": 1531,
      "▁شکست": 1532,
      "خشید": 1533,
      "ذرخواهی": 1534,
      "نبور": 1535,
      "سمت": 1536,
      "▁شکل": 1537,
      "▁تازه": 1538,
      "خی": 1539,
      "▁بهم": 1540,
      "▁مکان": 1541,
      "متاسف": 1542,
      "▁صندوق": 1543,
      "▁امی": 1544,
      "▁لکه": 1545,
      "▁غافلگیری": 1546,
      "▁اردک": 1547,
      "زا": 1548,
      "دست": 1549,
      "▁جک": 1550,
      "▁ببرد": 1551,
      "▁اندازه": 1552,
      "بند": 1553,
      "▁پارس": 1554,
      "▁آه": 1555,
      "▁عذرخواهی": 1556,
      "▁نقشه": 1557,
      "▁جی": 1558,
      "▁قول": 1559,
      "▁گرفتن": 1560,
      "▁پشمالو": 1561,
      "▁چشم": 1562,
      "قا": 1563,
      "واو": 1564,
      "▁مراقبت": 1565,
      "▁کیتی": 1566,
      "▁شریک": 1567,
      "▁بیدار": 1568,
      "میمی": 1569,
      "▁جایی": 1570,
      "▁بک": 1571,
      "▁دری": 1572,
      "▁شیرین": 1573,
      "▁ایم": 1574,
      "▁بریم": 1575,
      "▁قدر": 1576,
      "▁سنگین": 1577,
      "▁بدجن": 1578,
      "▁سفید": 1579,
      "▁مي": 1580,
      "▁ابر": 1581,
      "▁مرغ": 1582,
      "▁لحظه": 1583,
      "▁مغازه": 1584,
      "صدای": 1585,
      "▁بهش": 1586,
      "جال": 1587,
      "▁حوض": 1588,
      "▁ترسناک": 1589,
      "▁گو": 1590,
      "▁توان": 1591,
      "▁خانم": 1592,
      "▁مار": 1593,
      "اک": 1594,
      "▁خشک": 1595,
      "▁ایست": 1596,
      "▁واقعا": 1597,
      "کنیم": 1598,
      "▁باشه": 1599,
      "▁رود": 1600,
      "ذیر": 1601,
      "▁بلوک": 1602,
      "▁باشید": 1603,
      "▁چمن": 1604,
      "▁کلید": 1605,
      "توانستند": 1606,
      "▁طناب": 1607,
      "تمند": 1608,
      "▁خرد": 1609,
      "▁شان": 1610,
      "▁کننده": 1611,
      "ين": 1612,
      "▁رد": 1613,
      "▁شام": 1614,
      "▁متع": 1615,
      "▁قلعه": 1616,
      "قاب": 1617,
      "▁طولانی": 1618,
      "▁قسمت": 1619,
      "خلاقی": 1620,
      "مل": 1621,
      "پایان": 1622,
      "▁مدر": 1623,
      "▁حس": 1624,
      "همان": 1625,
      "▁خواهم": 1626,
      "▁کمکش": 1627,
      "▁فرد": 1628,
      "توی": 1629,
      "قل": 1630,
      "لیلا": 1631,
      "▁صورت": 1632,
      "ایمی": 1633,
      "▁ولی": 1634,
      "▁پول": 1635,
      "▁اص": 1636,
      "▁هدیه": 1637,
      "▁بدود": 1638,
      "▁دخترک": 1639,
      "▁پیاده": 1640,
      "▁کنن": 1641,
      "خواند": 1642,
      "▁خواستند": 1643,
      "▁نشستند": 1644,
      "خورشید": 1645,
      "▁اول": 1646,
      "افت": 1647,
      "▁دوستانه": 1648,
      "▁قطار": 1649,
      "پدر": 1650,
      "▁مسی": 1651,
      "دوید": 1652,
      "▁بپوش": 1653,
      "▁شیشه": 1654,
      "▁آشنا": 1655,
      "بوبو": 1656,
      "▁دمش": 1657,
      "▁قهوه": 1658,
      "▁چیه": 1659,
      "▁گیاه": 1660,
      "شیر": 1661,
      "وف": 1662,
      "▁عجی": 1663,
      "▁پوشید": 1664,
      "▁غروب": 1665,
      "فهم": 1666,
      "▁آمدند": 1667,
      "▁پروانه": 1668,
      "خره": 1669,
      "آید": 1670,
      "بینند": 1671,
      "▁بتواند": 1672,
      "گویند": 1673,
      "▁بگذارد": 1674,
      "لق": 1675,
      "▁برگرداند": 1676,
      "قات": 1677,
      "چنگ": 1678,
      "▁اخلاقی": 1679,
      "▁مادربزرگ": 1680,
      "▁مخفی": 1681,
      "سنجاب": 1682,
      "▁احمق": 1683,
      "خاب": 1684,
      "پشت": 1685,
      "▁نشسته": 1686,
      "جین": 1687,
      "▁عروسکی": 1688,
      "▁عجیبی": 1689,
      "مامانش": 1690,
      "▁مطمئن": 1691,
      "▁مخت": 1692,
      "همی": 1693,
      "▁تصوی": 1694,
      "▁تاریک": 1695,
      "فن": 1696,
      "▁پن": 1697,
      "▁کشف": 1698,
      "▁کفش": 1699,
      "امیدوار": 1700,
      "▁بقیه": 1701,
      "▁اوقات": 1702,
      "▁کشیدند": 1703,
      "برگ": 1704,
      "▁تکه": 1705,
      "سران": 1706,
      "سرانجام": 1707,
      "پرید": 1708,
      "تونیم": 1709,
      "اج": 1710,
      "نامه": 1711,
      "▁پیچ": 1712,
      "▁خواهند": 1713,
      "▁گشتند": 1714,
      "▁درآورد": 1715,
      "▁تی": 1716,
      "▁انتخاب": 1717,
      "▁رفته": 1718,
      "▁عمی": 1719,
      "▁زبان": 1720,
      "ارش": 1721,
      "▁کجا": 1722,
      "تونه": 1723,
      "يم": 1724,
      "▁وسای": 1725,
      "جر": 1726,
      "▁فش": 1727,
      "▁علف": 1728,
      "▁تک": 1729,
      "زیز": 1730,
      "زید": 1731,
      "مال": 1732,
      "▁پرندگان": 1733,
      "أسف": 1734,
      "▁بردارد": 1735,
      "▁سکه": 1736,
      "▁زمان": 1737,
      "لیس": 1738,
      "▁جستجو": 1739,
      "▁تون": 1740,
      "یت": 1741,
      "▁جشن": 1742,
      "▁بخواند": 1743,
      "مردم": 1744,
      "▁صدایی": 1745,
      "فاو": 1746,
      "▁برخورد": 1747,
      "پشمالو": 1748,
      "▁برویم": 1749,
      "▁تعریف": 1750,
      "▁بوده": 1751,
      "یره": 1752,
      "حیوانات": 1753,
      "▁خطر": 1754,
      "▁خجال": 1755,
      "▁سفر": 1756,
      "▁مادرشان": 1757,
      "▁بدجنس": 1758,
      "تیمی": 1759,
      "ازی": 1760,
      "▁توت": 1761,
      "▁دکمه": 1762,
      "▁صبح": 1763,
      "▁برایش": 1764,
      "ترس": 1765,
      "بلا": 1766,
      "▁جالبی": 1767,
      "▁مک": 1768,
      "عضی": 1769,
      "سیقی": 1770,
      "▁حالا": 1771,
      "هنگامی": 1772,
      "▁بالاتر": 1773,
      "طل": 1774,
      "▁واقعی": 1775,
      "▁بشه": 1776,
      "▁فیل": 1777,
      "بود": 1778,
      "چون": 1779,
      "▁صبر": 1780,
      "فه": 1781,
      "▁همان": 1782,
      "▁مدت": 1783,
      "▁حمام": 1784,
      "احب": 1785,
      "▁بیند": 1786,
      "▁رها": 1787,
      "دونست": 1788,
      "▁وحشت": 1789,
      "بات": 1790,
      "مکن": 1791,
      "اوه": 1792,
      "▁وسایل": 1793,
      "▁اض": 1794,
      "▁مهرب": 1795,
      "▁میان": 1796,
      "▁نداد": 1797,
      "ماد": 1798,
      "▁بماند": 1799,
      "▁هواپیم": 1800,
      "▁هستید": 1801,
      "▁برگشتن": 1802,
      "▁اعت": 1803,
      "کمک": 1804,
      "حه": 1805,
      "▁موف": 1806,
      "گیر": 1807,
      "▁تول": 1808,
      "▁گذاشتن": 1809,
      "سل": 1810,
      "▁بگیرند": 1811,
      "انگیز": 1812,
      "خوای": 1813,
      "▁هایشان": 1814,
      "دوستان": 1815,
      "▁تواند": 1816,
      "▁بیاید": 1817,
      "▁ران": 1818,
      "آب": 1819,
      "an": 1820,
      "زدند": 1821,
      "گذراندند": 1822,
      "زمین": 1823,
      "▁آقای": 1824,
      "▁بیاو": 1825,
      "▁چاق": 1826,
      "▁باهاش": 1827,
      "▁بوت": 1828,
      "ابی": 1829,
      "▁مداد": 1830,
      "هار": 1831,
      "▁هنگ": 1832,
      "▁باشم": 1833,
      "▁رودخانه": 1834,
      "نیا": 1835,
      "▁آمده": 1836,
      "▁مورچه": 1837,
      "▁حوضچه": 1838,
      "قایق": 1839,
      "▁پاک": 1840,
      "دین": 1841,
      "▁نباید": 1842,
      "دوستانش": 1843,
      "▁بوته": 1844,
      "لوط": 1845,
      "▁نیم": 1846,
      "▁سیاه": 1847,
      "حی": 1848,
      "لم": 1849,
      "▁زمانی": 1850,
      "دم": 1851,
      "▁جیغ": 1852,
      "▁شنیدند": 1853,
      "فین": 1854,
      "خواهند": 1855,
      "▁ساله": 1856,
      "▁چسب": 1857,
      "شوند": 1858,
      "بعدا": 1859,
      "▁پشیم": 1860,
      "توانید": 1861,
      "▁بسازد": 1862,
      "▁مق": 1863,
      "▁سپ": 1864,
      "رات": 1865,
      "▁کیف": 1866,
      "متاسفم": 1867,
      "he": 1868,
      "امروز": 1869,
      "▁تیمی": 1870,
      "اله": 1871,
      "▁میکرد": 1872,
      "رس": 1873,
      "▁برنده": 1874,
      "▁متفاو": 1875,
      "▁خوشی": 1876,
      "▁دریاچه": 1877,
      "▁قفسه": 1878,
      "▁درختی": 1879,
      "▁نشون": 1880,
      "▁مسیر": 1881,
      "▁مدرسه": 1882,
      "▁بسته": 1883,
      "وست": 1884,
      "▁داغ": 1885,
      "▁جین": 1886,
      "▁برف": 1887,
      "▁موسیقی": 1888,
      "الدین": 1889,
      "افی": 1890,
      "ابان": 1891,
      "بابا": 1892,
      "روم": 1893,
      "▁دهانش": 1894,
      "▁کرم": 1895,
      "▁بامزه": 1896,
      "رسی": 1897,
      "سنگ": 1898,
      "▁نور": 1899,
      "▁بخش": 1900,
      "▁نوبتی": 1901,
      "▁غلت": 1902,
      "▁کلم": 1903,
      "▁پل": 1904,
      "آره": 1905,
      "▁عجیب": 1906,
      "آفتاب": 1907,
      "▁ایمن": 1908,
      "ژد": 1909,
      "▁شاه": 1910,
      "▁بره": 1911,
      "راکی": 1912,
      "اریم": 1913,
      "▁كرد": 1914,
      "رود": 1915,
      "برو": 1916,
      "يك": 1917,
      "▁بکشد": 1918,
      "▁زن": 1919,
      "▁سلام": 1920,
      "▁سوپ": 1921,
      "مرغ": 1922,
      "▁خار": 1923,
      "▁تنهایی": 1924,
      "ئو": 1925,
      "▁سطل": 1926,
      "▁خواندن": 1927,
      "▁زنگ": 1928,
      "▁ذوق": 1929,
      "▁نان": 1930,
      "▁چراغ": 1931,
      "▁اعتماد": 1932,
      "▁مخلوط": 1933,
      "▁انگشت": 1934,
      "دخترکی": 1935,
      "▁نامه": 1936,
      "▁همچنین": 1937,
      "▁حف": 1938,
      "عده": 1939,
      "▁تصویر": 1940,
      "فتر": 1941,
      "▁دنیا": 1942,
      "بب": 1943,
      "▁پاش": 1944,
      "▁رفتار": 1945,
      "اوش": 1946,
      "▁لیوان": 1947,
      "ایت": 1948,
      "▁بخورند": 1949,
      "▁سالم": 1950,
      "ولا": 1951,
      "کل": 1952,
      "رمرد": 1953,
      "▁نمایش": 1954,
      "▁امید": 1955,
      "▁ساعت": 1956,
      "▁ث": 1957,
      "▁مهربون": 1958,
      "ندی": 1959,
      "▁ترک": 1960,
      "بوس": 1961,
      "▁خاص": 1962,
      "▁مشکل": 1963,
      "▁کمکت": 1964,
      "خواب": 1965,
      "ندان": 1966,
      "▁مختلف": 1967,
      "نکبو": 1968,
      "مار": 1969,
      "کوچ": 1970,
      "▁بنفش": 1971,
      "ویج": 1972,
      "لوچه": 1973,
      "▁نخ": 1974,
      "ببخشید": 1975,
      "▁سرا": 1976,
      "دانم": 1977,
      "▁گنج": 1978,
      "پدید": 1979,
      "درس": 1980,
      "مرا": 1981,
      "▁کاوش": 1982,
      "▁گاو": 1983,
      "▁ساختن": 1984,
      "▁نکن": 1985,
      "فته": 1986,
      "▁چشمان": 1987,
      "شدند": 1988,
      "دوستش": 1989,
      "توجه": 1990,
      "همیشه": 1991,
      "▁حیوان": 1992,
      "▁سای": 1993,
      "▁بخواب": 1994,
      "▁پست": 1995,
      "▁عزیز": 1996,
      "▁گذروند": 1997,
      "مولی": 1998,
      "▁خیابان": 1999,
      "▁خردمند": 2000,
      "الاب": 2001,
      "رمان": 2002,
      "▁ببینیم": 2003,
      "بته": 2004,
      "خان": 2005,
      "▁بمان": 2006,
      "▁ایمی": 2007,
      "▁غر": 2008,
      "▁شاید": 2009,
      "▁بزرگش": 2010,
      "▁متعلق": 2011,
      "▁پذیر": 2012,
      "▁خرید": 2013,
      "▁زود": 2014,
      "دهم": 2015,
      "لي": 2016,
      "رقص": 2017,
      "وفان": 2018,
      "▁ندیده": 2019,
      "▁اشاره": 2020,
      "▁ناپدید": 2021,
      "کسی": 2022,
      "▁شیط": 2023,
      "▁پارچه": 2024,
      "▁کمد": 2025,
      "پوش": 2026,
      "▁دم": 2027,
      "کردن": 2028,
      "ونه": 2029,
      "فس": 2030,
      "▁خاکست": 2031,
      "▁قاشق": 2032,
      "طری": 2033,
      "بری": 2034,
      "سمان": 2035,
      "▁توانسته": 2036,
      "انو": 2037,
      "▁مید": 2038,
      "▁الان": 2039,
      "خانم": 2040,
      "▁سب": 2041,
      "ar": 2042,
      "▁خوراکی": 2043,
      "▁دفتر": 2044,
      "▁فرنگی": 2045,
      "قیب": 2046,
      "▁لطفا": 2047,
      "صر": 2048,
      "▁مفت": 2049,
      "▁موفق": 2050,
      "خواهش": 2051,
      "رنگ": 2052,
      "▁صدف": 2053,
      "پدرش": 2054,
      "▁خطرناک": 2055,
      "▁ندارد": 2056,
      "▁بوب": 2057,
      "▁دختربچه": 2058,
      "خانواده": 2059,
      "وط": 2060,
      "▁درختان": 2061,
      "▁تعقیب": 2062,
      "▁بوبو": 2063,
      "تامی": 2064,
      "البته": 2065,
      "دهند": 2066,
      "▁موشک": 2067,
      "▁نتوانستند": 2068,
      "خوان": 2069,
      "مورچه": 2070,
      "▁اشتباه": 2071,
      "▁صف": 2072,
      "▁بشن": 2073,
      "▁تصاو": 2074,
      "جاست": 2075,
      "وده": 2076,
      "▁قفل": 2077,
      "صدا": 2078,
      "ینه": 2079,
      "▁حلقه": 2080,
      "قلو": 2081,
      "▁اشک": 2082,
      "اط": 2083,
      "▁مشت": 2084,
      "▁زنبور": 2085,
      "بادک": 2086,
      "▁رشد": 2087,
      "▁تخم": 2088,
      "یکار": 2089,
      "▁هویج": 2090,
      "سعی": 2091,
      "\"،": 2092,
      "باشد": 2093,
      "▁جغد": 2094,
      "▁ارز": 2095,
      "فرد": 2096,
      "نو": 2097,
      "مرسی": 2098,
      "▁دقی": 2099,
      "▁توانیم": 2100,
      "ویش": 2101,
      "▁خودشان": 2102,
      "▁چنگ": 2103,
      "متأسف": 2104,
      "نکبوت": 2105,
      "▁برقص": 2106,
      "▁مفتخر": 2107,
      "زاده": 2108,
      "مثل": 2109,
      "▁بسیاری": 2110,
      "▁دقت": 2111,
      "▁تالاب": 2112,
      "▁اتو": 2113,
      "▁آزاد": 2114,
      "حق": 2115,
      "خته": 2116,
      "انجام": 2117,
      "▁قایم": 2118,
      "▁بیم": 2119,
      "▁کاسه": 2120,
      "▁نبودند": 2121,
      "▁آرامی": 2122,
      "▁آوی": 2123,
      "داخل": 2124,
      "▁ثرو": 2125,
      "اپ": 2126,
      "▁پاد": 2127,
      "▁برادر": 2128,
      "بیه": 2129,
      "راحی": 2130,
      "اسم": 2131,
      "▁برسد": 2132,
      "نجی": 2133,
      "دیزی": 2134,
      "▁قطع": 2135,
      "▁سوت": 2136,
      "اورز": 2137,
      "ابل": 2138,
      "دویدند": 2139,
      "▁نوشته": 2140,
      "▁رنگین": 2141,
      "▁بند": 2142,
      "میوه": 2143,
      "آبی": 2144,
      "▁گفته": 2145,
      "نشان": 2146,
      "وع": 2147,
      "اردک": 2148,
      "▁بخر": 2149,
      "▁روست": 2150,
      "دان": 2151,
      "▁متفاوت": 2152,
      "زان": 2153,
      "▁شانه": 2154,
      "▁ثروتمند": 2155,
      "▁دوقلو": 2156,
      "گیرد": 2157,
      "▁برس": 2158,
      "جغد": 2159,
      "▁بگیری": 2160,
      "زنند": 2161,
      "جعبه": 2162,
      "▁کامل": 2163,
      "رفتند": 2164,
      "▁خاکستری": 2165,
      "▁بوی": 2166,
      "▁کوچکش": 2167,
      "▁چیکار": 2168,
      "جبور": 2169,
      "▁بینی": 2170,
      "اسب": 2171,
      "بادی": 2172,
      "نوان": 2173,
      "رانند": 2174,
      "لویزی": 2175,
      "اظ": 2176,
      "دیگه": 2177,
      "▁ماندند": 2178,
      "▁استخر": 2179,
      "هوا": 2180,
      "روباه": 2181,
      "افه": 2182,
      "▁صورتش": 2183,
      "▁تکون": 2184,
      "▁خارج": 2185,
      "▁عقب": 2186,
      "رور": 2187,
      "▁محبوب": 2188,
      "▁خنک": 2189,
      "بیلی": 2190,
      "▁کشیدن": 2191,
      "دود": 2192,
      "▁ممکن": 2193,
      "▁عمیق": 2194,
      "▁اهمی": 2195,
      "ادل": 2196,
      "▁هنگام": 2197,
      "▁درخشانی": 2198,
      "مشک": 2199,
      "▁جیب": 2200,
      "▁شدیدی": 2201,
      "متوجه": 2202,
      "▁بطری": 2203,
      "▁نیستند": 2204,
      "ویق": 2205,
      "آقای": 2206,
      "▁زیبای": 2207,
      "لویزیون": 2208,
      "▁مست": 2209,
      "▁جلوی": 2210,
      "▁مه": 2211,
      "▁عنوان": 2212,
      "▁دوستانشان": 2213,
      "▁دیر": 2214,
      "▁امیدوار": 2215,
      "صار": 2216,
      "▁طراحی": 2217,
      "▁صمیمی": 2218,
      "▁ناراحتی": 2219,
      "▁دریایی": 2220,
      "ژدها": 2221,
      "اظب": 2222,
      "▁رقصیدن": 2223,
      "▁اضافه": 2224,
      "▁فین": 2225,
      "▁زند": 2226,
      "▁کاملا": 2227,
      "▁روباه": 2228,
      "▁ملایم": 2229,
      "گاهی": 2230,
      "▁کت": 2231,
      "▁بعدا": 2232,
      "▁دود": 2233,
      "آرز": 2234,
      "▁بگیرم": 2235,
      "▁دعوت": 2236,
      "لود": 2237,
      "▁پری": 2238,
      "غی": 2239,
      "▁کلوچه": 2240,
      "▁عر": 2241,
      "??": 2242,
      "▁وزید": 2243,
      "▁دوی": 2244,
      "▁چنگال": 2245,
      "▁سایه": 2246,
      "▁پریدن": 2247,
      "▁تح": 2248,
      "ریخت": 2249,
      "▁کم": 2250,
      "▁دانه": 2251,
      "▁محافظ": 2252,
      "▁برگردد": 2253,
      "ونا": 2254,
      "▁موهای": 2255,
      "▁صاحب": 2256,
      "▁بپر": 2257,
      "خار": 2258,
      "اندوی": 2259,
      "ازش": 2260,
      "▁کارهای": 2261,
      "▁دزد": 2262,
      "▁بادی": 2263,
      "▁جلو": 2264,
      "▁غار": 2265,
      "▁خالی": 2266,
      "گرفت": 2267,
      "▁ملحق": 2268,
      "▁تولد": 2269,
      "واره": 2270,
      "▁مبل": 2271,
      "▁رانندگی": 2272,
      "▁مجبور": 2273,
      "▁کوچیک": 2274,
      "▁يک": 2275,
      "▁کوت": 2276,
      "▁کمان": 2277,
      "▁خوشگل": 2278,
      "▁بلا": 2279,
      "▁حفره": 2280,
      "اینجا": 2281,
      "▁سپاس": 2282,
      "▁حصار": 2283,
      "▁باغچه": 2284,
      "▁بله": 2285,
      "اندویچ": 2286,
      "▁پاره": 2287,
      "رسد": 2288,
      "▁کافی": 2289,
      "تابید": 2290,
      "▁نوش": 2291,
      "▁آهنگ": 2292,
      "▁بزنند": 2293,
      "مراقب": 2294,
      "▁سگش": 2295,
      "▁تلفن": 2296,
      "اور": 2297,
      "▁کوکی": 2298,
      "▁نیمکت": 2299,
      "▁شلو": 2300,
      "▁وحشی": 2301,
      "▁بشقاب": 2302,
      "ضیح": 2303,
      "▁پنیر": 2304,
      "▁تشویق": 2305,
      "▁سبد": 2306,
      "▁بگیریم": 2307,
      "▁ناامید": 2308,
      "▁فرش": 2309,
      "کنک": 2310,
      "▁والدین": 2311,
      "چال": 2312,
      "▁بری": 2313,
      "▁بیمار": 2314,
      "▁کف": 2315,
      "ازد": 2316,
      "▁دارید": 2317,
      "▁خجالتی": 2318,
      "▁اسب": 2319,
      "نم": 2320,
      "▁منه": 2321,
      "گفتند": 2322,
      "▁بادبادک": 2323,
      "▁ماه": 2324,
      "▁خي": 2325,
      "بور": 2326,
      "▁زیباست": 2327,
      "بوتر": 2328,
      "دختربچه": 2329,
      "موم": 2330,
      "▁بودم": 2331,
      "▁جاده": 2332,
      "▁میو": 2333,
      "▁دیزی": 2334,
      "▁شویم": 2335,
      "▁نارنجی": 2336,
      "▁بچ": 2337,
      "مشکلی": 2338,
      "وض": 2339,
      "شروع": 2340,
      "▁خندیدن": 2341,
      "▁بخوریم": 2342,
      "خندید": 2343,
      "▁خرچنگ": 2344,
      "فرو": 2345,
      "▁توانم": 2346,
      "پرسید": 2347,
      "▁مشتاق": 2348,
      "افتد": 2349,
      "▁سگی": 2350,
      "▁درو": 2351,
      "▁تیز": 2352,
      "▁عرض": 2353,
      "گیرند": 2354,
      "▁عاشق": 2355,
      "▁بینند": 2356,
      "آرزو": 2357,
      "▁خوششان": 2358,
      "▁فشار": 2359,
      "▁حد": 2360,
      "دادند": 2361,
      "▁پیراه": 2362,
      "روح": 2363,
      "▁دنی": 2364,
      "پرو": 2365,
      "جی": 2366,
      "▁توضیح": 2367,
      "▁حالش": 2368,
      "▁لوله": 2369,
      "باران": 2370,
      "▁مردی": 2371,
      "▁خط": 2372,
      "▁استخوان": 2373,
      "عب": 2374,
      "!\n\n": 2375,
      "سط": 2376,
      "▁تصاویر": 2377,
      "▁احتی": 2378,
      "▁سواری": 2379,
      "▁شست": 2380,
      "آوری": 2381,
      "▁احمقانه": 2382,
      "▁تلویزیون": 2383,
      "▁زشت": 2384,
      "شنها": 2385,
      "سگی": 2386,
      "▁کردید": 2387,
      "▁نفس": 2388,
      "▁پاس": 2389,
      "▁نمود": 2390,
      "▁هواپیما": 2391,
      "تمام": 2392,
      "▁فنج": 2393,
      "رار": 2394,
      "▁برفی": 2395,
      "▁همدیگر": 2396,
      "▁ساختند": 2397,
      "▁راهی": 2398,
      "خواستم": 2399,
      "▁موق": 2400,
      "▁ظاهر": 2401,
      "▁حباب": 2402,
      "رین": 2403,
      "▁نداشتند": 2404,
      "▁امروز": 2405,
      "ارید": 2406,
      "▁قبلا": 2407,
      "لیسی": 2408,
      "▁بسازند": 2409,
      "▁ایستاد": 2410,
      "▁خواهی": 2411,
      "▁عسل": 2412,
      "▁بگذارند": 2413,
      "چسب": 2414,
      "▁مغرور": 2415,
      "طوری": 2416,
      "▁میمون": 2417,
      "▁ساندویچ": 2418,
      "▁لغ": 2419,
      "کامیون": 2420,
      "ادت": 2421,
      "▁لیمو": 2422,
      "گزار": 2423,
      "▁فض": 2424,
      "▁بخورم": 2425,
      "▁انجامش": 2426,
      "▁راز": 2427,
      "▁موتو": 2428,
      "شنهاد": 2429,
      "▁دوان": 2430,
      "صله": 2431,
      "شرات": 2432,
      "دوباره": 2433,
      "▁عزیزم": 2434,
      "▁جور": 2435,
      "▁افتخار": 2436,
      "▁عبور": 2437,
      "▁گذراند": 2438,
      "▁تخته": 2439,
      "پری": 2440,
      "▁نکردند": 2441,
      "▁شرم": 2442,
      "▁بگیر": 2443,
      "▁برق": 2444,
      "▁ببینم": 2445,
      "▁ساکت": 2446,
      "▁توده": 2447,
      "▁ندارم": 2448,
      "▁لرز": 2449,
      "▁گویند": 2450,
      "▁انگلیسی": 2451,
      "آخ": 2452,
      "▁ندید": 2453,
      "▁ساخته": 2454,
      "▁بعضی": 2455,
      "درست": 2456,
      "▁پذیرایی": 2457,
      "▁بالش": 2458,
      "▁معمولی": 2459,
      "عم": 2460,
      "▁نوازش": 2461,
      "ینک": 2462,
      "▁کارت": 2463,
      "▁تغی": 2464,
      "▁توانی": 2465,
      "لبخند": 2466,
      "▁کلمات": 2467,
      "▁ماسه": 2468,
      "▁پیت": 2469,
      "▁میاد": 2470,
      "▁تختش": 2471,
      "▁قفس": 2472,
      "کنید": 2473,
      "▁بپوشد": 2474,
      "زنبور": 2475,
      "مادربزرگ": 2476,
      "عالی": 2477,
      "▁رس": 2478,
      "▁یافت": 2479,
      "کشید": 2480,
      "▁نرد": 2481,
      "▁بخوره": 2482,
      "▁محافظت": 2483,
      "▁نوز": 2484,
      "▁پدرشان": 2485,
      "▁پشتی": 2486,
      "▁روش": 2487,
      "▁غذاهای": 2488,
      "صل": 2489,
      "▁گذاشته": 2490,
      "▁پخش": 2491,
      "زیر": 2492,
      "▁عوض": 2493,
      "همین": 2494,
      "▁پایش": 2495,
      "▁پوشیده": 2496,
      "▁یخچال": 2497,
      "▁خم": 2498,
      "پرسد": 2499,
      "▁آسان": 2500,
      "▁طوفان": 2501,
      "فید": 2502,
      "▁ازش": 2503,
      "رشان": 2504,
      "▁منو": 2505,
      "▁اطرافش": 2506,
      "▁مض": 2507,
      "▁قدرت": 2508,
      "▁پرد": 2509,
      "ببین": 2510,
      "ئه": 2511,
      "اض": 2512,
      "▁دندان": 2513,
      "▁شوخی": 2514,
      "▁بگرد": 2515,
      "▁موقع": 2516,
      "▁بدهی": 2517,
      "▁دستکش": 2518,
      "نجا": 2519,
      "▁غذایی": 2520,
      "▁لای": 2521,
      "▁بداند": 2522,
      "▁صاف": 2523,
      "همانطور": 2524,
      "▁نوار": 2525,
      "پریدند": 2526,
      "▁خوبه": 2527,
      "▁چک": 2528,
      "هن": 2529,
      "سکر": 2530,
      "▁بیاورد": 2531,
      "▁آخر": 2532,
      "▁چاپ": 2533,
      "سکرز": 2534,
      "▁پشیمان": 2535,
      "▁پریدند": 2536,
      "▁ممنون": 2537,
      "ایره": 2538,
      "▁وای": 2539,
      "▁پوست": 2540,
      "▁سرزمین": 2541,
      "▁برداشتند": 2542,
      "▁تمرین": 2543,
      "بریم": 2544,
      "تن": 2545,
      "▁تغییر": 2546,
      "▁نوزاد": 2547,
      "▁کمکم": 2548,
      "گد": 2549,
      "▁صداهای": 2550,
      "وگر": 2551,
      "▁بیا": 2552,
      "عداد": 2553,
      "▁آبمیوه": 2554,
      "▁آرامش": 2555,
      "▁تیره": 2556,
      "▁i": 2557,
      "on": 2558,
      "▁خودت": 2559,
      "▁دستمال": 2560,
      "▁بزنه": 2561,
      "▁طور": 2562,
      "at": 2563,
      "نین": 2564,
      "▁اتوبوس": 2565,
      "کوچک": 2566,
      "▁دوستت": 2567,
      "▁قابل": 2568,
      "چیزی": 2569,
      "▁the": 2570,
      "▁b": 2571,
      "یو": 2572,
      "▁خودخواه": 2573,
      "سایه": 2574,
      "بول": 2575,
      "▁حین": 2576,
      "▁درخواست": 2577,
      "▁هستیم": 2578,
      "▁پخت": 2579,
      "▁افتادند": 2580,
      "▁سرخ": 2581,
      "▁دخترکی": 2582,
      "▁ماست": 2583,
      "▁حوله": 2584,
      "جوی": 2585,
      "فهمید": 2586,
      "▁فنجان": 2587,
      "▁ناش": 2588,
      "ستان": 2589,
      "خود": 2590,
      "▁بادکنک": 2591,
      "منم": 2592,
      "دوستت": 2593,
      "▁جر": 2594,
      "ریختگی": 2595,
      "ناه": 2596,
      "امد": 2597,
      "گذاشت": 2598,
      "▁مفید": 2599,
      "▁ببند": 2600,
      "▁بگیره": 2601,
      "▁نکند": 2602,
      "▁ناهار": 2603,
      "▁مود": 2604,
      "مادرشان": 2605,
      "▁بزرگتر": 2606,
      "▁ترش": 2607,
      "▁شوی": 2608,
      "▁پتو": 2609,
      "!\".": 2610,
      "▁دهم": 2611,
      "▁سرانجام": 2612,
      "er": 2613,
      "▁اهمیت": 2614,
      "▁بخرد": 2615,
      "▁میشه": 2616,
      "▁موز": 2617,
      "▁وعده": 2618,
      "▁کارش": 2619,
      "▁دنبالش": 2620,
      "▁صخره": 2621,
      "▁ماشینش": 2622,
      "ماس": 2623,
      "▁وف": 2624,
      "▁بازیش": 2625,
      "▁موج": 2626,
      "▁دریافت": 2627,
      "▁دکتر": 2628,
      "▁تامی": 2629,
      "▁همگی": 2630,
      "▁غول": 2631,
      "بردند": 2632,
      "▁بگوید": 2633,
      "▁حشرات": 2634,
      "▁جیبش": 2635,
      "ایند": 2636,
      "▁تصور": 2637,
      "قطار": 2638,
      "کا": 2639,
      "▁خلاق": 2640,
      "▁راحت": 2641,
      "▁غری": 2642,
      "▁امنیت": 2643,
      "▁جه": 2644,
      "خوشحالم": 2645,
      "ازل": 2646,
      "بیل": 2647,
      "▁دادی": 2648,
      "کیک": 2649,
      "هیچ": 2650,
      "طسه": 2651,
      "▁منتظره": 2652,
      "▁منح": 2653,
      "گاو": 2654,
      "▁عنکبوت": 2655,
      "▁جوان": 2656,
      "چطور": 2657,
      "برگرد": 2658,
      "▁گذشت": 2659,
      "▁دیگ": 2660,
      "▁آورده": 2661,
      "▁كه": 2662,
      "▁هوش": 2663,
      "▁حمل": 2664,
      "▁لگد": 2665,
      "▁پیراهن": 2666,
      "▁بیلی": 2667,
      "▁پیک": 2668,
      "▁برند": 2669,
      "▁دلش": 2670,
      "فری": 2671,
      "ازیم": 2672,
      "▁شمرد": 2673,
      "▁درخش": 2674,
      "شیند": 2675,
      "▁بخوابد": 2676,
      "▁هیولا": 2677,
      "پار": 2678,
      "▁چشمانش": 2679,
      "▁بنشیند": 2680,
      "وطی": 2681,
      "▁نردبان": 2682,
      "▁سرگرمی": 2683,
      "آسمان": 2684,
      "جیل": 2685,
      "▁بنوی": 2686,
      "عروس": 2687,
      "▁فرود": 2688,
      "▁آنچه": 2689,
      "▁کشتی": 2690,
      "▁پیدایش": 2691,
      "▁گذشته": 2692,
      "▁ضعی": 2693,
      "▁درمی": 2694,
      "▁اونا": 2695,
      "هنگام": 2696,
      "▁پله": 2697,
      "متأسفم": 2698,
      "▁روزها": 2699,
      "▁چای": 2700,
      "سفند": 2701,
      "▁ببرند": 2702,
      "گار": 2703,
      "▁کمر": 2704,
      "گوش": 2705,
      "▁عمل": 2706,
      "▁سبزی": 2707,
      "▁تنب": 2708,
      "ترام": 2709,
      "ابون": 2710,
      "▁خوشبختانه": 2711,
      "▁سراسر": 2712,
      "▁گود": 2713,
      "▁موجود": 2714,
      "▁منحصر": 2715,
      "پش": 2716,
      "▁بخوری": 2717,
      "▁بازي": 2718,
      "▁بکش": 2719,
      "▁آرایش": 2720,
      "▁فیلم": 2721,
      "▁شم": 2722,
      "▁آید": 2723,
      "▁صفحه": 2724,
      "بعضی": 2725,
      "دک": 2726,
      "▁برایت": 2727,
      "کتاب": 2728,
      "▁گرو": 2729,
      "▁بیل": 2730,
      "همچن": 2731,
      "▁ديد": 2732,
      "▁چنین": 2733,
      "یاد": 2734,
      "▁بکند": 2735,
      "▁لاک": 2736,
      "▁پیشنهاد": 2737,
      "دارد": 2738,
      "کمی": 2739,
      "▁ورز": 2740,
      "ایناس": 2741,
      "زش": 2742,
      "▁ریختگی": 2743,
      "▁پیرمرد": 2744,
      "دب": 2745,
      "▁بردن": 2746,
      "بالا": 2747,
      "▁جوراب": 2748,
      "▁امان": 2749,
      "▁مشکلی": 2750,
      "ذرت": 2751,
      "▁باباش": 2752,
      "فهوم": 2753,
      "▁کدو": 2754,
      "▁نکرده": 2755,
      "مارک": 2756,
      "▁خواهیم": 2757,
      "خرچنگ": 2758,
      "▁توجه": 2759,
      "▁بیفت": 2760,
      "وزش": 2761,
      "▁جایزه": 2762,
      "زمان": 2763,
      "▁منظ": 2764,
      "▁برنامه": 2765,
      "▁شع": 2766,
      "▁احترام": 2767,
      "هنوز": 2768,
      "دوند": 2769,
      "آماده": 2770,
      "▁بروم": 2771,
      "▁شجاعت": 2772,
      "▁قدرتمند": 2773,
      "▁جری": 2774,
      "▁احتیاط": 2775,
      "▁خاموش": 2776,
      "دخت": 2777,
      "▁کر": 2778,
      "▁مجروح": 2779,
      "▁گودال": 2780,
      "▁راحتی": 2781,
      "▁چهره": 2782,
      "نباید": 2783,
      "شق": 2784,
      "ته": 2785,
      "پروانه": 2786,
      "▁کجاست": 2787,
      "▁پازل": 2788,
      "خونه": 2789,
      "▁شوم": 2790,
      "▁اصلا": 2791,
      "▁سپاسگزار": 2792,
      "هایم": 2793,
      "بهترین": 2794,
      "▁زمینی": 2795,
      "▁خیره": 2796,
      "▁قلب": 2797,
      "بلکه": 2798,
      "▁شکلات": 2799,
      "چقدر": 2800,
      "▁الی": 2801,
      "▁فل": 2802,
      "▁جدیدشان": 2803,
      "▁گوشه": 2804,
      "اطر": 2805,
      "نترس": 2806,
      "▁کوتاه": 2807,
      "▁خواهر": 2808,
      "▁بالون": 2809,
      "▁تموم": 2810,
      "صدایی": 2811,
      "▁دایره": 2812,
      "▁شبیه": 2813,
      "▁راست": 2814,
      "▁جیک": 2815,
      "▁باور": 2816,
      "▁بهت": 2817,
      "▁پوزش": 2818,
      "▁حسادت": 2819,
      "▁شاهزاده": 2820,
      "رک": 2821,
      "ضوع": 2822,
      "شده": 2823,
      "▁بدهم": 2824,
      "▁قرض": 2825,
      "▁طل": 2826,
      "▁آموختند": 2827,
      "▁کدام": 2828,
      "ادار": 2829,
      "ایده": 2830,
      "▁پلیس": 2831,
      "▁دفترچه": 2832,
      "▁مص": 2833,
      "سال": 2834,
      "سلی": 2835,
      "▁نوبت": 2836,
      "▁متاسف": 2837,
      "وو": 2838,
      "▁یادداشت": 2839,
      "▁مکعب": 2840,
      "یمت": 2841,
      "▁قرمزش": 2842,
      "دیدند": 2843,
      "▁چرت": 2844,
      "ایناسور": 2845,
      "زئ": 2846,
      "▁توش": 2847,
      "▁عطسه": 2848,
      "▁زیپ": 2849,
      "▁بوق": 2850,
      "خص": 2851,
      "▁ببینه": 2852,
      "باله": 2853,
      "▁قطعات": 2854,
      "▁نیامد": 2855,
      "▁بخواه": 2856,
      "تل": 2857,
      "▁پي": 2858,
      "خواندند": 2859,
      "▁کردیم": 2860,
      "▁بررسی": 2861,
      "▁قرمزی": 2862,
      "چم": 2863,
      "▁پرس": 2864,
      "▁بدهند": 2865,
      "▁نخورد": 2866,
      "▁تنه": 2867,
      "▁شدم": 2868,
      "▁کنارش": 2869,
      "▁انگی": 2870,
      "▁ضر": 2871,
      "▁ضعیف": 2872,
      "▁تور": 2873,
      "▁بلندتر": 2874,
      "سین": 2875,
      "نزد": 2876,
      "▁میمی": 2877,
      "▁آدم": 2878,
      "کلاه": 2879,
      "▁دام": 2880,
      "▁فشرد": 2881,
      "▁صبور": 2882,
      "چرخید": 2883,
      "لحه": 2884,
      "▁خجالت": 2885,
      "▁ماس": 2886,
      "▁لیز": 2887,
      "▁گناه": 2888,
      "▁توانند": 2889,
      "چند": 2890,
      "جیمی": 2891,
      "▁بدهیم": 2892,
      "▁بنام": 2893,
      "▁نوشت": 2894,
      "کلی": 2895,
      "ازند": 2896,
      "▁تست": 2897,
      "همچنین": 2898,
      "▁کس": 2899,
      "▁خمیر": 2900,
      "ازم": 2901,
      "▁لیلا": 2902,
      "▁علام": 2903,
      "▁رقصیدند": 2904,
      "▁کلاس": 2905,
      "سا": 2906,
      "▁هیچوقت": 2907,
      "لنگ": 2908,
      "▁جدا": 2909,
      "▁قی": 2910,
      "▁نگاهی": 2911,
      "▁عروسکش": 2912,
      "▁دلی": 2913,
      "▁میخواست": 2914,
      "کاری": 2915,
      "▁نتونست": 2916,
      "مالی": 2917,
      "آورده": 2918,
      "انگیزی": 2919,
      "▁وان": 2920,
      "داشتنی": 2921,
      "سمه": 2922,
      "▁خواندند": 2923,
      "▁اژدها": 2924,
      "وزن": 2925,
      "▁ذرت": 2926,
      "▁مادربزرگش": 2927,
      "▁دهیم": 2928,
      "آتش": 2929,
      "▁باریدن": 2930,
      "▁میله": 2931,
      "ینند": 2932,
      "▁گران": 2933,
      "▁بچرخ": 2934,
      "لفل": 2935,
      "آور": 2936,
      "واق": 2937,
      "ویم": 2938,
      "▁چید": 2939,
      "▁ناد": 2940,
      "آر": 2941,
      "▁لبخندی": 2942,
      "▁برآورده": 2943,
      "▁قیچی": 2944,
      "▁يك": 2945,
      "اتاق": 2946,
      "ردست": 2947,
      "▁عادی": 2948,
      "▁مواظب": 2949,
      "▁زباله": 2950,
      "▁قشنگی": 2951,
      "▁گیاهان": 2952,
      "▁شلوار": 2953,
      "▁اشکال": 2954,
      "▁بذ": 2955,
      "▁اونجا": 2956,
      "▁باند": 2957,
      "▁تابلو": 2958,
      "روف": 2959,
      "▁عشق": 2960,
      "ظیم": 2961,
      "دامس": 2962,
      "سیب": 2963,
      "وص": 2964,
      "▁جوی": 2965,
      "ویل": 2966,
      "▁تنبل": 2967,
      "▁شوق": 2968,
      "میمون": 2969,
      "بسیار": 2970,
      "▁تزئ": 2971,
      "▁دنیای": 2972,
      "صبر": 2973,
      "▁پتوی": 2974,
      "خندند": 2975,
      "مفهوم": 2976,
      "لافی": 2977,
      "▁پادشاه": 2978,
      "▁مهمی": 2979,
      "آلود": 2980,
      "▁وحش": 2981,
      "عروسک": 2982,
      "پذیر": 2983,
      "▁ساختمان": 2984,
      "تار": 2985,
      "▁قشنگه": 2986,
      "▁آهسته": 2987,
      "▁هشد": 2988,
      "▁پنجه": 2989,
      "▁زنده": 2990,
      "▁موهایش": 2991,
      "▁آینه": 2992,
      "هات": 2993,
      "▁دوردست": 2994,
      "▁زم": 2995,
      "شب": 2996,
      "لباس": 2997,
      "▁اسلحه": 2998,
      "سلیم": 2999,
      "▁جن": 3000,
      "▁آویزان": 3001,
      "▁شدی": 3002,
      "▁ترسیدند": 3003,
      "▁فهمیدند": 3004,
      "▁بپی": 3005,
      "▁چادر": 3006,
      "▁گوشت": 3007,
      "▁خانگی": 3008,
      "بخش": 3009,
      "رانی": 3010,
      "لیزا": 3011,
      "▁کمربند": 3012,
      "دن": 3013,
      "▁چاله": 3014,
      "▁برقصد": 3015,
      "پیرمرد": 3016,
      "▁کاغذی": 3017,
      "▁خورده": 3018,
      "بابی": 3019,
      "پاد": 3020,
      "▁برچسب": 3021,
      "▁کوه": 3022,
      "▁لاست": 3023,
      "▁ریخته": 3024,
      "▁ایستاده": 3025,
      "▁کلمه": 3026,
      "▁سهیم": 3027,
      "▁tr": 3028,
      "لات": 3029,
      "▁میک": 3030,
      "▁آقا": 3031,
      "▁بوسید": 3032,
      "▁برگزار": 3033,
      "▁صابون": 3034,
      "▁کچ": 3035,
      "▁بنش": 3036,
      "معلم": 3037,
      "▁شمش": 3038,
      "▁بلوط": 3039,
      "▁جذ": 3040,
      "▁بدوند": 3041,
      "▁دروازه": 3042,
      "اخلاق": 3043,
      "▁ابز": 3044,
      "اول": 3045,
      "عط": 3046,
      "ادب": 3047,
      "▁بتوانیم": 3048,
      "▁بمانند": 3049,
      "صوص": 3050,
      "نت": 3051,
      "▁دانستند": 3052,
      "▁مغز": 3053,
      "قال": 3054,
      "کشاورز": 3055,
      "▁ضربه": 3056,
      "▁براش": 3057,
      "▁وسط": 3058,
      "▁ابت": 3059,
      "▁هشدار": 3060,
      "پرد": 3061,
      "▁تاج": 3062,
      "▁پرسیدند": 3063,
      "اي": 3064,
      "▁بسازیم": 3065,
      "▁پهن": 3066,
      "▁تزئین": 3067,
      "▁k": 3068,
      "▁بمون": 3069,
      "▁گذروندند": 3070,
      "عظه": 3071,
      "lat": 3072,
      "▁جواهر": 3073,
      "▁زنند": 3074,
      "▁طبل": 3075,
      "▁غرش": 3076,
      "کشد": 3077,
      "دکتر": 3078,
      "غال": 3079,
      "▁مقداری": 3080,
      "▁مهره": 3081,
      "▁اولی": 3082,
      "▁روستا": 3083,
      "امیدوارم": 3084,
      "▁عمیقی": 3085,
      "▁سپس": 3086,
      "تیب": 3087,
      "▁سوال": 3088,
      "▁تاریکی": 3089,
      "درون": 3090,
      "▁برایشان": 3091,
      "▁خودکار": 3092,
      "دواج": 3093,
      "باهی": 3094,
      "دد": 3095,
      "▁توست": 3096,
      "▁برم": 3097,
      "ans": 3098,
      "▁نترسید": 3099,
      "▁ارا": 3100,
      "▁خوک": 3101,
      "anslat": 3102,
      "▁ارائه": 3103,
      "▁پیداش": 3104,
      "▁آدامس": 3105,
      "پید": 3106,
      "▁روند": 3107,
      "مردی": 3108,
      "▁بگذاریم": 3109,
      "▁انگور": 3110,
      "▁s": 3111,
      "ere": 3112,
      "▁تسلیم": 3113,
      "▁ترتیب": 3114,
      "▁علامت": 3115,
      "کرم": 3116,
      "▁گرگ": 3117,
      "▁هایی": 3118,
      "ير": 3119,
      "▁توپی": 3120,
      "رقصید": 3121,
      "▁ابتدا": 3122,
      "موعظه": 3123,
      "واقعا": 3124,
      "▁پاسخ": 3125,
      "صاحب": 3126,
      "▁بفهم": 3127,
      "▁اسپا": 3128,
      "مومو": 3129,
      "▁فردا": 3130,
      "▁نوشید": 3131,
      "ولای": 3132,
      "یند": 3133,
      "▁ملکه": 3134,
      "▁لرزیدن": 3135,
      "▁ربات": 3136,
      "▁معلم": 3137,
      "▁آهن": 3138,
      "▁کبوتر": 3139,
      "پرندگان": 3140,
      "▁چکمه": 3141,
      "▁پرچم": 3142,
      "▁حق": 3143,
      "▁دسترسی": 3144,
      "▁ورزش": 3145,
      "وانه": 3146,
      "وعده": 3147,
      "آنجا": 3148,
      "▁کشاورز": 3149,
      "بع": 3150,
      "بقیه": 3151,
      "▁نواخت": 3152,
      "▁ظریف": 3153,
      "▁توانستند": 3154,
      "▁والدینش": 3155,
      "▁translat": 3156,
      "صند": 3157,
      "▁بگ": 3158,
      "▁رژه": 3159,
      "▁متح": 3160,
      "آنقدر": 3161,
      "▁پرش": 3162,
      "تيم": 3163,
      "▁بارها": 3164,
      "▁مجسمه": 3165,
      "▁تحسین": 3166,
      "▁روزهای": 3167,
      "▁گذروندن": 3168,
      "سان": 3169,
      "▁مناسب": 3170,
      "▁خوابش": 3171,
      "▁جستجوی": 3172,
      "▁بخاطر": 3173,
      "ion": 3174,
      "شویی": 3175,
      "هاشون": 3176,
      "▁ازدواج": 3177,
      "▁فلفل": 3178,
      "▁بزنم": 3179,
      "▁آروم": 3180,
      "▁دسته": 3181,
      "جنگ": 3182,
      "▁بشم": 3183,
      "▁بازار": 3184,
      "▁نرمی": 3185,
      "▁خاصی": 3186,
      "عطاف": 3187,
      "فیل": 3188,
      "▁سختی": 3189,
      "صه": 3190,
      "گردان": 3191,
      "▁مواد": 3192,
      "▁بخرند": 3193,
      "برادر": 3194,
      "▁جدی": 3195,
      "▁شه": 3196,
      "ساح": 3197,
      "راننده": 3198,
      "▁اجاق": 3199,
      "▁بخور": 3200,
      "دور": 3201,
      "انا": 3202,
      "▁کهنه": 3203,
      "نشست": 3204,
      "گس": 3205,
      "▁مرم": 3206,
      "▁پیتزا": 3207,
      "▁کره": 3208,
      "▁لونا": 3209,
      "زنده": 3210,
      "▁نیستم": 3211,
      "ئی": 3212,
      "خوک": 3213,
      "غم": 3214,
      "▁دوستای": 3215,
      "▁انعطاف": 3216,
      "▁موتور": 3217,
      "▁فرا": 3218,
      "▁استیک": 3219,
      "▁موضوع": 3220,
      "▁شناور": 3221,
      "▁جنگلی": 3222,
      "▁قهرمان": 3223,
      "▁زیرا": 3224,
      "▁ابزار": 3225,
      "لاغ": 3226,
      "هیولا": 3227,
      "▁بتوانند": 3228,
      "▁ماهر": 3229,
      "ناکی": 3230,
      "▁گرما": 3231,
      "پادشاه": 3232,
      "لوت": 3233,
      "جیم": 3234,
      "بیرون": 3235,
      "▁کلبه": 3236,
      "▁حدس": 3237,
      "▁وا": 3238,
      "کرار": 3239,
      "▁اونو": 3240,
      "▁آسمون": 3241,
      "میتونم": 3242,
      "▁تعادل": 3243,
      "▁مربا": 3244,
      "▁دعا": 3245,
      "▁بالشت": 3246,
      "لئو": 3247,
      "▁خودم": 3248,
      "▁جاب": 3249,
      "▁جیل": 3250,
      "▁رویا": 3251,
      "▁is": 3252,
      "جایی": 3253,
      "si": 3254,
      "پزی": 3255,
      "▁وصل": 3256,
      "▁سیم": 3257,
      "▁مهمونی": 3258,
      "▁پشیمانی": 3259,
      "▁کیفش": 3260,
      "▁غافلگیر": 3261,
      "ساخت": 3262,
      "▁بدم": 3263,
      "▁translation": 3264,
      "حتما": 3265,
      "▁فوت": 3266,
      "▁نزدیکی": 3267,
      "گونه": 3268,
      "▁کشیده": 3269,
      "▁مرده": 3270,
      "▁گروه": 3271,
      "سری": 3272,
      "نق": 3273,
      "▁ببریم": 3274,
      "▁دقیقه": 3275,
      "▁نص": 3276,
      "ادو": 3277,
      "▁فک": 3278,
      "▁هواپیمای": 3279,
      "▁درسی": 3280,
      "▁تماشای": 3281,
      "▁اگه": 3282,
      "▁وانم": 3283,
      "▁برده": 3284,
      "▁کاب": 3285,
      "چش": 3286,
      "▁زان": 3287,
      "▁دهی": 3288,
      "▁ته": 3289,
      "▁سراغ": 3290,
      "ندم": 3291,
      "▁ویسکرز": 3292,
      "زیره": 3293,
      "▁اوست": 3294,
      "ردو": 3295,
      "▁دایناسور": 3296,
      "▁مکانی": 3297,
      "نبند": 3298,
      "▁نشده": 3299,
      "as": 3300,
      "ایست": 3301,
      "خواهیم": 3302,
      "▁سالاد": 3303,
      "ارمول": 3304,
      "▁بنوش": 3305,
      "▁متعجب": 3306,
      "▁مؤ": 3307,
      "▁درک": 3308,
      "▁اذ": 3309,
      "ینا": 3310,
      "▁راننده": 3311,
      "▁بداخلاق": 3312,
      "▁بیندازد": 3313,
      "▁مدام": 3314,
      "ستار": 3315,
      "چیند": 3316,
      "نزدیک": 3317,
      "▁تشنه": 3318,
      "▁تکرار": 3319,
      "▁سرشان": 3320,
      "گردد": 3321,
      "مایش": 3322,
      "ارچ": 3323,
      "▁داخلش": 3324,
      "پسرکی": 3325,
      "▁خوابید": 3326,
      "سک": 3327,
      "لفین": 3328,
      "نیک": 3329,
      "ستانی": 3330,
      "▁ببینی": 3331,
      "▁d": 3332,
      "▁لب": 3333,
      "رما": 3334,
      "▁پيدا": 3335,
      "نار": 3336,
      "▁کلاهش": 3337,
      "▁رمی": 3338,
      "▁جم": 3339,
      "▁طعم": 3340,
      "لاک": 3341,
      "▁بخریم": 3342,
      "مهم": 3343,
      "▁جذاب": 3344,
      "▁بشنود": 3345,
      "امه": 3346,
      "▁گاری": 3347,
      "لوع": 3348,
      "▁دوستا": 3349,
      "▁موند": 3350,
      "▁شخص": 3351,
      "▁کارشان": 3352,
      "▁آشپزی": 3353,
      "▁مسخره": 3354,
      "▁بیفتد": 3355,
      "اندند": 3356,
      "▁پدربزرگ": 3357,
      "گرگ": 3358,
      "الان": 3359,
      "▁خاطرا": 3360,
      "Here": 3361,
      "▁صبحانه": 3362,
      "▁گیرند": 3363,
      "پوشید": 3364,
      "سور": 3365,
      "قول": 3366,
      "ورا": 3367,
      "▁همسایه": 3368,
      "سوزی": 3369,
      "خوب": 3370,
      "▁نادر": 3371,
      "▁چطوری": 3372,
      "▁لئو": 3373,
      "▁باشگاه": 3374,
      "▁گردن": 3375,
      "▁بیایند": 3376,
      "صور": 3377,
      "▁کسل": 3378,
      "▁تمساح": 3379,
      "برگردان": 3380,
      "شکر": 3381,
      "▁ابری": 3382,
      "روصدا": 3383,
      "▁شمع": 3384,
      "▁سیر": 3385,
      "▁قطعه": 3386,
      "▁to": 3387,
      "▁نباشد": 3388,
      "رافه": 3389,
      "▁انبار": 3390,
      "▁ندارند": 3391,
      "▁بزنی": 3392,
      "▁شرح": 3393,
      "▁مستقل": 3394,
      "▁شکننده": 3395,
      "▁برادرش": 3396,
      "▁دوستشان": 3397,
      "▁داشتنی": 3398,
      "▁پرتقال": 3399,
      "▁تولید": 3400,
      "▁ي": 3401,
      "▁برداشتن": 3402,
      "▁مضح": 3403,
      "مم": 3404,
      "پت": 3405,
      "▁ایمنی": 3406,
      "چشم": 3407,
      "لیقه": 3408,
      "▁انتظ": 3409,
      "▁آوردند": 3410,
      "▁بزنیم": 3411,
      "عنی": 3412,
      "دری": 3413,
      "پین": 3414,
      "▁وانمود": 3415,
      "ممکن": 3416,
      "▁رخت": 3417,
      "هارت": 3418,
      "▁روبان": 3419,
      "▁مخصوص": 3420,
      "▁برنداشت": 3421,
      "▁روستای": 3422,
      "ارمولک": 3423,
      "▁طلوع": 3424,
      "خواهید": 3425,
      "شنود": 3426,
      "▁میخ": 3427,
      "دیو": 3428,
      "▁لیزا": 3429,
      "کدام": 3430,
      "▁قبول": 3431,
      "خوردند": 3432,
      "لرز": 3433,
      "عص": 3434,
      "▁جویبار": 3435,
      "▁بچیند": 3436,
      "▁روح": 3437,
      "▁دستبند": 3438,
      "گذارد": 3439,
      "پزشک": 3440,
      "▁فوتبال": 3441,
      "▁گره": 3442,
      "▁پناه": 3443,
      "▁شکر": 3444,
      "▁مارک": 3445,
      "▁اين": 3446,
      "درخشید": 3447,
      "▁بدیم": 3448,
      "▁حالت": 3449,
      "▁درآمد": 3450,
      "▁جزیره": 3451,
      "▁سبزیجات": 3452,
      "▁بتوانم": 3453,
      "▁صحنه": 3454,
      "▁آرزوی": 3455,
      "▁پاشید": 3456,
      "فشان": 3457,
      "▁کوسه": 3458,
      "▁آزمایش": 3459,
      "دستی": 3460,
      "▁جل": 3461,
      "▁یادگیری": 3462,
      "▁یادش": 3463,
      "▁خواهرش": 3464,
      "▁بگذرانند": 3465,
      "اگرچه": 3466,
      "▁روسری": 3467,
      "دونم": 3468,
      "▁تونست": 3469,
      "انوس": 3470,
      "وچ": 3471,
      "▁تیر": 3472,
      "▁هیولای": 3473,
      "شاهزاده": 3474,
      "▁گردنبند": 3475,
      "▁پیاز": 3476,
      "نگو": 3477,
      "▁مانده": 3478,
      "▁بابایش": 3479,
      "▁اجرا": 3480,
      "بینی": 3481,
      "▁ارزش": 3482,
      "فروش": 3483,
      "▁گفتن": 3484,
      "▁هاش": 3485,
      "▁حم": 3486,
      "وران": 3487,
      "▁جالبه": 3488,
      "▁دریای": 3489,
      "جربه": 3490,
      "مح": 3491,
      "▁برنگ": 3492,
      "حالت": 3493,
      "برند": 3494,
      "داند": 3495,
      "کمان": 3496,
      "▁سقف": 3497,
      "▁سوزن": 3498,
      "ریبا": 3499,
      "▁ببندد": 3500,
      "arsi": 3501,
      "غر": 3502,
      "گذاری": 3503,
      "▁a": 3504,
      "کارونی": 3505,
      "▁برید": 3506,
      "گردند": 3507,
      "▁شمشیر": 3508,
      "▁بي": 3509,
      "▁اط": 3510,
      "▁باری": 3511,
      "▁دوری": 3512,
      "▁خيلي": 3513,
      "Farsi": 3514,
      "▁اخم": 3515,
      "▁بودی": 3516,
      "▁پرسد": 3517,
      "قبل": 3518,
      "▁پاهایش": 3519,
      "▁بخند": 3520,
      "▁بروکلی": 3521,
      "▁بگیرید": 3522,
      "ووک": 3523,
      "▁شدت": 3524,
      "اینی": 3525,
      "▁مؤدب": 3526,
      "وس": 3527,
      "قطه": 3528,
      "▁عصای": 3529,
      "▁پولی": 3530,
      "اوات": 3531,
      "والدین": 3532,
      "▁حفر": 3533,
      "رگدن": 3534,
      "ha": 3535,
      "▁باحال": 3536,
      "▁شانس": 3537,
      "..": 3538,
      "▁بای": 3539,
      "کنن": 3540,
      "▁كند": 3541,
      "▁منق": 3542,
      "▁پاهای": 3543,
      "انیم": 3544,
      "▁گوجه": 3545,
      "▁بترس": 3546,
      "▁تنگ": 3547,
      "اندن": 3548,
      "▁پشم": 3549,
      "▁برداشته": 3550,
      "لفی": 3551,
      "یری": 3552,
      "▁m": 3553,
      "▁Farsi": 3554,
      "▁رز": 3555,
      "and": 3556,
      "▁هنگامی": 3557,
      "گیره": 3558,
      "▁دوستانی": 3559,
      "▁خبر": 3560,
      "\".\n": 3561,
      "▁عدد": 3562,
      "بط": 3563,
      "▁گلدان": 3564,
      "▁رخ": 3565,
      "▁شرکت": 3566,
      "▁چکش": 3567,
      "▁سوخت": 3568,
      "رمز": 3569,
      "پیام": 3570,
      "▁بدن": 3571,
      "مانه": 3572,
      "مواظب": 3573,
      "واع": 3574,
      "قیقت": 3575,
      "گریه": 3576,
      "توقف": 3577,
      "▁رسیده": 3578,
      "▁نشن": 3579,
      "▁هوشمند": 3580,
      "بوی": 3581,
      "انشان": 3582,
      "▁جوید": 3583,
      "▁فواره": 3584,
      "ادلانه": 3585,
      "غمگین": 3586,
      "اجازه": 3587,
      "▁مشه": 3588,
      "▁برخی": 3589,
      "▁اذیت": 3590,
      "شنا": 3591,
      "▁اتاقشان": 3592,
      "▁غلتید": 3593,
      "????": 3594,
      "▁مومو": 3595,
      "▁گوسفند": 3596,
      "گتی": 3597,
      "▁دردسر": 3598,
      "▁تمبر": 3599,
      "کارت": 3600,
      "▁چاقو": 3601,
      "▁آلود": 3602,
      "▁دوربین": 3603,
      "▁کتابخانه": 3604,
      "▁نشدند": 3605,
      "▁تونل": 3606,
      "▁منظره": 3607,
      "▁تشک": 3608,
      "ودک": 3609,
      "اندی": 3610,
      "ورش": 3611,
      "کبوتر": 3612,
      "▁وسی": 3613,
      "▁قلاب": 3614,
      "يز": 3615,
      "▁گیج": 3616,
      "زودی": 3617,
      "سریع": 3618,
      "▁نگرانی": 3619,
      "▁خيلی": 3620,
      "▁انگیز": 3621,
      "▁دلیل": 3622,
      "▁مز": 3623,
      "▁سس": 3624,
      "▁گمشده": 3625,
      "▁عجله": 3626,
      "اژدها": 3627,
      "▁اشتباهی": 3628,
      "▁مختلفی": 3629,
      "ریزه": 3630,
      "▁بالاخره": 3631,
      "▁جواه": 3632,
      "▁الماس": 3633,
      "؟\n": 3634,
      "بست": 3635,
      "▁خوام": 3636,
      "الا": 3637,
      "▁رسیدن": 3638,
      "▁خواهش": 3639,
      "▁بستند": 3640,
      "دنبال": 3641,
      "▁قصر": 3642,
      "▁کچل": 3643,
      "▁براون": 3644,
      "ذار": 3645,
      "▁دربی": 3646,
      "▁فضای": 3647,
      "▁وفادار": 3648,
      "▁کنجکاوی": 3649,
      "▁انتهای": 3650,
      "▁ناشنا": 3651,
      "نگوئن": 3652,
      "▁توانید": 3653,
      "▁اصلی": 3654,
      "بس": 3655,
      "گذرانند": 3656,
      "▁پختن": 3657,
      "▁ماکارونی": 3658,
      "▁لازم": 3659,
      "بنی": 3660,
      "▁نیستی": 3661,
      "▁سوراخی": 3662,
      "بح": 3663,
      "ستد": 3664,
      "عزیز": 3665,
      "▁قدیم": 3666,
      "▁جفت": 3667,
      "▁عینک": 3668,
      "▁صاحبش": 3669,
      "شو": 3670,
      "▁افر": 3671,
      "▁لیسید": 3672,
      "پارک": 3673,
      "طوفان": 3674,
      "▁بدر": 3675,
      "▁بالن": 3676,
      "وزید": 3677,
      "غذا": 3678,
      "نجیر": 3679,
      "▁چشمک": 3680,
      "▁تروم": 3681,
      "▁عم": 3682,
      "برت": 3683,
      "پیچ": 3684,
      "قرار": 3685,
      "▁اقی": 3686,
      "▁بروی": 3687,
      "▁گیل": 3688,
      "▁دهید": 3689,
      "▁ریختند": 3690,
      "▁ابرها": 3691,
      "▁تظ": 3692,
      "▁شنی": 3693,
      "▁چمد": 3694,
      "شانس": 3695,
      "عنکبوت": 3696,
      "میزی": 3697,
      "▁مسن": 3698,
      "▁انگار": 3699,
      "▁هفته": 3700,
      "رقصیدند": 3701,
      "مط": 3702,
      "▁چتر": 3703,
      "▁یو": 3704,
      "▁چندتا": 3705,
      "▁ارزان": 3706,
      "فاصله": 3707,
      "▁چرخیدن": 3708,
      "▁گندم": 3709,
      "▁عادلانه": 3710,
      "▁جلیقه": 3711,
      "باند": 3712,
      "▁بازگشت": 3713,
      "▁جادو": 3714,
      "▁آموخته": 3715,
      "▁رختخواب": 3716,
      "▁اقیانوس": 3717,
      "▁روزنامه": 3718,
      "اسمش": 3719,
      "▁بلی": 3720,
      "خورند": 3721,
      "قرمز": 3722,
      "انگار": 3723,
      "ینت": 3724,
      "مهر": 3725,
      "▁بعدی": 3726,
      "▁پیوست": 3727,
      "▁رقصید": 3728,
      "▁شال": 3729,
      "▁لج": 3730,
      "▁بنی": 3731,
      "▁پوشه": 3732,
      "▁فروشنده": 3733,
      "▁غرید": 3734,
      "بزه": 3735,
      "▁ضخ": 3736,
      "▁اینه": 3737,
      "▁كوچ": 3738,
      "وبی": 3739,
      "▁وزن": 3740,
      "▁طبی": 3741,
      "تمس": 3742,
      "▁w": 3743,
      "▁گیرد": 3744,
      "آه": 3745,
      "▁کراوات": 3746,
      "تمساح": 3747,
      "▁میکنه": 3748,
      "▁حیو": 3749,
      "▁بگذارید": 3750,
      "▁جیپ": 3751,
      "▁نادیده": 3752,
      "▁بفهمد": 3753,
      "لونا": 3754,
      "▁بادام": 3755,
      "▁مودب": 3756,
      "▁متواض": 3757,
      "▁ضبط": 3758,
      "گا": 3759,
      "▁تخ": 3760,
      "▁ناشناخته": 3761,
      "▁رقاب": 3762,
      "▁مثلث": 3763,
      "▁مساف": 3764,
      "▁ریسمان": 3765,
      "میتونی": 3766,
      "▁خیز": 3767,
      "▁برات": 3768,
      "▁تلخ": 3769,
      "يا": 3770,
      "یجه": 3771,
      "خور": 3772,
      "▁شوید": 3773,
      "▁انتظار": 3774,
      "▁نهنگ": 3775,
      "▁تعط": 3776,
      "▁همکاری": 3777,
      "روزگاری": 3778,
      "قلات": 3779,
      "هاي": 3780,
      "اهده": 3781,
      "▁فق": 3782,
      "▁میومد": 3783,
      "▁بغلش": 3784,
      "▁آشپزخونه": 3785,
      "▁شیطان": 3786,
      "▁بکنیم": 3787,
      "▁دفن": 3788,
      "▁بگذراند": 3789,
      "▁پاکت": 3790,
      "چیزهای": 3791,
      "زیدن": 3792,
      "▁‎": 3793,
      "▁خریدند": 3794,
      "▁سبک": 3795,
      "▁باقی": 3796,
      "ابت": 3797,
      "▁برش": 3798,
      "احت": 3799,
      "داست": 3800,
      "چوب": 3801,
      "▁نظ": 3802,
      "▁ایستگاه": 3803,
      "▁گرمی": 3804,
      "▁شاهدخت": 3805,
      "▁فلافی": 3806,
      "اسد": 3807,
      "▁ببرم": 3808,
      "اراژ": 3809,
      "▁بیش": 3810,
      "▁بدبو": 3811,
      "▁نکنید": 3812,
      "▁گیلاس": 3813,
      "امت": 3814,
      "▁دوقلوهایی": 3815,
      "▁خشن": 3816,
      "▁مرک": 3817,
      "بریت": 3818,
      "▁رؤ": 3819,
      "▁ریل": 3820,
      "▁مشاهده": 3821,
      "▁دلق": 3822,
      "▁حرک": 3823,
      "▁تظاهر": 3824,
      "▁آووک": 3825,
      "▁کاکا": 3826,
      "گیاه": 3827,
      "▁بازیگوش": 3828,
      "▁تقریبا": 3829,
      "▁اسپاگتی": 3830,
      "▁تجربه": 3831,
      "▁انواع": 3832,
      "▁خوابیدن": 3833,
      "▁مطال": 3834,
      ".‬": 3835,
      "▁چس": 3836,
      "خواد": 3837,
      "▁دارن": 3838,
      "▁چرخید": 3839,
      "▁نقطه": 3840,
      "▁راضی": 3841,
      "▁لاستیک": 3842,
      "▁مدرن": 3843,
      "ملکه": 3844,
      "▁آویز": 3845,
      "▁کارها": 3846,
      "▁اولین": 3847,
      "▁کردنش": 3848,
      "خشد": 3849,
      "▁مهارت": 3850,
      "تونن": 3851,
      "کوچولو": 3852,
      "▁بپیوند": 3853,
      "▁مرموز": 3854,
      "▁گوزن": 3855,
      "▁نیفت": 3856,
      "کتی": 3857,
      "▁ور": 3858,
      "▁تيم": 3859,
      "▁گاراژ": 3860,
      "▁دیدم": 3861,
      "دارم": 3862,
      "جنی": 3863,
      "▁نرفت": 3864,
      "▁فقیر": 3865,
      "توس": 3866,
      "▁یون": 3867,
      "▁سینی": 3868,
      "▁نشانه": 3869,
      "پاش": 3870,
      "▁تفری": 3871,
      "▁نفر": 3872,
      "▁شور": 3873,
      "▁جت": 3874,
      "▁هتل": 3875,
      "▁سرباز": 3876,
      "▁گلابی": 3877,
      "▁فراو": 3878,
      "▁شیطنت": 3879,
      "ژی": 3880,
      "انس": 3881,
      "▁صاد": 3882,
      "▁دلقک": 3883,
      "▁اسک": 3884,
      "▁بنویسد": 3885,
      "▁تنقلات": 3886,
      "▁انقدر": 3887,
      "تم": 3888,
      "▁حقیقت": 3889,
      "▁امتحانش": 3890,
      "▁ماسک": 3891,
      "▁دیوانه": 3892,
      "▁شادمانه": 3893,
      "▁مری": 3894,
      "▁چگونه": 3895,
      "صبح": 3896,
      "▁دخت": 3897,
      "▁زي": 3898,
      "نجاق": 3899,
      "▁تابلوی": 3900,
      "▁بیمارستان": 3901,
      "زین": 3902,
      "▁موافق": 3903,
      "▁پرده": 3904,
      "ناراحت": 3905,
      "یکلت": 3906,
      "▁آزمون": 3907,
      "اتو": 3908,
      "▁بابی": 3909,
      "▁میکنم": 3910,
      "▁قوه": 3911,
      "▁یادآوری": 3912,
      "زم": 3913,
      "▁تف": 3914,
      "▁معذرت": 3915,
      "▁پیچید": 3916,
      "▁زنجیر": 3917,
      "طرنج": 3918,
      "▁ماجراجو": 3919,
      "ed": 3920,
      "ضر": 3921,
      "▁دارو": 3922,
      "▁موزه": 3923,
      "کشند": 3924,
      "▁داستانی": 3925,
      "▁ریشه": 3926,
      "▁آسیاب": 3927,
      "جیک": 3928,
      "▁عصا": 3929,
      "▁پرداخت": 3930,
      "▁برگردند": 3931,
      "▁فلوت": 3932,
      "منتظر": 3933,
      "▁سرگیجه": 3934,
      "عالیه": 3935,
      "▁تعطیل": 3936,
      "هرگز": 3937,
      "▁زانو": 3938,
      "▁زودتر": 3939,
      "▁پرسروصدا": 3940,
      "انده": 3941,
      "▁رکس": 3942,
      "▁معد": 3943,
      "▁بهشون": 3944,
      "▁دهان": 3945,
      "▁شنیده": 3946,
      "▁بخشی": 3947,
      "▁دي": 3948,
      "ودر": 3949,
      "▁نیا": 3950,
      "▁بلافاصله": 3951,
      "▁بنواز": 3952,
      "▁بخشنده": 3953,
      "وح": 3954,
      "زمینی": 3955,
      "عصبانی": 3956,
      "▁وید": 3957,
      "▁دوند": 3958,
      "▁ماجر": 3959,
      "▁مشهور": 3960,
      "هواپیم": 3961,
      "▁شمردن": 3962,
      "▁جادوگر": 3963,
      "▁نس": 3964,
      "كرد": 3965,
      "▁برنج": 3966,
      "▁چوبدستی": 3967,
      "برا": 3968,
      "▁‫": 3969,
      "لیک": 3970,
      "▁جار": 3971,
      "سرش": 3972,
      "▁زو": 3973,
      "خواهر": 3974,
      "▁متحد": 3975,
      "اگه": 3976,
      "▁خلا": 3977,
      "▁پلی": 3978,
      "▁نیز": 3979,
      "گذارند": 3980,
      "▁دقیقا": 3981,
      "▁خاطرات": 3982,
      "▁لجباز": 3983,
      "جای": 3984,
      "▁بتونه": 3985,
      "▁مکث": 3986,
      "فردا": 3987,
      "▁برساند": 3988,
      "دزد": 3989,
      "مبول": 3990,
      "▁آبن": 3991,
      "▁خوشحالند": 3992,
      "▁تحویل": 3993,
      "هرچه": 3994,
      "▁اسمش": 3995,
      "▁صدایش": 3996,
      "▁بوسه": 3997,
      "▁ریزه": 3998,
      "آمدند": 3999,
      "گشتند": 4000,
      "▁مضطر": 4001,
      "▁بیایید": 4002,
      "▁سپری": 4003,
      "▁جمجمه": 4004,
      "▁باستانی": 4005,
      "▁داشتم": 4006,
      "▁چهار": 4007,
      "کنون": 4008,
      "▁سیاره": 4009,
      "صندلی": 4010,
      "▁سرما": 4011,
      "▁نشود": 4012,
      "▁خرو": 4013,
      "▁متأسف": 4014,
      "▁برنگشت": 4015,
      "▁ناز": 4016,
      "▁قیمت": 4017,
      "▁پراک": 4018,
      "▁شهرک": 4019,
      "▁مالید": 4020,
      "▁سرزمینی": 4021,
      "چشمان": 4022,
      "▁جون": 4023,
      "▁ماجراهای": 4024,
      "▁ظرفشویی": 4025,
      "▁منقارش": 4026,
      "مبیل": 4027,
      "لوله": 4028,
      "▁نیرو": 4029,
      "مریم": 4030,
      "▁پراکنده": 4031,
      "▁دستی": 4032,
      "برج": 4033,
      "▁بپره": 4034,
      "▁نوکش": 4035,
      "▁گیتار": 4036,
      "▁دلت": 4037,
      "▁لا": 4038,
      "▁انداختند": 4039,
      "دانی": 4040,
      "▁دلفین": 4041,
      "▁لنگ": 4042,
      "▁شادمانی": 4043,
      "پل": 4044,
      "▁عظیم": 4045,
      "▁كن": 4046,
      "▁صادق": 4047,
      "▁قارچ": 4048,
      "ویسکرز": 4049,
      "▁ندیدند": 4050,
      "افتاد": 4051,
      "▁غریبه": 4052,
      "▁متواضع": 4053,
      "بعدش": 4054,
      "▁بدهید": 4055,
      "▁كردند": 4056,
      "▁حک": 4057,
      "▁برپا": 4058,
      "▁بشکه": 4059,
      "آرام": 4060,
      "▁یوگا": 4061,
      "▁خوشحالم": 4062,
      "▁بیاد": 4063,
      "مطمئن": 4064,
      "▁امنی": 4065,
      "▁ضخیم": 4066,
      "▁مطالعه": 4067,
      "هارش": 4068,
      "▁نکنند": 4069,
      "▁خوبیه": 4070,
      "مبولانس": 4071,
      "▁نمک": 4072,
      "▁گلف": 4073,
      "▁محتا": 4074,
      "▁جوجه": 4075,
      "▁میزد": 4076,
      "▁گچ": 4077,
      "▁توله": 4078,
      "▁تاکسی": 4079,
      "▁دنباله": 4080,
      "▁باغش": 4081,
      "▁محتاط": 4082,
      "▁ژ": 4083,
      "▁شطرنج": 4084,
      "▁یعنی": 4085,
      "▁معبد": 4086,
      "▁باهوشی": 4087,
      "▁بلندش": 4088,
      "▁لوبیا": 4089,
      "▁سردش": 4090,
      "▁حرکات": 4091,
      "▁دانش": 4092,
      "▁چاه": 4093,
      "خداحافظ": 4094,
      "▁طر": 4095,
      "گذروند": 4096,
      "▁حوصله": 4097,
      "ارچی": 4098,
      "ترش": 4099,
      "▁کبریت": 4100,
      "▁تله": 4101,
      "الیه": 4102,
      "▁امو": 4103,
      "▁ناشن": 4104,
      "▁مضطرب": 4105,
      "▁مانند": 4106,
      "اورد": 4107,
      "پیو": 4108,
      "▁خربزه": 4109,
      "▁نیزه": 4110,
      "کوتر": 4111,
      "▁اصرار": 4112,
      "بذار": 4113,
      "▁قرص": 4114,
      "▁ترومپت": 4115,
      "▁گردو": 4116,
      "لر": 4117,
      "وارد": 4118,
      "مسابقه": 4119,
      "▁بذر": 4120,
      "▁چیدن": 4121,
      "▁غاز": 4122,
      "لرزید": 4123,
      "پو": 4124,
      "▁چیزای": 4125,
      "▁محبوبش": 4126,
      "▁دروغ": 4127,
      "آقا": 4128,
      "یار": 4129,
      "▁لباسش": 4130,
      "▁نوک": 4131,
      "▁موفقی": 4132,
      "▁برسند": 4133,
      "یفی": 4134,
      "▁محل": 4135,
      "▁شرمنده": 4136,
      "داستان": 4137,
      "▁بخوانند": 4138,
      "▁بشیم": 4139,
      "▁جواهرات": 4140,
      "▁تعطیلات": 4141,
      "قیمت": 4142,
      "ستگی": 4143,
      "▁جیم": 4144,
      "▁چکار": 4145,
      "▁فرمان": 4146,
      "ممنونم": 4147,
      "▁تخیل": 4148,
      "جری": 4149,
      "▁مگس": 4150,
      "▁چوبی": 4151,
      "▁انگشتش": 4152,
      "شنید": 4153,
      "▁آتشفشان": 4154,
      "کفش": 4155,
      "▁پودر": 4156,
      "رسیکلت": 4157,
      "▁مزاح": 4158,
      "علی": 4159,
      "▁نگفت": 4160,
      "گذراند": 4161,
      "▁مودار": 4162,
      "درد": 4163,
      "وایی": 4164,
      "گوسفند": 4165,
      "▁وسیله": 4166,
      "▁رادیو": 4167,
      "لیسا": 4168,
      "▁نسبت": 4169,
      "▁الا": 4170,
      "▁کوتاهی": 4171,
      "▁شعله": 4172,
      "نوی": 4173,
      "▁ریا": 4174,
      "▁زغال": 4175,
      "▁کیکی": 4176,
      "▁قلم": 4177,
      "▁متفاوتی": 4178,
      "▁افتادن": 4179,
      "▁غریب": 4180,
      "▁نیرومند": 4181,
      "پیوتر": 4182,
      "بلو": 4183,
      "▁پاپ": 4184,
      "▁بزرگه": 4185,
      "▁گرمش": 4186,
      "▁بخیر": 4187,
      "▁نوشیدنی": 4188,
      "زمانی": 4189,
      "عکس": 4190,
      "پنج": 4191,
      "▁آهی": 4192,
      "▁پوشیدند": 4193,
      "وریل": 4194,
      "▁تفریح": 4195,
      "علاقه": 4196,
      "▁خوشم": 4197,
      "کردم": 4198,
      "▁تقل": 4199,
      "▁چمدان": 4200,
      "گوی": 4201,
      "▁محبت": 4202,
      "اشک": 4203,
      "▁چایی": 4204,
      "▁طلا": 4205,
      "▁شعر": 4206,
      "آمو": 4207,
      "▁پال": 4208,
      "▁آووکادو": 4209,
      "طبل": 4210,
      "گلی": 4211,
      "▁شیرجه": 4212,
      "▁مطی": 4213,
      "▁بکشند": 4214,
      "▁ببری": 4215,
      "▁قابلمه": 4216,
      "▁سینک": 4217,
      "▁نشستن": 4218,
      "▁مجله": 4219,
      "رپی": 4220,
      "▁رعد": 4221,
      "▁نخواهد": 4222,
      "▁بیس": 4223,
      "▁دقیق": 4224,
      "▁‌": 4225,
      "▁سپر": 4226,
      "▁سنجاق": 4227,
      "▁قاب": 4228,
      "رفی": 4229,
      "تنها": 4230,
      "▁تان": 4231,
      "▁آرد": 4232,
      "کیل": 4233,
      "قهرمان": 4234,
      "▁بخواهد": 4235,
      "زیبا": 4236,
      "▁دوستانت": 4237,
      "▁ببره": 4238,
      "رن": 4239,
      "▁لبه": 4240,
      "سیس": 4241,
      "▁بازو": 4242,
      "▁زیباتر": 4243,
      "شنوند": 4244,
      "▁شوکه": 4245,
      "بلند": 4246,
      "▁امواج": 4247,
      "▁ناب": 4248,
      "▁پنی": 4249,
      "▁هلو": 4250,
      "نوعی": 4251,
      "▁بح": 4252,
      "لاح": 4253,
      "▁فرست": 4254,
      "لمون": 4255,
      "اسبی": 4256,
      "تع": 4257,
      "سند": 4258,
      "▁میکردند": 4259,
      "▁سردرگ": 4260,
      "▁بچرخد": 4261,
      "▁توسط": 4262,
      "روط": 4263,
      "▁لي": 4264,
      "▁عمه": 4265,
      "▁ترین": 4266,
      "پیت": 4267,
      "ou": 4268,
      "پیر": 4269,
      "▁عبرت": 4270,
      "تور": 4271,
      "موعه": 4272,
      "▁پاداش": 4273,
      "شاد": 4274,
      "▁بدجنسی": 4275,
      "قیم": 4276,
      "نای": 4277,
      "▁ریاضی": 4278,
      "▁مان": 4279,
      "▁کاج": 4280,
      "▁پوشیدن": 4281,
      "▁مضحک": 4282,
      "ماه": 4283,
      "▁خش": 4284,
      "یکبار": 4285,
      "▁بحث": 4286,
      "نهنگ": 4287,
      "▁ترسناکی": 4288,
      "▁آسانسور": 4289,
      "▁بگردد": 4290,
      "▁بوقلمون": 4291,
      "▁مالی": 4292,
      "امیلی": 4293,
      "▁مستبد": 4294,
      "▁نیازی": 4295,
      "▁درستش": 4296,
      "▁آفتابگردان": 4297,
      "▁شکایت": 4298,
      "▁ابرهای": 4299,
      "زو": 4300,
      "▁بارون": 4301,
      "خوری": 4302,
      "دانند": 4303,
      "اومد": 4304,
      "▁مصنوعی": 4305,
      "▁جیمی": 4306,
      "کشیدند": 4307,
      "▁زیبایش": 4308,
      "▁بریزد": 4309,
      "▁آبنبات": 4310,
      "▁نقره": 4311,
      "▁بشی": 4312,
      "موشک": 4313,
      "غن": 4314,
      "▁اعداد": 4315,
      "يدند": 4316,
      "ئا": 4317,
      "▁کارتون": 4318,
      "▁کمتر": 4319,
      "▁نواختن": 4320,
      "اتی": 4321,
      "▁باهات": 4322,
      "▁دستگیره": 4323,
      "▁متنفر": 4324,
      "▁حفظ": 4325,
      "ئاتر": 4326,
      "▁حمایت": 4327,
      "▁بالگرد": 4328,
      "▁تکیه": 4329,
      "زمه": 4330,
      "▁شلنگ": 4331,
      "▁جرقه": 4332,
      "▁افراد": 4333,
      "▁ار": 4334,
      "انورد": 4335,
      "▁اسکوتر": 4336,
      "همزمان": 4337,
      "▁مربع": 4338,
      "ترسیدند": 4339,
      "▁جابجا": 4340,
      "دوی": 4341,
      "▁خستگی": 4342,
      "▁شلیک": 4343,
      "ینم": 4344,
      "▁زرافه": 4345,
      "▁زیتون": 4346,
      "▁مبار": 4347,
      "▁طبیعت": 4348,
      "▁هورا": 4349,
      "ثیر": 4350,
      "▁r": 4351,
      "▁گلی": 4352,
      "متاسفیم": 4353,
      "▁بمانی": 4354,
      "▁زیباترین": 4355,
      "شنبه": 4356,
      "▁رمان": 4357,
      "▁سوی": 4358,
      "▁قایقش": 4359,
      "▁تولدش": 4360,
      "▁راهش": 4361,
      "▁پشتش": 4362,
      "ژدهای": 4363,
      "▁آی": 4364,
      "▁هاکی": 4365,
      "▁پیانو": 4366,
      "گذاشتند": 4367,
      "ربا": 4368,
      "پن": 4369,
      "ترسم": 4370,
      "▁باشن": 4371,
      "رژی": 4372,
      "بارید": 4373,
      "پرند": 4374,
      "▁خلاصه": 4375,
      "▁تاسف": 4376,
      "مری": 4377,
      "▁آجر": 4378,
      "▁تونی": 4379,
      "▁دودکش": 4380,
      "▁توقف": 4381,
      "ونست": 4382,
      "▁مهربانانه": 4383,
      "▁c": 4384,
      "اشون": 4385,
      "خندد": 4386,
      "▁کنارشان": 4387,
      "▁اهمیتی": 4388,
      "▁خون": 4389,
      "▁اینقدر": 4390,
      "کوپ": 4391,
      "برگشت": 4392,
      "مهربان": 4393,
      "▁درستی": 4394,
      "▁مجموعه": 4395,
      "▁خندان": 4396,
      "جادوگر": 4397,
      "هایمان": 4398,
      "خب": 4399,
      "گویی": 4400,
      "▁هن": 4401,
      "▁تراز": 4402,
      "▁اندی": 4403,
      "▁رنگارنگی": 4404,
      "▁اضافی": 4405,
      "رسند": 4406,
      "ختند": 4407,
      "▁برکه": 4408,
      "باسی": 4409,
      "مکنه": 4410,
      "نوزاد": 4411,
      "in": 4412,
      "or": 4413,
      "رکس": 4414,
      "▁همون": 4415,
      "▁بیایی": 4416,
      "▁خودمان": 4417,
      "دانستم": 4418,
      "▁موردعلاقه": 4419,
      "▁زانویش": 4420,
      "غلب": 4421,
      "متاسفانه": 4422,
      "بای": 4423,
      "▁غذایش": 4424,
      "▁بپرند": 4425,
      "حیوان": 4426,
      "لى": 4427,
      "▁نع": 4428,
      "▁قو": 4429,
      "▁فاسد": 4430,
      "غاز": 4431,
      "لیه": 4432,
      "لش": 4433,
      "▁آسیبی": 4434,
      "اين": 4435,
      "▁تحت": 4436,
      "▁پلاست": 4437,
      "نشانی": 4438,
      "▁یافتن": 4439,
      "▁پاند": 4440,
      "▁لجن": 4441,
      "چراغ": 4442,
      "va": 4443,
      "سره": 4444,
      "▁مارمولک": 4445,
      "▁کارخانه": 4446,
      "▁کابینت": 4447,
      "روانی": 4448,
      "صورت": 4449,
      "▁باتری": 4450,
      "▁خوند": 4451,
      "پرای": 4452,
      "▁کاک": 4453,
      "▁مخروط": 4454,
      "عزیزم": 4455,
      "شوم": 4456,
      "▁کرف": 4457,
      "▁هردو": 4458,
      "▁آمدن": 4459,
      "▁بنوازد": 4460,
      "▁مطیع": 4461,
      "▁تأ": 4462,
      "▁قان": 4463,
      "▁ترساند": 4464,
      "▁اتومبیل": 4465,
      "وانین": 4466,
      "▁بلور": 4467,
      "خسته": 4468,
      "▁اي": 4469,
      "▁قوطی": 4470,
      "بازیش": 4471,
      "▁آخرین": 4472,
      "دال": 4473,
      "▁بفر": 4474,
      "▁خارش": 4475,
      "▁بسکت": 4476,
      "▁گفتم": 4477,
      "افش": 4478,
      "▁جوک": 4479,
      "آمیز": 4480,
      "ربات": 4481,
      "▁پیروی": 4482,
      "▁فلزی": 4483,
      "▁موفقیت": 4484,
      "ستون": 4485,
      "ستوران": 4486,
      "لول": 4487,
      "▁بیای": 4488,
      "نواخت": 4489,
      "am": 4490,
      "▁نده": 4491,
      "▁بکنند": 4492,
      "▁بام": 4493,
      "▁هوای": 4494,
      "▁سنگی": 4495,
      "▁بازوی": 4496,
      "▁نشنید": 4497,
      "▁بیسبال": 4498,
      "▁فند": 4499,
      "▁کتابی": 4500,
      "▁نباشید": 4501,
      "▁مسافرت": 4502,
      "▁مشکی": 4503,
      "فرش": 4504,
      "▁بتوانی": 4505,
      "ترسد": 4506,
      "▁هرچه": 4507,
      "▁خوشگذ": 4508,
      "مینه": 4509,
      "اعت": 4510,
      "زیم": 4511,
      "▁کوله": 4512,
      "درباره": 4513,
      "▁گردش": 4514,
      "▁دخترش": 4515,
      "بخ": 4516,
      "▁روبرو": 4517,
      "▁تصویری": 4518,
      "▁فراوان": 4519,
      "اتوبوس": 4520,
      "تخم": 4521,
      "▁کودک": 4522,
      "▁بشکند": 4523,
      "▁کرفس": 4524,
      "ببر": 4525,
      "لیب": 4526,
      "▁بسکتبال": 4527,
      "بلی": 4528,
      "غافل": 4529,
      "▁مناسبی": 4530,
      "▁نگهداری": 4531,
      "▁لیزر": 4532,
      "سرسره": 4533,
      "▁تئاتر": 4534,
      "▁چیزا": 4535,
      "▁بگذاری": 4536,
      "▁کاخ": 4537,
      "لز": 4538,
      "▁لولو": 4539,
      "▁تختخواب": 4540,
      "▁موتورسیکلت": 4541,
      "▁دامن": 4542,
      "بستنی": 4543,
      "▁کاکتوس": 4544,
      "▁ساده": 4545,
      "▁زخ": 4546,
      "▁پنگوئن": 4547,
      "لوان": 4548,
      "▁ترسو": 4549,
      "▁پیام": 4550,
      "▁بنوشد": 4551,
      "▁لنگر": 4552,
      "▁ادب": 4553,
      "▁رقابتی": 4554,
      "▁p": 4555,
      "▁سفارش": 4556,
      "▁بازیچه": 4557,
      "▁جنی": 4558,
      "▁خوابیدند": 4559,
      "پیتر": 4560,
      "▁بایستد": 4561,
      "▁جویدن": 4562,
      "▁رنگش": 4563,
      "▁ایوان": 4564,
      "▁نابود": 4565,
      "▁قوانین": 4566,
      "▁بدبخت": 4567,
      "زنش": 4568,
      "سازند": 4569,
      "▁کلاغ": 4570,
      "معذرت": 4571,
      "دارند": 4572,
      "▁طلایی": 4573,
      "زنه": 4574,
      "▁روغن": 4575,
      "▁خراش": 4576,
      "▁مقاو": 4577,
      "نوب": 4578,
      "▁اغلب": 4579,
      "▁تبر": 4580,
      "▁راند": 4581,
      ".\"\n\n\"": 4582,
      "▁اردو": 4583,
      "دستش": 4584,
      "▁تونسته": 4585,
      "▁دلتنگ": 4586,
      "▁رسد": 4587,
      "ادرنگی": 4588,
      "▁ایگ": 4589,
      "▁آوردن": 4590,
      "▁پوشاند": 4591,
      "▁لغزید": 4592,
      "اژ": 4593,
      "مای": 4594,
      "ضرر": 4595,
      "پور": 4596,
      "دوستاش": 4597,
      "▁مدال": 4598,
      "▁سرسبز": 4599,
      "▁چندان": 4600,
      "▁کامپیوتر": 4601,
      "▁پستی": 4602,
      "▁زمزمه": 4603,
      "جانی": 4604,
      "▁بفرو": 4605,
      "خندیدن": 4606,
      "▁ببینید": 4607,
      "کوسه": 4608,
      "▁چرخاند": 4609,
      "▁وسایلش": 4610,
      "▁پریده": 4611,
      "▁دوستم": 4612,
      "om": 4613,
      "دلق": 4614,
      "▁فرشته": 4615,
      "▁کاکائو": 4616,
      "▁وافل": 4617,
      "▁نیک": 4618,
      "▁شف": 4619,
      "▁سری": 4620,
      "درحالی": 4621,
      "▁پیری": 4622,
      "▁گشتن": 4623,
      "زنی": 4624,
      "خواستن": 4625,
      "خواستیم": 4626,
      "▁f": 4627,
      "▁کلیسا": 4628,
      "رسیدند": 4629,
      "▁طرح": 4630,
      "الت": 4631,
      "▁دستانش": 4632,
      "▁کشو": 4633,
      "▁خرگوشی": 4634,
      "▁برگردیم": 4635,
      "▁فضا": 4636,
      "ابتدا": 4637,
      "برم": 4638,
      "گرو": 4639,
      "▁نکنی": 4640,
      "▁پو": 4641,
      "▁آمبولانس": 4642,
      "پاپی": 4643,
      "▁مشکلات": 4644,
      "▁فرودگاه": 4645,
      "فرم": 4646,
      "▁n": 4647,
      "▁رستوران": 4648,
      "▁میکس": 4649,
      "▁سنگریزه": 4650,
      "▁شومینه": 4651,
      "▁مرغابی": 4652,
      "id": 4653,
      "▁نیش": 4654,
      "▁طوطی": 4655,
      "▁نداره": 4656,
      "پسرک": 4657,
      "▁هوشیار": 4658,
      "اطرا": 4659,
      "نان": 4660,
      "▁ماف": 4661,
      "▁اف": 4662,
      "خوند": 4663,
      "▁کتابش": 4664,
      "▁جاهای": 4665,
      "▁لغزنده": 4666,
      "لذ": 4667,
      "گون": 4668,
      "▁برن": 4669,
      "بینم": 4670,
      "دلقک": 4671,
      "▁g": 4672,
      "▁براي": 4673,
      "ثر": 4674,
      "▁میشد": 4675,
      "▁دوشون": 4676,
      "نوشت": 4677,
      "زیپ": 4678,
      "▁خوای": 4679,
      "ینیم": 4680,
      "پدربزرگ": 4681,
      "▁شیطون": 4682,
      "▁نوشتن": 4683,
      "▁میکروس": 4684,
      "▁ديگر": 4685,
      "▁بابت": 4686,
      "ترجمه": 4687,
      "▁طب": 4688,
      "▁وحشتناک": 4689,
      "آلیس": 4690,
      "نوش": 4691,
      "▁چیدند": 4692,
      "▁خوابیده": 4693,
      "▁اصطبل": 4694,
      "▁چسباند": 4695,
      "en": 4696,
      "مغ": 4697,
      "گي": 4698,
      "مورد": 4699,
      "▁خواهید": 4700,
      "▁بیاورند": 4701,
      "▁آنجاست": 4702,
      "راف": 4703,
      "▁صدمه": 4704,
      "▁بگذران": 4705,
      "؟\n\n": 4706,
      "▁دره": 4707,
      "▁خندند": 4708,
      "▁گردنش": 4709,
      "هواپیما": 4710,
      "یمن": 4711,
      "▁مرط": 4712,
      "خوابید": 4713,
      "پلنگ": 4714,
      "▁خودتان": 4715,
      "گذار": 4716,
      "▁ویول": 4717,
      "فریاد": 4718,
      "گن": 4719,
      "▁دادم": 4720,
      "▁بخار": 4721,
      "▁تیزی": 4722,
      "▁اضطر": 4723,
      "▁پشمال": 4724,
      "▁پدال": 4725,
      "▁کوزه": 4726,
      "▁روشنی": 4727,
      "زنگ": 4728,
      "عیت": 4729,
      "▁عصبانیت": 4730,
      "▁تیغ": 4731,
      "زندگی": 4732,
      "▁نخور": 4733,
      "▁آلو": 4734,
      "▁شوالیه": 4735,
      "▁بندر": 4736,
      "▁مصمم": 4737,
      "چار": 4738,
      "گوزن": 4739,
      "▁کاشت": 4740,
      "هایتان": 4741,
      "قر": 4742,
      "کجا": 4743,
      "▁کرگدن": 4744,
      "آرایش": 4745,
      "▁هستن": 4746,
      "فروشنده": 4747,
      "▁خدا": 4748,
      "رانده": 4749,
      "‌‌‌‌": 4750,
      "▁نوشیدن": 4751,
      "▁تفنگ": 4752,
      "▁باورش": 4753,
      "▁خل": 4754,
      "▁شدیم": 4755,
      "▁شیک": 4756,
      "خوبه": 4757,
      "▁کوب": 4758,
      "ساعت": 4759,
      "▁سردرگم": 4760,
      "یذ": 4761,
      "▁بشود": 4762,
      "▁فردی": 4763,
      "گم": 4764,
      "▁شنیدن": 4765,
      "▁فریزر": 4766,
      "▁چمنزار": 4767,
      "▁بمونه": 4768,
      "شکریم": 4769,
      "سخت": 4770,
      "▁روزگار": 4771,
      "تابه": 4772,
      "يه": 4773,
      "▁چيز": 4774,
      "▁شادمان": 4775,
      "جوجه": 4776,
      "جم": 4777,
      "▁مى": 4778,
      "▁برداری": 4779,
      "▁شستن": 4780,
      "کلاغ": 4781,
      "▁صلیب": 4782,
      "▁بدزد": 4783,
      "لذت": 4784,
      "آیند": 4785,
      "▁پافش": 4786,
      "▁نگاهش": 4787,
      "▁بازش": 4788,
      "▁انرژی": 4789,
      "▁احتیاج": 4790,
      "▁کیم": 4791,
      "▁خرط": 4792,
      "▁بگذار": 4793,
      "▁ماندن": 4794,
      "متأسفانه": 4795,
      "آواز": 4796,
      "گیرم": 4797,
      "▁بردارند": 4798,
      "▁مدادرنگی": 4799,
      "▁درخشش": 4800,
      "سبز": 4801,
      "پرا": 4802,
      "▁پاست": 4803,
      "▁دوستانم": 4804,
      "▁گذرانده": 4805,
      "▁پسرک": 4806,
      "▁توانایی": 4807,
      "▁جهید": 4808,
      "پیدی": 4809,
      "شاخ": 4810,
      "▁راکت": 4811,
      "▁نرو": 4812,
      "▁پشه": 4813,
      "▁حموم": 4814,
      "▁پاکی": 4815,
      "رده": 4816,
      "▁نزن": 4817,
      "▁ساز": 4818,
      "ریزی": 4819,
      "▁لذیذ": 4820,
      "▁عصبی": 4821,
      "اولی": 4822,
      "دوچرخه": 4823,
      "▁ببرید": 4824,
      "▁سایر": 4825,
      "اص": 4826,
      "▁دسر": 4827,
      "▁غی": 4828,
      "▁آبگیر": 4829,
      "▁ویل": 4830,
      "▁درآوردند": 4831,
      "▁پلاستیکی": 4832,
      "▁قانون": 4833,
      "ad": 4834,
      "es": 4835,
      "لح": 4836,
      "▁برابر": 4837,
      "پایین": 4838,
      "▁زنبورها": 4839,
      "▁پخته": 4840,
      "▁بدنش": 4841,
      "▁برداریم": 4842,
      "▁بمانیم": 4843,
      "▁فندق": 4844,
      "لط": 4845,
      "ایشان": 4846,
      "▁جد": 4847,
      "▁قصد": 4848,
      "▁نگرفت": 4849,
      "▁مهربونی": 4850,
      "اضر": 4851,
      "مك": 4852,
      "▁ناشی": 4853,
      "▁بزرگترین": 4854,
      "▁بیام": 4855,
      "تونید": 4856,
      "▁in": 4857,
      "▁رؤیا": 4858,
      "▁معدن": 4859,
      "▁مقاومت": 4860,
      "بنده": 4861,
      "▁دوس": 4862,
      "توت": 4863,
      "▁مریم": 4864,
      "▁یخی": 4865,
      "▁جارو": 4866,
      "▁مرطوب": 4867,
      "عمه": 4868,
      "فلافی": 4869,
      "نکی": 4870,
      "▁بلکه": 4871,
      "▁تنبیه": 4872,
      "بش": 4873,
      "ژیر": 4874,
      "▁دانم": 4875,
      "اسپا": 4876,
      "غلت": 4877,
      "▁لوسیون": 4878,
      "▁نرمش": 4879,
      "▁سفری": 4880,
      "▁شرمندگی": 4881,
      "▁شماره": 4882,
      "▁بترساند": 4883,
      "▁مرکز": 4884,
      "▁میده": 4885,
      "▁سوسیس": 4886,
      "▁مقدار": 4887,
      "▁اشکالی": 4888,
      "▁تهیه": 4889,
      "li": 4890,
      "کدو": 4891,
      "▁اژدهای": 4892,
      "▁پرستار": 4893,
      "▁بپرم": 4894,
      "▁برگردوند": 4895,
      "▁زوم": 4896,
      "▁بریدن": 4897,
      "رهنگ": 4898,
      "▁بپزد": 4899,
      "▁پذیرفت": 4900,
      "▁ارزشم": 4901,
      "پشمک": 4902,
      "نور": 4903,
      "▁اومده": 4904,
      "سمی": 4905,
      "▁کابل": 4906,
      "▁میرفت": 4907,
      "دانگه": 4908,
      "نبه": 4909,
      "▁جوهر": 4910,
      "▁بسازم": 4911,
      "▁لاغر": 4912,
      "oo": 4913,
      "شوی": 4914,
      "لیمو": 4915,
      "▁یکبار": 4916,
      "متشکریم": 4917,
      "▁شکم": 4918,
      "▁نگهش": 4919,
      "▁تقویم": 4920,
      "▁ممنونم": 4921,
      "دانگهدار": 4922,
      "چس": 4923,
      "احه": 4924,
      "▁تماس": 4925,
      "داکی": 4926,
      "پرایز": 4927,
      "آدم": 4928,
      "نگه": 4929,
      "بزودی": 4930,
      "▁تابه": 4931,
      "تاینی": 4932,
      "▁مهمه": 4933,
      "گرفتند": 4934,
      "▁بخورید": 4935,
      "لانه": 4936,
      "میت": 4937,
      "▁سوزی": 4938,
      "کشتی": 4939,
      "▁مزاحم": 4940,
      "▁مافین": 4941,
      "زرد": 4942,
      "بهتر": 4943,
      "▁رشته": 4944,
      "▁پسرکی": 4945,
      "▁فرص": 4946,
      "▁میدم": 4947,
      "▁کسانی": 4948,
      "والدینش": 4949,
      "▁یونجه": 4950,
      "▁نازک": 4951,
      "خدانگهدار": 4952,
      "▁بهبود": 4953,
      "▁پلنگ": 4954,
      "دانه": 4955,
      "▁کثیفی": 4956,
      "▁پلیور": 4957,
      "طرف": 4958,
      "یرش": 4959,
      "▁زخمی": 4960,
      "ay": 4961,
      "هاست": 4962,
      "▁زندان": 4963,
      "▁حاضر": 4964,
      "▁اساس": 4965,
      "ونم": 4966,
      "▁افتد": 4967,
      "▁طوری": 4968,
      "▁شامپو": 4969,
      "زود": 4970,
      "زاری": 4971,
      "▁انسان": 4972,
      "▁شراب": 4973,
      "▁میکسر": 4974,
      "▁آل": 4975,
      "▁فن": 4976,
      "مکان": 4977,
      "▁غلات": 4978,
      "▁بخونه": 4979,
      "نشون": 4980,
      "گویم": 4981,
      "خوشم": 4982,
      "کمکم": 4983,
      "▁واژ": 4984,
      "هردو": 4985,
      "ومد": 4986,
      "اسنج": 4987,
      "کنار": 4988,
      "▁سمتش": 4989,
      "▁بادبان": 4990,
      "هیجان": 4991,
      "▁ماساژ": 4992,
      "دع": 4993,
      "▁دستور": 4994,
      "بینه": 4995,
      "▁دیوارها": 4996,
      "▁انگیزی": 4997,
      "▁بپیوندد": 4998,
      "▁va": 4999,
      "▁گه": 5000,
      "▁دامپزشک": 5001,
      "راهی": 5002,
      "▁کاش": 5003,
      "توبی": 5004,
      "▁اتاقت": 5005,
      "▁اتاقی": 5006,
      "بدون": 5007,
      "▁اخت": 5008,
      "▁تاری": 5009,
      "▁بگردند": 5010,
      "▁کای": 5011,
      "▁مزه": 5012,
      "گورو": 5013,
      "▁بيرون": 5014,
      "▁بلیت": 5015,
      "▁شل": 5016,
      "مندی": 5017,
      "بادبادک": 5018,
      "شاهدخت": 5019,
      "▁طلسم": 5020,
      "▁رع": 5021,
      "▁میکنی": 5022,
      "▁بعدش": 5023,
      "▁بنشینند": 5024,
      "▁پاکیزه": 5025,
      "سانی": 5026,
      "میک": 5027,
      "میلی": 5028,
      "مداد": 5029,
      "▁شادتر": 5030,
      "▁دون": 5031,
      "▁جایش": 5032,
      "▁زبر": 5033,
      "انداز": 5034,
      "▁مترو": 5035,
      "▁فرستاد": 5036,
      "داره": 5037,
      "لمش": 5038,
      "▁ردی": 5039,
      "▁بدانند": 5040,
      "▁بازویش": 5041,
      "▁کشند": 5042,
      "▁be": 5043,
      "▁کارهایی": 5044,
      "خوشبخت": 5045,
      "▁بکشیم": 5046,
      "▁ویدیو": 5047,
      "آش": 5048,
      "بسی": 5049,
      "▁بکنی": 5050,
      "▁بنزین": 5051,
      "▁نداری": 5052,
      "▁بارانی": 5053,
      "▁شکمش": 5054,
      "بوقل": 5055,
      "▁اومدن": 5056,
      "▁میکروسکوپ": 5057,
      "▁رعایت": 5058,
      "بوقلمون": 5059,
      "شهر": 5060,
      "▁سق": 5061,
      "▁معما": 5062,
      "▁شماست": 5063,
      "▁لاستیکی": 5064,
      "جنگل": 5065,
      "▁نیفتاد": 5066,
      "▁اپرا": 5067,
      "ابد": 5068,
      "▁توئه": 5069,
      "▁نقلیه": 5070,
      "▁آموزش": 5071,
      "▁ترازو": 5072,
      "خوشمزه": 5073,
      "لد": 5074,
      "▁خزید": 5075,
      "▁آور": 5076,
      "رشی": 5077,
      "▁گذر": 5078,
      "▁غذاها": 5079,
      "حو": 5080,
      "ابه": 5081,
      "▁شجاعی": 5082,
      "آرایشگر": 5083,
      "▁سخ": 5084,
      "▁بخوانیم": 5085,
      "خوردن": 5086,
      "بره": 5087,
      "▁بخشید": 5088,
      "▁کان": 5089,
      "▁وادار": 5090,
      "▁کندن": 5091,
      "ریق": 5092,
      "▁ببخش": 5093,
      "▁ملای": 5094,
      "▁امیلی": 5095,
      "▁عطر": 5096,
      "▁فرض": 5097,
      "وحش": 5098,
      "▁واژگون": 5099,
      "یخ": 5100,
      "▁تاینی": 5101,
      "یکس": 5102,
      "▁تونم": 5103,
      "انجامش": 5104,
      "▁لغت": 5105,
      "▁منظم": 5106,
      "▁اسکلت": 5107,
      "▁دادید": 5108,
      "▁خواستم": 5109,
      "سرباز": 5110,
      "▁پنکه": 5111,
      "▁جلسه": 5112,
      "▁and": 5113,
      "▁تعداد": 5114,
      "امپ": 5115,
      "▁جاز": 5116,
      "▁استعداد": 5117,
      "▁گردند": 5118,
      "▁همینطور": 5119,
      "▁فکری": 5120,
      "▁شفاف": 5121,
      "شتی": 5122,
      "▁نداریم": 5123,
      "▁فروتن": 5124,
      "▁بشوید": 5125,
      "▁چنگالش": 5126,
      "▁کشد": 5127,
      "کیسه": 5128,
      "▁تعظیم": 5129,
      "مگس": 5130,
      "سوز": 5131,
      "▁غیرم": 5132,
      "شمام": 5133,
      "لولو": 5134,
      "▁کلاهی": 5135,
      "▁شنود": 5136,
      "▁جابه": 5137,
      "▁پناهگاه": 5138,
      "▁اطاعت": 5139,
      "هد": 5140,
      "▁ترم": 5141,
      "▁قا": 5142,
      "▁برگشته": 5143,
      "بزرگی": 5144,
      "حباب": 5145,
      "خطر": 5146,
      "▁بیایم": 5147,
      "▁نشیمن": 5148,
      "▁مخال": 5149,
      "▁تانک": 5150,
      "▁نعنا": 5151,
      "▁میگه": 5152,
      "▁آزار": 5153,
      "▁سرزنده": 5154,
      "ترسیده": 5155,
      "▁جشنواره": 5156,
      "▁اصلاح": 5157,
      "▁آزمایشگاه": 5158,
      "غافلگیری": 5159,
      "شاهی": 5160,
      "پلیس": 5161,
      "کده": 5162,
      "▁بکنم": 5163,
      "▁دوتا": 5164,
      "باعث": 5165,
      "▁بتونیم": 5166,
      "▁جاش": 5167,
      "▁بزرگسال": 5168,
      "▁دوقلوها": 5169,
      "برف": 5170,
      "لک": 5171,
      "مي": 5172,
      "▁تینا": 5173,
      "▁معنای": 5174,
      "▁آوازهای": 5175,
      "▁كوچك": 5176,
      "صف": 5177,
      "اشين": 5178,
      "▁بردارم": 5179,
      "▁كمك": 5180,
      "▁جوش": 5181,
      "▁گذرانند": 5182,
      "▁نماد": 5183,
      "▁وفل": 5184,
      "▁گروهی": 5185,
      "▁واحه": 5186,
      "▁توپت": 5187,
      "▁سرزنش": 5188,
      "▁نمید": 5189,
      "تلاش": 5190,
      "دقی": 5191,
      "سکه": 5192,
      "کرگدن": 5193,
      "▁پرهای": 5194,
      ".\".": 5195,
      "▁گذارند": 5196,
      "▁صداهایی": 5197,
      "▁بگردیم": 5198,
      "▁پوستش": 5199,
      "یی": 5200,
      "▁استشمام": 5201,
      "▁حت": 5202,
      "▁راستگو": 5203,
      "▁سور": 5204,
      "دهی": 5205,
      "▁بپوشه": 5206,
      "مرغابی": 5207,
      "صندوق": 5208,
      "ژن": 5209,
      "▁ول": 5210,
      "میخوای": 5211,
      "▁یقه": 5212,
      "▁بدوه": 5213,
      "گذشت": 5214,
      "▁نگهبان": 5215,
      "یفه": 5216,
      "▁مستقیم": 5217,
      "جیپ": 5218,
      "هارشنبه": 5219,
      "▁باهاشون": 5220,
      "▁برداره": 5221,
      "▁جادوی": 5222,
      "فرنگی": 5223,
      "▁هدایت": 5224,
      "▁شهری": 5225,
      "▁مانع": 5226,
      "يشه": 5227,
      "▁اسپری": 5228,
      "▁صرف": 5229,
      "▁سریعا": 5230,
      "▁بروید": 5231,
      "▁میکردن": 5232,
      "▁خلاقانه": 5233,
      "▁ورزشگاه": 5234,
      "بلوک": 5235,
      "طناب": 5236,
      "▁مچ": 5237,
      "ایل": 5238,
      "▁سرو": 5239,
      "▁استخو": 5240,
      "صدف": 5241,
      "▁براقی": 5242,
      "انت": 5243,
      "▁میتونم": 5244,
      "▁میتونه": 5245,
      "جوری": 5246,
      "خشان": 5247,
      "طوطی": 5248,
      "کوب": 5249,
      "▁ستون": 5250,
      "▁کاه": 5251,
      "▁ون": 5252,
      "▁چپ": 5253,
      "▁فرهنگ": 5254,
      "سیگاری": 5255,
      "انداخت": 5256,
      "قابل": 5257,
      "آورند": 5258,
      "▁دانشگاه": 5259,
      "▁ملایمت": 5260,
      "مج": 5261,
      "▁چیرپی": 5262,
      "▁پاپی": 5263,
      "؟\"\n\"": 5264,
      "تصوی": 5265,
      "▁شلوغ": 5266,
      "جور": 5267,
      "▁ارت": 5268,
      "ستند": 5269,
      "▁غبار": 5270,
      "▁نبوده": 5271,
      "▁ببخشد": 5272,
      "▁ایکس": 5273,
      "موسیقی": 5274,
      "گردم": 5275,
      "▁واقع": 5276,
      "دونستن": 5277,
      "▁داشتیم": 5278,
      "▁کورن": 5279,
      "▁منم": 5280,
      "بندی": 5281,
      "▁میداد": 5282,
      "▁درخشیدن": 5283,
      "▁حیوون": 5284,
      "شاخه": 5285,
      "ظرف": 5286,
      "ینامه": 5287,
      "▁کنتر": 5288,
      "اهینامه": 5289,
      "▁بکشم": 5290,
      "▁برگرداندند": 5291,
      "▁پاشیدن": 5292,
      "▁اینو": 5293,
      "▁باشک": 5294,
      "▁مسئ": 5295,
      "▁ایستادند": 5296,
      "▁سقوط": 5297,
      "▁اره": 5298,
      "▁لباسی": 5299,
      "▁دستگاه": 5300,
      "▁کیست": 5301,
      "▁حسود": 5302,
      "▁همزمان": 5303,
      "ناکه": 5304,
      "نیاز": 5305,
      "▁پیتر": 5306,
      "▁موجودات": 5307,
      "▁شمارش": 5308,
      "▁بدزدد": 5309,
      "تینا": 5310,
      "▁بگویند": 5311,
      "▁دهنش": 5312,
      "▁نوع": 5313,
      "▁غذایشان": 5314,
      "مارمولک": 5315,
      "يار": 5316,
      "هام": 5317,
      "▁دورتر": 5318,
      "▁مدل": 5319,
      "حات": 5320,
      "نرم": 5321,
      "▁اکنون": 5322,
      "▁وگر": 5323,
      "▁توالت": 5324,
      "مارد": 5325,
      "▁سالن": 5326,
      "▁قلاده": 5327,
      "فاوت": 5328,
      "بخشم": 5329,
      "▁خلبان": 5330,
      "▁وگرنه": 5331,
      "کنجکاو": 5332,
      "▁بشمارد": 5333,
      "دارید": 5334,
      "فهمیدند": 5335,
      "▁كوچولو": 5336,
      "▁کدوی": 5337,
      "▁ملت": 5338,
      "▁شتاب": 5339,
      "اوی": 5340,
      "▁احساسات": 5341,
      "رفه": 5342,
      "اونجا": 5343,
      "▁آژیر": 5344,
      "▁براند": 5345,
      "▁موی": 5346,
      "انگشت": 5347,
      "▁چر": 5348,
      "▁گرفتم": 5349,
      "کاغذ": 5350,
      "▁آرایشگر": 5351,
      "چهار": 5352,
      "یای": 5353,
      "▁دوخت": 5354,
      "▁بخوانم": 5355,
      "▁چسبیده": 5356,
      "▁ماجرای": 5357,
      "دایناسور": 5358,
      "قان": 5359,
      "▁ني": 5360,
      "لاف": 5361,
      "▁بخرم": 5362,
      "▁مقوایی": 5363,
      "رساند": 5364,
      "اطراف": 5365,
      "▁گهواره": 5366,
      "موی": 5367,
      "کیکی": 5368,
      "یکن": 5369,
      "▁کندو": 5370,
      "بیای": 5371,
      ".\"\n\"": 5372,
      "▁شبکه": 5373,
      "▁پولش": 5374,
      "▁گنجینه": 5375,
      "▁پیتز": 5376,
      "وگرنه": 5377,
      "▁پالتوی": 5378,
      "▁دند": 5379,
      "▁دیدی": 5380,
      "▁لوس": 5381,
      "▁معروف": 5382,
      "بینکی": 5383,
      "گرداند": 5384,
      "▁غرق": 5385,
      "▁میدان": 5386,
      "ard": 5387,
      "▁حکیم": 5388,
      "▁کنترل": 5389,
      "زوم": 5390,
      "صی": 5391,
      "▁مادرانشان": 5392,
      "▁تلف": 5393,
      "▁تمیزش": 5394,
      "▁غلتیدن": 5395,
      "▁زانوی": 5396,
      "زومی": 5397,
      "▁بفروشد": 5398,
      "hi": 5399,
      "رای": 5400,
      "▁داشتی": 5401,
      "▁برسه": 5402,
      "خودش": 5403,
      "رافیک": 5404,
      "دقیقا": 5405,
      "سازی": 5406,
      "▁دش": 5407,
      "▁دف": 5408,
      "▁شغل": 5409,
      "▁روي": 5410,
      "مانده": 5411,
      "متأسفیم": 5412,
      "▁بذاره": 5413,
      "ثقی": 5414,
      "سرگ": 5415,
      "▁شتر": 5416,
      "▁پونی": 5417,
      "▁دوستانمان": 5418,
      "▁نشو": 5419,
      "▁گرمای": 5420,
      "▁فریب": 5421,
      "بادکنک": 5422,
      "▁چشید": 5423,
      "▁خردمندی": 5424,
      "▁ژله": 5425,
      "▁کایاک": 5426,
      "ot": 5427,
      "▁گونه": 5428,
      "▁سؤ": 5429,
      "▁حری": 5430,
      "لاتی": 5431,
      "رشیروانی": 5432,
      "▁تگ": 5433,
      "▁فول": 5434,
      "▁بردی": 5435,
      "▁دهکده": 5436,
      "موهای": 5437,
      "▁دزدان": 5438,
      "▁ویولن": 5439,
      "زرافه": 5440,
      "▁اکسی": 5441,
      "▁اثر": 5442,
      "▁بات": 5443,
      "▁همدیگه": 5444,
      "▁عاق": 5445,
      "▁بردار": 5446,
      "▁گذاری": 5447,
      "شمرد": 5448,
      "▁کاپ": 5449,
      "فراموش": 5450,
      "چرخاند": 5451,
      "▁بسيار": 5452,
      "خیس": 5453,
      "نقشه": 5454,
      "جدید": 5455,
      "رنگی": 5456,
      "ساله": 5457,
      "سوراخ": 5458,
      "شیرینی": 5459,
      "▁دماسنج": 5460,
      "▁پهناور": 5461,
      "جت": 5462,
      "شبیه": 5463,
      "▁شلاق": 5464,
      "زیرا": 5465,
      "▁جعلی": 5466,
      "اینها": 5467,
      "▁سوسک": 5468,
      "افق": 5469,
      "▁پرونده": 5470,
      "موتور": 5471,
      "▁نقاش": 5472,
      "▁گذرنامه": 5473,
      "أت": 5474,
      "شر": 5475,
      "▁دادیم": 5476,
      "پیشنهاد": 5477,
      "▁شگفتی": 5478,
      "▁تاریخ": 5479,
      "خورم": 5480,
      "▁تاک": 5481,
      "▁غلط": 5482,
      "▁اتفاقات": 5483,
      "دهیم": 5484,
      "ht": 5485,
      "ترو": 5486,
      "▁ha": 5487,
      "▁خنکی": 5488,
      "یمان": 5489,
      "▁محض": 5490,
      "▁پاندا": 5491,
      "▁طریق": 5492,
      "▁سمور": 5493,
      "▁بپوشی": 5494,
      "▁چسبناک": 5495,
      "▁دنیاست": 5496,
      "تق": 5497,
      "▁وظ": 5498,
      "دنی": 5499,
      "▁مقص": 5500,
      "انید": 5501,
      "زنم": 5502,
      "▁ابرقهرمان": 5503,
      "▁بخنداند": 5504,
      "le": 5505,
      "▁منت": 5506,
      "▁پنهانی": 5507,
      "▁تندی": 5508,
      "ثقیل": 5509,
      "▁رویای": 5510,
      "؟\".": 5511,
      "▁مولی": 5512,
      "نشینند": 5513,
      "جالب": 5514,
      "▁مسیری": 5515,
      "▁نفسش": 5516,
      "▁نرفته": 5517,
      "اسپایک": 5518,
      "▁ردیف": 5519,
      "تخت": 5520,
      "▁تدی": 5521,
      "▁گوریل": 5522,
      "▁دیو": 5523,
      "▁معرفی": 5524,
      "▁سفت": 5525,
      "▁صلح": 5526,
      "▁سوزان": 5527,
      "▁داگی": 5528,
      "▁الگو": 5529,
      "▁درخشید": 5530,
      "▁دربیاورد": 5531,
      "▁ناشنوا": 5532,
      "کام": 5533,
      "▁لک": 5534,
      "پیپین": 5535,
      "دریا": 5536,
      "▁حتما": 5537,
      "▁ویر": 5538,
      "▁تأسف": 5539,
      "تولد": 5540,
      "شتر": 5541,
      "▁برگه": 5542,
      "اونو": 5543,
      "▁ترسیدن": 5544,
      "▁دریانورد": 5545,
      "▁جلوگیری": 5546,
      "▁جهان": 5547,
      "▁ایگلو": 5548,
      "▁دونست": 5549,
      "گزا": 5550,
      "▁خوشایند": 5551,
      "کرده": 5552,
      "▁کشور": 5553,
      "▁پیروزی": 5554,
      "▁جوانی": 5555,
      "فردی": 5556,
      "پرواز": 5557,
      "ایستاد": 5558,
      "▁سلول": 5559,
      "▁آنقدرها": 5560,
      "▁شستند": 5561,
      "▁رازآلود": 5562,
      "▁آینده": 5563,
      "فرشته": 5564,
      "فک": 5565,
      "پیک": 5566,
      "▁وازه": 5567,
      "▁پز": 5568,
      "▁آلوچه": 5569,
      "هرجا": 5570,
      "شکارچی": 5571,
      "▁گوشی": 5572,
      "؟\"\n\n\"": 5573,
      "▁قدرتش": 5574,
      "ليلي": 5575,
      "▁ba": 5576,
      "▁نصف": 5577,
      "▁فرصت": 5578,
      "▁خد": 5579,
      "▁رای": 5580,
      "یکه": 5581,
      "▁سلاح": 5582,
      "▁حبس": 5583,
      "▁هرکدام": 5584,
      "▁متنفرم": 5585,
      "▁گواهینامه": 5586,
      "نقاشی": 5587,
      "فتگی": 5588,
      "▁توبی": 5589,
      "▁بیاره": 5590,
      "▁منتظ": 5591,
      "زدن": 5592,
      "▁هایت": 5593,
      "▁کامیونش": 5594,
      "▁نمي": 5595,
      "▁شکستن": 5596,
      "كر": 5597,
      "لیوان": 5598,
      "▁سمی": 5599,
      "▁آوا": 5600,
      "▁آوری": 5601,
      "▁سفرش": 5602,
      "▁شانسی": 5603,
      "▁نیمکتی": 5604,
      "بسیاری": 5605,
      "پیدا": 5606,
      "▁تخیلی": 5607,
      "▁کمکی": 5608,
      "▁گریان": 5609,
      "▁معنی": 5610,
      "▁والدینشان": 5611,
      "▁ياد": 5612,
      "غری": 5613,
      "روسی": 5614,
      "▁اشعه": 5615,
      "فاع": 5616,
      "▁عض": 5617,
      "▁تونیم": 5618,
      "راست": 5619,
      "▁خشم": 5620,
      "▁گلوله": 5621,
      "موضوع": 5622,
      "▁بادباد": 5623,
      "▁همراهش": 5624,
      "شناخت": 5625,
      "اع": 5626,
      "غاله": 5627,
      "▁بکنه": 5628,
      "▁خوشگلی": 5629,
      "▁برایم": 5630,
      "▁محله": 5631,
      "▁زیرسیگاری": 5632,
      "▁آزادی": 5633,
      "▁بکشه": 5634,
      "▁نترسیده": 5635,
      "▁آهنربا": 5636,
      "ظهر": 5637,
      "▁شنوند": 5638,
      "▁شکلی": 5639,
      "چطوره": 5640,
      "▁منجر": 5641,
      "▁بازى": 5642,
      "▁ماشینی": 5643,
      "▁اندوه": 5644,
      "▁گردباد": 5645,
      "▁واگن": 5646,
      "▁بگذرانیم": 5647,
      "▁باهم": 5648,
      "همسایه": 5649,
      "▁پسرها": 5650,
      "▁صداها": 5651,
      "▁نداشته": 5652,
      "▁پیچیده": 5653,
      "▁صفحات": 5654,
      "▁ترمیم": 5655,
      "ho": 5656,
      "حرف": 5657,
      "▁رنج": 5658,
      "▁آلیس": 5659,
      "کردیم": 5660,
      "▁گذار": 5661,
      "شیشه": 5662,
      "▁بشنوند": 5663,
      "کوت": 5664,
      "▁وزیدن": 5665,
      "موز": 5666,
      "▁تشویقش": 5667,
      "▁بپیچ": 5668,
      "▁ماشين": 5669,
      "▁لق": 5670,
      "سوپ": 5671,
      "▁پادشاهی": 5672,
      "▁سوالات": 5673,
      "▁متحیر": 5674,
      "▁دوسش": 5675,
      "درخش": 5676,
      "اندازد": 5677,
      "▁کابوس": 5678,
      "▁اضطراب": 5679,
      "دالی": 5680,
      "▁مبه": 5681,
      "▁کوچکتر": 5682,
      "▁منی": 5683,
      "▁انباری": 5684,
      "▁اسپایک": 5685,
      "▁بگوی": 5686,
      "▁تقلبی": 5687,
      "▁????": 5688,
      "روارید": 5689,
      "بزن": 5690,
      "لویی": 5691,
      "بودند": 5692,
      "▁تصاویری": 5693,
      "گذروندن": 5694,
      "مخ": 5695,
      "▁کلی": 5696,
      "▁کتش": 5697,
      "امون": 5698,
      "▁بودیم": 5699,
      "▁خورند": 5700,
      "▁زیرشیروانی": 5701,
      "سوزان": 5702,
      "▁سنگینی": 5703,
      "▁طرفش": 5704,
      "ثه": 5705,
      "▁بجود": 5706,
      "▁اق": 5707,
      "▁هي": 5708,
      "▁یخت": 5709,
      "منظ": 5710,
      "▁بگذرون": 5711,
      "▁کاملی": 5712,
      "کلید": 5713,
      "پولی": 5714,
      "یداد": 5715,
      "پرستار": 5716,
      "▁سرک": 5717,
      "▁نیروی": 5718,
      "▁بپریم": 5719,
      "▁دزدی": 5720,
      "▁اکسیژن": 5721,
      "\n\n‫": 5722,
      "▁راهرو": 5723,
      "▁بزنید": 5724,
      "▁بپرسد": 5725,
      "▁مبارزه": 5726,
      "▁جديد": 5727,
      "شش": 5728,
      "▁تونه": 5729,
      "▁خرسش": 5730,
      "▁جرأت": 5731,
      "im": 5732,
      "بتی": 5733,
      "بگذار": 5734,
      "سرد": 5735,
      "▁دوستتان": 5736,
      "قلعه": 5737,
      "\n‫": 5738,
      "حل": 5739,
      "نخ": 5740,
      "▁کری": 5741,
      "▁سبیل": 5742,
      "تیجه": 5743,
      "▁کمکشان": 5744,
      "پریدن": 5745,
      "▁تابید": 5746,
      "▁اگرچه": 5747,
      "▁بخوابه": 5748,
      "▁بخندد": 5749,
      "▁نامش": 5750,
      "دیوار": 5751,
      "کیت": 5752,
      "چرخیدند": 5753,
      "آوردند": 5754,
      "داشتند": 5755,
      "▁سنجابی": 5756,
      "▁زوزه": 5757,
      "ميم": 5758,
      "▁اع": 5759,
      "ریزد": 5760,
      "▁برایتان": 5761,
      "▁توپم": 5762,
      "▁شکارچی": 5763,
      "▁ببینن": 5764,
      "قاشق": 5765,
      "نیم": 5766,
      "پنی": 5767,
      "ندیده": 5768,
      "▁سیل": 5769,
      "▁حي": 5770,
      "عدادی": 5771,
      "▁ماشینت": 5772,
      "▁بسازه": 5773,
      "▁بدرفت": 5774,
      "شجا": 5775,
      "کاک": 5776,
      "یکل": 5777,
      "▁ترکید": 5778,
      "▁ابریشم": 5779,
      "▁زيبا": 5780,
      "تمیز": 5781,
      "یك": 5782,
      "▁عروسی": 5783,
      "کوس": 5784,
      "درختان": 5785,
      "▁مکانیک": 5786,
      "بون": 5787,
      "صرف": 5788,
      "▁اینجاست": 5789,
      "▁بهتره": 5790,
      "▁ریتم": 5791,
      "▁خرگوشه": 5792,
      "▁بستن": 5793,
      "▁دوستاشون": 5794,
      "▁مجاز": 5795,
      "▁زندگي": 5796,
      "▁پیراهنش": 5797,
      "▁گذراندن": 5798,
      "▁میکروف": 5799,
      "▁حیوانی": 5800,
      "وانی": 5801,
      "گين": 5802,
      "▁وض": 5803,
      "▁میلی": 5804,
      "▁آجیل": 5805,
      "▁تربچه": 5806,
      "نجاست": 5807,
      "▁آغاز": 5808,
      "▁دمید": 5809,
      "▁خوشگذرانی": 5810,
      "گور": 5811,
      "▁دوستانتان": 5812,
      "دیدار": 5813,
      "سوار": 5814,
      "سواک": 5815,
      "تنز": 5816,
      "▁mi": 5817,
      "تلف": 5818,
      "هرد": 5819,
      "▁خوشحالانه": 5820,
      "▁عبوس": 5821,
      "▁آشفتگی": 5822,
      "▁بپری": 5823,
      "▁دستشویی": 5824,
      "دندان": 5825,
      "مزرعه": 5826,
      "ممکنه": 5827,
      "يب": 5828,
      "ندوانه": 5829,
      "▁قامت": 5830,
      "لوم": 5831,
      "مدتی": 5832,
      "واصی": 5833,
      "▁بمانم": 5834,
      "...": 5835,
      "دقت": 5836,
      "دمش": 5837,
      "دلفین": 5838,
      "قو": 5839,
      "دویدن": 5840,
      "▁بلد": 5841,
      "موج": 5842,
      "▁دعوای": 5843,
      "▁هدای": 5844,
      "▁نیمه": 5845,
      "دکمه": 5846,
      "▁بخواهیم": 5847,
      "اصلا": 5848,
      "▁مبهوت": 5849,
      "شگفت": 5850,
      "وزد": 5851,
      "پشم": 5852,
      "▁تزی": 5853,
      "▁گذارد": 5854,
      "▁اشیا": 5855,
      "▁زمستان": 5856,
      "▁تزئینات": 5857,
      "\".\n\n": 5858,
      "اکنون": 5859,
      "يي": 5860,
      "▁وکیل": 5861,
      "▁گوی": 5862,
      "▁هميشه": 5863,
      "▁قیم": 5864,
      "تیاق": 5865,
      "▁کوچکشان": 5866,
      "▁خودخواهی": 5867,
      "▁طو": 5868,
      "▁اشتیاق": 5869,
      "▁عالیه": 5870,
      "▁خروج": 5871,
      "واد": 5872,
      "▁زخم": 5873,
      "باباش": 5874,
      "▁آنهاست": 5875,
      "▁پیچی": 5876,
      "نمایی": 5877,
      "ing": 5878,
      "تصویر": 5879,
      "▁سؤال": 5880,
      "گزاگ": 5881,
      "▁تپ": 5882,
      "▁پدیدار": 5883,
      "▁آشغال": 5884,
      "▁جوابی": 5885,
      "امیدوارند": 5886,
      "▁میدونست": 5887,
      "آل": 5888,
      "يده": 5889,
      "پنگوئن": 5890,
      "درخشان": 5891,
      "دوستتان": 5892,
      "▁گردی": 5893,
      "قاص": 5894,
      "پیراه": 5895,
      "بپرند": 5896,
      "كس": 5897,
      "پندی": 5898,
      "▁روزشان": 5899,
      "▁تابستان": 5900,
      "▁بپاش": 5901,
      "سمور": 5902,
      "تونستن": 5903,
      "▁تأثیر": 5904,
      "▁لقمه": 5905,
      "▁بدرفتاری": 5906,
      "قد": 5907,
      "کودک": 5908,
      "▁دوش": 5909,
      "روفن": 5910,
      "▁غمگين": 5911,
      "موجود": 5912,
      "▁خردسال": 5913,
      "▁خاکستر": 5914,
      "▁لرزید": 5915,
      "دایره": 5916,
      "کث": 5917,
      "▁بخندند": 5918,
      "▁بايد": 5919,
      "▁میگو": 5920,
      "الع": 5921,
      "▁نبرد": 5922,
      "سواری": 5923,
      "▁قلقل": 5924,
      "her": 5925,
      "▁ثروتمندی": 5926,
      "نمید": 5927,
      "بالاتر": 5928,
      "▁كنند": 5929,
      "خاش": 5930,
      "خاک": 5931,
      "فند": 5932,
      "فنج": 5933,
      "▁بتی": 5934,
      "زیب": 5935,
      "▁روزش": 5936,
      "گرس": 5937,
      "▁برگرده": 5938,
      "غذای": 5939,
      "بالون": 5940,
      "شیرین": 5941,
      "▁بیماری": 5942,
      "▁امیدوارند": 5943,
      "▁وفاد": 5944,
      "▁ناشناس": 5945,
      "▁کوبید": 5946,
      "▁بافت": 5947,
      "▁یکشنبه": 5948,
      "اهم": 5949,
      "▁قراره": 5950,
      "▁ندادند": 5951,
      "▁پدربزرگش": 5952,
      "▁ماد": 5953,
      "▁بودنش": 5954,
      "▁پارکی": 5955,
      "▁شکار": 5956,
      "نکبوتی": 5957,
      "▁شترمرغ": 5958,
      "ارن": 5959,
      "▁پارو": 5960,
      "مانند": 5961,
      "▁خودشون": 5962,
      "یلنگ": 5963,
      "▁دفعه": 5964,
      "▁تزیین": 5965,
      "▁خروس": 5966,
      "میل": 5967,
      "رویم": 5968,
      "▁بزودی": 5969,
      "▁فصل": 5970,
      "▁ماهیگیری": 5971,
      "▁دردناک": 5972,
      "▁بکشی": 5973,
      "▁ارزشمند": 5974,
      "▁عاقل": 5975,
      "▁روبنده": 5976,
      "ازظهر": 5977,
      "بالگرد": 5978,
      "▁پاشیدند": 5979,
      "▁شیطانی": 5980,
      "▁پافشار": 5981,
      "ll": 5982,
      "حم": 5983,
      "گانه": 5984,
      "▁y": 5985,
      "▁داند": 5986,
      "لیظ": 5987,
      "رگاه": 5988,
      "مکعب": 5989,
      "لاع": 5990,
      "احمق": 5991,
      "▁آمدید": 5992,
      "▁بخوانی": 5993,
      "▁صندوقچه": 5994,
      "▁تابلویی": 5995,
      "آشپز": 5996,
      "پول": 5997,
      "دوستی": 5998,
      "دوستای": 5999,
      "▁نقش": 6000,
      "افته": 6001,
      "▁آرایشگاه": 6002,
      "▁بچرخاند": 6003,
      "▁اردوگاه": 6004,
      "قش": 6005,
      "▁مأ": 6006,
      "▁برسم": 6007,
      "▁اسمیت": 6008,
      "▁غواصی": 6009,
      "▁سوز": 6010,
      "▁داکی": 6011,
      "▁بچس": 6012,
      "ذی": 6013,
      "وال": 6014,
      "▁کانی": 6015,
      "بهش": 6016,
      "▁دیدار": 6017,
      "▁توپشان": 6018,
      "▁خواستن": 6019,
      "▁معلمش": 6020,
      "▁کاغذهای": 6021,
      "پیمایی": 6022,
      "▁چشماش": 6023,
      "جاز": 6024,
      "حک": 6025,
      "▁متر": 6026,
      "لیزی": 6027,
      "▁نتواند": 6028,
      "▁رویداد": 6029,
      "▁چرمی": 6030,
      "گیل": 6031,
      "▁ترانه": 6032,
      "▁بشوی": 6033,
      "▁ماجراجوی": 6034,
      "▁مالش": 6035,
      "ساختند": 6036,
      "▁مروارید": 6037,
      "▁ترافیک": 6038,
      "▁زرنگ": 6039,
      "▁غرفه": 6040,
      "▁ترسی": 6041,
      "▁برگی": 6042,
      "▁پسرش": 6043,
      "کیف": 6044,
      "▁کاغذها": 6045,
      "▁لمسش": 6046,
      "▁پشمک": 6047,
      "▁مضحکی": 6048,
      "▁نکنیم": 6049,
      "الش": 6050,
      "▁چهارشنبه": 6051,
      "خوبی": 6052,
      "▁اونجاست": 6053,
      "▁موا": 6054,
      "▁دسترس": 6055,
      "▁نداده": 6056,
      "▁بمانید": 6057,
      "▁نصی": 6058,
      "گروه": 6059,
      "▁گشاد": 6060,
      "▁همراهی": 6061,
      "▁چیزایی": 6062,
      "▁خانواد": 6063,
      "بالای": 6064,
      "▁ریختن": 6065,
      "وطه": 6066,
      "همینطور": 6067,
      "▁وظیفه": 6068,
      "چیر": 6069,
      "اشتباه": 6070,
      "میتونیم": 6071,
      "زدید": 6072,
      "▁شمردند": 6073,
      "دعوا": 6074,
      "▁مواجه": 6075,
      "آهن": 6076,
      "سامی": 6077,
      "▁خمی": 6078,
      "▁ترو": 6079,
      "▁هشت": 6080,
      "▁توافق": 6081,
      "کردنی": 6082,
      "▁ظاه": 6083,
      "▁چندین": 6084,
      "هری": 6085,
      "▁سط": 6086,
      "خوانند": 6087,
      "▁آشفته": 6088,
      "▁قلبش": 6089,
      "▁خرطوم": 6090,
      "of": 6091,
      "تپه": 6092,
      "کردی": 6093,
      "▁لامپ": 6094,
      "اسک": 6095,
      "▁غلیظ": 6096,
      "▁آبدار": 6097,
      "▁فراهم": 6098,
      "آهو": 6099,
      "چشمانش": 6100,
      "پنیر": 6101,
      "▁مخالفت": 6102,
      "▁منتقل": 6103,
      "چیرپی": 6104,
      "قارچ": 6105,
      "موف": 6106,
      "▁ساختم": 6107,
      "▁شهرکی": 6108,
      "مطمئنم": 6109,
      "اشکال": 6110,
      "حرکت": 6111,
      "يی": 6112,
      "گوریل": 6113,
      "▁مدو": 6114,
      "▁خف": 6115,
      "▁درحالی": 6116,
      "▁اینجام": 6117,
      "بازیم": 6118,
      "▁نزدیکش": 6119,
      "▁مامانم": 6120,
      "▁یافته": 6121,
      "▁گنجی": 6122,
      "▁طبقه": 6123,
      "▁قاضی": 6124,
      "نفس": 6125,
      "▁مسواک": 6126,
      "▁هندوانه": 6127,
      "▁بزرگشان": 6128,
      "▁گردد": 6129,
      "خرگوشه": 6130,
      "▁شیپور": 6131,
      "▁قطعا": 6132,
      "یفرم": 6133,
      "گرسنه": 6134,
      "هست": 6135,
      "پوست": 6136,
      "▁مای": 6137,
      "▁سازه": 6138,
      "▁تاثیر": 6139,
      "خلبان": 6140,
      "▁خاط": 6141,
      "▁نیازمند": 6142,
      "▁لحظ": 6143,
      "▁پشمالویی": 6144,
      "تلفن": 6145,
      "▁دمی": 6146,
      "▁دما": 6147,
      "▁خرم": 6148,
      "▁خواسته": 6149,
      "▁قلبی": 6150,
      "▁امتی": 6151,
      "▁حلز": 6152,
      "زنبورها": 6153,
      "▁دشوار": 6154,
      "▁مقابل": 6155,
      "▁قالی": 6156,
      "▁بارید": 6157,
      "▁پیرزن": 6158,
      "▁چرخش": 6159,
      "▁ارتفاع": 6160,
      "ek": 6161,
      "سطل": 6162,
      "▁شکفته": 6163,
      "▁لوبیای": 6164,
      "افتند": 6165,
      "زیدند": 6166,
      "▁تفاوت": 6167,
      "▁تصاد": 6168,
      "▁خرسی": 6169,
      "▁میکروفن": 6170,
      "▁جلب": 6171,
      "حشرات": 6172,
      "عمو": 6173,
      "چر": 6174,
      "یعنی": 6175,
      "▁الت": 6176,
      "▁میکند": 6177,
      "▁گمش": 6178,
      "▁روپوش": 6179,
      "▁درب": 6180,
      "▁هاشون": 6181,
      "▁ناها": 6182,
      "▁فلز": 6183,
      "▁خوندن": 6184,
      "ساز": 6185,
      "▁بگه": 6186,
      "▁بهار": 6187,
      "▁شیلنگ": 6188,
      "▁قند": 6189,
      "▁شکفت": 6190,
      "▁ریز": 6191,
      "▁بلوز": 6192,
      "▁انداختن": 6193,
      "▁مجدد": 6194,
      "نمایش": 6195,
      "▁یافتند": 6196,
      "▁سخن": 6197,
      "▁پیتزای": 6198,
      "ir": 6199,
      "متوقف": 6200,
      "نتوانست": 6201,
      "کلم": 6202,
      "▁کیه": 6203,
      "▁زبرا": 6204,
      "▁دیدنش": 6205,
      "▁شکو": 6206,
      "وترش": 6207,
      "▁کلیدی": 6208,
      "▁بپوشم": 6209,
      "▁نوشیدند": 6210,
      "▁مبارک": 6211,
      "▁کانگورو": 6212,
      "▁خفن": 6213,
      "زیانه": 6214,
      "▁بازیم": 6215,
      "▁روزي": 6216,
      "▁برام": 6217,
      "▁حاوی": 6218,
      "وشون": 6219,
      "▁سرت": 6220,
      "▁ذوب": 6221,
      "▁سالش": 6222,
      "!\"\n\n\"": 6223,
      "يدن": 6224,
      "▁چسبید": 6225,
      "▁برقصند": 6226,
      "▁ليلي": 6227,
      "مغز": 6228,
      "تخته": 6229,
      "خبر": 6230,
      "صح": 6231,
      "نظر": 6232,
      "پست": 6233,
      "توله": 6234,
      "▁فوق": 6235,
      "ویت": 6236,
      "▁تصميم": 6237,
      "محبوب": 6238,
      "نوبتی": 6239,
      "▁سورپرایز": 6240,
      "▁ویران": 6241,
      "دلش": 6242,
      "▁دانند": 6243,
      "▁ملوان": 6244,
      "▁درازی": 6245,
      "▁خوششون": 6246,
      "▁لط": 6247,
      "▁نیومد": 6248,
      "▁هاي": 6249,
      "گریس": 6250,
      "▁بسازی": 6251,
      "اتفاقات": 6252,
      "▁عمویش": 6253,
      "▁خاطره": 6254,
      "پناه": 6255,
      "▁خزیدن": 6256,
      "▁سکوت": 6257,
      "▁جز": 6258,
      "▁خریده": 6259,
      "▁راهپیمایی": 6260,
      "▁حیواناتی": 6261,
      "▁بخوابم": 6262,
      "▁جلوتر": 6263,
      "▁شرمس": 6264,
      "شجاع": 6265,
      "▁ممکنه": 6266,
      "▁سرم": 6267,
      "شانسی": 6268,
      "▁ناهارش": 6269,
      "▁انداخته": 6270,
      "▁پاشنه": 6271,
      "▁جهش": 6272,
      "▁رقابت": 6273,
      "چارلی": 6274,
      "▁قلقلک": 6275,
      "بودی": 6276,
      "نکردنی": 6277,
      "▁دانا": 6278,
      "▁خامه": 6279,
      "میگو": 6280,
      "پرسی": 6281,
      "▁کارل": 6282,
      "▁مادرهایشان": 6283,
      "نشیند": 6284,
      "▁بابای": 6285,
      "مربع": 6286,
      "▁بالشش": 6287,
      "هدیه": 6288,
      "▁مجازات": 6289,
      "سندی": 6290,
      "▁معت": 6291,
      "▁رویش": 6292,
      "▁بدویم": 6293,
      "سوسک": 6294,
      "▁ظهر": 6295,
      "▁ظروف": 6296,
      "▁بشور": 6297,
      "▁بیاورم": 6298,
      "▁پستچی": 6299,
      "رنگین": 6300,
      "▁مرکب": 6301,
      "نگهبان": 6302,
      "▁میکروفون": 6303,
      "آلات": 6304,
      "تند": 6305,
      "حس": 6306,
      "دي": 6307,
      "قاد": 6308,
      "▁بودید": 6309,
      "اسپیدی": 6310,
      "▁پیروز": 6311,
      "داگی": 6312,
      "▁جایگ": 6313,
      "▁پرسيد": 6314,
      "خطرناک": 6315,
      "ئوی": 6316,
      "تلویزیون": 6317,
      "گزاری": 6318,
      "▁بلندترین": 6319,
      "بردار": 6320,
      "نوشته": 6321,
      "▁حمله": 6322,
      "تدی": 6323,
      "لغ": 6324,
      "▁آوردی": 6325,
      "▁چشمانشان": 6326,
      "▁بپرسیم": 6327,
      "▁اطمین": 6328,
      "جع": 6329,
      "نبات": 6330,
      "▁رسی": 6331,
      "▁ازت": 6332,
      "▁مایک": 6333,
      "▁ریش": 6334,
      "▁بادبزن": 6335,
      "▁نورانی": 6336,
      "▁كردن": 6337,
      "▁انگشتان": 6338,
      "▁بچشد": 6339,
      "نقاش": 6340,
      "▁خروجی": 6341,
      "چسبی": 6342,
      "▁طوقه": 6343,
      "▁میره": 6344,
      "باهات": 6345,
      "گرم": 6346,
      "▁صفر": 6347,
      "▁دارویی": 6348,
      "پسرها": 6349,
      "کارل": 6350,
      "▁فروشی": 6351,
      "بردی": 6352,
      "▁مارپیچ": 6353,
      "▁عزیزانم": 6354,
      "▁نمودند": 6355,
      "▁یادداشتی": 6356,
      "دفتر": 6357,
      "▁رض": 6358,
      "▁میتونی": 6359,
      "▁نر": 6360,
      "▁نترس": 6361,
      "▁خوان": 6362,
      "▁آمیزی": 6363,
      "▁برنمی": 6364,
      "▁بدتر": 6365,
      "▁خاکی": 6366,
      "▁درخشانش": 6367,
      "▁دلسوزی": 6368,
      "▁پختند": 6369,
      "نوبت": 6370,
      "▁نصیحت": 6371,
      "▁امتیاز": 6372,
      "▁التماس": 6373,
      "ملوان": 6374,
      "کجایی": 6375,
      "هامون": 6376,
      "▁فا": 6377,
      "لولا": 6378,
      "▁گرفتی": 6379,
      "سوفی": 6380,
      "▁توییت": 6381,
      "▁مادرت": 6382,
      "پاک": 6383,
      "نشستند": 6384,
      "حلقه": 6385,
      "حکمت": 6386,
      "پند": 6387,
      "▁بتوانید": 6388,
      "▁باله": 6389,
      "▁بازدید": 6390,
      "▁تیکه": 6391,
      "رونه": 6392,
      "▁جام": 6393,
      "▁زنی": 6394,
      "▁خندد": 6395,
      "▁نقل": 6396,
      "▁وقتش": 6397,
      "▁گاوها": 6398,
      "پشتی": 6399,
      "▁پالتو": 6400,
      "علف": 6401,
      "هو": 6402,
      "▁کود": 6403,
      "الکس": 6404,
      "پرسند": 6405,
      "▁بعدازظهر": 6406,
      "▁گلها": 6407,
      "کوکو": 6408,
      "آورم": 6409,
      "▁مندی": 6410,
      "▁احم": 6411,
      "▁طع": 6412,
      "▁هیزم": 6413,
      "▁متشکرم": 6414,
      "▁محکمی": 6415,
      "▁بگذارم": 6416,
      "▁ذهنشان": 6417,
      "▁جرثقیل": 6418,
      "ئیس": 6419,
      "▁تعادلش": 6420,
      "دنباله": 6421,
      "غذاهای": 6422,
      "▁آورند": 6423,
      "▁حلزون": 6424,
      "▁سخنرانی": 6425,
      "▁رضایت": 6426,
      "un": 6427,
      "▁کال": 6428,
      "▁تندتر": 6429,
      "تاریک": 6430,
      "▁بفرست": 6431,
      "درحالیکه": 6432,
      "سون": 6433,
      "▁نح": 6434,
      "▁همسرش": 6435,
      "بهت": 6436,
      "مایک": 6437,
      "برنده": 6438,
      "▁ماهیتابه": 6439,
      "▁طنابی": 6440,
      "▁بیندازند": 6441,
      "▁نتیجه": 6442,
      "▁بودار": 6443,
      "دامپزشک": 6444,
      "▁فضایی": 6445,
      "میخوام": 6446,
      "ریت": 6447,
      "▁پرپشت": 6448,
      "▁مربای": 6449,
      "▁شجاعانه": 6450,
      "▁چرخیدند": 6451,
      "قاضی": 6452,
      "▁اعتقاد": 6453,
      "▁ناامیدی": 6454,
      "▁بذاریم": 6455,
      "▁مقصد": 6456,
      "بپرد": 6457,
      "پشه": 6458,
      "▁بجنگ": 6459,
      "▁ماده": 6460,
      "▁بیان": 6461,
      "▁بالاترین": 6462,
      "▁مردمی": 6463,
      "▁گریل": 6464,
      "▁باورنکردنی": 6465,
      "▁was": 6466,
      "موفق": 6467,
      "تب": 6468,
      "▁کتی": 6469,
      "▁نکنه": 6470,
      "▁دارای": 6471,
      "▁شکاف": 6472,
      "پارس": 6473,
      "▁خدمت": 6474,
      "ئل": 6475,
      "شع": 6476,
      "▁فورا": 6477,
      "▁بنابراین": 6478,
      "▁وانت": 6479,
      "▁شخصی": 6480,
      "▁دماغ": 6481,
      "پاشی": 6482,
      "▁راجع": 6483,
      "هاها": 6484,
      "▁آیند": 6485,
      "▁حض": 6486,
      "اقت": 6487,
      "▁گلهای": 6488,
      "▁نکردم": 6489,
      "▁پزشک": 6490,
      "پیراهن": 6491,
      "sh": 6492,
      "آسان": 6493,
      "شید": 6494,
      "قالی": 6495,
      "چاره": 6496,
      "▁l": 6497,
      "▁انب": 6498,
      "▁دوم": 6499,
      "استیک": 6500,
      "▁قض": 6501,
      "▁اینطوری": 6502,
      "▁هرچیزی": 6503,
      "▁خوبم": 6504,
      "▁راهنمایی": 6505,
      "بوم": 6506,
      "▁برگردم": 6507,
      "▁شیء": 6508,
      "▁سفرشان": 6509,
      "زارع": 6510,
      "▁چاقوی": 6511,
      "▁باحاله": 6512,
      "امتح": 6513,
      "▁نعناع": 6514,
      "▁چي": 6515,
      "▁متصل": 6516,
      "▁بخری": 6517,
      "▁متاسفم": 6518,
      "▁خشکی": 6519,
      "▁اطمینان": 6520,
      "it": 6521,
      "شویم": 6522,
      "فره": 6523,
      "مید": 6524,
      "يع": 6525,
      "▁'": 6526,
      "انوی": 6527,
      "ینگ": 6528,
      "▁بیسک": 6529,
      "قهوه": 6530,
      "رفتن": 6531,
      "▁یونیفرم": 6532,
      "▁مریض": 6533,
      "پیکر": 6534,
      "▁جایگزین": 6535,
      "نظ": 6536,
      "هشت": 6537,
      "پاند": 6538,
      "▁نگذاشت": 6539,
      "یکدیگر": 6540,
      "▁سینه": 6541,
      "▁برا": 6542,
      "▁کلنگ": 6543,
      "▁اونم": 6544,
      "روزها": 6545,
      "▁پاي": 6546,
      "▁نوری": 6547,
      "▁تنهاست": 6548,
      "▁غلتاند": 6549,
      "▁نظرش": 6550,
      "خوشبختانه": 6551,
      "▁لحظات": 6552,
      "مگی": 6553,
      "▁بمال": 6554,
      "▁رقاص": 6555,
      "▁رادی": 6556,
      "ارت": 6557,
      "ارزش": 6558,
      "▁سامی": 6559,
      "▁ازشون": 6560,
      "▁کولر": 6561,
      "درسته": 6562,
      "▁دستشان": 6563,
      "▁هات": 6564,
      "!\"\n\"": 6565,
      "خرگوشی": 6566,
      "▁معکوس": 6567,
      "▁ملخ": 6568,
      "▁غرب": 6569,
      "گذروندند": 6570,
      "مور": 6571,
      "▁تازیانه": 6572,
      "مدت": 6573,
      "تاکسی": 6574,
      "▁بخورن": 6575,
      "▁حریص": 6576,
      "▁قیمتی": 6577,
      "▁قطعاتی": 6578,
      "آیم": 6579,
      "صیه": 6580,
      "یادت": 6581,
      "▁خصوص": 6582,
      "▁شقایق": 6583,
      "▁قال": 6584,
      "▁پرند": 6585,
      "تیام": 6586,
      "لاید": 6587,
      "▁وسایلشان": 6588,
      "▁پاشیده": 6589,
      "▁بگیرن": 6590,
      "▁خاطراتش": 6591,
      "▁پیوستند": 6592,
      "حد": 6593,
      "ملی": 6594,
      "▁کک": 6595,
      "▁امکان": 6596,
      "لیسد": 6597,
      "▁نون": 6598,
      "▁عکسی": 6599,
      "▁یادآور": 6600,
      "▁گلبرگ": 6601,
      "▁همانطور": 6602,
      "▁فلس": 6603,
      "▁دربیاو": 6604,
      "وجود": 6605,
      "یچ": 6606,
      "▁پت": 6607,
      "▁پین": 6608,
      "اوت": 6609,
      "روبی": 6610,
      "سیر": 6611,
      "▁یك": 6612,
      "▁عظ": 6613,
      "مامانم": 6614,
      "▁لیزی": 6615,
      "▁بپوشاند": 6616,
      "▁بریزیم": 6617,
      "▁بایست": 6618,
      "▁فاصله": 6619,
      "جنب": 6620,
      "جشن": 6621,
      "مئ": 6622,
      "هویج": 6623,
      "چک": 6624,
      "▁بگویم": 6625,
      "▁بازیکن": 6626,
      "▁قدرد": 6627,
      "کتش": 6628,
      "▁مرب": 6629,
      "▁تندرو": 6630,
      "▁تکمیل": 6631,
      "آفتابگردان": 6632,
      "▁انگشتانش": 6633,
      "▁کچلی": 6634,
      "▁فرمانرو": 6635,
      "The": 6636,
      "کیم": 6637,
      "بابای": 6638,
      "▁بازم": 6639,
      "▁مامانشان": 6640,
      "▁جایشان": 6641,
      "▁التیام": 6642,
      "▁خطرناکی": 6643,
      "دانید": 6644,
      "▁دیگرش": 6645,
      "▁نادان": 6646,
      "▁شمشیرش": 6647,
      "▁افرادی": 6648,
      "▁بفرستد": 6649,
      "لیز": 6650,
      "▁صداش": 6651,
      ":\n\n\"": 6652,
      "▁میزش": 6653,
      "▁انگشتر": 6654,
      "پدرشان": 6655,
      "▁فرمانبردار": 6656,
      "▁پوسید": 6657,
      "▁باتلاق": 6658,
      "غریبه": 6659,
      "▁بادبادکش": 6660,
      "کثیف": 6661,
      "▁انبوه": 6662,
      "جاش": 6663,
      "سي": 6664,
      "پاس": 6665,
      "شناسم": 6666,
      "▁شکلاتی": 6667,
      "▁پاهایشان": 6668,
      "▁سردی": 6669,
      "▁خوشبختی": 6670,
      "▁جانوران": 6671,
      "▁ملایمی": 6672,
      "▁بخره": 6673,
      "▁بریدگی": 6674,
      "▁معدنی": 6675,
      "دل": 6676,
      "سن": 6677,
      "طعم": 6678,
      "ميا": 6679,
      "▁دان": 6680,
      "▁پاشی": 6681,
      "▁سیلی": 6682,
      "▁خونشون": 6683,
      "الو": 6684,
      "!\".\n": 6685,
      "متع": 6686,
      "پرت": 6687,
      "▁یادت": 6688,
      "▁بخواهی": 6689,
      "▁پیپین": 6690,
      "▁عصایش": 6691,
      "پیاز": 6692,
      "بینمت": 6693,
      "▁برجش": 6694,
      "▁رساند": 6695,
      "▁بوسیدند": 6696,
      "▁مؤدبانه": 6697,
      "▁وضعیت": 6698,
      "▁حضور": 6699,
      "▁بسی": 6700,
      "▁گام": 6701,
      "خوره": 6702,
      "▁هیچکس": 6703,
      "▁دلیر": 6704,
      "وحشت": 6705,
      "▁ra": 6706,
      "تد": 6707,
      "▁میتوانم": 6708,
      "▁خوری": 6709,
      "▁زار": 6710,
      "درخواست": 6711,
      "▁آمدی": 6712,
      "▁شیرها": 6713,
      "▁سالمی": 6714,
      "ماهیگیر": 6715,
      "بازي": 6716,
      "▁بپوشند": 6717,
      "ئیچ": 6718,
      "▁استیکر": 6719,
      "پیرزن": 6720,
      "▁آغل": 6721,
      "▁بخوابی": 6722,
      "▁خانمی": 6723,
      "▁نتوانسته": 6724,
      "▁برقصم": 6725,
      "▁پیکر": 6726,
      "بطری": 6727,
      "دمه": 6728,
      "ذاشت": 6729,
      "سازد": 6730,
      "پرش": 6731,
      "هاپی": 6732,
      "▁پارگی": 6733,
      "▁فرق": 6734,
      "▁زردرنگ": 6735,
      "بخشی": 6736,
      "اسکلت": 6737,
      "▁اخ": 6738,
      "▁اید": 6739,
      "انچه": 6740,
      "ارو": 6741,
      "▁کهن": 6742,
      "برادرش": 6743,
      "▁آسوده": 6744,
      "▁شیوه": 6745,
      "▁درونش": 6746,
      "▁میدانست": 6747,
      "▁برقصه": 6748,
      "▁حیوونات": 6749,
      "كه": 6750,
      "اوض": 6751,
      "▁تعمی": 6752,
      "فیفی": 6753,
      "دستکش": 6754,
      "▁بچینم": 6755,
      "▁نوارچسب": 6756,
      "▁گذشتند": 6757,
      "ستارگان": 6758,
      "▁خلق": 6759,
      "▁قصه": 6760,
      "▁حسی": 6761,
      "▁عوع": 6762,
      "چهره": 6763,
      "▁احوال": 6764,
      "▁خیال": 6765,
      "▁حساب": 6766,
      "▁قطارها": 6767,
      "▁دوقلوهای": 6768,
      "فروخت": 6769,
      "▁بلیط": 6770,
      "▁زياد": 6771,
      "پنجره": 6772,
      "لاحظه": 6773,
      "▁ماجراجویانه": 6774,
      "il": 6775,
      "▁مث": 6776,
      "▁ره": 6777,
      "▁وروم": 6778,
      "▁تب": 6779,
      "▁شا": 6780,
      "▁په": 6781,
      "▁درها": 6782,
      "بارد": 6783,
      "تیپ": 6784,
      "ترسی": 6785,
      "▁رویایش": 6786,
      "▁خریدن": 6787,
      "▁نشانش": 6788,
      "▁نکردن": 6789,
      "بالش": 6790,
      "توییت": 6791,
      "▁بخوابند": 6792,
      "▁شلوارش": 6793,
      "▁پرسرو": 6794,
      "جیمز": 6795,
      "اشکالی": 6796,
      "▁احمقی": 6797,
      "گنج": 6798,
      "ستال": 6799,
      "▁پچ": 6800,
      "▁توری": 6801,
      "▁فی": 6802,
      "▁بدمزه": 6803,
      "▁سگشان": 6804,
      "دیدن": 6805,
      "▁سرفه": 6806,
      "▁هرجا": 6807,
      "▁لولا": 6808,
      "▁آرزویی": 6809,
      "گوجه": 6810,
      "▁سیاهی": 6811,
      "▁چشمش": 6812,
      "رودخانه": 6813,
      "▁ke": 6814,
      "▁آوازی": 6815,
      "▁آخ": 6816,
      "▁فلو": 6817,
      "▁دالی": 6818,
      "▁موهایشان": 6819,
      "▁بهترين": 6820,
      "▁حالشان": 6821,
      "▁دنبالشان": 6822,
      "▁ماهیگیر": 6823,
      "قفسه": 6824,
      "▁ساکن": 6825,
      "مثلث": 6826,
      "▁خطوط": 6827,
      "پارچه": 6828,
      "▁تنبلی": 6829,
      "▁بالشتک": 6830,
      "▁حکمت": 6831,
      "رغ": 6832,
      "▁بف": 6833,
      "▁میشم": 6834,
      "▁شون": 6835,
      "▁شپش": 6836,
      "اینطوری": 6837,
      "▁هایتان": 6838,
      "▁شاداب": 6839,
      "▁بینکی": 6840,
      "▁صورتشان": 6841,
      "▁مقوا": 6842,
      "▁نمایشی": 6843,
      "میش": 6844,
      "منو": 6845,
      "▁درختش": 6846,
      "▁ناراحته": 6847,
      "▁فرزند": 6848,
      "سایر": 6849,
      "▁بخزد": 6850,
      "▁برقصیم": 6851,
      "جایزه": 6852,
      "▁شکوفا": 6853,
      "▁قالب": 6854,
      "▁احوالپرسی": 6855,
      "ak": 6856,
      "بورد": 6857,
      "خداحافظی": 6858,
      "يند": 6859,
      "▁میام": 6860,
      "▁درنده": 6861,
      "ورآلات": 6862,
      "▁موها": 6863,
      "▁سرعتش": 6864,
      "پذیرفت": 6865,
      "بشقاب": 6866,
      "برفی": 6867,
      "جوید": 6868,
      "کف": 6869,
      "▁وزش": 6870,
      "▁خوشت": 6871,
      "بیپ": 6872,
      "گران": 6873,
      "▁نشوند": 6874,
      "معلوم": 6875,
      "پیش": 6876,
      "▁نواز": 6877,
      "▁بنویسم": 6878,
      "گروهی": 6879,
      "▁بپیچد": 6880,
      "▁مزارع": 6881,
      "▁میتونیم": 6882,
      "▁تری": 6883,
      "▁سبدی": 6884,
      "▁حروف": 6885,
      "▁زدنش": 6886,
      "▁جدیدم": 6887,
      "برخی": 6888,
      "▁ظری": 6889,
      "جادویی": 6890,
      "کوچکی": 6891,
      "جیغ": 6892,
      "صورتی": 6893,
      "▁کاکائوی": 6894,
      "اوضه": 6895,
      "زینه": 6896,
      "▁کنان": 6897,
      "اسمت": 6898,
      "دیروز": 6899,
      "▁ماشینم": 6900,
      "▁زیرزمین": 6901,
      "▁شمالی": 6902,
      "کوکی": 6903,
      "▁بگي": 6904,
      "جوراب": 6905,
      "خرد": 6906,
      "شکند": 6907,
      "فینی": 6908,
      "▁بکار": 6909,
      "▁دن": 6910,
      "▁دنده": 6911,
      "▁دکه": 6912,
      "▁میکنند": 6913,
      "▁تد": 6914,
      "اقه": 6915,
      "ماجرا": 6916,
      "قبال": 6917,
      "نشینی": 6918,
      "▁بشینه": 6919,
      "قلب": 6920,
      "▁بیاوری": 6921,
      "آفتابی": 6922,
      "▁مشترک": 6923,
      "دانیم": 6924,
      "▁جهیدن": 6925,
      "▁ورق": 6926,
      "▁ارابه": 6927,
      "آز": 6928,
      "بیدار": 6929,
      "نایی": 6930,
      "زیتون": 6931,
      "ادامه": 6932,
      "▁هری": 6933,
      "▁اسپیدی": 6934,
      "▁یابد": 6935,
      "▁زدی": 6936,
      "▁سوفی": 6937,
      "▁حالیکه": 6938,
      "▁گوهر": 6939,
      "بيا": 6940,
      "▁روبی": 6941,
      "▁آبش": 6942,
      "▁گوشش": 6943,
      "▁سپاسگزاری": 6944,
      "پینکی": 6945,
      "▁ورودی": 6946,
      "▁عضلات": 6947,
      "کاکتوس": 6948,
      "▁وفاداری": 6949,
      "صحبت": 6950,
      "آسی": 6951,
      "▁بگو": 6952,
      "ندید": 6953,
      "▁مفهوم": 6954,
      "▁تمیزی": 6955,
      "▁سازند": 6956,
      "▁سروصدا": 6957,
      "▁زشتی": 6958,
      "خنداند": 6959,
      "▁ترفند": 6960,
      "▁سريع": 6961,
      "▁بلنده": 6962,
      "▁هایمان": 6963,
      "▁كار": 6964,
      "▁فروخت": 6965,
      "▁چشمه": 6966,
      "▁غریبی": 6967,
      "هواپیمای": 6968,
      "تعجب": 6969,
      "▁هنری": 6970,
      "سرگرم": 6971,
      "▁عظیمی": 6972,
      "جیر": 6973,
      "پایش": 6974,
      "▁تای": 6975,
      "▁جانی": 6976,
      "▁زیگزاگ": 6977,
      "برایش": 6978,
      "▁پرسیدن": 6979,
      "▁کیت": 6980,
      "چرخد": 6981,
      "▁اومدند": 6982,
      "دستمال": 6983,
      "▁برسانند": 6984,
      "آتشفشان": 6985,
      "▁بذار": 6986,
      "▁مودبانه": 6987,
      "▁زومی": 6988,
      "▁پوسته": 6989,
      "دودی": 6990,
      "▁بتونی": 6991,
      "▁داو": 6992,
      "▁درمان": 6993,
      "▁بازیگاه": 6994,
      "▁بدو": 6995,
      "▁برگردان": 6996,
      "▁گیری": 6997,
      "▁تصویرش": 6998,
      "▁پتویش": 6999,
      "▁نصب": 7000,
      "▁بیاییم": 7001,
      "▁افز": 7002,
      "▁طبق": 7003,
      "بام": 7004,
      "خنده": 7005,
      "روقت": 7006,
      "▁قادر": 7007,
      "ورن": 7008,
      "▁بدوم": 7009,
      "▁سوالی": 7010,
      "▁سوئیچ": 7011,
      "برانگیز": 7012,
      "▁هیول": 7013,
      "▁اتاقم": 7014,
      "▁مراسم": 7015,
      "▁ذهن": 7016,
      "▁الکس": 7017,
      "چیزها": 7018,
      "وفانی": 7019,
      "▁يه": 7020,
      "▁نظاره": 7021,
      "▁لجنزار": 7022,
      "كن": 7023,
      "مض": 7024,
      "وکیل": 7025,
      "▁نرود": 7026,
      "▁سع": 7027,
      "خوایم": 7028,
      "بیاین": 7029,
      "رمانی": 7030,
      "▁نمیاد": 7031,
      "ماتی": 7032,
      "▁ریزی": 7033,
      "▁معاوضه": 7034,
      "▁قطره": 7035,
      "▁برجی": 7036,
      "▁آهنگی": 7037,
      "▁سبدش": 7038,
      "▁بچر": 7039,
      "▁بمونی": 7040,
      "▁خرطو": 7041,
      "st": 7042,
      "ایمن": 7043,
      "خون": 7044,
      "▁کندوی": 7045,
      "▁عمو": 7046,
      "اینه": 7047,
      "▁خودروی": 7048,
      "سوت": 7049,
      "▁صدایشان": 7050,
      "▁تابیدن": 7051,
      "▁سخته": 7052,
      "▁سلامتی": 7053,
      "▁ورزشی": 7054,
      "hat": 7055,
      "جمد": 7056,
      "خرف": 7057,
      "خیره": 7058,
      "فلفل": 7059,
      "كان": 7060,
      "▁ترد": 7061,
      "ادوی": 7062,
      "روبات": 7063,
      "▁استقبال": 7064,
      "لوفه": 7065,
      "شدن": 7066,
      "اونم": 7067,
      "▁قدمی": 7068,
      "شناس": 7069,
      "▁نمیک": 7070,
      "تانک": 7071,
      "▁سفیدی": 7072,
      "ترسند": 7073,
      "▁مبلمان": 7074,
      "▁ببندند": 7075,
      "محکم": 7076,
      "▁خوشگذران": 7077,
      "يت": 7078,
      "کب": 7079,
      "▁نبیند": 7080,
      "▁کردین": 7081,
      "▁عمق": 7082,
      "مونه": 7083,
      "▁زردش": 7084,
      "▁بدونه": 7085,
      "برویم": 7086,
      "▁فراوانی": 7087,
      "▁ندهد": 7088,
      "لزله": 7089,
      "▁تپانچه": 7090,
      "رادی": 7091,
      "▁بانی": 7092,
      "▁بارگ": 7093,
      "▁نخواهم": 7094,
      "▁هربار": 7095,
      "▁شکستی": 7096,
      "دونستم": 7097,
      "▁شیطونی": 7098,
      "سوزاند": 7099,
      "▁اقسام": 7100,
      "امتحان": 7101,
      "شست": 7102,
      "▁بردم": 7103,
      "دیده": 7104,
      "▁گرسنگی": 7105,
      "چنگال": 7106,
      "▁بیاوریم": 7107,
      "▁بچینند": 7108,
      "▁نخورده": 7109,
      "▁بگویی": 7110,
      "آهنگ": 7111,
      "بغل": 7112,
      "▁قای": 7113,
      "بیشتر": 7114,
      "هربار": 7115,
      "▁پارك": 7116,
      "▁بردارید": 7117,
      "▁برگردی": 7118,
      "▁بنشینم": 7119,
      "▁sa": 7120,
      "▁تهدید": 7121,
      "▁بدرخشد": 7122,
      "تعریف": 7123,
      "تای": 7124,
      "حیاط": 7125,
      "خرم": 7126,
      "▁بندی": 7127,
      "▁میخوام": 7128,
      "▁نخواهند": 7129,
      "▁برچسبی": 7130,
      "تیش": 7131,
      "گیریم": 7132,
      "▁زیورآلات": 7133,
      "احتی": 7134,
      "برید": 7135,
      "▁غمگینم": 7136,
      "گذارم": 7137,
      "پیپ": 7138,
      "بالن": 7139,
      "وقتشه": 7140,
      "▁ببندیم": 7141,
      "▁بذرها": 7142,
      "▁غلطی": 7143,
      "▁تصادف": 7144,
      "تکه": 7145,
      "خدا": 7146,
      "قوی": 7147,
      "▁وي": 7148,
      "▁وزنه": 7149,
      "▁باحکمت": 7150,
      "▁نما": 7151,
      "ادبی": 7152,
      "ایندی": 7153,
      "▁هو": 7154,
      "▁کوچیکی": 7155,
      "▁بیچاره": 7156,
      "همون": 7157,
      "▁بلغ": 7158,
      "▁اشیای": 7159,
      "▁شنبه": 7160,
      "شکل": 7161,
      "▁شکوف": 7162,
      "▁کاغذش": 7163,
      "▁سوارش": 7164,
      "▁کمرش": 7165,
      "▁هواپیماهای": 7166,
      "▁برقرار": 7167,
      "▁kard": 7168,
      "صورتش": 7169,
      ".‬\n‫": 7170,
      "تولدت": 7171,
      "▁کالباس": 7172,
      "رب": 7173,
      "رید": 7174,
      "راب": 7175,
      "شادی": 7176,
      "▁ستارگان": 7177,
      "▁خبره": 7178,
      "▁علاق": 7179,
      "شنیدند": 7180,
      "▁متنوع": 7181,
      "▁شدیدتر": 7182,
      "▁تیزش": 7183,
      "▁برنگرد": 7184,
      "▁اطلاع": 7185,
      "صفحه": 7186,
      "مجسمه": 7187,
      "عات": 7188,
      "▁ورود": 7189,
      "▁میشن": 7190,
      "▁پندی": 7191,
      "زیست": 7192,
      "▁زير": 7193,
      "▁چالش": 7194,
      "▁فینی": 7195,
      "▁پرجنب": 7196,
      "خواسته": 7197,
      "دیگ": 7198,
      "▁بزنن": 7199,
      "▁علامتی": 7200,
      "▁خشمگین": 7201,
      "پاندا": 7202,
      "\n\"": 7203,
      "ex": 7204,
      "آمیزی": 7205,
      "بدو": 7206,
      "ذیری": 7207,
      "▁دکان": 7208,
      "▁وار": 7209,
      "▁بیفته": 7210,
      "▁جنگیدن": 7211,
      "▁نکردی": 7212,
      "موناد": 7213,
      "▁سردشان": 7214,
      "درختی": 7215,
      "بروید": 7216,
      "▁مفیدی": 7217,
      "▁زمين": 7218,
      "▁تیرک": 7219,
      "پاشید": 7220,
      "▁دریانوردی": 7221,
      "طی": 7222,
      "غرش": 7223,
      "وروم": 7224,
      "▁روبات": 7225,
      "▁دويد": 7226,
      "▁چجوری": 7227,
      "یرت": 7228,
      "▁مهمان": 7229,
      "▁ذخیره": 7230,
      "▁آوردم": 7231,
      "▁الگوی": 7232,
      "ليلی": 7233,
      "▁هوشمندی": 7234,
      "▁هنر": 7235,
      "مایه": 7236,
      "▁پافشاری": 7237,
      "دریاچه": 7238,
      "العاده": 7239,
      "▁قضاوت": 7240,
      "▁عوعو": 7241,
      "▁نسیم": 7242,
      "ایه": 7243,
      "▁کوکو": 7244,
      "▁پایی": 7245,
      "وانات": 7246,
      "▁مرداب": 7247,
      "▁مامور": 7248,
      "▁حرفی": 7249,
      "▁ناخوش": 7250,
      "پیتان": 7251,
      "▁توانستم": 7252,
      "اخره": 7253,
      "▁جانور": 7254,
      "بندد": 7255,
      "▁شامل": 7256,
      "▁مادربزرگشان": 7257,
      "پوشد": 7258,
      ".‬\n\n‫": 7259,
      "▁اسکوترش": 7260,
      "▁چرتی": 7261,
      "تنی": 7262,
      "عمولی": 7263,
      "مشت": 7264,
      "▁ساقه": 7265,
      "▁عنکبوتی": 7266,
      "پرچم": 7267,
      "الیو": 7268,
      "▁لبخندهای": 7269,
      "▁خواستیم": 7270,
      "شکمش": 7271,
      "بالاخره": 7272,
      "اتفاقی": 7273,
      "▁آزرده": 7274,
      "▁چاقی": 7275,
      "▁نادری": 7276,
      "▁بنوشند": 7277,
      "مهمانی": 7278,
      "محافظ": 7279,
      "▁طبیعی": 7280,
      "▁فولادی": 7281,
      "▁شرمساری": 7282,
      "وسی": 7283,
      "▁بتونم": 7284,
      "▁کادو": 7285,
      "ستر": 7286,
      "▁خزیدند": 7287,
      "▁تیلی": 7288,
      "▁نگیر": 7289,
      "▁سل": 7290,
      "▁درحال": 7291,
      "▁جزر": 7292,
      "▁توصیه": 7293,
      "▁موزی": 7294,
      "▁ببندی": 7295,
      "▁نشتی": 7296,
      "▁نشینند": 7297,
      "کشی": 7298,
      "▁لیموی": 7299,
      "▁معم": 7300,
      "▁هدف": 7301,
      "ترسناک": 7302,
      "▁رسند": 7303,
      "▁تستی": 7304,
      "کلوچه": 7305,
      "▁میکنن": 7306,
      "▁تال": 7307,
      "▁نزند": 7308,
      "▁دوستام": 7309,
      "▁توتو": 7310,
      "▁علوفه": 7311,
      "کنان": 7312,
      "▁گذاشتم": 7313,
      "اونقدر": 7314,
      "▁خوردنش": 7315,
      "▁محی": 7316,
      "▁محدودی": 7317,
      "▁آشتی": 7318,
      "▁دردی": 7319,
      "وقتي": 7320,
      "▁وحشتناکی": 7321,
      "▁غلتاندند": 7322,
      "پوشند": 7323,
      "صاحبش": 7324,
      "كردند": 7325,
      "فنجان": 7326,
      "▁افزایش": 7327,
      "عطسه": 7328,
      "▁گفتی": 7329,
      "▁کشوی": 7330,
      "▁عروسکت": 7331,
      "▁درآوردن": 7332,
      "▁مدادهای": 7333,
      "▁مقدمه": 7334,
      "صداهای": 7335,
      "▁بیفتی": 7336,
      "▁عمرش": 7337,
      "▁خانوادش": 7338,
      "ab": 7339,
      "ld": 7340,
      "قدم": 7341,
      "▁بت": 7342,
      "ونش": 7343,
      "▁غوطه": 7344,
      "اینبار": 7345,
      "▁بهترینش": 7346,
      "▁محو": 7347,
      "▁گریس": 7348,
      "▁معاینه": 7349,
      "▁رقصنده": 7350,
      "▁بکوب": 7351,
      "▁بچینیم": 7352,
      "▁رسيد": 7353,
      "▁بنشینیم": 7354,
      "▁تقلید": 7355,
      "نوشید": 7356,
      "ربای": 7357,
      "لاله": 7358,
      "نواز": 7359,
      "وسای": 7360,
      "▁سانی": 7361,
      "▁قله": 7362,
      "▁فكر": 7363,
      "▁منف": 7364,
      "▁کارو": 7365,
      "بزغاله": 7366,
      "▁گردوی": 7367,
      "▁بکارد": 7368,
      "▁جلد": 7369,
      "عزیزانم": 7370,
      "▁محیط": 7371,
      "et": 7372,
      "درو": 7373,
      "صخره": 7374,
      "والی": 7375,
      "يل": 7376,
      "▁اد": 7377,
      "▁چیده": 7378,
      "حالم": 7379,
      "بابایش": 7380,
      "▁منجمد": 7381,
      "▁تابان": 7382,
      "▁خرگوشش": 7383,
      "▁مرتکب": 7384,
      "▁خورشیدی": 7385,
      "▁شرق": 7386,
      "تصاو": 7387,
      "▁حسودی": 7388,
      "▁غرغر": 7389,
      "▁دستکشش": 7390,
      "خودکار": 7391,
      "▁روزگاران": 7392,
      "▁هيجان": 7393,
      "زیباست": 7394,
      "▁شکفتن": 7395,
      "▁خواننده": 7396,
      "اخلاقی": 7397,
      "جست": 7398,
      "شلو": 7399,
      "وعی": 7400,
      "▁أ": 7401,
      "▁امش": 7402,
      "▁نپذیرفت": 7403,
      "▁پان": 7404,
      "▁لاله": 7405,
      "شترم": 7406,
      "بابت": 7407,
      "▁نیستن": 7408,
      "▁تابستانی": 7409,
      "فرار": 7410,
      "خورده": 7411,
      "▁بابایشان": 7412,
      "▁كنه": 7413,
      "▁مخزن": 7414,
      "خوشحالی": 7415,
      "▁نباشند": 7416,
      "▁گیره": 7417,
      "آبمیوه": 7418,
      "▁ديدند": 7419,
      "یادداشت": 7420,
      "▁بفهمند": 7421,
      "▁موندن": 7422,
      "میکسر": 7423,
      "▁میتنز": 7424,
      "▁دورش": 7425,
      "میتوانی": 7426,
      "▁کناره": 7427,
      "▁قاطر": 7428,
      "دوم": 7429,
      "▁نشوید": 7430,
      "▁گیت": 7431,
      "▁آرزویش": 7432,
      "▁قشنگش": 7433,
      "دونی": 7434,
      "▁ماریا": 7435,
      "▁زبانش": 7436,
      "▁خطرناکه": 7437,
      "کمکت": 7438,
      "دختره": 7439,
      "▁اختلاف": 7440,
      "▁معتمد": 7441,
      "▁محدودیت": 7442,
      "رر": 7443,
      "شخص": 7444,
      "چیکار": 7445,
      "▁h": 7446,
      "▁کدر": 7447,
      "▁کپی": 7448,
      "▁کرمی": 7449,
      "▁میگوید": 7450,
      "▁بازیشان": 7451,
      "تره": 7452,
      "▁ناآ": 7453,
      "▁آهو": 7454,
      "دونستند": 7455,
      "▁میدوید": 7456,
      "▁لاکپشت": 7457,
      "▁نتونستن": 7458,
      "▁do": 7459,
      "شوالیه": 7460,
      "▁بگوییم": 7461,
      "▁کریستال": 7462,
      "▁فرمانروا": 7463,
      "▁امشب": 7464,
      "خیر": 7465,
      "عتی": 7466,
      "▁گونی": 7467,
      "▁دیدمش": 7468,
      "▁اینچ": 7469,
      "▁حواس": 7470,
      "▁تندترین": 7471,
      "▁یخبند": 7472,
      "▁بیندازیم": 7473,
      "کلارا": 7474,
      "▁جرعه": 7475,
      "▁بخواهند": 7476,
      "▁وسیع": 7477,
      "اولین": 7478,
      "▁بزرگسالان": 7479,
      "هردوشون": 7480,
      "▁قدردانی": 7481,
      "آوی": 7482,
      "شا": 7483,
      "چطوری": 7484,
      "▁شونه": 7485,
      "▁درام": 7486,
      "میو": 7487,
      "▁کنيم": 7488,
      "▁پرینت": 7489,
      "اندازند": 7490,
      "لاسی": 7491,
      "▁دستاش": 7492,
      "▁نبودن": 7493,
      "▁ندارید": 7494,
      "گذارید": 7495,
      "▁متشکر": 7496,
      "▁برگردانند": 7497,
      "داریم": 7498,
      "▁متنوعی": 7499,
      "▁ميا": 7500,
      "▁اصیل": 7501,
      "▁کفشش": 7502,
      "▁بیلبورد": 7503,
      "▁فشردند": 7504,
      "▁غیرمعمولی": 7505,
      "▁بارگیری": 7506,
      "آمبولانس": 7507,
      "خالی": 7508,
      "شیم": 7509,
      "ژیک": 7510,
      "▁انا": 7511,
      "▁والی": 7512,
      "▁چار": 7513,
      "▁غش": 7514,
      "▁عین": 7515,
      "▁خودداری": 7516,
      "دوقلو": 7517,
      "نبود": 7518,
      "▁باغی": 7519,
      "▁خیابون": 7520,
      "▁بیشترین": 7521,
      "نمود": 7522,
      "▁کمربندش": 7523,
      "حدس": 7524,
      "▁خرطومش": 7525,
      "شترمرغ": 7526,
      "،\"": 7527,
      "آوا": 7528,
      "سفر": 7529,
      "عود": 7530,
      "چمن": 7531,
      "کشم": 7532,
      "▁میل": 7533,
      "▁درشت": 7534,
      "▁برسی": 7535,
      "▁کوچولوش": 7536,
      "▁سمتشان": 7537,
      "شمع": 7538,
      "▁لوکس": 7539,
      "▁دلم": 7540,
      "پاپ": 7541,
      "▁شکستند": 7542,
      "جرقه": 7543,
      "▁لغزیدن": 7544,
      "▁لیموترش": 7545,
      "عمول": 7546,
      "رابی": 7547,
      "ساندویچ": 7548,
      "مجبور": 7549,
      "▁بریدند": 7550,
      "▁غاری": 7551,
      "لوفر": 7552,
      "▁باریک": 7553,
      "پیچی": 7554,
      "▁شناخت": 7555,
      "▁پرتقالی": 7556,
      "ماندند": 7557,
      "بندم": 7558,
      "فهمد": 7559,
      "▁پاسپور": 7560,
      "▁پوستی": 7561,
      "▁طلای": 7562,
      "▁نوشتند": 7563,
      "▁بنشینی": 7564,
      "▁استخوانش": 7565,
      "Tim": 7566,
      "گاز": 7567,
      "▁an": 7568,
      "▁ولوت": 7569,
      "▁شير": 7570,
      "▁پم": 7571,
      "▁هدر": 7572,
      "▁برسیم": 7573,
      "ریزند": 7574,
      "▁قبلی": 7575,
      "▁فیفی": 7576,
      "▁نیستید": 7577,
      "بوبی": 7578,
      "▁نيست": 7579,
      "مئنی": 7580,
      "▁مثبت": 7581,
      "Tom": 7582,
      "تکان": 7583,
      "▁مویی": 7584,
      "▁خونش": 7585,
      "▁روزهایش": 7586,
      "راکت": 7587,
      "اسر": 7588,
      "ورت": 7589,
      "▁سرهایشان": 7590,
      "▁آبلیمو": 7591,
      "دانستیم": 7592,
      "موهایش": 7593,
      "▁چهچه": 7594,
      "▁کیفی": 7595,
      "▁بگذرونه": 7596,
      "▁كنم": 7597,
      "ملخ": 7598,
      "▁پلک": 7599,
      "▁قدرتمندی": 7600,
      "ash": 7601,
      "نویسد": 7602,
      "▁ارزشمندی": 7603,
      "یخچال": 7604,
      "▁فولاد": 7605,
      "تیلی": 7606,
      "جون": 7607,
      "ضای": 7608,
      "غوانی": 7609,
      "▁رئیس": 7610,
      "یکا": 7611,
      "یکباری": 7612,
      "▁قوس": 7613,
      "▁پرخاش": 7614,
      "▁حر": 7615,
      "هرچند": 7616,
      "▁بدست": 7617,
      "کیپ": 7618,
      "▁پیشخوان": 7619,
      "سنجابی": 7620,
      "ترساند": 7621,
      "▁dar": 7622,
      "▁پاستا": 7623,
      "▁رایانه": 7624,
      "ديگر": 7625,
      "بهار": 7626,
      "سوی": 7627,
      "پونی": 7628,
      "‎.": 7629,
      "▁دوستات": 7630,
      "▁کندند": 7631,
      "هرچقدر": 7632,
      "▁دستان": 7633,
      "کانگورو": 7634,
      "گفتن": 7635,
      "بوسد": 7636,
      "▁تقاض": 7637,
      "▁اجرای": 7638,
      "▁باهوشانه": 7639,
      "!\n\"": 7640,
      "▁ساندویچش": 7641,
      "▁لیموها": 7642,
      "ast": 7643,
      "▁جمله": 7644,
      "▁نیفتد": 7645,
      "▁سرتاسر": 7646,
      "▁‬": 7647,
      "▁دژ": 7648,
      "▁راب": 7649,
      "آنی": 7650,
      "▁رومیزی": 7651,
      "▁سهم": 7652,
      "▁هرد": 7653,
      "▁حیرت": 7654,
      "اینو": 7655,
      "گفتم": 7656,
      "▁خوردنی": 7657,
      "قفل": 7658,
      "دادن": 7659,
      "▁هویجی": 7660,
      "▁دعوتنامه": 7661,
      "هنری": 7662,
      "▁شهرش": 7663,
      "▁ایگلوی": 7664,
      "▁پشمالوی": 7665,
      "▁منتظرشان": 7666,
      "▁اندوهگین": 7667,
      "▁بفهمه": 7668,
      "باو": 7669,
      "شام": 7670,
      "پخت": 7671,
      "چید": 7672,
      "▁نخی": 7673,
      "▁نکشید": 7674,
      "ترک": 7675,
      "شکسته": 7676,
      "▁تلخی": 7677,
      "▁تابی": 7678,
      "▁تنو": 7679,
      "▁امتداد": 7680,
      "▁آتشی": 7681,
      "▁قولش": 7682,
      "▁چشمهایش": 7683,
      "▁سطلش": 7684,
      "▁نمایشگاه": 7685,
      "خودت": 7686,
      "براق": 7687,
      "کوبید": 7688,
      "آشپزخانه": 7689,
      "شعله": 7690,
      "کاسه": 7691,
      "▁افس": 7692,
      "▁تعدادی": 7693,
      "▁کناری": 7694,
      "▁کوچه": 7695,
      "▁دستت": 7696,
      "اونها": 7697,
      "کمر": 7698,
      "▁سرسخت": 7699,
      "▁سرده": 7700,
      "▁مطاب": 7701,
      "▁بذاری": 7702,
      "مغازه": 7703,
      "اعقه": 7704,
      "ud": 7705,
      "جیب": 7706,
      "حوض": 7707,
      "خشک": 7708,
      "دیر": 7709,
      "دلم": 7710,
      "عسل": 7711,
      "يش": 7712,
      "▁of": 7713,
      "▁تره": 7714,
      "▁نمانده": 7715,
      "▁درش": 7716,
      "میتوانم": 7717,
      "▁لر": 7718,
      "▁گرفتنش": 7719,
      "▁نقاب": 7720,
      "توپم": 7721,
      "بردن": 7722,
      "▁قطارهای": 7723,
      "نیازی": 7724,
      "▁بیلچه": 7725,
      "اتاقش": 7726,
      "▁نواختند": 7727,
      "▁مزخرف": 7728,
      "▁فرستاده": 7729,
      "▁????????": 7730,
      "▁مأمو": 7731,
      "پستچی": 7732,
      "خي": 7733,
      "گله": 7734,
      "ادثه": 7735,
      "▁روباهی": 7736,
      "▁پريد": 7737,
      "▁پرپشم": 7738,
      "▁آبرو": 7739,
      "موتو": 7740,
      "گذرد": 7741,
      "▁تارعنکبوت": 7742,
      "▁كرده": 7743,
      "مشکل": 7744,
      "▁بشقابش": 7745,
      "تماش": 7746,
      "▁پاندای": 7747,
      "مضمون": 7748,
      "احتیاط": 7749,
      "▁یخبندان": 7750,
      "▁چارلی": 7751,
      "فران": 7752,
      "▁اکتش": 7753,
      "▁نفهمید": 7754,
      "▁جراحی": 7755,
      "▁علی": 7756,
      "▁زدنی": 7757,
      "▁ببخشید": 7758,
      "▁متعد": 7759,
      "▁لیموناد": 7760,
      "▁گردنی": 7761,
      "هیولای": 7762,
      "▁آزرد": 7763,
      "▁فیلمی": 7764,
      "▁ابزارهای": 7765,
      "درخشیدند": 7766,
      "آسانسور": 7767,
      "▁بمالد": 7768,
      "▁خصوصی": 7769,
      "ver": 7770,
      "خجال": 7771,
      "ضا": 7772,
      "‪.‬": 7773,
      "▁ارس": 7774,
      "انگور": 7775,
      "▁میپرید": 7776,
      "آنچه": 7777,
      "توم": 7778,
      "بارون": 7779,
      "▁ترب": 7780,
      "▁خودرو": 7781,
      "▁خودمون": 7782,
      "شکم": 7783,
      "▁شوت": 7784,
      "قیچی": 7785,
      "▁مخملی": 7786,
      "▁فهمیدن": 7787,
      "▁نجاتش": 7788,
      "جرج": 7789,
      "▁پیرمردی": 7790,
      "▁بنشین": 7791,
      "هايش": 7792,
      "منظره": 7793,
      "▁مربعی": 7794,
      "▁ويژه": 7795,
      "جاب": 7796,
      "زل": 7797,
      "زبرا": 7798,
      "▁دفت": 7799,
      "▁بازیت": 7800,
      "▁یکسان": 7801,
      "▁بزغاله": 7802,
      "▁اینها": 7803,
      "بران": 7804,
      "▁بخونیم": 7805,
      "▁بپزیم": 7806,
      "▁پوشاندند": 7807,
      "▁آسیبت": 7808,
      "بوسند": 7809,
      "▁شجاعتش": 7810,
      "▁براشون": 7811,
      "▁انگورها": 7812,
      "▁منقار": 7813,
      "▁دروغین": 7814,
      "▁مخروطی": 7815,
      "▁خفنه": 7816,
      "▁درحالیکه": 7817,
      "▁ترکی": 7818,
      "▁جدیدشون": 7819,
      "▁ماژیک": 7820,
      "▁پیانوی": 7821,
      "▁برداشتی": 7822,
      "خرسی": 7823,
      "▁عصر": 7824,
      "▁تمایل": 7825,
      "▁تلاشش": 7826,
      "مرتب": 7827,
      "گلدان": 7828,
      "▁نشونش": 7829,
      "▁ارغوانی": 7830,
      "فرمایید": 7831,
      "▁منتظرش": 7832,
      "▁بگویید": 7833,
      "ig": 7834,
      "رعد": 7835,
      "علام": 7836,
      "لمس": 7837,
      "کمد": 7838,
      "▁نفری": 7839,
      "▁زنگی": 7840,
      "توتو": 7841,
      "▁خوشبو": 7842,
      "بهم": 7843,
      "▁بداخلاقی": 7844,
      "خواهرش": 7845,
      "قفس": 7846,
      "سفید": 7847,
      "▁اردکی": 7848,
      "چیزهایی": 7849,
      "تونستند": 7850,
      "▁رودخونه": 7851,
      "▁وسایلت": 7852,
      "▁بخشش": 7853,
      "▁بریزند": 7854,
      "▁ترشی": 7855,
      "▁پیوستن": 7856,
      "▁مسئولی": 7857,
      "▁کاپشن": 7858,
      "مخلوط": 7859,
      "▁سوزاند": 7860,
      "کلمات": 7861,
      "دفترچه": 7862,
      "▁پايين": 7863,
      "ro": 7864,
      "ut": 7865,
      "آی": 7866,
      "زارا": 7867,
      "فان": 7868,
      "یون": 7869,
      "▁اخلاق": 7870,
      "▁نوه": 7871,
      "▁یکجا": 7872,
      "▁هماه": 7873,
      "استخوان": 7874,
      "▁لز": 7875,
      "منوع": 7876,
      "▁زیست": 7877,
      "▁ترحم": 7878,
      "▁موهاش": 7879,
      "▁خودمه": 7880,
      "▁تعلق": 7881,
      "اردکی": 7882,
      "قدرت": 7883,
      "دهقان": 7884,
      "لفلی": 7885,
      "بالشت": 7886,
      "بندند": 7887,
      "▁علفزار": 7888,
      "رسان": 7889,
      "▁خودکارش": 7890,
      "فروشگاه": 7891,
      "▁رؤی": 7892,
      "▁ايده": 7893,
      "حوله": 7894,
      "▁غیرمعمول": 7895,
      "بویی": 7896,
      "لب": 7897,
      "چاق": 7898,
      "▁میای": 7899,
      "▁ناله": 7900,
      "▁شرور": 7901,
      "▁آتیش": 7902,
      "▁پرا": 7903,
      "▁خوشحاله": 7904,
      "▁تاحالا": 7905,
      "ولوت": 7906,
      "▁جدیدت": 7907,
      "▁پیپ": 7908,
      "▁نباشه": 7909,
      "‌‌‌": 7910,
      "▁برقصی": 7911,
      "▁رؤیای": 7912,
      "غولی": 7913,
      "نترسید": 7914,
      "کوه": 7915,
      "▁میگوی": 7916,
      "روست": 7917,
      "متری": 7918,
      "▁سوخته": 7919,
      "▁چیزهایش": 7920,
      "مولا": 7921,
      "▁برداشتم": 7922,
      "▁محبوبی": 7923,
      "▁آبیاری": 7924,
      "▁چشیدند": 7925,
      "▁فکور": 7926,
      "مهربانی": 7927,
      "▁داوودی": 7928,
      "▁نماید": 7929,
      "▁اکتشاف": 7930,
      "▁ارسال": 7931,
      "آروم": 7932,
      "حتش": 7933,
      "سس": 7934,
      "لگد": 7935,
      "مبل": 7936,
      "پتو": 7937,
      "گندم": 7938,
      "▁ممنوع": 7939,
      "▁باره": 7940,
      "▁خیر": 7941,
      "▁همیش": 7942,
      "اهمیت": 7943,
      "▁چالاب": 7944,
      "▁لجو": 7945,
      "راتی": 7946,
      "گیگی": 7947,
      "مامور": 7948,
      "▁نیاورد": 7949,
      "نبوری": 7950,
      "▁بادبانی": 7951,
      "جواب": 7952,
      "▁ترسيده": 7953,
      "خوابیدند": 7954,
      "▁بگرده": 7955,
      "▁طعمش": 7956,
      "دانش": 7957,
      "قبی": 7958,
      "يف": 7959,
      "▁واد": 7960,
      "▁روزانه": 7961,
      "▁آمیز": 7962,
      "▁جس": 7963,
      "▁اینطور": 7964,
      "▁بیپ": 7965,
      "ویله": 7966,
      "اندازه": 7967,
      "▁نمیخواست": 7968,
      "▁نشاط": 7969,
      "بوته": 7970,
      "▁روشنش": 7971,
      "▁پیچیدند": 7972,
      "▁هواپیمایش": 7973,
      "لرزد": 7974,
      "نظم": 7975,
      "▁شکوفه": 7976,
      "ext": 7977,
      "مشتاق": 7978,
      "▁گیتارش": 7979,
      "کمربند": 7980,
      "Lil": 7981,
      "عادی": 7982,
      "نوار": 7983,
      "وزی": 7984,
      "▁her": 7985,
      "▁کلو": 7986,
      "▁کمتری": 7987,
      "▁اداره": 7988,
      "▁میرسید": 7989,
      "▁بزرگي": 7990,
      "▁صعود": 7991,
      "▁شادشان": 7992,
      "نشین": 7993,
      "▁شیروانی": 7994,
      "▁مرتبی": 7995,
      "▁نگرفته": 7996,
      "آموز": 7997,
      "▁سریعی": 7998,
      "▁جادوییه": 7999,
      "کاملا": 8000,
      "▁دعوایشان": 8001,
      "▁همیشگی": 8002,
      "el": 8003,
      "شوید": 8004,
      "عشق": 8005,
      "▁میتونست": 8006,
      "▁جبران": 8007,
      "▁قاپ": 8008,
      "▁زدم": 8009,
      "▁بیگانه": 8010,
      "دیدم": 8011,
      "▁طمع": 8012,
      "▁کشش": 8013,
      "▁اتاقتان": 8014,
      "▁زیرزمینی": 8015,
      "▁انسانی": 8016,
      "▁شناخته": 8017,
      "رویس": 8018,
      "▁پولک": 8019,
      "▁دزدیده": 8020,
      "▁خيلى": 8021,
      "▁ليلی": 8022,
      "▁ببخشی": 8023,
      "▁mik": 8024,
      "▁سطح": 8025,
      "خد": 8026,
      "مود": 8027,
      "▁li": 8028,
      "▁شش": 8029,
      "اشتراک": 8030,
      "دیوید": 8031,
      "▁طوفانی": 8032,
      "تابد": 8033,
      "▁اتاقک": 8034,
      "▁سریعتر": 8035,
      "خراب": 8036,
      "▁كل": 8037,
      "▁بشکنم": 8038,
      "▁بشویند": 8039,
      "توپش": 8040,
      "▁خرده": 8041,
      "▁سیرک": 8042,
      "▁ترومپ": 8043,
      "تقریبا": 8044,
      "▁خمیری": 8045,
      "▁زيادي": 8046,
      "فشه": 8047,
      "▁روزى": 8048,
      "توماس": 8049,
      "ویژه": 8050,
      "▁سرخوردن": 8051,
      "▁متنی": 8052,
      "▁مداو": 8053,
      "▁کشیدم": 8054,
      "پیپا": 8055,
      "امیدواریم": 8056,
      "▁فنجون": 8057,
      "▁لبش": 8058,
      "▁شخصیت": 8059,
      "▁فضاپیم": 8060,
      "خوشبختم": 8061,
      "▁نمیدونست": 8062,
      "هل": 8063,
      "▁میشود": 8064,
      "هاتون": 8065,
      "▁درگیر": 8066,
      "برق": 8067,
      "▁ببنده": 8068,
      "▁مهمتر": 8069,
      "▁اطرافشان": 8070,
      "▁اومدی": 8071,
      "▁ضع": 8072,
      "اجاق": 8073,
      "▁پشیمون": 8074,
      "▁تولدت": 8075,
      "▁دوختن": 8076,
      "▁معمول": 8077,
      "تصاویر": 8078,
      "▁تنومند": 8079,
      "▁لجوج": 8080,
      "رسه": 8081,
      "▁رازی": 8082,
      "اونی": 8083,
      "▁خوشتیپ": 8084,
      "▁خوشگله": 8085,
      "ریخته": 8086,
      "▁اسرار": 8087,
      "▁پارکینگ": 8088,
      "▁پروژه": 8089,
      "▁مهربانش": 8090,
      "شکست": 8091,
      "▁جالباسی": 8092,
      "معلمش": 8093,
      "▁قویش": 8094,
      "▁شیری": 8095,
      "خورشیدی": 8096,
      "▁تکالی": 8097,
      "ماریا": 8098,
      "▁هواپیماها": 8099,
      "▁سوختن": 8100,
      "گیاهان": 8101,
      "▁مچاله": 8102,
      "احمقانه": 8103,
      "▁پراکند": 8104,
      "بده": 8105,
      "▁فع": 8106,
      "لوبیا": 8107,
      "▁رویاپ": 8108,
      "▁کارتی": 8109,
      "▁نیند": 8110,
      "▁افتادم": 8111,
      "گذرانی": 8112,
      "مهره": 8113,
      "▁ببینمش": 8114,
      "▁برگردانی": 8115,
      "▁ملال": 8116,
      "داشتن": 8117,
      "▁برفک": 8118,
      "همچنان": 8119,
      "▁بخواهید": 8120,
      "▁طبلش": 8121,
      "نارنجی": 8122,
      "▁مشهوری": 8123,
      "▁دوربینش": 8124,
      "▁زيادی": 8125,
      "▁بازوهایش": 8126,
      "▁چسباندند": 8127,
      "▁اضطراری": 8128,
      "غلتید": 8129,
      "▁ظریفی": 8130,
      "آسیاب": 8131,
      "▁رویاپرد": 8132,
      "بفرمایید": 8133,
      "مویی": 8134,
      "ووف": 8135,
      "چیه": 8136,
      "کاس": 8137,
      "▁ریه": 8138,
      "اینا": 8139,
      "▁پایه": 8140,
      "▁هیچی": 8141,
      "▁گذاشتی": 8142,
      "▁تعویق": 8143,
      "▁پیو": 8144,
      "▁خوبش": 8145,
      "▁آسانی": 8146,
      "▁داستانش": 8147,
      "ابرهای": 8148,
      "▁خیسی": 8149,
      "▁بشکنند": 8150,
      "گرده": 8151,
      "تاج": 8152,
      "▁مجوز": 8153,
      "دستبند": 8154,
      "▁عمیقا": 8155,
      "▁بندرگاه": 8156,
      "▁بنویسه": 8157,
      "ساکت": 8158,
      "ادبانه": 8159,
      "▁فوتبالش": 8160,
      "پیتزا": 8161,
      "▁بگيرد": 8162,
      "جیرک": 8163,
      "▁سلری": 8164,
      "▁رویاپردازی": 8165,
      ".‎": 8166,
      "حمام": 8167,
      "فرما": 8168,
      "نما": 8169,
      "کک": 8170,
      "▁رابی": 8171,
      "▁داشتید": 8172,
      "▁بزرگترش": 8173,
      "▁صید": 8174,
      "▁گرفتیم": 8175,
      "▁ترسم": 8176,
      "▁خواهرت": 8177,
      "▁نشانی": 8178,
      "روسری": 8179,
      "▁گریست": 8180,
      "▁حیواناتش": 8181,
      "▁تعجبش": 8182,
      "▁كش": 8183,
      "تصور": 8184,
      "▁انتها": 8185,
      "▁متعادل": 8186,
      "دوستانشان": 8187,
      "▁it": 8188,
      "▁الیو": 8189,
      "▁نشنیدند": 8190,
      "شناختند": 8191,
      "▁بازوهای": 8192,
      "▁خشنی": 8193,
      "▁ترازوی": 8194,
      "ck": 8195,
      "اظر": 8196,
      "سازم": 8197,
      "نقطه": 8198,
      "‏‏": 8199,
      "ندیدند": 8200,
      "ارکت": 8201,
      "▁کندی": 8202,
      "▁توي": 8203,
      "▁کارهایش": 8204,
      "▁نزديک": 8205,
      "مادرانشان": 8206,
      "تابلو": 8207,
      "▁کلماتی": 8208,
      "▁خنديدند": 8209,
      "▁سردم": 8210,
      "▁کثافت": 8211,
      "▁مالیدند": 8212,
      "▁آهنی": 8213,
      "▁بندازه": 8214,
      "▁دزدید": 8215,
      "▁دریافتند": 8216,
      "هیچوقت": 8217,
      "▁انتظارش": 8218,
      "اتومبیل": 8219,
      "پنجه": 8220,
      "آموختند": 8221,
      "زیباترین": 8222,
      "ذیرد": 8223,
      "▁فلوتش": 8224,
      "ft": 8225,
      "آسیب": 8226,
      "زک": 8227,
      "غلی": 8228,
      "چین": 8229,
      "کون": 8230,
      "کره": 8231,
      "یتش": 8232,
      "▁دانی": 8233,
      "▁ارم": 8234,
      "▁هلوی": 8235,
      "▁جاری": 8236,
      "▁فقی": 8237,
      "▁استیچ": 8238,
      "یافت": 8239,
      "▁نیام": 8240,
      "گردباد": 8241,
      "are": 8242,
      "▁چاپگر": 8243,
      "لنگر": 8244,
      "▁تهوع": 8245,
      "دریانورد": 8246,
      "▁دندون": 8247,
      "نمیدونم": 8248,
      "قشنگ": 8249,
      "▁بیسکویت": 8250,
      "▁پاسپورت": 8251,
      ":\n\"": 8252,
      "بي": 8253,
      "رأ": 8254,
      "سنج": 8255,
      "غان": 8256,
      "▁کرو": 8257,
      "▁مدی": 8258,
      "اوری": 8259,
      "درسی": 8260,
      "شانی": 8261,
      "▁اتمام": 8262,
      "▁اونقدر": 8263,
      "خریدند": 8264,
      "خربزه": 8265,
      "▁ساختیم": 8266,
      "▁بشکنه": 8267,
      "باهوش": 8268,
      "گوشت": 8269,
      "▁لیوانش": 8270,
      "رقصیدن": 8271,
      "▁کمدش": 8272,
      "پارکی": 8273,
      "▁ارزشش": 8274,
      "شنیدم": 8275,
      "قراره": 8276,
      "▁هیولایی": 8277,
      "▁منفجر": 8278,
      "علامت": 8279,
      "حلز": 8280,
      "عبی": 8281,
      "چتر": 8282,
      "▁گرون": 8283,
      "▁روبال": 8284,
      "خوریم": 8285,
      "▁حی": 8286,
      "▁تاجی": 8287,
      "▁منصف": 8288,
      "سوزن": 8289,
      "▁طویله": 8290,
      "▁عروسکم": 8291,
      "▁لیس": 8292,
      "▁پاها": 8293,
      "▁سبزش": 8294,
      "▁نماند": 8295,
      "▁البته": 8296,
      "حیو": 8297,
      "▁زنان": 8298,
      "رقصد": 8299,
      "گاوها": 8300,
      "▁جریان": 8301,
      "...\"": 8302,
      "▁استخون": 8303,
      "▁ناهارشان": 8304,
      "چکمه": 8305,
      "▁کهنسال": 8306,
      "▁ارمغان": 8307,
      "آمی": 8308,
      "آيا": 8309,
      "مگر": 8310,
      "هوف": 8311,
      "▁نخل": 8312,
      "▁سرویس": 8313,
      "میتنز": 8314,
      "▁برعکس": 8315,
      "▁طی": 8316,
      "▁دهانشان": 8317,
      "▁تنفس": 8318,
      "▁شنیدم": 8319,
      "▁ترساندن": 8320,
      "بازم": 8321,
      "▁بخوابیم": 8322,
      "پوشاند": 8323,
      "▁ضعیفی": 8324,
      "▁طلب": 8325,
      "واقعی": 8326,
      "▁ماجرایی": 8327,
      "▁سردرگمی": 8328,
      "شریک": 8329,
      "▁حيوانات": 8330,
      "▁بپاشد": 8331,
      "▁رهبر": 8332,
      "شلوار": 8333,
      "ve": 8334,
      "آخر": 8335,
      "اضی": 8336,
      "دنده": 8337,
      "راز": 8338,
      "شانه": 8339,
      "لع": 8340,
      "▁کلا": 8341,
      "▁بازیه": 8342,
      "▁خوشایندی": 8343,
      "▁بزاره": 8344,
      "استفاده": 8345,
      "کردید": 8346,
      "▁فلفلی": 8347,
      "▁حادثه": 8348,
      "▁عقاب": 8349,
      "▁عقبی": 8350,
      "▁منط": 8351,
      "▁تراش": 8352,
      "▁خوردم": 8353,
      "▁هاپی": 8354,
      "▁محتر": 8355,
      "بوق": 8356,
      "▁خیلى": 8357,
      "▁ثبت": 8358,
      "▁نرده": 8359,
      "▁ببندم": 8360,
      "▁تاجش": 8361,
      "▁مرموزی": 8362,
      "آهسته": 8363,
      "▁مخالف": 8364,
      "▁هماهنگ": 8365,
      "al": 8366,
      "آووک": 8367,
      "خمیر": 8368,
      "طع": 8369,
      "پازل": 8370,
      "▁بچرخه": 8371,
      "▁گازی": 8372,
      "▁سویی": 8373,
      "▁خوراک": 8374,
      "▁فرم": 8375,
      "ازن": 8376,
      "▁بدوی": 8377,
      "▁داگ": 8378,
      "گذرون": 8379,
      "طرات": 8380,
      "▁گرمشان": 8381,
      "سبزی": 8382,
      "▁تلفنی": 8383,
      "▁بشوییم": 8384,
      "▁دماغش": 8385,
      "▁مسئولیت": 8386,
      "جثه": 8387,
      "کاب": 8388,
      "▁he": 8389,
      "▁کسب": 8390,
      "▁رزی": 8391,
      "▁وق": 8392,
      "▁میزی": 8393,
      "امشب": 8394,
      "▁سره": 8395,
      "▁هوت": 8396,
      "روب": 8397,
      "▁پرشی": 8398,
      "▁بدبویی": 8399,
      "▁بخونم": 8400,
      "▁مامانت": 8401,
      "▁شادانه": 8402,
      "▁نمای": 8403,
      "▁دردش": 8404,
      "▁صفاری": 8405,
      "▁خلاقیت": 8406,
      "▁مغزها": 8407,
      "▁kh": 8408,
      "▁بمونم": 8409,
      "▁بشماریم": 8410,
      "▁آویزون": 8411,
      "▁مزاحمت": 8412,
      "ood": 8413,
      "▁دندانش": 8414,
      "▁شغلش": 8415,
      "▁رایگان": 8416,
      "▁مادرم": 8417,
      "ماجراجویی": 8418,
      "▁سعي": 8419,
      "▁پرخاشگر": 8420,
      "▁مداوم": 8421,
      "▁نیامده": 8422,
      "آدامس": 8423,
      "شنی": 8424,
      "▁خال": 8425,
      "▁میهم": 8426,
      "▁شسته": 8427,
      "▁سيب": 8428,
      "خوانم": 8429,
      "▁له": 8430,
      "▁غير": 8431,
      "▁سگک": 8432,
      "▁دوستشون": 8433,
      "▁بالایی": 8434,
      "▁کیکش": 8435,
      "▁تابحال": 8436,
      "تشکر": 8437,
      "بدجن": 8438,
      "▁چوبش": 8439,
      "▁چرخان": 8440,
      "▁چرخاندند": 8441,
      "▁چرخاندن": 8442,
      "▁زردی": 8443,
      "▁text": 8444,
      "▁ببرن": 8445,
      "▁عروسکیش": 8446,
      "▁سپرش": 8447,
      "▁ثابت": 8448,
      "▁بنفشی": 8449,
      "پوشه": 8450,
      "عموی": 8451,
      "مادربزرگش": 8452,
      "▁باندپیچی": 8453,
      "▁نشنیده": 8454,
      "▁جیمز": 8455,
      "▁بیاموزد": 8456,
      "حوصله": 8457,
      "▁باشکوه": 8458,
      "▁سرمای": 8459,
      "▁کودکان": 8460,
      "▁نحوه": 8461,
      "خوشحالیم": 8462,
      "▁واداشت": 8463,
      "حلزون": 8464,
      "اژدهای": 8465,
      "حقیقت": 8466,
      "مادی": 8467,
      "یزی": 8468,
      "▁ملا": 8469,
      "▁اث": 8470,
      "▁میزدند": 8471,
      "▁تراک": 8472,
      "ارف": 8473,
      "▁هق": 8474,
      "▁خوانند": 8475,
      "▁دوستامون": 8476,
      "▁آرو": 8477,
      "▁زاری": 8478,
      "خوراکی": 8479,
      "▁فرف": 8480,
      "▁صاعقه": 8481,
      "▁ترجی": 8482,
      "▁هاپ": 8483,
      "▁بالاست": 8484,
      "▁مربی": 8485,
      "کشیدن": 8486,
      "▁سرشار": 8487,
      "▁بشنوی": 8488,
      "▁نزنید": 8489,
      "▁باتجربه": 8490,
      "پرتقال": 8491,
      "وسایل": 8492,
      "▁ترومپتش": 8493,
      "!'": 8494,
      "جس": 8495,
      "جولی": 8496,
      "ذوب": 8497,
      "نپ": 8498,
      "▁کمانی": 8499,
      "▁نخواهی": 8500,
      "▁نترسد": 8501,
      "▁درهم": 8502,
      "میگه": 8503,
      "باتی": 8504,
      "▁درختچه": 8505,
      "▁ترسد": 8506,
      "ناامید": 8507,
      "ادیوم": 8508,
      "مانم": 8509,
      "▁بلندق": 8510,
      "گذره": 8511,
      "▁فران": 8512,
      "گردن": 8513,
      "▁بسازید": 8514,
      "▁قشنگیه": 8515,
      "▁آرزوها": 8516,
      "▁دیوارهای": 8517,
      "اجره": 8518,
      "▁روستایی": 8519,
      "گرفتن": 8520,
      "▁لرزان": 8521,
      "عالیت": 8522,
      "جمجمه": 8523,
      "▁تلفنش": 8524,
      "▁براى": 8525,
      "▁پیوسته": 8526,
      "سپات": 8527,
      "شقایق": 8528,
      "فع": 8529,
      "قسمت": 8530,
      "کورن": 8531,
      "▁دشت": 8532,
      "▁ماری": 8533,
      "هالی": 8534,
      "▁گست": 8535,
      "▁خوانده": 8536,
      "▁یکسانی": 8537,
      "▁بیابد": 8538,
      "▁کمکتان": 8539,
      "▁نمیتونست": 8540,
      "▁بدید": 8541,
      "پرپشت": 8542,
      "▁بازسازی": 8543,
      "دوستشان": 8544,
      "▁اشتباهات": 8545,
      "▁اندازد": 8546,
      "▁خشکش": 8547,
      "▁حفاری": 8548,
      "▁آویخت": 8549,
      "▁تحمل": 8550,
      "▁تونستن": 8551,
      "▁آلودگی": 8552,
      "پاشیدند": 8553,
      "▁میزدن": 8554,
      "ent": 8555,
      "▁you": 8556,
      "▁مترجم": 8557,
      "▁تعمیرش": 8558,
      "حوضچه": 8559,
      "▁ضعف": 8560,
      ".'": 8561,
      "چکش": 8562,
      "▁hi": 8563,
      "▁بفروش": 8564,
      "▁دیدیم": 8565,
      "▁پرین": 8566,
      "▁مناظر": 8567,
      "▁مونده": 8568,
      "▁موهایت": 8569,
      "▁دهقان": 8570,
      "مادرهایشان": 8571,
      "بیاید": 8572,
      "سگش": 8573,
      "▁برگردون": 8574,
      "▁هنوزم": 8575,
      "▁تندر": 8576,
      "▁مطب": 8577,
      "▁سیبی": 8578,
      "مالید": 8579,
      "▁ساعتش": 8580,
      "▁موندند": 8581,
      "▁wit": 8582,
      "برگشتند": 8583,
      "▁پاستل": 8584,
      "تقسیم": 8585,
      "تختی": 8586,
      "کامپیوتر": 8587,
      "▁حياط": 8588,
      "▁لزج": 8589,
      "zi": 8590,
      "اغ": 8591,
      "وله": 8592,
      "▁j": 8593,
      "▁ببا": 8594,
      "▁نبات": 8595,
      "▁سندی": 8596,
      "میرا": 8597,
      "توای": 8598,
      "استخر": 8599,
      "ویگلی": 8600,
      "سیاره": 8601,
      "مواف": 8602,
      "▁غذاش": 8603,
      "شکار": 8604,
      "بلز": 8605,
      "فرست": 8606,
      "صدایش": 8607,
      "▁فهمیده": 8608,
      "▁سفرهای": 8609,
      "▁زیبایشان": 8610,
      "▁دزدیدن": 8611,
      "عماق": 8612,
      "▁ویدئو": 8613,
      "▁کاشتند": 8614,
      "▁آلبال": 8615,
      "مکانیک": 8616,
      "▁مسئول": 8617,
      "▁پهنی": 8618,
      "▁with": 8619,
      "سلول": 8620,
      "▁اعماق": 8621,
      "▁شکی": 8622,
      "▁شدنش": 8623,
      "▁زلزله": 8624,
      "▁استیو": 8625,
      "▁گريه": 8626,
      "مناسب": 8627,
      "اتش": 8628,
      "اینجاست": 8629,
      "توانستم": 8630,
      "▁ماپ": 8631,
      "قطعات": 8632,
      "▁تنظیم": 8633,
      "▁مسنی": 8634,
      "▁نداشتن": 8635,
      "گونگی": 8636,
      "گوگو": 8637,
      "▁برجشان": 8638,
      "▁سنگینه": 8639,
      "زانویش": 8640,
      "▁پاستلی": 8641,
      "▁فنر": 8642,
      "hod": 8643,
      "آویز": 8644,
      "آووکادو": 8645,
      "▁ترجیح": 8646,
      "pp": 8647,
      "pot": 8648,
      "تنه": 8649,
      "صابون": 8650,
      "عذرخواهی": 8651,
      "يون": 8652,
      "▁بان": 8653,
      "امتی": 8654,
      "▁پالی": 8655,
      "ایح": 8656,
      "ابک": 8657,
      "▁زل": 8658,
      "▁چرم": 8659,
      "خوانی": 8660,
      "▁بزرگتری": 8661,
      "اسلاید": 8662,
      "برمی": 8663,
      "▁بخونی": 8664,
      "بانند": 8665,
      "▁رنگهای": 8666,
      "▁پیامی": 8667,
      "دوستم": 8668,
      "▁خوبي": 8669,
      "▁بپذیرد": 8670,
      "▁معمولا": 8671,
      "▁بشین": 8672,
      "▁بشینیم": 8673,
      "▁میزنه": 8674,
      "▁دنیایی": 8675,
      "▁بنویسی": 8676,
      "asht": 8677,
      "▁اذیتش": 8678,
      "▁مسافر": 8679,
      "▁بدبختی": 8680,
      "▁هدایا": 8681,
      "▁ناخوشایند": 8682,
      "▁بکوبد": 8683,
      "▁پانسمان": 8684,
      "▁دفترش": 8685,
      "ئت": 8686,
      "برش": 8687,
      "سپاس": 8688,
      "پالی": 8689,
      "کری": 8690,
      "▁بم": 8691,
      "▁بوم": 8692,
      "▁ادوی": 8693,
      "امله": 8694,
      "▁ناه": 8695,
      "▁بریده": 8696,
      "▁قدی": 8697,
      "▁دادنش": 8698,
      "▁بیارم": 8699,
      "▁نامن": 8700,
      "▁کردنه": 8701,
      "▁بخواد": 8702,
      "▁نبودم": 8703,
      "▁هایم": 8704,
      "گذران": 8705,
      "دهانش": 8706,
      "▁بپزند": 8707,
      "▁موشی": 8708,
      "▁شیرش": 8709,
      "▁مشاجره": 8710,
      "▁سیری": 8711,
      "▁مدادش": 8712,
      "رنگش": 8713,
      "▁امیدوارم": 8714,
      "▁نصایح": 8715,
      "▁جونز": 8716,
      "▁تقلب": 8717,
      "غافلگیر": 8718,
      "▁ديگران": 8719,
      "رادیو": 8720,
      "▁تالار": 8721,
      "▁حواسش": 8722,
      "▁ادویه": 8723,
      "Spot": 8724,
      "لاب": 8725,
      "مدر": 8726,
      "پلی": 8727,
      "▁بتونن": 8728,
      "▁مف": 8729,
      "امن": 8730,
      "▁نکش": 8731,
      "▁دویده": 8732,
      "▁چترش": 8733,
      "▁فعالیت": 8734,
      "▁کوچکترین": 8735,
      "مامانی": 8736,
      "ماجر": 8737,
      "▁برگزاری": 8738,
      "▁نزديك": 8739,
      "▁نشوی": 8740,
      "▁نشانت": 8741,
      "▁نباشی": 8742,
      "▁گیجی": 8743,
      "▁داغه": 8744,
      "▁نانوایی": 8745,
      "عبده": 8746,
      "▁bud": 8747,
      "▁بزرگترها": 8748,
      "یادش": 8749,
      "وووم": 8750,
      "▁st": 8751,
      "▁شهرشان": 8752,
      "عصا": 8753,
      "▁بازیگوشی": 8754,
      "▁لوبیاها": 8755,
      "▁طرحی": 8756,
      "‌‌‌‌‌‌‌‌": 8757,
      "▁مایع": 8758,
      "▁حیله": 8759,
      "▁وقوع": 8760,
      "▁میهمانی": 8761,
      "▁میکنیم": 8762,
      "رویا": 8763,
      "▁چرپی": 8764,
      "▁بزرگم": 8765,
      "▁حالم": 8766,
      "▁حرفه": 8767,
      "▁تمرک": 8768,
      "باشگاه": 8769,
      "▁خوابشان": 8770,
      "▁معمای": 8771,
      "▁مخفیانه": 8772,
      "▁ویدی": 8773,
      "▁سریال": 8774,
      "▁بگذرونن": 8775,
      "▁پمپ": 8776,
      "▁فقیری": 8777,
      "آها": 8778,
      "شال": 8779,
      "غار": 8780,
      "ــ": 8781,
      "پذیری": 8782,
      "▁مگی": 8783,
      "▁بااست": 8784,
      "▁سین": 8785,
      "روش": 8786,
      "▁چگونگی": 8787,
      "اسلحه": 8788,
      "لوسي": 8789,
      "▁نمیومد": 8790,
      "▁دیروز": 8791,
      "سوخت": 8792,
      "دیگری": 8793,
      "▁غمگینه": 8794,
      "▁مردد": 8795,
      "جهش": 8796,
      "▁انداز": 8797,
      "▁پاهاش": 8798,
      "▁پوشانده": 8799,
      "▁وقتي": 8800,
      "▁مشغولی": 8801,
      "▁مالیدن": 8802,
      "▁خرابش": 8803,
      "کاتی": 8804,
      "▁ضخیمی": 8805,
      "نواختند": 8806,
      "esh": 8807,
      "انتخاب": 8808,
      "▁گمشو": 8809,
      "موتورسیکلت": 8810,
      "▁سوییچ": 8811,
      "\"\n": 8812,
      ".‏": 8813,
      "ye": 8814,
      "خط": 8815,
      "ماری": 8816,
      "چنگی": 8817,
      "کشه": 8818,
      "▁ملاحظه": 8819,
      "▁واز": 8820,
      "ستری": 8821,
      "▁میتواند": 8822,
      "▁میشی": 8823,
      "▁یکم": 8824,
      "▁جیر": 8825,
      "▁پرچ": 8826,
      "▁گرمه": 8827,
      "▁عال": 8828,
      "هرکدام": 8829,
      "▁سرکش": 8830,
      "▁بازگرد": 8831,
      "موند": 8832,
      "▁شنای": 8833,
      "دهنده": 8834,
      "داغ": 8835,
      "▁خوشحالیم": 8836,
      "▁قایقرانی": 8837,
      "▁آرزوهای": 8838,
      "▁ساحلی": 8839,
      "▁گوگو": 8840,
      "▁برگرداندن": 8841,
      "▁بیاور": 8842,
      "▁بخشیدن": 8843,
      "▁دامنش": 8844,
      "دوربین": 8845,
      "ممم": 8846,
      "▁كنيم": 8847,
      "لرزه": 8848,
      "پناهی": 8849,
      "قربه": 8850,
      "▁بگذرونیم": 8851,
      "▁مدوسا": 8852,
      "▁دربیاورند": 8853,
      "▁پینکی": 8854,
      "خجالت": 8855,
      "چهارشنبه": 8856,
      "یفش": 8857,
      "▁اه": 8858,
      "لیزر": 8859,
      "▁نشت": 8860,
      "▁نشه": 8861,
      "▁گویی": 8862,
      "▁استادیوم": 8863,
      "▁غنی": 8864,
      "▁صافی": 8865,
      "▁پسرم": 8866,
      "افر": 8867,
      "برچسب": 8868,
      "شکلات": 8869,
      "▁تشکیل": 8870,
      "▁کاپیتان": 8871,
      "▁ترسانده": 8872,
      "کواری": 8873,
      "▁قطارش": 8874,
      "انگیزش": 8875,
      "▁بپرسید": 8876,
      "کتابخانه": 8877,
      "▁بمونیم": 8878,
      "▁بپیوندند": 8879,
      "پنکه": 8880,
      "▁ne": 8881,
      "▁حریر": 8882,
      "هردوی": 8883,
      "▁پرسروصدایی": 8884,
      "▁تمرکز": 8885,
      "عنکبوتی": 8886,
      "عجیب": 8887,
      "لاستیک": 8888,
      "مسیر": 8889,
      "نرد": 8890,
      "پایی": 8891,
      "چپ": 8892,
      "ستی": 8893,
      "▁نرفتند": 8894,
      "▁شیم": 8895,
      "زیادی": 8896,
      "▁هیکل": 8897,
      "رگه": 8898,
      "میاو": 8899,
      "▁آد": 8900,
      "▁زور": 8901,
      "▁زهر": 8902,
      "▁گرفتار": 8903,
      "اینکه": 8904,
      "▁طرز": 8905,
      "▁بخوای": 8906,
      "گذاریم": 8907,
      "▁شوخ": 8908,
      "▁موشکش": 8909,
      "▁اطرافی": 8910,
      "اخم": 8911,
      "خوشحالند": 8912,
      "▁بپردازد": 8913,
      "▁that": 8914,
      "▁شکستم": 8915,
      "▁چشمانی": 8916,
      "▁وسایلی": 8917,
      "▁بیفتند": 8918,
      "▁معلمشان": 8919,
      "▁فکرش": 8920,
      "چشمک": 8921,
      "▁دستبندش": 8922,
      "پیچید": 8923,
      "کدوم": 8924,
      "▁ببخشند": 8925,
      "▁بچسباند": 8926,
      "▁علاقش": 8927,
      "دروازه": 8928,
      "▁مأموریت": 8929,
      "ri": 8930,
      "حمت": 8931,
      "دنیا": 8932,
      "ذاره": 8933,
      "عقب": 8934,
      "▁دچار": 8935,
      "▁بالی": 8936,
      "▁شعبده": 8937,
      "▁گپ": 8938,
      "▁پیم": 8939,
      "روری": 8940,
      "▁قص": 8941,
      "باتش": 8942,
      "رالی": 8943,
      "▁نامرت": 8944,
      "▁خودرأ": 8945,
      "▁برگها": 8946,
      "▁دهنده": 8947,
      "▁خوردی": 8948,
      "▁حرفش": 8949,
      "وزپلنگ": 8950,
      "▁ویترین": 8951,
      "چیست": 8952,
      "برداشت": 8953,
      "▁پشمی": 8954,
      "▁پدرت": 8955,
      "▁سوپش": 8956,
      "کلبه": 8957,
      "▁زنبورهای": 8958,
      "▁لیموهای": 8959,
      "▁گذراندم": 8960,
      "▁فلک": 8961,
      "▁جذابی": 8962,
      "▁جدیت": 8963,
      "▁پرداختند": 8964,
      "▁خراشید": 8965,
      "▁نمیدانست": 8966,
      "▁مسئله": 8967,
      "▁yek": 8968,
      "▁فیگور": 8969,
      "▁افسرده": 8970,
      "re": 8971,
      "ue": 8972,
      "بگوید": 8973,
      "بذر": 8974,
      "جیلی": 8975,
      "غله": 8976,
      "هفت": 8977,
      "هروقت": 8978,
      "چرپی": 8979,
      "‬\n‫": 8980,
      "▁سن": 8981,
      "ریز": 8982,
      "▁اسمی": 8983,
      "خواستی": 8984,
      "▁سوتی": 8985,
      "▁ببين": 8986,
      "▁غذاست": 8987,
      "قدرها": 8988,
      "▁تابش": 8989,
      "برایت": 8990,
      "▁کلیدها": 8991,
      "▁نوازشش": 8992,
      "▁نوزادش": 8993,
      "▁بنویسیم": 8994,
      "▁khe": 8995,
      "لرزیدند": 8996,
      "▁مسافران": 8997,
      "شمردند": 8998,
      "العمل": 8999,
      "▁لرزه": 9000,
      "ag": 9001,
      "جارو": 9002,
      "صبور": 9003,
      "عینک": 9004,
      "فیا": 9005,
      "وي": 9006,
      "▁راکی": 9007,
      "هاپ": 9008,
      "▁روان": 9009,
      "روشن": 9010,
      "توپی": 9011,
      "▁غل": 9012,
      "▁صی": 9013,
      "▁سورا": 9014,
      "▁کارشون": 9015,
      "▁خنداند": 9016,
      "▁آسون": 9017,
      "رفته": 9018,
      "بزرگترین": 9019,
      "▁بستر": 9020,
      "▁معامله": 9021,
      "▁کثیفه": 9022,
      "رسانم": 9023,
      "آرزوی": 9024,
      "▁شستشو": 9025,
      "▁جهت": 9026,
      "▁kon": 9027,
      "▁چشمکی": 9028,
      "انتزی": 9029,
      "▁هيچ": 9030,
      "زیبایی": 9031,
      "▁بشوریم": 9032,
      "حیوون": 9033,
      "▁فرفری": 9034,
      "Ben": 9035,
      "On": 9036,
      "Sam": 9037,
      "بفرما": 9038,
      "جسی": 9039,
      "زبان": 9040,
      "پره": 9041,
      "چیکی": 9042,
      "▁e": 9043,
      "▁بکنید": 9044,
      "▁میترسید": 9045,
      "▁نگیرد": 9046,
      "▁دونده": 9047,
      "▁قار": 9048,
      "▁پرهایش": 9049,
      "رافت": 9050,
      "لورا": 9051,
      "▁بدین": 9052,
      "▁بلندقد": 9053,
      "▁کلارا": 9054,
      "▁درستکار": 9055,
      "دهید": 9056,
      "▁بادکن": 9057,
      "نکیک": 9058,
      "▁حمامش": 9059,
      "▁ندیدم": 9060,
      "▁bo": 9061,
      "▁دیگرشان": 9062,
      "پشیمان": 9063,
      "▁متواضعی": 9064,
      "▁not": 9065,
      "oft": 9066,
      "▁نوازنده": 9067,
      "کواریوم": 9068,
      "تشک": 9069,
      "جوان": 9070,
      "مز": 9071,
      "ووم": 9072,
      "کوا": 9073,
      "▁درنی": 9074,
      "▁برقی": 9075,
      "▁قاي": 9076,
      "▁فانتزی": 9077,
      "مکث": 9078,
      "تراز": 9079,
      "ترسه": 9080,
      "▁نامی": 9081,
      "▁دیوید": 9082,
      "▁بدش": 9083,
      "▁هرچقدر": 9084,
      "رفتار": 9085,
      "ابرها": 9086,
      "▁بخیه": 9087,
      "▁مجذوب": 9088,
      "▁دلاور": 9089,
      "مادرم": 9090,
      "هیچکس": 9091,
      "▁موجودی": 9092,
      "آلودگی": 9093,
      "▁رویاهای": 9094,
      "ould": 9095,
      "▁سازنده": 9096,
      "▁اشیاء": 9097,
      "▁چيزی": 9098,
      "ow": 9099,
      "دسته": 9100,
      "سبد": 9101,
      "▁کج": 9102,
      "▁مقاب": 9103,
      "▁نیمی": 9104,
      "▁نروند": 9105,
      "ابرا": 9106,
      "▁جویی": 9107,
      "▁کنده": 9108,
      "▁اوه": 9109,
      "▁پرست": 9110,
      "▁حجاب": 9111,
      "▁اسلاید": 9112,
      "گره": 9113,
      "▁تاپ": 9114,
      "رمارکت": 9115,
      "همگی": 9116,
      "▁کارای": 9117,
      "▁دستم": 9118,
      "دوزک": 9119,
      "▁پیله": 9120,
      "▁بهترینی": 9121,
      "کته": 9122,
      "معنی": 9123,
      "▁مرتبش": 9124,
      "▁پیشش": 9125,
      "▁شامش": 9126,
      "جرثقیل": 9127,
      "▁غلتیدند": 9128,
      "ببینید": 9129,
      "▁منحصربه": 9130,
      "▁جریحه": 9131,
      "▁مصرف": 9132,
      "▁بگم": 9133,
      "▁دربیاره": 9134,
      "ide": 9135,
      "▁مادری": 9136,
      "شناسند": 9137,
      "بپر": 9138,
      "بسته": 9139,
      "پال": 9140,
      "▁دودی": 9141,
      "▁مایل": 9142,
      "انواع": 9143,
      "▁باارزش": 9144,
      "▁گي": 9145,
      "تونا": 9146,
      "ازت": 9147,
      "▁عادت": 9148,
      "▁اینبار": 9149,
      "▁صاح": 9150,
      "برتی": 9151,
      "▁ببيند": 9152,
      "▁فراز": 9153,
      "▁مراقبش": 9154,
      "قصیر": 9155,
      "پیانو": 9156,
      "▁برگردونه": 9157,
      "▁طرفشان": 9158,
      "▁پوشش": 9159,
      "رویی": 9160,
      "▁امضا": 9161,
      "▁الآن": 9162,
      "پوشیدند": 9163,
      "▁جرج": 9164,
      "ساسی": 9165,
      "پیدایش": 9166,
      "▁برنداشتند": 9167,
      "▁عموی": 9168,
      "نویسم": 9169,
      "▁دیواری": 9170,
      "▁سطلی": 9171,
      "▁نمیکرد": 9172,
      "▁خودرأی": 9173,
      "▁سوراخش": 9174,
      "She": 9175,
      "ze": 9176,
      "خزید": 9177,
      "سنجاق": 9178,
      "ناس": 9179,
      "انتظ": 9180,
      "انرژی": 9181,
      "▁میتونن": 9182,
      "▁نحو": 9183,
      "▁آنکه": 9184,
      "▁جلا": 9185,
      "▁زحمت": 9186,
      "▁عبرتی": 9187,
      "خواستش": 9188,
      "▁منبع": 9189,
      "▁بدوزد": 9190,
      "▁موجب": 9191,
      "بررسی": 9192,
      "▁سنگش": 9193,
      "▁عصایی": 9194,
      "▁برگردانیم": 9195,
      "▁پوشاندن": 9196,
      "▁بشویم": 9197,
      "بینیم": 9198,
      "سفندان": 9199,
      "▁مرغزار": 9200,
      "▁مفتخرم": 9201,
      "▁برسانم": 9202,
      "▁موقعیت": 9203,
      "▁لرزش": 9204,
      "نینا": 9205,
      "▁درخشنده": 9206,
      "▁فلش": 9207,
      "▁ro": 9208,
      "▁اعلام": 9209,
      "لغزید": 9210,
      "متعلق": 9211,
      "▁تایر": 9212,
      "سبزیجات": 9213,
      "نردبان": 9214,
      "انسان": 9215,
      "▁میفته": 9216,
      "▁نوی": 9217,
      "ادری": 9218,
      "▁روب": 9219,
      "▁آذ": 9220,
      "▁جاس": 9221,
      "بايد": 9222,
      "▁رویایی": 9223,
      "▁کردنشان": 9224,
      "▁برگهای": 9225,
      "▁پایشان": 9226,
      "ولي": 9227,
      "▁آراست": 9228,
      "طرح": 9229,
      "فیلم": 9230,
      "▁خوابم": 9231,
      "گردیم": 9232,
      "▁دلار": 9233,
      "▁دلشان": 9234,
      "دونه": 9235,
      "▁بهمریختگی": 9236,
      "اکسی": 9237,
      "▁شامپ": 9238,
      "خواندن": 9239,
      "▁سوپرمارکت": 9240,
      "▁پستخانه": 9241,
      "▁برادرند": 9242,
      "▁بندند": 9243,
      "▁ناشنو": 9244,
      "▁مصدوم": 9245,
      "▁آهنربای": 9246,
      "▁بشمارند": 9247,
      "▁غافلگیرانه": 9248,
      "خوندن": 9249,
      "▁نروید": 9250,
      "انداختند": 9251,
      "▁نياز": 9252,
      "▁دانایی": 9253,
      "▁قایقی": 9254,
      "▁متعددی": 9255,
      "Lily": 9256,
      "▁غيرمنتظره": 9257,
      "ترازو": 9258,
      "انتظار": 9259,
      "بلوی": 9260,
      "حصار": 9261,
      "رزی": 9262,
      "كند": 9263,
      "گى": 9264,
      "▁مگ": 9265,
      "▁خرما": 9266,
      "▁بهبودی": 9267,
      "▁نرسید": 9268,
      "▁دوسر": 9269,
      "▁آنی": 9270,
      "▁گفتگو": 9271,
      "▁چو": 9272,
      "ناك": 9273,
      "▁تعارف": 9274,
      "▁تشكر": 9275,
      "جهی": 9276,
      "▁نکردید": 9277,
      "▁معن": 9278,
      "▁متعفن": 9279,
      "▁تصاویرش": 9280,
      "▁عرق": 9281,
      "▁والدینتان": 9282,
      "▁بخوریمش": 9283,
      "▁جرئت": 9284,
      "▁نتونستند": 9285,
      "▁نترسیدند": 9286,
      "▁کوبیدن": 9287,
      "▁دستورالعمل": 9288,
      "▁هدایای": 9289,
      "▁شاگرد": 9290,
      "باورش": 9291,
      "▁منصفانه": 9292,
      "آینه": 9293,
      "تسلیم": 9294,
      "شبی": 9295,
      "ضاع": 9296,
      "متر": 9297,
      "▁خاله": 9298,
      "▁نانی": 9299,
      "▁روى": 9300,
      "میگوی": 9301,
      "▁اوضاع": 9302,
      "استی": 9303,
      "درخشد": 9304,
      "▁بیابان": 9305,
      "مدی": 9306,
      "▁سوم": 9307,
      "▁نیلوفر": 9308,
      "▁بلندتری": 9309,
      "▁بخون": 9310,
      "▁پرورش": 9311,
      "▁ترسیدم": 9312,
      "▁نشک": 9313,
      "▁گوشتی": 9314,
      "▁شادش": 9315,
      "▁اندکی": 9316,
      "▁کثیفش": 9317,
      "▁پنهانک": 9318,
      "▁دلداری": 9319,
      "▁دلپذیر": 9320,
      "خیص": 9321,
      "▁بچینی": 9322,
      "عمویش": 9323,
      "▁موزیک": 9324,
      "▁اژدهاها": 9325,
      "والدینشان": 9326,
      "▁عملی": 9327,
      "هايت": 9328,
      "▁ماجرایش": 9329,
      "هووف": 9330,
      "▁پوسیده": 9331,
      "▁نامرتب": 9332,
      "بیم": 9333,
      "جلیقه": 9334,
      "طبی": 9335,
      "فل": 9336,
      "یتی": 9337,
      "▁کيک": 9338,
      "▁نخوری": 9339,
      "▁دوستند": 9340,
      "▁چم": 9341,
      "▁نزده": 9342,
      "▁پیشانی": 9343,
      "رزمین": 9344,
      "سمون": 9345,
      "▁ساختمون": 9346,
      "دادم": 9347,
      "گردون": 9348,
      "▁ترسناکه": 9349,
      "▁کامپی": 9350,
      "خوامش": 9351,
      "پاهای": 9352,
      "▁مسیرش": 9353,
      "فهمم": 9354,
      "▁حیوانش": 9355,
      "▁فضانورد": 9356,
      "▁رساندن": 9357,
      "▁موداری": 9358,
      "سالاد": 9359,
      "پرده": 9360,
      "▁kho": 9361,
      "پیداش": 9362,
      "جنگیدند": 9363,
      "▁گوسفندها": 9364,
      "نوشند": 9365,
      "▁اعمال": 9366,
      "وسیله": 9367,
      "▁قاپید": 9368,
      "بدجنس": 9369,
      "بلوط": 9370,
      "جار": 9371,
      "حفه": 9372,
      "قوه": 9373,
      "هلو": 9374,
      "کاش": 9375,
      "▁مباهات": 9376,
      "زیاد": 9377,
      "▁روتختی": 9378,
      "▁جلی": 9379,
      "▁برطرف": 9380,
      "حالش": 9381,
      "▁پرپر": 9382,
      "▁پرسه": 9383,
      "▁بدانم": 9384,
      "▁داروی": 9385,
      "▁قرمزت": 9386,
      "▁خواهری": 9387,
      "▁نشیند": 9388,
      "▁تشخیص": 9389,
      "مرده": 9390,
      "▁خرسند": 9391,
      "جواهر": 9392,
      "▁قفسی": 9393,
      "کوزه": 9394,
      "▁رقصش": 9395,
      "▁بینم": 9396,
      "پاهایش": 9397,
      "▁تیپ": 9398,
      "کلاهش": 9399,
      "ساختمان": 9400,
      "▁اينکه": 9401,
      "▁پشمش": 9402,
      "▁چسباندن": 9403,
      "▁نحیف": 9404,
      "▁چيست": 9405,
      "▁بیسکویی": 9406,
      "دوقلوها": 9407,
      "▁بلندقامت": 9408,
      "موافقت": 9409,
      "اى": 9410,
      "جلوی": 9411,
      "پشک": 9412,
      "چادر": 9413,
      "گلو": 9414,
      "▁on": 9415,
      "▁بسوزاند": 9416,
      "▁نگ": 9417,
      "▁دوت": 9418,
      "ابند": 9419,
      "▁جنب": 9420,
      "استیو": 9421,
      "▁فراری": 9422,
      "▁محلی": 9423,
      "▁محوطه": 9424,
      "▁لیوانی": 9425,
      "بوری": 9426,
      "▁حیاطش": 9427,
      "مساف": 9428,
      "▁قفلی": 9429,
      "▁مطمئنی": 9430,
      "▁بپوشیم": 9431,
      "رقصند": 9432,
      "▁پاداشی": 9433,
      "▁برادرت": 9434,
      "▁بپرسند": 9435,
      "پرسیدند": 9436,
      "▁شستش": 9437,
      "▁شهد": 9438,
      "▁بيشتر": 9439,
      "▁بترسانند": 9440,
      "▁جاروب": 9441,
      "▁پنیری": 9442,
      "اطرافش": 9443,
      "قراری": 9444,
      "▁طعمی": 9445,
      "▁تقاضا": 9446,
      "▁رؤیایش": 9447,
      "▁منطقه": 9448,
      "▁بااستعداد": 9449,
      "بگذارید": 9450,
      "دیم": 9451,
      "کبریت": 9452,
      "‬‫": 9453,
      "▁u": 9454,
      "▁ابی": 9455,
      "▁میرسد": 9456,
      "▁بهاری": 9457,
      "▁نرساند": 9458,
      "▁پف": 9459,
      "الماس": 9460,
      "روبان": 9461,
      "▁کنین": 9462,
      "▁چیکی": 9463,
      "▁چابک": 9464,
      "▁حلی": 9465,
      "▁اسفنج": 9466,
      "اقی": 9467,
      "▁نمیشه": 9468,
      "ماكس": 9469,
      "پرتاب": 9470,
      "▁کارمند": 9471,
      "▁طاقت": 9472,
      "▁هاست": 9473,
      "▁ببو": 9474,
      "▁خنديد": 9475,
      "▁بپذیر": 9476,
      "▁لیسد": 9477,
      "▁لباسشویی": 9478,
      "▁شیفته": 9479,
      "شیط": 9480,
      "▁دلنشین": 9481,
      "مقداری": 9482,
      "▁مدرنی": 9483,
      "▁پنبه": 9484,
      "▁غلتاندن": 9485,
      "▁بریزی": 9486,
      "▁day": 9487,
      "▁یوگ": 9488,
      "▁آجرها": 9489,
      "▁اختیار": 9490,
      "میکسی": 9491,
      "جورج": 9492,
      "▁بجنگد": 9493,
      "▁وارونه": 9494,
      "▁مطابقت": 9495,
      "▁سینما": 9496,
      "جمع": 9497,
      "ذیرش": 9498,
      "زات": 9499,
      "ممو": 9500,
      "▁بترسد": 9501,
      "▁کباب": 9502,
      "▁انی": 9503,
      "▁تكان": 9504,
      "اشه": 9505,
      "میخ": 9506,
      "▁آشن": 9507,
      "▁پرمو": 9508,
      "باها": 9509,
      "سیندی": 9510,
      "▁غارش": 9511,
      "▁بیب": 9512,
[...]
