{
  "version": "1.0",
  "truncation": null,
  "padding": null,
  "added_tokens": [
    {
      "id": 0,
      "content": "<|PAD|>",
      "single_word": false,
      "lstrip": false,
      "rstrip": false,
      "normalized": false,
      "special": true
    },
    {
      "id": 1,
      "content": "<|BOS|>",
      "single_word": false,
      "lstrip": false,
      "rstrip": false,
      "normalized": false,
      "special": true
    },
    {
      "id": 2,
      "content": "<|EOS|>",
      "single_word": false,
      "lstrip": false,
      "rstrip": false,
      "normalized": false,
      "special": true
    },
    {
      "id": 3,
      "content": "<|UNK|>",
      "single_word": false,
      "lstrip": false,
      "rstrip": false,
      "normalized": false,
      "special": true
    }
  ],
  "normalizer": {
    "type": "NFKC"
  },
  "pre_tokenizer": {
    "type": "Metaspace",
    "replacement": "▁",
    "prepend_scheme": "never",
    "split": true
  },
  "post_processor": {
    "type": "TemplateProcessing",
    "single": [
      {
        "SpecialToken": {
          "id": "<|BOS|>",
          "type_id": 0
        }
      },
      {
        "Sequence": {
          "id": "A",
          "type_id": 0
        }
      },
      {
        "SpecialToken": {
          "id": "<|EOS|>",
          "type_id": 0
        }
      }
    ],
    "pair": [
      {
        "SpecialToken": {
          "id": "<|BOS|>",
          "type_id": 0
        }
      },
      {
        "Sequence": {
          "id": "A",
          "type_id": 0
        }
      },
      {
        "SpecialToken": {
          "id": "<|EOS|>",
          "type_id": 0
        }
      },
      {
        "SpecialToken": {
          "id": "<|BOS|>",
          "type_id": 1
        }
      },
      {
        "Sequence": {
          "id": "B",
          "type_id": 1
        }
      },
      {
        "SpecialToken": {
          "id": "<|EOS|>",
          "type_id": 1
        }
      }
    ],
    "special_tokens": {
      "<|BOS|>": {
        "id": "<|BOS|>",
        "ids": [
          1
        ],
        "tokens": [
          "<|BOS|>"
        ]
      },
      "<|EOS|>": {
        "id": "<|EOS|>",
        "ids": [
          2
        ],
        "tokens": [
          "<|EOS|>"
        ]
      }
    }
  },
  "decoder": {
    "type": "Metaspace",
    "replacement": "▁",
    "prepend_scheme": "never",
    "split": true
  },
  "model": {
    "type": "BPE",
    "dropout": null,
    "unk_token": "<|UNK|>",
    "continuing_subword_prefix": null,
    "end_of_word_suffix": null,
    "fuse_unk": false,
    "byte_fallback": false,
    "ignore_merges": false,
    "vocab": {
      "<|PAD|>": 0,
      "<|BOS|>": 1,
      "<|EOS|>": 2,
      "<|UNK|>": 3,
      "!": 4,
      "\"": 5,
      "'": 6,
      "(": 7,
      ")": 8,
      "*": 9,
      "+": 10,
      ",": 11,
      "-": 12,
      ".": 13,
      "/": 14,
      "0": 15,
      "1": 16,
      "2": 17,
      "3": 18,
      "4": 19,
      "5": 20,
      "6": 21,
      "7": 22,
      "8": 23,
      "9": 24,
      ":": 25,
      "=": 26,
      "?": 27,
      "a": 28,
      "A": 29,
      "b": 30,
      "B": 31,
      "c": 32,
      "C": 33,
      "d": 34,
      "D": 35,
      "e": 36,
      "E": 37,
      "f": 38,
      "F": 39,
      "g": 40,
      "G": 41,
      "h": 42,
      "H": 43,
      "i": 44,
      "I": 45,
      "j": 46,
      "J": 47,
      "k": 48,
      "K": 49,
      "l": 50,
      "L": 51,
      "m": 52,
      "M": 53,
      "n": 54,
      "N": 55,
      "o": 56,
      "O": 57,
      "p": 58,
      "P": 59,
      "q": 60,
      "Q": 61,
      "r": 62,
      "R": 63,
      "s": 64,
      "S": 65,
      "t": 66,
      "T": 67,
      "u": 68,
      "U": 69,
      "v": 70,
      "V": 71,
      "w": 72,
      "W": 73,
      "x": 74,
      "X": 75,
      "y": 76,
      "Y": 77,
      "z": 78,
      "Z": 79,
      "â": 80,
      "Â": 81,
      "،": 82,
      "؛": 83,
      "؟": 84,
      "ء": 85,
      "آ": 86,
      "أ": 87,
      "ؤ": 88,
      "إ": 89,
      "ئ": 90,
      "ا": 91,
      "ب": 92,
      "ة": 93,
      "ت": 94,
      "ث": 95,
      "ج": 96,
      "ح": 97,
      "خ": 98,
      "د": 99,
      "ذ": 100,
      "ر": 101,
      "ز": 102,
      "س": 103,
      "ش": 104,
      "ص": 105,
      "ض": 106,
      "ط": 107,
      "ظ": 108,
      "ع": 109,
      "غ": 110,
      "ـ": 111,
      "ف": 112,
      "ق": 113,
      "ك": 114,
      "ل": 115,
      "م": 116,
      "ن": 117,
      "ه": 118,
      "و": 119,
      "ى": 120,
      "ي": 121,
      "ً": 122,
      "ٍ": 123,
      "َ": 124,
      "ُ": 125,
      "ِ": 126,
      "ّ": 127,
      "ْ": 128,
      "ٔ": 129,
      "٬": 130,
      "پ": 131,
      "چ": 132,
      "ژ": 133,
      "ک": 134,
      "گ": 135,
      "ھ": 136,
      "ۀ": 137,
      "ہ": 138,
      "ی": 139,
      "ە": 140,
      "۰": 141,
      "۱": 142,
      "۲": 143,
      "۳": 144,
      "۵": 145,
      "‌": 146,
      "‍": 147,
      "‎": 148,
      "‏": 149,
      "‪": 150,
      "‫": 151,
      "‬": 152,
      "▁": 153,
      "\t": 154,
      "\n": 155,
      "▁!": 156,
      "▁\"": 157,
      "▁'": 158,
      "▁(": 159,
      "▁)": 160,
      "▁*": 161,
      "▁+": 162,
      "▁,": 163,
      "▁-": 164,
      "▁.": 165,
      "▁/": 166,
      "▁0": 167,
      "▁1": 168,
      "▁2": 169,
      "▁3": 170,
      "▁4": 171,
      "▁5": 172,
      "▁6": 173,
      "▁7": 174,
      "▁8": 175,
      "▁9": 176,
      "▁:": 177,
      "▁=": 178,
      "▁?": 179,
      "▁a": 180,
      "▁A": 181,
      "▁b": 182,
      "▁B": 183,
      "▁c": 184,
      "▁C": 185,
      "▁d": 186,
      "▁D": 187,
      "▁e": 188,
      "▁E": 189,
      "▁f": 190,
      "▁F": 191,
      "▁g": 192,
      "▁G": 193,
      "▁h": 194,
      "▁H": 195,
      "▁i": 196,
      "▁I": 197,
      "▁j": 198,
      "▁J": 199,
      "▁k": 200,
      "▁K": 201,
      "▁l": 202,
      "▁L": 203,
      "▁m": 204,
      "▁M": 205,
      "▁n": 206,
      "▁N": 207,
      "▁o": 208,
      "▁O": 209,
      "▁p": 210,
      "▁P": 211,
      "▁q": 212,
      "▁Q": 213,
      "▁r": 214,
      "▁R": 215,
      "▁s": 216,
      "▁S": 217,
      "▁t": 218,
      "▁T": 219,
      "▁u": 220,
      "▁U": 221,
      "▁v": 222,
      "▁V": 223,
      "▁w": 224,
      "▁W": 225,
      "▁x": 226,
      "▁X": 227,
      "▁y": 228,
      "▁Y": 229,
      "▁z": 230,
      "▁Z": 231,
      "▁â": 232,
      "▁Â": 233,
      "▁،": 234,
      "▁؛": 235,
      "▁؟": 236,
      "▁ء": 237,
      "▁آ": 238,
      "▁أ": 239,
      "▁ؤ": 240,
      "▁إ": 241,
      "▁ئ": 242,
      "▁ا": 243,
      "▁ب": 244,
      "▁ة": 245,
      "▁ت": 246,
      "▁ث": 247,
      "▁ج": 248,
      "▁ح": 249,
      "▁خ": 250,
      "▁د": 251,
      "▁ذ": 252,
      "▁ر": 253,
      "▁ز": 254,
      "▁س": 255,
      "▁ش": 256,
      "▁ص": 257,
      "▁ض": 258,
      "▁ط": 259,
      "▁ظ": 260,
      "▁ع": 261,
      "▁غ": 262,
      "▁ـ": 263,
      "▁ف": 264,
      "▁ق": 265,
      "▁ك": 266,
      "▁ل": 267,
      "▁م": 268,
      "▁ن": 269,
      "▁ه": 270,
      "▁و": 271,
      "▁ى": 272,
      "▁ي": 273,
      "▁ً": 274,
      "▁ٍ": 275,
      "▁َ": 276,
      "▁ُ": 277,
      "▁ِ": 278,
      "▁ّ": 279,
      "▁ْ": 280,
      "▁ٔ": 281,
      "▁٬": 282,
      "▁پ": 283,
      "▁چ": 284,
      "▁ژ": 285,
      "▁ک": 286,
      "▁گ": 287,
      "▁ھ": 288,
      "▁ۀ": 289,
      "▁ہ": 290,
      "▁ی": 291,
      "▁ە": 292,
      "▁۰": 293,
      "▁۱": 294,
      "▁۲": 295,
      "▁۳": 296,
      "▁۵": 297,
      "▁‌": 298,
      "▁‍": 299,
      "▁‎": 300,
      "▁‏": 301,
      "▁‪": 302,
      "▁‫": 303,
      "▁‬": 304,
      "ند": 305,
      "▁ند": 306,
      "با": 307,
      "▁با": 308,
      "می": 309,
      "▁می": 310,
      "را": 311,
      "▁را": 312,
      "رد": 313,
      "▁رد": 314,
      "ست": 315,
      "▁ست": 316,
      "به": 317,
      "▁به": 318,
      "ان": 319,
      "▁ان": 320,
      "ید": 321,
      "▁ید": 322,
      "رو": 323,
      "▁رو": 324,
      "کرد": 325,
      "▁کرد": 326,
      "ها": 327,
      "▁ها": 328,
      "ود": 329,
      "▁ود": 330,
      "او": 331,
      "▁او": 332,
      "در": 333,
      "▁در": 334,
      "ام": 335,
      "▁ام": 336,
      "لی": 337,
      "▁لی": 338,
      "خو": 339,
      "▁خو": 340,
      "یک": 341,
      "▁یک": 342,
      "آن": 343,
      "▁آن": 344,
      "دا": 345,
      "▁دا": 346,
      "فت": 347,
      "▁فت": 348,
      "بود": 349,
      "▁بود": 350,
      "زی": 351,
      "▁زی": 352,
      "دو": 353,
      "▁دو": 354,
      "ای": 355,
      "▁ای": 356,
      "شت": 357,
      "▁شت": 358,
      "یم": 359,
      "▁یم": 360,
      "از": 361,
      "▁از": 362,
      "تو": 363,
      "▁تو": 364,
      "که": 365,
      "▁که": 366,
      "ما": 367,
      "▁ما": 368,
      "شد": 369,
      "▁شد": 370,
      "ار": 371,
      "▁ار": 372,
      "بازی": 373,
      "▁بازی": 374,
      "کن": 375,
      "▁کن": 376,
      "رگ": 377,
      "▁رگ": 378,
      "هم": 379,
      "▁هم": 380,
      "دوست": 381,
      "▁دوست": 382,
      "است": 383,
      "▁است": 384,
      "روز": 385,
      "▁روز": 386,
      "گفت": 387,
      "▁گفت": 388,
      "گر": 389,
      "▁گر": 390,
      "بی": 391,
      "▁بی": 392,
      "ال": 393,
      "▁ال": 394,
      "آنها": 395,
      "▁آنها": 396,
      "تیم": 397,
      "▁تیم": 398,
      "داشت": 399,
      "▁داشت": 400,
      "بز": 401,
      "▁بز": 402,
      "اس": 403,
      "▁اس": 404,
      "تر": 405,
      "▁تر": 406,
      "اد": 407,
      "▁اد": 408,
      "خی": 409,
      "▁خی": 410,
      "نگ": 411,
      "▁نگ": 412,
      "خوش": 413,
      "▁خوش": 414,
      "کند": 415,
      "▁کند": 416,
      "پر": 417,
      "▁پر": 418,
      "خیلی": 419,
      "▁خیلی": 420,
      "ین": 421,
      "▁ین": 422,
      "بزرگ": 423,
      "▁بزرگ": 424,
      "دید": 425,
      "▁دید": 426,
      "تا": 427,
      "▁تا": 428,
      "های": 429,
      "▁های": 430,
      "کردند": 431,
      "▁کردند": 432,
      "حال": 433,
      "▁حال": 434,
      "اه": 435,
      "▁اه": 436,
      "من": 437,
      "▁من": 438,
      "زد": 439,
      "▁زد": 440,
      "کو": 441,
      "▁کو": 442,
      "این": 443,
      "▁این": 444,
      "ری": 445,
      "▁ری": 446,
      "برا": 447,
      "▁برا": 448,
      "خت": 449,
      "▁خت": 450,
      "سی": 451,
      "▁سی": 452,
      "اما": 453,
      "▁اما": 454,
      "کوچ": 455,
      "▁کوچ": 456,
      "مک": 457,
      "▁مک": 458,
      "لیلی": 459,
      "▁لیلی": 460,
      "خوشحال": 461,
      "▁خوشحال": 462,
      "لو": 463,
      "▁لو": 464,
      "دی": 465,
      "▁دی": 466,
      "نده": 467,
      "▁نده": 468,
      "گی": 469,
      "▁گی": 470,
      "خواست": 471,
      "▁خواست": 472,
      "تی": 473,
      "▁تی": 474,
      "ره": 475,
      "▁ره": 476,
      "مادر": 477,
      "▁مادر": 478,
      "برای": 479,
      "▁برای": 480,
      "نا": 481,
      "▁نا": 482,
      "تام": 483,
      "▁تام": 484,
      "انه": 485,
      "▁انه": 486,
      "نی": 487,
      "▁نی": 488,
      "مو": 489,
      "▁مو": 490,
      "پس": 491,
      "▁پس": 492,
      "رفت": 493,
      "▁رفت": 494,
      "داد": 495,
      "▁داد": 496,
      "چه": 497,
      "▁چه": 498,
      "هر": 499,
      "▁هر": 500,
      "شان": 501,
      "▁شان": 502,
      "توان": 503,
      "▁توان": 504,
      "لا": 505,
      "▁لا": 506,
      "مام": 507,
      "▁مام": 508,
      "پید": 509,
      "▁پید": 510,
      "یه": 511,
      "▁یه": 512,
      "باب": 513,
      "▁باب": 514,
      "پیدا": 515,
      "▁پیدا": 516,
      "رم": 517,
      "▁رم": 518,
      "نام": 519,
      "▁نام": 520,
      "روی": 521,
      "▁روی": 522,
      "سو": 523,
      "▁سو": 524,
      "پرنده": 525,
      "▁پرنده": 526,
      "ات": 527,
      "▁ات": 528,
      "سید": 529,
      "▁سید": 530,
      "کوچک": 531,
      "▁کوچک": 532,
      "نمی": 533,
      "▁نمی": 534,
      "اب": 535,
      "▁اب": 536,
      "کمک": 537,
      "▁کمک": 538,
      "خند": 539,
      "▁خند": 540,
      "چی": 541,
      "▁چی": 542,
      "اش": 543,
      "▁اش": 544,
      "کنند": 545,
      "▁کنند": 546,
      "وق": 547,
      "▁وق": 548,
      "اشت": 549,
      "▁اشت": 550,
      "خانه": 551,
      "▁خانه": 552,
      "بر": 553,
      "▁بر": 554,
      "ون": 555,
      "▁ون": 556,
      "بودند": 557,
      "▁بودند": 558,
      "گرفت": 559,
      "▁گرفت": 560,
      "اسباب": 561,
      "▁اسباب": 562,
      "ده": 563,
      "▁ده": 564,
      "گذ": 565,
      "▁گذ": 566,
      "وی": 567,
      "▁وی": 568,
      "ور": 569,
      "▁ور": 570,
      "مادرش": 571,
      "▁مادرش": 572,
      "وش": 573,
      "▁وش": 574,
      "اند": 575,
      "▁اند": 576,
      "بع": 577,
      "▁بع": 578,
      "مت": 579,
      "▁مت": 580,
      "بل": 581,
      "▁بل": 582,
      "سگ": 583,
      "▁سگ": 584,
      "گربه": 585,
      "▁گربه": 586,
      "اح": 587,
      "▁اح": 588,
      "درخت": 589,
      "▁درخت": 590,
      "همه": 591,
      "▁همه": 592,
      "دوستان": 593,
      "▁دوستان": 594,
      "دخ": 595,
      "▁دخ": 596,
      "دختر": 597,
      "▁دختر": 598,
      "برد": 599,
      "▁برد": 600,
      "توپ": 601,
      "▁توپ": 602,
      "کر": 603,
      "▁کر": 604,
      "نه": 605,
      "▁نه": 606,
      "جا": 607,
      "▁جا": 608,
      "مد": 609,
      "▁مد": 610,
      "نگاه": 611,
      "▁نگاه": 612,
      "بعد": 613,
      "▁بعد": 614,
      "بن": 615,
      "▁بن": 616,
      "دیگر": 617,
      "▁دیگر": 618,
      "شه": 619,
      "▁شه": 620,
      "هی": 621,
      "▁هی": 622,
      "پار": 623,
      "▁پار": 624,
      "وقتی": 625,
      "▁وقتی": 626,
      "روزی": 627,
      "▁روزی": 628,
      "کار": 629,
      "▁کار": 630,
      "کردن": 631,
      "▁کردن": 632,
      "سر": 633,
      "▁سر": 634,
      "لب": 635,
      "▁لب": 636,
      "مامان": 637,
      "▁مامان": 638,
      "شدند": 639,
      "▁شدند": 640,
      "زند": 641,
      "▁زند": 642,
      "رون": 643,
      "▁رون": 644,
      "شرو": 645,
      "▁شرو": 646,
      "شروع": 647,
      "▁شروع": 648,
      "سا": 649,
      "▁سا": 650,
      "لبخند": 651,
      "▁لبخند": 652,
      "یر": 653,
      "▁یر": 654,
      "ماش": 655,
      "▁ماش": 656,
      "کی": 657,
      "▁کی": 658,
      "شده": 659,
      "▁شده": 660,
      "هست": 661,
      "▁هست": 662,
      "یا": 663,
      "▁یا": 664,
      "دست": 665,
      "▁دست": 666,
      "اون": 667,
      "▁اون": 668,
      "پارک": 669,
      "▁پارک": 670,
      "ساس": 671,
      "▁ساس": 672,
      "احساس": 673,
      "▁احساس": 674,
      "برگ": 675,
      "▁برگ": 676,
      "پسر": 677,
      "▁پسر": 678,
      "خود": 679,
      "▁خود": 680,
      "کنم": 681,
      "▁کنم": 682,
      "یدند": 683,
      "▁یدند": 684,
      "چیز": 685,
      "▁چیز": 686,
      "مان": 687,
      "▁مان": 688,
      "ولو": 689,
      "▁ولو": 690,
      "بچه": 691,
      "▁بچه": 692,
      "زندگی": 693,
      "▁زندگی": 694,
      "خواه": 695,
      "▁خواه": 696,
      "بال": 697,
      "▁بال": 698,
      "همی": 699,
      "▁همی": 700,
      "باید": 701,
      "▁باید": 702,
      "کوچولو": 703,
      "▁کوچولو": 704,
      "بیرون": 705,
      "▁بیرون": 706,
      "باره": 707,
      "▁باره": 708,
      "دان": 709,
      "▁دان": 710,
      "فکر": 711,
      "▁فکر": 712,
      "باش": 713,
      "▁باش": 714,
      "خورد": 715,
      "▁خورد": 716,
      "ران": 717,
      "▁ران": 718,
      "صدا": 719,
      "▁صدا": 720,
      "شن": 721,
      "▁شن": 722,
      "یاد": 723,
      "▁یاد": 724,
      "ماشین": 725,
      "▁ماشین": 726,
      "مرد": 727,
      "▁مرد": 728,
      "راح": 729,
      "▁راح": 730,
      "توانست": 731,
      "▁توانست": 732,
      "کش": 733,
      "▁کش": 734,
      "آمد": 735,
      "▁آمد": 736,
      "باز": 737,
      "▁باز": 738,
      "وا": 739,
      "▁وا": 740,
      "گه": 741,
      "▁گه": 742,
      "گو": 743,
      "▁گو": 744,
      "یی": 745,
      "▁یی": 746,
      "شک": 747,
      "▁شک": 748,
      "خر": 749,
      "▁خر": 750,
      "تمام": 751,
      "▁تمام": 752,
      "سیار": 753,
      "▁سیار": 754,
      "الی": 755,
      "▁الی": 756,
      "بسیار": 757,
      "▁بسیار": 758,
      "افت": 759,
      "▁افت": 760,
      "بهتر": 761,
      "▁بهتر": 762,
      "کنیم": 763,
      "▁کنیم": 764,
      "ادی": 765,
      "▁ادی": 766,
      "بزرگی": 767,
      "▁بزرگی": 768,
      "جدید": 769,
      "▁جدید": 770,
      "اده": 771,
      "▁اده": 772,
      "بو": 773,
      "▁بو": 774,
      "رف": 775,
      "▁رف": 776,
      "فا": 777,
      "▁فا": 778,
      "رنگ": 779,
      "▁رنگ": 780,
      "غم": 781,
      "▁غم": 782,
      "پای": 783,
      "▁پای": 784,
      "عی": 785,
      "▁عی": 786,
      "مکس": 787,
      "▁مکس": 788,
      "نش": 789,
      "▁نش": 790,
      "تص": 791,
      "▁تص": 792,
      "آب": 793,
      "▁آب": 794,
      "کس": 795,
      "▁کس": 796,
      "بلند": 797,
      "▁بلند": 798,
      "راحت": 799,
      "▁راحت": 800,
      "تاب": 801,
      "▁تاب": 802,
      "دوستانش": 803,
      "▁دوستانش": 804,
      "داشتند": 805,
      "▁داشتند": 806,
      "دانست": 807,
      "▁دانست": 808,
      "پی": 809,
      "▁پی": 810,
      "میا": 811,
      "▁میا": 812,
      "بان": 813,
      "▁بان": 814,
      "جع": 815,
      "▁جع": 816,
      "اسم": 817,
      "▁اسم": 818,
      "سام": 819,
      "▁سام": 820,
      "دوباره": 821,
      "▁دوباره": 822,
      "گین": 823,
      "▁گین": 824,
      "اف": 825,
      "▁اف": 826,
      "زیبا": 827,
      "▁زیبا": 828,
      "پرسید": 829,
      "▁پرسید": 830,
      "بالا": 831,
      "▁بالا": 832,
      "غمگین": 833,
      "▁غمگین": 834,
      "جعبه": 835,
      "▁جعبه": 836,
      "تش": 837,
      "▁تش": 838,
      "کرده": 839,
      "▁کرده": 840,
      "دار": 841,
      "▁دار": 842,
      "امی": 843,
      "▁امی": 844,
      "نزد": 845,
      "▁نزد": 846,
      "اسپ": 847,
      "▁اسپ": 848,
      "نج": 849,
      "▁نج": 850,
      "کنه": 851,
      "▁کنه": 852,
      "نو": 853,
      "▁نو": 854,
      "سمت": 855,
      "▁سمت": 856,
      "خوبی": 857,
      "▁خوبی": 858,
      "پرو": 859,
      "▁پرو": 860,
      "مهر": 861,
      "▁مهر": 862,
      "دوید": 863,
      "▁دوید": 864,
      "اید": 865,
      "▁اید": 866,
      "اسپات": 867,
      "▁اسپات": 868,
      "غذ": 869,
      "▁غذ": 870,
      "کنی": 871,
      "▁کنی": 872,
      "جان": 873,
      "▁جان": 874,
      "لوسی": 875,
      "▁لوسی": 876,
      "وان": 877,
      "▁وان": 878,
      "رفتند": 879,
      "▁رفتند": 880,
      "برو": 881,
      "▁برو": 882,
      "شود": 883,
      "▁شود": 884,
      "گوید": 885,
      "▁گوید": 886,
      "زده": 887,
      "▁زده": 888,
      "گذاشت": 889,
      "▁گذاشت": 890,
      "مز": 891,
      "▁مز": 892,
      "شما": 893,
      "▁شما": 894,
      "همیشه": 895,
      "▁همیشه": 896,
      "ترسید": 897,
      "▁ترسید": 898,
      "ناراحت": 899,
      "▁ناراحت": 900,
      "رسید": 901,
      "▁رسید": 902,
      "دهد": 903,
      "▁دهد": 904,
      "آو": 905,
      "▁آو": 906,
      "تک": 907,
      "▁تک": 908,
      "سعی": 909,
      "▁سعی": 910,
      "تع": 911,
      "▁تع": 912,
      "قی": 913,
      "▁قی": 914,
      "سنگ": 915,
      "▁سنگ": 916,
      "قط": 917,
      "▁قط": 918,
      "داخ": 919,
      "▁داخ": 920,
      "ول": 921,
      "▁ول": 922,
      "مر": 923,
      "▁مر": 924,
      "کل": 925,
      "▁کل": 926,
      "سه": 927,
      "▁سه": 928,
      "دارد": 929,
      "▁دارد": 930,
      "نبود": 931,
      "▁نبود": 932,
      "ناگه": 933,
      "▁ناگه": 934,
      "ناگهان": 935,
      "▁ناگهان": 936,
      "دم": 937,
      "▁دم": 938,
      "افتاد": 939,
      "▁افتاد": 940,
      "گل": 941,
      "▁گل": 942,
      "جام": 943,
      "▁جام": 944,
      "زیادی": 945,
      "▁زیادی": 946,
      "باغ": 947,
      "▁باغ": 948,
      "قه": 949,
      "▁قه": 950,
      "هایش": 951,
      "▁هایش": 952,
      "دور": 953,
      "▁دور": 954,
      "باشد": 955,
      "▁باشد": 956,
      "داخل": 957,
      "▁داخل": 958,
      "بیا": 959,
      "▁بیا": 960,
      "میم": 961,
      "▁میم": 962,
      "جو": 963,
      "▁جو": 964,
      "بگی": 965,
      "▁بگی": 966,
      "ببی": 967,
      "▁ببی": 968,
      "زمی": 969,
      "▁زمی": 970,
      "تصمیم": 971,
      "▁تصمیم": 972,
      "نزدیک": 973,
      "▁نزدیک": 974,
      "دوستش": 975,
      "▁دوستش": 976,
      "اری": 977,
      "▁اری": 978,
      "تکان": 979,
      "▁تکان": 980,
      "ولی": 981,
      "▁ولی": 982,
      "قرم": 983,
      "▁قرم": 984,
      "بد": 985,
      "▁بد": 986,
      "ظر": 987,
      "▁ظر": 988,
      "پرواز": 989,
      "▁پرواز": 990,
      "راه": 991,
      "▁راه": 992,
      "اتا": 993,
      "▁اتا": 994,
      "قدر": 995,
      "▁قدر": 996,
      "برگشت": 997,
      "▁برگشت": 998,
      "مه": 999,
      "▁مه": 1000,
      "اتاق": 1001,
      "▁اتاق": 1002,
      "قرمز": 1003,
      "▁قرمز": 1004,
      "برداشت": 1005,
      "▁برداشت": 1006,
      "تون": 1007,
      "▁تون": 1008,
      "حالی": 1009,
      "▁حالی": 1010,
      "بار": 1011,
      "▁بار": 1012,
      "درست": 1013,
      "▁درست": 1014,
      "تواند": 1015,
      "▁تواند": 1016,
      "نیست": 1017,
      "▁نیست": 1018,
      "زمین": 1019,
      "▁زمین": 1020,
      "غل": 1021,
      "▁غل": 1022,
      "دن": 1023,
      "▁دن": 1024,
      "توی": 1025,
      "▁توی": 1026,
      "مرا": 1027,
      "▁مرا": 1028,
      "ازه": 1029,
      "▁ازه": 1030,
      "قب": 1031,
      "▁قب": 1032,
      "چون": 1033,
      "▁چون": 1034,
      "سته": 1035,
      "▁سته": 1036,
      "منت": 1037,
      "▁منت": 1038,
      "بله": 1039,
      "▁بله": 1040,
      "پدر": 1041,
      "▁پدر": 1042,
      "شو": 1043,
      "▁شو": 1044,
      "ماکس": 1045,
      "▁ماکس": 1046,
      "دیدند": 1047,
      "▁دیدند": 1048,
      "سل": 1049,
      "▁سل": 1050,
      "خوب": 1051,
      "▁خوب": 1052,
      "سری": 1053,
      "▁سری": 1054,
      "بهترین": 1055,
      "▁بهترین": 1056,
      "شیر": 1057,
      "▁شیر": 1058,
      "اط": 1059,
      "▁اط": 1060,
      "مهربان": 1061,
      "▁مهربان": 1062,
      "کت": 1063,
      "▁کت": 1064,
      "صدای": 1065,
      "▁صدای": 1066,
      "اتفا": 1067,
      "▁اتفا": 1068,
      "آفت": 1069,
      "▁آفت": 1070,
      "جود": 1071,
      "▁جود": 1072,
      "مع": 1073,
      "▁مع": 1074,
      "نشان": 1075,
      "▁نشان": 1076,
      "ندند": 1077,
      "▁ندند": 1078,
      "بخو": 1079,
      "▁بخو": 1080,
      "خان": 1081,
      "▁خان": 1082,
      "گوش": 1083,
      "▁گوش": 1084,
      "یدن": 1085,
      "▁یدن": 1086,
      "انجام": 1087,
      "▁انجام": 1088,
      "ماهی": 1089,
      "▁ماهی": 1090,
      "قای": 1091,
      "▁قای": 1092,
      "حش": 1093,
      "▁حش": 1094,
      "جی": 1095,
      "▁جی": 1096,
      "هستند": 1097,
      "▁هستند": 1098,
      "طور": 1099,
      "▁طور": 1100,
      "حی": 1101,
      "▁حی": 1102,
      "گذرا": 1103,
      "▁گذرا": 1104,
      "سریع": 1105,
      "▁سریع": 1106,
      "پایین": 1107,
      "▁پایین": 1108,
      "باد": 1109,
      "▁باد": 1110,
      "میز": 1111,
      "▁میز": 1112,
      "حرف": 1113,
      "▁حرف": 1114,
      "دنبال": 1115,
      "▁دنبال": 1116,
      "مس": 1117,
      "▁مس": 1118,
      "مزه": 1119,
      "▁مزه": 1120,
      "کوچکی": 1121,
      "▁کوچکی": 1122,
      "رگوش": 1123,
      "▁رگوش": 1124,
      "زیر": 1125,
      "▁زیر": 1126,
      "خرگوش": 1127,
      "▁خرگوش": 1128,
      "ارد": 1129,
      "▁ارد": 1130,
      "آس": 1131,
      "▁آس": 1132,
      "سلام": 1133,
      "▁سلام": 1134,
      "مث": 1135,
      "▁مث": 1136,
      "چیزی": 1137,
      "▁چیزی": 1138,
      "جنگ": 1139,
      "▁جنگ": 1140,
      "مثل": 1141,
      "▁مثل": 1142,
      "قف": 1143,
      "▁قف": 1144,
      "بانی": 1145,
      "▁بانی": 1146,
      "گاه": 1147,
      "▁گاه": 1148,
      "اینکه": 1149,
      "▁اینکه": 1150,
      "وجود": 1151,
      "▁وجود": 1152,
      "جک": 1153,
      "▁جک": 1154,
      "توانم": 1155,
      "▁توانم": 1156,
      "متو": 1157,
      "▁متو": 1158,
      "خرس": 1159,
      "▁خرس": 1160,
      "حیوان": 1161,
      "▁حیوان": 1162,
      "مح": 1163,
      "▁مح": 1164,
      "انی": 1165,
      "▁انی": 1166,
      "چر": 1167,
      "▁چر": 1168,
      "آنا": 1169,
      "▁آنا": 1170,
      "گرفتند": 1171,
      "▁گرفتند": 1172,
      "سرگ": 1173,
      "▁سرگ": 1174,
      "رش": 1175,
      "▁رش": 1176,
      "جه": 1177,
      "▁جه": 1178,
      "مراقب": 1179,
      "▁مراقب": 1180,
      "بغل": 1181,
      "▁بغل": 1182,
      "جال": 1183,
      "▁جال": 1184,
      "دارم": 1185,
      "▁دارم": 1186,
      "سم": 1187,
      "▁سم": 1188,
      "چیزهای": 1189,
      "▁چیزهای": 1190,
      "سارا": 1191,
      "▁سارا": 1192,
      "آیا": 1193,
      "▁آیا": 1194,
      "آورد": 1195,
      "▁آورد": 1196,
      "هیجان": 1197,
      "▁هیجان": 1198,
      "موش": 1199,
      "▁موش": 1200,
      "لذ": 1201,
      "▁لذ": 1202,
      "گرد": 1203,
      "▁گرد": 1204,
      "خودش": 1205,
      "▁خودش": 1206,
      "نند": 1207,
      "▁نند": 1208,
      "پرید": 1209,
      "▁پرید": 1210,
      "درخ": 1211,
      "▁درخ": 1212,
      "جای": 1213,
      "▁جای": 1214,
      "لذت": 1215,
      "▁لذت": 1216,
      "فقط": 1217,
      "▁فقط": 1218,
      "بیشت": 1219,
      "▁بیشت": 1220,
      "جنگل": 1221,
      "▁جنگل": 1222,
      "کیک": 1223,
      "▁کیک": 1224,
      "شی": 1225,
      "▁شی": 1226,
      "له": 1227,
      "▁له": 1228,
      "گشت": 1229,
      "▁گشت": 1230,
      "فی": 1231,
      "▁فی": 1232,
      "آبی": 1233,
      "▁آبی": 1234,
      "سیب": 1235,
      "▁سیب": 1236,
      "خندیدند": 1237,
      "▁خندیدند": 1238,
      "عص": 1239,
      "▁عص": 1240,
      "خوشمزه": 1241,
      "▁خوشمزه": 1242,
      "کنار": 1243,
      "▁کنار": 1244,
      "قدم": 1245,
      "▁قدم": 1246,
      "حالا": 1247,
      "▁حالا": 1248,
      "گذراندند": 1249,
      "▁گذراندند": 1250,
      "اتفاق": 1251,
      "▁اتفاق": 1252,
      "چرا": 1253,
      "▁چرا": 1254,
      "زدند": 1255,
      "▁زدند": 1256,
      "ترسیده": 1257,
      "▁ترسیده": 1258,
      "آسمان": 1259,
      "▁آسمان": 1260,
      "ایده": 1261,
      "▁ایده": 1262,
      "آرا": 1263,
      "▁آرا": 1264,
      "تن": 1265,
      "▁تن": 1266,
      "تشکر": 1267,
      "▁تشکر": 1268,
      "باری": 1269,
      "▁باری": 1270,
      "کا": 1271,
      "▁کا": 1272,
      "سرگرم": 1273,
      "▁سرگرم": 1274,
      "نظر": 1275,
      "▁نظر": 1276,
      "رز": 1277,
      "▁رز": 1278,
      "کمی": 1279,
      "▁کمی": 1280,
      "خواستند": 1281,
      "▁خواستند": 1282,
      "روس": 1283,
      "▁روس": 1284,
      "پشت": 1285,
      "▁پشت": 1286,
      "سف": 1287,
      "▁سف": 1288,
      "گاری": 1289,
      "▁گاری": 1290,
      "حیوانات": 1291,
      "▁حیوانات": 1292,
      "شاد": 1293,
      "▁شاد": 1294,
      "جب": 1295,
      "▁جب": 1296,
      "چرخ": 1297,
      "▁چرخ": 1298,
      "دادند": 1299,
      "▁دادند": 1300,
      "داشته": 1301,
      "▁داشته": 1302,
      "بدی": 1303,
      "▁بدی": 1304,
      "فرا": 1305,
      "▁فرا": 1306,
      "عه": 1307,
      "▁عه": 1308,
      "حشره": 1309,
      "▁حشره": 1310,
      "غذا": 1311,
      "▁غذا": 1312,
      "نگه": 1313,
      "▁نگه": 1314,
      "آش": 1315,
      "▁آش": 1316,
      "فش": 1317,
      "▁فش": 1318,
      "خواهد": 1319,
      "▁خواهد": 1320,
      "پا": 1321,
      "▁پا": 1322,
      "یکی": 1323,
      "▁یکی": 1324,
      "توانی": 1325,
      "▁توانی": 1326,
      "کشید": 1327,
      "▁کشید": 1328,
      "دارند": 1329,
      "▁دارند": 1330,
      "جادو": 1331,
      "▁جادو": 1332,
      "برود": 1333,
      "▁برود": 1334,
      "ستان": 1335,
      "▁ستان": 1336,
      "وه": 1337,
      "▁وه": 1338,
      "زود": 1339,
      "▁زود": 1340,
      "کتاب": 1341,
      "▁کتاب": 1342,
      "عروس": 1343,
      "▁عروس": 1344,
      "بخ": 1345,
      "▁بخ": 1346,
      "پسربچه": 1347,
      "▁پسربچه": 1348,
      "نق": 1349,
      "▁نق": 1350,
      "عت": 1351,
      "▁عت": 1352,
      "توانیم": 1353,
      "▁توانیم": 1354,
      "ظره": 1355,
      "▁ظره": 1356,
      "شنید": 1357,
      "▁شنید": 1358,
      "هایشان": 1359,
      "▁هایشان": 1360,
      "قص": 1361,
      "▁قص": 1362,
      "نم": 1363,
      "▁نم": 1364,
      "درخشان": 1365,
      "▁درخشان": 1366,
      "لبا": 1367,
      "▁لبا": 1368,
      "اره": 1369,
      "▁اره": 1370,
      "گریه": 1371,
      "▁گریه": 1372,
      "خواب": 1373,
      "▁خواب": 1374,
      "مش": 1375,
      "▁مش": 1376,
      "پوش": 1377,
      "▁پوش": 1378,
      "غیر": 1379,
      "▁غیر": 1380,
      "باه": 1381,
      "▁باه": 1382,
      "روزگاری": 1383,
      "▁روزگاری": 1384,
      "زدن": 1385,
      "▁زدن": 1386,
      "عصبانی": 1387,
      "▁عصبانی": 1388,
      "کنید": 1389,
      "▁کنید": 1390,
      "منتظره": 1391,
      "▁منتظره": 1392,
      "فرو": 1393,
      "▁فرو": 1394,
      "لباس": 1395,
      "▁لباس": 1396,
      "مهم": 1397,
      "▁مهم": 1398,
      "ممن": 1399,
      "▁ممن": 1400,
      "ژه": 1401,
      "▁ژه": 1402,
      "قایق": 1403,
      "▁قایق": 1404,
      "بت": 1405,
      "▁بت": 1406,
      "داستان": 1407,
      "▁داستان": 1408,
      "گفتند": 1409,
      "▁گفتند": 1410,
      "بگیرد": 1411,
      "▁بگیرد": 1412,
      "وقت": 1413,
      "▁وقت": 1414,
      "ممنون": 1415,
      "▁ممنون": 1416,
      "حر": 1417,
      "▁حر": 1418,
      "اخ": 1419,
      "▁اخ": 1420,
      "چو": 1421,
      "▁چو": 1422,
      "هایی": 1423,
      "▁هایی": 1424,
      "خانو": 1425,
      "▁خانو": 1426,
      "راک": 1427,
      "▁راک": 1428,
      "متن": 1429,
      "▁متن": 1430,
      "آفتاب": 1431,
      "▁آفتاب": 1432,
      "فار": 1433,
      "▁فار": 1434,
      "زن": 1435,
      "▁زن": 1436,
      "نداشت": 1437,
      "▁نداشت": 1438,
      "صند": 1439,
      "▁صند": 1440,
      "فارسی": 1441,
      "▁فارسی": 1442,
      "لف": 1443,
      "▁لف": 1444,
      "دختری": 1445,
      "▁دختری": 1446,
      "ترس": 1447,
      "▁ترس": 1448,
      "خانواده": 1449,
      "▁خانواده": 1450,
      "کم": 1451,
      "▁کم": 1452,
      "مامانش": 1453,
      "▁مامانش": 1454,
      "استف": 1455,
      "▁استف": 1456,
      "اشتراک": 1457,
      "▁اشتراک": 1458,
      "سخت": 1459,
      "▁سخت": 1460,
      "استفاده": 1461,
      "▁استفاده": 1462,
      "مل": 1463,
      "▁مل": 1464,
      "خوا": 1465,
      "▁خوا": 1466,
      "گیر": 1467,
      "▁گیر": 1468,
      "تمیز": 1469,
      "▁تمیز": 1470,
      "صور": 1471,
      "▁صور": 1472,
      "چطور": 1473,
      "▁چطور": 1474,
      "کلاه": 1475,
      "▁کلاه": 1476,
      "بالای": 1477,
      "▁بالای": 1478,
      "قور": 1479,
      "▁قور": 1480,
      "بگذ": 1481,
      "▁بگذ": 1482,
      "بش": 1483,
      "▁بش": 1484,
      "پدرش": 1485,
      "▁پدرش": 1486,
      "برگرد": 1487,
      "▁برگرد": 1488,
      "قورباغ": 1489,
      "▁قورباغ": 1490,
      "داری": 1491,
      "▁داری": 1492,
      "کوچولویی": 1493,
      "▁کوچولویی": 1494,
      "قورباغه": 1495,
      "▁قورباغه": 1496,
      "سالی": 1497,
      "▁سالی": 1498,
      "تعجب": 1499,
      "▁تعجب": 1500,
      "جادویی": 1501,
      "▁جادویی": 1502,
      "پسری": 1503,
      "▁پسری": 1504,
      "سال": 1505,
      "▁سال": 1506,
      "غرو": 1507,
      "▁غرو": 1508,
      "ساخت": 1509,
      "▁ساخت": 1510,
      "لط": 1511,
      "▁لط": 1512,
      "بده": 1513,
      "▁بده": 1514,
      "خواهم": 1515,
      "▁خواهم": 1516,
      "حرکت": 1517,
      "▁حرکت": 1518,
      "غیرمنتظره": 1519,
      "▁غیرمنتظره": 1520,
      "هرگ": 1521,
      "▁هرگ": 1522,
      "مورد": 1523,
      "▁مورد": 1524,
      "باشه": 1525,
      "▁باشه": 1526,
      "چش": 1527,
      "▁چش": 1528,
      "هرگز": 1529,
      "▁هرگز": 1530,
      "چوب": 1531,
      "▁چوب": 1532,
      "شدن": 1533,
      "▁شدن": 1534,
      "زودی": 1535,
      "▁زودی": 1536,
      "اگر": 1537,
      "▁اگر": 1538,
      "ویژه": 1539,
      "▁ویژه": 1540,
      "قت": 1541,
      "▁قت": 1542,
      "لطفا": 1543,
      "▁لطفا": 1544,
      "ابی": 1545,
      "▁ابی": 1546,
      "ایی": 1547,
      "▁ایی": 1548,
      "تح": 1549,
      "▁تح": 1550,
      "آنجا": 1551,
      "▁آنجا": 1552,
      "خوشحالی": 1553,
      "▁خوشحالی": 1554,
      "درباره": 1555,
      "▁درباره": 1556,
      "هستی": 1557,
      "▁هستی": 1558,
      "خورش": 1559,
      "▁خورش": 1560,
      "خواهی": 1561,
      "▁خواهی": 1562,
      "کیتی": 1563,
      "▁کیتی": 1564,
      "بست": 1565,
      "▁بست": 1566,
      "هنگ": 1567,
      "▁هنگ": 1568,
      "کسی": 1569,
      "▁کسی": 1570,
      "فری": 1571,
      "▁فری": 1572,
      "خورشید": 1573,
      "▁خورشید": 1574,
      "کننده": 1575,
      "▁کننده": 1576,
      "اطرا": 1577,
      "▁اطرا": 1578,
      "مند": 1579,
      "▁مند": 1580,
      "شگفت": 1581,
      "▁شگفت": 1582,
      "شهر": 1583,
      "▁شهر": 1584,
      "حتی": 1585,
      "▁حتی": 1586,
      "مردم": 1587,
      "▁مردم": 1588,
      "شنا": 1589,
      "▁شنا": 1590,
      "نگران": 1591,
      "▁نگران": 1592,
      "گم": 1593,
      "▁گم": 1594,
      "چن": 1595,
      "▁چن": 1596,
      "نوز": 1597,
      "▁نوز": 1598,
      "شاید": 1599,
      "▁شاید": 1600,
      "تلا": 1601,
      "▁تلا": 1602,
      "نشست": 1603,
      "▁نشست": 1604,
      "ماند": 1605,
      "▁ماند": 1606,
      "ببیند": 1607,
      "▁ببیند": 1608,
      "سرش": 1609,
      "▁سرش": 1610,
      "هوا": 1611,
      "▁هوا": 1612,
      "هیچ": 1613,
      "▁هیچ": 1614,
      "خواند": 1615,
      "▁خواند": 1616,
      "گرم": 1617,
      "▁گرم": 1618,
      "قوی": 1619,
      "▁قوی": 1620,
      "تلاش": 1621,
      "▁تلاش": 1622,
      "بابا": 1623,
      "▁بابا": 1624,
      "فر": 1625,
      "▁فر": 1626,
      "پز": 1627,
      "▁پز": 1628,
      "نتوانست": 1629,
      "▁نتوانست": 1630,
      "جمه": 1631,
      "▁جمه": 1632,
      "طرف": 1633,
      "▁طرف": 1634,
      "مال": 1635,
      "▁مال": 1636,
      "شیرین": 1637,
      "▁شیرین": 1638,
      "اج": 1639,
      "▁اج": 1640,
      "خندید": 1641,
      "▁خندید": 1642,
      "جدیدی": 1643,
      "▁جدیدی": 1644,
      "گران": 1645,
      "▁گران": 1646,
      "شجا": 1647,
      "▁شجا": 1648,
      "لکه": 1649,
      "▁لکه": 1650,
      "سد": 1651,
      "▁سد": 1652,
      "امه": 1653,
      "▁امه": 1654,
      "یکدیگر": 1655,
      "▁یکدیگر": 1656,
      "په": 1657,
      "▁په": 1658,
      "شوند": 1659,
      "▁شوند": 1660,
      "نیاز": 1661,
      "▁نیاز": 1662,
      "بنا": 1663,
      "▁بنا": 1664,
      "جالب": 1665,
      "▁جالب": 1666,
      "دون": 1667,
      "▁دون": 1668,
      "حیا": 1669,
      "▁حیا": 1670,
      "سپس": 1671,
      "▁سپس": 1672,
      "حیاط": 1673,
      "▁حیاط": 1674,
      "مخ": 1675,
      "▁مخ": 1676,
      "کردم": 1677,
      "▁کردم": 1678,
      "بند": 1679,
      "▁بند": 1680,
      "تق": 1681,
      "▁تق": 1682,
      "نرم": 1683,
      "▁نرم": 1684,
      "پایان": 1685,
      "▁پایان": 1686,
      "آرام": 1687,
      "▁آرام": 1688,
      "دویدند": 1689,
      "▁دویدند": 1690,
      "خونه": 1691,
      "▁خونه": 1692,
      "سبز": 1693,
      "▁سبز": 1694,
      "چیست": 1695,
      "▁چیست": 1696,
      "ابد": 1697,
      "▁ابد": 1698,
      "سنج": 1699,
      "▁سنج": 1700,
      "بیشتر": 1701,
      "▁بیشتر": 1702,
      "خا": 1703,
      "▁خا": 1704,
      "ترجمه": 1705,
      "▁ترجمه": 1706,
      "واق": 1707,
      "▁واق": 1708,
      "آفتابی": 1709,
      "▁آفتابی": 1710,
      "دع": 1711,
      "▁دع": 1712,
      "ماده": 1713,
      "▁ماده": 1714,
      "بنابرا": 1715,
      "▁بنابرا": 1716,
      "خسته": 1717,
      "▁خسته": 1718,
      "ریخت": 1719,
      "▁ریخت": 1720,
      "قات": 1721,
      "▁قات": 1722,
      "بنابراین": 1723,
      "▁بنابراین": 1724,
      "منتظر": 1725,
      "▁منتظر": 1726,
      "متوجه": 1727,
      "▁متوجه": 1728,
      "محکم": 1729,
      "▁محکم": 1730,
      "هایت": 1731,
      "▁هایت": 1732,
      "فهمی": 1733,
      "▁فهمی": 1734,
      "یده": 1735,
      "▁یده": 1736,
      "رفتن": 1737,
      "▁رفتن": 1738,
      "کامی": 1739,
      "▁کامی": 1740,
      "بخورد": 1741,
      "▁بخورد": 1742,
      "رقص": 1743,
      "▁رقص": 1744,
      "ادامه": 1745,
      "▁ادامه": 1746,
      "کامیون": 1747,
      "▁کامیون": 1748,
      "بردند": 1749,
      "▁بردند": 1750,
      "تخت": 1751,
      "▁تخت": 1752,
      "کنجک": 1753,
      "▁کنجک": 1754,
      "کنجکاو": 1755,
      "▁کنجکاو": 1756,
      "آماده": 1757,
      "▁آماده": 1758,
      "زمان": 1759,
      "▁زمان": 1760,
      "دیگه": 1761,
      "▁دیگه": 1762,
      "همچن": 1763,
      "▁همچن": 1764,
      "هستم": 1765,
      "▁هستم": 1766,
      "مون": 1767,
      "▁مون": 1768,
      "ویی": 1769,
      "▁ویی": 1770,
      "سای": 1771,
      "▁سای": 1772,
      "متوقف": 1773,
      "▁متوقف": 1774,
      "فریاد": 1775,
      "▁فریاد": 1776,
      "خوردن": 1777,
      "▁خوردن": 1778,
      "رنگی": 1779,
      "▁رنگی": 1780,
      "آرز": 1781,
      "▁آرز": 1782,
      "آنقدر": 1783,
      "▁آنقدر": 1784,
      "بودن": 1785,
      "▁بودن": 1786,
      "افظ": 1787,
      "▁افظ": 1788,
      "قل": 1789,
      "▁قل": 1790,
      "راز": 1791,
      "▁راز": 1792,
      "باشند": 1793,
      "▁باشند": 1794,
      "توانند": 1795,
      "▁توانند": 1796,
      "دخترک": 1797,
      "▁دخترک": 1798,
      "شادی": 1799,
      "▁شادی": 1800,
      "چند": 1801,
      "▁چند": 1802,
      "آشپز": 1803,
      "▁آشپز": 1804,
      "سنجاب": 1805,
      "▁سنجاب": 1806,
      "بزند": 1807,
      "▁بزند": 1808,
      "مساب": 1809,
      "▁مساب": 1810,
      "بپ": 1811,
      "▁بپ": 1812,
      "جرا": 1813,
      "▁جرا": 1814,
      "رند": 1815,
      "▁رند": 1816,
      "مسابقه": 1817,
      "▁مسابقه": 1818,
      "طو": 1819,
      "▁طو": 1820,
      "بخت": 1821,
      "▁بخت": 1822,
      "دیگری": 1823,
      "▁دیگری": 1824,
      "ماجرا": 1825,
      "▁ماجرا": 1826,
      "شمالو": 1827,
      "▁شمالو": 1828,
      "دریا": 1829,
      "▁دریا": 1830,
      "دانستند": 1831,
      "▁دانستند": 1832,
      "تماش": 1833,
      "▁تماش": 1834,
      "شب": 1835,
      "▁شب": 1836,
      "پشمالو": 1837,
      "▁پشمالو": 1838,
      "ذر": 1839,
      "▁ذر": 1840,
      "فهمید": 1841,
      "▁فهمید": 1842,
      "میوه": 1843,
      "▁میوه": 1844,
      "دیگران": 1845,
      "▁دیگران": 1846,
      "سره": 1847,
      "▁سره": 1848,
      "هنوز": 1849,
      "▁هنوز": 1850,
      "عروسک": 1851,
      "▁عروسک": 1852,
      "شون": 1853,
      "▁شون": 1854,
      "تپه": 1855,
      "▁تپه": 1856,
      "امتح": 1857,
      "▁امتح": 1858,
      "ناک": 1859,
      "▁ناک": 1860,
      "امتحان": 1861,
      "▁امتحان": 1862,
      "سرسره": 1863,
      "▁سرسره": 1864,
      "بیند": 1865,
      "▁بیند": 1866,
      "رار": 1867,
      "▁رار": 1868,
      "بس": 1869,
      "▁بس": 1870,
      "بلندی": 1871,
      "▁بلندی": 1872,
      "شجاع": 1873,
      "▁شجاع": 1874,
      "نکرد": 1875,
      "▁نکرد": 1876,
      "میر": 1877,
      "▁میر": 1878,
      "قش": 1879,
      "▁قش": 1880,
      "سرد": 1881,
      "▁سرد": 1882,
      "بیای": 1883,
      "▁بیای": 1884,
      "بور": 1885,
      "▁بور": 1886,
      "ضی": 1887,
      "▁ضی": 1888,
      "مق": 1889,
      "▁مق": 1890,
      "شاه": 1891,
      "▁شاه": 1892,
      "ایش": 1893,
      "▁ایش": 1894,
      "کاری": 1895,
      "▁کاری": 1896,
      "جواب": 1897,
      "▁جواب": 1898,
      "راب": 1899,
      "▁راب": 1900,
      "فروش": 1901,
      "▁فروش": 1902,
      "اطر": 1903,
      "▁اطر": 1904,
      "غول": 1905,
      "▁غول": 1906,
      "خوشبخت": 1907,
      "▁خوشبخت": 1908,
      "عالی": 1909,
      "▁عالی": 1910,
      "بلو": 1911,
      "▁بلو": 1912,
      "سیم": 1913,
      "▁سیم": 1914,
      "تونم": 1915,
      "▁تونم": 1916,
      "برگشتند": 1917,
      "▁برگشتند": 1918,
      "بیشتری": 1919,
      "▁بیشتری": 1920,
      "مار": 1921,
      "▁مار": 1922,
      "اطراف": 1923,
      "▁اطراف": 1924,
      "زه": 1925,
      "▁زه": 1926,
      "گیری": 1927,
      "▁گیری": 1928,
      "تنها": 1929,
      "▁تنها": 1930,
      "اینجا": 1931,
      "▁اینجا": 1932,
      "تار": 1933,
      "▁تار": 1934,
      "نیم": 1935,
      "▁نیم": 1936,
      "اشی": 1937,
      "▁اشی": 1938,
      "سب": 1939,
      "▁سب": 1940,
      "بخش": 1941,
      "▁بخش": 1942,
      "دهند": 1943,
      "▁دهند": 1944,
      "دیدن": 1945,
      "▁دیدن": 1946,
      "اخت": 1947,
      "▁اخت": 1948,
      "علا": 1949,
      "▁علا": 1950,
      "سورا": 1951,
      "▁سورا": 1952,
      "مواف": 1953,
      "▁مواف": 1954,
      "صندلی": 1955,
      "▁صندلی": 1956,
      "دیو": 1957,
      "▁دیو": 1958,
      "همان": 1959,
      "▁همان": 1960,
      "غرور": 1961,
      "▁غرور": 1962,
      "جمع": 1963,
      "▁جمع": 1964,
      "پنه": 1965,
      "▁پنه": 1966,
      "رچه": 1967,
      "▁رچه": 1968,
      "اونا": 1969,
      "▁اونا": 1970,
      "جن": 1971,
      "▁جن": 1972,
      "یف": 1973,
      "▁یف": 1974,
      "رود": 1975,
      "▁رود": 1976,
      "کث": 1977,
      "▁کث": 1978,
      "آشپزخانه": 1979,
      "▁آشپزخانه": 1980,
      "درس": 1981,
      "▁درس": 1982,
      "تب": 1983,
      "▁تب": 1984,
      "رعه": 1985,
      "▁رعه": 1986,
      "پنج": 1987,
      "▁پنج": 1988,
      "اتاقش": 1989,
      "▁اتاقش": 1990,
      "کاغذ": 1991,
      "▁کاغذ": 1992,
      "آرزو": 1993,
      "▁آرزو": 1994,
      "باران": 1995,
      "▁باران": 1996,
      "علاقه": 1997,
      "▁علاقه": 1998,
      "تماشا": 1999,
      "▁تماشا": 2000,
      "نباش": 2001,
      "▁نباش": 2002,
      "گوی": 2003,
      "▁گوی": 2004,
      "عجی": 2005,
      "▁عجی": 2006,
      "شاخ": 2007,
      "▁شاخ": 2008,
      "بریم": 2009,
      "▁بریم": 2010,
      "تخ": 2011,
      "▁تخ": 2012,
      "خدا": 2013,
      "▁خدا": 2014,
      "پنهان": 2015,
      "▁پنهان": 2016,
      "مزرعه": 2017,
      "▁مزرعه": 2018,
      "صح": 2019,
      "▁صح": 2020,
      "خواهند": 2021,
      "▁خواهند": 2022,
      "شر": 2023,
      "▁شر": 2024,
      "آسیب": 2025,
      "▁آسیب": 2026,
      "دک": 2027,
      "▁دک": 2028,
      "چا": 2029,
      "▁چا": 2030,
      "آواز": 2031,
      "▁آواز": 2032,
      "خوردند": 2033,
      "▁خوردند": 2034,
      "جین": 2035,
      "▁جین": 2036,
      "دل": 2037,
      "▁دل": 2038,
      "لمس": 2039,
      "▁لمس": 2040,
      "طر": 2041,
      "▁طر": 2042,
      "خانم": 2043,
      "▁خانم": 2044,
      "مرغ": 2045,
      "▁مرغ": 2046,
      "اجازه": 2047,
      "▁اجازه": 2048,
      "مشک": 2049,
      "▁مشک": 2050,
      "نقاشی": 2051,
      "▁نقاشی": 2052,
      "آتش": 2053,
      "▁آتش": 2054,
      "فرار": 2055,
      "▁فرار": 2056,
      "کردی": 2057,
      "▁کردی": 2058,
      "وارد": 2059,
      "▁وارد": 2060,
      "مط": 2061,
      "▁مط": 2062,
      "اردک": 2063,
      "▁اردک": 2064,
      "مرتب": 2065,
      "▁مرتب": 2066,
      "ایمی": 2067,
      "▁ایمی": 2068,
      "خنده": 2069,
      "▁خنده": 2070,
      "گاهی": 2071,
      "▁گاهی": 2072,
      "اومد": 2073,
      "▁اومد": 2074,
      "نامه": 2075,
      "▁نامه": 2076,
      "زیبایی": 2077,
      "▁زیبایی": 2078,
      "تونی": 2079,
      "▁تونی": 2080,
      "زرد": 2081,
      "▁زرد": 2082,
      "موافقت": 2083,
      "▁موافقت": 2084,
      "اسف": 2085,
      "▁اسف": 2086,
      "تیمی": 2087,
      "▁تیمی": 2088,
      "آغ": 2089,
      "▁آغ": 2090,
      "همین": 2091,
      "▁همین": 2092,
      "وض": 2093,
      "▁وض": 2094,
      "تند": 2095,
      "▁تند": 2096,
      "سوراخ": 2097,
      "▁سوراخ": 2098,
      "فرد": 2099,
      "▁فرد": 2100,
      "نهایت": 2101,
      "▁نهایت": 2102,
      "بوبو": 2103,
      "▁بوبو": 2104,
      "لح": 2105,
      "▁لح": 2106,
      "پیر": 2107,
      "▁پیر": 2108,
      "دادن": 2109,
      "▁دادن": 2110,
      "چقدر": 2111,
      "▁چقدر": 2112,
      "درون": 2113,
      "▁درون": 2114,
      "چنگ": 2115,
      "▁چنگ": 2116,
      "خوام": 2117,
      "▁خوام": 2118,
      "کثیف": 2119,
      "▁کثیف": 2120,
      "وای": 2121,
      "▁وای": 2122,
      "ترین": 2123,
      "▁ترین": 2124,
      "دوستاش": 2125,
      "▁دوستاش": 2126,
      "خاطر": 2127,
      "▁خاطر": 2128,
      "مغ": 2129,
      "▁مغ": 2130,
      "گذاشتند": 2131,
      "▁گذاشتند": 2132,
      "شاخه": 2133,
      "▁شاخه": 2134,
      "حافظ": 2135,
      "▁حافظ": 2136,
      "دستش": 2137,
      "▁دستش": 2138,
      "برمی": 2139,
      "▁برمی": 2140,
      "ذه": 2141,
      "▁ذه": 2142,
      "فین": 2143,
      "▁فین": 2144,
      "غاف": 2145,
      "▁غاف": 2146,
      "پش": 2147,
      "▁پش": 2148,
      "خداحافظ": 2149,
      "▁خداحافظ": 2150,
      "غافل": 2151,
      "▁غافل": 2152,
      "آغوش": 2153,
      "▁آغوش": 2154,
      "هاش": 2155,
      "▁هاش": 2156,
      "پرند": 2157,
      "▁پرند": 2158,
      "لانه": 2159,
      "▁لانه": 2160,
      "خوشش": 2161,
      "▁خوشش": 2162,
      "روشن": 2163,
      "▁روشن": 2164,
      "عا": 2165,
      "▁عا": 2166,
      "جست": 2167,
      "▁جست": 2168,
      "امیدو": 2169,
      "▁امیدو": 2170,
      "کیسه": 2171,
      "▁کیسه": 2172,
      "انداخت": 2173,
      "▁انداخت": 2174,
      "تعمیر": 2175,
      "▁تعمیر": 2176,
      "باهوش": 2177,
      "▁باهوش": 2178,
      "کام": 2179,
      "▁کام": 2180,
      "گرس": 2181,
      "▁گرس": 2182,
      "باشی": 2183,
      "▁باشی": 2184,
      "امیدوار": 2185,
      "▁امیدوار": 2186,
      "قرار": 2187,
      "▁قرار": 2188,
      "زش": 2189,
      "▁زش": 2190,
      "چیزها": 2191,
      "▁چیزها": 2192,
      "قاب": 2193,
      "▁قاب": 2194,
      "بوت": 2195,
      "▁بوت": 2196,
      "بینند": 2197,
      "▁بینند": 2198,
      "شته": 2199,
      "▁شته": 2200,
      "پو": 2201,
      "▁پو": 2202,
      "صحبت": 2203,
      "▁صحبت": 2204,
      "ملا": 2205,
      "▁ملا": 2206,
      "گرسنه": 2207,
      "▁گرسنه": 2208,
      "خیس": 2209,
      "▁خیس": 2210,
      "يد": 2211,
      "▁يد": 2212,
      "ازد": 2213,
      "▁ازد": 2214,
      "خاک": 2215,
      "▁خاک": 2216,
      "متاسف": 2217,
      "▁متاسف": 2218,
      "آمو": 2219,
      "▁آمو": 2220,
      "انگی": 2221,
      "▁انگی": 2222,
      "اتفاقی": 2223,
      "▁اتفاقی": 2224,
      "دراز": 2225,
      "▁دراز": 2226,
      "جدیدش": 2227,
      "▁جدیدش": 2228,
      "دام": 2229,
      "▁دام": 2230,
      "لوی": 2231,
      "▁لوی": 2232,
      "باع": 2233,
      "▁باع": 2234,
      "مورچه": 2235,
      "▁مورچه": 2236,
      "مي": 2237,
      "▁مي": 2238,
      "باعث": 2239,
      "▁باعث": 2240,
      "ظه": 2241,
      "▁ظه": 2242,
      "گویند": 2243,
      "▁گویند": 2244,
      "روند": 2245,
      "▁روند": 2246,
      "جاد": 2247,
      "▁جاد": 2248,
      "فراموش": 2249,
      "▁فراموش": 2250,
      "فروشگاه": 2251,
      "▁فروشگاه": 2252,
      "زان": 2253,
      "▁زان": 2254,
      "افتاده": 2255,
      "▁افتاده": 2256,
      "سوار": 2257,
      "▁سوار": 2258,
      "داده": 2259,
      "▁داده": 2260,
      "قبل": 2261,
      "▁قبل": 2262,
      "بعدا": 2263,
      "▁بعدا": 2264,
      "رسیدند": 2265,
      "▁رسیدند": 2266,
      "ذهنش": 2267,
      "▁ذهنش": 2268,
      "میمی": 2269,
      "▁میمی": 2270,
      "مادربزرگ": 2271,
      "▁مادربزرگ": 2272,
      "دنی": 2273,
      "▁دنی": 2274,
      "قشنگ": 2275,
      "▁قشنگ": 2276,
      "ایجاد": 2277,
      "▁ایجاد": 2278,
      "قطار": 2279,
      "▁قطار": 2280,
      "درد": 2281,
      "▁درد": 2282,
      "تونست": 2283,
      "▁تونست": 2284,
      "بدهد": 2285,
      "▁بدهد": 2286,
      "گان": 2287,
      "▁گان": 2288,
      "بستنی": 2289,
      "▁بستنی": 2290,
      "خار": 2291,
      "▁خار": 2292,
      "بیایید": 2293,
      "▁بیایید": 2294,
      "حل": 2295,
      "▁حل": 2296,
      "شیرینی": 2297,
      "▁شیرینی": 2298,
      "سط": 2299,
      "▁سط": 2300,
      "آقای": 2301,
      "▁آقای": 2302,
      "بدیل": 2303,
      "▁بدیل": 2304,
      "تبدیل": 2305,
      "▁تبدیل": 2306,
      "خداحافظی": 2307,
      "▁خداحافظی": 2308,
      "ستاره": 2309,
      "▁ستاره": 2310,
      "تقسیم": 2311,
      "▁تقسیم": 2312,
      "رمی": 2313,
      "▁رمی": 2314,
      "نک": 2315,
      "▁نک": 2316,
      "یخ": 2317,
      "▁یخ": 2318,
      "آز": 2319,
      "▁آز": 2320,
      "یش": 2321,
      "▁یش": 2322,
      "سران": 2323,
      "▁سران": 2324,
      "آید": 2325,
      "▁آید": 2326,
      "تان": 2327,
      "▁تان": 2328,
      "سرانجام": 2329,
      "▁سرانجام": 2330,
      "ملاقات": 2331,
      "▁ملاقات": 2332,
      "مج": 2333,
      "▁مج": 2334,
      "لیلا": 2335,
      "▁لیلا": 2336,
      "شدید": 2337,
      "▁شدید": 2338,
      "چرخه": 2339,
      "▁چرخه": 2340,
      "پروانه": 2341,
      "▁پروانه": 2342,
      "غذای": 2343,
      "▁غذای": 2344,
      "داره": 2345,
      "▁داره": 2346,
      "ابر": 2347,
      "▁ابر": 2348,
      "جایی": 2349,
      "▁جایی": 2350,
      "قول": 2351,
      "▁قول": 2352,
      "واقعا": 2353,
      "▁واقعا": 2354,
      "مشغول": 2355,
      "▁مشغول": 2356,
      "بق": 2357,
      "▁بق": 2358,
      "متشک": 2359,
      "▁متشک": 2360,
      "جویی": 2361,
      "▁جویی": 2362,
      "متشکرم": 2363,
      "▁متشکرم": 2364,
      "برج": 2365,
      "▁برج": 2366,
      "دویدن": 2367,
      "▁دویدن": 2368,
      "مادرشان": 2369,
      "▁مادرشان": 2370,
      "بگذار": 2371,
      "▁بگذار": 2372,
      "اول": 2373,
      "▁اول": 2374,
      "پری": 2375,
      "▁پری": 2376,
      "دعوا": 2377,
      "▁دعوا": 2378,
      "قا": 2379,
      "▁قا": 2380,
      "غمگینی": 2381,
      "▁غمگینی": 2382,
      "توانستند": 2383,
      "▁توانستند": 2384,
      "مهربانی": 2385,
      "▁مهربانی": 2386,
      "ببینند": 2387,
      "▁ببینند": 2388,
      "رنگار": 2389,
      "▁رنگار": 2390,
      "بروند": 2391,
      "▁بروند": 2392,
      "گرفته": 2393,
      "▁گرفته": 2394,
      "رنگارنگ": 2395,
      "▁رنگارنگ": 2396,
      "عکس": 2397,
      "▁عکس": 2398,
      "يک": 2399,
      "▁يک": 2400,
      "ایست": 2401,
      "▁ایست": 2402,
      "انگ": 2403,
      "▁انگ": 2404,
      "ئن": 2405,
      "▁ئن": 2406,
      "دوچرخه": 2407,
      "▁دوچرخه": 2408,
      "پنجره": 2409,
      "▁پنجره": 2410,
      "مدتی": 2411,
      "▁مدتی": 2412,
      "امروز": 2413,
      "▁امروز": 2414,
      "براق": 2415,
      "▁براق": 2416,
      "پرتاب": 2417,
      "▁پرتاب": 2418,
      "وع": 2419,
      "▁وع": 2420,
      "دوستی": 2421,
      "▁دوستی": 2422,
      "صدایی": 2423,
      "▁صدایی": 2424,
      "بپرد": 2425,
      "▁بپرد": 2426,
      "بید": 2427,
      "▁بید": 2428,
      "دری": 2429,
      "▁دری": 2430,
      "سرعت": 2431,
      "▁سرعت": 2432,
      "اض": 2433,
      "▁اض": 2434,
      "بح": 2435,
      "▁بح": 2436,
      "بدون": 2437,
      "▁بدون": 2438,
      "مم": 2439,
      "▁مم": 2440,
      "استراحت": 2441,
      "▁استراحت": 2442,
      "پوشید": 2443,
      "▁پوشید": 2444,
      "جغ": 2445,
      "▁جغ": 2446,
      "ریف": 2447,
      "▁ریف": 2448,
      "ریم": 2449,
      "▁ریم": 2450,
      "ساح": 2451,
      "▁ساح": 2452,
      "طول": 2453,
      "▁طول": 2454,
      "داریم": 2455,
      "▁داریم": 2456,
      "ظرف": 2457,
      "▁ظرف": 2458,
      "اشق": 2459,
      "▁اشق": 2460,
      "کنن": 2461,
      "▁کنن": 2462,
      "انش": 2463,
      "▁انش": 2464,
      "خراب": 2465,
      "▁خراب": 2466,
      "بقیه": 2467,
      "▁بقیه": 2468,
      "شکسته": 2469,
      "▁شکسته": 2470,
      "صورتی": 2471,
      "▁صورتی": 2472,
      "باشیم": 2473,
      "▁باشیم": 2474,
      "دود": 2475,
      "▁دود": 2476,
      "زار": 2477,
      "▁زار": 2478,
      "هل": 2479,
      "▁هل": 2480,
      "دیده": 2481,
      "▁دیده": 2482,
      "زیاد": 2483,
      "▁زیاد": 2484,
      "امن": 2485,
      "▁امن": 2486,
      "صندوق": 2487,
      "▁صندوق": 2488,
      "جغد": 2489,
      "▁جغد": 2490,
      "مهمانی": 2491,
      "▁مهمانی": 2492,
      "ماجراجویی": 2493,
      "▁ماجراجویی": 2494,
      "پیچ": 2495,
      "▁پیچ": 2496,
      "بین": 2497,
      "▁بین": 2498,
      "پیش": 2499,
      "▁پیش": 2500,
      "چیزهایی": 2501,
      "▁چیزهایی": 2502,
      "دیوار": 2503,
      "▁دیوار": 2504,
      "گیاه": 2505,
      "▁گیاه": 2506,
      "توپش": 2507,
      "▁توپش": 2508,
      "ساحل": 2509,
      "▁ساحل": 2510,
      "غافلگیری": 2511,
      "▁غافلگیری": 2512,
      "پرندگان": 2513,
      "▁پرندگان": 2514,
      "نجات": 2515,
      "▁نجات": 2516,
      "آموخت": 2517,
      "▁آموخت": 2518,
      "عل": 2519,
      "▁عل": 2520,
      "قدی": 2521,
      "▁قدی": 2522,
      "زا": 2523,
      "▁زا": 2524,
      "مطم": 2525,
      "▁مطم": 2526,
      "همراه": 2527,
      "▁همراه": 2528,
      "صبر": 2529,
      "▁صبر": 2530,
      "آم": 2531,
      "▁آم": 2532,
      "نباید": 2533,
      "▁نباید": 2534,
      "داشتن": 2535,
      "▁داشتن": 2536,
      "چسب": 2537,
      "▁چسب": 2538,
      "پیم": 2539,
      "▁پیم": 2540,
      "شکست": 2541,
      "▁شکست": 2542,
      "دختربچه": 2543,
      "▁دختربچه": 2544,
      "هار": 2545,
      "▁هار": 2546,
      "نقشه": 2547,
      "▁نقشه": 2548,
      "برادر": 2549,
      "▁برادر": 2550,
      "فیل": 2551,
      "▁فیل": 2552,
      "نشد": 2553,
      "▁نشد": 2554,
      "گاز": 2555,
      "▁گاز": 2556,
      "لات": 2557,
      "▁لات": 2558,
      "سنگین": 2559,
      "▁سنگین": 2560,
      "بهتری": 2561,
      "▁بهتری": 2562,
      "دخترکی": 2563,
      "▁دخترکی": 2564,
      "آمدند": 2565,
      "▁آمدند": 2566,
      "مکان": 2567,
      "▁مکان": 2568,
      "همچنان": 2569,
      "▁همچنان": 2570,
      "قدیمی": 2571,
      "▁قدیمی": 2572,
      "رانند": 2573,
      "▁رانند": 2574,
      "کشد": 2575,
      "▁کشد": 2576,
      "بهم": 2577,
      "▁بهم": 2578,
      "پارس": 2579,
      "▁پارس": 2580,
      "دف": 2581,
      "▁دف": 2582,
      "اص": 2583,
      "▁اص": 2584,
      "روباه": 2585,
      "▁روباه": 2586,
      "رس": 2587,
      "▁رس": 2588,
      "بادی": 2589,
      "▁بادی": 2590,
      "بلوک": 2591,
      "▁بلوک": 2592,
      "صورت": 2593,
      "▁صورت": 2594,
      "چشم": 2595,
      "▁چشم": 2596,
      "‌‌": 2597,
      "▁‌‌": 2598,
      "گشتند": 2599,
      "▁گشتند": 2600,
      "طنا": 2601,
      "▁طنا": 2602,
      "زید": 2603,
      "▁زید": 2604,
      "دیزی": 2605,
      "▁دیزی": 2606,
      "تازه": 2607,
      "▁تازه": 2608,
      "بهش": 2609,
      "▁بهش": 2610,
      "عذر": 2611,
      "▁عذر": 2612,
      "دهم": 2613,
      "▁دهم": 2614,
      "اندازه": 2615,
      "▁اندازه": 2616,
      "بیدار": 2617,
      "▁بیدار": 2618,
      "گاو": 2619,
      "▁گاو": 2620,
      "کلید": 2621,
      "▁کلید": 2622,
      "گرفتن": 2623,
      "▁گرفتن": 2624,
      "عذرخواهی": 2625,
      "▁عذرخواهی": 2626,
      "زنبور": 2627,
      "▁زنبور": 2628,
      "پذ": 2629,
      "▁پذ": 2630,
      "هنگامی": 2631,
      "▁هنگامی": 2632,
      "قلعه": 2633,
      "▁قلعه": 2634,
      "شریک": 2635,
      "▁شریک": 2636,
      "کفش": 2637,
      "▁کفش": 2638,
      "کشیدند": 2639,
      "▁کشیدند": 2640,
      "دونست": 2641,
      "▁دونست": 2642,
      "سیر": 2643,
      "▁سیر": 2644,
      "ببرد": 2645,
      "▁ببرد": 2646,
      "ترسناک": 2647,
      "▁ترسناک": 2648,
      "سفید": 2649,
      "▁سفید": 2650,
      "مغازه": 2651,
      "▁مغازه": 2652,
      "حوض": 2653,
      "▁حوض": 2654,
      "مراقبت": 2655,
      "▁مراقبت": 2656,
      "بدجن": 2657,
      "▁بدجن": 2658,
      "خرد": 2659,
      "▁خرد": 2660,
      "اسب": 2661,
      "▁اسب": 2662,
      "همچنین": 2663,
      "▁همچنین": 2664,
      "واو": 2665,
      "▁واو": 2666,
      "بری": 2667,
      "▁بری": 2668,
      "لاقی": 2669,
      "▁لاقی": 2670,
      "جر": 2671,
      "▁جر": 2672,
      "پول": 2673,
      "▁پول": 2674,
      "چمن": 2675,
      "▁چمن": 2676,
      "تامی": 2677,
      "▁تامی": 2678,
      "لحظه": 2679,
      "▁لحظه": 2680,
      "شیشه": 2681,
      "▁شیشه": 2682,
      "هدی": 2683,
      "▁هدی": 2684,
      "he": 2685,
      "▁he": 2686,
      "HE": 2687,
      "▁HE": 2688,
      "He": 2689,
      "▁He": 2690,
      "اهر": 2691,
      "▁اهر": 2692,
      "صبح": 2693,
      "▁صبح": 2694,
      "هدیه": 2695,
      "▁هدیه": 2696,
      "دمش": 2697,
      "▁دمش": 2698,
      "نشستند": 2699,
      "▁نشستند": 2700,
      "شام": 2701,
      "▁شام": 2702,
      "رفته": 2703,
      "▁رفته": 2704,
      "ایمن": 2705,
      "▁ایمن": 2706,
      "کرم": 2707,
      "▁کرم": 2708,
      "ماد": 2709,
      "▁ماد": 2710,
      "تصوی": 2711,
      "▁تصوی": 2712,
      "خشک": 2713,
      "▁خشک": 2714,
      "حس": 2715,
      "▁حس": 2716,
      "کجا": 2717,
      "▁کجا": 2718,
      "قسمت": 2719,
      "▁قسمت": 2720,
      "پاس": 2721,
      "▁پاس": 2722,
      "مطمئن": 2723,
      "▁مطمئن": 2724,
      "مدر": 2725,
      "▁مدر": 2726,
      "قهوه": 2727,
      "▁قهوه": 2728,
      "باشید": 2729,
      "▁باشید": 2730,
      "وت": 2731,
      "▁وت": 2732,
      "پل": 2733,
      "▁پل": 2734,
      "احمق": 2735,
      "▁احمق": 2736,
      "طناب": 2737,
      "▁طناب": 2738,
      "بره": 2739,
      "▁بره": 2740,
      "هواپیم": 2741,
      "▁هواپیم": 2742,
      "آشنا": 2743,
      "▁آشنا": 2744,
      "تمند": 2745,
      "▁تمند": 2746,
      "تونیم": 2747,
      "▁تونیم": 2748,
      "خره": 2749,
      "▁خره": 2750,
      "طولانی": 2751,
      "▁طولانی": 2752,
      "خوای": 2753,
      "▁خوای": 2754,
      "سگی": 2755,
      "▁سگی": 2756,
      "چیه": 2757,
      "▁چیه": 2758,
      "بدود": 2759,
      "▁بدود": 2760,
      "کمکش": 2761,
      "▁کمکش": 2762,
      "تاریک": 2763,
      "▁تاریک": 2764,
      "پیاد": 2765,
      "▁پیاد": 2766,
      "پیاده": 2767,
      "▁پیاده": 2768,
      "سکه": 2769,
      "▁سکه": 2770,
      "ازش": 2771,
      "▁ازش": 2772,
      "دوستانه": 2773,
      "▁دوستانه": 2774,
      "چال": 2775,
      "▁چال": 2776,
      "تونه": 2777,
      "▁تونه": 2778,
      "توانید": 2779,
      "▁توانید": 2780,
      "پرت": 2781,
      "▁پرت": 2782,
      "توت": 2783,
      "▁توت": 2784,
      "سفر": 2785,
      "▁سفر": 2786,
      "خطر": 2787,
      "▁خطر": 2788,
      "سایه": 2789,
      "▁سایه": 2790,
      "غروب": 2791,
      "▁غروب": 2792,
      "حص": 2793,
      "▁حص": 2794,
      "تکه": 2795,
      "▁تکه": 2796,
      "ببر": 2797,
      "▁ببر": 2798,
      "بیلی": 2799,
      "▁بیلی": 2800,
      "بتی": 2801,
      "▁بتی": 2802,
      "وحش": 2803,
      "▁وحش": 2804,
      "علف": 2805,
      "▁علف": 2806,
      "مخفی": 2807,
      "▁مخفی": 2808,
      "اعت": 2809,
      "▁اعت": 2810,
      "بیاو": 2811,
      "▁بیاو": 2812,
      "بتواند": 2813,
      "▁بتواند": 2814,
      "بگذارد": 2815,
      "▁بگذارد": 2816,
      "عمی": 2817,
      "▁عمی": 2818,
      "عروسکی": 2819,
      "▁عروسکی": 2820,
      "برگرداند": 2821,
      "▁برگرداند": 2822,
      "رض": 2823,
      "▁رض": 2824,
      "هنگام": 2825,
      "▁هنگام": 2826,
      "رها": 2827,
      "▁رها": 2828,
      "زمانی": 2829,
      "▁زمانی": 2830,
      "وسای": 2831,
      "▁وسای": 2832,
      "اخلاقی": 2833,
      "▁اخلاقی": 2834,
      "نشسته": 2835,
      "▁نشسته": 2836,
      "کشف": 2837,
      "▁کشف": 2838,
      "عجیبی": 2839,
      "▁عجیبی": 2840,
      "مخت": 2841,
      "▁مخت": 2842,
      "راحتی": 2843,
      "▁راحتی": 2844,
      "دکمه": 2845,
      "▁دکمه": 2846,
      "جشن": 2847,
      "▁جشن": 2848,
      "انتخ": 2849,
      "▁انتخ": 2850,
      "بالاتر": 2851,
      "▁بالاتر": 2852,
      "انتخاب": 2853,
      "▁انتخاب": 2854,
      "ين": 2855,
      "▁ين": 2856,
      "اوقات": 2857,
      "▁اوقات": 2858,
      "انگیز": 2859,
      "▁انگیز": 2860,
      "برویم": 2861,
      "▁برویم": 2862,
      "آه": 2863,
      "▁آه": 2864,
      "زم": 2865,
      "▁زم": 2866,
      "تعریف": 2867,
      "▁تعریف": 2868,
      "ندار": 2869,
      "▁ندار": 2870,
      "فق": 2871,
      "▁فق": 2872,
      "كرد": 2873,
      "▁كرد": 2874,
      "درآورد": 2875,
      "▁درآورد": 2876,
      "وسایل": 2877,
      "▁وسایل": 2878,
      "نان": 2879,
      "▁نان": 2880,
      "خرچنگ": 2881,
      "▁خرچنگ": 2882,
      "برایش": 2883,
      "▁برایش": 2884,
      "تول": 2885,
      "▁تول": 2886,
      "خجال": 2887,
      "▁خجال": 2888,
      "فه": 2889,
      "▁فه": 2890,
      "الان": 2891,
      "▁الان": 2892,
      "مدت": 2893,
      "▁مدت": 2894,
      "زنگ": 2895,
      "▁زنگ": 2896,
      "مداد": 2897,
      "▁مداد": 2898,
      "وح": 2899,
      "▁وح": 2900,
      "غر": 2901,
      "▁غر": 2902,
      "بلا": 2903,
      "▁بلا": 2904,
      "جستجو": 2905,
      "▁جستجو": 2906,
      "عزی": 2907,
      "▁عزی": 2908,
      "چشمان": 2909,
      "▁چشمان": 2910,
      "بردارد": 2911,
      "▁بردارد": 2912,
      "وحشت": 2913,
      "▁وحشت": 2914,
      "بخواند": 2915,
      "▁بخواند": 2916,
      "بدجنس": 2917,
      "▁بدجنس": 2918,
      "أسف": 2919,
      "▁أسف": 2920,
      "بوده": 2921,
      "▁بوده": 2922,
      "پریدند": 2923,
      "▁پریدند": 2924,
      "مشکلی": 2925,
      "▁مشکلی": 2926,
      "حق": 2927,
      "▁حق": 2928,
      "واقعی": 2929,
      "▁واقعی": 2930,
      "برخورد": 2931,
      "▁برخورد": 2932,
      "زبان": 2933,
      "▁زبان": 2934,
      "نشون": 2935,
      "▁نشون": 2936,
      "دوند": 2937,
      "▁دوند": 2938,
      "فاو": 2939,
      "▁فاو": 2940,
      "موسی": 2941,
      "▁موسی": 2942,
      "ساله": 2943,
      "▁ساله": 2944,
      "زنند": 2945,
      "▁زنند": 2946,
      "پاش": 2947,
      "▁پاش": 2948,
      "چراغ": 2949,
      "▁چراغ": 2950,
      "صاح": 2951,
      "▁صاح": 2952,
      "حمام": 2953,
      "▁حمام": 2954,
      "خواهش": 2955,
      "▁خواهش": 2956,
      "ببین": 2957,
      "▁ببین": 2958,
      "وم": 2959,
      "▁وم": 2960,
      "بات": 2961,
      "▁بات": 2962,
      "شنیدند": 2963,
      "▁شنیدند": 2964,
      "ازند": 2965,
      "▁ازند": 2966,
      "اوه": 2967,
      "▁اوه": 2968,
      "پاک": 2969,
      "▁پاک": 2970,
      "سیاه": 2971,
      "▁سیاه": 2972,
      "جالبی": 2973,
      "▁جالبی": 2974,
      "وال": 2975,
      "▁وال": 2976,
      "دانم": 2977,
      "▁دانم": 2978,
      "بعضی": 2979,
      "▁بعضی": 2980,
      "دوستت": 2981,
      "▁دوستت": 2982,
      "بخشید": 2983,
      "▁بخشید": 2984,
      "برف": 2985,
      "▁برف": 2986,
      "موسیقی": 2987,
      "▁موسیقی": 2988,
      "بشه": 2989,
      "▁بشه": 2990,
      "قو": 2991,
      "▁قو": 2992,
      "رودخانه": 2993,
      "▁رودخانه": 2994,
      "میان": 2995,
      "▁میان": 2996,
      "بط": 2997,
      "▁بط": 2998,
      "گذراند": 2999,
      "▁گذراند": 3000,
      "کیف": 3001,
      "▁کیف": 3002,
      "خوان": 3003,
      "▁خوان": 3004,
      "بیاید": 3005,
      "▁بیاید": 3006,
      "جیغ": 3007,
      "▁جیغ": 3008,
      "پنی": 3009,
      "▁پنی": 3010,
      "برگشتن": 3011,
      "▁برگشتن": 3012,
      "بمان": 3013,
      "▁بمان": 3014,
      "متاسفم": 3015,
      "▁متاسفم": 3016,
      "بوته": 3017,
      "▁بوته": 3018,
      "لي": 3019,
      "▁لي": 3020,
      "بوی": 3021,
      "▁بوی": 3022,
      "صف": 3023,
      "▁صف": 3024,
      "لیوان": 3025,
      "▁لیوان": 3026,
      "نداد": 3027,
      "▁نداد": 3028,
      "برنده": 3029,
      "▁برنده": 3030,
      "بماند": 3031,
      "▁بماند": 3032,
      "هستید": 3033,
      "▁هستید": 3034,
      "حوضچه": 3035,
      "▁حوضچه": 3036,
      "طی": 3037,
      "▁طی": 3038,
      "سین": 3039,
      "▁سین": 3040,
      "an": 3041,
      "▁an": 3042,
      "AN": 3043,
      "▁AN": 3044,
      "An": 3045,
      "▁An": 3046,
      "کمان": 3047,
      "▁کمان": 3048,
      "انگشت": 3049,
      "▁انگشت": 3050,
      "آمده": 3051,
      "▁آمده": 3052,
      "وص": 3053,
      "▁وص": 3054,
      "گذاشتن": 3055,
      "▁گذاشتن": 3056,
      "بگیرند": 3057,
      "▁بگیرند": 3058,
      "بون": 3059,
      "▁بون": 3060,
      "بینی": 3061,
      "▁بینی": 3062,
      "خش": 3063,
      "▁خش": 3064,
      "باهاش": 3065,
      "▁باهاش": 3066,
      "تصویر": 3067,
      "▁تصویر": 3068,
      "قفسه": 3069,
      "▁قفسه": 3070,
      "شتی": 3071,
      "▁شتی": 3072,
      "ممکن": 3073,
      "▁ممکن": 3074,
      "پشیم": 3075,
      "▁پشیم": 3076,
      "نوبتی": 3077,
      "▁نوبتی": 3078,
      "دریاچه": 3079,
      "▁دریاچه": 3080,
      "باشم": 3081,
      "▁باشم": 3082,
      "درختی": 3083,
      "▁درختی": 3084,
      "نور": 3085,
      "▁نور": 3086,
      "اتو": 3087,
      "▁اتو": 3088,
      "موشک": 3089,
      "▁موشک": 3090,
      "ریختگی": 3091,
      "▁ریختگی": 3092,
      "سطل": 3093,
      "▁سطل": 3094,
      "دین": 3095,
      "▁دین": 3096,
      "مسیر": 3097,
      "▁مسیر": 3098,
      "يم": 3099,
      "▁يم": 3100,
      "متأسف": 3101,
      "▁متأسف": 3102,
      "ساعت": 3103,
      "▁ساعت": 3104,
      "مردی": 3105,
      "▁مردی": 3106,
      "رات": 3107,
      "▁رات": 3108,
      "اشک": 3109,
      "▁اشک": 3110,
      "سوپ": 3111,
      "▁سوپ": 3112,
      "تور": 3113,
      "▁تور": 3114,
      "لاق": 3115,
      "▁لاق": 3116,
      "نخ": 3117,
      "▁نخ": 3118,
      "بسته": 3119,
      "▁بسته": 3120,
      "میمون": 3121,
      "▁میمون": 3122,
      "متفاو": 3123,
      "▁متفاو": 3124,
      "داغ": 3125,
      "▁داغ": 3126,
      "رسی": 3127,
      "▁رسی": 3128,
      "مدرسه": 3129,
      "▁مدرسه": 3130,
      "بسازد": 3131,
      "▁بسازد": 3132,
      "دهانش": 3133,
      "▁دهانش": 3134,
      "خوشی": 3135,
      "▁خوشی": 3136,
      "گنج": 3137,
      "▁گنج": 3138,
      "پرسد": 3139,
      "▁پرسد": 3140,
      "شکل": 3141,
      "▁شکل": 3142,
      "پدید": 3143,
      "▁پدید": 3144,
      "مولی": 3145,
      "▁مولی": 3146,
      "وند": 3147,
      "▁وند": 3148,
      "لرز": 3149,
      "▁لرز": 3150,
      "بزرگش": 3151,
      "▁بزرگش": 3152,
      "تخم": 3153,
      "▁تخم": 3154,
      "بامزه": 3155,
      "▁بامزه": 3156,
      "رفتار": 3157,
      "▁رفتار": 3158,
      "دفت": 3159,
      "▁دفت": 3160,
      "راکی": 3161,
      "▁راکی": 3162,
      "روم": 3163,
      "▁روم": 3164,
      "داند": 3165,
      "▁داند": 3166,
      "مخلو": 3167,
      "▁مخلو": 3168,
      "جوی": 3169,
      "▁جوی": 3170,
      "فس": 3171,
      "▁فس": 3172,
      "وزید": 3173,
      "▁وزید": 3174,
      "یمی": 3175,
      "▁یمی": 3176,
      "ایم": 3177,
      "▁ایم": 3178,
      "مخلوط": 3179,
      "▁مخلوط": 3180,
      "عجیب": 3181,
      "▁عجیب": 3182,
      "فرنگی": 3183,
      "▁فرنگی": 3184,
      "ماس": 3185,
      "▁ماس": 3186,
      "اژ": 3187,
      "▁اژ": 3188,
      "دوی": 3189,
      "▁دوی": 3190,
      "گیرد": 3191,
      "▁گیرد": 3192,
      "خواندن": 3193,
      "▁خواندن": 3194,
      "صدف": 3195,
      "▁صدف": 3196,
      "والدین": 3197,
      "▁والدین": 3198,
      "بوس": 3199,
      "▁بوس": 3200,
      "ندیده": 3201,
      "▁ندیده": 3202,
      "لیس": 3203,
      "▁لیس": 3204,
      "معل": 3205,
      "▁معل": 3206,
      "گیرند": 3207,
      "▁گیرند": 3208,
      "آره": 3209,
      "▁آره": 3210,
      "ساند": 3211,
      "▁ساند": 3212,
      "پست": 3213,
      "▁پست": 3214,
      "ترک": 3215,
      "▁ترک": 3216,
      "درخش": 3217,
      "▁درخش": 3218,
      "دنیا": 3219,
      "▁دنیا": 3220,
      "کمکت": 3221,
      "▁کمکت": 3222,
      "بیل": 3223,
      "▁بیل": 3224,
      "حف": 3225,
      "▁حف": 3226,
      "فان": 3227,
      "▁فان": 3228,
      "زمینی": 3229,
      "▁زمینی": 3230,
      "اعتماد": 3231,
      "▁اعتماد": 3232,
      "آورده": 3233,
      "▁آورده": 3234,
      "پذی": 3235,
      "▁پذی": 3236,
      "روح": 3237,
      "▁روح": 3238,
      "بکشد": 3239,
      "▁بکشد": 3240,
      "پرد": 3241,
      "▁پرد": 3242,
      "اژد": 3243,
      "▁اژد": 3244,
      "تنهایی": 3245,
      "▁تنهایی": 3246,
      "افی": 3247,
      "▁افی": 3248,
      "سرا": 3249,
      "▁سرا": 3250,
      "ببخشید": 3251,
      "▁ببخشید": 3252,
      "ذوق": 3253,
      "▁ذوق": 3254,
      "کاو": 3255,
      "▁کاو": 3256,
      "يك": 3257,
      "▁يك": 3258,
      "ئو": 3259,
      "▁ئو": 3260,
      "حد": 3261,
      "▁حد": 3262,
      "سالم": 3263,
      "▁سالم": 3264,
      "ابان": 3265,
      "▁ابان": 3266,
      "بادباد": 3267,
      "▁بادباد": 3268,
      "عط": 3269,
      "▁عط": 3270,
      "درختان": 3271,
      "▁درختان": 3272,
      "نمایش": 3273,
      "▁نمایش": 3274,
      "مود": 3275,
      "▁مود": 3276,
      "دقی": 3277,
      "▁دقی": 3278,
      "ظاهر": 3279,
      "▁ظاهر": 3280,
      "دکتر": 3281,
      "▁دکتر": 3282,
      "جاست": 3283,
      "▁جاست": 3284,
      "خواهیم": 3285,
      "▁خواهیم": 3286,
      "پارچه": 3287,
      "▁پارچه": 3288,
      "خرید": 3289,
      "▁خرید": 3290,
      "قاشق": 3291,
      "▁قاشق": 3292,
      "بخورند": 3293,
      "▁بخورند": 3294,
      "ذرت": 3295,
      "▁ذرت": 3296,
      "خاص": 3297,
      "▁خاص": 3298,
      "مهربون": 3299,
      "▁مهربون": 3300,
      "خطرناک": 3301,
      "▁خطرناک": 3302,
      "موفق": 3303,
      "▁موفق": 3304,
      "ناه": 3305,
      "▁ناه": 3306,
      "اشتباه": 3307,
      "▁اشتباه": 3308,
      "رمرد": 3309,
      "▁رمرد": 3310,
      "ساختن": 3311,
      "▁ساختن": 3312,
      "وعده": 3313,
      "▁وعده": 3314,
      "آل": 3315,
      "▁آل": 3316,
      "بسیاری": 3317,
      "▁بسیاری": 3318,
      "تلف": 3319,
      "▁تلف": 3320,
      "پاد": 3321,
      "▁پاد": 3322,
      "مختلف": 3323,
      "▁مختلف": 3324,
      "ترا": 3325,
      "▁ترا": 3326,
      "کاوش": 3327,
      "▁کاوش": 3328,
      "خیابان": 3329,
      "▁خیابان": 3330,
      "عنک": 3331,
      "▁عنک": 3332,
      "متعل": 3333,
      "▁متعل": 3334,
      "متعلق": 3335,
      "▁متعلق": 3336,
      "ولا": 3337,
      "▁ولا": 3338,
      "حلقه": 3339,
      "▁حلقه": 3340,
      "موز": 3341,
      "▁موز": 3342,
      "لوچه": 3343,
      "▁لوچه": 3344,
      "هوی": 3345,
      "▁هوی": 3346,
      "کاس": 3347,
      "▁کاس": 3348,
      "پیرمرد": 3349,
      "▁پیرمرد": 3350,
      "خواندند": 3351,
      "▁خواندند": 3352,
      "دند": 3353,
      "▁دند": 3354,
      "خاکست": 3355,
      "▁خاکست": 3356,
      "پادشاه": 3357,
      "▁پادشاه": 3358,
      "ببینیم": 3359,
      "▁ببینیم": 3360,
      "کمد": 3361,
      "▁کمد": 3362,
      "لیمو": 3363,
      "▁لیمو": 3364,
      "ناپدید": 3365,
      "▁ناپدید": 3366,
      "دقت": 3367,
      "▁دقت": 3368,
      "تال": 3369,
      "▁تال": 3370,
      "خوراکی": 3371,
      "▁خوراکی": 3372,
      "کارت": 3373,
      "▁کارت": 3374,
      "بنفش": 3375,
      "▁بنفش": 3376,
      "خردمند": 3377,
      "▁خردمند": 3378,
      "اق": 3379,
      "▁اق": 3380,
      "تصاو": 3381,
      "▁تصاو": 3382,
      "لوله": 3383,
      "▁لوله": 3384,
      "محبو": 3385,
      "▁محبو": 3386,
      "قفل": 3387,
      "▁قفل": 3388,
      "بته": 3389,
      "▁بته": 3390,
      "فل": 3391,
      "▁فل": 3392,
      "مشت": 3393,
      "▁مشت": 3394,
      "اشاره": 3395,
      "▁اشاره": 3396,
      "گری": 3397,
      "▁گری": 3398,
      "البته": 3399,
      "▁البته": 3400,
      "هیولا": 3401,
      "▁هیولا": 3402,
      "توانسته": 3403,
      "▁توانسته": 3404,
      "طوفان": 3405,
      "▁طوفان": 3406,
      "غی": 3407,
      "▁غی": 3408,
      "رنگین": 3409,
      "▁رنگین": 3410,
      "امید": 3411,
      "▁امید": 3412,
      "جیل": 3413,
      "▁جیل": 3414,
      "ماه": 3415,
      "▁ماه": 3416,
      "نوشته": 3417,
      "▁نوشته": 3418,
      "نتوانستند": 3419,
      "▁نتوانستند": 3420,
      "دانه": 3421,
      "▁دانه": 3422,
      "مفت": 3423,
      "▁مفت": 3424,
      "ar": 3425,
      "▁ar": 3426,
      "AR": 3427,
      "▁AR": 3428,
      "Ar": 3429,
      "▁Ar": 3430,
      "ندارد": 3431,
      "▁ندارد": 3432,
      "غلت": 3433,
      "▁غلت": 3434,
      "دوق": 3435,
      "▁دوق": 3436,
      "تعقی": 3437,
      "▁تعقی": 3438,
      "میکرد": 3439,
      "▁میکرد": 3440,
      "آوی": 3441,
      "▁آوی": 3442,
      "کاسه": 3443,
      "▁کاسه": 3444,
      "موا": 3445,
      "▁موا": 3446,
      "رشد": 3447,
      "▁رشد": 3448,
      "بشن": 3449,
      "▁بشن": 3450,
      "تعقیب": 3451,
      "▁تعقیب": 3452,
      "هویج": 3453,
      "▁هویج": 3454,
      "خندیدن": 3455,
      "▁خندیدن": 3456,
      "رسد": 3457,
      "▁رسد": 3458,
      "موهای": 3459,
      "▁موهای": 3460,
      "لاک": 3461,
      "▁لاک": 3462,
      "خودشان": 3463,
      "▁خودشان": 3464,
      "تالاب": 3465,
      "▁تالاب": 3466,
      "بیم": 3467,
      "▁بیم": 3468,
      "شیط": 3469,
      "▁شیط": 3470,
      "دوقلو": 3471,
      "▁دوقلو": 3472,
      "چیک": 3473,
      "▁چیک": 3474,
      "قطع": 3475,
      "▁قطع": 3476,
      "آهنگ": 3477,
      "▁آهنگ": 3478,
      "انت": 3479,
      "▁انت": 3480,
      "روست": 3481,
      "▁روست": 3482,
      "دای": 3483,
      "▁دای": 3484,
      "اهمی": 3485,
      "▁اهمی": 3486,
      "بادبادک": 3487,
      "▁بادبادک": 3488,
      "برقص": 3489,
      "▁برقص": 3490,
      "شانه": 3491,
      "▁شانه": 3492,
      "پیت": 3493,
      "▁پیت": 3494,
      "مرسی": 3495,
      "▁مرسی": 3496,
      "سوت": 3497,
      "▁سوت": 3498,
      "تولد": 3499,
      "▁تولد": 3500,
      "نوش": 3501,
      "▁نوش": 3502,
      "مفتخر": 3503,
      "▁مفتخر": 3504,
      "چیکار": 3505,
      "▁چیکار": 3506,
      "قایم": 3507,
      "▁قایم": 3508,
      "افتد": 3509,
      "▁افتد": 3510,
      "عزیزم": 3511,
      "▁عزیزم": 3512,
      "پریدن": 3513,
      "▁پریدن": 3514,
      "هواپیما": 3515,
      "▁هواپیما": 3516,
      "وده": 3517,
      "▁وده": 3518,
      "ثرو": 3519,
      "▁ثرو": 3520,
      "ماندند": 3521,
      "▁ماندند": 3522,
      "رانی": 3523,
      "▁رانی": 3524,
      "صورتش": 3525,
      "▁صورتش": 3526,
      "بطری": 3527,
      "▁بطری": 3528,
      "آزاد": 3529,
      "▁آزاد": 3530,
      "مارک": 3531,
      "▁مارک": 3532,
      "دارید": 3533,
      "▁دارید": 3534,
      "برم": 3535,
      "▁برم": 3536,
      "کون": 3537,
      "▁کون": 3538,
      "فته": 3539,
      "▁فته": 3540,
      "ارا": 3541,
      "▁ارا": 3542,
      "دیر": 3543,
      "▁دیر": 3544,
      "گفته": 3545,
      "▁گفته": 3546,
      "مشکل": 3547,
      "▁مشکل": 3548,
      "استخر": 3549,
      "▁استخر": 3550,
      "بپر": 3551,
      "▁بپر": 3552,
      "زاده": 3553,
      "▁زاده": 3554,
      "عنکبوت": 3555,
      "▁عنکبوت": 3556,
      "بیه": 3557,
      "▁بیه": 3558,
      "تابید": 3559,
      "▁تابید": 3560,
      "آرامی": 3561,
      "▁آرامی": 3562,
      "راهی": 3563,
      "▁راهی": 3564,
      "نبودند": 3565,
      "▁نبودند": 3566,
      "ترش": 3567,
      "▁ترش": 3568,
      "کشاو": 3569,
      "▁کشاو": 3570,
      "وشد": 3571,
      "▁وشد": 3572,
      "کدام": 3573,
      "▁کدام": 3574,
      "راحی": 3575,
      "▁راحی": 3576,
      "خاکستری": 3577,
      "▁خاکستری": 3578,
      "پخت": 3579,
      "▁پخت": 3580,
      "برسد": 3581,
      "▁برسد": 3582,
      "زنده": 3583,
      "▁زنده": 3584,
      "ثروتمند": 3585,
      "▁ثروتمند": 3586,
      "شاهزاده": 3587,
      "▁شاهزاده": 3588,
      "دزد": 3589,
      "▁دزد": 3590,
      "متفاوت": 3591,
      "▁متفاوت": 3592,
      "طوری": 3593,
      "▁طوری": 3594,
      "عقب": 3595,
      "▁عقب": 3596,
      "چنگال": 3597,
      "▁چنگال": 3598,
      "خواستم": 3599,
      "▁خواستم": 3600,
      "شویم": 3601,
      "▁شویم": 3602,
      "معلم": 3603,
      "▁معلم": 3604,
      "نار": 3605,
      "▁نار": 3606,
      "غار": 3607,
      "▁غار": 3608,
      "دوستانشان": 3609,
      "▁دوستانشان": 3610,
      "انو": 3611,
      "▁انو": 3612,
      "کلوچه": 3613,
      "▁کلوچه": 3614,
      "تلفن": 3615,
      "▁تلفن": 3616,
      "کشاورز": 3617,
      "▁کشاورز": 3618,
      "کشیدن": 3619,
      "▁کشیدن": 3620,
      "داشتنی": 3621,
      "▁داشتنی": 3622,
      "کلی": 3623,
      "▁کلی": 3624,
      "پنیر": 3625,
      "▁پنیر": 3626,
      "محافظ": 3627,
      "▁محافظ": 3628,
      "کامل": 3629,
      "▁کامل": 3630,
      "کاملا": 3631,
      "▁کاملا": 3632,
      "امنی": 3633,
      "▁امنی": 3634,
      "نوزاد": 3635,
      "▁نوزاد": 3636,
      "قیم": 3637,
      "▁قیم": 3638,
      "انجامش": 3639,
      "▁انجامش": 3640,
      "آوری": 3641,
      "▁آوری": 3642,
      "خوشگل": 3643,
      "▁خوشگل": 3644,
      "سن": 3645,
      "▁سن": 3646,
      "کوچکش": 3647,
      "▁کوچکش": 3648,
      "بالش": 3649,
      "▁بالش": 3650,
      "کف": 3651,
      "▁کف": 3652,
      "بگیری": 3653,
      "▁بگیری": 3654,
      "تری": 3655,
      "▁تری": 3656,
      "خوشحالم": 3657,
      "▁خوشحالم": 3658,
      "رقصیدن": 3659,
      "▁رقصیدن": 3660,
      "قد": 3661,
      "▁قد": 3662,
      "خالی": 3663,
      "▁خالی": 3664,
      "تصاویر": 3665,
      "▁تصاویر": 3666,
      "خنک": 3667,
      "▁خنک": 3668,
      "پیراه": 3669,
      "▁پیراه": 3670,
      "مبل": 3671,
      "▁مبل": 3672,
      "نجی": 3673,
      "▁نجی": 3674,
      "عمیق": 3675,
      "▁عمیق": 3676,
      "کوکی": 3677,
      "▁کوکی": 3678,
      "خواهر": 3679,
      "▁خواهر": 3680,
      "مست": 3681,
      "▁مست": 3682,
      "لیز": 3683,
      "▁لیز": 3684,
      "شم": 3685,
      "▁شم": 3686,
      "ایستاد": 3687,
      "▁ایستاد": 3688,
      "نوان": 3689,
      "▁نوان": 3690,
      "جلوی": 3691,
      "▁جلوی": 3692,
      "زیبای": 3693,
      "▁زیبای": 3694,
      "تلوی": 3695,
      "▁تلوی": 3696,
      "تلویزی": 3697,
      "▁تلویزی": 3698,
      "سواری": 3699,
      "▁سواری": 3700,
      "آلود": 3701,
      "▁آلود": 3702,
      "گردن": 3703,
      "▁گردن": 3704,
      "جبور": 3705,
      "▁جبور": 3706,
      "خارج": 3707,
      "▁خارج": 3708,
      "اتوبوس": 3709,
      "▁اتوبوس": 3710,
      "عنوان": 3711,
      "▁عنوان": 3712,
      "مجبور": 3713,
      "▁مجبور": 3714,
      "ملایم": 3715,
      "▁ملایم": 3716,
      "افه": 3717,
      "▁افه": 3718,
      "خوک": 3719,
      "▁خوک": 3720,
      "خوبه": 3721,
      "▁خوبه": 3722,
      "بخر": 3723,
      "▁بخر": 3724,
      "سبد": 3725,
      "▁سبد": 3726,
      "صمیمی": 3727,
      "▁صمیمی": 3728,
      "مواظ": 3729,
      "▁مواظ": 3730,
      "درو": 3731,
      "▁درو": 3732,
      "کارهای": 3733,
      "▁کارهای": 3734,
      "نیستند": 3735,
      "▁نیستند": 3736,
      "جلو": 3737,
      "▁جلو": 3738,
      "شدیدی": 3739,
      "▁شدیدی": 3740,
      "صاحب": 3741,
      "▁صاحب": 3742,
      "درخشانی": 3743,
      "▁درخشانی": 3744,
      "دریایی": 3745,
      "▁دریایی": 3746,
      "حباب": 3747,
      "▁حباب": 3748,
      "شلو": 3749,
      "▁شلو": 3750,
      "تکون": 3751,
      "▁تکون": 3752,
      "عد": 3753,
      "▁عد": 3754,
      "ساختند": 3755,
      "▁ساختند": 3756,
      "نفس": 3757,
      "▁نفس": 3758,
      "دعوت": 3759,
      "▁دعوت": 3760,
      "طراحی": 3761,
      "▁طراحی": 3762,
      "ایت": 3763,
      "▁ایت": 3764,
      "بردار": 3765,
      "▁بردار": 3766,
      "تلویزیون": 3767,
      "▁تلویزیون": 3768,
      "ناراحتی": 3769,
      "▁ناراحتی": 3770,
      "سپاس": 3771,
      "▁سپاس": 3772,
      "شوی": 3773,
      "▁شوی": 3774,
      "فشار": 3775,
      "▁فشار": 3776,
      "زیباست": 3777,
      "▁زیباست": 3778,
      "میو": 3779,
      "▁میو": 3780,
      "لیزا": 3781,
      "▁لیزا": 3782,
      "حصار": 3783,
      "▁حصار": 3784,
      "خي": 3785,
      "▁خي": 3786,
      "باند": 3787,
      "▁باند": 3788,
      "سگش": 3789,
      "▁سگش": 3790,
      "خم": 3791,
      "▁خم": 3792,
      "اضافه": 3793,
      "▁اضافه": 3794,
      "اژدها": 3795,
      "▁اژدها": 3796,
      "شست": 3797,
      "▁شست": 3798,
      "استیک": 3799,
      "▁استیک": 3800,
      "رقصیدند": 3801,
      "▁رقصیدند": 3802,
      "ینه": 3803,
      "▁ینه": 3804,
      "بشقاب": 3805,
      "▁بشقاب": 3806,
      "جیک": 3807,
      "▁جیک": 3808,
      "باور": 3809,
      "▁باور": 3810,
      "کمکم": 3811,
      "▁کمکم": 3812,
      "بازیش": 3813,
      "▁بازیش": 3814,
      "یو": 3815,
      "▁یو": 3816,
      "حفره": 3817,
      "▁حفره": 3818,
      "لغ": 3819,
      "▁لغ": 3820,
      "چرخید": 3821,
      "▁چرخید": 3822,
      "ساندوی": 3823,
      "▁ساندوی": 3824,
      "ضر": 3825,
      "▁ضر": 3826,
      "بگیرم": 3827,
      "▁بگیرم": 3828,
      "کوتا": 3829,
      "▁کوتا": 3830,
      "باغچه": 3831,
      "▁باغچه": 3832,
      "جری": 3833,
      "▁جری": 3834,
      "تشوی": 3835,
      "▁تشوی": 3836,
      "گرگ": 3837,
      "▁گرگ": 3838,
      "بادکن": 3839,
      "▁بادکن": 3840,
      "برگردد": 3841,
      "▁برگردد": 3842,
      "برفی": 3843,
      "▁برفی": 3844,
      "مواظب": 3845,
      "▁مواظب": 3846,
      "کلما": 3847,
      "▁کلما": 3848,
      "تخته": 3849,
      "▁تخته": 3850,
      "فنج": 3851,
      "▁فنج": 3852,
      "استخوان": 3853,
      "▁استخوان": 3854,
      "بیمار": 3855,
      "▁بیمار": 3856,
      "نارنجی": 3857,
      "▁نارنجی": 3858,
      "احتی": 3859,
      "▁احتی": 3860,
      "مشتاق": 3861,
      "▁مشتاق": 3862,
      "زیم": 3863,
      "▁زیم": 3864,
      "کوچیک": 3865,
      "▁کوچیک": 3866,
      "پاره": 3867,
      "▁پاره": 3868,
      "رانندگی": 3869,
      "▁رانندگی": 3870,
      "نمود": 3871,
      "▁نمود": 3872,
      "راننده": 3873,
      "▁راننده": 3874,
      "ملحق": 3875,
      "▁ملحق": 3876,
      "بیاورد": 3877,
      "▁بیاورد": 3878,
      "شوم": 3879,
      "▁شوم": 3880,
      "جاده": 3881,
      "▁جاده": 3882,
      "وحشی": 3883,
      "▁وحشی": 3884,
      "موم": 3885,
      "▁موم": 3886,
      "احمقانه": 3887,
      "▁احمقانه": 3888,
      "نیمکت": 3889,
      "▁نیمکت": 3890,
      "صفح": 3891,
      "▁صفح": 3892,
      "کوچولوی": 3893,
      "▁کوچولوی": 3894,
      "کافی": 3895,
      "▁کافی": 3896,
      "جوان": 3897,
      "▁جوان": 3898,
      "عسل": 3899,
      "▁عسل": 3900,
      "خجالتی": 3901,
      "▁خجالتی": 3902,
      "کردید": 3903,
      "▁کردید": 3904,
      "میشه": 3905,
      "▁میشه": 3906,
      "دندان": 3907,
      "▁دندان": 3908,
      "بزنند": 3909,
      "▁بزنند": 3910,
      "حالش": 3911,
      "▁حالش": 3912,
      "the": 3913,
      "▁the": 3914,
      "THE": 3915,
      "▁THE": 3916,
      "The": 3917,
      "▁The": 3918,
      "کبو": 3919,
      "▁کبو": 3920,
      "ندید": 3921,
      "▁ندید": 3922,
      "لئو": 3923,
      "▁لئو": 3924,
      "منه": 3925,
      "▁منه": 3926,
      "مومو": 3927,
      "▁مومو": 3928,
      "بذ": 3929,
      "▁بذ": 3930,
      "منم": 3931,
      "▁منم": 3932,
      "لای": 3933,
      "▁لای": 3934,
      "بابی": 3935,
      "▁بابی": 3936,
      "غذاهای": 3937,
      "▁غذاهای": 3938,
      "رایی": 3939,
      "▁رایی": 3940,
      "بگیریم": 3941,
      "▁بگیریم": 3942,
      "توضی": 3943,
      "▁توضی": 3944,
      "قار": 3945,
      "▁قار": 3946,
      "توضیح": 3947,
      "▁توضیح": 3948,
      "زشت": 3949,
      "▁زشت": 3950,
      "امت": 3951,
      "▁امت": 3952,
      "بودم": 3953,
      "▁بودم": 3954,
      "نداشتند": 3955,
      "▁نداشتند": 3956,
      "بادکنک": 3957,
      "▁بادکنک": 3958,
      "پدرشان": 3959,
      "▁پدرشان": 3960,
      "تل": 3961,
      "▁تل": 3962,
      "پرا": 3963,
      "▁پرا": 3964,
      "آسان": 3965,
      "▁آسان": 3966,
      "کدو": 3967,
      "▁کدو": 3968,
      "ببینم": 3969,
      "▁ببینم": 3970,
      "دادی": 3971,
      "▁دادی": 3972,
      "گذار": 3973,
      "▁گذار": 3974,
      "گرو": 3975,
      "▁گرو": 3976,
      "همدیگر": 3977,
      "▁همدیگر": 3978,
      "پوست": 3979,
      "▁پوست": 3980,
      "دستکش": 3981,
      "▁دستکش": 3982,
      "خوششان": 3983,
      "▁خوششان": 3984,
      "ونه": 3985,
      "▁ونه": 3986,
      "کشتی": 3987,
      "▁کشتی": 3988,
      "بوق": 3989,
      "▁بوق": 3990,
      "ساکت": 3991,
      "▁ساکت": 3992,
      "بخوریم": 3993,
      "▁بخوریم": 3994,
      "پشتی": 3995,
      "▁پشتی": 3996,
      "آخ": 3997,
      "▁آخ": 3998,
      "کبوتر": 3999,
      "▁کبوتر": 4000,
      "ویس": 4001,
      "▁ویس": 4002,
      "رقصید": 4003,
      "▁رقصید": 4004,
      "پایش": 4005,
      "▁پایش": 4006,
      "عرض": 4007,
      "▁عرض": 4008,
      "همانطور": 4009,
      "▁همانطور": 4010,
      "موق": 4011,
      "▁موق": 4012,
      "روش": 4013,
      "▁روش": 4014,
      "دوان": 4015,
      "▁دوان": 4016,
      "قفس": 4017,
      "▁قفس": 4018,
      "ابت": 4019,
      "▁ابت": 4020,
      "جیمی": 4021,
      "▁جیمی": 4022,
      "عاشق": 4023,
      "▁عاشق": 4024,
      "چک": 4025,
      "▁چک": 4026,
      "قبلا": 4027,
      "▁قبلا": 4028,
      "آخر": 4029,
      "▁آخر": 4030,
      "ناهار": 4031,
      "▁ناهار": 4032,
      "فض": 4033,
      "▁فض": 4034,
      "منو": 4035,
      "▁منو": 4036,
      "کلمات": 4037,
      "▁کلمات": 4038,
      "ترسیدند": 4039,
      "▁ترسیدند": 4040,
      "یخچال": 4041,
      "▁یخچال": 4042,
      "غری": 4043,
      "▁غری": 4044,
      "مالی": 4045,
      "▁مالی": 4046,
      "شنها": 4047,
      "▁شنها": 4048,
      "یافت": 4049,
      "▁یافت": 4050,
      "مض": 4051,
      "▁مض": 4052,
      "میک": 4053,
      "▁میک": 4054,
      "آرایش": 4055,
      "▁آرایش": 4056,
      "بگیر": 4057,
      "▁بگیر": 4058,
      "شکر": 4059,
      "▁شکر": 4060,
      "واره": 4061,
      "▁واره": 4062,
      "پیو": 4063,
      "▁پیو": 4064,
      "نرد": 4065,
      "▁نرد": 4066,
      "ازم": 4067,
      "▁ازم": 4068,
      "بکش": 4069,
      "▁بکش": 4070,
      "قدرت": 4071,
      "▁قدرت": 4072,
      "موج": 4073,
      "▁موج": 4074,
      "لیسی": 4075,
      "▁لیسی": 4076,
      "پیشنها": 4077,
      "▁پیشنها": 4078,
      "قهر": 4079,
      "▁قهر": 4080,
      "شمرد": 4081,
      "▁شمرد": 4082,
      "گذروند": 4083,
      "▁گذروند": 4084,
      "بسازند": 4085,
      "▁بسازند": 4086,
      "نکن": 4087,
      "▁نکن": 4088,
      "گذشت": 4089,
      "▁گذشت": 4090,
      "پیک": 4091,
      "▁پیک": 4092,
      "بگذارند": 4093,
      "▁بگذارند": 4094,
      "شرم": 4095,
      "▁شرم": 4096,
      "بلکه": 4097,
      "▁بلکه": 4098,
      "گردد": 4099,
      "▁گردد": 4100,
      "زیپ": 4101,
      "▁زیپ": 4102,
      "ناامید": 4103,
      "▁ناامید": 4104,
      "مغرور": 4105,
      "▁مغرور": 4106,
      "چس": 4107,
      "▁چس": 4108,
      "دستمال": 4109,
      "▁دستمال": 4110,
      "صداهای": 4111,
      "▁صداهای": 4112,
      "وله": 4113,
      "▁وله": 4114,
      "توده": 4115,
      "▁توده": 4116,
      "گزار": 4117,
      "▁گزار": 4118,
      "جاق": 4119,
      "▁جاق": 4120,
      "ملکه": 4121,
      "▁ملکه": 4122,
      "تمر": 4123,
      "▁تمر": 4124,
      "درخواست": 4125,
      "▁درخواست": 4126,
      "لونا": 4127,
      "▁لونا": 4128,
      "ساندویچ": 4129,
      "▁ساندویچ": 4130,
      "خط": 4131,
      "▁خط": 4132,
      "نوار": 4133,
      "▁نوار": 4134,
      "ساخته": 4135,
      "▁ساخته": 4136,
      "افتخار": 4137,
      "▁افتخار": 4138,
      "پذیرایی": 4139,
      "▁پذیرایی": 4140,
      "عبور": 4141,
      "▁عبور": 4142,
      "ماسه": 4143,
      "▁ماسه": 4144,
      "بخورم": 4145,
      "▁بخورم": 4146,
      "پشیمان": 4147,
      "▁پشیمان": 4148,
      "آبمیوه": 4149,
      "▁آبمیوه": 4150,
      "قهرمان": 4151,
      "▁قهرمان": 4152,
      "معمولی": 4153,
      "▁معمولی": 4154,
      "آقا": 4155,
      "▁آقا": 4156,
      "چاپ": 4157,
      "▁چاپ": 4158,
      "کارش": 4159,
      "▁کارش": 4160,
      "حشرات": 4161,
      "▁حشرات": 4162,
      "حالت": 4163,
      "▁حالت": 4164,
      "تیز": 4165,
      "▁تیز": 4166,
      "نوشت": 4167,
      "▁نوشت": 4168,
      "خودت": 4169,
      "▁خودت": 4170,
      "تيم": 4171,
      "▁تيم": 4172,
      "اطرافش": 4173,
      "▁اطرافش": 4174,
      "نکردند": 4175,
      "▁نکردند": 4176,
      "ندارم": 4177,
      "▁ندارم": 4178,
      "فردا": 4179,
      "▁فردا": 4180,
      "پیشنهاد": 4181,
      "▁پیشنهاد": 4182,
      "میاد": 4183,
      "▁میاد": 4184,
      "شوخی": 4185,
      "▁شوخی": 4186,
      "اور": 4187,
      "▁اور": 4188,
      "انگلیسی": 4189,
      "▁انگلیسی": 4190,
      "ستانی": 4191,
      "▁ستانی": 4192,
      "پتو": 4193,
      "▁پتو": 4194,
      "تختش": 4195,
      "▁تختش": 4196,
      "فنجان": 4197,
      "▁فنجان": 4198,
      "پوشیده": 4199,
      "▁پوشیده": 4200,
      "صاف": 4201,
      "▁صاف": 4202,
      "نوازش": 4203,
      "▁نوازش": 4204,
      "آدم": 4205,
      "▁آدم": 4206,
      "تم": 4207,
      "▁تم": 4208,
      "تمس": 4209,
      "▁تمس": 4210,
      "شع": 4211,
      "▁شع": 4212,
      "چشمانش": 4213,
      "▁چشمانش": 4214,
      "دلش": 4215,
      "▁دلش": 4216,
      "پلیس": 4217,
      "▁پلیس": 4218,
      "بپوشد": 4219,
      "▁بپوشد": 4220,
      "بالو": 4221,
      "▁بالو": 4222,
      "فید": 4223,
      "▁فید": 4224,
      "پیراهن": 4225,
      "▁پیراهن": 4226,
      "موجود": 4227,
      "▁موجود": 4228,
      "محافظت": 4229,
      "▁محافظت": 4230,
      "طبل": 4231,
      "▁طبل": 4232,
      "ديد": 4233,
      "▁ديد": 4234,
      "محبوب": 4235,
      "▁محبوب": 4236,
      "on": 4237,
      "▁on": 4238,
      "ON": 4239,
      "▁ON": 4240,
      "On": 4241,
      "▁On": 4242,
      "حوله": 4243,
      "▁حوله": 4244,
      "قابل": 4245,
      "▁قابل": 4246,
      "پخش": 4247,
      "▁پخش": 4248,
      "کمر": 4249,
      "▁کمر": 4250,
      "برق": 4251,
      "▁برق": 4252,
      "بخوره": 4253,
      "▁بخوره": 4254,
      "عوض": 4255,
      "▁عوض": 4256,
      "نترس": 4257,
      "▁نترس": 4258,
      "توجه": 4259,
      "▁توجه": 4260,
      "بپوش": 4261,
      "▁بپوش": 4262,
      "غذایی": 4263,
      "▁غذایی": 4264,
      "خندند": 4265,
      "▁خندند": 4266,
      "ونی": 4267,
      "▁ونی": 4268,
      "گذاشته": 4269,
      "▁گذاشته": 4270,
      "صخره": 4271,
      "▁صخره": 4272,
      "تمساح": 4273,
      "▁تمساح": 4274,
      "شبیه": 4275,
      "▁شبیه": 4276,
      "راست": 4277,
      "▁راست": 4278,
      "كه": 4279,
      "▁كه": 4280,
      "حت": 4281,
      "▁حت": 4282,
      "ماست": 4283,
      "▁ماست": 4284,
      "مکع": 4285,
      "▁مکع": 4286,
      "موقع": 4287,
      "▁موقع": 4288,
      "اهمیت": 4289,
      "▁اهمیت": 4290,
      "گردند": 4291,
      "▁گردند": 4292,
      "باباش": 4293,
      "▁باباش": 4294,
      "روزها": 4295,
      "▁روزها": 4296,
      "تغی": 4297,
      "▁تغی": 4298,
      "تغییر": 4299,
      "▁تغییر": 4300,
      "اصلا": 4301,
      "▁اصلا": 4302,
      "آرامش": 4303,
      "▁آرامش": 4304,
      "تمرین": 4305,
      "▁تمرین": 4306,
      "بدهی": 4307,
      "▁بدهی": 4308,
      "خودخواه": 4309,
      "▁خودخواه": 4310,
      "ئه": 4311,
      "▁ئه": 4312,
      "تصور": 4313,
      "▁تصور": 4314,
      "هایم": 4315,
      "▁هایم": 4316,
      "خوشبختانه": 4317,
      "▁خوشبختانه": 4318,
      "اگه": 4319,
      "▁اگه": 4320,
      "بداند": 4321,
      "▁بداند": 4322,
      "افتادند": 4323,
      "▁افتادند": 4324,
      "یت": 4325,
      "▁یت": 4326,
      "لگ": 4327,
      "▁لگ": 4328,
      "تابلو": 4329,
      "▁تابلو": 4330,
      "بازي": 4331,
      "▁بازي": 4332,
      "سرخ": 4333,
      "▁سرخ": 4334,
      "شانس": 4335,
      "▁شانس": 4336,
      "کرز": 4337,
      "▁کرز": 4338,
      "جیم": 4339,
      "▁جیم": 4340,
      "ویل": 4341,
      "▁ویل": 4342,
      "برداشتند": 4343,
      "▁برداشتند": 4344,
      "بول": 4345,
      "▁بول": 4346,
      "دایره": 4347,
      "▁دایره": 4348,
      "ویسکرز": 4349,
      "▁ویسکرز": 4350,
      "انگیزی": 4351,
      "▁انگیزی": 4352,
      "کردیم": 4353,
      "▁کردیم": 4354,
      "تیره": 4355,
      "▁تیره": 4356,
      "تشویق": 4357,
      "▁تشویق": 4358,
      "نوا": 4359,
      "▁نوا": 4360,
      "ندی": 4361,
      "▁ندی": 4362,
      "لگد": 4363,
      "▁لگد": 4364,
      "بگوید": 4365,
      "▁بگوید": 4366,
      "همگی": 4367,
      "▁همگی": 4368,
      "بزرگتر": 4369,
      "▁بزرگتر": 4370,
      "بزنه": 4371,
      "▁بزنه": 4372,
      "حین": 4373,
      "▁حین": 4374,
      "فرش": 4375,
      "▁فرش": 4376,
      "at": 4377,
      "▁at": 4378,
      "AT": 4379,
      "▁AT": 4380,
      "At": 4381,
      "▁At": 4382,
      "آنچه": 4383,
      "▁آنچه": 4384,
      "چاق": 4385,
      "▁چاق": 4386,
      "صفحه": 4387,
      "▁صفحه": 4388,
      "سبزی": 4389,
      "▁سبزی": 4390,
      "مفید": 4391,
      "▁مفید": 4392,
      "قلب": 4393,
      "▁قلب": 4394,
      "دهیم": 4395,
      "▁دهیم": 4396,
      "ربات": 4397,
      "▁ربات": 4398,
      "ماشینش": 4399,
      "▁ماشینش": 4400,
      "لک": 4401,
      "▁لک": 4402,
      "هستیم": 4403,
      "▁هستیم": 4404,
      "جایزه": 4405,
      "▁جایزه": 4406,
      "شلوار": 4407,
      "▁شلوار": 4408,
      "عمل": 4409,
      "▁عمل": 4410,
      "نواخت": 4411,
      "▁نواخت": 4412,
      "بدو": 4413,
      "▁بدو": 4414,
      "فرم": 4415,
      "▁فرم": 4416,
      "امد": 4417,
      "▁امد": 4418,
      "اونجا": 4419,
      "▁اونجا": 4420,
      "چهره": 4421,
      "▁چهره": 4422,
      "بالون": 4423,
      "▁بالون": 4424,
      "بنی": 4425,
      "▁بنی": 4426,
      "دنبالش": 4427,
      "▁دنبالش": 4428,
      "نگی": 4429,
      "▁نگی": 4430,
      "ابتدا": 4431,
      "▁ابتدا": 4432,
      "گوسف": 4433,
      "▁گوسف": 4434,
      "نوبت": 4435,
      "▁نوبت": 4436,
      "بخوان": 4437,
      "▁بخوان": 4438,
      "شناخت": 4439,
      "▁شناخت": 4440,
      "دریافت": 4441,
      "▁دریافت": 4442,
      "نکند": 4443,
      "▁نکند": 4444,
      "پاز": 4445,
      "▁پاز": 4446,
      "پرس": 4447,
      "▁پرس": 4448,
      "بردن": 4449,
      "▁بردن": 4450,
      "بي": 4451,
      "▁بي": 4452,
      "بگیره": 4453,
      "▁بگیره": 4454,
      "انگار": 4455,
      "▁انگار": 4456,
      "باله": 4457,
      "▁باله": 4458,
      "ببند": 4459,
      "▁ببند": 4460,
      "پیدایش": 4461,
      "▁پیدایش": 4462,
      "ارزش": 4463,
      "▁ارزش": 4464,
      "خیره": 4465,
      "▁خیره": 4466,
      "بخرد": 4467,
      "▁بخرد": 4468,
      "ازی": 4469,
      "▁ازی": 4470,
      "اولی": 4471,
      "▁اولی": 4472,
      "سرگرمی": 4473,
      "▁سرگرمی": 4474,
      "نردبان": 4475,
      "▁نردبان": 4476,
      "مکعب": 4477,
      "▁مکعب": 4478,
      "گوسفند": 4479,
      "▁گوسفند": 4480,
      "فهمیدند": 4481,
      "▁فهمیدند": 4482,
      "کلا": 4483,
      "▁کلا": 4484,
      "برگردان": 4485,
      "▁برگردان": 4486,
      "احتیاط": 4487,
      "▁احتیاط": 4488,
      "داین": 4489,
      "▁داین": 4490,
      "روف": 4491,
      "▁روف": 4492,
      "دستی": 4493,
      "▁دستی": 4494,
      "بهت": 4495,
      "▁بهت": 4496,
      "ادت": 4497,
      "▁ادت": 4498,
      "برایت": 4499,
      "▁برایت": 4500,
      "re": 4501,
      "▁re": 4502,
      "RE": 4503,
      "▁RE": 4504,
      "Re": 4505,
      "▁Re": 4506,
      "چای": 4507,
      "▁چای": 4508,
      "جیبش": 4509,
      "▁جیبش": 4510,
      "انس": 4511,
      "▁انس": 4512,
      "متأسفم": 4513,
      "▁متأسفم": 4514,
      "فیلم": 4515,
      "▁فیلم": 4516,
      "هوش": 4517,
      "▁هوش": 4518,
      "ترام": 4519,
      "▁ترام": 4520,
      "خواهید": 4521,
      "▁خواهید": 4522,
      "خورده": 4523,
      "▁خورده": 4524,
      "اسپا": 4525,
      "▁اسپا": 4526,
      "امنیت": 4527,
      "▁امنیت": 4528,
      "پازل": 4529,
      "▁پازل": 4530,
      "حمل": 4531,
      "▁حمل": 4532,
      "عش": 4533,
      "▁عش": 4534,
      "حک": 4535,
      "▁حک": 4536,
      "چنین": 4537,
      "▁چنین": 4538,
      "الا": 4539,
      "▁الا": 4540,
      "اين": 4541,
      "▁اين": 4542,
      "گذشته": 4543,
      "▁گذشته": 4544,
      "یادداشت": 4545,
      "▁یادداشت": 4546,
      "پله": 4547,
      "▁پله": 4548,
      "جوراب": 4549,
      "▁جوراب": 4550,
      "شیند": 4551,
      "▁شیند": 4552,
      "عطسه": 4553,
      "▁عطسه": 4554,
      "فهم": 4555,
      "▁فهم": 4556,
      "فرود": 4557,
      "▁فرود": 4558,
      "والدینش": 4559,
      "▁والدینش": 4560,
      "گود": 4561,
      "▁گود": 4562,
      "گذرو": 4563,
      "▁گذرو": 4564,
      "اشکال": 4565,
      "▁اشکال": 4566,
      "ضعی": 4567,
      "▁ضعی": 4568,
      "دفترچه": 4569,
      "▁دفترچه": 4570,
      "آسی": 4571,
      "▁آسی": 4572,
      "خص": 4573,
      "▁خص": 4574,
      "بای": 4575,
      "▁بای": 4576,
      "ادب": 4577,
      "▁ادب": 4578,
      "چهار": 4579,
      "▁چهار": 4580,
      "حصر": 4581,
      "▁حصر": 4582,
      "بخوابد": 4583,
      "▁بخوابد": 4584,
      "یع": 4585,
      "▁یع": 4586,
      "منحصر": 4587,
      "▁منحصر": 4588,
      "آموختند": 4589,
      "▁آموختند": 4590,
      "بنشیند": 4591,
      "▁بنشیند": 4592,
      "برنامه": 4593,
      "▁برنامه": 4594,
      "ببرند": 4595,
      "▁ببرند": 4596,
      "چرخاند": 4597,
      "▁چرخاند": 4598,
      "نیک": 4599,
      "▁نیک": 4600,
      "شکلات": 4601,
      "▁شکلات": 4602,
      "درمی": 4603,
      "▁درمی": 4604,
      "طع": 4605,
      "▁طع": 4606,
      "سپاسگزار": 4607,
      "▁سپاسگزار": 4608,
      "اسمش": 4609,
      "▁اسمش": 4610,
      "سراسر": 4611,
      "▁سراسر": 4612,
      "ابون": 4613,
      "▁ابون": 4614,
      "خوابید": 4615,
      "▁خوابید": 4616,
      "بکند": 4617,
      "▁بکند": 4618,
      "خام": 4619,
      "▁خام": 4620,
      "بخوری": 4621,
      "▁بخوری": 4622,
      "قطعات": 4623,
      "▁قطعات": 4624,
      "غال": 4625,
      "▁غال": 4626,
      "پي": 4627,
      "▁پي": 4628,
      "گودال": 4629,
      "▁گودال": 4630,
      "مص": 4631,
      "▁مص": 4632,
      "توش": 4633,
      "▁توش": 4634,
      "باها": 4635,
      "▁باها": 4636,
      "زو": 4637,
      "▁زو": 4638,
      "کلاس": 4639,
      "▁کلاس": 4640,
      "تنه": 4641,
      "▁تنه": 4642,
      "احترام": 4643,
      "▁احترام": 4644,
      "بررسی": 4645,
      "▁بررسی": 4646,
      "ویش": 4647,
      "▁ویش": 4648,
      "قدرتمند": 4649,
      "▁قدرتمند": 4650,
      "خاموش": 4651,
      "▁خاموش": 4652,
      "هرد": 4653,
      "▁هرد": 4654,
      "دایناس": 4655,
      "▁دایناس": 4656,
      "دیگ": 4657,
      "▁دیگ": 4658,
      "بیفت": 4659,
      "▁بیفت": 4660,
      "خمیر": 4661,
      "▁خمیر": 4662,
      "مفه": 4663,
      "▁مفه": 4664,
      "خجالت": 4665,
      "▁خجالت": 4666,
      "چید": 4667,
      "▁چید": 4668,
      "نکرده": 4669,
      "▁نکرده": 4670,
      "مفهوم": 4671,
      "▁مفهوم": 4672,
      "بروم": 4673,
      "▁بروم": 4674,
      "حسادت": 4675,
      "▁حسادت": 4676,
      "هیچوقت": 4677,
      "▁هیچوقت": 4678,
      "مجروح": 4679,
      "▁مجروح": 4680,
      "فلف": 4681,
      "▁فلف": 4682,
      "کوسه": 4683,
      "▁کوسه": 4684,
      "کجاست": 4685,
      "▁کجاست": 4686,
      "پسرکی": 4687,
      "▁پسرکی": 4688,
      "فشرد": 4689,
      "▁فشرد": 4690,
      "زیرا": 4691,
      "▁زیرا": 4692,
      "بسا": 4693,
      "▁بسا": 4694,
      "میتونم": 4695,
      "▁میتونم": 4696,
      "فلا": 4697,
      "▁فلا": 4698,
      "پرچ": 4699,
      "▁پرچ": 4700,
      "تموم": 4701,
      "▁تموم": 4702,
      "تنگ": 4703,
      "▁تنگ": 4704,
      "کوتاه": 4705,
      "▁کوتاه": 4706,
      "بنوی": 4707,
      "▁بنوی": 4708,
      "جدیدشان": 4709,
      "▁جدیدشان": 4710,
      "سلی": 4711,
      "▁سلی": 4712,
      "گوشه": 4713,
      "▁گوشه": 4714,
      "آور": 4715,
      "▁آور": 4716,
      "ریل": 4717,
      "▁ریل": 4718,
      "قیچی": 4719,
      "▁قیچی": 4720,
      "صبور": 4721,
      "▁صبور": 4722,
      "جم": 4723,
      "▁جم": 4724,
      "مغز": 4725,
      "▁مغز": 4726,
      "مادربزرگش": 4727,
      "▁مادربزرگش": 4728,
      "چاله": 4729,
      "▁چاله": 4730,
      "کوه": 4731,
      "▁کوه": 4732,
      "آی": 4733,
      "▁آی": 4734,
      "گذروندن": 4735,
      "▁گذروندن": 4736,
      "موتور": 4737,
      "▁موتور": 4738,
      "سوزی": 4739,
      "▁سوزی": 4740,
      "عادی": 4741,
      "▁عادی": 4742,
      "برند": 4743,
      "▁برند": 4744,
      "چرت": 4745,
      "▁چرت": 4746,
      "گیاهان": 4747,
      "▁گیاهان": 4748,
      "دهی": 4749,
      "▁دهی": 4750,
      "شدم": 4751,
      "▁شدم": 4752,
      "بذار": 4753,
      "▁بذار": 4754,
      "ترساند": 4755,
      "▁ترساند": 4756,
      "قرض": 4757,
      "▁قرض": 4758,
      "دایناسور": 4759,
      "▁دایناسور": 4760,
      "بلندتر": 4761,
      "▁بلندتر": 4762,
      "موض": 4763,
      "▁موض": 4764,
      "پوزش": 4765,
      "▁پوزش": 4766,
      "بزار": 4767,
      "▁بزار": 4768,
      "موهایش": 4769,
      "▁موهایش": 4770,
      "برس": 4771,
      "▁برس": 4772,
      "ساختمان": 4773,
      "▁ساختمان": 4774,
      "آهست": 4775,
      "▁آهست": 4776,
      "میخواست": 4777,
      "▁میخواست": 4778,
      "پیام": 4779,
      "▁پیام": 4780,
      "بدهم": 4781,
      "▁بدهم": 4782,
      "قرمزش": 4783,
      "▁قرمزش": 4784,
      "امان": 4785,
      "▁امان": 4786,
      "متع": 4787,
      "▁متع": 4788,
      "موضوع": 4789,
      "▁موضوع": 4790,
      "پرش": 4791,
      "▁پرش": 4792,
      "آهن": 4793,
      "▁آهن": 4794,
      "نهنگ": 4795,
      "▁نهنگ": 4796,
      "ته": 4797,
      "▁ته": 4798,
      "اونو": 4799,
      "▁اونو": 4800,
      "گذروندند": 4801,
      "▁گذروندند": 4802,
      "نتونست": 4803,
      "▁نتونست": 4804,
      "is": 4805,
      "▁is": 4806,
      "IS": 4807,
      "▁IS": 4808,
      "Is": 4809,
      "▁Is": 4810,
      "تست": 4811,
      "▁تست": 4812,
      "خلاق": 4813,
      "▁خلاق": 4814,
      "عروسکش": 4815,
      "▁عروسکش": 4816,
      "ضعیف": 4817,
      "▁ضعیف": 4818,
      "میله": 4819,
      "▁میله": 4820,
      "نیامد": 4821,
      "▁نیامد": 4822,
      "زئ": 4823,
      "▁زئ": 4824,
      "حتما": 4825,
      "▁حتما": 4826,
      "دلی": 4827,
      "▁دلی": 4828,
      "چادر": 4829,
      "▁چادر": 4830,
      "قرمزی": 4831,
      "▁قرمزی": 4832,
      "کنارش": 4833,
      "▁کنارش": 4834,
      "ببینه": 4835,
      "▁ببینه": 4836,
      "بدهند": 4837,
      "▁بدهند": 4838,
      "گردان": 4839,
      "▁گردان": 4840,
      "پنجه": 4841,
      "▁پنجه": 4842,
      "جدا": 4843,
      "▁جدا": 4844,
      "آهسته": 4845,
      "▁آهسته": 4846,
      "کمربند": 4847,
      "▁کمربند": 4848,
      "عشق": 4849,
      "▁عشق": 4850,
      "گناه": 4851,
      "▁گناه": 4852,
      "بچ": 4853,
      "▁بچ": 4854,
      "آدام": 4855,
      "▁آدام": 4856,
      "دوستای": 4857,
      "▁دوستای": 4858,
      "لبخندی": 4859,
      "▁لبخندی": 4860,
      "شنود": 4861,
      "▁شنود": 4862,
      "گوشت": 4863,
      "▁گوشت": 4864,
      "شوید": 4865,
      "▁شوید": 4866,
      "ریخته": 4867,
      "▁ریخته": 4868,
      "قیمت": 4869,
      "▁قیمت": 4870,
      "اع": 4871,
      "▁اع": 4872,
      "بنام": 4873,
      "▁بنام": 4874,
      "اسلح": 4875,
      "▁اسلح": 4876,
      "فرست": 4877,
      "▁فرست": 4878,
      "غرش": 4879,
      "▁غرش": 4880,
      "اسلحه": 4881,
      "▁اسلحه": 4882,
      "زباله": 4883,
      "▁زباله": 4884,
      "بلی": 4885,
      "▁بلی": 4886,
      "ادل": 4887,
      "▁ادل": 4888,
      "بدهیم": 4889,
      "▁بدهیم": 4890,
      "نگاهی": 4891,
      "▁نگاهی": 4892,
      "آینه": 4893,
      "▁آینه": 4894,
      "گونه": 4895,
      "▁گونه": 4896,
      "شجاعت": 4897,
      "▁شجاعت": 4898,
      "رای": 4899,
      "▁رای": 4900,
      "مری": 4901,
      "▁مری": 4902,
      "پناه": 4903,
      "▁پناه": 4904,
      "گروه": 4905,
      "▁گروه": 4906,
      "سور": 4907,
      "▁سور": 4908,
      "صابون": 4909,
      "▁صابون": 4910,
      "هیول": 4911,
      "▁هیول": 4912,
      "دنیای": 4913,
      "▁دنیای": 4914,
      "پذیر": 4915,
      "▁پذیر": 4916,
      "دانند": 4917,
      "▁دانند": 4918,
      "دخت": 4919,
      "▁دخت": 4920,
      "سمه": 4921,
      "▁سمه": 4922,
      "مانده": 4923,
      "▁مانده": 4924,
      "رویا": 4925,
      "▁رویا": 4926,
      "قشنگه": 4927,
      "▁قشنگه": 4928,
      "همسایه": 4929,
      "▁همسایه": 4930,
      "تاج": 4931,
      "▁تاج": 4932,
      "قشنگی": 4933,
      "▁قشنگی": 4934,
      "نوشید": 4935,
      "▁نوشید": 4936,
      "برچسب": 4937,
      "▁برچسب": 4938,
      "تنبل": 4939,
      "▁تنبل": 4940,
      "درخشید": 4941,
      "▁درخشید": 4942,
      "باریدن": 4943,
      "▁باریدن": 4944,
      "انگور": 4945,
      "▁انگور": 4946,
      "تزئ": 4947,
      "▁تزئ": 4948,
      "هو": 4949,
      "▁هو": 4950,
      "دروازه": 4951,
      "▁دروازه": 4952,
      "to": 4953,
      "▁to": 4954,
      "TO": 4955,
      "▁TO": 4956,
      "To": 4957,
      "▁To": 4958,
      "رکس": 4959,
      "▁رکس": 4960,
      "برآورده": 4961,
      "▁برآورده": 4962,
      "فروشنده": 4963,
      "▁فروشنده": 4964,
      "جنی": 4965,
      "▁جنی": 4966,
      "خوابش": 4967,
      "▁خوابش": 4968,
      "مجسمه": 4969,
      "▁مجسمه": 4970,
      "فلفل": 4971,
      "▁فلفل": 4972,
      "مهره": 4973,
      "▁مهره": 4974,
      "دلق": 4975,
      "▁دلق": 4976,
      "تزئین": 4977,
      "▁تزئین": 4978,
      "پولی": 4979,
      "▁پولی": 4980,
      "پرچم": 4981,
      "▁پرچم": 4982,
      "جادوگر": 4983,
      "▁جادوگر": 4984,
      "سهیم": 4985,
      "▁سهیم": 4986,
      "شوق": 4987,
      "▁شوق": 4988,
      "هش": 4989,
      "▁هش": 4990,
      "شل": 4991,
      "▁شل": 4992,
      "ردست": 4993,
      "▁ردست": 4994,
      "بوسید": 4995,
      "▁بوسید": 4996,
      "کلمه": 4997,
      "▁کلمه": 4998,
      "جواهر": 4999,
      "▁جواهر": 5000,
      "نت": 5001,
      "▁نت": 5002,
      "ظیم": 5003,
      "▁ظیم": 5004,
      "ینند": 5005,
      "▁ینند": 5006,
      "امیدوارم": 5007,
      "▁امیدوارم": 5008,
      "علامت": 5009,
      "▁علامت": 5010,
      "لیه": 5011,
      "▁لیه": 5012,
      "پرسیدند": 5013,
      "▁پرسیدند": 5014,
      "آوردند": 5015,
      "▁آوردند": 5016,
      "آدامس": 5017,
      "▁آدامس": 5018,
      "معذرت": 5019,
      "▁معذرت": 5020,
      "پرتق": 5021,
      "▁پرتق": 5022,
      "بلوط": 5023,
      "▁بلوط": 5024,
      "پتوی": 5025,
      "▁پتوی": 5026,
      "دلقک": 5027,
      "▁دلقک": 5028,
      "هرچه": 5029,
      "▁هرچه": 5030,
      "دي": 5031,
      "▁دي": 5032,
      "مهمی": 5033,
      "▁مهمی": 5034,
      "گذاری": 5035,
      "▁گذاری": 5036,
      "دوردست": 5037,
      "▁دوردست": 5038,
      "اندی": 5039,
      "▁اندی": 5040,
      "چکمه": 5041,
      "▁چکمه": 5042,
      "تسلی": 5043,
      "▁تسلی": 5044,
      "دونم": 5045,
      "▁دونم": 5046,
      "مقداری": 5047,
      "▁مقداری": 5048,
      "مگ": 5049,
      "▁مگ": 5050,
      "شدی": 5051,
      "▁شدی": 5052,
      "توپی": 5053,
      "▁توپی": 5054,
      "گوزن": 5055,
      "▁گوزن": 5056,
      "عمو": 5057,
      "▁عمو": 5058,
      "دفتر": 5059,
      "▁دفتر": 5060,
      "اگرچه": 5061,
      "▁اگرچه": 5062,
      "بزن": 5063,
      "▁بزن": 5064,
      "فلافی": 5065,
      "▁فلافی": 5066,
      "آروم": 5067,
      "▁آروم": 5068,
      "آویزان": 5069,
      "▁آویزان": 5070,
      "روستا": 5071,
      "▁روستا": 5072,
      "گذرانند": 5073,
      "▁گذرانند": 5074,
      "وفا": 5075,
      "▁وفا": 5076,
      "کاغذی": 5077,
      "▁کاغذی": 5078,
      "هواپیمای": 5079,
      "▁هواپیمای": 5080,
      "شمشیر": 5081,
      "▁شمشیر": 5082,
      "ورزش": 5083,
      "▁ورزش": 5084,
      "هشدار": 5085,
      "▁هشدار": 5086,
      "شاهدخت": 5087,
      "▁شاهدخت": 5088,
      "برقصد": 5089,
      "▁برقصد": 5090,
      "tr": 5091,
      "▁tr": 5092,
      "TR": 5093,
      "▁TR": 5094,
      "Tr": 5095,
      "▁Tr": 5096,
      "خانگی": 5097,
      "▁خانگی": 5098,
      "حدس": 5099,
      "▁حدس": 5100,
      "برایشان": 5101,
      "▁برایشان": 5102,
      "بدوند": 5103,
      "▁بدوند": 5104,
      "جذ": 5105,
      "▁جذ": 5106,
      "تسلیم": 5107,
      "▁تسلیم": 5108,
      "ضربه": 5109,
      "▁ضربه": 5110,
      "وسط": 5111,
      "▁وسط": 5112,
      "غاز": 5113,
      "▁غاز": 5114,
      "بتوانیم": 5115,
      "▁بتوانیم": 5116,
      "بنش": 5117,
      "▁بنش": 5118,
      "گلی": 5119,
      "▁گلی": 5120,
      "طعم": 5121,
      "▁طعم": 5122,
      "بارها": 5123,
      "▁بارها": 5124,
      "کره": 5125,
      "▁کره": 5126,
      "ایستاده": 5127,
      "▁ایستاده": 5128,
      "پیتزا": 5129,
      "▁پیتزا": 5130,
      "مناسب": 5131,
      "▁مناسب": 5132,
      "مربا": 5133,
      "▁مربا": 5134,
      "پزشک": 5135,
      "▁پزشک": 5136,
      "زي": 5137,
      "▁زي": 5138,
      "شادمان": 5139,
      "▁شادمان": 5140,
      "برگزار": 5141,
      "▁برگزار": 5142,
      "کان": 5143,
      "▁کان": 5144,
      "دسته": 5145,
      "▁دسته": 5146,
      "بالشت": 5147,
      "▁بالشت": 5148,
      "مدا": 5149,
      "▁مدا": 5150,
      "جیپ": 5151,
      "▁جیپ": 5152,
      "تاریکی": 5153,
      "▁تاریکی": 5154,
      "اجاق": 5155,
      "▁اجاق": 5156,
      "اک": 5157,
      "▁اک": 5158,
      "رژه": 5159,
      "▁رژه": 5160,
      "طل": 5161,
      "▁طل": 5162,
      "موع": 5163,
      "▁موع": 5164,
      "شنبه": 5165,
      "▁شنبه": 5166,
      "بمانند": 5167,
      "▁بمانند": 5168,
      "توقف": 5169,
      "▁توقف": 5170,
      "پهن": 5171,
      "▁پهن": 5172,
      "پیداش": 5173,
      "▁پیداش": 5174,
      "بداخ": 5175,
      "▁بداخ": 5176,
      "پاسخ": 5177,
      "▁پاسخ": 5178,
      "کلم": 5179,
      "▁کلم": 5180,
      "بسازیم": 5181,
      "▁بسازیم": 5182,
      "بودی": 5183,
      "▁بودی": 5184,
      "ودی": 5185,
      "▁ودی": 5186,
      "کلبه": 5187,
      "▁کلبه": 5188,
      "lat": 5189,
      "▁lat": 5190,
      "LAT": 5191,
      "▁LAT": 5192,
      "Lat": 5193,
      "▁Lat": 5194,
      "سرباز": 5195,
      "▁سرباز": 5196,
      "درسی": 5197,
      "▁درسی": 5198,
      "مریم": 5199,
      "▁مریم": 5200,
      "جوجه": 5201,
      "▁جوجه": 5202,
      "کارو": 5203,
      "▁کارو": 5204,
      "برادرش": 5205,
      "▁برادرش": 5206,
      "حم": 5207,
      "▁حم": 5208,
      "کچ": 5209,
      "▁کچ": 5210,
      "موعظه": 5211,
      "▁موعظه": 5212,
      "ظریف": 5213,
      "▁ظریف": 5214,
      "گیل": 5215,
      "▁گیل": 5216,
      "شخص": 5217,
      "▁شخص": 5218,
      "ترتی": 5219,
      "▁ترتی": 5220,
      "گذارد": 5221,
      "▁گذارد": 5222,
      "عمیقی": 5223,
      "▁عمیقی": 5224,
      "شمع": 5225,
      "▁شمع": 5226,
      "کود": 5227,
      "▁کود": 5228,
      "خندد": 5229,
      "▁خندد": 5230,
      "توست": 5231,
      "▁توست": 5232,
      "کشند": 5233,
      "▁کشند": 5234,
      "روزهای": 5235,
      "▁روزهای": 5236,
      "سوخت": 5237,
      "▁سوخت": 5238,
      "ابزار": 5239,
      "▁ابزار": 5240,
      "پت": 5241,
      "▁پت": 5242,
      "وو": 5243,
      "▁وو": 5244,
      "بخاطر": 5245,
      "▁بخاطر": 5246,
      "ترتیب": 5247,
      "▁ترتیب": 5248,
      "باهی": 5249,
      "▁باهی": 5250,
      "ازدو": 5251,
      "▁ازدو": 5252,
      "برید": 5253,
      "▁برید": 5254,
      "تعادل": 5255,
      "▁تعادل": 5256,
      "ارائه": 5257,
      "▁ارائه": 5258,
      "tran": 5259,
      "▁tran": 5260,
      "TRAN": 5261,
      "▁TRAN": 5262,
      "Tran": 5263,
      "▁Tran": 5264,
      "ازدواج": 5265,
      "▁ازدواج": 5266,
      "خبر": 5267,
      "▁خبر": 5268,
      "پیاز": 5269,
      "▁پیاز": 5270,
      "چطوری": 5271,
      "▁چطوری": 5272,
      "trans": 5273,
      "▁trans": 5274,
      "TRANS": 5275,
      "▁TRANS": 5276,
      "Trans": 5277,
      "▁Trans": 5278,
      "سوال": 5279,
      "▁سوال": 5280,
      "translat": 5281,
      "▁translat": 5282,
      "TRANSLAT": 5283,
      "▁TRANSLAT": 5284,
      "Translat": 5285,
      "▁Translat": 5286,
      "کهنه": 5287,
      "▁کهنه": 5288,
      "بگذاریم": 5289,
      "▁بگذاریم": 5290,
      "پدربزرگ": 5291,
      "▁پدربزرگ": 5292,
      "دعا": 5293,
      "▁دعا": 5294,
      "جستجوی": 5295,
      "▁جستجوی": 5296,
      "تحسین": 5297,
      "▁تحسین": 5298,
      "مرده": 5299,
      "▁مرده": 5300,
      "ناد": 5301,
      "▁ناد": 5302,
      "مواد": 5303,
      "▁مواد": 5304,
      "ینک": 5305,
      "▁ینک": 5306,
      "خورند": 5307,
      "▁خورند": 5308,
      "بازار": 5309,
      "▁بازار": 5310,
      "گرما": 5311,
      "▁گرما": 5312,
      "خودم": 5313,
      "▁خودم": 5314,
      "آسمون": 5315,
      "▁آسمون": 5316,
      "بعدش": 5317,
      "▁بعدش": 5318,
      "دسترسی": 5319,
      "▁دسترسی": 5320,
      "پاشید": 5321,
      "▁پاشید": 5322,
      "سختی": 5323,
      "▁سختی": 5324,
      "جدی": 5325,
      "▁جدی": 5326,
      "نخورد": 5327,
      "▁نخورد": 5328,
      "ممنونم": 5329,
      "▁ممنونم": 5330,
      "سالاد": 5331,
      "▁سالاد": 5332,
      "لرزیدن": 5333,
      "▁لرزیدن": 5334,
      "ریس": 5335,
      "▁ریس": 5336,
      "مندی": 5337,
      "▁مندی": 5338,
      "جت": 5339,
      "▁جت": 5340,
      "بزنم": 5341,
      "▁بزنم": 5342,
      "بخور": 5343,
      "▁بخور": 5344,
      "جات": 5345,
      "▁جات": 5346,
      "فک": 5347,
      "▁فک": 5348,
      "غافلگیر": 5349,
      "▁غافلگیر": 5350,
      "گوجه": 5351,
      "▁گوجه": 5352,
      "کادو": 5353,
      "▁کادو": 5354,
      "متعجب": 5355,
      "▁متعجب": 5356,
      "جنگلی": 5357,
      "▁جنگلی": 5358,
      "خودکار": 5359,
      "▁خودکار": 5360,
      "ion": 5361,
      "▁ion": 5362,
      "ION": 5363,
      "▁ION": 5364,
      "Ion": 5365,
      "▁Ion": 5366,
      "نرمی": 5367,
      "▁نرمی": 5368,
      "قلا": 5369,
      "▁قلا": 5370,
      "گند": 5371,
      "▁گند": 5372,
      "مهمونی": 5373,
      "▁مهمونی": 5374,
      "وصل": 5375,
      "▁وصل": 5376,
      "بابایش": 5377,
      "▁بابایش": 5378,
      "خاصی": 5379,
      "▁خاصی": 5380,
      "پین": 5381,
      "▁پین": 5382,
      "بخرند": 5383,
      "▁بخرند": 5384,
      "کتی": 5385,
      "▁کتی": 5386,
      "انعط": 5387,
      "▁انعط": 5388,
      "بخشی": 5389,
      "▁بخشی": 5390,
      "انعطاف": 5391,
      "▁انعطاف": 5392,
      "کلاهش": 5393,
      "▁کلاهش": 5394,
      "کیفش": 5395,
      "▁کیفش": 5396,
      "داخلش": 5397,
      "▁داخلش": 5398,
      "باشگاه": 5399,
      "▁باشگاه": 5400,
      "شناور": 5401,
      "▁شناور": 5402,
      "کشیده": 5403,
      "▁کشیده": 5404,
      "تماشای": 5405,
      "▁تماشای": 5406,
      "گردنبند": 5407,
      "▁گردنبند": 5408,
      "دستبند": 5409,
      "▁دستبند": 5410,
      "شویی": 5411,
      "▁شویی": 5412,
      "پرتقال": 5413,
      "▁پرتقال": 5414,
      "گفتن": 5415,
      "▁گفتن": 5416,
      "دوستا": 5417,
      "▁دوستا": 5418,
      "دوستشان": 5419,
      "▁دوستشان": 5420,
      "ینا": 5421,
      "▁ینا": 5422,
      "in": 5423,
      "▁in": 5424,
      "IN": 5425,
      "▁IN": 5426,
      "In": 5427,
      "▁In": 5428,
      "وانمود": 5429,
      "▁وانمود": 5430,
      "نیستم": 5431,
      "▁نیستم": 5432,
      "دقیقا": 5433,
      "▁دقیقا": 5434,
      "گذارند": 5435,
      "▁گذارند": 5436,
      "هیولای": 5437,
      "▁هیولای": 5438,
      "خواهرش": 5439,
      "▁خواهرش": 5440,
      "براش": 5441,
      "▁براش": 5442,
      "بتوانند": 5443,
      "▁بتوانند": 5444,
      "ظار": 5445,
      "▁ظار": 5446,
      "برخی": 5447,
      "▁برخی": 5448,
      "برده": 5449,
      "▁برده": 5450,
      "ئی": 5451,
      "▁ئی": 5452,
      "یکبار": 5453,
      "▁یکبار": 5454,
      "ماهر": 5455,
      "▁ماهر": 5456,
      "ریا": 5457,
      "▁ریا": 5458,
      "مگس": 5459,
      "▁مگس": 5460,
      "وید": 5461,
      "▁وید": 5462,
      "فلو": 5463,
      "▁فلو": 5464,
      "روصدا": 5465,
      "▁روصدا": 5466,
      "روسری": 5467,
      "▁روسری": 5468,
      "پزی": 5469,
      "▁پزی": 5470,
      "سرشان": 5471,
      "▁سرشان": 5472,
      "بدم": 5473,
      "▁بدم": 5474,
      "جلی": 5475,
      "▁جلی": 5476,
      "هاي": 5477,
      "▁هاي": 5478,
      "نادر": 5479,
      "▁نادر": 5480,
      "تکرار": 5481,
      "▁تکرار": 5482,
      "گلدان": 5483,
      "▁گلدان": 5484,
      "آرزوی": 5485,
      "▁آرزوی": 5486,
      "عمه": 5487,
      "▁عمه": 5488,
      "مدام": 5489,
      "▁مدام": 5490,
      "فوت": 5491,
      "▁فوت": 5492,
      "یکل": 5493,
      "▁یکل": 5494,
      "پشم": 5495,
      "▁پشم": 5496,
      "مسا": 5497,
      "▁مسا": 5498,
      "کرا": 5499,
      "▁کرا": 5500,
      "کاب": 5501,
      "▁کاب": 5502,
      "پشیمانی": 5503,
      "▁پشیمانی": 5504,
      "اذ": 5505,
      "▁اذ": 5506,
      "صله": 5507,
      "▁صله": 5508,
      "گره": 5509,
      "▁گره": 5510,
      "فاصله": 5511,
      "▁فاصله": 5512,
      "بفهم": 5513,
      "▁بفهم": 5514,
      "میتونی": 5515,
      "▁میتونی": 5516,
      "ناکی": 5517,
      "▁ناکی": 5518,
      "دلف": 5519,
      "▁دلف": 5520,
      "درک": 5521,
      "▁درک": 5522,
      "سرزمین": 5523,
      "▁سرزمین": 5524,
      "translation": 5525,
      "▁translation": 5526,
      "TRANSLATION": 5527,
      "▁TRANSLATION": 5528,
      "Translation": 5529,
      "▁Translation": 5530,
      "یادش": 5531,
      "▁یادش": 5532,
      "as": 5533,
      "▁as": 5534,
      "AS": 5535,
      "▁AS": 5536,
      "As": 5537,
      "▁As": 5538,
      "سراغ": 5539,
      "▁سراغ": 5540,
      "سوزن": 5541,
      "▁سوزن": 5542,
      "بوقل": 5543,
      "▁بوقل": 5544,
      "گیره": 5545,
      "▁گیره": 5546,
      "دقیقه": 5547,
      "▁دقیقه": 5548,
      "مؤ": 5549,
      "▁مؤ": 5550,
      "مکانی": 5551,
      "▁مکانی": 5552,
      "نزدیکی": 5553,
      "▁نزدیکی": 5554,
      "تشنه": 5555,
      "▁تشنه": 5556,
      "نگو": 5557,
      "▁نگو": 5558,
      "سبزیجات": 5559,
      "▁سبزیجات": 5560,
      "هردو": 5561,
      "▁هردو": 5562,
      "کسل": 5563,
      "▁کسل": 5564,
      "ببریم": 5565,
      "▁ببریم": 5566,
      "عالیه": 5567,
      "▁عالیه": 5568,
      "سقف": 5569,
      "▁سقف": 5570,
      "امیلی": 5571,
      "▁امیلی": 5572,
      "دلفین": 5573,
      "▁دلفین": 5574,
      "میخ": 5575,
      "▁میخ": 5576,
      "بالاخره": 5577,
      "▁بالاخره": 5578,
      "زرا": 5579,
      "▁زرا": 5580,
      "تابه": 5581,
      "▁تابه": 5582,
      "انتظار": 5583,
      "▁انتظار": 5584,
      "نشده": 5585,
      "▁نشده": 5586,
      "si": 5587,
      "▁si": 5588,
      "SI": 5589,
      "▁SI": 5590,
      "Si": 5591,
      "▁Si": 5592,
      "اوست": 5593,
      "▁اوست": 5594,
      "مسخره": 5595,
      "▁مسخره": 5596,
      "کیکی": 5597,
      "▁کیکی": 5598,
      "جزی": 5599,
      "▁جزی": 5600,
      "خل": 5601,
      "▁خل": 5602,
      "اسکو": 5603,
      "▁اسکو": 5604,
      "ابری": 5605,
      "▁ابری": 5606,
      "چیند": 5607,
      "▁چیند": 5608,
      "صوص": 5609,
      "▁صوص": 5610,
      "قطعه": 5611,
      "▁قطعه": 5612,
      "بالن": 5613,
      "▁بالن": 5614,
      "مربع": 5615,
      "▁مربع": 5616,
      "جزیره": 5617,
      "▁جزیره": 5618,
      "صاحبش": 5619,
      "▁صاحبش": 5620,
      "خاطرا": 5621,
      "▁خاطرا": 5622,
      "منظره": 5623,
      "▁منظره": 5624,
      "مخصوص": 5625,
      "▁مخصوص": 5626,
      "جویبار": 5627,
      "▁جویبار": 5628,
      "عدد": 5629,
      "▁عدد": 5630,
      "مارمو": 5631,
      "▁مارمو": 5632,
      "بداخلاق": 5633,
      "▁بداخلاق": 5634,
      "انبار": 5635,
      "▁انبار": 5636,
      "مثلث": 5637,
      "▁مثلث": 5638,
      "کلاغ": 5639,
      "▁کلاغ": 5640,
      "پيدا": 5641,
      "▁پيدا": 5642,
      "بیندازد": 5643,
      "▁بیندازد": 5644,
      "here": 5645,
      "▁here": 5646,
      "HERE": 5647,
      "▁HERE": 5648,
      "Here": 5649,
      "▁Here": 5650,
      "وسی": 5651,
      "▁وسی": 5652,
      "کارشان": 5653,
      "▁کارشان": 5654,
      "جالبه": 5655,
      "▁جالبه": 5656,
      "آشپزی": 5657,
      "▁آشپزی": 5658,
      "شکننده": 5659,
      "▁شکننده": 5660,
      "بوقلمون": 5661,
      "▁بوقلمون": 5662,
      "راند": 5663,
      "▁راند": 5664,
      "اینه": 5665,
      "▁اینه": 5666,
      "غلتید": 5667,
      "▁غلتید": 5668,
      "چکش": 5669,
      "▁چکش": 5670,
      "گا": 5671,
      "▁گا": 5672,
      "اخم": 5673,
      "▁اخم": 5674,
      "تیر": 5675,
      "▁تیر": 5676,
      "پاهایش": 5677,
      "▁پاهایش": 5678,
      "صبحانه": 5679,
      "▁صبحانه": 5680,
      "آزم": 5681,
      "▁آزم": 5682,
      "بشنود": 5683,
      "▁بشنود": 5684,
      "مؤد": 5685,
      "▁مؤد": 5686,
      "بخریم": 5687,
      "▁بخریم": 5688,
      "روبان": 5689,
      "▁روبان": 5690,
      "ببینی": 5691,
      "▁ببینی": 5692,
      "سس": 5693,
      "▁سس": 5694,
      "خیر": 5695,
      "▁خیر": 5696,
      "كند": 5697,
      "▁كند": 5698,
      "برداشتن": 5699,
      "▁برداشتن": 5700,
      "بیفتد": 5701,
      "▁بیفتد": 5702,
      "ستار": 5703,
      "▁ستار": 5704,
      "پاهای": 5705,
      "▁پاهای": 5706,
      "جذاب": 5707,
      "▁جذاب": 5708,
      "عج": 5709,
      "▁عج": 5710,
      "طلو": 5711,
      "▁طلو": 5712,
      "پسرک": 5713,
      "▁پسرک": 5714,
      "اي": 5715,
      "▁اي": 5716,
      "خوند": 5717,
      "▁خوند": 5718,
      "طلوع": 5719,
      "▁طلوع": 5720,
      "قبول": 5721,
      "▁قبول": 5722,
      "بروکلی": 5723,
      "▁بروکلی": 5724,
      "رخت": 5725,
      "▁رخت": 5726,
      "همزمان": 5727,
      "▁همزمان": 5728,
      "گي": 5729,
      "▁گي": 5730,
      "ریزه": 5731,
      "▁ریزه": 5732,
      "قصر": 5733,
      "▁قصر": 5734,
      "صحنه": 5735,
      "▁صحنه": 5736,
      "مستقل": 5737,
      "▁مستقل": 5738,
      "لرزید": 5739,
      "▁لرزید": 5740,
      "موند": 5741,
      "▁موند": 5742,
      "بیایند": 5743,
      "▁بیایند": 5744,
      "شناخته": 5745,
      "▁شناخته": 5746,
      "بزنی": 5747,
      "▁بزنی": 5748,
      "ندارند": 5749,
      "▁ندارند": 5750,
      "آزمایش": 5751,
      "▁آزمایش": 5752,
      "کتابخانه": 5753,
      "▁کتابخانه": 5754,
      "شکار": 5755,
      "▁شکار": 5756,
      "ایمنی": 5757,
      "▁ایمنی": 5758,
      "تولید": 5759,
      "▁تولید": 5760,
      "نباشد": 5761,
      "▁نباشد": 5762,
      "شنوند": 5763,
      "▁شنوند": 5764,
      "گندم": 5765,
      "▁گندم": 5766,
      "میزی": 5767,
      "▁میزی": 5768,
      "بزنیم": 5769,
      "▁بزنیم": 5770,
      "شرح": 5771,
      "▁شرح": 5772,
      "قر": 5773,
      "▁قر": 5774,
      "زرافه": 5775,
      "▁زرافه": 5776,
      "چتر": 5777,
      "▁چتر": 5778,
      "عصای": 5779,
      "▁عصای": 5780,
      "روستای": 5781,
      "▁روستای": 5782,
      "خيلي": 5783,
      "▁خيلي": 5784,
      "قارچ": 5785,
      "▁قارچ": 5786,
      "چاقو": 5787,
      "▁چاقو": 5788,
      "یادگیری": 5789,
      "▁یادگیری": 5790,
      "افرا": 5791,
      "▁افرا": 5792,
      "لولو": 5793,
      "▁لولو": 5794,
      "بشما": 5795,
      "▁بشما": 5796,
      "هاشون": 5797,
      "▁هاشون": 5798,
      "موتو": 5799,
      "▁موتو": 5800,
      "برش": 5801,
      "▁برش": 5802,
      "بتوانم": 5803,
      "▁بتوانم": 5804,
      "شنی": 5805,
      "▁شنی": 5806,
      "یعنی": 5807,
      "▁یعنی": 5808,
      "توله": 5809,
      "▁توله": 5810,
      "پلنگ": 5811,
      "▁پلنگ": 5812,
      "مارمولک": 5813,
      "▁مارمولک": 5814,
      "بچیند": 5815,
      "▁بچیند": 5816,
      "فن": 5817,
      "▁فن": 5818,
      "خون": 5819,
      "▁خون": 5820,
      "الماس": 5821,
      "▁الماس": 5822,
      "تقری": 5823,
      "▁تقری": 5824,
      "عینک": 5825,
      "▁عینک": 5826,
      "چشمک": 5827,
      "▁چشمک": 5828,
      "اجرا": 5829,
      "▁اجرا": 5830,
      "انا": 5831,
      "▁انا": 5832,
      "دهان": 5833,
      "▁دهان": 5834,
      "دهید": 5835,
      "▁دهید": 5836,
      "بدیم": 5837,
      "▁بدیم": 5838,
      "پوشه": 5839,
      "▁پوشه": 5840,
      "شال": 5841,
      "▁شال": 5842,
      "عاد": 5843,
      "▁عاد": 5844,
      "دریای": 5845,
      "▁دریای": 5846,
      "رخ": 5847,
      "▁رخ": 5848,
      "برنگ": 5849,
      "▁برنگ": 5850,
      "دنباله": 5851,
      "▁دنباله": 5852,
      "ابرها": 5853,
      "▁ابرها": 5854,
      "فواره": 5855,
      "▁فواره": 5856,
      "استیکی": 5857,
      "▁استیکی": 5858,
      "بدن": 5859,
      "▁بدن": 5860,
      "اولین": 5861,
      "▁اولین": 5862,
      "وفادار": 5863,
      "▁وفادار": 5864,
      "مانند": 5865,
      "▁مانند": 5866,
      "far": 5867,
      "▁far": 5868,
      "FAR": 5869,
      "▁FAR": 5870,
      "Far": 5871,
      "▁Far": 5872,
      "دوری": 5873,
      "▁دوری": 5874,
      "گیتار": 5875,
      "▁گیتار": 5876,
      "بگذرانند": 5877,
      "▁بگذرانند": 5878,
      "پوشاند": 5879,
      "▁پوشاند": 5880,
      "پن": 5881,
      "▁پن": 5882,
      "دانی": 5883,
      "▁دانی": 5884,
      "تونل": 5885,
      "▁تونل": 5886,
      "رسیده": 5887,
      "▁رسیده": 5888,
      "طوطی": 5889,
      "▁طوطی": 5890,
      "بروی": 5891,
      "▁بروی": 5892,
      "چندتا": 5893,
      "▁چندتا": 5894,
      "اقی": 5895,
      "▁اقی": 5896,
      "خيلی": 5897,
      "▁خيلی": 5898,
      "حقی": 5899,
      "▁حقی": 5900,
      "غریبه": 5901,
      "▁غریبه": 5902,
      "تشک": 5903,
      "▁تشک": 5904,
      "کرگ": 5905,
      "▁کرگ": 5906,
      "خریدند": 5907,
      "▁خریدند": 5908,
      "پیتر": 5909,
      "▁پیتر": 5910,
      "جواه": 5911,
      "▁جواه": 5912,
      "فشان": 5913,
      "▁فشان": 5914,
      "باحال": 5915,
      "▁باحال": 5916,
      "تاکسی": 5917,
      "▁تاکسی": 5918,
      "ha": 5919,
      "▁ha": 5920,
      "HA": 5921,
      "▁HA": 5922,
      "Ha": 5923,
      "▁Ha": 5924,
      "شدت": 5925,
      "▁شدت": 5926,
      "جربه": 5927,
      "▁جربه": 5928,
      "ببندد": 5929,
      "▁ببندد": 5930,
      "جلیقه": 5931,
      "▁جلیقه": 5932,
      "ریختند": 5933,
      "▁ریختند": 5934,
      "زنج": 5935,
      "▁زنج": 5936,
      "كو": 5937,
      "▁كو": 5938,
      "مرغابی": 5939,
      "▁مرغابی": 5940,
      "تمبر": 5941,
      "▁تمبر": 5942,
      "تقریبا": 5943,
      "▁تقریبا": 5944,
      "گیلاس": 5945,
      "▁گیلاس": 5946,
      "حفر": 5947,
      "▁حفر": 5948,
      "ماکارو": 5949,
      "▁ماکارو": 5950,
      "بگیرید": 5951,
      "▁بگیرید": 5952,
      "ماکارونی": 5953,
      "▁ماکارونی": 5954,
      "طبی": 5955,
      "▁طبی": 5956,
      "دیدم": 5957,
      "▁دیدم": 5958,
      "دوستانی": 5959,
      "▁دوستانی": 5960,
      "ریسمان": 5961,
      "▁ریسمان": 5962,
      "farsi": 5963,
      "▁farsi": 5964,
      "FARSI": 5965,
      "▁FARSI": 5966,
      "Farsi": 5967,
      "▁Farsi": 5968,
      "پاپی": 5969,
      "▁پاپی": 5970,
      "لازم": 5971,
      "▁لازم": 5972,
      "نگرانی": 5973,
      "▁نگرانی": 5974,
      "اینی": 5975,
      "▁اینی": 5976,
      "اشتباهی": 5977,
      "▁اشتباهی": 5978,
      "آوو": 5979,
      "▁آوو": 5980,
      "شنیده": 5981,
      "▁شنیده": 5982,
      "اقیانو": 5983,
      "▁اقیانو": 5984,
      "وات": 5985,
      "▁وات": 5986,
      "وران": 5987,
      "▁وران": 5988,
      "نقط": 5989,
      "▁نقط": 5990,
      "نقطه": 5991,
      "▁نقطه": 5992,
      "منقار": 5993,
      "▁منقار": 5994,
      "بگذارید": 5995,
      "▁بگذارید": 5996,
      "قلاب": 5997,
      "▁قلاب": 5998,
      "کراوات": 5999,
      "▁کراوات": 6000,
      "لیسید": 6001,
      "▁لیسید": 6002,
      "برداشته": 6003,
      "▁برداشته": 6004,
      "دردسر": 6005,
      "▁دردسر": 6006,
      "کرگدن": 6007,
      "▁کرگدن": 6008,
      "بالگرد": 6009,
      "▁بالگرد": 6010,
      "بایست": 6011,
      "▁بایست": 6012,
      "راضی": 6013,
      "▁راضی": 6014,
      "بیس": 6015,
      "▁بیس": 6016,
      "and": 6017,
      "▁and": 6018,
      "AND": 6019,
      "▁AND": 6020,
      "And": 6021,
      "▁And": 6022,
      "غرید": 6023,
      "▁غرید": 6024,
      "جفت": 6025,
      "▁جفت": 6026,
      "گیج": 6027,
      "▁گیج": 6028,
      "اذیت": 6029,
      "▁اذیت": 6030,
      "اقیانوس": 6031,
      "▁اقیانوس": 6032,
      "بادام": 6033,
      "▁بادام": 6034,
      "گلا": 6035,
      "▁گلا": 6036,
      "مای": 6037,
      "▁مای": 6038,
      "جون": 6039,
      "▁جون": 6040,
      "مشه": 6041,
      "▁مشه": 6042,
      "مانه": 6043,
      "▁مانه": 6044,
      "چرخد": 6045,
      "▁چرخد": 6046,
      "کنجکاوی": 6047,
      "▁کنجکاوی": 6048,
      "شرکت": 6049,
      "▁شرکت": 6050,
      "تلخ": 6051,
      "▁تلخ": 6052,
      "هفته": 6053,
      "▁هفته": 6054,
      "برت": 6055,
      "▁برت": 6056,
      "سوراخی": 6057,
      "▁سوراخی": 6058,
      "انوا": 6059,
      "▁انوا": 6060,
      "اتاقشان": 6061,
      "▁اتاقشان": 6062,
      "عجله": 6063,
      "▁عجله": 6064,
      "بستند": 6065,
      "▁بستند": 6066,
      "مختل": 6067,
      "▁مختل": 6068,
      "تروم": 6069,
      "▁تروم": 6070,
      "زر": 6071,
      "▁زر": 6072,
      "نشدند": 6073,
      "▁نشدند": 6074,
      "آویز": 6075,
      "▁آویز": 6076,
      "دما": 6077,
      "▁دما": 6078,
      "مرک": 6079,
      "▁مرک": 6080,
      "بپرند": 6081,
      "▁بپرند": 6082,
      "لاستیک": 6083,
      "▁لاستیک": 6084,
      "شناس": 6085,
      "▁شناس": 6086,
      "تاینی": 6087,
      "▁تاینی": 6088,
      "خلا": 6089,
      "▁خلا": 6090,
      "كردند": 6091,
      "▁كردند": 6092,
      "آسیاب": 6093,
      "▁آسیاب": 6094,
      "پنگو": 6095,
      "▁پنگو": 6096,
      "نوعی": 6097,
      "▁نوعی": 6098,
      "انواع": 6099,
      "▁انواع": 6100,
      "قان": 6101,
      "▁قان": 6102,
      "گویی": 6103,
      "▁گویی": 6104,
      "روزنامه": 6105,
      "▁روزنامه": 6106,
      "حقیقت": 6107,
      "▁حقیقت": 6108,
      "بیش": 6109,
      "▁بیش": 6110,
      "فرشته": 6111,
      "▁فرشته": 6112,
      "فضای": 6113,
      "▁فضای": 6114,
      "عادلانه": 6115,
      "▁عادلانه": 6116,
      "دلیل": 6117,
      "▁دلیل": 6118,
      "زنجیر": 6119,
      "▁زنجیر": 6120,
      "ارزان": 6121,
      "▁ارزان": 6122,
      "خرا": 6123,
      "▁خرا": 6124,
      "چي": 6125,
      "▁چي": 6126,
      "پلی": 6127,
      "▁پلی": 6128,
      "گتی": 6129,
      "▁گتی": 6130,
      "چرخیدن": 6131,
      "▁چرخیدن": 6132,
      "رؤ": 6133,
      "▁رؤ": 6134,
      "صه": 6135,
      "▁صه": 6136,
      "بارید": 6137,
      "▁بارید": 6138,
      "پیچید": 6139,
      "▁پیچید": 6140,
      "فند": 6141,
      "▁فند": 6142,
      "آتشفشان": 6143,
      "▁آتشفشان": 6144,
      "کچل": 6145,
      "▁کچل": 6146,
      "پختن": 6147,
      "▁پختن": 6148,
      "خواد": 6149,
      "▁خواد": 6150,
      "گمشده": 6151,
      "▁گمشده": 6152,
      "نترسید": 6153,
      "▁نترسید": 6154,
      "رسیدن": 6155,
      "▁رسیدن": 6156,
      "اسپاگتی": 6157,
      "▁اسپاگتی": 6158,
      "باهات": 6159,
      "▁باهات": 6160,
      "بغلش": 6161,
      "▁بغلش": 6162,
      "عصا": 6163,
      "▁عصا": 6164,
      "ضبط": 6165,
      "▁ضبط": 6166,
      "پراکند": 6167,
      "▁پراکند": 6168,
      "دانش": 6169,
      "▁دانش": 6170,
      "وزن": 6171,
      "▁وزن": 6172,
      "کاکا": 6173,
      "▁کاکا": 6174,
      "انتهای": 6175,
      "▁انتهای": 6176,
      "ینی": 6177,
      "▁ینی": 6178,
      "مختلفی": 6179,
      "▁مختلفی": 6180,
      "تابی": 6181,
      "▁تابی": 6182,
      "مور": 6183,
      "▁مور": 6184,
      "برنداشت": 6185,
      "▁برنداشت": 6186,
      "درآمد": 6187,
      "▁درآمد": 6188,
      "کودک": 6189,
      "▁کودک": 6190,
      "پرده": 6191,
      "▁پرده": 6192,
      "بمو": 6193,
      "▁بمو": 6194,
      "صی": 6195,
      "▁صی": 6196,
      "مسی": 6197,
      "▁مسی": 6198,
      "اوم": 6199,
      "▁اوم": 6200,
      "براون": 6201,
      "▁براون": 6202,
      "خیز": 6203,
      "▁خیز": 6204,
      "حرک": 6205,
      "▁حرک": 6206,
      "آفتابگردان": 6207,
      "▁آفتابگردان": 6208,
      "آموخته": 6209,
      "▁آموخته": 6210,
      "اصلی": 6211,
      "▁اصلی": 6212,
      "پاکت": 6213,
      "▁پاکت": 6214,
      "پنگوئن": 6215,
      "▁پنگوئن": 6216,
      "متواض": 6217,
      "▁متواض": 6218,
      "آلیس": 6219,
      "▁آلیس": 6220,
      "برات": 6221,
      "▁برات": 6222,
      "تونن": 6223,
      "▁تونن": 6224,
      "نیستی": 6225,
      "▁نیستی": 6226,
      "گلابی": 6227,
      "▁گلابی": 6228,
      "فقی": 6229,
      "▁فقی": 6230,
      "قوه": 6231,
      "▁قوه": 6232,
      "لج": 6233,
      "▁لج": 6234,
      "بعدی": 6235,
      "▁بعدی": 6236,
      "فردی": 6237,
      "▁فردی": 6238,
      "پیوست": 6239,
      "▁پیوست": 6240,
      "مالید": 6241,
      "▁مالید": 6242,
      "خوری": 6243,
      "▁خوری": 6244,
      "ماسک": 6245,
      "▁ماسک": 6246,
      "خور": 6247,
      "▁خور": 6248,
      "سینی": 6249,
      "▁سینی": 6250,
      "جمجمه": 6251,
      "▁جمجمه": 6252,
      "مهار": 6253,
      "▁مهار": 6254,
      "صدایش": 6255,
      "▁صدایش": 6256,
      "داستانی": 6257,
      "▁داستانی": 6258,
      "زوم": 6259,
      "▁زوم": 6260,
      "ندیدند": 6261,
      "▁ندیدند": 6262,
      "مسن": 6263,
      "▁مسن": 6264,
      "ایستگاه": 6265,
      "▁ایستگاه": 6266,
      "ریشه": 6267,
      "▁ریشه": 6268,
      "سیاره": 6269,
      "▁سیاره": 6270,
      "پادا": 6271,
      "▁پادا": 6272,
      "سبک": 6273,
      "▁سبک": 6274,
      "خوشحالند": 6275,
      "▁خوشحالند": 6276,
      "دوربین": 6277,
      "▁دوربین": 6278,
      "بانه": 6279,
      "▁بانه": 6280,
      "اله": 6281,
      "▁اله": 6282,
      "نادیده": 6283,
      "▁نادیده": 6284,
      "كوچ": 6285,
      "▁كوچ": 6286,
      "پاند": 6287,
      "▁پاند": 6288,
      "چمد": 6289,
      "▁چمد": 6290,
      "لوبیا": 6291,
      "▁لوبیا": 6292,
      "مکث": 6293,
      "▁مکث": 6294,
      "موافق": 6295,
      "▁موافق": 6296,
      "دمی": 6297,
      "▁دمی": 6298,
      "رقاب": 6299,
      "▁رقاب": 6300,
      "خیل": 6301,
      "▁خیل": 6302,
      "خمی": 6303,
      "▁خمی": 6304,
      "هتل": 6305,
      "▁هتل": 6306,
      "تظاهر": 6307,
      "▁تظاهر": 6308,
      "ناشناخته": 6309,
      "▁ناشناخته": 6310,
      "همکاری": 6311,
      "▁همکاری": 6312,
      "موزه": 6313,
      "▁موزه": 6314,
      "تعطی": 6315,
      "▁تعطی": 6316,
      "پاپ": 6317,
      "▁پاپ": 6318,
      "پرداخت": 6319,
      "▁پرداخت": 6320,
      "شعله": 6321,
      "▁شعله": 6322,
      "شیطان": 6323,
      "▁شیطان": 6324,
      "بلافاصله": 6325,
      "▁بلافاصله": 6326,
      "فوتبال": 6327,
      "▁فوتبال": 6328,
      "بفهمد": 6329,
      "▁بفهمد": 6330,
      "الت": 6331,
      "▁الت": 6332,
      "بزه": 6333,
      "▁بزه": 6334,
      "زانو": 6335,
      "▁زانو": 6336,
      "وصله": 6337,
      "▁وصله": 6338,
      "خربزه": 6339,
      "▁خربزه": 6340,
      "حوصله": 6341,
      "▁حوصله": 6342,
      "سمی": 6343,
      "▁سمی": 6344,
      "میکنه": 6345,
      "▁میکنه": 6346,
      "آشپزخونه": 6347,
      "▁آشپزخونه": 6348,
      "کبری": 6349,
      "▁کبری": 6350,
      "نشانه": 6351,
      "▁نشانه": 6352,
      "وز": 6353,
      "▁وز": 6354,
      "دارو": 6355,
      "▁دارو": 6356,
      "دوقلوهایی": 6357,
      "▁دوقلوهایی": 6358,
      "آرایشگر": 6359,
      "▁آرایشگر": 6360,
      "میومد": 6361,
      "▁میومد": 6362,
      "بهشون": 6363,
      "▁بهشون": 6364,
      "گرمی": 6365,
      "▁گرمی": 6366,
      "خوابیدن": 6367,
      "▁خوابیدن": 6368,
      "آووکادو": 6369,
      "▁آووکادو": 6370,
      "خن": 6371,
      "▁خن": 6372,
      "درحالی": 6373,
      "▁درحالی": 6374,
      "انداختند": 6375,
      "▁انداختند": 6376,
      "خشن": 6377,
      "▁خشن": 6378,
      "بدبو": 6379,
      "▁بدبو": 6380,
      "دفن": 6381,
      "▁دفن": 6382,
      "باقی": 6383,
      "▁باقی": 6384,
      "پرسروصدا": 6385,
      "▁پرسروصدا": 6386,
      "بگذراند": 6387,
      "▁بگذراند": 6388,
      "یجه": 6389,
      "▁یجه": 6390,
      "زین": 6391,
      "▁زین": 6392,
      "زیتون": 6393,
      "▁زیتون": 6394,
      "دارن": 6395,
      "▁دارن": 6396,
      "سرگیجه": 6397,
      "▁سرگیجه": 6398,
      "خواستن": 6399,
      "▁خواستن": 6400,
      "تینا": 6401,
      "▁تینا": 6402,
      "تجربه": 6403,
      "▁تجربه": 6404,
      "جاب": 6405,
      "▁جاب": 6406,
      "کارها": 6407,
      "▁کارها": 6408,
      "بخواب": 6409,
      "▁بخواب": 6410,
      "صاد": 6411,
      "▁صاد": 6412,
      "برنج": 6413,
      "▁برنج": 6414,
      "مشاه": 6415,
      "▁مشاه": 6416,
      "رادیو": 6417,
      "▁رادیو": 6418,
      "بکنیم": 6419,
      "▁بکنیم": 6420,
      "مدرن": 6421,
      "▁مدرن": 6422,
      "مشاهده": 6423,
      "▁مشاهده": 6424,
      "چاه": 6425,
      "▁چاه": 6426,
      "چوبدستی": 6427,
      "▁چوبدستی": 6428,
      "کردنش": 6429,
      "▁کردنش": 6430,
      "دیوانه": 6431,
      "▁دیوانه": 6432,
      "تف": 6433,
      "▁تف": 6434,
      "توبی": 6435,
      "▁توبی": 6436,
      "سنگی": 6437,
      "▁سنگی": 6438,
      "شیطنت": 6439,
      "▁شیطنت": 6440,
      "مطال": 6441,
      "▁مطال": 6442,
      "رختخواب": 6443,
      "▁رختخواب": 6444,
      "ببرم": 6445,
      "▁ببرم": 6446,
      "گارا": 6447,
      "▁گارا": 6448,
      "بازیگوش": 6449,
      "▁بازیگوش": 6450,
      "نیفت": 6451,
      "▁نیفت": 6452,
      "رساند": 6453,
      "▁رساند": 6454,
      "زنی": 6455,
      "▁زنی": 6456,
      "هایمان": 6457,
      "▁هایمان": 6458,
      "مهارت": 6459,
      "▁مهارت": 6460,
      "نکنید": 6461,
      "▁نکنید": 6462,
      "وگر": 6463,
      "▁وگر": 6464,
      "گاراژ": 6465,
      "▁گاراژ": 6466,
      "بشکه": 6467,
      "▁بشکه": 6468,
      "بپی": 6469,
      "▁بپی": 6470,
      "بذر": 6471,
      "▁بذر": 6472,
      "فلوت": 6473,
      "▁فلوت": 6474,
      "انقدر": 6475,
      "▁انقدر": 6476,
      "مرموز": 6477,
      "▁مرموز": 6478,
      "امتحانش": 6479,
      "▁امتحانش": 6480,
      "قدیم": 6481,
      "▁قدیم": 6482,
      "پرستار": 6483,
      "▁پرستار": 6484,
      "نیازی": 6485,
      "▁نیازی": 6486,
      "بوسه": 6487,
      "▁بوسه": 6488,
      "بیمارستان": 6489,
      "▁بیمارستان": 6490,
      "سوی": 6491,
      "▁سوی": 6492,
      "آسانسور": 6493,
      "▁آسانسور": 6494,
      "شادمانه": 6495,
      "▁شادمانه": 6496,
      "بازگشت": 6497,
      "▁بازگشت": 6498,
      "کبریت": 6499,
      "▁کبریت": 6500,
      "همون": 6501,
      "▁همون": 6502,
      "منظ": 6503,
      "▁منظ": 6504,
      "بنو": 6505,
      "▁بنو": 6506,
      "کاک": 6507,
      "▁کاک": 6508,
      "جرقه": 6509,
      "▁جرقه": 6510,
      "نفر": 6511,
      "▁نفر": 6512,
      "پود": 6513,
      "▁پود": 6514,
      "ژی": 6515,
      "▁ژی": 6516,
      "چگونه": 6517,
      "▁چگونه": 6518,
      "ترسو": 6519,
      "▁ترسو": 6520,
      "قصد": 6521,
      "▁قصد": 6522,
      "هلو": 6523,
      "▁هلو": 6524,
      "یادآوری": 6525,
      "▁یادآوری": 6526,
      "معبد": 6527,
      "▁معبد": 6528,
      "احم": 6529,
      "▁احم": 6530,
      "آبن": 6531,
      "▁آبن": 6532,
      "کور": 6533,
      "▁کور": 6534,
      "ربا": 6535,
      "▁ربا": 6536,
      "خنداند": 6537,
      "▁خنداند": 6538,
      "زودتر": 6539,
      "▁زودتر": 6540,
      "فقیر": 6541,
      "▁فقیر": 6542,
      "کاکتو": 6543,
      "▁کاکتو": 6544,
      "بنویسد": 6545,
      "▁بنویسد": 6546,
      "تفری": 6547,
      "▁تفری": 6548,
      "فراوان": 6549,
      "▁فراوان": 6550,
      "وگرنه": 6551,
      "▁وگرنه": 6552,
      "نمک": 6553,
      "▁نمک": 6554,
      "لن": 6555,
      "▁لن": 6556,
      "پال": 6557,
      "▁پال": 6558,
      "وسیله": 6559,
      "▁وسیله": 6560,
      "ابرهای": 6561,
      "▁ابرهای": 6562,
      "خیم": 6563,
      "▁خیم": 6564,
      "سازند": 6565,
      "▁سازند": 6566,
      "خرگوشی": 6567,
      "▁خرگوشی": 6568,
      "شمردن": 6569,
      "▁شمردن": 6570,
      "بزودی": 6571,
      "▁بزودی": 6572,
      "پوشیدند": 6573,
      "▁پوشیدند": 6574,
      "تنق": 6575,
      "▁تنق": 6576,
      "یوگا": 6577,
      "▁یوگا": 6578,
      "داکی": 6579,
      "▁داکی": 6580,
      "داشتم": 6581,
      "▁داشتم": 6582,
      "اسکل": 6583,
      "▁اسکل": 6584,
      "ماجراجو": 6585,
      "▁ماجراجو": 6586,
      "زنبورها": 6587,
      "▁زنبورها": 6588,
      "طرنج": 6589,
      "▁طرنج": 6590,
      "رعد": 6591,
      "▁رعد": 6592,
      "تحویل": 6593,
      "▁تحویل": 6594,
      "انگشتش": 6595,
      "▁انگشتش": 6596,
      "لجباز": 6597,
      "▁لجباز": 6598,
      "کاکتوس": 6599,
      "▁کاکتوس": 6600,
      "زغال": 6601,
      "▁زغال": 6602,
      "میلی": 6603,
      "▁میلی": 6604,
      "سرما": 6605,
      "▁سرما": 6606,
      "کامپیو": 6607,
      "▁کامپیو": 6608,
      "رسند": 6609,
      "▁رسند": 6610,
      "پشمک": 6611,
      "▁پشمک": 6612,
      "خاطرات": 6613,
      "▁خاطرات": 6614,
      "میکنم": 6615,
      "▁میکنم": 6616,
      "متحد": 6617,
      "▁متحد": 6618,
      "گفتم": 6619,
      "▁گفتم": 6620,
      "نیزه": 6621,
      "▁نیزه": 6622,
      "بارون": 6623,
      "▁بارون": 6624,
      "تنقلات": 6625,
      "▁تنقلات": 6626,
      "لباسش": 6627,
      "▁لباسش": 6628,
      "برگردند": 6629,
      "▁برگردند": 6630,
      "تله": 6631,
      "▁تله": 6632,
      "شطرنج": 6633,
      "▁شطرنج": 6634,
      "ناز": 6635,
      "▁ناز": 6636,
      "بخشنده": 6637,
      "▁بخشنده": 6638,
      "آزمون": 6639,
      "▁آزمون": 6640,
      "مشهور": 6641,
      "▁مشهور": 6642,
      "ساز": 6643,
      "▁ساز": 6644,
      "گچ": 6645,
      "▁گچ": 6646,
      "ظرفشویی": 6647,
      "▁ظرفشویی": 6648,
      "سپر": 6649,
      "▁سپر": 6650,
      "چوبی": 6651,
      "▁چوبی": 6652,
      "سپری": 6653,
      "▁سپری": 6654,
      "رمان": 6655,
      "▁رمان": 6656,
      "زیباترین": 6657,
      "▁زیباترین": 6658,
      "یکلت": 6659,
      "▁یکلت": 6660,
      "آرد": 6661,
      "▁آرد": 6662,
      "شهرک": 6663,
      "▁شهرک": 6664,
      "موتورس": 6665,
      "▁موتورس": 6666,
      "be": 6667,
      "▁be": 6668,
      "BE": 6669,
      "▁BE": 6670,
      "Be": 6671,
      "▁Be": 6672,
      "اتوم": 6673,
      "▁اتوم": 6674,
      "جواهرات": 6675,
      "▁جواهرات": 6676,
      "ترسم": 6677,
      "▁ترسم": 6678,
      "نیز": 6679,
      "▁نیز": 6680,
      "گردو": 6681,
      "▁گردو": 6682,
      "بپره": 6683,
      "▁بپره": 6684,
      "طلا": 6685,
      "▁طلا": 6686,
      "آیند": 6687,
      "▁آیند": 6688,
      "اموا": 6689,
      "▁اموا": 6690,
      "محتا": 6691,
      "▁محتا": 6692,
      "پشه": 6693,
      "▁پشه": 6694,
      "باستانی": 6695,
      "▁باستانی": 6696,
      "چمدان": 6697,
      "▁چمدان": 6698,
      "صادق": 6699,
      "▁صادق": 6700,
      "جل": 6701,
      "▁جل": 6702,
      "سرزمینی": 6703,
      "▁سرزمینی": 6704,
      "بازو": 6705,
      "▁بازو": 6706,
      "مضطر": 6707,
      "▁مضطر": 6708,
      "شادمانی": 6709,
      "▁شادمانی": 6710,
      "اسبی": 6711,
      "▁اسبی": 6712,
      "سوزان": 6713,
      "▁سوزان": 6714,
      "برنگشت": 6715,
      "▁برنگشت": 6716,
      "عظیم": 6717,
      "▁عظیم": 6718,
      "برساند": 6719,
      "▁برساند": 6720,
      "متواضع": 6721,
      "▁متواضع": 6722,
      "نوکش": 6723,
      "▁نوکش": 6724,
      "بتونه": 6725,
      "▁بتونه": 6726,
      "ماجراهای": 6727,
      "▁ماجراهای": 6728,
      "شور": 6729,
      "▁شور": 6730,
      "یار": 6731,
      "▁یار": 6732,
      "پودر": 6733,
      "▁پودر": 6734,
      "منقارش": 6735,
      "▁منقارش": 6736,
      "محتاط": 6737,
      "▁محتاط": 6738,
      "کیم": 6739,
      "▁کیم": 6740,
      "بیاد": 6741,
      "▁بیاد": 6742,
      "جانی": 6743,
      "▁جانی": 6744,
      "فرمان": 6745,
      "▁فرمان": 6746,
      "حرکات": 6747,
      "▁حرکات": 6748,
      "ضخیم": 6749,
      "▁ضخیم": 6750,
      "آمبول": 6751,
      "▁آمبول": 6752,
      "صرف": 6753,
      "▁صرف": 6754,
      "خوبیه": 6755,
      "▁خوبیه": 6756,
      "نیرو": 6757,
      "▁نیرو": 6758,
      "پاداش": 6759,
      "▁پاداش": 6760,
      "هایتان": 6761,
      "▁هایتان": 6762,
      "دروغ": 6763,
      "▁دروغ": 6764,
      "ترومپت": 6765,
      "▁ترومپت": 6766,
      "آمیز": 6767,
      "▁آمیز": 6768,
      "جاز": 6769,
      "▁جاز": 6770,
      "شلی": 6771,
      "▁شلی": 6772,
      "لبه": 6773,
      "▁لبه": 6774,
      "نشود": 6775,
      "▁نشود": 6776,
      "شوکه": 6777,
      "▁شوکه": 6778,
      "کنون": 6779,
      "▁کنون": 6780,
      "نوک": 6781,
      "▁نوک": 6782,
      "اصرار": 6783,
      "▁اصرار": 6784,
      "لنگر": 6785,
      "▁لنگر": 6786,
      "نشانی": 6787,
      "▁نشانی": 6788,
      "اتومبیل": 6789,
      "▁اتومبیل": 6790,
      "یکس": 6791,
      "▁یکس": 6792,
      "خواستیم": 6793,
      "▁خواستیم": 6794,
      "قلم": 6795,
      "▁قلم": 6796,
      "مسافر": 6797,
      "▁مسافر": 6798,
      "پراکنده": 6799,
      "▁پراکنده": 6800,
      "نس": 6801,
      "▁نس": 6802,
      "چکار": 6803,
      "▁چکار": 6804,
      "سوس": 6805,
      "▁سوس": 6806,
      "چار": 6807,
      "▁چار": 6808,
      "شرمنده": 6809,
      "▁شرمنده": 6810,
      "قرص": 6811,
      "▁قرص": 6812,
      "گلف": 6813,
      "▁گلف": 6814,
      "باهوشی": 6815,
      "▁باهوشی": 6816,
      "مطالعه": 6817,
      "▁مطالعه": 6818,
      "جاش": 6819,
      "▁جاش": 6820,
      "پیانو": 6821,
      "▁پیانو": 6822,
      "زانویش": 6823,
      "▁زانویش": 6824,
      "مؤدب": 6825,
      "▁مؤدب": 6826,
      "امواج": 6827,
      "▁امواج": 6828,
      "موفقی": 6829,
      "▁موفقی": 6830,
      "هوشمند": 6831,
      "▁هوشمند": 6832,
      "برپا": 6833,
      "▁برپا": 6834,
      "بدهید": 6835,
      "▁بدهید": 6836,
      "سردش": 6837,
      "▁سردش": 6838,
      "بلندش": 6839,
      "▁بلندش": 6840,
      "هن": 6841,
      "▁هن": 6842,
      "چیزای": 6843,
      "▁چیزای": 6844,
      "بحث": 6845,
      "▁بحث": 6846,
      "همینطور": 6847,
      "▁همینطور": 6848,
      "سایر": 6849,
      "▁سایر": 6850,
      "اکنون": 6851,
      "▁اکنون": 6852,
      "رپی": 6853,
      "▁رپی": 6854,
      "جارو": 6855,
      "▁جارو": 6856,
      "باغش": 6857,
      "▁باغش": 6858,
      "مودار": 6859,
      "▁مودار": 6860,
      "نظ": 6861,
      "▁نظ": 6862,
      "نکنند": 6863,
      "▁نکنند": 6864,
      "آمبولانس": 6865,
      "▁آمبولانس": 6866,
      "محبت": 6867,
      "▁محبت": 6868,
      "تراز": 6869,
      "▁تراز": 6870,
      "خرو": 6871,
      "▁خرو": 6872,
      "دامپزشک": 6873,
      "▁دامپزشک": 6874,
      "اسپایک": 6875,
      "▁اسپایک": 6876,
      "افراد": 6877,
      "▁افراد": 6878,
      "مضطرب": 6879,
      "▁مضطرب": 6880,
      "خوابیدند": 6881,
      "▁خوابیدند": 6882,
      "سنجاق": 6883,
      "▁سنجاق": 6884,
      "بابت": 6885,
      "▁بابت": 6886,
      "اشکالی": 6887,
      "▁اشکالی": 6888,
      "نوشیدنی": 6889,
      "▁نوشیدنی": 6890,
      "سوز": 6891,
      "▁سوز": 6892,
      "سینک": 6893,
      "▁سینک": 6894,
      "خلاصه": 6895,
      "▁خلاصه": 6896,
      "بزرگه": 6897,
      "▁بزرگه": 6898,
      "شعر": 6899,
      "▁شعر": 6900,
      "بخوانند": 6901,
      "▁بخوانند": 6902,
      "محل": 6903,
      "▁محل": 6904,
      "معن": 6905,
      "▁معن": 6906,
      "نشستن": 6907,
      "▁نشستن": 6908,
      "مجله": 6909,
      "▁مجله": 6910,
      "بابای": 6911,
      "▁بابای": 6912,
      "اهمیتی": 6913,
      "▁اهمیتی": 6914,
      "ریزی": 6915,
      "▁ریزی": 6916,
      "چیرپی": 6917,
      "▁چیرپی": 6918,
      "متشکر": 6919,
      "▁متشکر": 6920,
      "اسکوتر": 6921,
      "▁اسکوتر": 6922,
      "شا": 6923,
      "▁شا": 6924,
      "عبرت": 6925,
      "▁عبرت": 6926,
      "خوشای": 6927,
      "▁خوشای": 6928,
      "رست": 6929,
      "▁رست": 6930,
      "شوا": 6931,
      "▁شوا": 6932,
      "وایی": 6933,
      "▁وایی": 6934,
      "خندان": 6935,
      "▁خندان": 6936,
      "محبوبش": 6937,
      "▁محبوبش": 6938,
      "روغ": 6939,
      "▁روغ": 6940,
      "ریاضی": 6941,
      "▁ریاضی": 6942,
      "شوالیه": 6943,
      "▁شوالیه": 6944,
      "ed": 6945,
      "▁ed": 6946,
      "ED": 6947,
      "▁ED": 6948,
      "Ed": 6949,
      "▁Ed": 6950,
      "بگرد": 6951,
      "▁بگرد": 6952,
      "قابلمه": 6953,
      "▁قابلمه": 6954,
      "رنگش": 6955,
      "▁رنگش": 6956,
      "وس": 6957,
      "▁وس": 6958,
      "شیرجه": 6959,
      "▁شیرجه": 6960,
      "متاسفیم": 6961,
      "▁متاسفیم": 6962,
      "متاسفانه": 6963,
      "▁متاسفانه": 6964,
      "اعداد": 6965,
      "▁اعداد": 6966,
      "بخیر": 6967,
      "▁بخیر": 6968,
      "برسند": 6969,
      "▁برسند": 6970,
      "شکارچی": 6971,
      "▁شکارچی": 6972,
      "خب": 6973,
      "▁خب": 6974,
      "چیدن": 6975,
      "▁چیدن": 6976,
      "دوستانت": 6977,
      "▁دوستانت": 6978,
      "افتادن": 6979,
      "▁افتادن": 6980,
      "ترو": 6981,
      "▁ترو": 6982,
      "تبر": 6983,
      "▁تبر": 6984,
      "دستگیره": 6985,
      "▁دستگیره": 6986,
      "دانستم": 6987,
      "▁دانستم": 6988,
      "بشیم": 6989,
      "▁بشیم": 6990,
      "آهی": 6991,
      "▁آهی": 6992,
      "تخیل": 6993,
      "▁تخیل": 6994,
      "آجر": 6995,
      "▁آجر": 6996,
      "کوتاهی": 6997,
      "▁کوتاهی": 6998,
      "نگهبان": 6999,
      "▁نگهبان": 7000,
      "دقیق": 7001,
      "▁دقیق": 7002,
      "شلنگ": 7003,
      "▁شلنگ": 7004,
      "خلبان": 7005,
      "▁خلبان": 7006,
      "سردرگ": 7007,
      "▁سردرگ": 7008,
      "آبنبات": 7009,
      "▁آبنبات": 7010,
      "اسد": 7011,
      "▁اسد": 7012,
      "متفاوتی": 7013,
      "▁متفاوتی": 7014,
      "ou": 7015,
      "▁ou": 7016,
      "OU": 7017,
      "▁OU": 7018,
      "Ou": 7019,
      "▁Ou": 7020,
      "بسی": 7021,
      "▁بسی": 7022,
      "بینم": 7023,
      "▁بینم": 7024,
      "کاج": 7025,
      "▁کاج": 7026,
      "بخواهد": 7027,
      "▁بخواهد": 7028,
      "گرمش": 7029,
      "▁گرمش": 7030,
      "تفریح": 7031,
      "▁تفریح": 7032,
      "کامپیوتر": 7033,
      "▁کامپیوتر": 7034,
      "چایی": 7035,
      "▁چایی": 7036,
      "استع": 7037,
      "▁استع": 7038,
      "بپیوند": 7039,
      "▁بپیوند": 7040,
      "غلتا": 7041,
      "▁غلتا": 7042,
      "غریب": 7043,
      "▁غریب": 7044,
      "موتورسیکلت": 7045,
      "▁موتورسیکلت": 7046,
      "لر": 7047,
      "▁لر": 7048,
      "بلور": 7049,
      "▁بلور": 7050,
      "بدجنسی": 7051,
      "▁بدجنسی": 7052,
      "ببری": 7053,
      "▁ببری": 7054,
      "فره": 7055,
      "▁فره": 7056,
      "شکایت": 7057,
      "▁شکایت": 7058,
      "زیباتر": 7059,
      "▁زیباتر": 7060,
      "دوستم": 7061,
      "▁دوستم": 7062,
      "لیزر": 7063,
      "▁لیزر": 7064,
      "بکشند": 7065,
      "▁بکشند": 7066,
      "آورند": 7067,
      "▁آورند": 7068,
      "کارخانه": 7069,
      "▁کارخانه": 7070,
      "میکروف": 7071,
      "▁میکروف": 7072,
      "تعطیلات": 7073,
      "▁تعطیلات": 7074,
      "هورا": 7075,
      "▁هورا": 7076,
      "بنده": 7077,
      "▁بنده": 7078,
      "توسط": 7079,
      "▁توسط": 7080,
      "نقره": 7081,
      "▁نقره": 7082,
      "مضحک": 7083,
      "▁مضحک": 7084,
      "نخواهد": 7085,
      "▁نخواهد": 7086,
      "دودکش": 7087,
      "▁دودکش": 7088,
      "اغ": 7089,
      "▁اغ": 7090,
      "بازوی": 7091,
      "▁بازوی": 7092,
      "اسکلت": 7093,
      "▁اسکلت": 7094,
      "ارش": 7095,
      "▁ارش": 7096,
      "متنفر": 7097,
      "▁متنفر": 7098,
      "نسبت": 7099,
      "▁نسبت": 7100,
      "ببره": 7101,
      "▁ببره": 7102,
      "سمور": 7103,
      "▁سمور": 7104,
      "ملو": 7105,
      "▁ملو": 7106,
      "ویم": 7107,
      "▁ویم": 7108,
      "تویی": 7109,
      "▁تویی": 7110,
      "کیل": 7111,
      "▁کیل": 7112,
      "لغزید": 7113,
      "▁لغزید": 7114,
      "بچرخد": 7115,
      "▁بچرخد": 7116,
      "تئ": 7117,
      "▁تئ": 7118,
      "بردی": 7119,
      "▁بردی": 7120,
      "دامن": 7121,
      "▁دامن": 7122,
      "گوریل": 7123,
      "▁گوریل": 7124,
      "ببینید": 7125,
      "▁ببینید": 7126,
      "ير": 7127,
      "▁ير": 7128,
      "میکردند": 7129,
      "▁میکردند": 7130,
      "کمتر": 7131,
      "▁کمتر": 7132,
      "آخرین": 7133,
      "▁آخرین": 7134,
      "لز": 7135,
      "▁لز": 7136,
      "اردو": 7137,
      "▁اردو": 7138,
      "اتفاقات": 7139,
      "▁اتفاقات": 7140,
      "میکسر": 7141,
      "▁میکسر": 7142,
      "فاسد": 7143,
      "▁فاسد": 7144,
      "نع": 7145,
      "▁نع": 7146,
      "دوستتان": 7147,
      "▁دوستتان": 7148,
      "موعه": 7149,
      "▁موعه": 7150,
      "مودب": 7151,
      "▁مودب": 7152,
      "سوسک": 7153,
      "▁سوسک": 7154,
      "خارش": 7155,
      "▁خارش": 7156,
      "مستبد": 7157,
      "▁مستبد": 7158,
      "طبیعت": 7159,
      "▁طبیعت": 7160,
      "تئا": 7161,
      "▁تئا": 7162,
      "بیاورند": 7163,
      "▁بیاورند": 7164,
      "نواختن": 7165,
      "▁نواختن": 7166,
      "زیبایش": 7167,
      "▁زیبایش": 7168,
      "پوشیدن": 7169,
      "▁پوشیدن": 7170,
      "مصنوعی": 7171,
      "▁مصنوعی": 7172,
      "شلیک": 7173,
      "▁شلیک": 7174,
      "باتری": 7175,
      "▁باتری": 7176,
      "بگردد": 7177,
      "▁بگردد": 7178,
      "قرا": 7179,
      "▁قرا": 7180,
      "هوای": 7181,
      "▁هوای": 7182,
      "کتابی": 7183,
      "▁کتابی": 7184,
      "تکیه": 7185,
      "▁تکیه": 7186,
      "درستش": 7187,
      "▁درستش": 7188,
      "حمایت": 7189,
      "▁حمایت": 7190,
      "مبار": 7191,
      "▁مبار": 7192,
      "ندگی": 7193,
      "▁ندگی": 7194,
      "کابین": 7195,
      "▁کابین": 7196,
      "ترسناکی": 7197,
      "▁ترسناکی": 7198,
      "مجموعه": 7199,
      "▁مجموعه": 7200,
      "خوشم": 7201,
      "▁خوشم": 7202,
      "گروهی": 7203,
      "▁گروهی": 7204,
      "اینقدر": 7205,
      "▁اینقدر": 7206,
      "بریزد": 7207,
      "▁بریزد": 7208,
      "ليلي": 7209,
      "▁ليلي": 7210,
      "خست": 7211,
      "▁خست": 7212,
      "صلی": 7213,
      "▁صلی": 7214,
      "هات": 7215,
      "▁هات": 7216,
      "کرفس": 7217,
      "▁کرفس": 7218,
      "شکمش": 7219,
      "▁شکمش": 7220,
      "قایقش": 7221,
      "▁قایقش": 7222,
      "تولدش": 7223,
      "▁تولدش": 7224,
      "li": 7225,
      "▁li": 7226,
      "LI": 7227,
      "▁LI": 7228,
      "Li": 7229,
      "▁Li": 7230,
      "ظهر": 7231,
      "▁ظهر": 7232,
      "داگی": 7233,
      "▁داگی": 7234,
      "سیس": 7235,
      "▁سیس": 7236,
      "شکم": 7237,
      "▁شکم": 7238,
      "نقاش": 7239,
      "▁نقاش": 7240,
      "تدی": 7241,
      "▁تدی": 7242,
      "مخرو": 7243,
      "▁مخرو": 7244,
      "حفظ": 7245,
      "▁حفظ": 7246,
      "am": 7247,
      "▁am": 7248,
      "AM": 7249,
      "▁AM": 7250,
      "Am": 7251,
      "▁Am": 7252,
      "بشی": 7253,
      "▁بشی": 7254,
      "کارتون": 7255,
      "▁کارتون": 7256,
      "نوی": 7257,
      "▁نوی": 7258,
      "تانک": 7259,
      "▁تانک": 7260,
      "هدای": 7261,
      "▁هدای": 7262,
      "يه": 7263,
      "▁يه": 7264,
      "نوع": 7265,
      "▁نوع": 7266,
      "راهش": 7267,
      "▁راهش": 7268,
      "قوطی": 7269,
      "▁قوطی": 7270,
      "تئاتر": 7271,
      "▁تئاتر": 7272,
      "ایگ": 7273,
      "▁ایگ": 7274,
      "نگذ": 7275,
      "▁نگذ": 7276,
      "شانسی": 7277,
      "▁شانسی": 7278,
      "خودمان": 7279,
      "▁خودمان": 7280,
      "گذرانی": 7281,
      "▁گذرانی": 7282,
      "va": 7283,
      "▁va": 7284,
      "VA": 7285,
      "▁VA": 7286,
      "Va": 7287,
      "▁Va": 7288,
      "غذایش": 7289,
      "▁غذایش": 7290,
      "جابجا": 7291,
      "▁جابجا": 7292,
      "برکه": 7293,
      "▁برکه": 7294,
      "پشتش": 7295,
      "▁پشتش": 7296,
      "شیرو": 7297,
      "▁شیرو": 7298,
      "امیدوارند": 7299,
      "▁امیدوارند": 7300,
      "نگفت": 7301,
      "▁نگفت": 7302,
      "کوله": 7303,
      "▁کوله": 7304,
      "دادم": 7305,
      "▁دادم": 7306,
      "تصویری": 7307,
      "▁تصویری": 7308,
      "خستگی": 7309,
      "▁خستگی": 7310,
      "زمز": 7311,
      "▁زمز": 7312,
      "امتی": 7313,
      "▁امتی": 7314,
      "زمزمه": 7315,
      "▁زمزمه": 7316,
      "لجن": 7317,
      "▁لجن": 7318,
      "انورد": 7319,
      "▁انورد": 7320,
      "هاکی": 7321,
      "▁هاکی": 7322,
      "کابینت": 7323,
      "▁کابینت": 7324,
      "بام": 7325,
      "▁بام": 7326,
      "ضرر": 7327,
      "▁ضرر": 7328,
      "اث": 7329,
      "▁اث": 7330,
      "کوزه": 7331,
      "▁کوزه": 7332,
      "بک": 7333,
      "▁بک": 7334,
      "ثیر": 7335,
      "▁ثیر": 7336,
      "یون": 7337,
      "▁یون": 7338,
      "کثی": 7339,
      "▁کثی": 7340,
      "آسیبی": 7341,
      "▁آسیبی": 7342,
      "بیایی": 7343,
      "▁بیایی": 7344,
      "دمه": 7345,
      "▁دمه": 7346,
      "درستی": 7347,
      "▁درستی": 7348,
      "بمانی": 7349,
      "▁بمانی": 7350,
      "جوک": 7351,
      "▁جوک": 7352,
      "مهربانانه": 7353,
      "▁مهربانانه": 7354,
      "موردعلاقه": 7355,
      "▁موردعلاقه": 7356,
      "يدند": 7357,
      "▁يدند": 7358,
      "روغن": 7359,
      "▁روغن": 7360,
      "نیش": 7361,
      "▁نیش": 7362,
      "کنارشان": 7363,
      "▁کنارشان": 7364,
      "پسرها": 7365,
      "▁پسرها": 7366,
      "تونسته": 7367,
      "▁تونسته": 7368,
      "خرگوشه": 7369,
      "▁خرگوشه": 7370,
      "اژدهای": 7371,
      "▁اژدهای": 7372,
      "ینم": 7373,
      "▁ینم": 7374,
      "باشن": 7375,
      "▁باشن": 7376,
      "تاسف": 7377,
      "▁تاسف": 7378,
      "رژی": 7379,
      "▁رژی": 7380,
      "جیب": 7381,
      "▁جیب": 7382,
      "نیرومند": 7383,
      "▁نیرومند": 7384,
      "راکت": 7385,
      "▁راکت": 7386,
      "ارت": 7387,
      "▁ارت": 7388,
      "تحت": 7389,
      "▁تحت": 7390,
      "بینکی": 7391,
      "▁بینکی": 7392,
      "موفقیت": 7393,
      "▁موفقیت": 7394,
      "کاخ": 7395,
      "▁کاخ": 7396,
      "چندان": 7397,
      "▁چندان": 7398,
      "مادران": 7399,
      "▁مادران": 7400,
      "بروید": 7401,
      "▁بروید": 7402,
      "کوپ": 7403,
      "▁کوپ": 7404,
      "رنگارنگی": 7405,
      "▁رنگارنگی": 7406,
      "یری": 7407,
      "▁یری": 7408,
      "پارکی": 7409,
      "▁پارکی": 7410,
      "باورش": 7411,
      "▁باورش": 7412,
      "شفا": 7413,
      "▁شفا": 7414,
      "وافل": 7415,
      "▁وافل": 7416,
      "پریده": 7417,
      "▁پریده": 7418,
      "صل": 7419,
      "▁صل": 7420,
      "نشنید": 7421,
      "▁نشنید": 7422,
      "بزرگترین": 7423,
      "▁بزرگترین": 7424,
      "طرح": 7425,
      "▁طرح": 7426,
      "اضافی": 7427,
      "▁اضافی": 7428,
      "کاشت": 7429,
      "▁کاشت": 7430,
      "بدبخت": 7431,
      "▁بدبخت": 7432,
      "sh": 7433,
      "▁sh": 7434,
      "SH": 7435,
      "▁SH": 7436,
      "Sh": 7437,
      "▁Sh": 7438,
      "تأ": 7439,
      "▁تأ": 7440,
      "پیپین": 7441,
      "▁پیپین": 7442,
      "زومی": 7443,
      "▁زومی": 7444,
      "مشکی": 7445,
      "▁مشکی": 7446,
      "بندی": 7447,
      "▁بندی": 7448,
      "اغلب": 7449,
      "▁اغلب": 7450,
      "برگردیم": 7451,
      "▁برگردیم": 7452,
      "بازیچه": 7453,
      "▁بازیچه": 7454,
      "پلیور": 7455,
      "▁پلیور": 7456,
      "ممکنه": 7457,
      "▁ممکنه": 7458,
      "گریزه": 7459,
      "▁گریزه": 7460,
      "سنگریزه": 7461,
      "▁سنگریزه": 7462,
      "قوان": 7463,
      "▁قوان": 7464,
      "دخترش": 7465,
      "▁دخترش": 7466,
      "یافتن": 7467,
      "▁یافتن": 7468,
      "مسافرت": 7469,
      "▁مسافرت": 7470,
      "کشو": 7471,
      "▁کشو": 7472,
      "ساده": 7473,
      "▁ساده": 7474,
      "دره": 7475,
      "▁دره": 7476,
      "بسکت": 7477,
      "▁بسکت": 7478,
      "سنجا": 7479,
      "▁سنجا": 7480,
      "کاکائو": 7481,
      "▁کاکائو": 7482,
      "آمدن": 7483,
      "▁آمدن": 7484,
      "گشتن": 7485,
      "▁گشتن": 7486,
      "لوس": 7487,
      "▁لوس": 7488,
      "مدال": 7489,
      "▁مدال": 7490,
      "بتوانی": 7491,
      "▁بتوانی": 7492,
      "میگو": 7493,
      "▁میگو": 7494,
      "چرخیدند": 7495,
      "▁چرخیدند": 7496,
      "دال": 7497,
      "▁دال": 7498,
      "بنوازد": 7499,
      "▁بنوازد": 7500,
      "میزد": 7501,
      "▁میزد": 7502,
      "مافین": 7503,
      "▁مافین": 7504,
      "هرجا": 7505,
      "▁هرجا": 7506,
      "پیروی": 7507,
      "▁پیروی": 7508,
      "آلو": 7509,
      "▁آلو": 7510,
      "بکنند": 7511,
      "▁بکنند": 7512,
      "درا": 7513,
      "▁درا": 7514,
      "گردش": 7515,
      "▁گردش": 7516,
      "چیزا": 7517,
      "▁چیزا": 7518,
      "کلیسا": 7519,
      "▁کلیسا": 7520,
      "مدادر": 7521,
      "▁مدادر": 7522,
      "رستوران": 7523,
      "▁رستوران": 7524,
      "قوانین": 7525,
      "▁قوانین": 7526,
      "دلتنگ": 7527,
      "▁دلتنگ": 7528,
      "وحشتناک": 7529,
      "▁وحشتناک": 7530,
      "فلزی": 7531,
      "▁فلزی": 7532,
      "چیدند": 7533,
      "▁چیدند": 7534,
      "مطمئ": 7535,
      "▁مطمئ": 7536,
      "ديگر": 7537,
      "▁ديگر": 7538,
      "خز": 7539,
      "▁خز": 7540,
      "ایوان": 7541,
      "▁ایوان": 7542,
      "جهید": 7543,
      "▁جهید": 7544,
      "ابه": 7545,
      "▁ابه": 7546,
      "ستون": 7547,
      "▁ستون": 7548,
      "برن": 7549,
      "▁برن": 7550,
      "نباشید": 7551,
      "▁نباشید": 7552,
      "مناسبی": 7553,
      "▁مناسبی": 7554,
      "میکروس": 7555,
      "▁میکروس": 7556,
      "طلایی": 7557,
      "▁طلایی": 7558,
      "زاری": 7559,
      "▁زاری": 7560,
      "نابود": 7561,
      "▁نابود": 7562,
      "بونی": 7563,
      "▁بونی": 7564,
      "روبرو": 7565,
      "▁روبرو": 7566,
      "ماجرای": 7567,
      "▁ماجرای": 7568,
      "مطیع": 7569,
      "▁مطیع": 7570,
      "چسباند": 7571,
      "▁چسباند": 7572,
      "دوس": 7573,
      "▁دوس": 7574,
      "شیروانی": 7575,
      "▁شیروانی": 7576,
      "کای": 7577,
      "▁کای": 7578,
      "مینه": 7579,
      "▁مینه": 7580,
      "گیرم": 7581,
      "▁گیرم": 7582,
      "تیغ": 7583,
      "▁تیغ": 7584,
      "ترسد": 7585,
      "▁ترسد": 7586,
      "سفارش": 7587,
      "▁سفارش": 7588,
      "نگهداری": 7589,
      "▁نگهداری": 7590,
      "بشکند": 7591,
      "▁بشکند": 7592,
      "انسان": 7593,
      "▁انسان": 7594,
      "پاندا": 7595,
      "▁پاندا": 7596,
      "انداز": 7597,
      "▁انداز": 7598,
      "پیری": 7599,
      "▁پیری": 7600,
      "جویدن": 7601,
      "▁جویدن": 7602,
      "فضا": 7603,
      "▁فضا": 7604,
      "رقابتی": 7605,
      "▁رقابتی": 7606,
      "رمر": 7607,
      "▁رمر": 7608,
      "برداری": 7609,
      "▁برداری": 7610,
      "شومینه": 7611,
      "▁شومینه": 7612,
      "وسایلش": 7613,
      "▁وسایلش": 7614,
      "لق": 7615,
      "▁لق": 7616,
      "پاف": 7617,
      "▁پاف": 7618,
      "یك": 7619,
      "▁یك": 7620,
      "دالی": 7621,
      "▁دالی": 7622,
      "بازیم": 7623,
      "▁بازیم": 7624,
      "جوهر": 7625,
      "▁جوهر": 7626,
      "گرداند": 7627,
      "▁گرداند": 7628,
      "آوردن": 7629,
      "▁آوردن": 7630,
      "بگذاری": 7631,
      "▁بگذاری": 7632,
      "فرودگاه": 7633,
      "▁فرودگاه": 7634,
      "قانون": 7635,
      "▁قانون": 7636,
      "بفرست": 7637,
      "▁بفرست": 7638,
      "گار": 7639,
      "▁گار": 7640,
      "تقل": 7641,
      "▁تقل": 7642,
      "خراش": 7643,
      "▁خراش": 7644,
      "بندر": 7645,
      "▁بندر": 7646,
      "براي": 7647,
      "▁براي": 7648,
      "حیر": 7649,
      "▁حیر": 7650,
      "کاش": 7651,
      "▁کاش": 7652,
      "بنوشد": 7653,
      "▁بنوشد": 7654,
      "سرسبز": 7655,
      "▁سرسبز": 7656,
      "بشم": 7657,
      "▁بشم": 7658,
      "مرکز": 7659,
      "▁مرکز": 7660,
      "خزید": 7661,
      "▁خزید": 7662,
      "مك": 7663,
      "▁مك": 7664,
      "ویول": 7665,
      "▁ویول": 7666,
      "نشینند": 7667,
      "▁نشینند": 7668,
      "عزیز": 7669,
      "▁عزیز": 7670,
      "متأسفانه": 7671,
      "▁متأسفانه": 7672,
      "استعداد": 7673,
      "▁استعداد": 7674,
      "میگه": 7675,
      "▁میگه": 7676,
      "دوتا": 7677,
      "▁دوتا": 7678,
      "جاهای": 7679,
      "▁جاهای": 7680,
      "کتابش": 7681,
      "▁کتابش": 7682,
      "بایستد": 7683,
      "▁بایستد": 7684,
      "دوخت": 7685,
      "▁دوخت": 7686,
      "بازش": 7687,
      "▁بازش": 7688,
      "اصطبل": 7689,
      "▁اصطبل": 7690,
      "پستی": 7691,
      "▁پستی": 7692,
      "پذیرفت": 7693,
      "▁پذیرفت": 7694,
      "دستانش": 7695,
      "▁دستانش": 7696,
      "بخشد": 7697,
      "▁بخشد": 7698,
      "صلیب": 7699,
      "▁صلیب": 7700,
      "خودتان": 7701,
      "▁خودتان": 7702,
      "پنکه": 7703,
      "▁پنکه": 7704,
      "مى": 7705,
      "▁مى": 7706,
      "ني": 7707,
      "▁ني": 7708,
      "هاست": 7709,
      "▁هاست": 7710,
      "دیدی": 7711,
      "▁دیدی": 7712,
      "هوشیار": 7713,
      "▁هوشیار": 7714,
      "نرو": 7715,
      "▁نرو": 7716,
      "لول": 7717,
      "▁لول": 7718,
      "اضط": 7719,
      "▁اضط": 7720,
      "پاست": 7721,
      "▁پاست": 7722,
      "گن": 7723,
      "▁گن": 7724,
      "درخشش": 7725,
      "▁درخشش": 7726,
      "نوشتن": 7727,
      "▁نوشتن": 7728,
      "فروخت": 7729,
      "▁فروخت": 7730,
      "فریزر": 7731,
      "▁فریزر": 7732,
      "بیسبال": 7733,
      "▁بیسبال": 7734,
      "ترازو": 7735,
      "▁ترازو": 7736,
      "مدادرنگی": 7737,
      "▁مدادرنگی": 7738,
      "دسر": 7739,
      "▁دسر": 7740,
      "مهمه": 7741,
      "▁مهمه": 7742,
      "وب": 7743,
      "▁وب": 7744,
      "کارل": 7745,
      "▁کارل": 7746,
      "دونستن": 7747,
      "▁دونستن": 7748,
      "شیطون": 7749,
      "▁شیطون": 7750,
      "لغزنده": 7751,
      "▁لغزنده": 7752,
      "کانگو": 7753,
      "▁کانگو": 7754,
      "وفل": 7755,
      "▁وفل": 7756,
      "مصمم": 7757,
      "▁مصمم": 7758,
      "شیک": 7759,
      "▁شیک": 7760,
      "تونید": 7761,
      "▁تونید": 7762,
      "دیوارها": 7763,
      "▁دیوارها": 7764,
      "سوسیس": 7765,
      "▁سوسیس": 7766,
      "گردنش": 7767,
      "▁گردنش": 7768,
      "قاضی": 7769,
      "▁قاضی": 7770,
      "ba": 7771,
      "▁ba": 7772,
      "BA": 7773,
      "▁BA": 7774,
      "Ba": 7775,
      "▁Ba": 7776,
      "پدال": 7777,
      "▁پدال": 7778,
      "کیت": 7779,
      "▁کیت": 7780,
      "اتی": 7781,
      "▁اتی": 7782,
      "آنجاست": 7783,
      "▁آنجاست": 7784,
      "پونی": 7785,
      "▁پونی": 7786,
      "تفنگ": 7787,
      "▁تفنگ": 7788,
      "انرژی": 7789,
      "▁انرژی": 7790,
      "لیزی": 7791,
      "▁لیزی": 7792,
      "خوابیده": 7793,
      "▁خوابیده": 7794,
      "تاری": 7795,
      "▁تاری": 7796,
      "هشت": 7797,
      "▁هشت": 7798,
      "اینها": 7799,
      "▁اینها": 7800,
      "زندان": 7801,
      "▁زندان": 7802,
      "ملوان": 7803,
      "▁ملوان": 7804,
      "دوستانم": 7805,
      "▁دوستانم": 7806,
      "سامی": 7807,
      "▁سامی": 7808,
      "شنیدن": 7809,
      "▁شنیدن": 7810,
      "اتاقی": 7811,
      "▁اتاقی": 7812,
      "سردرگم": 7813,
      "▁سردرگم": 7814,
      "نکنی": 7815,
      "▁نکنی": 7816,
      "لوسیون": 7817,
      "▁لوسیون": 7818,
      "معدن": 7819,
      "▁معدن": 7820,
      "هری": 7821,
      "▁هری": 7822,
      "تقویم": 7823,
      "▁تقویم": 7824,
      "کابل": 7825,
      "▁کابل": 7826,
      "زنش": 7827,
      "▁زنش": 7828,
      "نداره": 7829,
      "▁نداره": 7830,
      "خرطو": 7831,
      "▁خرطو": 7832,
      "کورن": 7833,
      "▁کورن": 7834,
      "آوا": 7835,
      "▁آوا": 7836,
      "اپرا": 7837,
      "▁اپرا": 7838,
      "شدیم": 7839,
      "▁شدیم": 7840,
      "گون": 7841,
      "▁گون": 7842,
      "دوشون": 7843,
      "▁دوشون": 7844,
      "شکو": 7845,
      "▁شکو": 7846,
      "مامانم": 7847,
      "▁مامانم": 7848,
      "تعداد": 7849,
      "▁تعداد": 7850,
      "مرطو": 7851,
      "▁مرطو": 7852,
      "رؤیا": 7853,
      "▁رؤیا": 7854,
      "مادرانشان": 7855,
      "▁مادرانشان": 7856,
      "id": 7857,
      "▁id": 7858,
      "ID": 7859,
      "▁ID": 7860,
      "Id": 7861,
      "▁Id": 7862,
      "وکیل": 7863,
      "▁وکیل": 7864,
      "oo": 7865,
      "▁oo": 7866,
      "OO": 7867,
      "▁OO": 7868,
      "Oo": 7869,
      "▁Oo": 7870,
      "آژ": 7871,
      "▁آژ": 7872,
      "آبگیر": 7873,
      "▁آبگیر": 7874,
      "شماره": 7875,
      "▁شماره": 7876,
      "دوقلوها": 7877,
      "▁دوقلوها": 7878,
      "شستن": 7879,
      "▁شستن": 7880,
      "ترسی": 7881,
      "▁ترسی": 7882,
      "بگذران": 7883,
      "▁بگذران": 7884,
      "پافش": 7885,
      "▁پافش": 7886,
      "صدمه": 7887,
      "▁صدمه": 7888,
      "نخور": 7889,
      "▁نخور": 7890,
      "مقاو": 7891,
      "▁مقاو": 7892,
      "مایک": 7893,
      "▁مایک": 7894,
      "روشنی": 7895,
      "▁روشنی": 7896,
      "وار": 7897,
      "▁وار": 7898,
      "بادبان": 7899,
      "▁بادبان": 7900,
      "جایش": 7901,
      "▁جایش": 7902,
      "میل": 7903,
      "▁میل": 7904,
      "تیزی": 7905,
      "▁تیزی": 7906,
      "موی": 7907,
      "▁موی": 7908,
      "توانایی": 7909,
      "▁توانایی": 7910,
      "مقدار": 7911,
      "▁مقدار": 7912,
      "حاض": 7913,
      "▁حاض": 7914,
      "نگاهش": 7915,
      "▁نگاهش": 7916,
      "فرستاد": 7917,
      "▁فرستاد": 7918,
      "فکری": 7919,
      "▁فکری": 7920,
      "رع": 7921,
      "▁رع": 7922,
      "چپ": 7923,
      "▁چپ": 7924,
      "یمن": 7925,
      "▁یمن": 7926,
      "بدنش": 7927,
      "▁بدنش": 7928,
      "عصبانیت": 7929,
      "▁عصبانیت": 7930,
      "مشکلات": 7931,
      "▁مشکلات": 7932,
      "چمنزار": 7933,
      "▁چمنزار": 7934,
      "شراب": 7935,
      "▁شراب": 7936,
      "فندق": 7937,
      "▁فندق": 7938,
      "پیرزن": 7939,
      "▁پیرزن": 7940,
      "ینیم": 7941,
      "▁ینیم": 7942,
      "رشته": 7943,
      "▁رشته": 7944,
      "ورا": 7945,
      "▁ورا": 7946,
      "هستن": 7947,
      "▁هستن": 7948,
      "مقاومت": 7949,
      "▁مقاومت": 7950,
      "بشود": 7951,
      "▁بشود": 7952,
      "ماندن": 7953,
      "▁ماندن": 7954,
      "نوشیدن": 7955,
      "▁نوشیدن": 7956,
      "میتونیم": 7957,
      "▁میتونیم": 7958,
      "بینه": 7959,
      "▁بینه": 7960,
      "‌‌‌‌": 7961,
      "▁‌‌‌‌": 7962,
      "شامپو": 7963,
      "▁شامپو": 7964,
      "یونجه": 7965,
      "▁یونجه": 7966,
      "حموم": 7967,
      "▁حموم": 7968,
      "پندی": 7969,
      "▁پندی": 7970,
      "مترو": 7971,
      "▁مترو": 7972,
      "رفی": 7973,
      "▁رفی": 7974,
      "ماسا": 7975,
      "▁ماسا": 7976,
      "ناشن": 7977,
      "▁ناشن": 7978,
      "مزاحم": 7979,
      "▁مزاحم": 7980,
      "لذی": 7981,
      "▁لذی": 7982,
      "عصبی": 7983,
      "▁عصبی": 7984,
      "تنبیه": 7985,
      "▁تنبیه": 7986,
      "پخته": 7987,
      "▁پخته": 7988,
      "پاکی": 7989,
      "▁پاکی": 7990,
      "بمونه": 7991,
      "▁بمونه": 7992,
      "تابلوی": 7993,
      "▁تابلوی": 7994,
      "اتاقت": 7995,
      "▁اتاقت": 7996,
      "تختخواب": 7997,
      "▁تختخواب": 7998,
      "احتیاج": 7999,
      "▁احتیاج": 8000,
      "متشکریم": 8001,
      "▁متشکریم": 8002,
      "خوشایند": 8003,
      "▁خوشایند": 8004,
      "دریانورد": 8005,
      "▁دریانورد": 8006,
      "بردارند": 8007,
      "▁بردارند": 8008,
      "لذیذ": 8009,
      "▁لذیذ": 8010,
      "اسپید": 8011,
      "▁اسپید": 8012,
      "سفری": 8013,
      "▁سفری": 8014,
      "معنای": 8015,
      "▁معنای": 8016,
      "ye": 8017,
      "▁ye": 8018,
      "YE": 8019,
      "▁YE": 8020,
      "Ye": 8021,
      "▁Ye": 8022,
      "سلول": 8023,
      "▁سلول": 8024,
      "گذر": 8025,
      "▁گذر": 8026,
      "عیت": 8027,
      "▁عیت": 8028,
      "بخار": 8029,
      "▁بخار": 8030,
      "طلسم": 8031,
      "▁طلسم": 8032,
      "مهربونی": 8033,
      "▁مهربونی": 8034,
      "گذرانده": 8035,
      "▁گذرانده": 8036,
      "بخشم": 8037,
      "▁بخشم": 8038,
      "پلاستیکی": 8039,
      "▁پلاستیکی": 8040,
      "سنجابی": 8041,
      "▁سنجابی": 8042,
      "جور": 8043,
      "▁جور": 8044,
      "فرض": 8045,
      "▁فرض": 8046,
      "دماسنج": 8047,
      "▁دماسنج": 8048,
      "بگو": 8049,
      "▁بگو": 8050,
      "دز": 8051,
      "▁دز": 8052,
      "ریز": 8053,
      "▁ریز": 8054,
      "برابر": 8055,
      "▁برابر": 8056,
      "توپم": 8057,
      "▁توپم": 8058,
      "عزیزان": 8059,
      "▁عزیزان": 8060,
      "بریدن": 8061,
      "▁بریدن": 8062,
      "سازی": 8063,
      "▁سازی": 8064,
      "درآوردند": 8065,
      "▁درآوردند": 8066,
      "بترساند": 8067,
      "▁بترساند": 8068,
      "کوبید": 8069,
      "▁کوبید": 8070,
      "بنوش": 8071,
      "▁بنوش": 8072,
      "ببرید": 8073,
      "▁ببرید": 8074,
      "بمانیم": 8075,
      "▁بمانیم": 8076,
      "برداریم": 8077,
      "▁برداریم": 8078,
      "اومده": 8079,
      "▁اومده": 8080,
      "کثیفی": 8081,
      "▁کثیفی": 8082,
      "آژیر": 8083,
      "▁آژیر": 8084,
      "تماس": 8085,
      "▁تماس": 8086,
      "واح": 8087,
      "▁واح": 8088,
      "بانش": 8089,
      "▁بانش": 8090,
      "پرهای": 8091,
      "▁پرهای": 8092,
      "ناشی": 8093,
      "▁ناشی": 8094,
      "پیچی": 8095,
      "▁پیچی": 8096,
      "بدزد": 8097,
      "▁بدزد": 8098,
      "بسکتبال": 8099,
      "▁بسکتبال": 8100,
      "میکروسکوپ": 8101,
      "▁میکروسکوپ": 8102,
      "مرطوب": 8103,
      "▁مرطوب": 8104,
      "عطر": 8105,
      "▁عطر": 8106,
      "نزن": 8107,
      "▁نزن": 8108,
      "یخی": 8109,
      "▁یخی": 8110,
      "شترمر": 8111,
      "▁شترمر": 8112,
      "بزرگسال": 8113,
      "▁بزرگسال": 8114,
      "تهیه": 8115,
      "▁تهیه": 8116,
      "گردباد": 8117,
      "▁گردباد": 8118,
      "نازک": 8119,
      "▁نازک": 8120,
      "زخمی": 8121,
      "▁زخمی": 8122,
      "لاغر": 8123,
      "▁لاغر": 8124,
      "غذاها": 8125,
      "▁غذاها": 8126,
      "نمای": 8127,
      "▁نمای": 8128,
      "جشنواره": 8129,
      "▁جشنواره": 8130,
      "آهنربا": 8131,
      "▁آهنربا": 8132,
      "حاضر": 8133,
      "▁حاضر": 8134,
      "میخوای": 8135,
      "▁میخوای": 8136,
      "بیام": 8137,
      "▁بیام": 8138,
      "سیگاری": 8139,
      "▁سیگاری": 8140,
      "لولا": 8141,
      "▁لولا": 8142,
      "نرمش": 8143,
      "▁نرمش": 8144,
      "بنزین": 8145,
      "▁بنزین": 8146,
      "بلیت": 8147,
      "▁بلیت": 8148,
      "چيز": 8149,
      "▁چيز": 8150,
      "توییت": 8151,
      "▁توییت": 8152,
      "ماساژ": 8153,
      "▁ماساژ": 8154,
      "معما": 8155,
      "▁معما": 8156,
      "حکمت": 8157,
      "▁حکمت": 8158,
      "ad": 8159,
      "▁ad": 8160,
      "AD": 8161,
      "▁AD": 8162,
      "Ad": 8163,
      "▁Ad": 8164,
      "بفرو": 8165,
      "▁بفرو": 8166,
      "فران": 8167,
      "▁فران": 8168,
      "اومدن": 8169,
      "▁اومدن": 8170,
      "شرمندگی": 8171,
      "▁شرمندگی": 8172,
      "نگهش": 8173,
      "▁نگهش": 8174,
      "بپرم": 8175,
      "▁بپرم": 8176,
      "اسپیدی": 8177,
      "▁اسپیدی": 8178,
      "شش": 8179,
      "▁شش": 8180,
      "پاشی": 8181,
      "▁پاشی": 8182,
      "فرص": 8183,
      "▁فرص": 8184,
      "طوره": 8185,
      "▁طوره": 8186,
      "جوش": 8187,
      "▁جوش": 8188,
      "خواسته": 8189,
      "▁خواسته": 8190,
      "کسانی": 8191,
      "▁کسانی": 8192,
      "بپزد": 8193,
      "▁بپزد": 8194,
      "پیکر": 8195,
      "▁پیکر": 8196,
      "ویدیو": 8197,
      "▁ویدیو": 8198,
      "میشد": 8199,
      "▁میشد": 8200,
      "توپت": 8201,
      "▁توپت": 8202,
      "خدان": 8203,
      "▁خدان": 8204,
      "هرکدام": 8205,
      "▁هرکدام": 8206,
      "بسازم": 8207,
      "▁بسازم": 8208,
      "خدانگه": 8209,
      "▁خدانگه": 8210,
      "بهبود": 8211,
      "▁بهبود": 8212,
      "زیگ": 8213,
      "▁زیگ": 8214,
      "بخورید": 8215,
      "▁بخورید": 8216,
      "سوفی": 8217,
      "▁سوفی": 8218,
      "خدانگهدار": 8219,
      "▁خدانگهدار": 8220,
      "زون": 8221,
      "▁زون": 8222,
      "بارانی": 8223,
      "▁بارانی": 8224,
      "سمتش": 8225,
      "▁سمتش": 8226,
      "فرهنگ": 8227,
      "▁فرهنگ": 8228,
      "صداهایی": 8229,
      "▁صداهایی": 8230,
      "مخروط": 8231,
      "▁مخروط": 8232,
      "واحه": 8233,
      "▁واحه": 8234,
      "جوید": 8235,
      "▁جوید": 8236,
      "یقه": 8237,
      "▁یقه": 8238,
      "ارم": 8239,
      "▁ارم": 8240,
      "اندازد": 8241,
      "▁اندازد": 8242,
      "بازویش": 8243,
      "▁بازویش": 8244,
      "آهو": 8245,
      "▁آهو": 8246,
      "نعنا": 8247,
      "▁نعنا": 8248,
      "mi": 8249,
      "▁mi": 8250,
      "MI": 8251,
      "▁MI": 8252,
      "Mi": 8253,
      "▁Mi": 8254,
      "اینطوری": 8255,
      "▁اینطوری": 8256,
      "مسئ": 8257,
      "▁مسئ": 8258,
      "بندند": 8259,
      "▁بندند": 8260,
      "شغل": 8261,
      "▁شغل": 8262,
      "بیاره": 8263,
      "▁بیاره": 8264,
      "گردم": 8265,
      "▁گردم": 8266,
      "ومد": 8267,
      "▁ومد": 8268,
      "میدم": 8269,
      "▁میدم": 8270,
      "اساس": 8271,
      "▁اساس": 8272,
      "بخونه": 8273,
      "▁بخونه": 8274,
      "شادتر": 8275,
      "▁شادتر": 8276,
      "غلات": 8277,
      "▁غلات": 8278,
      "دستگاه": 8279,
      "▁دستگاه": 8280,
      "واژ": 8281,
      "▁واژ": 8282,
      "کاه": 8283,
      "▁کاه": 8284,
      "پوستش": 8285,
      "▁پوستش": 8286,
      "دانشگاه": 8287,
      "▁دانشگاه": 8288,
      "جلسه": 8289,
      "▁جلسه": 8290,
      "شترمرغ": 8291,
      "▁شترمرغ": 8292,
      "الکس": 8293,
      "▁الکس": 8294,
      "نقلیه": 8295,
      "▁نقلیه": 8296,
      "کوکو": 8297,
      "▁کوکو": 8298,
      "مدل": 8299,
      "▁مدل": 8300,
      "ایستادند": 8301,
      "▁ایستادند": 8302,
      "بپیوندد": 8303,
      "▁بپیوندد": 8304,
      "خرم": 8305,
      "▁خرم": 8306,
      "برگردوند": 8307,
      "▁برگردوند": 8308,
      "گریس": 8309,
      "▁گریس": 8310,
      "آزمایشگاه": 8311,
      "▁آزمایشگاه": 8312,
      "پاکیزه": 8313,
      "▁پاکیزه": 8314,
      "داشتی": 8315,
      "▁داشتی": 8316,
      "والدینشان": 8317,
      "▁والدینشان": 8318,
      "بيرون": 8319,
      "▁بيرون": 8320,
      "اکسی": 8321,
      "▁اکسی": 8322,
      "لام": 8323,
      "▁لام": 8324,
      "غیرم": 8325,
      "▁غیرم": 8326,
      "آمیزی": 8327,
      "▁آمیزی": 8328,
      "کلاهی": 8329,
      "▁کلاهی": 8330,
      "آزار": 8331,
      "▁آزار": 8332,
      "مکانیک": 8333,
      "▁مکانیک": 8334,
      "حسود": 8335,
      "▁حسود": 8336,
      "کارهایی": 8337,
      "▁کارهایی": 8338,
      "معنی": 8339,
      "▁معنی": 8340,
      "فروتن": 8341,
      "▁فروتن": 8342,
      "علی": 8343,
      "▁علی": 8344,
      "نماد": 8345,
      "▁نماد": 8346,
      "رویی": 8347,
      "▁رویی": 8348,
      "گرفتم": 8349,
      "▁گرفتم": 8350,
      "یادت": 8351,
      "▁یادت": 8352,
      "سریعا": 8353,
      "▁سریعا": 8354,
      "or": 8355,
      "▁or": 8356,
      "OR": 8357,
      "▁OR": 8358,
      "Or": 8359,
      "▁Or": 8360,
      "بگردند": 8361,
      "▁بگردند": 8362,
      "تزی": 8363,
      "▁تزی": 8364,
      "اطاعت": 8365,
      "▁اطاعت": 8366,
      "كن": 8367,
      "▁كن": 8368,
      "میخوام": 8369,
      "▁میخوام": 8370,
      "آوازهای": 8371,
      "▁آوازهای": 8372,
      "آموزش": 8373,
      "▁آموزش": 8374,
      "پناهگاه": 8375,
      "▁پناهگاه": 8376,
      "ورزشگاه": 8377,
      "▁ورزشگاه": 8378,
      "er": 8379,
      "▁er": 8380,
      "ER": 8381,
      "▁ER": 8382,
      "Er": 8383,
      "▁Er": 8384,
      "نداری": 8385,
      "▁نداری": 8386,
      "میکنی": 8387,
      "▁میکنی": 8388,
      "اینجاست": 8389,
      "▁اینجاست": 8390,
      "ماهیگیر": 8391,
      "▁ماهیگیر": 8392,
      "زانوی": 8393,
      "▁زانوی": 8394,
      "بنشینند": 8395,
      "▁بنشینند": 8396,
      "وظ": 8397,
      "▁وظ": 8398,
      "جوری": 8399,
      "▁جوری": 8400,
      "شفاف": 8401,
      "▁شفاف": 8402,
      "سلا": 8403,
      "▁سلا": 8404,
      "بهار": 8405,
      "▁بهار": 8406,
      "اونم": 8407,
      "▁اونم": 8408,
      "منظم": 8409,
      "▁منظم": 8410,
      "تعظیم": 8411,
      "▁تعظیم": 8412,
      "بشوی": 8413,
      "▁بشوی": 8414,
      "شجاعی": 8415,
      "▁شجاعی": 8416,
      "بکشیم": 8417,
      "▁بکشیم": 8418,
      "قراره": 8419,
      "▁قراره": 8420,
      "عزیزانم": 8421,
      "▁عزیزانم": 8422,
      "بدانند": 8423,
      "▁بدانند": 8424,
      "تد": 8425,
      "▁تد": 8426,
      "روبی": 8427,
      "▁روبی": 8428,
      "سوزاند": 8429,
      "▁سوزاند": 8430,
      "لاستیکی": 8431,
      "▁لاستیکی": 8432,
      "چطوره": 8433,
      "▁چطوره": 8434,
      "کدوی": 8435,
      "▁کدوی": 8436,
      "کندن": 8437,
      "▁کندن": 8438,
      "کندو": 8439,
      "▁کندو": 8440,
      "رویای": 8441,
      "▁رویای": 8442,
      "شماست": 8443,
      "▁شماست": 8444,
      "معلمش": 8445,
      "▁معلمش": 8446,
      "نیفتاد": 8447,
      "▁نیفتاد": 8448,
      "کانگورو": 8449,
      "▁کانگورو": 8450,
      "رعایت": 8451,
      "▁رعایت": 8452,
      "بکنی": 8453,
      "▁بکنی": 8454,
      "قامت": 8455,
      "▁قامت": 8456,
      "ژله": 8457,
      "▁ژله": 8458,
      "داشتیم": 8459,
      "▁داشتیم": 8460,
      "اینو": 8461,
      "▁اینو": 8462,
      "ابرقهرمان": 8463,
      "▁ابرقهرمان": 8464,
      "لغت": 8465,
      "▁لغت": 8466,
      "راستگو": 8467,
      "▁راستگو": 8468,
      "th": 8469,
      "▁th": 8470,
      "TH": 8471,
      "▁TH": 8472,
      "Th": 8473,
      "▁Th": 8474,
      "غلی": 8475,
      "▁غلی": 8476,
      "مدو": 8477,
      "▁مدو": 8478,
      "توئه": 8479,
      "▁توئه": 8480,
      "اسمی": 8481,
      "▁اسمی": 8482,
      "برگشته": 8483,
      "▁برگشته": 8484,
      "تیک": 8485,
      "▁تیک": 8486,
      "وادار": 8487,
      "▁وادار": 8488,
      "ملای": 8489,
      "▁ملای": 8490,
      "چنگالش": 8491,
      "▁چنگالش": 8492,
      "وونا": 8493,
      "▁وونا": 8494,
      "واژگون": 8495,
      "▁واژگون": 8496,
      "زبرا": 8497,
      "▁زبرا": 8498,
      "احساسات": 8499,
      "▁احساسات": 8500,
      "گهواره": 8501,
      "▁گهواره": 8502,
      "خرسی": 8503,
      "▁خرسی": 8504,
      "بیایم": 8505,
      "▁بیایم": 8506,
      "نداریم": 8507,
      "▁نداریم": 8508,
      "زبر": 8509,
      "▁زبر": 8510,
      "غبار": 8511,
      "▁غبار": 8512,
      "دادید": 8513,
      "▁دادید": 8514,
      "دوم": 8515,
      "▁دوم": 8516,
      "ناها": 8517,
      "▁ناها": 8518,
      "مخال": 8519,
      "▁مخال": 8520,
      "بخوانیم": 8521,
      "▁بخوانیم": 8522,
      "كمك": 8523,
      "▁كمك": 8524,
      "روي": 8525,
      "▁روي": 8526,
      "گواه": 8527,
      "▁گواه": 8528,
      "حیوونا": 8529,
      "▁حیوونا": 8530,
      "کاپ": 8531,
      "▁کاپ": 8532,
      "پاشیدن": 8533,
      "▁پاشیدن": 8534,
      "سکو": 8535,
      "▁سکو": 8536,
      "لى": 8537,
      "▁لى": 8538,
      "میتونه": 8539,
      "▁میتونه": 8540,
      "مستقیم": 8541,
      "▁مستقیم": 8542,
      "اصلاح": 8543,
      "▁اصلاح": 8544,
      "تاریخ": 8545,
      "▁تاریخ": 8546,
      "یز": 8547,
      "▁یز": 8548,
      "برایم": 8549,
      "▁برایم": 8550,
      "چارلی": 8551,
      "▁چارلی": 8552,
      "بچر": 8553,
      "▁بچر": 8554,
      "بشوید": 8555,
      "▁بشوید": 8556,
      "وازه": 8557,
      "▁وازه": 8558,
      "اسپری": 8559,
      "▁اسپری": 8560,
      "شهری": 8561,
      "▁شهری": 8562,
      "جادوی": 8563,
      "▁جادوی": 8564,
      "پستچی": 8565,
      "▁پستچی": 8566,
      "رنج": 8567,
      "▁رنج": 8568,
      "لنگ": 8569,
      "▁لنگ": 8570,
      "رابی": 8571,
      "▁رابی": 8572,
      "روید": 8573,
      "▁روید": 8574,
      "نشیمن": 8575,
      "▁نشیمن": 8576,
      "پاشیدند": 8577,
      "▁پاشیدند": 8578,
      "ایگلو": 8579,
      "▁ایگلو": 8580,
      "kh": 8581,
      "▁kh": 8582,
      "KH": 8583,
      "▁KH": 8584,
      "Kh": 8585,
      "▁Kh": 8586,
      "انند": 8587,
      "▁انند": 8588,
      "جابه": 8589,
      "▁جابه": 8590,
      "نشی": 8591,
      "▁نشی": 8592,
      "توالت": 8593,
      "▁توالت": 8594,
      "تاک": 8595,
      "▁تاک": 8596,
      "شبکه": 8597,
      "▁شبکه": 8598,
      "موجودات": 8599,
      "▁موجودات": 8600,
      "ke": 8601,
      "▁ke": 8602,
      "KE": 8603,
      "▁KE": 8604,
      "Ke": 8605,
      "▁Ke": 8606,
      "بتونیم": 8607,
      "▁بتونیم": 8608,
      "استش": 8609,
      "▁استش": 8610,
      "سرزنده": 8611,
      "▁سرزنده": 8612,
      "باهاشون": 8613,
      "▁باهاشون": 8614,
      "ترسیدن": 8615,
      "▁ترسیدن": 8616,
      "استشمام": 8617,
      "▁استشمام": 8618,
      "ياد": 8619,
      "▁ياد": 8620,
      "گلوله": 8621,
      "▁گلوله": 8622,
      "ریق": 8623,
      "▁ریق": 8624,
      "تونستن": 8625,
      "▁تونستن": 8626,
      "بدوه": 8627,
      "▁بدوه": 8628,
      "le": 8629,
      "▁le": 8630,
      "LE": 8631,
      "▁LE": 8632,
      "Le": 8633,
      "▁Le": 8634,
      "نامش": 8635,
      "▁نامش": 8636,
      "نمي": 8637,
      "▁نمي": 8638,
      "قلاده": 8639,
      "▁قلاده": 8640,
      "كوچك": 8641,
      "▁كوچك": 8642,
      "بکنم": 8643,
      "▁بکنم": 8644,
      "محض": 8645,
      "▁محض": 8646,
      "لباسی": 8647,
      "▁لباسی": 8648,
      "ملت": 8649,
      "▁ملت": 8650,
      "چشید": 8651,
      "▁چشید": 8652,
      "چسبنا": 8653,
      "▁چسبنا": 8654,
      "کده": 8655,
      "▁کده": 8656,
      "سرزنش": 8657,
      "▁سرزنش": 8658,
      "خلاقانه": 8659,
      "▁خلاقانه": 8660,
      "هدایت": 8661,
      "▁هدایت": 8662,
      "اکسیژ": 8663,
      "▁اکسیژ": 8664,
      "ایکس": 8665,
      "▁ایکس": 8666,
      "يا": 8667,
      "▁يا": 8668,
      "دزدان": 8669,
      "▁دزدان": 8670,
      "بردارم": 8671,
      "▁بردارم": 8672,
      "گذرنامه": 8673,
      "▁گذرنامه": 8674,
      "مرو": 8675,
      "▁مرو": 8676,
      "کنتر": 8677,
      "▁کنتر": 8678,
      "سورپرا": 8679,
      "▁سورپرا": 8680,
      "کایاک": 8681,
      "▁کایاک": 8682,
      "بگویند": 8683,
      "▁بگویند": 8684,
      "وری": 8685,
      "▁وری": 8686,
      "قوط": 8687,
      "▁قوط": 8688,
      "سقوط": 8689,
      "▁سقوط": 8690,
      "مرت": 8691,
      "▁مرت": 8692,
      "گنجینه": 8693,
      "▁گنجینه": 8694,
      "درحالیکه": 8695,
      "▁درحالیکه": 8696,
      "ویولن": 8697,
      "▁ویولن": 8698,
      "بايد": 8699,
      "▁بايد": 8700,
      "شمارش": 8701,
      "▁شمارش": 8702,
      "زیرسیگاری": 8703,
      "▁زیرسیگاری": 8704,
      "نفسش": 8705,
      "▁نفسش": 8706,
      "بپوشه": 8707,
      "▁بپوشه": 8708,
      "بگردیم": 8709,
      "▁بگردیم": 8710,
      "براقی": 8711,
      "▁براقی": 8712,
      "سون": 8713,
      "▁سون": 8714,
      "دهنش": 8715,
      "▁دهنش": 8716,
      "ماشینی": 8717,
      "▁ماشینی": 8718,
      "ملخ": 8719,
      "▁ملخ": 8720,
      "ماشين": 8721,
      "▁ماشين": 8722,
      "پرونده": 8723,
      "▁پرونده": 8724,
      "سالن": 8725,
      "▁سالن": 8726,
      "پیتز": 8727,
      "▁پیتز": 8728,
      "چهارشنبه": 8729,
      "▁چهارشنبه": 8730,
      "میکردن": 8731,
      "▁میکردن": 8732,
      "دهکده": 8733,
      "▁دهکده": 8734,
      "برداره": 8735,
      "▁برداره": 8736,
      "رازآلود": 8737,
      "▁رازآلود": 8738,
      "ميا": 8739,
      "▁ميا": 8740,
      "متأسفیم": 8741,
      "▁متأسفیم": 8742,
      "رقا": 8743,
      "▁رقا": 8744,
      "متر": 8745,
      "▁متر": 8746,
      "نرفت": 8747,
      "▁نرفت": 8748,
      "وروم": 8749,
      "▁وروم": 8750,
      "يشه": 8751,
      "▁يشه": 8752,
      "کتش": 8753,
      "▁کتش": 8754,
      "الگو": 8755,
      "▁الگو": 8756,
      "گرمای": 8757,
      "▁گرمای": 8758,
      "کنترل": 8759,
      "▁کنترل": 8760,
      "حری": 8761,
      "▁حری": 8762,
      "میرفت": 8763,
      "▁میرفت": 8764,
      "میدان": 8765,
      "▁میدان": 8766,
      "ریزد": 8767,
      "▁ریزد": 8768,
      "شلوغ": 8769,
      "▁شلوغ": 8770,
      "اثر": 8771,
      "▁اثر": 8772,
      "ملایمت": 8773,
      "▁ملایمت": 8774,
      "بدر": 8775,
      "▁بدر": 8776,
      "ببخشد": 8777,
      "▁ببخشد": 8778,
      "تگ": 8779,
      "▁تگ": 8780,
      "سؤ": 8781,
      "▁سؤ": 8782,
      "کنان": 8783,
      "▁کنان": 8784,
      "پرین": 8785,
      "▁پرین": 8786,
      "نبوده": 8787,
      "▁نبوده": 8788,
      "واقع": 8789,
      "▁واقع": 8790,
      "غذایشان": 8791,
      "▁غذایشان": 8792,
      "شمردند": 8793,
      "▁شمردند": 8794,
      "ذوب": 8795,
      "▁ذوب": 8796,
      "سرو": 8797,
      "▁سرو": 8798,
      "هام": 8799,
      "▁هام": 8800,
      "خورم": 8801,
      "▁خورم": 8802,
      "کیست": 8803,
      "▁کیست": 8804,
      "گوشی": 8805,
      "▁گوشی": 8806,
      "فینی": 8807,
      "▁فینی": 8808,
      "درخشیدن": 8809,
      "▁درخشیدن": 8810,
      "بشمارد": 8811,
      "▁بشمارد": 8812,
      "پالتوی": 8813,
      "▁پالتوی": 8814,
      "مقاب": 8815,
      "▁مقاب": 8816,
      "غلتاند": 8817,
      "▁غلتاند": 8818,
      "پور": 8819,
      "▁پور": 8820,
      "كوچولو": 8821,
      "▁كوچولو": 8822,
      "برگرداندند": 8823,
      "▁برگرداندند": 8824,
      "خوانند": 8825,
      "▁خوانند": 8826,
      "نتی": 8827,
      "▁نتی": 8828,
      "ینامه": 8829,
      "▁ینامه": 8830,
      "بکشم": 8831,
      "▁بکشم": 8832,
      "گواهینامه": 8833,
      "▁گواهینامه": 8834,
      "زنم": 8835,
      "▁زنم": 8836,
      "طوق": 8837,
      "▁طوق": 8838,
      "براند": 8839,
      "▁براند": 8840,
      "هربار": 8841,
      "▁هربار": 8842,
      "رویش": 8843,
      "▁رویش": 8844,
      "دورتر": 8845,
      "▁دورتر": 8846,
      "حي": 8847,
      "▁حي": 8848,
      "سبیل": 8849,
      "▁سبیل": 8850,
      "فول": 8851,
      "▁فول": 8852,
      "فیفی": 8853,
      "▁فیفی": 8854,
      "بسي": 8855,
      "▁بسي": 8856,
      "یفه": 8857,
      "▁یفه": 8858,
      "پولش": 8859,
      "▁پولش": 8860,
      "دزدی": 8861,
      "▁دزدی": 8862,
      "عض": 8863,
      "▁عض": 8864,
      "مادرهایشان": 8865,
      "▁مادرهایشان": 8866,
      "جهان": 8867,
      "▁جهان": 8868,
      "مقوایی": 8869,
      "▁مقوایی": 8870,
      "گاوها": 8871,
      "▁گاوها": 8872,
      "بدزدد": 8873,
      "▁بدزدد": 8874,
      "ارید": 8875,
      "▁ارید": 8876,
      "کشور": 8877,
      "▁کشور": 8878,
      "چشماش": 8879,
      "▁چشماش": 8880,
      "شستند": 8881,
      "▁شستند": 8882,
      "سندی": 8883,
      "▁سندی": 8884,
      "میتوانم": 8885,
      "▁میتوانم": 8886,
      "رانه": 8887,
      "▁رانه": 8888,
      "همدیگه": 8889,
      "▁همدیگه": 8890,
      "غرق": 8891,
      "▁غرق": 8892,
      "اکسیژن": 8893,
      "▁اکسیژن": 8894,
      "تای": 8895,
      "▁تای": 8896,
      "ملی": 8897,
      "▁ملی": 8898,
      "هي": 8899,
      "▁هي": 8900,
      "یخت": 8901,
      "▁یخت": 8902,
      "موزی": 8903,
      "▁موزی": 8904,
      "تمیزش": 8905,
      "▁تمیزش": 8906,
      "شگفتی": 8907,
      "▁شگفتی": 8908,
      "غلتیدن": 8909,
      "▁غلتیدن": 8910,
      "جوانی": 8911,
      "▁جوانی": 8912,
      "دمید": 8913,
      "▁دمید": 8914,
      "روبات": 8915,
      "▁روبات": 8916,
      "بهتره": 8917,
      "▁بهتره": 8918,
      "معروف": 8919,
      "▁معروف": 8920,
      "کابوس": 8921,
      "▁کابوس": 8922,
      "فریب": 8923,
      "▁فریب": 8924,
      "چاقوی": 8925,
      "▁چاقوی": 8926,
      "آلوچه": 8927,
      "▁آلوچه": 8928,
      "زنه": 8929,
      "▁زنه": 8930,
      "نص": 8931,
      "▁نص": 8932,
      "جهش": 8933,
      "▁جهش": 8934,
      "گردی": 8935,
      "▁گردی": 8936,
      "چسبناک": 8937,
      "▁چسبناک": 8938,
      "نبات": 8939,
      "▁نبات": 8940,
      "سیل": 8941,
      "▁سیل": 8942,
      "دادیم": 8943,
      "▁دادیم": 8944,
      "اشعه": 8945,
      "▁اشعه": 8946,
      "دوستانمان": 8947,
      "▁دوستانمان": 8948,
      "بازیک": 8949,
      "▁بازیک": 8950,
      "حلزون": 8951,
      "▁حلزون": 8952,
      "چسبیده": 8953,
      "▁چسبیده": 8954,
      "حکیم": 8955,
      "▁حکیم": 8956,
      "عتش": 8957,
      "▁عتش": 8958,
      "فیک": 8959,
      "▁فیک": 8960,
      "ناکه": 8961,
      "▁ناکه": 8962,
      "ماشینت": 8963,
      "▁ماشینت": 8964,
      "صلح": 8965,
      "▁صلح": 8966,
      "شتاب": 8967,
      "▁شتاب": 8968,
      "بخرم": 8969,
      "▁بخرم": 8970,
      "صفحات": 8971,
      "▁صفحات": 8972,
      "پهناور": 8973,
      "▁پهناور": 8974,
      "te": 8975,
      "▁te": 8976,
      "TE": 8977,
      "▁TE": 8978,
      "Te": 8979,
      "▁Te": 8980,
      "تربچه": 8981,
      "▁تربچه": 8982,
      "بخوانم": 8983,
      "▁بخوانم": 8984,
      "مسیری": 8985,
      "▁مسیری": 8986,
      "بسيار": 8987,
      "▁بسيار": 8988,
      "کک": 8989,
      "▁کک": 8990,
      "انم": 8991,
      "▁انم": 8992,
      "نشو": 8993,
      "▁نشو": 8994,
      "آنقدرها": 8995,
      "▁آنقدرها": 8996,
      "ard": 8997,
      "▁ard": 8998,
      "ARD": 8999,
      "▁ARD": 9000,
      "Ard": 9001,
      "▁Ard": 9002,
      "خوندن": 9003,
      "▁خوندن": 9004,
      "خنکی": 9005,
      "▁خنکی": 9006,
      "بفروشد": 9007,
      "▁بفروشد": 9008,
      "برسه": 9009,
      "▁برسه": 9010,
      "برگه": 9011,
      "▁برگه": 9012,
      "خردمندی": 9013,
      "▁خردمندی": 9014,
      "ثقی": 9015,
      "▁ثقی": 9016,
      "خروس": 9017,
      "▁خروس": 9018,
      "نرفته": 9019,
      "▁نرفته": 9020,
      "واگن": 9021,
      "▁واگن": 9022,
      "پرپشت": 9023,
      "▁پرپشت": 9024,
      "بازى": 9025,
      "▁بازى": 9026,
      "پیروزی": 9027,
      "▁پیروزی": 9028,
      "جرثقی": 9029,
      "▁جرثقی": 9030,
      "بذاره": 9031,
      "▁بذاره": 9032,
      "تفاو": 9033,
      "▁تفاو": 9034,
      "سفت": 9035,
      "▁سفت": 9036,
      "زیرشیروانی": 9037,
      "▁زیرشیروانی": 9038,
      "هنری": 9039,
      "▁هنری": 9040,
      "منی": 9041,
      "▁منی": 9042,
      "عمویش": 9043,
      "▁عمویش": 9044,
      "باهم": 9045,
      "▁باهم": 9046,
      "ردیف": 9047,
      "▁ردیف": 9048,
      "لوبیای": 9049,
      "▁لوبیای": 9050,
      "شیپور": 9051,
      "▁شیپور": 9052,
      "دنیاست": 9053,
      "▁دنیاست": 9054,
      "مجد": 9055,
      "▁مجد": 9056,
      "جرثقیل": 9057,
      "▁جرثقیل": 9058,
      "بخنداند": 9059,
      "▁بخنداند": 9060,
      "ازت": 9061,
      "▁ازت": 9062,
      "تندی": 9063,
      "▁تندی": 9064,
      "أت": 9065,
      "▁أت": 9066,
      "دمت": 9067,
      "▁دمت": 9068,
      "رویم": 9069,
      "▁رویم": 9070,
      "صداها": 9071,
      "▁صداها": 9072,
      "دوسش": 9073,
      "▁دوسش": 9074,
      "ناشناس": 9075,
      "▁ناشناس": 9076,
      "کمکی": 9077,
      "▁کمکی": 9078,
      "سرت": 9079,
      "▁سرت": 9080,
      "بازم": 9081,
      "▁بازم": 9082,
      "پنهانی": 9083,
      "▁پنهانی": 9084,
      "لامپ": 9085,
      "▁لامپ": 9086,
      "نشیند": 9087,
      "▁نشیند": 9088,
      "آزرد": 9089,
      "▁آزرد": 9090,
      "طریق": 9091,
      "▁طریق": 9092,
      "نما": 9093,
      "▁نما": 9094,
      "مانع": 9095,
      "▁مانع": 9096,
      "دعوای": 9097,
      "▁دعوای": 9098,
      "کامیونش": 9099,
      "▁کامیونش": 9100,
      "ناشنوا": 9101,
      "▁ناشنوا": 9102,
      "im": 9103,
      "▁im": 9104,
      "IM": 9105,
      "▁IM": 9106,
      "Im": 9107,
      "▁Im": 9108,
      "نگرفت": 9109,
      "▁نگرفت": 9110,
      "بیپ": 9111,
      "▁بیپ": 9112,
      "متحیر": 9113,
      "▁متحیر": 9114,
      "دستور": 9115,
      "▁دستور": 9116,
      "شکلی": 9117,
      "▁شکلی": 9118,
      "جعلی": 9119,
      "▁جعلی": 9120,
      "پادشاهی": 9121,
      "▁پادشاهی": 9122,
      "معرفی": 9123,
      "▁معرفی": 9124,
      "ترافیک": 9125,
      "▁ترافیک": 9126,
      "آینده": 9127,
      "▁آینده": 9128,
      "میده": 9129,
      "▁میده": 9130,
      "سفرش": 9131,
      "▁سفرش": 9132,
      "بگوی": 9133,
      "▁بگوی": 9134,
      "بپیچ": 9135,
      "▁بپیچ": 9136,
      "لاله": 9137,
      "▁لاله": 9138,
      "اوی": 9139,
      "▁اوی": 9140,
      "دربیاورد": 9141,
      "▁دربیاورد": 9142,
      "افتند": 9143,
      "▁افتند": 9144,
      "شکستن": 9145,
      "▁شکستن": 9146,
      "مأ": 9147,
      "▁مأ": 9148,
      "زیست": 9149,
      "▁زیست": 9150,
      "قدرتش": 9151,
      "▁قدرتش": 9152,
      "جلوگیری": 9153,
      "▁جلوگیری": 9154,
      "شقایق": 9155,
      "▁شقایق": 9156,
      "نصف": 9157,
      "▁نصف": 9158,
      "هاپی": 9159,
      "▁هاپی": 9160,
      "دفعه": 9161,
      "▁دفعه": 9162,
      "سلاح": 9163,
      "▁سلاح": 9164,
      "مگی": 9165,
      "▁مگی": 9166,
      "زمستان": 9167,
      "▁زمستان": 9168,
      "فرصت": 9169,
      "▁فرصت": 9170,
      "تأسف": 9171,
      "▁تأسف": 9172,
      "والی": 9173,
      "▁والی": 9174,
      "زاگ": 9175,
      "▁زاگ": 9176,
      "جرأت": 9177,
      "▁جرأت": 9178,
      "پیراهنش": 9179,
      "▁پیراهنش": 9180,
      "تخیلی": 9181,
      "▁تخیلی": 9182,
      "انباری": 9183,
      "▁انباری": 9184,
      "پدربزرگش": 9185,
      "▁پدربزرگش": 9186,
      "مضح": 9187,
      "▁مضح": 9188,
      "چسبی": 9189,
      "▁چسبی": 9190,
      "بپرسد": 9191,
      "▁بپرسد": 9192,
      "تیلی": 9193,
      "▁تیلی": 9194,
      "برایتان": 9195,
      "▁برایتان": 9196,
      "عاقل": 9197,
      "▁عاقل": 9198,
      "انگشتان": 9199,
      "▁انگشتان": 9200,
      "رؤی": 9201,
      "▁رؤی": 9202,
      "حو": 9203,
      "▁حو": 9204,
      "حبس": 9205,
      "▁حبس": 9206,
      "كنند": 9207,
      "▁كنند": 9208,
      "نترسیده": 9209,
      "▁نترسیده": 9210,
      "میتن": 9211,
      "▁میتن": 9212,
      "گذران": 9213,
      "▁گذران": 9214,
      "متنفرم": 9215,
      "▁متنفرم": 9216,
      "نیمکتی": 9217,
      "▁نیمکتی": 9218,
      "آزادی": 9219,
      "▁آزادی": 9220,
      "نوشیدند": 9221,
      "▁نوشیدند": 9222,
      "كر": 9223,
      "▁كر": 9224,
      "بافت": 9225,
      "▁بافت": 9226,
      "خشم": 9227,
      "▁خشم": 9228,
      "تصاویری": 9229,
      "▁تصاویری": 9230,
      "گریان": 9231,
      "▁گریان": 9232,
      "ریتم": 9233,
      "▁ریتم": 9234,
      "افق": 9235,
      "▁افق": 9236,
      "فروشی": 9237,
      "▁فروشی": 9238,
      "جیمز": 9239,
      "▁جیمز": 9240,
      "سورپرایز": 9241,
      "▁سورپرایز": 9242,
      "صفر": 9243,
      "▁صفر": 9244,
      "فتگی": 9245,
      "▁فتگی": 9246,
      "سانی": 9247,
      "▁سانی": 9248,
      "هميشه": 9249,
      "▁هميشه": 9250,
      "مجاز": 9251,
      "▁مجاز": 9252,
      "زوزه": 9253,
      "▁زوزه": 9254,
      "بکنه": 9255,
      "▁بکنه": 9256,
      "ندو": 9257,
      "▁ندو": 9258,
      "روسی": 9259,
      "▁روسی": 9260,
      "بودیم": 9261,
      "▁بودیم": 9262,
      "اندوه": 9263,
      "▁اندوه": 9264,
      "پیپ": 9265,
      "▁پیپ": 9266,
      "نیمه": 9267,
      "▁نیمه": 9268,
      "زيبا": 9269,
      "▁زيبا": 9270,
      "سوالات": 9271,
      "▁سوالات": 9272,
      "آجیل": 9273,
      "▁آجیل": 9274,
      "مبه": 9275,
      "▁مبه": 9276,
      "چرخش": 9277,
      "▁چرخش": 9278,
      "پیچیده": 9279,
      "▁پیچیده": 9280,
      "تقلبی": 9281,
      "▁تقلبی": 9282,
      "طه": 9283,
      "▁طه": 9284,
      "عروسی": 9285,
      "▁عروسی": 9286,
      "ترمیم": 9287,
      "▁ترمیم": 9288,
      "یاق": 9289,
      "▁یاق": 9290,
      "فاع": 9291,
      "▁فاع": 9292,
      "همراهش": 9293,
      "▁همراهش": 9294,
      "ترکید": 9295,
      "▁ترکید": 9296,
      "مبارزه": 9297,
      "▁مبارزه": 9298,
      "غش": 9299,
      "▁غش": 9300,
      "کوچکتر": 9301,
      "▁کوچکتر": 9302,
      "محله": 9303,
      "▁محله": 9304,
      "غاله": 9305,
      "▁غاله": 9306,
      "بکشه": 9307,
      "▁بکشه": 9308,
      "بمون": 9309,
      "▁بمون": 9310,
      "تره": 9311,
      "▁تره": 9312,
      "منجر": 9313,
      "▁منجر": 9314,
      "نداشته": 9315,
      "▁نداشته": 9316,
      "دوستاشون": 9317,
      "▁دوستاشون": 9318,
      "تشویقش": 9319,
      "▁تشویقش": 9320,
      "en": 9321,
      "▁en": 9322,
      "EN": 9323,
      "▁EN": 9324,
      "En": 9325,
      "▁En": 9326,
      "زخم": 9327,
      "▁زخم": 9328,
      "هامون": 9329,
      "▁هامون": 9330,
      "خوشگلی": 9331,
      "▁خوشگلی": 9332,
      "بوم": 9333,
      "▁بوم": 9334,
      "خرسش": 9335,
      "▁خرسش": 9336,
      "چندین": 9337,
      "▁چندین": 9338,
      "تزئینات": 9339,
      "▁تزئینات": 9340,
      "بگذرانیم": 9341,
      "▁بگذرانیم": 9342,
      "توتو": 9343,
      "▁توتو": 9344,
      "کوب": 9345,
      "▁کوب": 9346,
      "باشک": 9347,
      "▁باشک": 9348,
      "بشنوند": 9349,
      "▁بشنوند": 9350,
      "سي": 9351,
      "▁سي": 9352,
      "بزغاله": 9353,
      "▁بزغاله": 9354,
      "تابستان": 9355,
      "▁تابستان": 9356,
      "آشفتگی": 9357,
      "▁آشفتگی": 9358,
      "کاملی": 9359,
      "▁کاملی": 9360,
      "یونی": 9361,
      "▁یونی": 9362,
      "فصل": 9363,
      "▁فصل": 9364,
      "نیروی": 9365,
      "▁نیروی": 9366,
      "مامور": 9367,
      "▁مامور": 9368,
      "وقتش": 9369,
      "▁وقتش": 9370,
      "ورز": 9371,
      "▁ورز": 9372,
      "تولدت": 9373,
      "▁تولدت": 9374,
      "بپریم": 9375,
      "▁بپریم": 9376,
      "بپوشی": 9377,
      "▁بپوشی": 9378,
      "وزیدن": 9379,
      "▁وزیدن": 9380,
      "ra": 9381,
      "▁ra": 9382,
      "RA": 9383,
      "▁RA": 9384,
      "Ra": 9385,
      "▁Ra": 9386,
      "بجود": 9387,
      "▁بجود": 9388,
      "روزشان": 9389,
      "▁روزشان": 9390,
      "خودخواهی": 9391,
      "▁خودخواهی": 9392,
      "آشغال": 9393,
      "▁آشغال": 9394,
      "ليلی": 9395,
      "▁ليلی": 9396,
      "سؤال": 9397,
      "▁سؤال": 9398,
      "سازه": 9399,
      "▁سازه": 9400,
      "نصی": 9401,
      "▁نصی": 9402,
      "یکشنبه": 9403,
      "▁یکشنبه": 9404,
      "رفه": 9405,
      "▁رفه": 9406,
      "راهرو": 9407,
      "▁راهرو": 9408,
      "هیچکس": 9409,
      "▁هیچکس": 9410,
      "سنگینی": 9411,
      "▁سنگینی": 9412,
      "اضطراب": 9413,
      "▁اضطراب": 9414,
      "بترس": 9415,
      "▁بترس": 9416,
      "قالی": 9417,
      "▁قالی": 9418,
      "قطعا": 9419,
      "▁قطعا": 9420,
      "معمو": 9421,
      "▁معمو": 9422,
      "طرفش": 9423,
      "▁طرفش": 9424,
      "دلم": 9425,
      "▁دلم": 9426,
      "بخندد": 9427,
      "▁بخندد": 9428,
      "دنده": 9429,
      "▁دنده": 9430,
      "مسو": 9431,
      "▁مسو": 9432,
      "روبنده": 9433,
      "▁روبنده": 9434,
      "لیسد": 9435,
      "▁لیسد": 9436,
      "دوش": 9437,
      "▁دوش": 9438,
      "مروارید": 9439,
      "▁مروارید": 9440,
      "قیمتی": 9441,
      "▁قیمتی": 9442,
      "وظیفه": 9443,
      "▁وظیفه": 9444,
      "om": 9445,
      "▁om": 9446,
      "OM": 9447,
      "▁OM": 9448,
      "Om": 9449,
      "▁Om": 9450,
      "پرسند": 9451,
      "▁پرسند": 9452,
      "جديد": 9453,
      "▁جديد": 9454,
      "اینجام": 9455,
      "▁اینجام": 9456,
      "ریش": 9457,
      "▁ریش": 9458,
      "حیوانی": 9459,
      "▁حیوانی": 9460,
      "دستشویی": 9461,
      "▁دستشویی": 9462,
      "جوا": 9463,
      "▁جوا": 9464,
      "کیه": 9465,
      "▁کیه": 9466,
      "سرک": 9467,
      "▁سرک": 9468,
      "گذراندن": 9469,
      "▁گذراندن": 9470,
      "بزنید": 9471,
      "▁بزنید": 9472,
      "مبهوت": 9473,
      "▁مبهوت": 9474,
      "خدمت": 9475,
      "▁خدمت": 9476,
      "کانی": 9477,
      "▁کانی": 9478,
      "خوشحالانه": 9479,
      "▁خوشحالانه": 9480,
      "دیروز": 9481,
      "▁دیروز": 9482,
      "درخشد": 9483,
      "▁درخشد": 9484,
      "نمایی": 9485,
      "▁نمایی": 9486,
      "دردناک": 9487,
      "▁دردناک": 9488,
      "آلات": 9489,
      "▁آلات": 9490,
      "شلاق": 9491,
      "▁شلاق": 9492,
      "کری": 9493,
      "▁کری": 9494,
      "همسرش": 9495,
      "▁همسرش": 9496,
      "برانگی": 9497,
      "▁برانگی": 9498,
      "کمکشان": 9499,
      "▁کمکشان": 9500,
      "دانید": 9501,
      "▁دانید": 9502,
      "بخوابه": 9503,
      "▁بخوابه": 9504,
      "آغاز": 9505,
      "▁آغاز": 9506,
      "خروج": 9507,
      "▁خروج": 9508,
      "بدرفت": 9509,
      "▁بدرفت": 9510,
      "الیو": 9511,
      "▁الیو": 9512,
      "لمسش": 9513,
      "▁لمسش": 9514,
      "ببینن": 9515,
      "▁ببینن": 9516,
      "مطمئنم": 9517,
      "▁مطمئنم": 9518,
      "نتیجه": 9519,
      "▁نتیجه": 9520,
      "جوابی": 9521,
      "▁جوابی": 9522,
      "ay": 9523,
      "▁ay": 9524,
      "AY": 9525,
      "▁AY": 9526,
      "Ay": 9527,
      "▁Ay": 9528,
      "بخندند": 9529,
      "▁بخندند": 9530,
      "عبوس": 9531,
      "▁عبوس": 9532,
      "اوض": 9533,
      "▁اوض": 9534,
      "دوستام": 9535,
      "▁دوستام": 9536,
      "زندگي": 9537,
      "▁زندگي": 9538,
      "یافته": 9539,
      "▁یافته": 9540,
      "عنکبو": 9541,
      "▁عنکبو": 9542,
      "پینکی": 9543,
      "▁پینکی": 9544,
      "غوا": 9545,
      "▁غوا": 9546,
      "رونه": 9547,
      "▁رونه": 9548,
      "ولوت": 9549,
      "▁ولوت": 9550,
      "خورشیدی": 9551,
      "▁خورشیدی": 9552,
      "خاکستر": 9553,
      "▁خاکستر": 9554,
      "جیر": 9555,
      "▁جیر": 9556,
      "میدونست": 9557,
      "▁میدونست": 9558,
      "ماهیگیری": 9559,
      "▁ماهیگیری": 9560,
      "بسازه": 9561,
      "▁بسازه": 9562,
      "اردوگاه": 9563,
      "▁اردوگاه": 9564,
      "اورد": 9565,
      "▁اورد": 9566,
      "ماریا": 9567,
      "▁ماریا": 9568,
      "خوشگذرانی": 9569,
      "▁خوشگذرانی": 9570,
      "دوستانتان": 9571,
      "▁دوستانتان": 9572,
      "تصاد": 9573,
      "▁تصاد": 9574,
      "کاغذها": 9575,
      "▁کاغذها": 9576,
      "صندوقچه": 9577,
      "▁صندوقچه": 9578,
      "بپری": 9579,
      "▁بپری": 9580,
      "تپ": 9581,
      "▁تپ": 9582,
      "سرم": 9583,
      "▁سرم": 9584,
      "روزش": 9585,
      "▁روزش": 9586,
      "کوس": 9587,
      "▁کوس": 9588,
      "قلقل": 9589,
      "▁قلقل": 9590,
      "تابلویی": 9591,
      "▁تابلویی": 9592,
      "ثه": 9593,
      "▁ثه": 9594,
      "کوچکشان": 9595,
      "▁کوچکشان": 9596,
      "اشیا": 9597,
      "▁اشیا": 9598,
      "ابریشم": 9599,
      "▁ابریشم": 9600,
      "دشو": 9601,
      "▁دشو": 9602,
      "خوشت": 9603,
      "▁خوشت": 9604,
      "روزي": 9605,
      "▁روزي": 9606,
      "روزگار": 9607,
      "▁روزگار": 9608,
      "اشتیاق": 9609,
      "▁اشتیاق": 9610,
      "برگی": 9611,
      "▁برگی": 9612,
      "دانیم": 9613,
      "▁دانیم": 9614,
      "اخلاق": 9615,
      "▁اخلاق": 9616,
      "ing": 9617,
      "▁ing": 9618,
      "ING": 9619,
      "▁ING": 9620,
      "Ing": 9621,
      "▁Ing": 9622,
      "تفاوت": 9623,
      "▁تفاوت": 9624,
      "بخواهیم": 9625,
      "▁بخواهیم": 9626,
      "کلو": 9627,
      "▁کلو": 9628,
      "میداد": 9629,
      "▁میداد": 9630,
      "بلد": 9631,
      "▁بلد": 9632,
      "گين": 9633,
      "▁گين": 9634,
      "اونجاست": 9635,
      "▁اونجاست": 9636,
      "بعداز": 9637,
      "▁بعداز": 9638,
      "بمانم": 9639,
      "▁بمانم": 9640,
      "مسواک": 9641,
      "▁مسواک": 9642,
      "ot": 9643,
      "▁ot": 9644,
      "OT": 9645,
      "▁OT": 9646,
      "Ot": 9647,
      "▁Ot": 9648,
      "ببخش": 9649,
      "▁ببخش": 9650,
      "نر": 9651,
      "▁نر": 9652,
      "هندو": 9653,
      "▁هندو": 9654,
      "مردمی": 9655,
      "▁مردمی": 9656,
      "افته": 9657,
      "▁افته": 9658,
      "هندوانه": 9659,
      "▁هندوانه": 9660,
      "خاش": 9661,
      "▁خاش": 9662,
[...]
