{
  "version": "1.0",
  "truncation": null,
  "padding": null,
  "added_tokens": [
    {
      "id": 0,
      "content": "<|PAD|>",
      "single_word": false,
      "lstrip": false,
      "rstrip": false,
      "normalized": false,
      "special": true
    },
    {
      "id": 1,
      "content": "<|BOS|>",
      "single_word": false,
      "lstrip": false,
      "rstrip": false,
      "normalized": false,
      "special": true
    },
    {
      "id": 2,
      "content": "<|EOS|>",
      "single_word": false,
      "lstrip": false,
      "rstrip": false,
      "normalized": false,
      "special": true
    },
    {
      "id": 3,
      "content": "<|UNK|>",
      "single_word": false,
      "lstrip": false,
      "rstrip": false,
      "normalized": false,
      "special": true
    }
  ],
  "normalizer": {
    "type": "NFKC"
  },
  "pre_tokenizer": {
    "type": "Metaspace",
    "replacement": "▁",
    "prepend_scheme": "never",
    "split": true
  },
  "post_processor": {
    "type": "TemplateProcessing",
    "single": [
      {
        "SpecialToken": {
          "id": "<|BOS|>",
          "type_id": 0
        }
      },
      {
        "Sequence": {
          "id": "A",
          "type_id": 0
        }
      },
      {
        "SpecialToken": {
          "id": "<|EOS|>",
          "type_id": 0
        }
      }
    ],
    "pair": [
      {
        "SpecialToken": {
          "id": "<|BOS|>",
          "type_id": 0
        }
      },
      {
        "Sequence": {
          "id": "A",
          "type_id": 0
        }
      },
      {
        "SpecialToken": {
          "id": "<|EOS|>",
          "type_id": 0
        }
      },
      {
        "SpecialToken": {
          "id": "<|BOS|>",
          "type_id": 1
        }
      },
      {
        "Sequence": {
          "id": "B",
          "type_id": 1
        }
      },
      {
        "SpecialToken": {
          "id": "<|EOS|>",
          "type_id": 1
        }
      }
    ],
    "special_tokens": {
      "<|BOS|>": {
        "id": "<|BOS|>",
        "ids": [
          1
        ],
        "tokens": [
          "<|BOS|>"
        ]
      },
      "<|EOS|>": {
        "id": "<|EOS|>",
        "ids": [
          2
        ],
        "tokens": [
          "<|EOS|>"
        ]
      }
    }
  },
  "decoder": {
    "type": "Metaspace",
    "replacement": "▁",
    "prepend_scheme": "never",
    "split": true
  },
  "model": {
    "type": "BPE",
    "dropout": null,
    "unk_token": "<|UNK|>",
    "continuing_subword_prefix": null,
    "end_of_word_suffix": null,
    "fuse_unk": false,
    "byte_fallback": false,
    "ignore_merges": false,
    "vocab": {
      "<|PAD|>": 0,
      "<|BOS|>": 1,
      "<|EOS|>": 2,
      "<|UNK|>": 3,
      "!": 4,
      "\"": 5,
      "$": 6,
      "%": 7,
      "&": 8,
      "'": 9,
      "(": 10,
      ")": 11,
      "*": 12,
      "+": 13,
      ",": 14,
      "-": 15,
      ".": 16,
      "/": 17,
      "0": 18,
      "1": 19,
      "2": 20,
      "3": 21,
      "4": 22,
      "5": 23,
      "6": 24,
      "7": 25,
      "8": 26,
      "9": 27,
      ":": 28,
      ";": 29,
      "=": 30,
      "?": 31,
      "a": 32,
      "A": 33,
      "b": 34,
      "B": 35,
      "c": 36,
      "C": 37,
      "d": 38,
      "D": 39,
      "e": 40,
      "E": 41,
      "f": 42,
      "F": 43,
      "g": 44,
      "G": 45,
      "h": 46,
      "H": 47,
      "i": 48,
      "I": 49,
      "j": 50,
      "J": 51,
      "k": 52,
      "K": 53,
      "l": 54,
      "L": 55,
      "m": 56,
      "M": 57,
      "n": 58,
      "N": 59,
      "o": 60,
      "O": 61,
      "p": 62,
      "P": 63,
      "q": 64,
      "Q": 65,
      "r": 66,
      "R": 67,
      "s": 68,
      "S": 69,
      "t": 70,
      "T": 71,
      "u": 72,
      "U": 73,
      "v": 74,
      "V": 75,
      "w": 76,
      "W": 77,
      "x": 78,
      "X": 79,
      "y": 80,
      "Y": 81,
      "z": 82,
      "Z": 83,
      "،": 84,
      "؛": 85,
      "؟": 86,
      "ء": 87,
      "آ": 88,
      "أ": 89,
      "ؤ": 90,
      "إ": 91,
      "ئ": 92,
      "ا": 93,
      "ب": 94,
      "ة": 95,
      "ت": 96,
      "ث": 97,
      "ج": 98,
      "ح": 99,
      "خ": 100,
      "د": 101,
      "ذ": 102,
      "ر": 103,
      "ز": 104,
      "س": 105,
      "ش": 106,
      "ص": 107,
      "ض": 108,
      "ط": 109,
      "ظ": 110,
      "ع": 111,
      "غ": 112,
      "ـ": 113,
      "ف": 114,
      "ق": 115,
      "ك": 116,
      "ل": 117,
      "م": 118,
      "ن": 119,
      "ه": 120,
      "و": 121,
      "ى": 122,
      "ي": 123,
      "ً": 124,
      "ٌ": 125,
      "ٍ": 126,
      "َ": 127,
      "ُ": 128,
      "ِ": 129,
      "ّ": 130,
      "ْ": 131,
      "پ": 132,
      "€": 133,
      "▁": 134,
      "\t": 135,
      "\n": 136,
      "▁!": 137,
      "▁\"": 138,
      "▁$": 139,
      "▁%": 140,
      "▁&": 141,
      "▁'": 142,
      "▁(": 143,
      "▁)": 144,
      "▁*": 145,
      "▁+": 146,
      "▁,": 147,
      "▁-": 148,
      "▁.": 149,
      "▁/": 150,
      "▁0": 151,
      "▁1": 152,
      "▁2": 153,
      "▁3": 154,
      "▁4": 155,
      "▁5": 156,
      "▁6": 157,
      "▁7": 158,
      "▁8": 159,
      "▁9": 160,
      "▁:": 161,
      "▁;": 162,
      "▁=": 163,
      "▁?": 164,
      "▁a": 165,
      "▁A": 166,
      "▁b": 167,
      "▁B": 168,
      "▁c": 169,
      "▁C": 170,
      "▁d": 171,
      "▁D": 172,
      "▁e": 173,
      "▁E": 174,
      "▁f": 175,
      "▁F": 176,
      "▁g": 177,
      "▁G": 178,
      "▁h": 179,
      "▁H": 180,
      "▁i": 181,
      "▁I": 182,
      "▁j": 183,
      "▁J": 184,
      "▁k": 185,
      "▁K": 186,
      "▁l": 187,
      "▁L": 188,
      "▁m": 189,
      "▁M": 190,
      "▁n": 191,
      "▁N": 192,
      "▁o": 193,
      "▁O": 194,
      "▁p": 195,
      "▁P": 196,
      "▁q": 197,
      "▁Q": 198,
      "▁r": 199,
      "▁R": 200,
      "▁s": 201,
      "▁S": 202,
      "▁t": 203,
      "▁T": 204,
      "▁u": 205,
      "▁U": 206,
      "▁v": 207,
      "▁V": 208,
      "▁w": 209,
      "▁W": 210,
      "▁x": 211,
      "▁X": 212,
      "▁y": 213,
      "▁Y": 214,
      "▁z": 215,
      "▁Z": 216,
      "▁،": 217,
      "▁؛": 218,
      "▁؟": 219,
      "▁ء": 220,
      "▁آ": 221,
      "▁أ": 222,
      "▁ؤ": 223,
      "▁إ": 224,
      "▁ئ": 225,
      "▁ا": 226,
      "▁ب": 227,
      "▁ة": 228,
      "▁ت": 229,
      "▁ث": 230,
      "▁ج": 231,
      "▁ح": 232,
      "▁خ": 233,
      "▁د": 234,
      "▁ذ": 235,
      "▁ر": 236,
      "▁ز": 237,
      "▁س": 238,
      "▁ش": 239,
      "▁ص": 240,
      "▁ض": 241,
      "▁ط": 242,
      "▁ظ": 243,
      "▁ع": 244,
      "▁غ": 245,
      "▁ـ": 246,
      "▁ف": 247,
      "▁ق": 248,
      "▁ك": 249,
      "▁ل": 250,
      "▁م": 251,
      "▁ن": 252,
      "▁ه": 253,
      "▁و": 254,
      "▁ى": 255,
      "▁ي": 256,
      "▁ً": 257,
      "▁ٌ": 258,
      "▁ٍ": 259,
      "▁َ": 260,
      "▁ُ": 261,
      "▁ِ": 262,
      "▁ّ": 263,
      "▁ْ": 264,
      "▁پ": 265,
      "▁€": 266,
      "ال": 267,
      "▁ال": 268,
      "ان": 269,
      "▁ان": 270,
      "كان": 271,
      "▁كان": 272,
      "ها": 273,
      "▁ها": 274,
      "لي": 275,
      "▁لي": 276,
      "أن": 277,
      "▁أن": 278,
      "في": 279,
      "▁في": 280,
      "رة": 281,
      "▁رة": 282,
      "من": 283,
      "▁من": 284,
      "لى": 285,
      "▁لى": 286,
      "ما": 287,
      "▁ما": 288,
      "وا": 289,
      "▁وا": 290,
      "نا": 291,
      "▁نا": 292,
      "يد": 293,
      "▁يد": 294,
      "وم": 295,
      "▁وم": 296,
      "لك": 297,
      "▁لك": 298,
      "ير": 299,
      "▁ير": 300,
      "الأ": 301,
      "▁الأ": 302,
      "كانت": 303,
      "▁كانت": 304,
      "مي": 305,
      "▁مي": 306,
      "جد": 307,
      "▁جد": 308,
      "لا": 309,
      "▁لا": 310,
      "ون": 311,
      "▁ون": 312,
      "را": 313,
      "▁را": 314,
      "يا": 315,
      "▁يا": 316,
      "إلى": 317,
      "▁إلى": 318,
      "الم": 319,
      "▁الم": 320,
      "دي": 321,
      "▁دي": 322,
      "لع": 323,
      "▁لع": 324,
      "قال": 325,
      "▁قال": 326,
      "مع": 327,
      "▁مع": 328,
      "ول": 329,
      "▁ول": 330,
      "بي": 331,
      "▁بي": 332,
      "ذا": 333,
      "▁ذا": 334,
      "هم": 335,
      "▁هم": 336,
      "لم": 337,
      "▁لم": 338,
      "سا": 339,
      "▁سا": 340,
      "وال": 341,
      "▁وال": 342,
      "ليلي": 343,
      "▁ليلي": 344,
      "على": 345,
      "▁على": 346,
      "بع": 347,
      "▁بع": 348,
      "ست": 349,
      "▁ست": 350,
      "لعب": 351,
      "▁لعب": 352,
      "اب": 353,
      "▁اب": 354,
      "يوم": 355,
      "▁يوم": 356,
      "يم": 357,
      "▁يم": 358,
      "تح": 359,
      "▁تح": 360,
      "ائ": 361,
      "▁ائ": 362,
      "رت": 363,
      "▁رت": 364,
      "كن": 365,
      "▁كن": 366,
      "الح": 367,
      "▁الح": 368,
      "لكن": 369,
      "▁لكن": 370,
      "ين": 371,
      "▁ين": 372,
      "ية": 373,
      "▁ية": 374,
      "عد": 375,
      "▁عد": 376,
      "كل": 377,
      "▁كل": 378,
      "ار": 379,
      "▁ار": 380,
      "ور": 381,
      "▁ور": 382,
      "صغ": 383,
      "▁صغ": 384,
      "اء": 385,
      "▁اء": 386,
      "أخ": 387,
      "▁أخ": 388,
      "قد": 389,
      "▁قد": 390,
      "فت": 391,
      "▁فت": 392,
      "مرة": 393,
      "▁مرة": 394,
      "عن": 395,
      "▁عن": 396,
      "جدا": 397,
      "▁جدا": 398,
      "تع": 399,
      "▁تع": 400,
      "بال": 401,
      "▁بال": 402,
      "وق": 403,
      "▁وق": 404,
      "هنا": 405,
      "▁هنا": 406,
      "تها": 407,
      "▁تها": 408,
      "حب": 409,
      "▁حب": 410,
      "قالت": 411,
      "▁قالت": 412,
      "أم": 413,
      "▁أم": 414,
      "وت": 415,
      "▁وت": 416,
      "بد": 417,
      "▁بد": 418,
      "هناك": 419,
      "▁هناك": 420,
      "تي": 421,
      "▁تي": 422,
      "يام": 423,
      "▁يام": 424,
      "ذه": 425,
      "▁ذه": 426,
      "سع": 427,
      "▁سع": 428,
      "ذلك": 429,
      "▁ذلك": 430,
      "سم": 431,
      "▁سم": 432,
      "رأ": 433,
      "▁رأ": 434,
      "رج": 435,
      "▁رج": 436,
      "ديق": 437,
      "▁ديق": 438,
      "ري": 439,
      "▁ري": 440,
      "الك": 441,
      "▁الك": 442,
      "الأيام": 443,
      "▁الأيام": 444,
      "شع": 445,
      "▁شع": 446,
      "لت": 447,
      "▁لت": 448,
      "يرة": 449,
      "▁يرة": 450,
      "لة": 451,
      "▁لة": 452,
      "ذات": 453,
      "▁ذات": 454,
      "يمكن": 455,
      "▁يمكن": 456,
      "الط": 457,
      "▁الط": 458,
      "وي": 459,
      "▁وي": 460,
      "الس": 461,
      "▁الس": 462,
      "وأ": 463,
      "▁وأ": 464,
      "الق": 465,
      "▁الق": 466,
      "لل": 467,
      "▁لل": 468,
      "ته": 469,
      "▁ته": 470,
      "رك": 471,
      "▁رك": 472,
      "يف": 473,
      "▁يف": 474,
      "يدة": 475,
      "▁يدة": 476,
      "بعض": 477,
      "▁بعض": 478,
      "الش": 479,
      "▁الش": 480,
      "بن": 481,
      "▁بن": 482,
      "أنه": 483,
      "▁أنه": 484,
      "ذهب": 485,
      "▁ذهب": 486,
      "الع": 487,
      "▁الع": 488,
      "اد": 489,
      "▁اد": 490,
      "فتا": 491,
      "▁فتا": 492,
      "والد": 493,
      "▁والد": 494,
      "صغيرة": 495,
      "▁صغيرة": 496,
      "شي": 497,
      "▁شي": 498,
      "جمي": 499,
      "▁جمي": 500,
      "الب": 501,
      "▁الب": 502,
      "فتاة": 503,
      "▁فتاة": 504,
      "دع": 505,
      "▁دع": 506,
      "صد": 507,
      "▁صد": 508,
      "توم": 509,
      "▁توم": 510,
      "يق": 511,
      "▁يق": 512,
      "رب": 513,
      "▁رب": 514,
      "لدي": 515,
      "▁لدي": 516,
      "إن": 517,
      "▁إن": 518,
      "حت": 519,
      "▁حت": 520,
      "رف": 521,
      "▁رف": 522,
      "راد": 523,
      "▁راد": 524,
      "الخ": 525,
      "▁الخ": 526,
      "أمي": 527,
      "▁أمي": 528,
      "عند": 529,
      "▁عند": 530,
      "عل": 531,
      "▁عل": 532,
      "كون": 533,
      "▁كون": 534,
      "لقد": 535,
      "▁لقد": 536,
      "قط": 537,
      "▁قط": 538,
      "زل": 539,
      "▁زل": 540,
      "جا": 541,
      "▁جا": 542,
      "رى": 543,
      "▁رى": 544,
      "الص": 545,
      "▁الص": 546,
      "تسم": 547,
      "▁تسم": 548,
      "عندما": 549,
      "▁عندما": 550,
      "يع": 551,
      "▁يع": 552,
      "الت": 553,
      "▁الت": 554,
      "وس": 555,
      "▁وس": 556,
      "اللعب": 557,
      "▁اللعب": 558,
      "مر": 559,
      "▁مر": 560,
      "با": 561,
      "▁با": 562,
      "كب": 563,
      "▁كب": 564,
      "ساعد": 565,
      "▁ساعد": 566,
      "ديقة": 567,
      "▁ديقة": 568,
      "ود": 569,
      "▁ود": 570,
      "شعر": 571,
      "▁شعر": 572,
      "أراد": 573,
      "▁أراد": 574,
      "تيمي": 575,
      "▁تيمي": 576,
      "بيرة": 577,
      "▁بيرة": 578,
      "ظر": 579,
      "▁ظر": 580,
      "مس": 581,
      "▁مس": 582,
      "منزل": 583,
      "▁منزل": 584,
      "أي": 585,
      "▁أي": 586,
      "صغير": 587,
      "▁صغير": 588,
      "صدق": 589,
      "▁صدق": 590,
      "بح": 591,
      "▁بح": 592,
      "يحب": 593,
      "▁يحب": 594,
      "نع": 595,
      "▁نع": 596,
      "بدأ": 597,
      "▁بدأ": 598,
      "سأ": 599,
      "▁سأ": 600,
      "عة": 601,
      "▁عة": 602,
      "است": 603,
      "▁است": 604,
      "ام": 605,
      "▁ام": 606,
      "شا": 607,
      "▁شا": 608,
      "الحديقة": 609,
      "▁الحديقة": 610,
      "فض": 611,
      "▁فض": 612,
      "لق": 613,
      "▁لق": 614,
      "ثير": 615,
      "▁ثير": 616,
      "وج": 617,
      "▁وج": 618,
      "كبيرة": 619,
      "▁كبيرة": 620,
      "ني": 621,
      "▁ني": 622,
      "أنها": 623,
      "▁أنها": 624,
      "الف": 625,
      "▁الف": 626,
      "الد": 627,
      "▁الد": 628,
      "علي": 629,
      "▁علي": 630,
      "ات": 631,
      "▁ات": 632,
      "متع": 633,
      "▁متع": 634,
      "كس": 635,
      "▁كس": 636,
      "وض": 637,
      "▁وض": 638,
      "ولكن": 639,
      "▁ولكن": 640,
      "وب": 641,
      "▁وب": 642,
      "ابتسم": 643,
      "▁ابتسم": 644,
      "وح": 645,
      "▁وح": 646,
      "الن": 647,
      "▁الن": 648,
      "غا": 649,
      "▁غا": 650,
      "كبير": 651,
      "▁كبير": 652,
      "تحب": 653,
      "▁تحب": 654,
      "يت": 655,
      "▁يت": 656,
      "تق": 657,
      "▁تق": 658,
      "وه": 659,
      "▁وه": 660,
      "مة": 661,
      "▁مة": 662,
      "أخذ": 663,
      "▁أخذ": 664,
      "مل": 665,
      "▁مل": 666,
      "فا": 667,
      "▁فا": 668,
      "حد": 669,
      "▁حد": 670,
      "خل": 671,
      "▁خل": 672,
      "أخرى": 673,
      "▁أخرى": 674,
      "بعد": 675,
      "▁بعد": 676,
      "سعيد": 677,
      "▁سعيد": 678,
      "سعيدة": 679,
      "▁سعيدة": 680,
      "الج": 681,
      "▁الج": 682,
      "يج": 683,
      "▁يج": 684,
      "رق": 685,
      "▁رق": 686,
      "بة": 687,
      "▁بة": 688,
      "هل": 689,
      "▁هل": 690,
      "جميع": 691,
      "▁جميع": 692,
      "أصدق": 693,
      "▁أصدق": 694,
      "اول": 695,
      "▁اول": 696,
      "هذا": 697,
      "▁هذا": 698,
      "اليوم": 699,
      "▁اليوم": 700,
      "شك": 701,
      "▁شك": 702,
      "ائر": 703,
      "▁ائر": 704,
      "وقالت": 705,
      "▁وقالت": 706,
      "الآ": 707,
      "▁الآ": 708,
      "ريد": 709,
      "▁ريد": 710,
      "خت": 711,
      "▁خت": 712,
      "كت": 713,
      "▁كت": 714,
      "وان": 715,
      "▁وان": 716,
      "تيم": 717,
      "▁تيم": 718,
      "شيء": 719,
      "▁شيء": 720,
      "وص": 721,
      "▁وص": 722,
      "ذي": 723,
      "▁ذي": 724,
      "اص": 725,
      "▁اص": 726,
      "تدع": 727,
      "▁تدع": 728,
      "الغ": 729,
      "▁الغ": 730,
      "وجد": 731,
      "▁وجد": 732,
      "سر": 733,
      "▁سر": 734,
      "المنزل": 735,
      "▁المنزل": 736,
      "أيض": 737,
      "▁أيض": 738,
      "أنا": 739,
      "▁أنا": 740,
      "هما": 741,
      "▁هما": 742,
      "لط": 743,
      "▁لط": 744,
      "ماء": 745,
      "▁ماء": 746,
      "تدعى": 747,
      "▁تدعى": 748,
      "أمها": 749,
      "▁أمها": 750,
      "بين": 751,
      "▁بين": 752,
      "مت": 753,
      "▁مت": 754,
      "صديق": 755,
      "▁صديق": 756,
      "والدتها": 757,
      "▁والدتها": 758,
      "كانوا": 759,
      "▁كانوا": 760,
      "حتى": 761,
      "▁حتى": 762,
      "فة": 763,
      "▁فة": 764,
      "رأت": 765,
      "▁رأت": 766,
      "قر": 767,
      "▁قر": 768,
      "عت": 769,
      "▁عت": 770,
      "سام": 771,
      "▁سام": 772,
      "وع": 773,
      "▁وع": 774,
      "خر": 775,
      "▁خر": 776,
      "سي": 777,
      "▁سي": 778,
      "الر": 779,
      "▁الر": 780,
      "بق": 781,
      "▁بق": 782,
      "الأر": 783,
      "▁الأر": 784,
      "راء": 785,
      "▁راء": 786,
      "أنت": 787,
      "▁أنت": 788,
      "وقت": 789,
      "▁وقت": 790,
      "لعاب": 791,
      "▁لعاب": 792,
      "جأ": 793,
      "▁جأ": 794,
      "رجل": 795,
      "▁رجل": 796,
      "رأى": 797,
      "▁رأى": 798,
      "متح": 799,
      "▁متح": 800,
      "كة": 801,
      "▁كة": 802,
      "ثم": 803,
      "▁ثم": 804,
      "شيا": 805,
      "▁شيا": 806,
      "ضح": 807,
      "▁ضح": 808,
      "حز": 809,
      "▁حز": 810,
      "بها": 811,
      "▁بها": 812,
      "فز": 813,
      "▁فز": 814,
      "وقال": 815,
      "▁وقال": 816,
      "به": 817,
      "▁به": 818,
      "جأة": 819,
      "▁جأة": 820,
      "جرة": 821,
      "▁جرة": 822,
      "يست": 823,
      "▁يست": 824,
      "أك": 825,
      "▁أك": 826,
      "أع": 827,
      "▁أع": 828,
      "ماذا": 829,
      "▁ماذا": 830,
      "ماكس": 831,
      "▁ماكس": 832,
      "لو": 833,
      "▁لو": 834,
      "هر": 835,
      "▁هر": 836,
      "نظ": 837,
      "▁نظ": 838,
      "لد": 839,
      "▁لد": 840,
      "سارة": 841,
      "▁سارة": 842,
      "شياء": 843,
      "▁شياء": 844,
      "آنا": 845,
      "▁آنا": 846,
      "حة": 847,
      "▁حة": 848,
      "بأ": 849,
      "▁بأ": 850,
      "سف": 851,
      "▁سف": 852,
      "ركض": 853,
      "▁ركض": 854,
      "طع": 855,
      "▁طع": 856,
      "معا": 857,
      "▁معا": 858,
      "وكان": 859,
      "▁وكان": 860,
      "طف": 861,
      "▁طف": 862,
      "الث": 863,
      "▁الث": 864,
      "إنه": 865,
      "▁إنه": 866,
      "يقول": 867,
      "▁يقول": 868,
      "الفتاة": 869,
      "▁الفتاة": 870,
      "سن": 871,
      "▁سن": 872,
      "جر": 873,
      "▁جر": 874,
      "رائ": 875,
      "▁رائ": 876,
      "شعرت": 877,
      "▁شعرت": 878,
      "حي": 879,
      "▁حي": 880,
      "الكثير": 881,
      "▁الكثير": 882,
      "مكان": 883,
      "▁مكان": 884,
      "إنها": 885,
      "▁إنها": 886,
      "فك": 887,
      "▁فك": 888,
      "زه": 889,
      "▁زه": 890,
      "له": 891,
      "▁له": 892,
      "حاول": 893,
      "▁حاول": 894,
      "دائ": 895,
      "▁دائ": 896,
      "الصغيرة": 897,
      "▁الصغيرة": 898,
      "ابتسمت": 899,
      "▁ابتسمت": 900,
      "كلب": 901,
      "▁كلب": 902,
      "خائ": 903,
      "▁خائ": 904,
      "تم": 905,
      "▁تم": 906,
      "يدع": 907,
      "▁يدع": 908,
      "لذلك": 909,
      "▁لذلك": 910,
      "فجأة": 911,
      "▁فجأة": 912,
      "سمع": 913,
      "▁سمع": 914,
      "أمه": 915,
      "▁أمه": 916,
      "لاح": 917,
      "▁لاح": 918,
      "حول": 919,
      "▁حول": 920,
      "لطيف": 921,
      "▁لطيف": 922,
      "تعلم": 923,
      "▁تعلم": 924,
      "عان": 925,
      "▁عان": 926,
      "قب": 927,
      "▁قب": 928,
      "هد": 929,
      "▁هد": 930,
      "أصدقائ": 931,
      "▁أصدقائ": 932,
      "يدعى": 933,
      "▁يدعى": 934,
      "لب": 935,
      "▁لب": 936,
      "وز": 937,
      "▁وز": 938,
      "لكنه": 939,
      "▁لكنه": 940,
      "ند": 941,
      "▁ند": 942,
      "صنع": 943,
      "▁صنع": 944,
      "ئا": 945,
      "▁ئا": 946,
      "فضل": 947,
      "▁فضل": 948,
      "أرادت": 949,
      "▁أرادت": 950,
      "ادة": 951,
      "▁ادة": 952,
      "متحمس": 953,
      "▁متحمس": 954,
      "تقول": 955,
      "▁تقول": 956,
      "ساعدة": 957,
      "▁ساعدة": 958,
      "وف": 959,
      "▁وف": 960,
      "غاية": 961,
      "▁غاية": 962,
      "كي": 963,
      "▁كي": 964,
      "للغاية": 965,
      "▁للغاية": 966,
      "يلعب": 967,
      "▁يلعب": 968,
      "نعم": 969,
      "▁نعم": 970,
      "ثر": 971,
      "▁ثر": 972,
      "إلي": 973,
      "▁إلي": 974,
      "يدا": 975,
      "▁يدا": 976,
      "بر": 977,
      "▁بر": 978,
      "فعل": 979,
      "▁فعل": 980,
      "جاك": 981,
      "▁جاك": 982,
      "عا": 983,
      "▁عا": 984,
      "يمكنك": 985,
      "▁يمكنك": 986,
      "أص": 987,
      "▁أص": 988,
      "الطائر": 989,
      "▁الطائر": 990,
      "سأل": 991,
      "▁سأل": 992,
      "ارج": 993,
      "▁ارج": 994,
      "نظر": 995,
      "▁نظر": 996,
      "حن": 997,
      "▁حن": 998,
      "رح": 999,
      "▁رح": 1000,
      "طا": 1001,
      "▁طا": 1002,
      "يارة": 1003,
      "▁يارة": 1004,
      "فس": 1005,
      "▁فس": 1006,
      "يجب": 1007,
      "▁يجب": 1008,
      "ابة": 1009,
      "▁ابة": 1010,
      "اخل": 1011,
      "▁اخل": 1012,
      "ولي": 1013,
      "▁ولي": 1014,
      "بدأت": 1015,
      "▁بدأت": 1016,
      "شار": 1017,
      "▁شار": 1018,
      "ذهبت": 1019,
      "▁ذهبت": 1020,
      "ريق": 1021,
      "▁ريق": 1022,
      "لديه": 1023,
      "▁لديه": 1024,
      "طة": 1025,
      "▁طة": 1026,
      "يكون": 1027,
      "▁يكون": 1028,
      "ندوق": 1029,
      "▁ندوق": 1030,
      "النا": 1031,
      "▁النا": 1032,
      "جي": 1033,
      "▁جي": 1034,
      "جة": 1035,
      "▁جة": 1036,
      "ورأ": 1037,
      "▁ورأ": 1038,
      "الآن": 1039,
      "▁الآن": 1040,
      "لكنها": 1041,
      "▁لكنها": 1042,
      "هو": 1043,
      "▁هو": 1044,
      "أحب": 1045,
      "▁أحب": 1046,
      "صبي": 1047,
      "▁صبي": 1048,
      "ذها": 1049,
      "▁ذها": 1050,
      "أيضا": 1051,
      "▁أيضا": 1052,
      "كر": 1053,
      "▁كر": 1054,
      "حزين": 1055,
      "▁حزين": 1056,
      "لها": 1057,
      "▁لها": 1058,
      "إذا": 1059,
      "▁إذا": 1060,
      "رات": 1061,
      "▁رات": 1062,
      "مث": 1063,
      "▁مث": 1064,
      "أو": 1065,
      "▁أو": 1066,
      "وبن": 1067,
      "▁وبن": 1068,
      "الرجل": 1069,
      "▁الرجل": 1070,
      "نب": 1071,
      "▁نب": 1072,
      "صر": 1073,
      "▁صر": 1074,
      "تست": 1075,
      "▁تست": 1076,
      "كثير": 1077,
      "▁كثير": 1078,
      "الأشياء": 1079,
      "▁الأشياء": 1080,
      "جميلة": 1081,
      "▁جميلة": 1082,
      "أر": 1083,
      "▁أر": 1084,
      "فر": 1085,
      "▁فر": 1086,
      "يمكننا": 1087,
      "▁يمكننا": 1088,
      "الصغير": 1089,
      "▁الصغير": 1090,
      "تكون": 1091,
      "▁تكون": 1092,
      "الأرض": 1093,
      "▁الأرض": 1094,
      "قا": 1095,
      "▁قا": 1096,
      "تحت": 1097,
      "▁تحت": 1098,
      "الي": 1099,
      "▁الي": 1100,
      "هاية": 1101,
      "▁هاية": 1102,
      "الجد": 1103,
      "▁الجد": 1104,
      "ذهاب": 1105,
      "▁ذهاب": 1106,
      "لديها": 1107,
      "▁لديها": 1108,
      "أكل": 1109,
      "▁أكل": 1110,
      "هذه": 1111,
      "▁هذه": 1112,
      "ونا": 1113,
      "▁ونا": 1114,
      "يس": 1115,
      "▁يس": 1116,
      "وضع": 1117,
      "▁وضع": 1118,
      "بحث": 1119,
      "▁بحث": 1120,
      "يكن": 1121,
      "▁يكن": 1122,
      "دة": 1123,
      "▁دة": 1124,
      "رفة": 1125,
      "▁رفة": 1126,
      "ضحك": 1127,
      "▁ضحك": 1128,
      "عداء": 1129,
      "▁عداء": 1130,
      "الخارج": 1131,
      "▁الخارج": 1132,
      "صل": 1133,
      "▁صل": 1134,
      "تس": 1135,
      "▁تس": 1136,
      "أج": 1137,
      "▁أج": 1138,
      "ورة": 1139,
      "▁ورة": 1140,
      "صا": 1141,
      "▁صا": 1142,
      "بط": 1143,
      "▁بط": 1144,
      "قت": 1145,
      "▁قت": 1146,
      "ميا": 1147,
      "▁ميا": 1148,
      "بينما": 1149,
      "▁بينما": 1150,
      "ناء": 1151,
      "▁ناء": 1152,
      "أكثر": 1153,
      "▁أكثر": 1154,
      "شيئا": 1155,
      "▁شيئا": 1156,
      "التي": 1157,
      "▁التي": 1158,
      "سعداء": 1159,
      "▁سعداء": 1160,
      "يش": 1161,
      "▁يش": 1162,
      "بتسم": 1163,
      "▁بتسم": 1164,
      "سب": 1165,
      "▁سب": 1166,
      "لعبة": 1167,
      "▁لعبة": 1168,
      "ولم": 1169,
      "▁ولم": 1170,
      "سألت": 1171,
      "▁سألت": 1172,
      "مش": 1173,
      "▁مش": 1174,
      "كض": 1175,
      "▁كض": 1176,
      "جعل": 1177,
      "▁جعل": 1178,
      "سعادة": 1179,
      "▁سعادة": 1180,
      "الصبي": 1181,
      "▁الصبي": 1182,
      "دائما": 1183,
      "▁دائما": 1184,
      "خاص": 1185,
      "▁خاص": 1186,
      "صوت": 1187,
      "▁صوت": 1188,
      "البعض": 1189,
      "▁البعض": 1190,
      "خد": 1191,
      "▁خد": 1192,
      "وكانت": 1193,
      "▁وكانت": 1194,
      "تريد": 1195,
      "▁تريد": 1196,
      "قفز": 1197,
      "▁قفز": 1198,
      "قي": 1199,
      "▁قي": 1200,
      "تت": 1201,
      "▁تت": 1202,
      "بعيدا": 1203,
      "▁بعيدا": 1204,
      "لن": 1205,
      "▁لن": 1206,
      "يعرف": 1207,
      "▁يعرف": 1208,
      "رجة": 1209,
      "▁رجة": 1210,
      "قة": 1211,
      "▁قة": 1212,
      "حذ": 1213,
      "▁حذ": 1214,
      "وقف": 1215,
      "▁وقف": 1216,
      "جاء": 1217,
      "▁جاء": 1218,
      "الشمس": 1219,
      "▁الشمس": 1220,
      "أفضل": 1221,
      "▁أفضل": 1222,
      "خرج": 1223,
      "▁خرج": 1224,
      "شكرا": 1225,
      "▁شكرا": 1226,
      "شاهد": 1227,
      "▁شاهد": 1228,
      "طي": 1229,
      "▁طي": 1230,
      "عال": 1231,
      "▁عال": 1232,
      "زي": 1233,
      "▁زي": 1234,
      "اف": 1235,
      "▁اف": 1236,
      "حبا": 1237,
      "▁حبا": 1238,
      "جون": 1239,
      "▁جون": 1240,
      "وانات": 1241,
      "▁وانات": 1242,
      "لدرجة": 1243,
      "▁لدرجة": 1244,
      "فقط": 1245,
      "▁فقط": 1246,
      "بدو": 1247,
      "▁بدو": 1248,
      "الحي": 1249,
      "▁الحي": 1250,
      "ليس": 1251,
      "▁ليس": 1252,
      "تن": 1253,
      "▁تن": 1254,
      "طار": 1255,
      "▁طار": 1256,
      "الكلب": 1257,
      "▁الكلب": 1258,
      "إي": 1259,
      "▁إي": 1260,
      "لوس": 1261,
      "▁لوس": 1262,
      "الماء": 1263,
      "▁الماء": 1264,
      "يريد": 1265,
      "▁يريد": 1266,
      "طلب": 1267,
      "▁طلب": 1268,
      "الوقت": 1269,
      "▁الوقت": 1270,
      "المز": 1271,
      "▁المز": 1272,
      "آسف": 1273,
      "▁آسف": 1274,
      "منذ": 1275,
      "▁منذ": 1276,
      "يمكنني": 1277,
      "▁يمكنني": 1278,
      "فع": 1279,
      "▁فع": 1280,
      "فخ": 1281,
      "▁فخ": 1282,
      "تهم": 1283,
      "▁تهم": 1284,
      "جين": 1285,
      "▁جين": 1286,
      "رؤ": 1287,
      "▁رؤ": 1288,
      "بخ": 1289,
      "▁بخ": 1290,
      "ذيذ": 1291,
      "▁ذيذ": 1292,
      "مرحبا": 1293,
      "▁مرحبا": 1294,
      "قرر": 1295,
      "▁قرر": 1296,
      "لديهم": 1297,
      "▁لديهم": 1298,
      "مام": 1299,
      "▁مام": 1300,
      "يشعر": 1301,
      "▁يشعر": 1302,
      "تلعب": 1303,
      "▁تلعب": 1304,
      "الغابة": 1305,
      "▁الغابة": 1306,
      "النهاية": 1307,
      "▁النهاية": 1308,
      "جيد": 1309,
      "▁جيد": 1310,
      "ابت": 1311,
      "▁ابت": 1312,
      "لأن": 1313,
      "▁لأن": 1314,
      "أصدقاء": 1315,
      "▁أصدقاء": 1316,
      "السماء": 1317,
      "▁السماء": 1318,
      "وجدت": 1319,
      "▁وجدت": 1320,
      "وك": 1321,
      "▁وك": 1322,
      "ئة": 1323,
      "▁ئة": 1324,
      "الشجرة": 1325,
      "▁الشجرة": 1326,
      "طوي": 1327,
      "▁طوي": 1328,
      "كثيرا": 1329,
      "▁كثيرا": 1330,
      "الإ": 1331,
      "▁الإ": 1332,
      "لذيذ": 1333,
      "▁لذيذ": 1334,
      "بت": 1335,
      "▁بت": 1336,
      "طيع": 1337,
      "▁طيع": 1338,
      "شة": 1339,
      "▁شة": 1340,
      "طائر": 1341,
      "▁طائر": 1342,
      "الا": 1343,
      "▁الا": 1344,
      "سو": 1345,
      "▁سو": 1346,
      "متحمسة": 1347,
      "▁متحمسة": 1348,
      "الز": 1349,
      "▁الز": 1350,
      "تر": 1351,
      "▁تر": 1352,
      "مثل": 1353,
      "▁مثل": 1354,
      "عليه": 1355,
      "▁عليه": 1356,
      "طير": 1357,
      "▁طير": 1358,
      "بدا": 1359,
      "▁بدا": 1360,
      "ظهر": 1361,
      "▁ظهر": 1362,
      "شجرة": 1363,
      "▁شجرة": 1364,
      "بك": 1365,
      "▁بك": 1366,
      "عاد": 1367,
      "▁عاد": 1368,
      "للعب": 1369,
      "▁للعب": 1370,
      "الشا": 1371,
      "▁الشا": 1372,
      "الذهاب": 1373,
      "▁الذهاب": 1374,
      "لوسي": 1375,
      "▁لوسي": 1376,
      "هي": 1377,
      "▁هي": 1378,
      "رته": 1379,
      "▁رته": 1380,
      "والدته": 1381,
      "▁والدته": 1382,
      "ممتع": 1383,
      "▁ممتع": 1384,
      "وات": 1385,
      "▁وات": 1386,
      "قبل": 1387,
      "▁قبل": 1388,
      "عتقد": 1389,
      "▁عتقد": 1390,
      "لأنه": 1391,
      "▁لأنه": 1392,
      "شاف": 1393,
      "▁شاف": 1394,
      "ثور": 1395,
      "▁ثور": 1396,
      "بالح": 1397,
      "▁بالح": 1398,
      "رس": 1399,
      "▁رس": 1400,
      "بوب": 1401,
      "▁بوب": 1402,
      "تكن": 1403,
      "▁تكن": 1404,
      "صول": 1405,
      "▁صول": 1406,
      "عليها": 1407,
      "▁عليها": 1408,
      "الدب": 1409,
      "▁الدب": 1410,
      "ضع": 1411,
      "▁ضع": 1412,
      "لاحظ": 1413,
      "▁لاحظ": 1414,
      "لذا": 1415,
      "▁لذا": 1416,
      "المط": 1417,
      "▁المط": 1418,
      "انظر": 1419,
      "▁انظر": 1420,
      "سيا": 1421,
      "▁سيا": 1422,
      "ذك": 1423,
      "▁ذك": 1424,
      "يدي": 1425,
      "▁يدي": 1426,
      "دعونا": 1427,
      "▁دعونا": 1428,
      "الجميع": 1429,
      "▁الجميع": 1430,
      "سك": 1431,
      "▁سك": 1432,
      "واحد": 1433,
      "▁واحد": 1434,
      "الض": 1435,
      "▁الض": 1436,
      "فتح": 1437,
      "▁فتح": 1438,
      "أحد": 1439,
      "▁أحد": 1440,
      "وصل": 1441,
      "▁وصل": 1442,
      "شجا": 1443,
      "▁شجا": 1444,
      "تحد": 1445,
      "▁تحد": 1446,
      "نة": 1447,
      "▁نة": 1448,
      "الحيوانات": 1449,
      "▁الحيوانات": 1450,
      "غاض": 1451,
      "▁غاض": 1452,
      "وأبي": 1453,
      "▁وأبي": 1454,
      "زال": 1455,
      "▁زال": 1456,
      "كشاف": 1457,
      "▁كشاف": 1458,
      "أصدقائه": 1459,
      "▁أصدقائه": 1460,
      "ودة": 1461,
      "▁ودة": 1462,
      "سنا": 1463,
      "▁سنا": 1464,
      "زا": 1465,
      "▁زا": 1466,
      "بإ": 1467,
      "▁بإ": 1468,
      "الألعاب": 1469,
      "▁الألعاب": 1470,
      "طفال": 1471,
      "▁طفال": 1472,
      "فترة": 1473,
      "▁فترة": 1474,
      "نظرت": 1475,
      "▁نظرت": 1476,
      "فق": 1477,
      "▁فق": 1478,
      "سرعة": 1479,
      "▁سرعة": 1480,
      "واست": 1481,
      "▁واست": 1482,
      "أخب": 1483,
      "▁أخب": 1484,
      "خص": 1485,
      "▁خص": 1486,
      "قص": 1487,
      "▁قص": 1488,
      "المت": 1489,
      "▁المت": 1490,
      "العد": 1491,
      "▁العد": 1492,
      "الذي": 1493,
      "▁الذي": 1494,
      "حدث": 1495,
      "▁حدث": 1496,
      "زن": 1497,
      "▁زن": 1498,
      "أعط": 1499,
      "▁أعط": 1500,
      "صرخ": 1501,
      "▁صرخ": 1502,
      "رفت": 1503,
      "▁رفت": 1504,
      "رتها": 1505,
      "▁رتها": 1506,
      "يرا": 1507,
      "▁يرا": 1508,
      "جديدة": 1509,
      "▁جديدة": 1510,
      "وليلي": 1511,
      "▁وليلي": 1512,
      "اسم": 1513,
      "▁اسم": 1514,
      "أريد": 1515,
      "▁أريد": 1516,
      "رأس": 1517,
      "▁رأس": 1518,
      "ده": 1519,
      "▁ده": 1520,
      "حسنا": 1521,
      "▁حسنا": 1522,
      "قرب": 1523,
      "▁قرب": 1524,
      "بش": 1525,
      "▁بش": 1526,
      "العش": 1527,
      "▁العش": 1528,
      "مسا": 1529,
      "▁مسا": 1530,
      "الآخر": 1531,
      "▁الآخر": 1532,
      "قيق": 1533,
      "▁قيق": 1534,
      "بسرعة": 1535,
      "▁بسرعة": 1536,
      "كيف": 1537,
      "▁كيف": 1538,
      "الكت": 1539,
      "▁الكت": 1540,
      "أبي": 1541,
      "▁أبي": 1542,
      "سعيدا": 1543,
      "▁سعيدا": 1544,
      "ولا": 1545,
      "▁ولا": 1546,
      "الأخ": 1547,
      "▁الأخ": 1548,
      "الأرنب": 1549,
      "▁الأرنب": 1550,
      "شكر": 1551,
      "▁شكر": 1552,
      "كانا": 1553,
      "▁كانا": 1554,
      "لماذا": 1555,
      "▁لماذا": 1556,
      "تحدث": 1557,
      "▁تحدث": 1558,
      "الخاص": 1559,
      "▁الخاص": 1560,
      "الداخل": 1561,
      "▁الداخل": 1562,
      "الكرة": 1563,
      "▁الكرة": 1564,
      "أس": 1565,
      "▁أس": 1566,
      "أخذت": 1567,
      "▁أخذت": 1568,
      "فل": 1569,
      "▁فل": 1570,
      "ركة": 1571,
      "▁ركة": 1572,
      "أنهم": 1573,
      "▁أنهم": 1574,
      "فكرة": 1575,
      "▁فكرة": 1576,
      "عم": 1577,
      "▁عم": 1578,
      "وبدأ": 1579,
      "▁وبدأ": 1580,
      "الأم": 1581,
      "▁الأم": 1582,
      "حزينة": 1583,
      "▁حزينة": 1584,
      "صندوق": 1585,
      "▁صندوق": 1586,
      "آخر": 1587,
      "▁آخر": 1588,
      "بعضهم": 1589,
      "▁بعضهم": 1590,
      "لاق": 1591,
      "▁لاق": 1592,
      "جميل": 1593,
      "▁جميل": 1594,
      "غب": 1595,
      "▁غب": 1596,
      "حم": 1597,
      "▁حم": 1598,
      "ألعاب": 1599,
      "▁ألعاب": 1600,
      "يحبون": 1601,
      "▁يحبون": 1602,
      "عليك": 1603,
      "▁عليك": 1604,
      "ربما": 1605,
      "▁ربما": 1606,
      "حظ": 1607,
      "▁حظ": 1608,
      "حر": 1609,
      "▁حر": 1610,
      "لس": 1611,
      "▁لس": 1612,
      "جوز": 1613,
      "▁جوز": 1614,
      "ناول": 1615,
      "▁ناول": 1616,
      "طريق": 1617,
      "▁طريق": 1618,
      "اج": 1619,
      "▁اج": 1620,
      "رؤية": 1621,
      "▁رؤية": 1622,
      "ينا": 1623,
      "▁ينا": 1624,
      "وة": 1625,
      "▁وة": 1626,
      "وأراد": 1627,
      "▁وأراد": 1628,
      "نحن": 1629,
      "▁نحن": 1630,
      "لأنها": 1631,
      "▁لأنها": 1632,
      "تظ": 1633,
      "▁تظ": 1634,
      "الصندوق": 1635,
      "▁الصندوق": 1636,
      "العديد": 1637,
      "▁العديد": 1638,
      "الزه": 1639,
      "▁الزه": 1640,
      "أد": 1641,
      "▁أد": 1642,
      "تعرف": 1643,
      "▁تعرف": 1644,
      "مساعد": 1645,
      "▁مساعد": 1646,
      "الأس": 1647,
      "▁الأس": 1648,
      "السيارة": 1649,
      "▁السيارة": 1650,
      "بل": 1651,
      "▁بل": 1652,
      "أوم": 1653,
      "▁أوم": 1654,
      "شارك": 1655,
      "▁شارك": 1656,
      "دية": 1657,
      "▁دية": 1658,
      "لامع": 1659,
      "▁لامع": 1660,
      "شج": 1661,
      "▁شج": 1662,
      "نفس": 1663,
      "▁نفس": 1664,
      "يه": 1665,
      "▁يه": 1666,
      "أح": 1667,
      "▁أح": 1668,
      "سبوت": 1669,
      "▁سبوت": 1670,
      "خائفة": 1671,
      "▁خائفة": 1672,
      "قررت": 1673,
      "▁قررت": 1674,
      "تشعر": 1675,
      "▁تشعر": 1676,
      "إليه": 1677,
      "▁إليه": 1678,
      "انق": 1679,
      "▁انق": 1680,
      "عكة": 1681,
      "▁عكة": 1682,
      "بار": 1683,
      "▁بار": 1684,
      "ارت": 1685,
      "▁ارت": 1686,
      "أت": 1687,
      "▁أت": 1688,
      "كرة": 1689,
      "▁كرة": 1690,
      "العثور": 1691,
      "▁العثور": 1692,
      "رأوا": 1693,
      "▁رأوا": 1694,
      "لعبوا": 1695,
      "▁لعبوا": 1696,
      "فين": 1697,
      "▁فين": 1698,
      "تمكن": 1699,
      "▁تمكن": 1700,
      "ودا": 1701,
      "▁ودا": 1702,
      "الاست": 1703,
      "▁الاست": 1704,
      "تحسن": 1705,
      "▁تحسن": 1706,
      "اعتقد": 1707,
      "▁اعتقد": 1708,
      "يفة": 1709,
      "▁يفة": 1710,
      "طوال": 1711,
      "▁طوال": 1712,
      "أصدقائها": 1713,
      "▁أصدقائها": 1714,
      "مساعدة": 1715,
      "▁مساعدة": 1716,
      "يركض": 1717,
      "▁يركض": 1718,
      "وجه": 1719,
      "▁وجه": 1720,
      "ضر": 1721,
      "▁ضر": 1722,
      "تج": 1723,
      "▁تج": 1724,
      "تفعل": 1725,
      "▁تفعل": 1726,
      "اخت": 1727,
      "▁اخت": 1728,
      "ورأت": 1729,
      "▁ورأت": 1730,
      "المساعدة": 1731,
      "▁المساعدة": 1732,
      "سيارة": 1733,
      "▁سيارة": 1734,
      "اله": 1735,
      "▁اله": 1736,
      "شخص": 1737,
      "▁شخص": 1738,
      "الباب": 1739,
      "▁الباب": 1740,
      "دا": 1741,
      "▁دا": 1742,
      "غرفت": 1743,
      "▁غرفت": 1744,
      "المتجر": 1745,
      "▁المتجر": 1746,
      "زرق": 1747,
      "▁زرق": 1748,
      "ركضت": 1749,
      "▁ركضت": 1750,
      "الناس": 1751,
      "▁الناس": 1752,
      "تف": 1753,
      "▁تف": 1754,
      "خط": 1755,
      "▁خط": 1756,
      "لام": 1757,
      "▁لام": 1758,
      "الور": 1759,
      "▁الور": 1760,
      "تك": 1761,
      "▁تك": 1762,
      "يبدو": 1763,
      "▁يبدو": 1764,
      "يل": 1765,
      "▁يل": 1766,
      "جديد": 1767,
      "▁جديد": 1768,
      "بالحزن": 1769,
      "▁بالحزن": 1770,
      "عب": 1771,
      "▁عب": 1772,
      "ورا": 1773,
      "▁ورا": 1774,
      "ختل": 1775,
      "▁ختل": 1776,
      "يذهب": 1777,
      "▁يذهب": 1778,
      "فضولي": 1779,
      "▁فضولي": 1780,
      "وسأ": 1781,
      "▁وسأ": 1782,
      "آمن": 1783,
      "▁آمن": 1784,
      "قام": 1785,
      "▁قام": 1786,
      "عام": 1787,
      "▁عام": 1788,
      "الان": 1789,
      "▁الان": 1790,
      "وها": 1791,
      "▁وها": 1792,
      "بس": 1793,
      "▁بس": 1794,
      "كلا": 1795,
      "▁كلا": 1796,
      "ورأى": 1797,
      "▁ورأى": 1798,
      "قري": 1799,
      "▁قري": 1800,
      "الحصول": 1801,
      "▁الحصول": 1802,
      "حا": 1803,
      "▁حا": 1804,
      "حف": 1805,
      "▁حف": 1806,
      "وية": 1807,
      "▁وية": 1808,
      "بإمكان": 1809,
      "▁بإمكان": 1810,
      "حان": 1811,
      "▁حان": 1812,
      "وبدأت": 1813,
      "▁وبدأت": 1814,
      "يستطع": 1815,
      "▁يستطع": 1816,
      "وحة": 1817,
      "▁وحة": 1818,
      "عط": 1819,
      "▁عط": 1820,
      "حذرا": 1821,
      "▁حذرا": 1822,
      "صدقاء": 1823,
      "▁صدقاء": 1824,
      "مد": 1825,
      "▁مد": 1826,
      "توقف": 1827,
      "▁توقف": 1828,
      "المزيد": 1829,
      "▁المزيد": 1830,
      "بألعاب": 1831,
      "▁بألعاب": 1832,
      "اني": 1833,
      "▁اني": 1834,
      "والأ": 1835,
      "▁والأ": 1836,
      "القطة": 1837,
      "▁القطة": 1838,
      "عين": 1839,
      "▁عين": 1840,
      "جو": 1841,
      "▁جو": 1842,
      "حنة": 1843,
      "▁حنة": 1844,
      "المرح": 1845,
      "▁المرح": 1846,
      "باح": 1847,
      "▁باح": 1848,
      "نج": 1849,
      "▁نج": 1850,
      "ملي": 1851,
      "▁ملي": 1852,
      "وما": 1853,
      "▁وما": 1854,
      "مو": 1855,
      "▁مو": 1856,
      "الل": 1857,
      "▁الل": 1858,
      "ليلى": 1859,
      "▁ليلى": 1860,
      "تد": 1861,
      "▁تد": 1862,
      "استخد": 1863,
      "▁استخد": 1864,
      "الأصدقاء": 1865,
      "▁الأصدقاء": 1866,
      "قلي": 1867,
      "▁قلي": 1868,
      "ذهبوا": 1869,
      "▁ذهبوا": 1870,
      "قاد": 1871,
      "▁قاد": 1872,
      "نح": 1873,
      "▁نح": 1874,
      "تحرك": 1875,
      "▁تحرك": 1876,
      "قل": 1877,
      "▁قل": 1878,
      "بالسعادة": 1879,
      "▁بالسعادة": 1880,
      "التقط": 1881,
      "▁التقط": 1882,
      "حولها": 1883,
      "▁حولها": 1884,
      "يح": 1885,
      "▁يح": 1886,
      "لطيفة": 1887,
      "▁لطيفة": 1888,
      "تقد": 1889,
      "▁تقد": 1890,
      "صة": 1891,
      "▁صة": 1892,
      "شف": 1893,
      "▁شف": 1894,
      "مه": 1895,
      "▁مه": 1896,
      "ولة": 1897,
      "▁ولة": 1898,
      "أغ": 1899,
      "▁أغ": 1900,
      "بتحسن": 1901,
      "▁بتحسن": 1902,
      "أشياء": 1903,
      "▁أشياء": 1904,
      "فضلك": 1905,
      "▁فضلك": 1906,
      "أرج": 1907,
      "▁أرج": 1908,
      "لمس": 1909,
      "▁لمس": 1910,
      "عائ": 1911,
      "▁عائ": 1912,
      "مست": 1913,
      "▁مست": 1914,
      "خرة": 1915,
      "▁خرة": 1916,
      "ترى": 1917,
      "▁ترى": 1918,
      "أصبح": 1919,
      "▁أصبح": 1920,
      "اللعبة": 1921,
      "▁اللعبة": 1922,
      "بير": 1923,
      "▁بير": 1924,
      "غير": 1925,
      "▁غير": 1926,
      "وركض": 1927,
      "▁وركض": 1928,
      "بالط": 1929,
      "▁بالط": 1930,
      "كم": 1931,
      "▁كم": 1932,
      "الطعام": 1933,
      "▁الطعام": 1934,
      "طويلة": 1935,
      "▁طويلة": 1936,
      "هز": 1937,
      "▁هز": 1938,
      "الأطفال": 1939,
      "▁الأطفال": 1940,
      "ساء": 1941,
      "▁ساء": 1942,
      "رائع": 1943,
      "▁رائع": 1944,
      "مية": 1945,
      "▁مية": 1946,
      "المع": 1947,
      "▁المع": 1948,
      "أدرك": 1949,
      "▁أدرك": 1950,
      "خاصة": 1951,
      "▁خاصة": 1952,
      "إليها": 1953,
      "▁إليها": 1954,
      "جب": 1955,
      "▁جب": 1956,
      "مرت": 1957,
      "▁مرت": 1958,
      "واء": 1959,
      "▁واء": 1960,
      "بالقرب": 1961,
      "▁بالقرب": 1962,
      "واحدة": 1963,
      "▁واحدة": 1964,
      "نية": 1965,
      "▁نية": 1966,
      "الطريق": 1967,
      "▁الطريق": 1968,
      "المطبخ": 1969,
      "▁المطبخ": 1970,
      "وخ": 1971,
      "▁وخ": 1972,
      "ومنذ": 1973,
      "▁ومنذ": 1974,
      "رض": 1975,
      "▁رض": 1976,
      "وتوم": 1977,
      "▁وتوم": 1978,
      "تص": 1979,
      "▁تص": 1980,
      "تومي": 1981,
      "▁تومي": 1982,
      "قول": 1983,
      "▁قول": 1984,
      "ارب": 1985,
      "▁ارب": 1986,
      "إنهم": 1987,
      "▁إنهم": 1988,
      "يفعل": 1989,
      "▁يفعل": 1990,
      "الكبيرة": 1991,
      "▁الكبيرة": 1992,
      "يلعبون": 1993,
      "▁يلعبون": 1994,
      "إيمي": 1995,
      "▁إيمي": 1996,
      "غرفة": 1997,
      "▁غرفة": 1998,
      "لذيذة": 1999,
      "▁لذيذة": 2000,
      "عانق": 2001,
      "▁عانق": 2002,
      "ياح": 2003,
      "▁ياح": 2004,
      "قليلا": 2005,
      "▁قليلا": 2006,
      "يرى": 2007,
      "▁يرى": 2008,
      "نظيف": 2009,
      "▁نظيف": 2010,
      "سمعت": 2011,
      "▁سمعت": 2012,
      "يرون": 2013,
      "▁يرون": 2014,
      "إص": 2015,
      "▁إص": 2016,
      "عمر": 2017,
      "▁عمر": 2018,
      "اللي": 2019,
      "▁اللي": 2020,
      "تظر": 2021,
      "▁تظر": 2022,
      "بيني": 2023,
      "▁بيني": 2024,
      "كبر": 2025,
      "▁كبر": 2026,
      "دت": 2027,
      "▁دت": 2028,
      "طئ": 2029,
      "▁طئ": 2030,
      "ونة": 2031,
      "▁ونة": 2032,
      "متحمسا": 2033,
      "▁متحمسا": 2034,
      "وضعت": 2035,
      "▁وضعت": 2036,
      "تسلق": 2037,
      "▁تسلق": 2038,
      "حيان": 2039,
      "▁حيان": 2040,
      "الكبير": 2041,
      "▁الكبير": 2042,
      "لج": 2043,
      "▁لج": 2044,
      "جاءت": 2045,
      "▁جاءت": 2046,
      "بم": 2047,
      "▁بم": 2048,
      "ظه": 2049,
      "▁ظه": 2050,
      "زر": 2051,
      "▁زر": 2052,
      "سرع": 2053,
      "▁سرع": 2054,
      "يك": 2055,
      "▁يك": 2056,
      "الفرا": 2057,
      "▁الفرا": 2058,
      "الأخرى": 2059,
      "▁الأخرى": 2060,
      "العشب": 2061,
      "▁العشب": 2062,
      "الطي": 2063,
      "▁الطي": 2064,
      "ديد": 2065,
      "▁ديد": 2066,
      "القر": 2067,
      "▁القر": 2068,
      "ينظر": 2069,
      "▁ينظر": 2070,
      "الزهور": 2071,
      "▁الزهور": 2072,
      "الأمر": 2073,
      "▁الأمر": 2074,
      "جيدة": 2075,
      "▁جيدة": 2076,
      "يحبان": 2077,
      "▁يحبان": 2078,
      "صدر": 2079,
      "▁صدر": 2080,
      "شرة": 2081,
      "▁شرة": 2082,
      "للع": 2083,
      "▁للع": 2084,
      "والده": 2085,
      "▁والده": 2086,
      "سرعان": 2087,
      "▁سرعان": 2088,
      "كلاهما": 2089,
      "▁كلاهما": 2090,
      "كنت": 2091,
      "▁كنت": 2092,
      "فذ": 2093,
      "▁فذ": 2094,
      "انته": 2095,
      "▁انته": 2096,
      "بو": 2097,
      "▁بو": 2098,
      "لوان": 2099,
      "▁لوان": 2100,
      "شجار": 2101,
      "▁شجار": 2102,
      "بات": 2103,
      "▁بات": 2104,
      "لفترة": 2105,
      "▁لفترة": 2106,
      "وراء": 2107,
      "▁وراء": 2108,
      "واو": 2109,
      "▁واو": 2110,
      "بالطبع": 2111,
      "▁بالطبع": 2112,
      "العجوز": 2113,
      "▁العجوز": 2114,
      "أين": 2115,
      "▁أين": 2116,
      "ارع": 2117,
      "▁ارع": 2118,
      "ووضع": 2119,
      "▁ووضع": 2120,
      "مغ": 2121,
      "▁مغ": 2122,
      "دائم": 2123,
      "▁دائم": 2124,
      "ائرة": 2125,
      "▁ائرة": 2126,
      "لهم": 2127,
      "▁لهم": 2128,
      "وابتسم": 2129,
      "▁وابتسم": 2130,
      "أخيرا": 2131,
      "▁أخيرا": 2132,
      "الخط": 2133,
      "▁الخط": 2134,
      "ومة": 2135,
      "▁ومة": 2136,
      "والدها": 2137,
      "▁والدها": 2138,
      "يوما": 2139,
      "▁يوما": 2140,
      "بأس": 2141,
      "▁بأس": 2142,
      "تخ": 2143,
      "▁تخ": 2144,
      "معه": 2145,
      "▁معه": 2146,
      "بالأ": 2147,
      "▁بالأ": 2148,
      "رائعة": 2149,
      "▁رائعة": 2150,
      "لطف": 2151,
      "▁لطف": 2152,
      "الآخرين": 2153,
      "▁الآخرين": 2154,
      "لرؤية": 2155,
      "▁لرؤية": 2156,
      "لته": 2157,
      "▁لته": 2158,
      "مكن": 2159,
      "▁مكن": 2160,
      "رر": 2161,
      "▁رر": 2162,
      "السا": 2163,
      "▁السا": 2164,
      "مختل": 2165,
      "▁مختل": 2166,
      "وأم": 2167,
      "▁وأم": 2168,
      "كما": 2169,
      "▁كما": 2170,
      "سقط": 2171,
      "▁سقط": 2172,
      "حاولت": 2173,
      "▁حاولت": 2174,
      "لابس": 2175,
      "▁لابس": 2176,
      "ترت": 2177,
      "▁ترت": 2178,
      "وصلوا": 2179,
      "▁وصلوا": 2180,
      "سالي": 2181,
      "▁سالي": 2182,
      "حص": 2183,
      "▁حص": 2184,
      "كلما": 2185,
      "▁كلما": 2186,
      "دب": 2187,
      "▁دب": 2188,
      "غض": 2189,
      "▁غض": 2190,
      "لدى": 2191,
      "▁لدى": 2192,
      "الطيور": 2193,
      "▁الطيور": 2194,
      "خائف": 2195,
      "▁خائف": 2196,
      "بالخ": 2197,
      "▁بالخ": 2198,
      "بعة": 2199,
      "▁بعة": 2200,
      "يعيش": 2201,
      "▁يعيش": 2202,
      "لكنهم": 2203,
      "▁لكنهم": 2204,
      "أوه": 2205,
      "▁أوه": 2206,
      "اسمه": 2207,
      "▁اسمه": 2208,
      "يجد": 2209,
      "▁يجد": 2210,
      "يستطيع": 2211,
      "▁يستطيع": 2212,
      "عمل": 2213,
      "▁عمل": 2214,
      "طلبت": 2215,
      "▁طلبت": 2216,
      "فخورة": 2217,
      "▁فخورة": 2218,
      "مق": 2219,
      "▁مق": 2220,
      "الجديدة": 2221,
      "▁الجديدة": 2222,
      "صديقه": 2223,
      "▁صديقه": 2224,
      "أجاب": 2225,
      "▁أجاب": 2226,
      "سامة": 2227,
      "▁سامة": 2228,
      "نس": 2229,
      "▁نس": 2230,
      "بنفس": 2231,
      "▁بنفس": 2232,
      "ذكر": 2233,
      "▁ذكر": 2234,
      "بيلي": 2235,
      "▁بيلي": 2236,
      "جل": 2237,
      "▁جل": 2238,
      "تقلق": 2239,
      "▁تقلق": 2240,
      "بسعادة": 2241,
      "▁بسعادة": 2242,
      "مخ": 2243,
      "▁مخ": 2244,
      "لإ": 2245,
      "▁لإ": 2246,
      "الخاصة": 2247,
      "▁الخاصة": 2248,
      "بز": 2249,
      "▁بز": 2250,
      "بيب": 2251,
      "▁بيب": 2252,
      "العالم": 2253,
      "▁العالم": 2254,
      "حق": 2255,
      "▁حق": 2256,
      "مج": 2257,
      "▁مج": 2258,
      "عك": 2259,
      "▁عك": 2260,
      "الشاطئ": 2261,
      "▁الشاطئ": 2262,
      "البركة": 2263,
      "▁البركة": 2264,
      "سيكون": 2265,
      "▁سيكون": 2266,
      "اهر": 2267,
      "▁اهر": 2268,
      "وء": 2269,
      "▁وء": 2270,
      "الطفل": 2271,
      "▁الطفل": 2272,
      "ذر": 2273,
      "▁ذر": 2274,
      "لمع": 2275,
      "▁لمع": 2276,
      "شر": 2277,
      "▁شر": 2278,
      "للا": 2279,
      "▁للا": 2280,
      "كتب": 2281,
      "▁كتب": 2282,
      "احت": 2283,
      "▁احت": 2284,
      "الحين": 2285,
      "▁الحين": 2286,
      "دعنا": 2287,
      "▁دعنا": 2288,
      "ليست": 2289,
      "▁ليست": 2290,
      "يحت": 2291,
      "▁يحت": 2292,
      "عنا": 2293,
      "▁عنا": 2294,
      "تا": 2295,
      "▁تا": 2296,
      "غامرة": 2297,
      "▁غامرة": 2298,
      "كه": 2299,
      "▁كه": 2300,
      "أتي": 2301,
      "▁أتي": 2302,
      "يب": 2303,
      "▁يب": 2304,
      "قض": 2305,
      "▁قض": 2306,
      "انب": 2307,
      "▁انب": 2308,
      "غري": 2309,
      "▁غري": 2310,
      "حك": 2311,
      "▁حك": 2312,
      "تستطع": 2313,
      "▁تستطع": 2314,
      "يعد": 2315,
      "▁يعد": 2316,
      "منه": 2317,
      "▁منه": 2318,
      "عاليا": 2319,
      "▁عاليا": 2320,
      "بشكل": 2321,
      "▁بشكل": 2322,
      "فية": 2323,
      "▁فية": 2324,
      "التالي": 2325,
      "▁التالي": 2326,
      "حزينا": 2327,
      "▁حزينا": 2328,
      "رقص": 2329,
      "▁رقص": 2330,
      "يزال": 2331,
      "▁يزال": 2332,
      "فدع": 2333,
      "▁فدع": 2334,
      "منده": 2335,
      "▁منده": 2336,
      "البح": 2337,
      "▁البح": 2338,
      "ماع": 2339,
      "▁ماع": 2340,
      "طر": 2341,
      "▁طر": 2342,
      "فيه": 2343,
      "▁فيه": 2344,
      "تذهب": 2345,
      "▁تذهب": 2346,
      "معها": 2347,
      "▁معها": 2348,
      "وعاء": 2349,
      "▁وعاء": 2350,
      "صديقتها": 2351,
      "▁صديقتها": 2352,
      "السيدة": 2353,
      "▁السيدة": 2354,
      "وصلت": 2355,
      "▁وصلت": 2356,
      "الذ": 2357,
      "▁الذ": 2358,
      "القيام": 2359,
      "▁القيام": 2360,
      "أعلى": 2361,
      "▁أعلى": 2362,
      "صباح": 2363,
      "▁صباح": 2364,
      "سل": 2365,
      "▁سل": 2366,
      "والم": 2367,
      "▁والم": 2368,
      "الأرج": 2369,
      "▁الأرج": 2370,
      "بقوة": 2371,
      "▁بقوة": 2372,
      "خائفا": 2373,
      "▁خائفا": 2374,
      "تغ": 2375,
      "▁تغ": 2376,
      "يمة": 2377,
      "▁يمة": 2378,
      "بعنا": 2379,
      "▁بعنا": 2380,
      "الحلو": 2381,
      "▁الحلو": 2382,
      "واللعب": 2383,
      "▁واللعب": 2384,
      "نزه": 2385,
      "▁نزه": 2386,
      "بالم": 2387,
      "▁بالم": 2388,
      "للت": 2389,
      "▁للت": 2390,
      "لامعة": 2391,
      "▁لامعة": 2392,
      "شجاعة": 2393,
      "▁شجاعة": 2394,
      "إصلاح": 2395,
      "▁إصلاح": 2396,
      "داخل": 2397,
      "▁داخل": 2398,
      "اولة": 2399,
      "▁اولة": 2400,
      "يران": 2401,
      "▁يران": 2402,
      "قالوا": 2403,
      "▁قالوا": 2404,
      "يها": 2405,
      "▁يها": 2406,
      "السبا": 2407,
      "▁السبا": 2408,
      "تعلمت": 2409,
      "▁تعلمت": 2410,
      "ابتسامة": 2411,
      "▁ابتسامة": 2412,
      "أولا": 2413,
      "▁أولا": 2414,
      "أخبر": 2415,
      "▁أخبر": 2416,
      "تظار": 2417,
      "▁تظار": 2418,
      "بعناية": 2419,
      "▁بعناية": 2420,
      "البق": 2421,
      "▁البق": 2422,
      "سمكة": 2423,
      "▁سمكة": 2424,
      "ربة": 2425,
      "▁ربة": 2426,
      "ديزي": 2427,
      "▁ديزي": 2428,
      "طويل": 2429,
      "▁طويل": 2430,
      "راج": 2431,
      "▁راج": 2432,
      "تذك": 2433,
      "▁تذك": 2434,
      "التل": 2435,
      "▁التل": 2436,
      "قلق": 2437,
      "▁قلق": 2438,
      "ربت": 2439,
      "▁ربت": 2440,
      "تبدو": 2441,
      "▁تبدو": 2442,
      "فضلة": 2443,
      "▁فضلة": 2444,
      "عج": 2445,
      "▁عج": 2446,
      "الغرفة": 2447,
      "▁الغرفة": 2448,
      "الثالث": 2449,
      "▁الثالث": 2450,
      "البي": 2451,
      "▁البي": 2452,
      "قطة": 2453,
      "▁قطة": 2454,
      "منها": 2455,
      "▁منها": 2456,
      "وسام": 2457,
      "▁وسام": 2458,
      "سفل": 2459,
      "▁سفل": 2460,
      "رو": 2461,
      "▁رو": 2462,
      "ختب": 2463,
      "▁ختب": 2464,
      "المرة": 2465,
      "▁المرة": 2466,
      "وعد": 2467,
      "▁وعد": 2468,
      "المن": 2469,
      "▁المن": 2470,
      "أرنب": 2471,
      "▁أرنب": 2472,
      "بداخل": 2473,
      "▁بداخل": 2474,
      "استكشاف": 2475,
      "▁استكشاف": 2476,
      "استمتع": 2477,
      "▁استمتع": 2478,
      "لاجة": 2479,
      "▁لاجة": 2480,
      "داء": 2481,
      "▁داء": 2482,
      "الثالثة": 2483,
      "▁الثالثة": 2484,
      "لات": 2485,
      "▁لات": 2486,
      "ممي": 2487,
      "▁ممي": 2488,
      "وشعرت": 2489,
      "▁وشعرت": 2490,
      "لتها": 2491,
      "▁لتها": 2492,
      "نت": 2493,
      "▁نت": 2494,
      "بأن": 2495,
      "▁بأن": 2496,
      "شاركة": 2497,
      "▁شاركة": 2498,
      "مولي": 2499,
      "▁مولي": 2500,
      "وسر": 2501,
      "▁وسر": 2502,
      "مها": 2503,
      "▁مها": 2504,
      "يأخذ": 2505,
      "▁يأخذ": 2506,
      "تأخذ": 2507,
      "▁تأخذ": 2508,
      "ونها": 2509,
      "▁ونها": 2510,
      "حديقة": 2511,
      "▁حديقة": 2512,
      "عالية": 2513,
      "▁عالية": 2514,
      "يجعل": 2515,
      "▁يجعل": 2516,
      "زهرة": 2517,
      "▁زهرة": 2518,
      "فخر": 2519,
      "▁فخر": 2520,
      "حاء": 2521,
      "▁حاء": 2522,
      "اقت": 2523,
      "▁اقت": 2524,
      "درس": 2525,
      "▁درس": 2526,
      "ضة": 2527,
      "▁ضة": 2528,
      "الانتظار": 2529,
      "▁الانتظار": 2530,
      "وأص": 2531,
      "▁وأص": 2532,
      "الكعكة": 2533,
      "▁الكعكة": 2534,
      "رقة": 2535,
      "▁رقة": 2536,
      "يرغب": 2537,
      "▁يرغب": 2538,
      "أنحاء": 2539,
      "▁أنحاء": 2540,
      "مز": 2541,
      "▁مز": 2542,
      "وش": 2543,
      "▁وش": 2544,
      "صرخت": 2545,
      "▁صرخت": 2546,
      "وسا": 2547,
      "▁وسا": 2548,
      "بما": 2549,
      "▁بما": 2550,
      "وداعا": 2551,
      "▁وداعا": 2552,
      "تمن": 2553,
      "▁تمن": 2554,
      "بحت": 2555,
      "▁بحت": 2556,
      "حظة": 2557,
      "▁حظة": 2558,
      "أرجح": 2559,
      "▁أرجح": 2560,
      "يء": 2561,
      "▁يء": 2562,
      "كريم": 2563,
      "▁كريم": 2564,
      "للم": 2565,
      "▁للم": 2566,
      "زان": 2567,
      "▁زان": 2568,
      "غاضبة": 2569,
      "▁غاضبة": 2570,
      "الجديد": 2571,
      "▁الجديد": 2572,
      "يلعبان": 2573,
      "▁يلعبان": 2574,
      "طلاق": 2575,
      "▁طلاق": 2576,
      "لاث": 2577,
      "▁لاث": 2578,
      "بج": 2579,
      "▁بج": 2580,
      "المفضلة": 2581,
      "▁المفضلة": 2582,
      "صف": 2583,
      "▁صف": 2584,
      "السيا": 2585,
      "▁السيا": 2586,
      "غط": 2587,
      "▁غط": 2588,
      "المهم": 2589,
      "▁المهم": 2590,
      "وجدوا": 2591,
      "▁وجدوا": 2592,
      "نذهب": 2593,
      "▁نذهب": 2594,
      "لاحظت": 2595,
      "▁لاحظت": 2596,
      "وط": 2597,
      "▁وط": 2598,
      "أومأ": 2599,
      "▁أومأ": 2600,
      "رأسه": 2601,
      "▁رأسه": 2602,
      "جيل": 2603,
      "▁جيل": 2604,
      "وار": 2605,
      "▁وار": 2606,
      "وحاول": 2607,
      "▁وحاول": 2608,
      "العودة": 2609,
      "▁العودة": 2610,
      "وصول": 2611,
      "▁وصول": 2612,
      "وأن": 2613,
      "▁وأن": 2614,
      "لتقط": 2615,
      "▁لتقط": 2616,
      "راع": 2617,
      "▁راع": 2618,
      "وسرعان": 2619,
      "▁وسرعان": 2620,
      "مح": 2621,
      "▁مح": 2622,
      "أمسك": 2623,
      "▁أمسك": 2624,
      "سنوات": 2625,
      "▁سنوات": 2626,
      "يقظ": 2627,
      "▁يقظ": 2628,
      "ستان": 2629,
      "▁ستان": 2630,
      "وراق": 2631,
      "▁وراق": 2632,
      "مال": 2633,
      "▁مال": 2634,
      "السر": 2635,
      "▁السر": 2636,
      "وقفت": 2637,
      "▁وقفت": 2638,
      "جميعا": 2639,
      "▁جميعا": 2640,
      "الثلج": 2641,
      "▁الثلج": 2642,
      "ممتعا": 2643,
      "▁ممتعا": 2644,
      "حمراء": 2645,
      "▁حمراء": 2646,
      "قطع": 2647,
      "▁قطع": 2648,
      "يات": 2649,
      "▁يات": 2650,
      "وضاء": 2651,
      "▁وضاء": 2652,
      "فتى": 2653,
      "▁فتى": 2654,
      "تتمكن": 2655,
      "▁تتمكن": 2656,
      "خرجت": 2657,
      "▁خرجت": 2658,
      "فكر": 2659,
      "▁فكر": 2660,
      "أرادوا": 2661,
      "▁أرادوا": 2662,
      "عش": 2663,
      "▁عش": 2664,
      "فذة": 2665,
      "▁فذة": 2666,
      "طعام": 2667,
      "▁طعام": 2668,
      "لطيفا": 2669,
      "▁لطيفا": 2670,
      "يمكنه": 2671,
      "▁يمكنه": 2672,
      "علب": 2673,
      "▁علب": 2674,
      "متعة": 2675,
      "▁متعة": 2676,
      "ظهرت": 2677,
      "▁ظهرت": 2678,
      "صع": 2679,
      "▁صع": 2680,
      "تش": 2681,
      "▁تش": 2682,
      "تلك": 2683,
      "▁تلك": 2684,
      "فاجأة": 2685,
      "▁فاجأة": 2686,
      "للح": 2687,
      "▁للح": 2688,
      "عما": 2689,
      "▁عما": 2690,
      "سحب": 2691,
      "▁سحب": 2692,
      "يريدون": 2693,
      "▁يريدون": 2694,
      "فخور": 2695,
      "▁فخور": 2696,
      "فاظ": 2697,
      "▁فاظ": 2698,
      "أمل": 2699,
      "▁أمل": 2700,
      "فقد": 2701,
      "▁فقد": 2702,
      "وفي": 2703,
      "▁وفي": 2704,
      "يتمكن": 2705,
      "▁يتمكن": 2706,
      "ممت": 2707,
      "▁ممت": 2708,
      "دخ": 2709,
      "▁دخ": 2710,
      "الشاحنة": 2711,
      "▁الشاحنة": 2712,
      "بحا": 2713,
      "▁بحا": 2714,
      "هت": 2715,
      "▁هت": 2716,
      "البك": 2717,
      "▁البك": 2718,
      "البكاء": 2719,
      "▁البكاء": 2720,
      "جائ": 2721,
      "▁جائ": 2722,
      "وسيق": 2723,
      "▁وسيق": 2724,
      "الفأر": 2725,
      "▁الفأر": 2726,
      "شكرت": 2727,
      "▁شكرت": 2728,
      "الة": 2729,
      "▁الة": 2730,
      "تناول": 2731,
      "▁تناول": 2732,
      "بصوت": 2733,
      "▁بصوت": 2734,
      "بالأسف": 2735,
      "▁بالأسف": 2736,
      "اعتقدت": 2737,
      "▁اعتقدت": 2738,
      "زة": 2739,
      "▁زة": 2740,
      "وأمها": 2741,
      "▁وأمها": 2742,
      "سري": 2743,
      "▁سري": 2744,
      "الأشجار": 2745,
      "▁الأشجار": 2746,
      "مغامرة": 2747,
      "▁مغامرة": 2748,
      "بقى": 2749,
      "▁بقى": 2750,
      "فتحت": 2751,
      "▁فتحت": 2752,
      "شيئ": 2753,
      "▁شيئ": 2754,
      "تب": 2755,
      "▁تب": 2756,
      "المطر": 2757,
      "▁المطر": 2758,
      "للذهاب": 2759,
      "▁للذهاب": 2760,
      "يبتسم": 2761,
      "▁يبتسم": 2762,
      "شاهدة": 2763,
      "▁شاهدة": 2764,
      "الورق": 2765,
      "▁الورق": 2766,
      "وضى": 2767,
      "▁وضى": 2768,
      "نهاية": 2769,
      "▁نهاية": 2770,
      "علم": 2771,
      "▁علم": 2772,
      "لاحق": 2773,
      "▁لاحق": 2774,
      "وشعر": 2775,
      "▁وشعر": 2776,
      "دم": 2777,
      "▁دم": 2778,
      "بطء": 2779,
      "▁بطء": 2780,
      "النار": 2781,
      "▁النار": 2782,
      "انية": 2783,
      "▁انية": 2784,
      "الجميلة": 2785,
      "▁الجميلة": 2786,
      "الطاولة": 2787,
      "▁الطاولة": 2788,
      "قريبا": 2789,
      "▁قريبا": 2790,
      "المر": 2791,
      "▁المر": 2792,
      "عني": 2793,
      "▁عني": 2794,
      "راحة": 2795,
      "▁راحة": 2796,
      "رأسها": 2797,
      "▁رأسها": 2798,
      "كبيرا": 2799,
      "▁كبيرا": 2800,
      "فكرت": 2801,
      "▁فكرت": 2802,
      "وأعط": 2803,
      "▁وأعط": 2804,
      "يعتقد": 2805,
      "▁يعتقد": 2806,
      "القفز": 2807,
      "▁القفز": 2808,
      "بعضهما": 2809,
      "▁بعضهما": 2810,
      "صورة": 2811,
      "▁صورة": 2812,
      "يطير": 2813,
      "▁يطير": 2814,
      "أحيان": 2815,
      "▁أحيان": 2816,
      "استخدام": 2817,
      "▁استخدام": 2818,
      "أست": 2819,
      "▁أست": 2820,
      "غي": 2821,
      "▁غي": 2822,
      "غضب": 2823,
      "▁غضب": 2824,
      "يون": 2825,
      "▁يون": 2826,
      "باب": 2827,
      "▁باب": 2828,
      "الهواء": 2829,
      "▁الهواء": 2830,
      "رسم": 2831,
      "▁رسم": 2832,
      "أجابت": 2833,
      "▁أجابت": 2834,
      "معي": 2835,
      "▁معي": 2836,
      "رائح": 2837,
      "▁رائح": 2838,
      "كتاب": 2839,
      "▁كتاب": 2840,
      "استمر": 2841,
      "▁استمر": 2842,
      "الكعك": 2843,
      "▁الكعك": 2844,
      "أعرف": 2845,
      "▁أعرف": 2846,
      "الأرجوحة": 2847,
      "▁الأرجوحة": 2848,
      "كعكة": 2849,
      "▁كعكة": 2850,
      "حري": 2851,
      "▁حري": 2852,
      "يأكل": 2853,
      "▁يأكل": 2854,
      "قطعة": 2855,
      "▁قطعة": 2856,
      "يستمع": 2857,
      "▁يستمع": 2858,
      "أكبر": 2859,
      "▁أكبر": 2860,
      "يدها": 2861,
      "▁يدها": 2862,
      "هاد": 2863,
      "▁هاد": 2864,
      "فوق": 2865,
      "▁فوق": 2866,
      "عمرها": 2867,
      "▁عمرها": 2868,
      "يساعد": 2869,
      "▁يساعد": 2870,
      "الحف": 2871,
      "▁الحف": 2872,
      "أمهم": 2873,
      "▁أمهم": 2874,
      "عناق": 2875,
      "▁عناق": 2876,
      "قدي": 2877,
      "▁قدي": 2878,
      "نين": 2879,
      "▁نين": 2880,
      "يخ": 2881,
      "▁يخ": 2882,
      "شجاع": 2883,
      "▁شجاع": 2884,
      "ثلاث": 2885,
      "▁ثلاث": 2886,
      "رار": 2887,
      "▁رار": 2888,
      "أخبرت": 2889,
      "▁أخبرت": 2890,
      "يستمتع": 2891,
      "▁يستمتع": 2892,
      "ترغب": 2893,
      "▁ترغب": 2894,
      "الإطلاق": 2895,
      "▁الإطلاق": 2896,
      "شراء": 2897,
      "▁شراء": 2898,
      "لح": 2899,
      "▁لح": 2900,
      "حوله": 2901,
      "▁حوله": 2902,
      "أومأت": 2903,
      "▁أومأت": 2904,
      "ببطء": 2905,
      "▁ببطء": 2906,
      "والدي": 2907,
      "▁والدي": 2908,
      "مهم": 2909,
      "▁مهم": 2910,
      "فيفة": 2911,
      "▁فيفة": 2912,
      "حلو": 2913,
      "▁حلو": 2914,
      "يمشي": 2915,
      "▁يمشي": 2916,
      "يقولون": 2917,
      "▁يقولون": 2918,
      "أبدا": 2919,
      "▁أبدا": 2920,
      "وهي": 2921,
      "▁وهي": 2922,
      "بجد": 2923,
      "▁بجد": 2924,
      "جرد": 2925,
      "▁جرد": 2926,
      "ماري": 2927,
      "▁ماري": 2928,
      "أكد": 2929,
      "▁أكد": 2930,
      "عصا": 2931,
      "▁عصا": 2932,
      "وأرادت": 2933,
      "▁وأرادت": 2934,
      "الخر": 2935,
      "▁الخر": 2936,
      "راب": 2937,
      "▁راب": 2938,
      "الطيران": 2939,
      "▁الطيران": 2940,
      "غاد": 2941,
      "▁غاد": 2942,
      "ضحكت": 2943,
      "▁ضحكت": 2944,
      "الشيء": 2945,
      "▁الشيء": 2946,
      "بحاجة": 2947,
      "▁بحاجة": 2948,
      "منزله": 2949,
      "▁منزله": 2950,
      "در": 2951,
      "▁در": 2952,
      "مص": 2953,
      "▁مص": 2954,
      "الفناء": 2955,
      "▁الفناء": 2956,
      "كيفية": 2957,
      "▁كيفية": 2958,
      "فرا": 2959,
      "▁فرا": 2960,
      "لية": 2961,
      "▁لية": 2962,
      "وميا": 2963,
      "▁وميا": 2964,
      "وهو": 2965,
      "▁وهو": 2966,
      "يمكنها": 2967,
      "▁يمكنها": 2968,
      "ويت": 2969,
      "▁ويت": 2970,
      "وأصدق": 2971,
      "▁وأصدق": 2972,
      "مختلفة": 2973,
      "▁مختلفة": 2974,
      "يده": 2975,
      "▁يده": 2976,
      "الخطأ": 2977,
      "▁الخطأ": 2978,
      "ضن": 2979,
      "▁ضن": 2980,
      "ريحة": 2981,
      "▁ريحة": 2982,
      "أث": 2983,
      "▁أث": 2984,
      "الشديد": 2985,
      "▁الشديد": 2986,
      "زح": 2987,
      "▁زح": 2988,
      "غرفتها": 2989,
      "▁غرفتها": 2990,
      "يص": 2991,
      "▁يص": 2992,
      "لعة": 2993,
      "▁لعة": 2994,
      "يط": 2995,
      "▁يط": 2996,
      "القارب": 2997,
      "▁القارب": 2998,
      "قو": 2999,
      "▁قو": 3000,
      "البط": 3001,
      "▁البط": 3002,
      "اع": 3003,
      "▁اع": 3004,
      "طارت": 3005,
      "▁طارت": 3006,
      "النافذة": 3007,
      "▁النافذة": 3008,
      "حيث": 3009,
      "▁حيث": 3010,
      "البحر": 3011,
      "▁البحر": 3012,
      "تعيش": 3013,
      "▁تعيش": 3014,
      "بأنها": 3015,
      "▁بأنها": 3016,
      "وأصدقائ": 3017,
      "▁وأصدقائ": 3018,
      "ولد": 3019,
      "▁ولد": 3020,
      "قذ": 3021,
      "▁قذ": 3022,
      "وعانق": 3023,
      "▁وعانق": 3024,
      "أحبك": 3025,
      "▁أحبك": 3026,
      "وافق": 3027,
      "▁وافق": 3028,
      "أخبرتها": 3029,
      "▁أخبرتها": 3030,
      "يكونوا": 3031,
      "▁يكونوا": 3032,
      "عبر": 3033,
      "▁عبر": 3034,
      "جيمي": 3035,
      "▁جيمي": 3036,
      "اش": 3037,
      "▁اش": 3038,
      "سخ": 3039,
      "▁سخ": 3040,
      "صير": 3041,
      "▁صير": 3042,
      "وشكر": 3043,
      "▁وشكر": 3044,
      "هار": 3045,
      "▁هار": 3046,
      "البقاء": 3047,
      "▁البقاء": 3048,
      "المفضل": 3049,
      "▁المفضل": 3050,
      "خدم": 3051,
      "▁خدم": 3052,
      "الحلوى": 3053,
      "▁الحلوى": 3054,
      "الفر": 3055,
      "▁الفر": 3056,
      "بخير": 3057,
      "▁بخير": 3058,
      "عادت": 3059,
      "▁عادت": 3060,
      "حل": 3061,
      "▁حل": 3062,
      "عزي": 3063,
      "▁عزي": 3064,
      "الخل": 3065,
      "▁الخل": 3066,
      "وأخذ": 3067,
      "▁وأخذ": 3068,
      "وجعل": 3069,
      "▁وجعل": 3070,
      "مين": 3071,
      "▁مين": 3072,
      "ماك": 3073,
      "▁ماك": 3074,
      "كسر": 3075,
      "▁كسر": 3076,
      "أسفل": 3077,
      "▁أسفل": 3078,
      "جاجة": 3079,
      "▁جاجة": 3080,
      "ذراع": 3081,
      "▁ذراع": 3082,
      "سكت": 3083,
      "▁سكت": 3084,
      "بعيد": 3085,
      "▁بعيد": 3086,
      "أصبحت": 3087,
      "▁أصبحت": 3088,
      "تزال": 3089,
      "▁تزال": 3090,
      "منزلها": 3091,
      "▁منزلها": 3092,
      "يحاول": 3093,
      "▁يحاول": 3094,
      "قفزت": 3095,
      "▁قفزت": 3096,
      "الطبيب": 3097,
      "▁الطبيب": 3098,
      "يقفز": 3099,
      "▁يقفز": 3100,
      "التفا": 3101,
      "▁التفا": 3102,
      "ناع": 3103,
      "▁ناع": 3104,
      "رخ": 3105,
      "▁رخ": 3106,
      "فيها": 3107,
      "▁فيها": 3108,
      "وحش": 3109,
      "▁وحش": 3110,
      "عانقت": 3111,
      "▁عانقت": 3112,
      "تطير": 3113,
      "▁تطير": 3114,
      "سيارته": 3115,
      "▁سيارته": 3116,
      "فظ": 3117,
      "▁فظ": 3118,
      "ضاء": 3119,
      "▁ضاء": 3120,
      "لمساعد": 3121,
      "▁لمساعد": 3122,
      "بيع": 3123,
      "▁بيع": 3124,
      "نوم": 3125,
      "▁نوم": 3126,
      "ظاهر": 3127,
      "▁ظاهر": 3128,
      "يبحث": 3129,
      "▁يبحث": 3130,
      "ذائ": 3131,
      "▁ذائ": 3132,
      "غاضب": 3133,
      "▁غاضب": 3134,
      "لقت": 3135,
      "▁لقت": 3136,
      "هرب": 3137,
      "▁هرب": 3138,
      "ثا": 3139,
      "▁ثا": 3140,
      "لمة": 3141,
      "▁لمة": 3142,
      "قاب": 3143,
      "▁قاب": 3144,
      "والح": 3145,
      "▁والح": 3146,
      "قوي": 3147,
      "▁قوي": 3148,
      "تجعل": 3149,
      "▁تجعل": 3150,
      "نزهة": 3151,
      "▁نزهة": 3152,
      "فستان": 3153,
      "▁فستان": 3154,
      "فضولية": 3155,
      "▁فضولية": 3156,
      "جمع": 3157,
      "▁جمع": 3158,
      "ترك": 3159,
      "▁ترك": 3160,
      "اح": 3161,
      "▁اح": 3162,
      "تعلموا": 3163,
      "▁تعلموا": 3164,
      "يرت": 3165,
      "▁يرت": 3166,
      "زف": 3167,
      "▁زف": 3168,
      "ونظ": 3169,
      "▁ونظ": 3170,
      "قيل": 3171,
      "▁قيل": 3172,
      "الضفدع": 3173,
      "▁الضفدع": 3174,
      "ألا": 3175,
      "▁ألا": 3176,
      "أطفال": 3177,
      "▁أطفال": 3178,
      "شاحنة": 3179,
      "▁شاحنة": 3180,
      "خارج": 3181,
      "▁خارج": 3182,
      "يعود": 3183,
      "▁يعود": 3184,
      "الركض": 3185,
      "▁الركض": 3186,
      "الأوراق": 3187,
      "▁الأوراق": 3188,
      "الطائرة": 3189,
      "▁الطائرة": 3190,
      "الآيس": 3191,
      "▁الآيس": 3192,
      "المشي": 3193,
      "▁المشي": 3194,
      "تنا": 3195,
      "▁تنا": 3196,
      "دمي": 3197,
      "▁دمي": 3198,
      "والدا": 3199,
      "▁والدا": 3200,
      "صب": 3201,
      "▁صب": 3202,
      "الكر": 3203,
      "▁الكر": 3204,
      "نلعب": 3205,
      "▁نلعب": 3206,
      "الرياح": 3207,
      "▁الرياح": 3208,
      "مفاجأة": 3209,
      "▁مفاجأة": 3210,
      "داف": 3211,
      "▁داف": 3212,
      "بني": 3213,
      "▁بني": 3214,
      "كا": 3215,
      "▁كا": 3216,
      "سرير": 3217,
      "▁سرير": 3218,
      "يسمع": 3219,
      "▁يسمع": 3220,
      "الكتل": 3221,
      "▁الكتل": 3222,
      "للحظة": 3223,
      "▁للحظة": 3224,
      "تنظر": 3225,
      "▁تنظر": 3226,
      "قوس": 3227,
      "▁قوس": 3228,
      "الفي": 3229,
      "▁الفي": 3230,
      "وبعض": 3231,
      "▁وبعض": 3232,
      "تمشي": 3233,
      "▁تمشي": 3234,
      "زانة": 3235,
      "▁زانة": 3236,
      "معك": 3237,
      "▁معك": 3238,
      "الظ": 3239,
      "▁الظ": 3240,
      "سيارات": 3241,
      "▁سيارات": 3242,
      "حقي": 3243,
      "▁حقي": 3244,
      "أحمر": 3245,
      "▁أحمر": 3246,
      "تبتسم": 3247,
      "▁تبتسم": 3248,
      "أخرج": 3249,
      "▁أخرج": 3250,
      "لديك": 3251,
      "▁لديك": 3252,
      "سة": 3253,
      "▁سة": 3254,
      "واستمتع": 3255,
      "▁واستمتع": 3256,
      "قدم": 3257,
      "▁قدم": 3258,
      "وتع": 3259,
      "▁وتع": 3260,
      "النهر": 3261,
      "▁النهر": 3262,
      "تسأل": 3263,
      "▁تسأل": 3264,
      "وأمه": 3265,
      "▁وأمه": 3266,
      "البال": 3267,
      "▁البال": 3268,
      "صور": 3269,
      "▁صور": 3270,
      "أحيانا": 3271,
      "▁أحيانا": 3272,
      "فعلت": 3273,
      "▁فعلت": 3274,
      "سبا": 3275,
      "▁سبا": 3276,
      "الأسد": 3277,
      "▁الأسد": 3278,
      "مار": 3279,
      "▁مار": 3280,
      "عليهم": 3281,
      "▁عليهم": 3282,
      "مض": 3283,
      "▁مض": 3284,
      "خائفين": 3285,
      "▁خائفين": 3286,
      "وإ": 3287,
      "▁وإ": 3288,
      "جع": 3289,
      "▁جع": 3290,
      "علينا": 3291,
      "▁علينا": 3292,
      "حاولة": 3293,
      "▁حاولة": 3294,
      "جميلا": 3295,
      "▁جميلا": 3296,
      "أثناء": 3297,
      "▁أثناء": 3298,
      "العشاء": 3299,
      "▁العشاء": 3300,
      "إيما": 3301,
      "▁إيما": 3302,
      "يصنع": 3303,
      "▁يصنع": 3304,
      "شقيق": 3305,
      "▁شقيق": 3306,
      "ملة": 3307,
      "▁ملة": 3308,
      "بالت": 3309,
      "▁بالت": 3310,
      "جيج": 3311,
      "▁جيج": 3312,
      "ركوب": 3313,
      "▁ركوب": 3314,
      "بدلا": 3315,
      "▁بدلا": 3316,
      "تعد": 3317,
      "▁تعد": 3318,
      "سوء": 3319,
      "▁سوء": 3320,
      "الفراشة": 3321,
      "▁الفراشة": 3322,
      "صخرة": 3323,
      "▁صخرة": 3324,
      "حيوانات": 3325,
      "▁حيوانات": 3326,
      "وسيقى": 3327,
      "▁وسيقى": 3328,
      "الصخرة": 3329,
      "▁الصخرة": 3330,
      "المل": 3331,
      "▁المل": 3332,
      "بلطف": 3333,
      "▁بلطف": 3334,
      "تأكل": 3335,
      "▁تأكل": 3336,
      "راجة": 3337,
      "▁راجة": 3338,
      "مدى": 3339,
      "▁مدى": 3340,
      "بالخوف": 3341,
      "▁بالخوف": 3342,
      "واج": 3343,
      "▁واج": 3344,
      "نكون": 3345,
      "▁نكون": 3346,
      "المكان": 3347,
      "▁المكان": 3348,
      "ترتدي": 3349,
      "▁ترتدي": 3350,
      "حار": 3351,
      "▁حار": 3352,
      "الاحت": 3353,
      "▁الاحت": 3354,
      "لنذهب": 3355,
      "▁لنذهب": 3356,
      "لتناول": 3357,
      "▁لتناول": 3358,
      "الية": 3359,
      "▁الية": 3360,
      "الخروج": 3361,
      "▁الخروج": 3362,
      "وذهبت": 3363,
      "▁وذهبت": 3364,
      "قرروا": 3365,
      "▁قرروا": 3366,
      "بألعابها": 3367,
      "▁بألعابها": 3368,
      "فهم": 3369,
      "▁فهم": 3370,
      "وركضت": 3371,
      "▁وركضت": 3372,
      "صديقين": 3373,
      "▁صديقين": 3374,
      "حقا": 3375,
      "▁حقا": 3376,
      "شعور": 3377,
      "▁شعور": 3378,
      "تبكي": 3379,
      "▁تبكي": 3380,
      "خور": 3381,
      "▁خور": 3382,
      "لئ": 3383,
      "▁لئ": 3384,
      "ملابس": 3385,
      "▁ملابس": 3386,
      "ورق": 3387,
      "▁ورق": 3388,
      "تنظيف": 3389,
      "▁تنظيف": 3390,
      "مالك": 3391,
      "▁مالك": 3392,
      "حصل": 3393,
      "▁حصل": 3394,
      "مليئة": 3395,
      "▁مليئة": 3396,
      "نفسه": 3397,
      "▁نفسه": 3398,
      "القدي": 3399,
      "▁القدي": 3400,
      "رؤي": 3401,
      "▁رؤي": 3402,
      "رتقال": 3403,
      "▁رتقال": 3404,
      "الزهرة": 3405,
      "▁الزهرة": 3406,
      "القصة": 3407,
      "▁القصة": 3408,
      "ؤذي": 3409,
      "▁ؤذي": 3410,
      "حرية": 3411,
      "▁حرية": 3412,
      "زين": 3413,
      "▁زين": 3414,
      "الكتب": 3415,
      "▁الكتب": 3416,
      "يديها": 3417,
      "▁يديها": 3418,
      "العمل": 3419,
      "▁العمل": 3420,
      "الألوان": 3421,
      "▁الألوان": 3422,
      "توقفت": 3423,
      "▁توقفت": 3424,
      "يشة": 3425,
      "▁يشة": 3426,
      "ختباء": 3427,
      "▁ختباء": 3428,
      "الرسم": 3429,
      "▁الرسم": 3430,
      "الأبد": 3431,
      "▁الأبد": 3432,
      "سلم": 3433,
      "▁سلم": 3434,
      "تستطيع": 3435,
      "▁تستطيع": 3436,
      "وذهب": 3437,
      "▁وذهب": 3438,
      "لز": 3439,
      "▁لز": 3440,
      "المعيشة": 3441,
      "▁المعيشة": 3442,
      "دمية": 3443,
      "▁دمية": 3444,
      "الأسماك": 3445,
      "▁الأسماك": 3446,
      "نان": 3447,
      "▁نان": 3448,
      "بالنس": 3449,
      "▁بالنس": 3450,
      "قات": 3451,
      "▁قات": 3452,
      "صاص": 3453,
      "▁صاص": 3454,
      "جاب": 3455,
      "▁جاب": 3456,
      "ضا": 3457,
      "▁ضا": 3458,
      "الوصول": 3459,
      "▁الوصول": 3460,
      "ضحكوا": 3461,
      "▁ضحكوا": 3462,
      "بعمل": 3463,
      "▁بعمل": 3464,
      "القط": 3465,
      "▁القط": 3466,
      "بالنسبة": 3467,
      "▁بالنسبة": 3468,
      "استمع": 3469,
      "▁استمع": 3470,
      "عدا": 3471,
      "▁عدا": 3472,
      "وعندما": 3473,
      "▁وعندما": 3474,
      "وظ": 3475,
      "▁وظ": 3476,
      "زهور": 3477,
      "▁زهور": 3478,
      "الخبز": 3479,
      "▁الخبز": 3480,
      "جاه": 3481,
      "▁جاه": 3482,
      "درسة": 3483,
      "▁درسة": 3484,
      "المست": 3485,
      "▁المست": 3486,
      "أسرع": 3487,
      "▁أسرع": 3488,
      "بهم": 3489,
      "▁بهم": 3490,
      "عرف": 3491,
      "▁عرف": 3492,
      "بيت": 3493,
      "▁بيت": 3494,
      "عجوز": 3495,
      "▁عجوز": 3496,
      "وابتسمت": 3497,
      "▁وابتسمت": 3498,
      "ائلة": 3499,
      "▁ائلة": 3500,
      "إليهم": 3501,
      "▁إليهم": 3502,
      "ونه": 3503,
      "▁ونه": 3504,
      "وجبة": 3505,
      "▁وجبة": 3506,
      "انه": 3507,
      "▁انه": 3508,
      "أستطيع": 3509,
      "▁أستطيع": 3510,
      "الخلفي": 3511,
      "▁الخلفي": 3512,
      "وسأل": 3513,
      "▁وسأل": 3514,
      "منا": 3515,
      "▁منا": 3516,
      "أصوات": 3517,
      "▁أصوات": 3518,
      "للحصول": 3519,
      "▁للحصول": 3520,
      "بض": 3521,
      "▁بض": 3522,
      "كلمات": 3523,
      "▁كلمات": 3524,
      "توأم": 3525,
      "▁توأم": 3526,
      "يغ": 3527,
      "▁يغ": 3528,
      "رفع": 3529,
      "▁رفع": 3530,
      "الثعلب": 3531,
      "▁الثعلب": 3532,
      "وسقط": 3533,
      "▁وسقط": 3534,
      "النوم": 3535,
      "▁النوم": 3536,
      "واصل": 3537,
      "▁واصل": 3538,
      "ضجي": 3539,
      "▁ضجي": 3540,
      "المزارع": 3541,
      "▁المزارع": 3542,
      "يحمل": 3543,
      "▁يحمل": 3544,
      "ضجيجا": 3545,
      "▁ضجيجا": 3546,
      "أدركت": 3547,
      "▁أدركت": 3548,
      "ضراء": 3549,
      "▁ضراء": 3550,
      "غم": 3551,
      "▁غم": 3552,
      "الكتاب": 3553,
      "▁الكتاب": 3554,
      "كشف": 3555,
      "▁كشف": 3556,
      "القاد": 3557,
      "▁القاد": 3558,
      "أمسكت": 3559,
      "▁أمسكت": 3560,
      "أخبرته": 3561,
      "▁أخبرته": 3562,
      "بذلك": 3563,
      "▁بذلك": 3564,
      "رائعا": 3565,
      "▁رائعا": 3566,
      "دها": 3567,
      "▁دها": 3568,
      "حذرة": 3569,
      "▁حذرة": 3570,
      "تساعد": 3571,
      "▁تساعد": 3572,
      "وقتا": 3573,
      "▁وقتا": 3574,
      "باللعب": 3575,
      "▁باللعب": 3576,
      "كث": 3577,
      "▁كث": 3578,
      "أعد": 3579,
      "▁أعد": 3580,
      "تصنع": 3581,
      "▁تصنع": 3582,
      "مراء": 3583,
      "▁مراء": 3584,
      "جلس": 3585,
      "▁جلس": 3586,
      "وقر": 3587,
      "▁وقر": 3588,
      "ستمتع": 3589,
      "▁ستمتع": 3590,
      "عات": 3591,
      "▁عات": 3592,
      "يركضون": 3593,
      "▁يركضون": 3594,
      "لاست": 3595,
      "▁لاست": 3596,
      "ولعبوا": 3597,
      "▁ولعبوا": 3598,
      "لأ": 3599,
      "▁لأ": 3600,
      "وأبيها": 3601,
      "▁وأبيها": 3602,
      "والخ": 3603,
      "▁والخ": 3604,
      "مغام": 3605,
      "▁مغام": 3606,
      "جز": 3607,
      "▁جز": 3608,
      "العن": 3609,
      "▁العن": 3610,
      "المدرسة": 3611,
      "▁المدرسة": 3612,
      "علا": 3613,
      "▁علا": 3614,
      "البحيرة": 3615,
      "▁البحيرة": 3616,
      "رتي": 3617,
      "▁رتي": 3618,
      "ميلا": 3619,
      "▁ميلا": 3620,
      "ضحكة": 3621,
      "▁ضحكة": 3622,
      "قوية": 3623,
      "▁قوية": 3624,
      "سمي": 3625,
      "▁سمي": 3626,
      "نجاب": 3627,
      "▁نجاب": 3628,
      "وعاد": 3629,
      "▁وعاد": 3630,
      "فاز": 3631,
      "▁فاز": 3632,
      "دون": 3633,
      "▁دون": 3634,
      "سيء": 3635,
      "▁سيء": 3636,
      "الصوت": 3637,
      "▁الصوت": 3638,
      "السرير": 3639,
      "▁السرير": 3640,
      "فتاح": 3641,
      "▁فتاح": 3642,
      "شب": 3643,
      "▁شب": 3644,
      "مضحك": 3645,
      "▁مضحك": 3646,
      "معهم": 3647,
      "▁معهم": 3648,
      "الجرو": 3649,
      "▁الجرو": 3650,
      "القادمة": 3651,
      "▁القادمة": 3652,
      "ويقول": 3653,
      "▁ويقول": 3654,
      "وقرر": 3655,
      "▁وقرر": 3656,
      "خلال": 3657,
      "▁خلال": 3658,
      "فصا": 3659,
      "▁فصا": 3660,
      "حذر": 3661,
      "▁حذر": 3662,
      "حزينين": 3663,
      "▁حزينين": 3664,
      "يرتدي": 3665,
      "▁يرتدي": 3666,
      "لقي": 3667,
      "▁لقي": 3668,
      "أمان": 3669,
      "▁أمان": 3670,
      "طفلة": 3671,
      "▁طفلة": 3672,
      "بإمكانه": 3673,
      "▁بإمكانه": 3674,
      "يضع": 3675,
      "▁يضع": 3676,
      "شمس": 3677,
      "▁شمس": 3678,
      "نف": 3679,
      "▁نف": 3680,
      "بركة": 3681,
      "▁بركة": 3682,
      "السباحة": 3683,
      "▁السباحة": 3684,
      "سلة": 3685,
      "▁سلة": 3686,
      "تجد": 3687,
      "▁تجد": 3688,
      "أنك": 3689,
      "▁أنك": 3690,
      "المث": 3691,
      "▁المث": 3692,
      "مما": 3693,
      "▁مما": 3694,
      "منز": 3695,
      "▁منز": 3696,
      "عاش": 3697,
      "▁عاش": 3698,
      "بشدة": 3699,
      "▁بشدة": 3700,
      "السنجاب": 3701,
      "▁السنجاب": 3702,
      "ضحكون": 3703,
      "▁ضحكون": 3704,
      "غريب": 3705,
      "▁غريب": 3706,
      "ممتعة": 3707,
      "▁ممتعة": 3708,
      "ونظر": 3709,
      "▁ونظر": 3710,
      "اكت": 3711,
      "▁اكت": 3712,
      "أق": 3713,
      "▁أق": 3714,
      "وير": 3715,
      "▁وير": 3716,
      "ودع": 3717,
      "▁ودع": 3718,
      "لاء": 3719,
      "▁لاء": 3720,
      "ركضوا": 3721,
      "▁ركضوا": 3722,
      "خلف": 3723,
      "▁خلف": 3724,
      "وماكس": 3725,
      "▁وماكس": 3726,
      "عظ": 3727,
      "▁عظ": 3728,
      "غام": 3729,
      "▁غام": 3730,
      "آمنة": 3731,
      "▁آمنة": 3732,
      "جيم": 3733,
      "▁جيم": 3734,
      "دخلت": 3735,
      "▁دخلت": 3736,
      "سامي": 3737,
      "▁سامي": 3738,
      "استيقظ": 3739,
      "▁استيقظ": 3740,
      "وقالوا": 3741,
      "▁وقالوا": 3742,
      "الرغم": 3743,
      "▁الرغم": 3744,
      "مظ": 3745,
      "▁مظ": 3746,
      "ضخ": 3747,
      "▁ضخ": 3748,
      "الاحتفاظ": 3749,
      "▁الاحتفاظ": 3750,
      "جيني": 3751,
      "▁جيني": 3752,
      "دف": 3753,
      "▁دف": 3754,
      "النج": 3755,
      "▁النج": 3756,
      "جعلها": 3757,
      "▁جعلها": 3758,
      "يسير": 3759,
      "▁يسير": 3760,
      "حمام": 3761,
      "▁حمام": 3762,
      "جول": 3763,
      "▁جول": 3764,
      "ضرب": 3765,
      "▁ضرب": 3766,
      "قاط": 3767,
      "▁قاط": 3768,
      "حيوان": 3769,
      "▁حيوان": 3770,
      "انها": 3771,
      "▁انها": 3772,
      "زتي": 3773,
      "▁زتي": 3774,
      "ابن": 3775,
      "▁ابن": 3776,
      "صي": 3777,
      "▁صي": 3778,
      "المال": 3779,
      "▁المال": 3780,
      "حرج": 3781,
      "▁حرج": 3782,
      "يسأل": 3783,
      "▁يسأل": 3784,
      "طفل": 3785,
      "▁طفل": 3786,
      "نق": 3787,
      "▁نق": 3788,
      "تز": 3789,
      "▁تز": 3790,
      "وجهها": 3791,
      "▁وجهها": 3792,
      "بنفسه": 3793,
      "▁بنفسه": 3794,
      "لليلي": 3795,
      "▁لليلي": 3796,
      "تستمع": 3797,
      "▁تستمع": 3798,
      "أظهر": 3799,
      "▁أظهر": 3800,
      "الأزرق": 3801,
      "▁الأزرق": 3802,
      "ليب": 3803,
      "▁ليب": 3804,
      "وزي": 3805,
      "▁وزي": 3806,
      "اه": 3807,
      "▁اه": 3808,
      "نحو": 3809,
      "▁نحو": 3810,
      "خلط": 3811,
      "▁خلط": 3812,
      "عينيها": 3813,
      "▁عينيها": 3814,
      "عزيزتي": 3815,
      "▁عزيزتي": 3816,
      "ليلة": 3817,
      "▁ليلة": 3818,
      "بالفخر": 3819,
      "▁بالفخر": 3820,
      "تبع": 3821,
      "▁تبع": 3822,
      "مري": 3823,
      "▁مري": 3824,
      "أذ": 3825,
      "▁أذ": 3826,
      "ركب": 3827,
      "▁ركب": 3828,
      "السمكة": 3829,
      "▁السمكة": 3830,
      "نحب": 3831,
      "▁نحب": 3832,
      "بناء": 3833,
      "▁بناء": 3834,
      "العائلة": 3835,
      "▁العائلة": 3836,
      "سقطت": 3837,
      "▁سقطت": 3838,
      "رحلة": 3839,
      "▁رحلة": 3840,
      "نظروا": 3841,
      "▁نظروا": 3842,
      "السياج": 3843,
      "▁السياج": 3844,
      "زرقاء": 3845,
      "▁زرقاء": 3846,
      "عادة": 3847,
      "▁عادة": 3848,
      "فصاعدا": 3849,
      "▁فصاعدا": 3850,
      "راءة": 3851,
      "▁راءة": 3852,
      "لست": 3853,
      "▁لست": 3854,
      "وأكل": 3855,
      "▁وأكل": 3856,
      "ذكي": 3857,
      "▁ذكي": 3858,
      "الحمراء": 3859,
      "▁الحمراء": 3860,
      "شعروا": 3861,
      "▁شعروا": 3862,
      "قصة": 3863,
      "▁قصة": 3864,
      "تسير": 3865,
      "▁تسير": 3866,
      "دراج": 3867,
      "▁دراج": 3868,
      "بعضها": 3869,
      "▁بعضها": 3870,
      "قارب": 3871,
      "▁قارب": 3872,
      "دخل": 3873,
      "▁دخل": 3874,
      "العمر": 3875,
      "▁العمر": 3876,
      "وني": 3877,
      "▁وني": 3878,
      "يار": 3879,
      "▁يار": 3880,
      "طول": 3881,
      "▁طول": 3882,
      "البر": 3883,
      "▁البر": 3884,
      "وسألت": 3885,
      "▁وسألت": 3886,
      "أزرق": 3887,
      "▁أزرق": 3888,
      "يشاهد": 3889,
      "▁يشاهد": 3890,
      "الشارع": 3891,
      "▁الشارع": 3892,
      "يفا": 3893,
      "▁يفا": 3894,
      "صغيرا": 3895,
      "▁صغيرا": 3896,
      "دفع": 3897,
      "▁دفع": 3898,
      "الحفرة": 3899,
      "▁الحفرة": 3900,
      "مامة": 3901,
      "▁مامة": 3902,
      "المس": 3903,
      "▁المس": 3904,
      "قبعة": 3905,
      "▁قبعة": 3906,
      "كبوت": 3907,
      "▁كبوت": 3908,
      "بداخله": 3909,
      "▁بداخله": 3910,
      "نظرة": 3911,
      "▁نظرة": 3912,
      "الاستكشاف": 3913,
      "▁الاستكشاف": 3914,
      "هتمام": 3915,
      "▁هتمام": 3916,
      "عيد": 3917,
      "▁عيد": 3918,
      "زلق": 3919,
      "▁زلق": 3920,
      "عمره": 3921,
      "▁عمره": 3922,
      "تعب": 3923,
      "▁تعب": 3924,
      "سار": 3925,
      "▁سار": 3926,
      "مستعد": 3927,
      "▁مستعد": 3928,
      "للعثور": 3929,
      "▁للعثور": 3930,
      "نفسها": 3931,
      "▁نفسها": 3932,
      "وتح": 3933,
      "▁وتح": 3934,
      "حيح": 3935,
      "▁حيح": 3936,
      "عائلة": 3937,
      "▁عائلة": 3938,
      "تذكرت": 3939,
      "▁تذكرت": 3940,
      "حصلت": 3941,
      "▁حصلت": 3942,
      "نز": 3943,
      "▁نز": 3944,
      "جيدين": 3945,
      "▁جيدين": 3946,
      "فعله": 3947,
      "▁فعله": 3948,
      "بإمكانها": 3949,
      "▁بإمكانها": 3950,
      "الفرح": 3951,
      "▁الفرح": 3952,
      "عمي": 3953,
      "▁عمي": 3954,
      "مون": 3955,
      "▁مون": 3956,
      "وقد": 3957,
      "▁وقد": 3958,
      "واص": 3959,
      "▁واص": 3960,
      "يحدث": 3961,
      "▁يحدث": 3962,
      "عينيه": 3963,
      "▁عينيه": 3964,
      "فراشة": 3965,
      "▁فراشة": 3966,
      "مقعد": 3967,
      "▁مقعد": 3968,
      "ريك": 3969,
      "▁ريك": 3970,
      "حديق": 3971,
      "▁حديق": 3972,
      "الأص": 3973,
      "▁الأص": 3974,
      "قزح": 3975,
      "▁قزح": 3976,
      "سيئة": 3977,
      "▁سيئة": 3978,
      "آن": 3979,
      "▁آن": 3980,
      "أعطت": 3981,
      "▁أعطت": 3982,
      "ماما": 3983,
      "▁ماما": 3984,
      "ريكة": 3985,
      "▁ريكة": 3986,
      "الأغ": 3987,
      "▁الأغ": 3988,
      "الرمال": 3989,
      "▁الرمال": 3990,
      "ذيله": 3991,
      "▁ذيله": 3992,
      "كثر": 3993,
      "▁كثر": 3994,
      "مميزا": 3995,
      "▁مميزا": 3996,
      "البطة": 3997,
      "▁البطة": 3998,
      "كانتا": 3999,
      "▁كانتا": 4000,
      "مجرد": 4001,
      "▁مجرد": 4002,
      "لكة": 4003,
      "▁لكة": 4004,
      "دين": 4005,
      "▁دين": 4006,
      "مكس": 4007,
      "▁مكس": 4008,
      "فلة": 4009,
      "▁فلة": 4010,
      "ئق": 4011,
      "▁ئق": 4012,
      "الحشرة": 4013,
      "▁الحشرة": 4014,
      "المج": 4015,
      "▁المج": 4016,
      "حتاج": 4017,
      "▁حتاج": 4018,
      "ضمام": 4019,
      "▁ضمام": 4020,
      "رأيا": 4021,
      "▁رأيا": 4022,
      "فى": 4023,
      "▁فى": 4024,
      "سيدة": 4025,
      "▁سيدة": 4026,
      "طيور": 4027,
      "▁طيور": 4028,
      "الحيوان": 4029,
      "▁الحيوان": 4030,
      "هدية": 4031,
      "▁هدية": 4032,
      "ضوضاء": 4033,
      "▁ضوضاء": 4034,
      "شكال": 4035,
      "▁شكال": 4036,
      "يز": 4037,
      "▁يز": 4038,
      "الحظ": 4039,
      "▁الحظ": 4040,
      "تحتاج": 4041,
      "▁تحتاج": 4042,
      "تعة": 4043,
      "▁تعة": 4044,
      "للمساعدة": 4045,
      "▁للمساعدة": 4046,
      "الدخ": 4047,
      "▁الدخ": 4048,
      "وشك": 4049,
      "▁وشك": 4050,
      "الأح": 4051,
      "▁الأح": 4052,
      "الكن": 4053,
      "▁الكن": 4054,
      "ساعدك": 4055,
      "▁ساعدك": 4056,
      "ذكية": 4057,
      "▁ذكية": 4058,
      "بالسوء": 4059,
      "▁بالسوء": 4060,
      "هيا": 4061,
      "▁هيا": 4062,
      "وجهه": 4063,
      "▁وجهه": 4064,
      "أشع": 4065,
      "▁أشع": 4066,
      "وقررت": 4067,
      "▁وقررت": 4068,
      "متحمسين": 4069,
      "▁متحمسين": 4070,
      "صار": 4071,
      "▁صار": 4072,
      "طم": 4073,
      "▁طم": 4074,
      "كلة": 4075,
      "▁كلة": 4076,
      "وكانوا": 4077,
      "▁وكانوا": 4078,
      "يخرج": 4079,
      "▁يخرج": 4080,
      "اصفة": 4081,
      "▁اصفة": 4082,
      "ثنان": 4083,
      "▁ثنان": 4084,
      "تحمل": 4085,
      "▁تحمل": 4086,
      "صفق": 4087,
      "▁صفق": 4088,
      "العم": 4089,
      "▁العم": 4090,
      "حلة": 4091,
      "▁حلة": 4092,
      "سوف": 4093,
      "▁سوف": 4094,
      "ضغط": 4095,
      "▁ضغط": 4096,
      "الصف": 4097,
      "▁الصف": 4098,
      "بأنهم": 4099,
      "▁بأنهم": 4100,
      "مشاهدة": 4101,
      "▁مشاهدة": 4102,
      "تستمتع": 4103,
      "▁تستمتع": 4104,
      "صاخ": 4105,
      "▁صاخ": 4106,
      "بكل": 4107,
      "▁بكل": 4108,
      "الموسيقى": 4109,
      "▁الموسيقى": 4110,
      "ألعابها": 4111,
      "▁ألعابها": 4112,
      "مشغ": 4113,
      "▁مشغ": 4114,
      "أظهرت": 4115,
      "▁أظهرت": 4116,
      "يصرخ": 4117,
      "▁يصرخ": 4118,
      "والدتهم": 4119,
      "▁والدتهم": 4120,
      "يأتي": 4121,
      "▁يأتي": 4122,
      "قف": 4123,
      "▁قف": 4124,
      "واف": 4125,
      "▁واف": 4126,
      "طريقة": 4127,
      "▁طريقة": 4128,
      "روب": 4129,
      "▁روب": 4130,
      "الجدة": 4131,
      "▁الجدة": 4132,
      "برج": 4133,
      "▁برج": 4134,
      "خا": 4135,
      "▁خا": 4136,
      "لعقة": 4137,
      "▁لعقة": 4138,
      "العصا": 4139,
      "▁العصا": 4140,
      "وغ": 4141,
      "▁وغ": 4142,
      "الطفلة": 4143,
      "▁الطفلة": 4144,
      "بأمان": 4145,
      "▁بأمان": 4146,
      "الاختباء": 4147,
      "▁الاختباء": 4148,
      "الأريكة": 4149,
      "▁الأريكة": 4150,
      "نوع": 4151,
      "▁نوع": 4152,
      "الأفضل": 4153,
      "▁الأفضل": 4154,
      "مشاركة": 4155,
      "▁مشاركة": 4156,
      "مساعدتك": 4157,
      "▁مساعدتك": 4158,
      "طب": 4159,
      "▁طب": 4160,
      "والدة": 4161,
      "▁والدة": 4162,
      "والج": 4163,
      "▁والج": 4164,
      "الجزر": 4165,
      "▁الجزر": 4166,
      "مساعدته": 4167,
      "▁مساعدته": 4168,
      "الذين": 4169,
      "▁الذين": 4170,
      "يديه": 4171,
      "▁يديه": 4172,
      "انتهى": 4173,
      "▁انتهى": 4174,
      "ونات": 4175,
      "▁ونات": 4176,
      "سلق": 4177,
      "▁سلق": 4178,
      "بحر": 4179,
      "▁بحر": 4180,
      "طيرة": 4181,
      "▁طيرة": 4182,
      "ساءل": 4183,
      "▁ساءل": 4184,
      "رائحة": 4185,
      "▁رائحة": 4186,
      "الطين": 4187,
      "▁الطين": 4188,
      "بقي": 4189,
      "▁بقي": 4190,
      "حقيق": 4191,
      "▁حقيق": 4192,
      "توي": 4193,
      "▁توي": 4194,
      "الدمية": 4195,
      "▁الدمية": 4196,
      "أعطا": 4197,
      "▁أعطا": 4198,
      "بشيء": 4199,
      "▁بشيء": 4200,
      "لمعرفة": 4201,
      "▁لمعرفة": 4202,
      "ترا": 4203,
      "▁ترا": 4204,
      "الظلام": 4205,
      "▁الظلام": 4206,
      "القطار": 4207,
      "▁القطار": 4208,
      "كذلك": 4209,
      "▁كذلك": 4210,
      "يشعرون": 4211,
      "▁يشعرون": 4212,
      "تعال": 4213,
      "▁تعال": 4214,
      "تتحرك": 4215,
      "▁تتحرك": 4216,
      "كومة": 4217,
      "▁كومة": 4218,
      "الأعلى": 4219,
      "▁الأعلى": 4220,
      "قائ": 4221,
      "▁قائ": 4222,
      "هاتف": 4223,
      "▁هاتف": 4224,
      "أليس": 4225,
      "▁أليس": 4226,
      "آسفون": 4227,
      "▁آسفون": 4228,
      "سح": 4229,
      "▁سح": 4230,
      "رش": 4231,
      "▁رش": 4232,
      "قلعة": 4233,
      "▁قلعة": 4234,
      "خفيفة": 4235,
      "▁خفيفة": 4236,
      "قريب": 4237,
      "▁قريب": 4238,
      "راخ": 4239,
      "▁راخ": 4240,
      "المكس": 4241,
      "▁المكس": 4242,
      "غادر": 4243,
      "▁غادر": 4244,
      "ذاه": 4245,
      "▁ذاه": 4246,
      "انتهت": 4247,
      "▁انتهت": 4248,
      "غاضبا": 4249,
      "▁غاضبا": 4250,
      "وحيد": 4251,
      "▁وحيد": 4252,
      "صاد": 4253,
      "▁صاد": 4254,
      "منهم": 4255,
      "▁منهم": 4256,
      "الصور": 4257,
      "▁الصور": 4258,
      "أغنية": 4259,
      "▁أغنية": 4260,
      "يمكنهم": 4261,
      "▁يمكنهم": 4262,
      "اندي": 4263,
      "▁اندي": 4264,
      "وشاهد": 4265,
      "▁وشاهد": 4266,
      "مات": 4267,
      "▁مات": 4268,
      "رأة": 4269,
      "▁رأة": 4270,
      "بحثت": 4271,
      "▁بحثت": 4272,
      "ياس": 4273,
      "▁ياس": 4274,
      "يحتاج": 4275,
      "▁يحتاج": 4276,
      "تضع": 4277,
      "▁تضع": 4278,
      "صان": 4279,
      "▁صان": 4280,
      "أخذه": 4281,
      "▁أخذه": 4282,
      "فوج": 4283,
      "▁فوج": 4284,
      "المق": 4285,
      "▁المق": 4286,
      "يتحدث": 4287,
      "▁يتحدث": 4288,
      "الرقص": 4289,
      "▁الرقص": 4290,
      "موا": 4291,
      "▁موا": 4292,
      "دور": 4293,
      "▁دور": 4294,
      "لقة": 4295,
      "▁لقة": 4296,
      "نظف": 4297,
      "▁نظف": 4298,
      "مضحكة": 4299,
      "▁مضحكة": 4300,
      "عود": 4301,
      "▁عود": 4302,
      "تعتقد": 4303,
      "▁تعتقد": 4304,
      "موعة": 4305,
      "▁موعة": 4306,
      "بية": 4307,
      "▁بية": 4308,
      "القمة": 4309,
      "▁القمة": 4310,
      "خلوق": 4311,
      "▁خلوق": 4312,
      "الجانب": 4313,
      "▁الجانب": 4314,
      "فوجئ": 4315,
      "▁فوجئ": 4316,
      "ماس": 4317,
      "▁ماس": 4318,
      "قبض": 4319,
      "▁قبض": 4320,
      "كوب": 4321,
      "▁كوب": 4322,
      "درسا": 4323,
      "▁درسا": 4324,
      "مندهشة": 4325,
      "▁مندهشة": 4326,
      "مساعدتي": 4327,
      "▁مساعدتي": 4328,
      "الأب": 4329,
      "▁الأب": 4330,
      "عالق": 4331,
      "▁عالق": 4332,
      "علمت": 4333,
      "▁علمت": 4334,
      "اللذيذة": 4335,
      "▁اللذيذة": 4336,
      "وضحك": 4337,
      "▁وضحك": 4338,
      "طفاء": 4339,
      "▁طفاء": 4340,
      "تظاهر": 4341,
      "▁تظاهر": 4342,
      "صق": 4343,
      "▁صق": 4344,
      "ينظرون": 4345,
      "▁ينظرون": 4346,
      "متاع": 4347,
      "▁متاع": 4348,
      "مثير": 4349,
      "▁مثير": 4350,
      "غرفته": 4351,
      "▁غرفته": 4352,
      "ظهار": 4353,
      "▁ظهار": 4354,
      "حمل": 4355,
      "▁حمل": 4356,
      "ووجدت": 4357,
      "▁ووجدت": 4358,
      "سمعوا": 4359,
      "▁سمعوا": 4360,
      "المي": 4361,
      "▁المي": 4362,
      "وذهبوا": 4363,
      "▁وذهبوا": 4364,
      "فوضى": 4365,
      "▁فوضى": 4366,
      "قبع": 4367,
      "▁قبع": 4368,
      "دينة": 4369,
      "▁دينة": 4370,
      "فخورا": 4371,
      "▁فخورا": 4372,
      "ضي": 4373,
      "▁ضي": 4374,
      "جعلت": 4375,
      "▁جعلت": 4376,
      "للعودة": 4377,
      "▁للعودة": 4378,
      "الضوضاء": 4379,
      "▁الضوضاء": 4380,
      "فريد": 4381,
      "▁فريد": 4382,
      "يتحرك": 4383,
      "▁يتحرك": 4384,
      "يجلس": 4385,
      "▁يجلس": 4386,
      "لدينا": 4387,
      "▁لدينا": 4388,
      "دحرج": 4389,
      "▁دحرج": 4390,
      "تحاول": 4391,
      "▁تحاول": 4392,
      "للاهتمام": 4393,
      "▁للاهتمام": 4394,
      "لنفس": 4395,
      "▁لنفس": 4396,
      "التنين": 4397,
      "▁التنين": 4398,
      "اقترب": 4399,
      "▁اقترب": 4400,
      "تفا": 4401,
      "▁تفا": 4402,
      "البريد": 4403,
      "▁البريد": 4404,
      "أعجب": 4405,
      "▁أعجب": 4406,
      "جعله": 4407,
      "▁جعله": 4408,
      "الفوضى": 4409,
      "▁الفوضى": 4410,
      "فأر": 4411,
      "▁فأر": 4412,
      "المختل": 4413,
      "▁المختل": 4414,
      "تلمس": 4415,
      "▁تلمس": 4416,
      "اختفى": 4417,
      "▁اختفى": 4418,
      "ريط": 4419,
      "▁ريط": 4420,
      "جدتها": 4421,
      "▁جدتها": 4422,
      "وتقول": 4423,
      "▁وتقول": 4424,
      "لأنك": 4425,
      "▁لأنك": 4426,
      "طائرة": 4427,
      "▁طائرة": 4428,
      "جار": 4429,
      "▁جار": 4430,
      "أسقط": 4431,
      "▁أسقط": 4432,
      "تذكر": 4433,
      "▁تذكر": 4434,
      "بألعابه": 4435,
      "▁بألعابه": 4436,
      "التوت": 4437,
      "▁التوت": 4438,
      "تعانق": 4439,
      "▁تعانق": 4440,
      "سمح": 4441,
      "▁سمح": 4442,
      "تين": 4443,
      "▁تين": 4444,
      "وهرب": 4445,
      "▁وهرب": 4446,
      "يمسك": 4447,
      "▁يمسك": 4448,
      "ناعمة": 4449,
      "▁ناعمة": 4450,
      "دوا": 4451,
      "▁دوا": 4452,
      "أمام": 4453,
      "▁أمام": 4454,
      "تأتي": 4455,
      "▁تأتي": 4456,
      "الوحش": 4457,
      "▁الوحش": 4458,
      "لعق": 4459,
      "▁لعق": 4460,
      "ساعدت": 4461,
      "▁ساعدت": 4462,
      "ابع": 4463,
      "▁ابع": 4464,
      "السيارات": 4465,
      "▁السيارات": 4466,
      "التقاط": 4467,
      "▁التقاط": 4468,
      "ونظرت": 4469,
      "▁ونظرت": 4470,
      "أعطتها": 4471,
      "▁أعطتها": 4472,
      "وبي": 4473,
      "▁وبي": 4474,
      "فلو": 4475,
      "▁فلو": 4476,
      "وأخذت": 4477,
      "▁وأخذت": 4478,
      "الحساء": 4479,
      "▁الحساء": 4480,
      "ولعب": 4481,
      "▁ولعب": 4482,
      "فار": 4483,
      "▁فار": 4484,
      "اسمها": 4485,
      "▁اسمها": 4486,
      "ودود": 4487,
      "▁ودود": 4488,
      "حيا": 4489,
      "▁حيا": 4490,
      "طلق": 4491,
      "▁طلق": 4492,
      "واستمتعوا": 4493,
      "▁واستمتعوا": 4494,
      "أنف": 4495,
      "▁أنف": 4496,
      "التقطت": 4497,
      "▁التقطت": 4498,
      "مشرقة": 4499,
      "▁مشرقة": 4500,
      "ماش": 4501,
      "▁ماش": 4502,
      "اختفت": 4503,
      "▁اختفت": 4504,
      "الأحمر": 4505,
      "▁الأحمر": 4506,
      "الغداء": 4507,
      "▁الغداء": 4508,
      "شرات": 4509,
      "▁شرات": 4510,
      "المختلفة": 4511,
      "▁المختلفة": 4512,
      "الجو": 4513,
      "▁الجو": 4514,
      "حلم": 4515,
      "▁حلم": 4516,
      "مسك": 4517,
      "▁مسك": 4518,
      "ماكن": 4519,
      "▁ماكن": 4520,
      "الشر": 4521,
      "▁الشر": 4522,
      "التفاح": 4523,
      "▁التفاح": 4524,
      "تقلقي": 4525,
      "▁تقلقي": 4526,
      "قادم": 4527,
      "▁قادم": 4528,
      "غة": 4529,
      "▁غة": 4530,
      "تبحث": 4531,
      "▁تبحث": 4532,
      "وشا": 4533,
      "▁وشا": 4534,
      "حقيبة": 4535,
      "▁حقيبة": 4536,
      "عرض": 4537,
      "▁عرض": 4538,
      "طبا": 4539,
      "▁طبا": 4540,
      "حيط": 4541,
      "▁حيط": 4542,
      "ألعابهم": 4543,
      "▁ألعابهم": 4544,
      "صعد": 4545,
      "▁صعد": 4546,
      "التحدث": 4547,
      "▁التحدث": 4548,
      "ستكون": 4549,
      "▁ستكون": 4550,
      "مندهش": 4551,
      "▁مندهش": 4552,
      "وارب": 4553,
      "▁وارب": 4554,
      "استمرت": 4555,
      "▁استمرت": 4556,
      "حذرين": 4557,
      "▁حذرين": 4558,
      "بكاء": 4559,
      "▁بكاء": 4560,
      "الحمام": 4561,
      "▁الحمام": 4562,
      "ويل": 4563,
      "▁ويل": 4564,
      "ترب": 4565,
      "▁ترب": 4566,
      "اللذيذ": 4567,
      "▁اللذيذ": 4568,
      "تمي": 4569,
      "▁تمي": 4570,
      "حفلة": 4571,
      "▁حفلة": 4572,
      "نائ": 4573,
      "▁نائ": 4574,
      "ووجد": 4575,
      "▁ووجد": 4576,
      "بنفسها": 4577,
      "▁بنفسها": 4578,
      "يكفي": 4579,
      "▁يكفي": 4580,
      "المرآ": 4581,
      "▁المرآ": 4582,
      "ورقة": 4583,
      "▁ورقة": 4584,
      "وهم": 4585,
      "▁وهم": 4586,
      "الجوار": 4587,
      "▁الجوار": 4588,
      "لأمها": 4589,
      "▁لأمها": 4590,
      "ورأوا": 4591,
      "▁ورأوا": 4592,
      "سابق": 4593,
      "▁سابق": 4594,
      "ضفدع": 4595,
      "▁ضفدع": 4596,
      "إيميلي": 4597,
      "▁إيميلي": 4598,
      "صص": 4599,
      "▁صص": 4600,
      "لشراء": 4601,
      "▁لشراء": 4602,
      "صنعت": 4603,
      "▁صنعت": 4604,
      "رعة": 4605,
      "▁رعة": 4606,
      "الليل": 4607,
      "▁الليل": 4608,
      "بالر": 4609,
      "▁بالر": 4610,
      "وكأنه": 4611,
      "▁وكأنه": 4612,
      "وأصدقائه": 4613,
      "▁وأصدقائه": 4614,
      "انظروا": 4615,
      "▁انظروا": 4616,
      "إحد": 4617,
      "▁إحد": 4618,
      "إنقا": 4619,
      "▁إنقا": 4620,
      "نريد": 4621,
      "▁نريد": 4622,
      "دميتها": 4623,
      "▁دميتها": 4624,
      "عبان": 4625,
      "▁عبان": 4626,
      "ديدة": 4627,
      "▁ديدة": 4628,
      "ليزا": 4629,
      "▁ليزا": 4630,
      "تهما": 4631,
      "▁تهما": 4632,
      "حظوظ": 4633,
      "▁حظوظ": 4634,
      "ينتظر": 4635,
      "▁ينتظر": 4636,
      "متجر": 4637,
      "▁متجر": 4638,
      "تشارك": 4639,
      "▁تشارك": 4640,
      "أعتقد": 4641,
      "▁أعتقد": 4642,
      "السح": 4643,
      "▁السح": 4644,
      "رارة": 4645,
      "▁رارة": 4646,
      "وأد": 4647,
      "▁وأد": 4648,
      "واستمر": 4649,
      "▁واستمر": 4650,
      "قمة": 4651,
      "▁قمة": 4652,
      "يأمل": 4653,
      "▁يأمل": 4654,
      "الرصاص": 4655,
      "▁الرصاص": 4656,
      "وارت": 4657,
      "▁وارت": 4658,
      "والزهور": 4659,
      "▁والزهور": 4660,
      "بداية": 4661,
      "▁بداية": 4662,
      "جرو": 4663,
      "▁جرو": 4664,
      "قديم": 4665,
      "▁قديم": 4666,
      "حذائ": 4667,
      "▁حذائ": 4668,
      "البحث": 4669,
      "▁البحث": 4670,
      "بابتسامة": 4671,
      "▁بابتسامة": 4672,
      "الحبل": 4673,
      "▁الحبل": 4674,
      "للق": 4675,
      "▁للق": 4676,
      "ثارة": 4677,
      "▁ثارة": 4678,
      "ولدي": 4679,
      "▁ولدي": 4680,
      "يعمل": 4681,
      "▁يعمل": 4682,
      "بب": 4683,
      "▁بب": 4684,
      "بدأوا": 4685,
      "▁بدأوا": 4686,
      "أقرب": 4687,
      "▁أقرب": 4688,
      "لدة": 4689,
      "▁لدة": 4690,
      "شاجر": 4691,
      "▁شاجر": 4692,
      "عائلتها": 4693,
      "▁عائلتها": 4694,
      "يظهر": 4695,
      "▁يظهر": 4696,
      "مم": 4697,
      "▁مم": 4698,
      "شون": 4699,
      "▁شون": 4700,
      "لنا": 4701,
      "▁لنا": 4702,
      "والع": 4703,
      "▁والع": 4704,
      "سوزي": 4705,
      "▁سوزي": 4706,
      "والق": 4707,
      "▁والق": 4708,
      "ثوق": 4709,
      "▁ثوق": 4710,
      "ذاء": 4711,
      "▁ذاء": 4712,
      "شرب": 4713,
      "▁شرب": 4714,
      "يتوقف": 4715,
      "▁يتوقف": 4716,
      "وهج": 4717,
      "▁وهج": 4718,
      "ثقي": 4719,
      "▁ثقي": 4720,
      "كسرت": 4721,
      "▁كسرت": 4722,
      "يتمكنوا": 4723,
      "▁يتمكنوا": 4724,
      "صديقة": 4725,
      "▁صديقة": 4726,
      "جم": 4727,
      "▁جم": 4728,
      "كيس": 4729,
      "▁كيس": 4730,
      "وجاء": 4731,
      "▁وجاء": 4732,
      "الملابس": 4733,
      "▁الملابس": 4734,
      "لصنع": 4735,
      "▁لصنع": 4736,
      "استمتعوا": 4737,
      "▁استمتعوا": 4738,
      "غز": 4739,
      "▁غز": 4740,
      "وشكرت": 4741,
      "▁وشكرت": 4742,
      "ؤلم": 4743,
      "▁ؤلم": 4744,
      "الغناء": 4745,
      "▁الغناء": 4746,
      "الحقل": 4747,
      "▁الحقل": 4748,
      "الخزانة": 4749,
      "▁الخزانة": 4750,
      "وأع": 4751,
      "▁وأع": 4752,
      "ريب": 4753,
      "▁ريب": 4754,
      "تجرب": 4755,
      "▁تجرب": 4756,
      "الجميل": 4757,
      "▁الجميل": 4758,
      "ئر": 4759,
      "▁ئر": 4760,
      "ويلعب": 4761,
      "▁ويلعب": 4762,
      "ميرة": 4763,
      "▁ميرة": 4764,
      "المشاركة": 4765,
      "▁المشاركة": 4766,
      "أكون": 4767,
      "▁أكون": 4768,
      "جولة": 4769,
      "▁جولة": 4770,
      "يجاد": 4771,
      "▁يجاد": 4772,
      "التوقف": 4773,
      "▁التوقف": 4774,
      "يصدر": 4775,
      "▁يصدر": 4776,
      "أعطى": 4777,
      "▁أعطى": 4778,
      "يذهبون": 4779,
      "▁يذهبون": 4780,
      "بارد": 4781,
      "▁بارد": 4782,
      "قديمة": 4783,
      "▁قديمة": 4784,
      "ولو": 4785,
      "▁ولو": 4786,
      "رجلا": 4787,
      "▁رجلا": 4788,
      "لمساعدة": 4789,
      "▁لمساعدة": 4790,
      "جوني": 4791,
      "▁جوني": 4792,
      "والت": 4793,
      "▁والت": 4794,
      "وكولا": 4795,
      "▁وكولا": 4796,
      "لكونها": 4797,
      "▁لكونها": 4798,
      "لاستكشاف": 4799,
      "▁لاستكشاف": 4800,
      "أخضر": 4801,
      "▁أخضر": 4802,
      "عادوا": 4803,
      "▁عادوا": 4804,
      "بدت": 4805,
      "▁بدت": 4806,
      "رتك": 4807,
      "▁رتك": 4808,
      "لون": 4809,
      "▁لون": 4810,
      "انتظر": 4811,
      "▁انتظر": 4812,
      "واع": 4813,
      "▁واع": 4814,
      "وأغ": 4815,
      "▁وأغ": 4816,
      "متعب": 4817,
      "▁متعب": 4818,
      "جيك": 4819,
      "▁جيك": 4820,
      "بوبي": 4821,
      "▁بوبي": 4822,
      "وحاولت": 4823,
      "▁وحاولت": 4824,
      "أردت": 4825,
      "▁أردت": 4826,
      "سعة": 4827,
      "▁سعة": 4828,
      "هادئ": 4829,
      "▁هادئ": 4830,
      "يلتقط": 4831,
      "▁يلتقط": 4832,
      "رقاء": 4833,
      "▁رقاء": 4834,
      "الأحيان": 4835,
      "▁الأحيان": 4836,
      "مفت": 4837,
      "▁مفت": 4838,
      "القديمة": 4839,
      "▁القديمة": 4840,
      "المح": 4841,
      "▁المح": 4842,
      "وداء": 4843,
      "▁وداء": 4844,
      "مك": 4845,
      "▁مك": 4846,
      "تعطي": 4847,
      "▁تعطي": 4848,
      "قامت": 4849,
      "▁قامت": 4850,
      "كهة": 4851,
      "▁كهة": 4852,
      "بالغ": 4853,
      "▁بالغ": 4854,
      "ميلاد": 4855,
      "▁ميلاد": 4856,
      "طان": 4857,
      "▁طان": 4858,
      "بالكرة": 4859,
      "▁بالكرة": 4860,
      "والس": 4861,
      "▁والس": 4862,
      "ذب": 4863,
      "▁ذب": 4864,
      "مجموعة": 4865,
      "▁مجموعة": 4866,
      "إحدى": 4867,
      "▁إحدى": 4868,
      "الثلاجة": 4869,
      "▁الثلاجة": 4870,
      "وأح": 4871,
      "▁وأح": 4872,
      "الليلة": 4873,
      "▁الليلة": 4874,
      "وافقت": 4875,
      "▁وافقت": 4876,
      "تني": 4877,
      "▁تني": 4878,
      "تويتي": 4879,
      "▁تويتي": 4880,
      "قلقة": 4881,
      "▁قلقة": 4882,
      "جاهز": 4883,
      "▁جاهز": 4884,
      "القرد": 4885,
      "▁القرد": 4886,
      "والز": 4887,
      "▁والز": 4888,
      "خطير": 4889,
      "▁خطير": 4890,
      "ألعابه": 4891,
      "▁ألعابه": 4892,
      "ضوء": 4893,
      "▁ضوء": 4894,
      "الملونة": 4895,
      "▁الملونة": 4896,
      "ذوق": 4897,
      "▁ذوق": 4898,
      "الفرن": 4899,
      "▁الفرن": 4900,
      "تسمع": 4901,
      "▁تسمع": 4902,
      "وأدرك": 4903,
      "▁وأدرك": 4904,
      "جديدا": 4905,
      "▁جديدا": 4906,
      "سنجاب": 4907,
      "▁سنجاب": 4908,
      "تفهم": 4909,
      "▁تفهم": 4910,
      "يعج": 4911,
      "▁يعج": 4912,
      "يادة": 4913,
      "▁يادة": 4914,
      "جيدا": 4915,
      "▁جيدا": 4916,
      "سحرية": 4917,
      "▁سحرية": 4918,
      "الفا": 4919,
      "▁الفا": 4920,
      "قيقة": 4921,
      "▁قيقة": 4922,
      "أعطته": 4923,
      "▁أعطته": 4924,
      "الجنية": 4925,
      "▁الجنية": 4926,
      "احتضن": 4927,
      "▁احتضن": 4928,
      "أيها": 4929,
      "▁أيها": 4930,
      "قيلولة": 4931,
      "▁قيلولة": 4932,
      "أكله": 4933,
      "▁أكله": 4934,
      "قار": 4935,
      "▁قار": 4936,
      "المزرعة": 4937,
      "▁المزرعة": 4938,
      "صفراء": 4939,
      "▁صفراء": 4940,
      "نظيفة": 4941,
      "▁نظيفة": 4942,
      "الشريحة": 4943,
      "▁الشريحة": 4944,
      "تماما": 4945,
      "▁تماما": 4946,
      "الفراش": 4947,
      "▁الفراش": 4948,
      "الجبن": 4949,
      "▁الجبن": 4950,
      "صديقي": 4951,
      "▁صديقي": 4952,
      "للبحث": 4953,
      "▁للبحث": 4954,
      "مياه": 4955,
      "▁مياه": 4956,
      "بيتر": 4957,
      "▁بيتر": 4958,
      "الدخول": 4959,
      "▁الدخول": 4960,
      "برا": 4961,
      "▁برا": 4962,
      "السج": 4963,
      "▁السج": 4964,
      "وتر": 4965,
      "▁وتر": 4966,
      "محظوظ": 4967,
      "▁محظوظ": 4968,
      "برد": 4969,
      "▁برد": 4970,
      "ضرت": 4971,
      "▁ضرت": 4972,
      "البداية": 4973,
      "▁البداية": 4974,
      "قاموا": 4975,
      "▁قاموا": 4976,
      "ؤية": 4977,
      "▁ؤية": 4978,
      "قوى": 4979,
      "▁قوى": 4980,
      "كذا": 4981,
      "▁كذا": 4982,
      "أنواع": 4983,
      "▁أنواع": 4984,
      "الأد": 4985,
      "▁الأد": 4986,
      "سريع": 4987,
      "▁سريع": 4988,
      "وضعوا": 4989,
      "▁وضعوا": 4990,
      "بأنه": 4991,
      "▁بأنه": 4992,
      "سى": 4993,
      "▁سى": 4994,
      "مشمس": 4995,
      "▁مشمس": 4996,
      "يضحكون": 4997,
      "▁يضحكون": 4998,
      "الأميرة": 4999,
      "▁الأميرة": 5000,
      "ناعم": 5001,
      "▁ناعم": 5002,
      "الدراجة": 5003,
      "▁الدراجة": 5004,
      "أخذها": 5005,
      "▁أخذها": 5006,
      "قدمي": 5007,
      "▁قدمي": 5008,
      "مني": 5009,
      "▁مني": 5010,
      "ومع": 5011,
      "▁ومع": 5012,
      "بجانب": 5013,
      "▁بجانب": 5014,
      "شفت": 5015,
      "▁شفت": 5016,
      "للاست": 5017,
      "▁للاست": 5018,
      "النجوم": 5019,
      "▁النجوم": 5020,
      "عض": 5021,
      "▁عض": 5022,
      "قادمة": 5023,
      "▁قادمة": 5024,
      "تل": 5025,
      "▁تل": 5026,
      "الاثنان": 5027,
      "▁الاثنان": 5028,
      "يروا": 5029,
      "▁يروا": 5030,
      "يعني": 5031,
      "▁يعني": 5032,
      "الأمان": 5033,
      "▁الأمان": 5034,
      "فمه": 5035,
      "▁فمه": 5036,
      "النظر": 5037,
      "▁النظر": 5038,
      "تيدي": 5039,
      "▁تيدي": 5040,
      "فات": 5041,
      "▁فات": 5042,
      "تغني": 5043,
      "▁تغني": 5044,
      "يعانق": 5045,
      "▁يعانق": 5046,
      "عنه": 5047,
      "▁عنه": 5048,
      "عائلته": 5049,
      "▁عائلته": 5050,
      "المحيط": 5051,
      "▁المحيط": 5052,
      "بلغ": 5053,
      "▁بلغ": 5054,
      "مى": 5055,
      "▁مى": 5056,
      "الرف": 5057,
      "▁الرف": 5058,
      "ألي": 5059,
      "▁ألي": 5060,
      "يبكي": 5061,
      "▁يبكي": 5062,
      "جدتي": 5063,
      "▁جدتي": 5064,
      "جات": 5065,
      "▁جات": 5066,
      "شجاعا": 5067,
      "▁شجاعا": 5068,
      "الممتع": 5069,
      "▁الممتع": 5070,
      "الصخور": 5071,
      "▁الصخور": 5072,
      "وجوه": 5073,
      "▁وجوه": 5074,
      "الفور": 5075,
      "▁الفور": 5076,
      "بداخلها": 5077,
      "▁بداخلها": 5078,
      "دعني": 5079,
      "▁دعني": 5080,
      "وسو": 5081,
      "▁وسو": 5082,
      "شفى": 5083,
      "▁شفى": 5084,
      "وحتى": 5085,
      "▁وحتى": 5086,
      "ربط": 5087,
      "▁ربط": 5088,
      "يصل": 5089,
      "▁يصل": 5090,
      "والداها": 5091,
      "▁والداها": 5092,
      "وأصبح": 5093,
      "▁وأصبح": 5094,
      "المفتاح": 5095,
      "▁المفتاح": 5096,
      "وجين": 5097,
      "▁وجين": 5098,
      "الفتى": 5099,
      "▁الفتى": 5100,
      "غدا": 5101,
      "▁غدا": 5102,
      "ابق": 5103,
      "▁ابق": 5104,
      "أمر": 5105,
      "▁أمر": 5106,
      "بضع": 5107,
      "▁بضع": 5108,
      "واكه": 5109,
      "▁واكه": 5110,
      "المك": 5111,
      "▁المك": 5112,
      "نه": 5113,
      "▁نه": 5114,
      "واني": 5115,
      "▁واني": 5116,
      "المرج": 5117,
      "▁المرج": 5118,
      "المخ": 5119,
      "▁المخ": 5120,
      "للجميع": 5121,
      "▁للجميع": 5122,
      "جائع": 5123,
      "▁جائع": 5124,
      "الجري": 5125,
      "▁الجري": 5126,
      "رارا": 5127,
      "▁رارا": 5128,
      "الصباح": 5129,
      "▁الصباح": 5130,
      "كرسي": 5131,
      "▁كرسي": 5132,
      "ضجيج": 5133,
      "▁ضجيج": 5134,
      "السيد": 5135,
      "▁السيد": 5136,
      "وردي": 5137,
      "▁وردي": 5138,
      "لاك": 5139,
      "▁لاك": 5140,
      "يفتح": 5141,
      "▁يفتح": 5142,
      "بألعابهم": 5143,
      "▁بألعابهم": 5144,
      "الزلاجة": 5145,
      "▁الزلاجة": 5146,
      "أشعة": 5147,
      "▁أشعة": 5148,
      "ومخ": 5149,
      "▁ومخ": 5150,
      "واصلت": 5151,
      "▁واصلت": 5152,
      "الشعور": 5153,
      "▁الشعور": 5154,
      "يمشون": 5155,
      "▁يمشون": 5156,
      "وسحب": 5157,
      "▁وسحب": 5158,
      "سالة": 5159,
      "▁سالة": 5160,
      "الخفيفة": 5161,
      "▁الخفيفة": 5162,
      "أيام": 5163,
      "▁أيام": 5164,
      "ميلي": 5165,
      "▁ميلي": 5166,
      "استخدم": 5167,
      "▁استخدم": 5168,
      "الانضمام": 5169,
      "▁الانضمام": 5170,
      "بعيدة": 5171,
      "▁بعيدة": 5172,
      "العصير": 5173,
      "▁العصير": 5174,
      "وبدأوا": 5175,
      "▁وبدأوا": 5176,
      "تال": 5177,
      "▁تال": 5178,
      "الورقة": 5179,
      "▁الورقة": 5180,
      "ساخ": 5181,
      "▁ساخ": 5182,
      "حرة": 5183,
      "▁حرة": 5184,
      "ميص": 5185,
      "▁ميص": 5186,
      "المدينة": 5187,
      "▁المدينة": 5188,
      "وأكثر": 5189,
      "▁وأكثر": 5190,
      "لين": 5191,
      "▁لين": 5192,
      "الفيل": 5193,
      "▁الفيل": 5194,
      "والسعادة": 5195,
      "▁والسعادة": 5196,
      "صعودا": 5197,
      "▁صعودا": 5198,
      "القتال": 5199,
      "▁القتال": 5200,
      "الوا": 5201,
      "▁الوا": 5202,
      "وأنا": 5203,
      "▁وأنا": 5204,
      "سبب": 5205,
      "▁سبب": 5206,
      "وأخبر": 5207,
      "▁وأخبر": 5208,
      "بالماء": 5209,
      "▁بالماء": 5210,
      "وكل": 5211,
      "▁وكل": 5212,
      "لرؤي": 5213,
      "▁لرؤي": 5214,
      "أصواتا": 5215,
      "▁أصواتا": 5216,
      "عرفت": 5217,
      "▁عرفت": 5218,
      "أفعل": 5219,
      "▁أفعل": 5220,
      "طاقة": 5221,
      "▁طاقة": 5222,
      "المنا": 5223,
      "▁المنا": 5224,
      "مشكلة": 5225,
      "▁مشكلة": 5226,
      "للنوم": 5227,
      "▁للنوم": 5228,
      "تة": 5229,
      "▁تة": 5230,
      "وفتح": 5231,
      "▁وفتح": 5232,
      "أعج": 5233,
      "▁أعج": 5234,
      "قق": 5235,
      "▁قق": 5236,
      "أحبوا": 5237,
      "▁أحبوا": 5238,
      "فزيون": 5239,
      "▁فزيون": 5240,
      "والص": 5241,
      "▁والص": 5242,
      "يفهم": 5243,
      "▁يفهم": 5244,
      "راض": 5245,
      "▁راض": 5246,
      "كتل": 5247,
      "▁كتل": 5248,
      "جري": 5249,
      "▁جري": 5250,
      "لكنني": 5251,
      "▁لكنني": 5252,
      "ظن": 5253,
      "▁ظن": 5254,
      "يصدق": 5255,
      "▁يصدق": 5256,
      "نات": 5257,
      "▁نات": 5258,
      "تضحك": 5259,
      "▁تضحك": 5260,
      "واستكشاف": 5261,
      "▁واستكشاف": 5262,
      "التأرجح": 5263,
      "▁التأرجح": 5264,
      "تدور": 5265,
      "▁تدور": 5266,
      "الجيد": 5267,
      "▁الجيد": 5268,
      "يعطي": 5269,
      "▁يعطي": 5270,
      "مساعدتها": 5271,
      "▁مساعدتها": 5272,
      "تنز": 5273,
      "▁تنز": 5274,
      "ألعب": 5275,
      "▁ألعب": 5276,
      "الاستحمام": 5277,
      "▁الاستحمام": 5278,
      "متأك": 5279,
      "▁متأك": 5280,
      "تعود": 5281,
      "▁تعود": 5282,
      "خضراء": 5283,
      "▁خضراء": 5284,
      "يقولان": 5285,
      "▁يقولان": 5286,
      "صو": 5287,
      "▁صو": 5288,
      "يضحك": 5289,
      "▁يضحك": 5290,
      "غني": 5291,
      "▁غني": 5292,
      "عداد": 5293,
      "▁عداد": 5294,
      "ائط": 5295,
      "▁ائط": 5296,
      "راق": 5297,
      "▁راق": 5298,
      "مليء": 5299,
      "▁مليء": 5300,
      "للتنزه": 5301,
      "▁للتنزه": 5302,
      "مهما": 5303,
      "▁مهما": 5304,
      "بحثا": 5305,
      "▁بحثا": 5306,
      "كيتي": 5307,
      "▁كيتي": 5308,
      "ياد": 5309,
      "▁ياد": 5310,
      "أميرة": 5311,
      "▁أميرة": 5312,
      "وجود": 5313,
      "▁وجود": 5314,
      "الداف": 5315,
      "▁الداف": 5316,
      "وملمع": 5317,
      "▁وملمع": 5318,
      "السير": 5319,
      "▁السير": 5320,
      "الكرسي": 5321,
      "▁الكرسي": 5322,
      "ريح": 5323,
      "▁ريح": 5324,
      "الرائعة": 5325,
      "▁الرائعة": 5326,
      "ولط": 5327,
      "▁ولط": 5328,
      "سنان": 5329,
      "▁سنان": 5330,
      "الزرقاء": 5331,
      "▁الزرقاء": 5332,
      "رتهم": 5333,
      "▁رتهم": 5334,
      "يلوح": 5335,
      "▁يلوح": 5336,
      "حفرة": 5337,
      "▁حفرة": 5338,
      "ريكس": 5339,
      "▁ريكس": 5340,
      "كثيرة": 5341,
      "▁كثيرة": 5342,
      "لقى": 5343,
      "▁لقى": 5344,
      "البرتقال": 5345,
      "▁البرتقال": 5346,
      "يعرفون": 5347,
      "▁يعرفون": 5348,
      "ضروات": 5349,
      "▁ضروات": 5350,
      "المش": 5351,
      "▁المش": 5352,
      "أش": 5353,
      "▁أش": 5354,
      "مميز": 5355,
      "▁مميز": 5356,
      "انقت": 5357,
      "▁انقت": 5358,
      "طعم": 5359,
      "▁طعم": 5360,
      "ختبئ": 5361,
      "▁ختبئ": 5362,
      "فلوفي": 5363,
      "▁فلوفي": 5364,
      "يرام": 5365,
      "▁يرام": 5366,
      "بالع": 5367,
      "▁بالع": 5368,
      "بالبكاء": 5369,
      "▁بالبكاء": 5370,
      "والب": 5371,
      "▁والب": 5372,
      "الصديق": 5373,
      "▁الصديق": 5374,
      "العنكبوت": 5375,
      "▁العنكبوت": 5376,
      "دهش": 5377,
      "▁دهش": 5378,
      "بته": 5379,
      "▁بته": 5380,
      "شديد": 5381,
      "▁شديد": 5382,
      "يديهم": 5383,
      "▁يديهم": 5384,
      "مارك": 5385,
      "▁مارك": 5386,
      "ميتنز": 5387,
      "▁ميتنز": 5388,
      "الجرة": 5389,
      "▁الجرة": 5390,
      "فقدت": 5391,
      "▁فقدت": 5392,
      "أكيد": 5393,
      "▁أكيد": 5394,
      "وحزين": 5395,
      "▁وحزين": 5396,
      "تمكنت": 5397,
      "▁تمكنت": 5398,
      "ملك": 5399,
      "▁ملك": 5400,
      "بالتأكيد": 5401,
      "▁بالتأكيد": 5402,
      "طائ": 5403,
      "▁طائ": 5404,
      "المقعد": 5405,
      "▁المقعد": 5406,
      "وأظهر": 5407,
      "▁وأظهر": 5408,
      "الملك": 5409,
      "▁الملك": 5410,
      "بالخجل": 5411,
      "▁بالخجل": 5412,
      "وأصدقائها": 5413,
      "▁وأصدقائها": 5414,
      "افلة": 5415,
      "▁افلة": 5416,
      "طارد": 5417,
      "▁طارد": 5418,
      "وتك": 5419,
      "▁وتك": 5420,
      "رما": 5421,
      "▁رما": 5422,
      "هرج": 5423,
      "▁هرج": 5424,
      "معطف": 5425,
      "▁معطف": 5426,
      "أخير": 5427,
      "▁أخير": 5428,
      "خطأ": 5429,
      "▁خطأ": 5430,
      "تخرج": 5431,
      "▁تخرج": 5432,
      "الريا": 5433,
      "▁الريا": 5434,
      "مط": 5435,
      "▁مط": 5436,
      "جاج": 5437,
      "▁جاج": 5438,
      "رأته": 5439,
      "▁رأته": 5440,
      "فيد": 5441,
      "▁فيد": 5442,
      "تتعلم": 5443,
      "▁تتعلم": 5444,
      "دعينا": 5445,
      "▁دعينا": 5446,
      "وعدت": 5447,
      "▁وعدت": 5448,
      "تسقط": 5449,
      "▁تسقط": 5450,
      "فتحه": 5451,
      "▁فتحه": 5452,
      "تمنى": 5453,
      "▁تمنى": 5454,
      "بون": 5455,
      "▁بون": 5456,
      "فتة": 5457,
      "▁فتة": 5458,
      "فضوليا": 5459,
      "▁فضوليا": 5460,
      "صرف": 5461,
      "▁صرف": 5462,
      "دافئ": 5463,
      "▁دافئ": 5464,
      "كنا": 5465,
      "▁كنا": 5466,
      "نون": 5467,
      "▁نون": 5468,
      "لامعا": 5469,
      "▁لامعا": 5470,
      "ذع": 5471,
      "▁ذع": 5472,
      "وحدة": 5473,
      "▁وحدة": 5474,
      "وخرج": 5475,
      "▁وخرج": 5476,
      "عانقوا": 5477,
      "▁عانقوا": 5478,
      "نفعل": 5479,
      "▁نفعل": 5480,
      "يستمتعون": 5481,
      "▁يستمتعون": 5482,
      "الكلمات": 5483,
      "▁الكلمات": 5484,
      "محب": 5485,
      "▁محب": 5486,
      "نسي": 5487,
      "▁نسي": 5488,
      "الممتعة": 5489,
      "▁الممتعة": 5490,
      "البومة": 5491,
      "▁البومة": 5492,
      "الدي": 5493,
      "▁الدي": 5494,
      "شاركوا": 5495,
      "▁شاركوا": 5496,
      "السباق": 5497,
      "▁السباق": 5498,
      "بكت": 5499,
      "▁بكت": 5500,
      "شعرها": 5501,
      "▁شعرها": 5502,
      "بالون": 5503,
      "▁بالون": 5504,
      "جميعهم": 5505,
      "▁جميعهم": 5506,
      "أعلم": 5507,
      "▁أعلم": 5508,
      "منى": 5509,
      "▁منى": 5510,
      "ترسم": 5511,
      "▁ترسم": 5512,
      "عدم": 5513,
      "▁عدم": 5514,
      "حشرة": 5515,
      "▁حشرة": 5516,
      "وليس": 5517,
      "▁وليس": 5518,
      "جلست": 5519,
      "▁جلست": 5520,
      "مهمة": 5521,
      "▁مهمة": 5522,
      "ئب": 5523,
      "▁ئب": 5524,
      "القلعة": 5525,
      "▁القلعة": 5526,
      "لئيم": 5527,
      "▁لئيم": 5528,
      "أنتما": 5529,
      "▁أنتما": 5530,
      "وداع": 5531,
      "▁وداع": 5532,
      "نزير": 5533,
      "▁نزير": 5534,
      "ديل": 5535,
      "▁ديل": 5536,
      "بوطا": 5537,
      "▁بوطا": 5538,
      "خطة": 5539,
      "▁خطة": 5540,
      "قالا": 5541,
      "▁قالا": 5542,
      "أحضر": 5543,
      "▁أحضر": 5544,
      "لاب": 5545,
      "▁لاب": 5546,
      "وين": 5547,
      "▁وين": 5548,
      "لطفاء": 5549,
      "▁لطفاء": 5550,
      "وآنا": 5551,
      "▁وآنا": 5552,
      "الضوء": 5553,
      "▁الضوء": 5554,
      "وبك": 5555,
      "▁وبك": 5556,
      "السلة": 5557,
      "▁السلة": 5558,
      "علامة": 5559,
      "▁علامة": 5560,
      "قويا": 5561,
      "▁قويا": 5562,
      "شاحن": 5563,
      "▁شاحن": 5564,
      "اخ": 5565,
      "▁اخ": 5566,
      "فتقد": 5567,
      "▁فتقد": 5568,
      "فناء": 5569,
      "▁فناء": 5570,
      "روا": 5571,
      "▁روا": 5572,
      "قائق": 5573,
      "▁قائق": 5574,
      "الحليب": 5575,
      "▁الحليب": 5576,
      "تلتقط": 5577,
      "▁تلتقط": 5578,
      "القصص": 5579,
      "▁القصص": 5580,
      "لبعضهم": 5581,
      "▁لبعضهم": 5582,
      "ووضعتها": 5583,
      "▁ووضعتها": 5584,
      "أنتم": 5585,
      "▁أنتم": 5586,
      "وعانقت": 5587,
      "▁وعانقت": 5588,
      "وأعطا": 5589,
      "▁وأعطا": 5590,
      "لافتة": 5591,
      "▁لافتة": 5592,
      "طيبة": 5593,
      "▁طيبة": 5594,
      "المستشفى": 5595,
      "▁المستشفى": 5596,
      "إلا": 5597,
      "▁إلا": 5598,
      "تجربة": 5599,
      "▁تجربة": 5600,
      "جالس": 5601,
      "▁جالس": 5602,
      "متأخ": 5603,
      "▁متأخ": 5604,
      "التح": 5605,
      "▁التح": 5606,
      "انتهوا": 5607,
      "▁انتهوا": 5608,
      "مذه": 5609,
      "▁مذه": 5610,
      "يتعلم": 5611,
      "▁يتعلم": 5612,
      "دلو": 5613,
      "▁دلو": 5614,
      "ألوان": 5615,
      "▁ألوان": 5616,
      "هزت": 5617,
      "▁هزت": 5618,
      "أحضرت": 5619,
      "▁أحضرت": 5620,
      "الما": 5621,
      "▁الما": 5622,
      "رآ": 5623,
      "▁رآ": 5624,
      "والحيوانات": 5625,
      "▁والحيوانات": 5626,
      "أسد": 5627,
      "▁أسد": 5628,
      "الورقية": 5629,
      "▁الورقية": 5630,
      "يلعبوا": 5631,
      "▁يلعبوا": 5632,
      "كلها": 5633,
      "▁كلها": 5634,
      "يبدأ": 5635,
      "▁يبدأ": 5636,
      "جح": 5637,
      "▁جح": 5638,
      "دى": 5639,
      "▁دى": 5640,
      "أعاد": 5641,
      "▁أعاد": 5642,
      "فاج": 5643,
      "▁فاج": 5644,
      "خي": 5645,
      "▁خي": 5646,
      "رقيق": 5647,
      "▁رقيق": 5648,
      "أبيض": 5649,
      "▁أبيض": 5650,
      "وبة": 5651,
      "▁وبة": 5652,
      "وسقطت": 5653,
      "▁وسقطت": 5654,
      "ذنب": 5655,
      "▁ذنب": 5656,
      "ورقية": 5657,
      "▁ورقية": 5658,
      "فرع": 5659,
      "▁فرع": 5660,
      "هادئة": 5661,
      "▁هادئة": 5662,
      "فينة": 5663,
      "▁فينة": 5664,
      "بمجرد": 5665,
      "▁بمجرد": 5666,
      "لف": 5667,
      "▁لف": 5668,
      "البالون": 5669,
      "▁البالون": 5670,
      "الهرب": 5671,
      "▁الهرب": 5672,
      "ذو": 5673,
      "▁ذو": 5674,
      "بمفر": 5675,
      "▁بمفر": 5676,
      "واخت": 5677,
      "▁واخت": 5678,
      "قررا": 5679,
      "▁قررا": 5680,
      "أز": 5681,
      "▁أز": 5682,
      "سكويت": 5683,
      "▁سكويت": 5684,
      "وهبوطا": 5685,
      "▁وهبوطا": 5686,
      "ليل": 5687,
      "▁ليل": 5688,
      "صغر": 5689,
      "▁صغر": 5690,
      "وتلعب": 5691,
      "▁وتلعب": 5692,
      "بقاء": 5693,
      "▁بقاء": 5694,
      "بأسرع": 5695,
      "▁بأسرع": 5696,
      "بص": 5697,
      "▁بص": 5698,
      "لص": 5699,
      "▁لص": 5700,
      "أبد": 5701,
      "▁أبد": 5702,
      "ووضعت": 5703,
      "▁ووضعت": 5704,
      "إخ": 5705,
      "▁إخ": 5706,
      "سيارتي": 5707,
      "▁سيارتي": 5708,
      "غابة": 5709,
      "▁غابة": 5710,
      "طرق": 5711,
      "▁طرق": 5712,
      "أرى": 5713,
      "▁أرى": 5714,
      "لجعل": 5715,
      "▁لجعل": 5716,
      "دقائق": 5717,
      "▁دقائق": 5718,
      "باتات": 5719,
      "▁باتات": 5720,
      "الحائط": 5721,
      "▁الحائط": 5722,
      "وجبات": 5723,
      "▁وجبات": 5724,
      "القطع": 5725,
      "▁القطع": 5726,
      "يستخدم": 5727,
      "▁يستخدم": 5728,
      "وابة": 5729,
      "▁وابة": 5730,
      "قذرة": 5731,
      "▁قذرة": 5732,
      "ثعلب": 5733,
      "▁ثعلب": 5734,
      "ببعض": 5735,
      "▁ببعض": 5736,
      "والطيور": 5737,
      "▁والطيور": 5738,
      "لإظهار": 5739,
      "▁لإظهار": 5740,
      "ياة": 5741,
      "▁ياة": 5742,
      "لوالدتها": 5743,
      "▁لوالدتها": 5744,
      "بإمكانهم": 5745,
      "▁بإمكانهم": 5746,
      "سباق": 5747,
      "▁سباق": 5748,
      "طاف": 5749,
      "▁طاف": 5750,
      "وجي": 5751,
      "▁وجي": 5752,
      "العسل": 5753,
      "▁العسل": 5754,
      "أمهاتهم": 5755,
      "▁أمهاتهم": 5756,
      "الضجيج": 5757,
      "▁الضجيج": 5758,
      "الشوكولا": 5759,
      "▁الشوكولا": 5760,
      "تظرت": 5761,
      "▁تظرت": 5762,
      "زجاجة": 5763,
      "▁زجاجة": 5764,
      "وضحكوا": 5765,
      "▁وضحكوا": 5766,
      "والقفز": 5767,
      "▁والقفز": 5768,
      "التفاحة": 5769,
      "▁التفاحة": 5770,
      "القرن": 5771,
      "▁القرن": 5772,
      "ودي": 5773,
      "▁ودي": 5774,
      "قلم": 5775,
      "▁قلم": 5776,
      "وجميلة": 5777,
      "▁وجميلة": 5778,
      "وعائ": 5779,
      "▁وعائ": 5780,
      "ويم": 5781,
      "▁ويم": 5782,
      "الشخص": 5783,
      "▁الشخص": 5784,
      "العظ": 5785,
      "▁العظ": 5786,
      "الحفلة": 5787,
      "▁الحفلة": 5788,
      "علك": 5789,
      "▁علك": 5790,
      "والديه": 5791,
      "▁والديه": 5792,
      "ضم": 5793,
      "▁ضم": 5794,
      "يخبر": 5795,
      "▁يخبر": 5796,
      "محاولة": 5797,
      "▁محاولة": 5798,
      "يهتم": 5799,
      "▁يهتم": 5800,
      "النحلة": 5801,
      "▁النحلة": 5802,
      "وأعلى": 5803,
      "▁وأعلى": 5804,
      "قلا": 5805,
      "▁قلا": 5806,
      "ووضعها": 5807,
      "▁ووضعها": 5808,
      "الشاي": 5809,
      "▁الشاي": 5810,
      "ويحب": 5811,
      "▁ويحب": 5812,
      "وقفز": 5813,
      "▁وقفز": 5814,
      "لأنهم": 5815,
      "▁لأنهم": 5816,
      "حديقتها": 5817,
      "▁حديقتها": 5818,
      "عنها": 5819,
      "▁عنها": 5820,
      "المتعة": 5821,
      "▁المتعة": 5822,
      "أب": 5823,
      "▁أب": 5824,
      "يقوم": 5825,
      "▁يقوم": 5826,
      "أصفر": 5827,
      "▁أصفر": 5828,
      "بفخر": 5829,
      "▁بفخر": 5830,
      "بيل": 5831,
      "▁بيل": 5832,
      "ساعات": 5833,
      "▁ساعات": 5834,
      "وقام": 5835,
      "▁وقام": 5836,
      "حقل": 5837,
      "▁حقل": 5838,
      "وصرخ": 5839,
      "▁وصرخ": 5840,
      "اس": 5841,
      "▁اس": 5842,
      "أكمل": 5843,
      "▁أكمل": 5844,
      "نسيت": 5845,
      "▁نسيت": 5846,
      "مادة": 5847,
      "▁مادة": 5848,
      "ذرة": 5849,
      "▁ذرة": 5850,
      "اعت": 5851,
      "▁اعت": 5852,
      "رمي": 5853,
      "▁رمي": 5854,
      "الحك": 5855,
      "▁الحك": 5856,
      "تمام": 5857,
      "▁تمام": 5858,
      "فص": 5859,
      "▁فص": 5860,
      "سحري": 5861,
      "▁سحري": 5862,
      "ثوب": 5863,
      "▁ثوب": 5864,
      "مختلف": 5865,
      "▁مختلف": 5866,
      "ثقيلة": 5867,
      "▁ثقيلة": 5868,
      "التلفزيون": 5869,
      "▁التلفزيون": 5870,
      "ساطع": 5871,
      "▁ساطع": 5872,
      "تبقى": 5873,
      "▁تبقى": 5874,
      "فرح": 5875,
      "▁فرح": 5876,
      "شقي": 5877,
      "▁شقي": 5878,
      "ارتداء": 5879,
      "▁ارتداء": 5880,
      "للقيام": 5881,
      "▁للقيام": 5882,
      "ظل": 5883,
      "▁ظل": 5884,
      "بيض": 5885,
      "▁بيض": 5886,
      "الإطفاء": 5887,
      "▁الإطفاء": 5888,
      "قريبة": 5889,
      "▁قريبة": 5890,
      "الجلي": 5891,
      "▁الجلي": 5892,
      "شات": 5893,
      "▁شات": 5894,
      "ثق": 5895,
      "▁ثق": 5896,
      "الصورة": 5897,
      "▁الصورة": 5898,
      "آمنا": 5899,
      "▁آمنا": 5900,
      "بكى": 5901,
      "▁بكى": 5902,
      "يدور": 5903,
      "▁يدور": 5904,
      "العلم": 5905,
      "▁العلم": 5906,
      "عملت": 5907,
      "▁عملت": 5908,
      "جير": 5909,
      "▁جير": 5910,
      "ينبح": 5911,
      "▁ينبح": 5912,
      "واعتقد": 5913,
      "▁واعتقد": 5914,
      "منع": 5915,
      "▁منع": 5916,
      "المياه": 5917,
      "▁المياه": 5918,
      "سيئا": 5919,
      "▁سيئا": 5920,
      "أجل": 5921,
      "▁أجل": 5922,
      "تظهر": 5923,
      "▁تظهر": 5924,
      "عيون": 5925,
      "▁عيون": 5926,
      "يقود": 5927,
      "▁يقود": 5928,
      "ذيل": 5929,
      "▁ذيل": 5930,
      "الوق": 5931,
      "▁الوق": 5932,
      "منزلهم": 5933,
      "▁منزلهم": 5934,
      "استطا": 5935,
      "▁استطا": 5936,
      "بقية": 5937,
      "▁بقية": 5938,
      "ورج": 5939,
      "▁ورج": 5940,
      "قيبة": 5941,
      "▁قيبة": 5942,
      "وحيدا": 5943,
      "▁وحيدا": 5944,
      "الأخضر": 5945,
      "▁الأخضر": 5946,
      "سأساعدك": 5947,
      "▁سأساعدك": 5948,
      "يسقط": 5949,
      "▁يسقط": 5950,
      "تري": 5951,
      "▁تري": 5952,
      "ديو": 5953,
      "▁ديو": 5954,
      "استمتعت": 5955,
      "▁استمتعت": 5956,
      "لوح": 5957,
      "▁لوح": 5958,
      "لزيارة": 5959,
      "▁لزيارة": 5960,
      "تكوني": 5961,
      "▁تكوني": 5962,
      "يعرفوا": 5963,
      "▁يعرفوا": 5964,
      "اللطيف": 5965,
      "▁اللطيف": 5966,
      "وأخيرا": 5967,
      "▁وأخيرا": 5968,
      "طبق": 5969,
      "▁طبق": 5970,
      "لعبت": 5971,
      "▁لعبت": 5972,
      "كلبا": 5973,
      "▁كلبا": 5974,
      "غسل": 5975,
      "▁غسل": 5976,
      "الخشب": 5977,
      "▁الخشب": 5978,
      "صنعوا": 5979,
      "▁صنعوا": 5980,
      "غريبا": 5981,
      "▁غريبا": 5982,
      "وصنع": 5983,
      "▁وصنع": 5984,
      "الجلوس": 5985,
      "▁الجلوس": 5986,
      "واب": 5987,
      "▁واب": 5988,
      "مخيف": 5989,
      "▁مخيف": 5990,
      "ومت": 5991,
      "▁ومت": 5992,
      "وساعد": 5993,
      "▁وساعد": 5994,
      "موثوق": 5995,
      "▁موثوق": 5996,
      "الكه": 5997,
      "▁الكه": 5998,
      "الخطب": 5999,
      "▁الخطب": 6000,
      "ملونة": 6001,
      "▁ملونة": 6002,
      "إصبع": 6003,
      "▁إصبع": 6004,
      "للخارج": 6005,
      "▁للخارج": 6006,
      "الاستماع": 6007,
      "▁الاستماع": 6008,
      "تنهد": 6009,
      "▁تنهد": 6010,
      "جارة": 6011,
      "▁جارة": 6012,
      "المرأة": 6013,
      "▁المرأة": 6014,
      "اللون": 6015,
      "▁اللون": 6016,
      "الوعاء": 6017,
      "▁الوعاء": 6018,
      "بطة": 6019,
      "▁بطة": 6020,
      "قراءة": 6021,
      "▁قراءة": 6022,
      "ائع": 6023,
      "▁ائع": 6024,
      "مكسورة": 6025,
      "▁مكسورة": 6026,
      "تمنيت": 6027,
      "▁تمنيت": 6028,
      "بتها": 6029,
      "▁بتها": 6030,
      "طبة": 6031,
      "▁طبة": 6032,
      "قى": 6033,
      "▁قى": 6034,
      "فلا": 6035,
      "▁فلا": 6036,
      "السلم": 6037,
      "▁السلم": 6038,
      "النمر": 6039,
      "▁النمر": 6040,
      "شق": 6041,
      "▁شق": 6042,
      "باست": 6043,
      "▁باست": 6044,
      "نست": 6045,
      "▁نست": 6046,
      "جوي": 6047,
      "▁جوي": 6048,
      "معة": 6049,
      "▁معة": 6050,
      "الأمور": 6051,
      "▁الأمور": 6052,
      "حفظ": 6053,
      "▁حفظ": 6054,
      "ليو": 6055,
      "▁ليو": 6056,
      "ميل": 6057,
      "▁ميل": 6058,
      "خزانة": 6059,
      "▁خزانة": 6060,
      "سريعة": 6061,
      "▁سريعة": 6062,
      "السائق": 6063,
      "▁السائق": 6064,
      "اها": 6065,
      "▁اها": 6066,
      "راف": 6067,
      "▁راف": 6068,
      "نهر": 6069,
      "▁نهر": 6070,
      "إيلي": 6071,
      "▁إيلي": 6072,
      "يلمس": 6073,
      "▁يلمس": 6074,
      "برتقال": 6075,
      "▁برتقال": 6076,
      "صعبا": 6077,
      "▁صعبا": 6078,
      "يان": 6079,
      "▁يان": 6080,
      "الجز": 6081,
      "▁الجز": 6082,
      "يلمع": 6083,
      "▁يلمع": 6084,
      "أحببت": 6085,
      "▁أحببت": 6086,
      "ناس": 6087,
      "▁ناس": 6088,
      "تؤذي": 6089,
      "▁تؤذي": 6090,
      "المهرج": 6091,
      "▁المهرج": 6092,
      "الفواكه": 6093,
      "▁الفواكه": 6094,
      "ساق": 6095,
      "▁ساق": 6096,
      "الشجا": 6097,
      "▁الشجا": 6098,
      "التحرك": 6099,
      "▁التحرك": 6100,
      "أسود": 6101,
      "▁أسود": 6102,
      "دراجة": 6103,
      "▁دراجة": 6104,
      "القمر": 6105,
      "▁القمر": 6106,
      "لأنني": 6107,
      "▁لأنني": 6108,
      "وأبيه": 6109,
      "▁وأبيه": 6110,
      "حية": 6111,
      "▁حية": 6112,
      "أخذوا": 6113,
      "▁أخذوا": 6114,
      "سون": 6115,
      "▁سون": 6116,
      "بحثوا": 6117,
      "▁بحثوا": 6118,
      "وأمسك": 6119,
      "▁وأمسك": 6120,
      "لما": 6121,
      "▁لما": 6122,
      "قابل": 6123,
      "▁قابل": 6124,
      "أغلق": 6125,
      "▁أغلق": 6126,
      "غامرات": 6127,
      "▁غامرات": 6128,
      "اقتربت": 6129,
      "▁اقتربت": 6130,
      "للطائر": 6131,
      "▁للطائر": 6132,
      "وازن": 6133,
      "▁وازن": 6134,
      "أنني": 6135,
      "▁أنني": 6136,
      "تحصل": 6137,
      "▁تحصل": 6138,
      "وتحب": 6139,
      "▁وتحب": 6140,
      "لتهم": 6141,
      "▁لتهم": 6142,
      "الطريقة": 6143,
      "▁الطريقة": 6144,
      "زز": 6145,
      "▁زز": 6146,
      "بقيت": 6147,
      "▁بقيت": 6148,
      "يشاهدان": 6149,
      "▁يشاهدان": 6150,
      "أوض": 6151,
      "▁أوض": 6152,
      "ومش": 6153,
      "▁ومش": 6154,
      "يريدان": 6155,
      "▁يريدان": 6156,
      "هبط": 6157,
      "▁هبط": 6158,
      "يسبق": 6159,
      "▁يسبق": 6160,
      "ريش": 6161,
      "▁ريش": 6162,
      "ضحكان": 6163,
      "▁ضحكان": 6164,
      "مسح": 6165,
      "▁مسح": 6166,
      "متعبة": 6167,
      "▁متعبة": 6168,
      "بالإ": 6169,
      "▁بالإ": 6170,
      "طريقه": 6171,
      "▁طريقه": 6172,
      "يبتسمون": 6173,
      "▁يبتسمون": 6174,
      "ثقب": 6175,
      "▁ثقب": 6176,
      "مندهشا": 6177,
      "▁مندهشا": 6178,
      "المتح": 6179,
      "▁المتح": 6180,
      "ناوب": 6181,
      "▁ناوب": 6182,
      "السحب": 6183,
      "▁السحب": 6184,
      "وسادة": 6185,
      "▁وسادة": 6186,
      "فخورين": 6187,
      "▁فخورين": 6188,
      "تنتظر": 6189,
      "▁تنتظر": 6190,
      "ملعقة": 6191,
      "▁ملعقة": 6192,
      "منك": 6193,
      "▁منك": 6194,
      "وقوي": 6195,
      "▁وقوي": 6196,
      "المخلوق": 6197,
      "▁المخلوق": 6198,
      "جان": 6199,
      "▁جان": 6200,
      "تسبح": 6201,
      "▁تسبح": 6202,
      "سلام": 6203,
      "▁سلام": 6204,
      "ارد": 6205,
      "▁ارد": 6206,
      "رصد": 6207,
      "▁رصد": 6208,
      "حولهم": 6209,
      "▁حولهم": 6210,
      "بأكمل": 6211,
      "▁بأكمل": 6212,
      "بالكثير": 6213,
      "▁بالكثير": 6214,
      "مبا": 6215,
      "▁مبا": 6216,
      "سخيفة": 6217,
      "▁سخيفة": 6218,
      "وأخ": 6219,
      "▁وأخ": 6220,
      "الرحب": 6221,
      "▁الرحب": 6222,
      "تقفز": 6223,
      "▁تقفز": 6224,
      "تتوقف": 6225,
      "▁تتوقف": 6226,
      "الحشرات": 6227,
      "▁الحشرات": 6228,
      "طين": 6229,
      "▁طين": 6230,
      "فكير": 6231,
      "▁فكير": 6232,
      "صن": 6233,
      "▁صن": 6234,
      "بطانية": 6235,
      "▁بطانية": 6236,
      "استيقظت": 6237,
      "▁استيقظت": 6238,
      "ثلاثة": 6239,
      "▁ثلاثة": 6240,
      "رائحته": 6241,
      "▁رائحته": 6242,
      "علبة": 6243,
      "▁علبة": 6244,
      "بومة": 6245,
      "▁بومة": 6246,
      "راقب": 6247,
      "▁راقب": 6248,
      "ضطر": 6249,
      "▁ضطر": 6250,
      "أجمل": 6251,
      "▁أجمل": 6252,
      "خدام": 6253,
      "▁خدام": 6254,
      "أخرجت": 6255,
      "▁أخرجت": 6256,
      "صحيح": 6257,
      "▁صحيح": 6258,
      "ماي": 6259,
      "▁ماي": 6260,
      "الموقد": 6261,
      "▁الموقد": 6262,
      "وتبتسم": 6263,
      "▁وتبتسم": 6264,
      "وجدتها": 6265,
      "▁وجدتها": 6266,
      "ومي": 6267,
      "▁ومي": 6268,
      "الحافلة": 6269,
      "▁الحافلة": 6270,
      "حلوة": 6271,
      "▁حلوة": 6272,
      "بنى": 6273,
      "▁بنى": 6274,
      "أصبحوا": 6275,
      "▁أصبحوا": 6276,
      "الوردي": 6277,
      "▁الوردي": 6278,
      "قطار": 6279,
      "▁قطار": 6280,
      "يجدون": 6281,
      "▁يجدون": 6282,
      "والن": 6283,
      "▁والن": 6284,
      "نام": 6285,
      "▁نام": 6286,
      "ابنتها": 6287,
      "▁ابنتها": 6288,
      "أنهما": 6289,
      "▁أنهما": 6290,
      "لطة": 6291,
      "▁لطة": 6292,
      "القبض": 6293,
      "▁القبض": 6294,
      "قاعات": 6295,
      "▁قاعات": 6296,
      "ابتسموا": 6297,
      "▁ابتسموا": 6298,
      "الصحيح": 6299,
      "▁الصحيح": 6300,
      "لديهما": 6301,
      "▁لديهما": 6302,
      "أه": 6303,
      "▁أه": 6304,
      "وطلب": 6305,
      "▁وطلب": 6306,
      "يخت": 6307,
      "▁يخت": 6308,
      "يلا": 6309,
      "▁يلا": 6310,
      "الكيس": 6311,
      "▁الكيس": 6312,
      "يدفع": 6313,
      "▁يدفع": 6314,
      "تصدر": 6315,
      "▁تصدر": 6316,
      "ولكنها": 6317,
      "▁ولكنها": 6318,
      "أخذتها": 6319,
      "▁أخذتها": 6320,
      "قدر": 6321,
      "▁قدر": 6322,
      "شاهدت": 6323,
      "▁شاهدت": 6324,
      "المسا": 6325,
      "▁المسا": 6326,
      "دافئة": 6327,
      "▁دافئة": 6328,
      "تهي": 6329,
      "▁تهي": 6330,
      "تمطر": 6331,
      "▁تمطر": 6332,
      "يتظاهر": 6333,
      "▁يتظاهر": 6334,
      "بعدم": 6335,
      "▁بعدم": 6336,
      "ويستمتع": 6337,
      "▁ويستمتع": 6338,
      "حلوى": 6339,
      "▁حلوى": 6340,
      "تنمو": 6341,
      "▁تنمو": 6342,
      "سريرها": 6343,
      "▁سريرها": 6344,
      "ياء": 6345,
      "▁ياء": 6346,
      "التراب": 6347,
      "▁التراب": 6348,
      "خروج": 6349,
      "▁خروج": 6350,
      "المغ": 6351,
      "▁المغ": 6352,
      "زوج": 6353,
      "▁زوج": 6354,
      "ابون": 6355,
      "▁ابون": 6356,
      "ضار": 6357,
      "▁ضار": 6358,
      "اذهب": 6359,
      "▁اذهب": 6360,
      "شفة": 6361,
      "▁شفة": 6362,
      "الكنز": 6363,
      "▁الكنز": 6364,
      "خذ": 6365,
      "▁خذ": 6366,
      "باه": 6367,
      "▁باه": 6368,
      "المسر": 6369,
      "▁المسر": 6370,
      "تصف": 6371,
      "▁تصف": 6372,
      "وبوت": 6373,
      "▁وبوت": 6374,
      "فوض": 6375,
      "▁فوض": 6376,
      "الهاتف": 6377,
      "▁الهاتف": 6378,
      "تعمل": 6379,
      "▁تعمل": 6380,
      "الأمواج": 6381,
      "▁الأمواج": 6382,
      "اللامعة": 6383,
      "▁اللامعة": 6384,
      "التظاهر": 6385,
      "▁التظاهر": 6386,
      "تأكد": 6387,
      "▁تأكد": 6388,
      "تمسك": 6389,
      "▁تمسك": 6390,
      "ذور": 6391,
      "▁ذور": 6392,
      "أخلاق": 6393,
      "▁أخلاق": 6394,
      "سامح": 6395,
      "▁سامح": 6396,
      "الأمير": 6397,
      "▁الأمير": 6398,
      "دو": 6399,
      "▁دو": 6400,
      "مزر": 6401,
      "▁مزر": 6402,
      "القديم": 6403,
      "▁القديم": 6404,
      "مستعدة": 6405,
      "▁مستعدة": 6406,
      "وأنها": 6407,
      "▁وأنها": 6408,
      "دوء": 6409,
      "▁دوء": 6410,
      "الليمون": 6411,
      "▁الليمون": 6412,
      "هرية": 6413,
      "▁هرية": 6414,
      "بطريق": 6415,
      "▁بطريق": 6416,
      "الصعب": 6417,
      "▁الصعب": 6418,
      "سبح": 6419,
      "▁سبح": 6420,
      "شم": 6421,
      "▁شم": 6422,
      "بالارت": 6423,
      "▁بالارت": 6424,
      "يفكر": 6425,
      "▁يفكر": 6426,
      "بدون": 6427,
      "▁بدون": 6428,
      "رسالة": 6429,
      "▁رسالة": 6430,
      "عادي": 6431,
      "▁عادي": 6432,
      "ماندي": 6433,
      "▁ماندي": 6434,
      "جيبه": 6435,
      "▁جيبه": 6436,
      "وجيزة": 6437,
      "▁وجيزة": 6438,
      "ممتنة": 6439,
      "▁ممتنة": 6440,
      "التقى": 6441,
      "▁التقى": 6442,
      "بالج": 6443,
      "▁بالج": 6444,
      "المعد": 6445,
      "▁المعد": 6446,
      "أعجبت": 6447,
      "▁أعجبت": 6448,
      "بكثير": 6449,
      "▁بكثير": 6450,
      "وردية": 6451,
      "▁وردية": 6452,
      "إنقاذ": 6453,
      "▁إنقاذ": 6454,
      "يسبح": 6455,
      "▁يسبح": 6456,
      "محا": 6457,
      "▁محا": 6458,
      "ارس": 6459,
      "▁ارس": 6460,
      "حادة": 6461,
      "▁حادة": 6462,
      "بكة": 6463,
      "▁بكة": 6464,
      "ريه": 6465,
      "▁ريه": 6466,
      "العاصفة": 6467,
      "▁العاصفة": 6468,
      "ريبة": 6469,
      "▁ريبة": 6470,
      "ارتدت": 6471,
      "▁ارتدت": 6472,
      "دراجته": 6473,
      "▁دراجته": 6474,
      "النحل": 6475,
      "▁النحل": 6476,
      "روز": 6477,
      "▁روز": 6478,
      "يحصل": 6479,
      "▁يحصل": 6480,
      "الأسفل": 6481,
      "▁الأسفل": 6482,
      "يملك": 6483,
      "▁يملك": 6484,
      "نى": 6485,
      "▁نى": 6486,
      "عانقتها": 6487,
      "▁عانقتها": 6488,
      "كنز": 6489,
      "▁كنز": 6490,
      "عناقا": 6491,
      "▁عناقا": 6492,
      "ومن": 6493,
      "▁ومن": 6494,
      "نار": 6495,
      "▁نار": 6496,
      "سباحة": 6497,
      "▁سباحة": 6498,
      "يراقب": 6499,
      "▁يراقب": 6500,
      "بوبو": 6501,
      "▁بوبو": 6502,
      "شارت": 6503,
      "▁شارت": 6504,
      "تحول": 6505,
      "▁تحول": 6506,
      "ئلة": 6507,
      "▁ئلة": 6508,
      "الجا": 6509,
      "▁الجا": 6510,
      "ففك": 6511,
      "▁ففك": 6512,
      "عاصفة": 6513,
      "▁عاصفة": 6514,
      "عميقا": 6515,
      "▁عميقا": 6516,
      "يعجب": 6517,
      "▁يعجب": 6518,
      "قلب": 6519,
      "▁قلب": 6520,
      "وهذا": 6521,
      "▁وهذا": 6522,
      "وسعيدة": 6523,
      "▁وسعيدة": 6524,
      "معنا": 6525,
      "▁معنا": 6526,
      "قميص": 6527,
      "▁قميص": 6528,
      "أماكن": 6529,
      "▁أماكن": 6530,
      "تنظف": 6531,
      "▁تنظف": 6532,
      "أذى": 6533,
      "▁أذى": 6534,
      "تسلقت": 6535,
      "▁تسلقت": 6536,
      "سمك": 6537,
      "▁سمك": 6538,
      "المصباح": 6539,
      "▁المصباح": 6540,
      "كثب": 6541,
      "▁كثب": 6542,
      "جيبها": 6543,
      "▁جيبها": 6544,
      "للك": 6545,
      "▁للك": 6546,
      "مالكه": 6547,
      "▁مالكه": 6548,
      "تعلي": 6549,
      "▁تعلي": 6550,
      "مليئا": 6551,
      "▁مليئا": 6552,
      "الكهف": 6553,
      "▁الكهف": 6554,
      "الزر": 6555,
      "▁الزر": 6556,
      "استمعت": 6557,
      "▁استمعت": 6558,
      "سه": 6559,
      "▁سه": 6560,
      "بيضاء": 6561,
      "▁بيضاء": 6562,
      "متوا": 6563,
      "▁متوا": 6564,
      "سيد": 6565,
      "▁سيد": 6566,
      "عملوا": 6567,
      "▁عملوا": 6568,
      "ضمادة": 6569,
      "▁ضمادة": 6570,
      "قضمة": 6571,
      "▁قضمة": 6572,
      "بدة": 6573,
      "▁بدة": 6574,
      "قمت": 6575,
      "▁قمت": 6576,
      "معرفة": 6577,
      "▁معرفة": 6578,
      "نفسا": 6579,
      "▁نفسا": 6580,
      "صوفي": 6581,
      "▁صوفي": 6582,
      "فلافي": 6583,
      "▁فلافي": 6584,
      "استخدمت": 6585,
      "▁استخدمت": 6586,
      "بالملل": 6587,
      "▁بالملل": 6588,
      "وواصل": 6589,
      "▁وواصل": 6590,
      "ينب": 6591,
      "▁ينب": 6592,
      "عصير": 6593,
      "▁عصير": 6594,
      "مشرق": 6595,
      "▁مشرق": 6596,
      "الحقيبة": 6597,
      "▁الحقيبة": 6598,
      "أكلت": 6599,
      "▁أكلت": 6600,
      "غرفتهم": 6601,
      "▁غرفتهم": 6602,
      "وتناول": 6603,
      "▁وتناول": 6604,
      "لمساعدته": 6605,
      "▁لمساعدته": 6606,
      "يتشاجر": 6607,
      "▁يتشاجر": 6608,
      "تزا": 6609,
      "▁تزا": 6610,
      "يلت": 6611,
      "▁يلت": 6612,
      "ديث": 6613,
      "▁ديث": 6614,
      "الليالي": 6615,
      "▁الليالي": 6616,
      "تصبح": 6617,
      "▁تصبح": 6618,
      "بيلا": 6619,
      "▁بيلا": 6620,
      "لنفسه": 6621,
      "▁لنفسه": 6622,
      "إيلا": 6623,
      "▁إيلا": 6624,
      "المعلم": 6625,
      "▁المعلم": 6626,
      "أصابع": 6627,
      "▁أصابع": 6628,
      "هدا": 6629,
      "▁هدا": 6630,
      "بلو": 6631,
      "▁بلو": 6632,
      "الفوز": 6633,
      "▁الفوز": 6634,
      "لاقة": 6635,
      "▁لاقة": 6636,
      "أجنح": 6637,
      "▁أجنح": 6638,
      "الجدار": 6639,
      "▁الجدار": 6640,
      "ضت": 6641,
      "▁ضت": 6642,
      "البقرة": 6643,
      "▁البقرة": 6644,
      "نها": 6645,
      "▁نها": 6646,
      "الموز": 6647,
      "▁الموز": 6648,
      "عمة": 6649,
      "▁عمة": 6650,
      "مشت": 6651,
      "▁مشت": 6652,
      "استعادة": 6653,
      "▁استعادة": 6654,
      "أمهما": 6655,
      "▁أمهما": 6656,
      "ممتن": 6657,
      "▁ممتن": 6658,
      "وهرة": 6659,
      "▁وهرة": 6660,
      "أمن": 6661,
      "▁أمن": 6662,
      "إصلاحه": 6663,
      "▁إصلاحه": 6664,
      "هربت": 6665,
      "▁هربت": 6666,
      "خلص": 6667,
      "▁خلص": 6668,
      "بهدوء": 6669,
      "▁بهدوء": 6670,
      "المسرح": 6671,
      "▁المسرح": 6672,
      "وله": 6673,
      "▁وله": 6674,
      "والاست": 6675,
      "▁والاست": 6676,
      "الأوان": 6677,
      "▁الأوان": 6678,
      "رسة": 6679,
      "▁رسة": 6680,
      "الشريط": 6681,
      "▁الشريط": 6682,
      "البرج": 6683,
      "▁البرج": 6684,
      "لمساعدتها": 6685,
      "▁لمساعدتها": 6686,
      "ينبغي": 6687,
      "▁ينبغي": 6688,
      "سأكون": 6689,
      "▁سأكون": 6690,
      "غريبة": 6691,
      "▁غريبة": 6692,
      "مب": 6693,
      "▁مب": 6694,
      "ساءلت": 6695,
      "▁ساءلت": 6696,
      "بالك": 6697,
      "▁بالك": 6698,
      "ورؤية": 6699,
      "▁ورؤية": 6700,
      "باردا": 6701,
      "▁باردا": 6702,
      "منزع": 6703,
      "▁منزع": 6704,
      "الرياض": 6705,
      "▁الرياض": 6706,
      "الأن": 6707,
      "▁الأن": 6708,
      "يقف": 6709,
      "▁يقف": 6710,
      "ناديق": 6711,
      "▁ناديق": 6712,
      "سائق": 6713,
      "▁سائق": 6714,
      "الارت": 6715,
      "▁الارت": 6716,
      "سوداء": 6717,
      "▁سوداء": 6718,
      "الضحك": 6719,
      "▁الضحك": 6720,
      "والآن": 6721,
      "▁والآن": 6722,
      "أعطاها": 6723,
      "▁أعطاها": 6724,
      "جاهل": 6725,
      "▁جاهل": 6726,
      "أغلقت": 6727,
      "▁أغلقت": 6728,
      "فيق": 6729,
      "▁فيق": 6730,
      "جرب": 6731,
      "▁جرب": 6732,
      "وحيدة": 6733,
      "▁وحيدة": 6734,
      "علين": 6735,
      "▁علين": 6736,
      "يتار": 6737,
      "▁يتار": 6738,
      "القرية": 6739,
      "▁القرية": 6740,
      "ضوا": 6741,
      "▁ضوا": 6742,
      "مغامرات": 6743,
      "▁مغامرات": 6744,
      "إعط": 6745,
      "▁إعط": 6746,
      "خبز": 6747,
      "▁خبز": 6748,
      "لأصدقائه": 6749,
      "▁لأصدقائه": 6750,
      "عر": 6751,
      "▁عر": 6752,
      "تحقق": 6753,
      "▁تحقق": 6754,
      "النارية": 6755,
      "▁النارية": 6756,
      "جنية": 6757,
      "▁جنية": 6758,
      "جزء": 6759,
      "▁جزء": 6760,
      "الحصان": 6761,
      "▁الحصان": 6762,
      "فاة": 6763,
      "▁فاة": 6764,
      "بهذه": 6765,
      "▁بهذه": 6766,
      "والسعة": 6767,
      "▁والسعة": 6768,
      "ابتعد": 6769,
      "▁ابتعد": 6770,
      "القدم": 6771,
      "▁القدم": 6772,
      "تنين": 6773,
      "▁تنين": 6774,
      "وجاءت": 6775,
      "▁وجاءت": 6776,
      "حصان": 6777,
      "▁حصان": 6778,
      "فها": 6779,
      "▁فها": 6780,
      "وأصبحت": 6781,
      "▁وأصبحت": 6782,
      "كتبة": 6783,
      "▁كتبة": 6784,
      "الذئب": 6785,
      "▁الذئب": 6786,
      "بان": 6787,
      "▁بان": 6788,
      "بالفعل": 6789,
      "▁بالفعل": 6790,
      "ضخمة": 6791,
      "▁ضخمة": 6792,
      "صدا": 6793,
      "▁صدا": 6794,
      "وانتظر": 6795,
      "▁وانتظر": 6796,
      "ثقيل": 6797,
      "▁ثقيل": 6798,
      "الطير": 6799,
      "▁الطير": 6800,
      "فه": 6801,
      "▁فه": 6802,
      "الأسود": 6803,
      "▁الأسود": 6804,
      "وأظهرت": 6805,
      "▁وأظهرت": 6806,
      "يتذكر": 6807,
      "▁يتذكر": 6808,
      "ائه": 6809,
      "▁ائه": 6810,
      "لكل": 6811,
      "▁لكل": 6812,
      "الثعبان": 6813,
      "▁الثعبان": 6814,
      "يشارك": 6815,
      "▁يشارك": 6816,
      "تذوق": 6817,
      "▁تذوق": 6818,
      "تلمع": 6819,
      "▁تلمع": 6820,
      "لعبته": 6821,
      "▁لعبته": 6822,
      "تعث": 6823,
      "▁تعث": 6824,
      "ضخم": 6825,
      "▁ضخم": 6826,
      "مثالي": 6827,
      "▁مثالي": 6828,
      "وكأنها": 6829,
      "▁وكأنها": 6830,
      "لقاء": 6831,
      "▁لقاء": 6832,
      "ترقص": 6833,
      "▁ترقص": 6834,
      "السي": 6835,
      "▁السي": 6836,
      "أقلام": 6837,
      "▁أقلام": 6838,
      "مساح": 6839,
      "▁مساح": 6840,
      "راتها": 6841,
      "▁راتها": 6842,
      "البوابة": 6843,
      "▁البوابة": 6844,
      "البيتزا": 6845,
      "▁البيتزا": 6846,
      "سين": 6847,
      "▁سين": 6848,
      "انحن": 6849,
      "▁انحن": 6850,
      "لمسها": 6851,
      "▁لمسها": 6852,
      "بضعة": 6853,
      "▁بضعة": 6854,
      "ويقفز": 6855,
      "▁ويقفز": 6856,
      "أحتاج": 6857,
      "▁أحتاج": 6858,
      "وطلبت": 6859,
      "▁وطلبت": 6860,
      "وأب": 6861,
      "▁وأب": 6862,
      "وجة": 6863,
      "▁وجة": 6864,
      "ونهم": 6865,
      "▁ونهم": 6866,
      "سان": 6867,
      "▁سان": 6868,
      "المكسورة": 6869,
      "▁المكسورة": 6870,
      "يوجد": 6871,
      "▁يوجد": 6872,
      "طلع": 6873,
      "▁طلع": 6874,
      "قماش": 6875,
      "▁قماش": 6876,
      "بالألعاب": 6877,
      "▁بالألعاب": 6878,
      "العجين": 6879,
      "▁العجين": 6880,
      "السوق": 6881,
      "▁السوق": 6882,
      "الفض": 6883,
      "▁الفض": 6884,
      "العربة": 6885,
      "▁العربة": 6886,
      "يتبع": 6887,
      "▁يتبع": 6888,
      "ثلج": 6889,
      "▁ثلج": 6890,
      "ليكون": 6891,
      "▁ليكون": 6892,
      "سماع": 6893,
      "▁سماع": 6894,
      "وترك": 6895,
      "▁وترك": 6896,
      "مكانا": 6897,
      "▁مكانا": 6898,
      "ران": 6899,
      "▁ران": 6900,
      "مرار": 6901,
      "▁مرار": 6902,
      "تركض": 6903,
      "▁تركض": 6904,
      "سخيف": 6905,
      "▁سخيف": 6906,
      "والألعاب": 6907,
      "▁والألعاب": 6908,
      "يمو": 6909,
      "▁يمو": 6910,
      "بقعة": 6911,
      "▁بقعة": 6912,
      "جهد": 6913,
      "▁جهد": 6914,
      "ذن": 6915,
      "▁ذن": 6916,
      "وضعها": 6917,
      "▁وضعها": 6918,
      "الروبوت": 6919,
      "▁الروبوت": 6920,
      "غال": 6921,
      "▁غال": 6922,
      "وليا": 6923,
      "▁وليا": 6924,
      "نجمة": 6925,
      "▁نجمة": 6926,
      "يفعله": 6927,
      "▁يفعله": 6928,
      "طوم": 6929,
      "▁طوم": 6930,
      "مريح": 6931,
      "▁مريح": 6932,
      "الحياة": 6933,
      "▁الحياة": 6934,
      "ولكنه": 6935,
      "▁ولكنه": 6936,
      "والغ": 6937,
      "▁والغ": 6938,
      "تحدثوا": 6939,
      "▁تحدثوا": 6940,
      "صاحب": 6941,
      "▁صاحب": 6942,
      "وكيف": 6943,
      "▁وكيف": 6944,
      "أكلها": 6945,
      "▁أكلها": 6946,
      "الطلاء": 6947,
      "▁الطلاء": 6948,
      "نحبك": 6949,
      "▁نحبك": 6950,
      "المحاولة": 6951,
      "▁المحاولة": 6952,
      "لاة": 6953,
      "▁لاة": 6954,
      "والأشجار": 6955,
      "▁والأشجار": 6956,
      "تحريك": 6957,
      "▁تحريك": 6958,
      "نيمو": 6959,
      "▁نيمو": 6960,
      "نوا": 6961,
      "▁نوا": 6962,
      "شبكة": 6963,
      "▁شبكة": 6964,
      "سترة": 6965,
      "▁سترة": 6966,
      "تخبر": 6967,
      "▁تخبر": 6968,
      "تفاحة": 6969,
      "▁تفاحة": 6970,
      "مشغولة": 6971,
      "▁مشغولة": 6972,
      "نصنع": 6973,
      "▁نصنع": 6974,
      "السحرية": 6975,
      "▁السحرية": 6976,
      "منتصف": 6977,
      "▁منتصف": 6978,
      "راص": 6979,
      "▁راص": 6980,
      "وعلى": 6981,
      "▁وعلى": 6982,
      "وقع": 6983,
      "▁وقع": 6984,
      "أشعر": 6985,
      "▁أشعر": 6986,
      "كتشف": 6987,
      "▁كتشف": 6988,
      "والديها": 6989,
      "▁والديها": 6990,
      "والكتب": 6991,
      "▁والكتب": 6992,
      "ويجب": 6993,
      "▁ويجب": 6994,
      "طباق": 6995,
      "▁طباق": 6996,
      "الاستمتاع": 6997,
      "▁الاستمتاع": 6998,
      "يتهم": 6999,
      "▁يتهم": 7000,
      "تشار": 7001,
      "▁تشار": 7002,
      "دهشة": 7003,
      "▁دهشة": 7004,
      "ارى": 7005,
      "▁ارى": 7006,
      "طل": 7007,
      "▁طل": 7008,
      "ريطة": 7009,
      "▁ريطة": 7010,
      "يصبح": 7011,
      "▁يصبح": 7012,
      "وأنه": 7013,
      "▁وأنه": 7014,
      "يبقى": 7015,
      "▁يبقى": 7016,
      "سها": 7017,
      "▁سها": 7018,
      "الأدغال": 7019,
      "▁الأدغال": 7020,
      "مسة": 7021,
      "▁مسة": 7022,
      "سبوع": 7023,
      "▁سبوع": 7024,
      "اصط": 7025,
      "▁اصط": 7026,
      "خار": 7027,
      "▁خار": 7028,
      "طاء": 7029,
      "▁طاء": 7030,
      "يسيرون": 7031,
      "▁يسيرون": 7032,
      "المغامرات": 7033,
      "▁المغامرات": 7034,
      "جلسوا": 7035,
      "▁جلسوا": 7036,
      "وكب": 7037,
      "▁وكب": 7038,
      "قصارى": 7039,
      "▁قصارى": 7040,
      "الشرائح": 7041,
      "▁الشرائح": 7042,
      "يغني": 7043,
      "▁يغني": 7044,
      "وأحب": 7045,
      "▁وأحب": 7046,
      "إيجاد": 7047,
      "▁إيجاد": 7048,
      "توقفوا": 7049,
      "▁توقفوا": 7050,
      "التفت": 7051,
      "▁التفت": 7052,
      "الصفراء": 7053,
      "▁الصفراء": 7054,
      "سألته": 7055,
      "▁سألته": 7056,
      "حقيقي": 7057,
      "▁حقيقي": 7058,
      "لولا": 7059,
      "▁لولا": 7060,
      "الدرا": 7061,
      "▁الدرا": 7062,
      "ملية": 7063,
      "▁ملية": 7064,
      "تمنوا": 7065,
      "▁تمنوا": 7066,
      "القبعة": 7067,
      "▁القبعة": 7068,
      "السجادة": 7069,
      "▁السجادة": 7070,
      "بول": 7071,
      "▁بول": 7072,
      "وجع": 7073,
      "▁وجع": 7074,
      "الخيط": 7075,
      "▁الخيط": 7076,
      "وأعطتها": 7077,
      "▁وأعطتها": 7078,
      "البطا": 7079,
      "▁البطا": 7080,
      "طري": 7081,
      "▁طري": 7082,
      "معد": 7083,
      "▁معد": 7084,
      "للوصول": 7085,
      "▁للوصول": 7086,
      "يستطيعون": 7087,
      "▁يستطيعون": 7088,
      "حقائ": 7089,
      "▁حقائ": 7090,
      "حذية": 7091,
      "▁حذية": 7092,
      "البلدة": 7093,
      "▁البلدة": 7094,
      "الرسالة": 7095,
      "▁الرسالة": 7096,
      "الأكبر": 7097,
      "▁الأكبر": 7098,
      "لترى": 7099,
      "▁لترى": 7100,
      "دموع": 7101,
      "▁دموع": 7102,
      "حاد": 7103,
      "▁حاد": 7104,
      "صديقا": 7105,
      "▁صديقا": 7106,
      "رعا": 7107,
      "▁رعا": 7108,
      "قدام": 7109,
      "▁قدام": 7110,
      "تفعلين": 7111,
      "▁تفعلين": 7112,
      "ونرى": 7113,
      "▁ونرى": 7114,
      "وو": 7115,
      "▁وو": 7116,
      "ودفع": 7117,
      "▁ودفع": 7118,
      "وشاح": 7119,
      "▁وشاح": 7120,
      "الكأس": 7121,
      "▁الكأس": 7122,
      "مظلمة": 7123,
      "▁مظلمة": 7124,
      "الجرس": 7125,
      "▁الجرس": 7126,
      "يأملون": 7127,
      "▁يأملون": 7128,
      "التنظيف": 7129,
      "▁التنظيف": 7130,
      "مباشرة": 7131,
      "▁مباشرة": 7132,
      "شكل": 7133,
      "▁شكل": 7134,
      "نحة": 7135,
      "▁نحة": 7136,
      "فرك": 7137,
      "▁فرك": 7138,
      "رأتها": 7139,
      "▁رأتها": 7140,
      "عانقته": 7141,
      "▁عانقته": 7142,
      "يطلب": 7143,
      "▁يطلب": 7144,
      "الشديدة": 7145,
      "▁الشديدة": 7146,
      "بالأمان": 7147,
      "▁بالأمان": 7148,
      "الفاكهة": 7149,
      "▁الفاكهة": 7150,
      "أطول": 7151,
      "▁أطول": 7152,
      "ويمكن": 7153,
      "▁ويمكن": 7154,
      "ويضحكون": 7155,
      "▁ويضحكون": 7156,
      "بالوحدة": 7157,
      "▁بالوحدة": 7158,
      "المكتبة": 7159,
      "▁المكتبة": 7160,
      "عي": 7161,
      "▁عي": 7162,
      "حزن": 7163,
      "▁حزن": 7164,
      "إيق": 7165,
      "▁إيق": 7166,
      "الوراء": 7167,
      "▁الوراء": 7168,
      "سيئ": 7169,
      "▁سيئ": 7170,
      "جائعة": 7171,
      "▁جائعة": 7172,
      "أرا": 7173,
      "▁أرا": 7174,
      "الساخ": 7175,
      "▁الساخ": 7176,
      "اللغز": 7177,
      "▁اللغز": 7178,
      "راصنة": 7179,
      "▁راصنة": 7180,
      "ماطم": 7181,
      "▁ماطم": 7182,
      "يقترب": 7183,
      "▁يقترب": 7184,
      "المرآة": 7185,
      "▁المرآة": 7186,
      "فحص": 7187,
      "▁فحص": 7188,
      "الحجر": 7189,
      "▁الحجر": 7190,
      "علق": 7191,
      "▁علق": 7192,
      "إصلاحها": 7193,
      "▁إصلاحها": 7194,
      "فوا": 7195,
      "▁فوا": 7196,
      "كين": 7197,
      "▁كين": 7198,
      "ووعد": 7199,
      "▁ووعد": 7200,
      "هن": 7201,
      "▁هن": 7202,
      "وأمي": 7203,
      "▁وأمي": 7204,
      "بالارتياح": 7205,
      "▁بالارتياح": 7206,
      "غاضبين": 7207,
      "▁غاضبين": 7208,
      "الرما": 7209,
      "▁الرما": 7210,
      "الكم": 7211,
      "▁الكم": 7212,
      "ئير": 7213,
      "▁ئير": 7214,
      "تخت": 7215,
      "▁تخت": 7216,
      "وطار": 7217,
      "▁وطار": 7218,
      "تأمل": 7219,
      "▁تأمل": 7220,
      "شاء": 7221,
      "▁شاء": 7222,
      "سكب": 7223,
      "▁سكب": 7224,
      "بالقلق": 7225,
      "▁بالقلق": 7226,
      "الكفا": 7227,
      "▁الكفا": 7228,
      "يؤلم": 7229,
      "▁يؤلم": 7230,
      "دمى": 7231,
      "▁دمى": 7232,
      "يؤذي": 7233,
      "▁يؤذي": 7234,
      "حافة": 7235,
      "▁حافة": 7236,
      "حاولوا": 7237,
      "▁حاولوا": 7238,
      "المرآب": 7239,
      "▁المرآب": 7240,
      "ملأ": 7241,
      "▁ملأ": 7242,
      "مثيرة": 7243,
      "▁مثيرة": 7244,
      "ناصور": 7245,
      "▁ناصور": 7246,
      "حبل": 7247,
      "▁حبل": 7248,
      "هدوء": 7249,
      "▁هدوء": 7250,
      "ائها": 7251,
      "▁ائها": 7252,
      "عنكبوت": 7253,
      "▁عنكبوت": 7254,
      "شرا": 7255,
      "▁شرا": 7256,
      "الفستان": 7257,
      "▁الفستان": 7258,
      "الأغاني": 7259,
      "▁الأغاني": 7260,
      "وركضوا": 7261,
      "▁وركضوا": 7262,
      "طاولة": 7263,
      "▁طاولة": 7264,
      "وسوف": 7265,
      "▁وسوف": 7266,
      "البا": 7267,
      "▁البا": 7268,
      "فن": 7269,
      "▁فن": 7270,
      "السرطان": 7271,
      "▁السرطان": 7272,
      "فعت": 7273,
      "▁فعت": 7274,
      "يرقة": 7275,
      "▁يرقة": 7276,
      "آس": 7277,
      "▁آس": 7278,
      "العل": 7279,
      "▁العل": 7280,
      "الخضروات": 7281,
      "▁الخضروات": 7282,
      "قوم": 7283,
      "▁قوم": 7284,
      "بمساعدة": 7285,
      "▁بمساعدة": 7286,
      "تجري": 7287,
      "▁تجري": 7288,
      "ووجدوا": 7289,
      "▁ووجدوا": 7290,
      "غر": 7291,
      "▁غر": 7292,
      "الرا": 7293,
      "▁الرا": 7294,
      "برة": 7295,
      "▁برة": 7296,
      "أشار": 7297,
      "▁أشار": 7298,
      "وسألتها": 7299,
      "▁وسألتها": 7300,
      "هشة": 7301,
      "▁هشة": 7302,
      "ؤه": 7303,
      "▁ؤه": 7304,
      "بالراحة": 7305,
      "▁بالراحة": 7306,
      "الدرج": 7307,
      "▁الدرج": 7308,
      "الملعب": 7309,
      "▁الملعب": 7310,
      "القش": 7311,
      "▁القش": 7312,
      "جنا": 7313,
      "▁جنا": 7314,
      "اللحظة": 7315,
      "▁اللحظة": 7316,
      "الحظيرة": 7317,
      "▁الحظيرة": 7318,
      "قضى": 7319,
      "▁قضى": 7320,
      "تعجب": 7321,
      "▁تعجب": 7322,
      "امض": 7323,
      "▁امض": 7324,
      "زاوية": 7325,
      "▁زاوية": 7326,
      "موع": 7327,
      "▁موع": 7328,
      "حوض": 7329,
      "▁حوض": 7330,
      "ساعدني": 7331,
      "▁ساعدني": 7332,
      "رأتا": 7333,
      "▁رأتا": 7334,
      "الجبل": 7335,
      "▁الجبل": 7336,
      "حباط": 7337,
      "▁حباط": 7338,
      "تصرخ": 7339,
      "▁تصرخ": 7340,
      "يرسم": 7341,
      "▁يرسم": 7342,
      "تأك": 7343,
      "▁تأك": 7344,
      "داد": 7345,
      "▁داد": 7346,
      "القمامة": 7347,
      "▁القمامة": 7348,
      "جورج": 7349,
      "▁جورج": 7350,
      "وفر": 7351,
      "▁وفر": 7352,
      "خو": 7353,
      "▁خو": 7354,
      "اوية": 7355,
      "▁اوية": 7356,
      "مبد": 7357,
      "▁مبد": 7358,
      "بالرياح": 7359,
      "▁بالرياح": 7360,
      "اتبع": 7361,
      "▁اتبع": 7362,
      "الخوخ": 7363,
      "▁الخوخ": 7364,
      "مزرعة": 7365,
      "▁مزرعة": 7366,
      "والبحث": 7367,
      "▁والبحث": 7368,
      "شير": 7369,
      "▁شير": 7370,
      "تفكر": 7371,
      "▁تفكر": 7372,
      "ابي": 7373,
      "▁ابي": 7374,
      "تذر": 7375,
      "▁تذر": 7376,
      "خش": 7377,
      "▁خش": 7378,
      "آمنين": 7379,
      "▁آمنين": 7380,
      "القلم": 7381,
      "▁القلم": 7382,
      "شاة": 7383,
      "▁شاة": 7384,
      "خروط": 7385,
      "▁خروط": 7386,
      "يسحب": 7387,
      "▁يسحب": 7388,
      "يجعلها": 7389,
      "▁يجعلها": 7390,
      "فورة": 7391,
      "▁فورة": 7392,
      "وداني": 7393,
      "▁وداني": 7394,
      "صوتا": 7395,
      "▁صوتا": 7396,
      "مكسور": 7397,
      "▁مكسور": 7398,
      "الخضراء": 7399,
      "▁الخضراء": 7400,
      "أصدر": 7401,
      "▁أصدر": 7402,
      "تشرق": 7403,
      "▁تشرق": 7404,
      "آيس": 7405,
      "▁آيس": 7406,
      "وجميل": 7407,
      "▁وجميل": 7408,
      "يعتقدون": 7409,
      "▁يعتقدون": 7410,
      "البيطري": 7411,
      "▁البيطري": 7412,
      "بالبرد": 7413,
      "▁بالبرد": 7414,
      "الأصفر": 7415,
      "▁الأصفر": 7416,
      "والطائر": 7417,
      "▁والطائر": 7418,
      "يترك": 7419,
      "▁يترك": 7420,
      "ريشة": 7421,
      "▁ريشة": 7422,
      "خدش": 7423,
      "▁خدش": 7424,
      "الطبق": 7425,
      "▁الطبق": 7426,
      "الصراخ": 7427,
      "▁الصراخ": 7428,
      "صعب": 7429,
      "▁صعب": 7430,
      "يعلم": 7431,
      "▁يعلم": 7432,
      "الأز": 7433,
      "▁الأز": 7434,
      "يتم": 7435,
      "▁يتم": 7436,
      "ويعانق": 7437,
      "▁ويعانق": 7438,
      "المثالي": 7439,
      "▁المثالي": 7440,
      "أيديهم": 7441,
      "▁أيديهم": 7442,
      "غاء": 7443,
      "▁غاء": 7444,
      "لوالدته": 7445,
      "▁لوالدته": 7446,
      "طبخ": 7447,
      "▁طبخ": 7448,
      "كعك": 7449,
      "▁كعك": 7450,
      "مخط": 7451,
      "▁مخط": 7452,
      "الطا": 7453,
      "▁الطا": 7454,
      "التمساح": 7455,
      "▁التمساح": 7456,
      "الحمامة": 7457,
      "▁الحمامة": 7458,
      "رائحتها": 7459,
      "▁رائحتها": 7460,
      "لأصدقائها": 7461,
      "▁لأصدقائها": 7462,
      "سريره": 7463,
      "▁سريره": 7464,
      "قفص": 7465,
      "▁قفص": 7466,
      "وتعلم": 7467,
      "▁وتعلم": 7468,
      "اسمك": 7469,
      "▁اسمك": 7470,
      "سائ": 7471,
      "▁سائ": 7472,
      "تحبها": 7473,
      "▁تحبها": 7474,
      "يسمعون": 7475,
      "▁يسمعون": 7476,
      "قضوا": 7477,
      "▁قضوا": 7478,
      "فستانها": 7479,
      "▁فستانها": 7480,
      "الخنزير": 7481,
      "▁الخنزير": 7482,
      "القا": 7483,
      "▁القا": 7484,
      "التقطتها": 7485,
      "▁التقطتها": 7486,
      "جف": 7487,
      "▁جف": 7488,
      "نص": 7489,
      "▁نص": 7490,
      "أتمنى": 7491,
      "▁أتمنى": 7492,
      "أننا": 7493,
      "▁أننا": 7494,
      "الأش": 7495,
      "▁الأش": 7496,
      "الجليد": 7497,
      "▁الجليد": 7498,
      "الجدد": 7499,
      "▁الجدد": 7500,
      "حجر": 7501,
      "▁حجر": 7502,
      "شريحة": 7503,
      "▁شريحة": 7504,
      "كرته": 7505,
      "▁كرته": 7506,
      "ماعز": 7507,
      "▁ماعز": 7508,
      "الأشكال": 7509,
      "▁الأشكال": 7510,
      "وأسرع": 7511,
      "▁وأسرع": 7512,
      "أض": 7513,
      "▁أض": 7514,
      "ناق": 7515,
      "▁ناق": 7516,
      "ويركض": 7517,
      "▁ويركض": 7518,
      "الزاوية": 7519,
      "▁الزاوية": 7520,
      "شديدة": 7521,
      "▁شديدة": 7522,
      "وانية": 7523,
      "▁وانية": 7524,
      "يله": 7525,
      "▁يله": 7526,
      "يفين": 7527,
      "▁يفين": 7528,
      "ربى": 7529,
      "▁ربى": 7530,
      "لقا": 7531,
      "▁لقا": 7532,
      "مكت": 7533,
      "▁مكت": 7534,
      "لمست": 7535,
      "▁لمست": 7536,
      "انا": 7537,
      "▁انا": 7538,
      "برأسها": 7539,
      "▁برأسها": 7540,
      "ولوح": 7541,
      "▁ولوح": 7542,
      "جاهزة": 7543,
      "▁جاهزة": 7544,
      "فتحها": 7545,
      "▁فتحها": 7546,
      "العصي": 7547,
      "▁العصي": 7548,
      "فارة": 7549,
      "▁فارة": 7550,
      "الثمن": 7551,
      "▁الثمن": 7552,
      "صراخ": 7553,
      "▁صراخ": 7554,
      "نجوم": 7555,
      "▁نجوم": 7556,
      "تحقيق": 7557,
      "▁تحقيق": 7558,
      "لاع": 7559,
      "▁لاع": 7560,
      "للإ": 7561,
      "▁للإ": 7562,
      "الخي": 7563,
      "▁الخي": 7564,
      "رياح": 7565,
      "▁رياح": 7566,
      "الممر": 7567,
      "▁الممر": 7568,
      "يهرب": 7569,
      "▁يهرب": 7570,
      "خبر": 7571,
      "▁خبر": 7572,
      "الشرطة": 7573,
      "▁الشرطة": 7574,
      "بجان": 7575,
      "▁بجان": 7576,
      "ماح": 7577,
      "▁ماح": 7578,
      "آخرين": 7579,
      "▁آخرين": 7580,
      "وجيل": 7581,
      "▁وجيل": 7582,
      "البطانية": 7583,
      "▁البطانية": 7584,
      "وخرجت": 7585,
      "▁وخرجت": 7586,
      "عظيمة": 7587,
      "▁عظيمة": 7588,
      "الدمى": 7589,
      "▁الدمى": 7590,
      "صديقته": 7591,
      "▁صديقته": 7592,
      "هدايا": 7593,
      "▁هدايا": 7594,
      "حقيقية": 7595,
      "▁حقيقية": 7596,
      "تصدق": 7597,
      "▁تصدق": 7598,
      "رضا": 7599,
      "▁رضا": 7600,
      "واستمرت": 7601,
      "▁واستمرت": 7602,
      "الألي": 7603,
      "▁الألي": 7604,
      "حال": 7605,
      "▁حال": 7606,
      "بأشياء": 7607,
      "▁بأشياء": 7608,
      "ارة": 7609,
      "▁ارة": 7610,
      "والفتاة": 7611,
      "▁والفتاة": 7612,
      "تستخدم": 7613,
      "▁تستخدم": 7614,
      "فوجئت": 7615,
      "▁فوجئت": 7616,
      "تعج": 7617,
      "▁تعج": 7618,
      "الساعة": 7619,
      "▁الساعة": 7620,
      "دس": 7621,
      "▁دس": 7622,
      "والإ": 7623,
      "▁والإ": 7624,
      "صغار": 7625,
      "▁صغار": 7626,
      "أعطني": 7627,
      "▁أعطني": 7628,
      "وقب": 7629,
      "▁وقب": 7630,
      "قلع": 7631,
      "▁قلع": 7632,
      "رررر": 7633,
      "▁رررر": 7634,
      "وزة": 7635,
      "▁وزة": 7636,
      "قرد": 7637,
      "▁قرد": 7638,
      "الزجاجة": 7639,
      "▁الزجاجة": 7640,
      "صاروخ": 7641,
      "▁صاروخ": 7642,
      "غادرة": 7643,
      "▁غادرة": 7644,
      "تتحدث": 7645,
      "▁تتحدث": 7646,
      "وجوههم": 7647,
      "▁وجوههم": 7648,
      "الدواء": 7649,
      "▁الدواء": 7650,
      "ذة": 7651,
      "▁ذة": 7652,
      "زيارة": 7653,
      "▁زيارة": 7654,
      "سياراتهم": 7655,
      "▁سياراتهم": 7656,
      "توبي": 7657,
      "▁توبي": 7658,
      "الدببة": 7659,
      "▁الدببة": 7660,
      "ضعها": 7661,
      "▁ضعها": 7662,
      "لجميع": 7663,
      "▁لجميع": 7664,
      "وقامت": 7665,
      "▁وقامت": 7666,
      "الغريب": 7667,
      "▁الغريب": 7668,
      "أرن": 7669,
      "▁أرن": 7670,
      "المظ": 7671,
      "▁المظ": 7672,
      "فيل": 7673,
      "▁فيل": 7674,
      "النملة": 7675,
      "▁النملة": 7676,
      "الكفاية": 7677,
      "▁الكفاية": 7678,
      "قبي": 7679,
      "▁قبي": 7680,
      "وترى": 7681,
      "▁وترى": 7682,
      "ديف": 7683,
      "▁ديف": 7684,
      "والماء": 7685,
      "▁والماء": 7686,
      "لكونه": 7687,
      "▁لكونه": 7688,
      "بولي": 7689,
      "▁بولي": 7690,
      "منشفة": 7691,
      "▁منشفة": 7692,
      "البالغ": 7693,
      "▁البالغ": 7694,
      "بالأشياء": 7695,
      "▁بالأشياء": 7696,
      "سحابة": 7697,
      "▁سحابة": 7698,
      "الطويل": 7699,
      "▁الطويل": 7700,
      "الدرس": 7701,
      "▁الدرس": 7702,
      "كرونة": 7703,
      "▁كرونة": 7704,
      "مثيرا": 7705,
      "▁مثيرا": 7706,
      "قذر": 7707,
      "▁قذر": 7708,
      "غيتي": 7709,
      "▁غيتي": 7710,
      "حضار": 7711,
      "▁حضار": 7712,
      "وأعطت": 7713,
      "▁وأعطت": 7714,
      "رآه": 7715,
      "▁رآه": 7716,
      "سيارتها": 7717,
      "▁سيارتها": 7718,
      "وعادت": 7719,
      "▁وعادت": 7720,
      "بالتعب": 7721,
      "▁بالتعب": 7722,
      "حزم": 7723,
      "▁حزم": 7724,
      "الاخت": 7725,
      "▁الاخت": 7726,
      "ضنت": 7727,
      "▁ضنت": 7728,
      "فيدة": 7729,
      "▁فيدة": 7730,
      "وهربت": 7731,
      "▁وهربت": 7732,
      "رحت": 7733,
      "▁رحت": 7734,
      "وهكذا": 7735,
      "▁وهكذا": 7736,
      "أعجبتها": 7737,
      "▁أعجبتها": 7738,
      "عدة": 7739,
      "▁عدة": 7740,
      "أنهى": 7741,
      "▁أنهى": 7742,
      "المحم": 7743,
      "▁المحم": 7744,
      "حارس": 7745,
      "▁حارس": 7746,
      "موه": 7747,
      "▁موه": 7748,
      "النع": 7749,
      "▁النع": 7750,
      "خطيرة": 7751,
      "▁خطيرة": 7752,
      "وأدركت": 7753,
      "▁وأدركت": 7754,
      "تساءلت": 7755,
      "▁تساءلت": 7756,
      "القفص": 7757,
      "▁القفص": 7758,
      "اجون": 7759,
      "▁اجون": 7760,
      "لوحة": 7761,
      "▁لوحة": 7762,
      "سألتها": 7763,
      "▁سألتها": 7764,
      "أقصد": 7765,
      "▁أقصد": 7766,
      "ومتح": 7767,
      "▁ومتح": 7768,
      "صلح": 7769,
      "▁صلح": 7770,
      "بحيرة": 7771,
      "▁بحيرة": 7772,
      "حريص": 7773,
      "▁حريص": 7774,
      "وأعطته": 7775,
      "▁وأعطته": 7776,
      "مشا": 7777,
      "▁مشا": 7778,
      "متأكدة": 7779,
      "▁متأكدة": 7780,
      "آلة": 7781,
      "▁آلة": 7782,
      "المسبح": 7783,
      "▁المسبح": 7784,
      "وهجة": 7785,
      "▁وهجة": 7786,
      "أوضحت": 7787,
      "▁أوضحت": 7788,
      "أناني": 7789,
      "▁أناني": 7790,
      "الهدية": 7791,
      "▁الهدية": 7792,
      "تتبع": 7793,
      "▁تتبع": 7794,
      "تجاه": 7795,
      "▁تجاه": 7796,
      "مدهش": 7797,
      "▁مدهش": 7798,
      "فاجأ": 7799,
      "▁فاجأ": 7800,
      "مفتاح": 7801,
      "▁مفتاح": 7802,
      "مشى": 7803,
      "▁مشى": 7804,
      "اسمي": 7805,
      "▁اسمي": 7806,
      "وقوية": 7807,
      "▁وقوية": 7808,
      "يصنعون": 7809,
      "▁يصنعون": 7810,
      "وبين": 7811,
      "▁وبين": 7812,
      "ذار": 7813,
      "▁ذار": 7814,
      "الرمل": 7815,
      "▁الرمل": 7816,
      "بدء": 7817,
      "▁بدء": 7818,
      "غرق": 7819,
      "▁غرق": 7820,
      "أنقذ": 7821,
      "▁أنقذ": 7822,
      "بلدة": 7823,
      "▁بلدة": 7824,
      "ومل": 7825,
      "▁ومل": 7826,
      "حذائها": 7827,
      "▁حذائها": 7828,
      "شقيقها": 7829,
      "▁شقيقها": 7830,
      "لحم": 7831,
      "▁لحم": 7832,
      "نبور": 7833,
      "▁نبور": 7834,
      "بادي": 7835,
      "▁بادي": 7836,
      "عجاب": 7837,
      "▁عجاب": 7838,
      "وداف": 7839,
      "▁وداف": 7840,
      "بنية": 7841,
      "▁بنية": 7842,
      "مضحكا": 7843,
      "▁مضحكا": 7844,
      "التس": 7845,
      "▁التس": 7846,
      "لإخ": 7847,
      "▁لإخ": 7848,
      "دوكي": 7849,
      "▁دوكي": 7850,
      "وضح": 7851,
      "▁وضح": 7852,
      "قصص": 7853,
      "▁قصص": 7854,
      "لوا": 7855,
      "▁لوا": 7856,
      "وجاك": 7857,
      "▁وجاك": 7858,
      "يقرر": 7859,
      "▁يقرر": 7860,
      "سيدي": 7861,
      "▁سيدي": 7862,
      "العملاق": 7863,
      "▁العملاق": 7864,
      "ملابسها": 7865,
      "▁ملابسها": 7866,
      "فاح": 7867,
      "▁فاح": 7868,
      "الكلاب": 7869,
      "▁الكلاب": 7870,
      "يكونا": 7871,
      "▁يكونا": 7872,
      "للخروج": 7873,
      "▁للخروج": 7874,
      "خفض": 7875,
      "▁خفض": 7876,
      "عملة": 7877,
      "▁عملة": 7878,
      "قابلت": 7879,
      "▁قابلت": 7880,
      "ذراعه": 7881,
      "▁ذراعه": 7882,
      "سيل": 7883,
      "▁سيل": 7884,
      "التقطته": 7885,
      "▁التقطته": 7886,
      "الاعت": 7887,
      "▁الاعت": 7888,
      "نفسك": 7889,
      "▁نفسك": 7890,
      "إنهما": 7891,
      "▁إنهما": 7892,
      "رد": 7893,
      "▁رد": 7894,
      "وتي": 7895,
      "▁وتي": 7896,
      "نحلة": 7897,
      "▁نحلة": 7898,
      "ومست": 7899,
      "▁ومست": 7900,
      "تتوهج": 7901,
      "▁تتوهج": 7902,
      "السباغيتي": 7903,
      "▁السباغيتي": 7904,
      "زلاق": 7905,
      "▁زلاق": 7906,
      "هية": 7907,
      "▁هية": 7908,
      "وجعلها": 7909,
      "▁وجعلها": 7910,
      "سيارتك": 7911,
      "▁سيارتك": 7912,
      "تنتمي": 7913,
      "▁تنتمي": 7914,
      "والكلب": 7915,
      "▁والكلب": 7916,
      "رقم": 7917,
      "▁رقم": 7918,
      "وسعيد": 7919,
      "▁وسعيد": 7920,
      "وتست": 7921,
      "▁وتست": 7922,
      "مذك": 7923,
      "▁مذك": 7924,
      "وجمع": 7925,
      "▁وجمع": 7926,
      "الفراولة": 7927,
      "▁الفراولة": 7928,
      "غل": 7929,
      "▁غل": 7930,
      "درا": 7931,
      "▁درا": 7932,
      "ولين": 7933,
      "▁ولين": 7934,
      "تلعبان": 7935,
      "▁تلعبان": 7936,
      "الفشار": 7937,
      "▁الفشار": 7938,
      "هكذا": 7939,
      "▁هكذا": 7940,
      "التفكير": 7941,
      "▁التفكير": 7942,
      "شجيرة": 7943,
      "▁شجيرة": 7944,
      "ذراعيها": 7945,
      "▁ذراعيها": 7946,
      "تساءل": 7947,
      "▁تساءل": 7948,
      "متن": 7949,
      "▁متن": 7950,
      "مثالية": 7951,
      "▁مثالية": 7952,
      "ذائف": 7953,
      "▁ذائف": 7954,
      "يض": 7955,
      "▁يض": 7956,
      "الله": 7957,
      "▁الله": 7958,
      "امل": 7959,
      "▁امل": 7960,
      "غروب": 7961,
      "▁غروب": 7962,
      "صعبة": 7963,
      "▁صعبة": 7964,
      "سكين": 7965,
      "▁سكين": 7966,
      "سألها": 7967,
      "▁سألها": 7968,
      "أوراق": 7969,
      "▁أوراق": 7970,
      "خيل": 7971,
      "▁خيل": 7972,
      "الظل": 7973,
      "▁الظل": 7974,
      "مايك": 7975,
      "▁مايك": 7976,
      "شاحنته": 7977,
      "▁شاحنته": 7978,
      "معج": 7979,
      "▁معج": 7980,
      "ويست": 7981,
      "▁ويست": 7982,
      "لنفسها": 7983,
      "▁لنفسها": 7984,
      "طريقها": 7985,
      "▁طريقها": 7986,
      "آمل": 7987,
      "▁آمل": 7988,
      "الزيت": 7989,
      "▁الزيت": 7990,
      "والركض": 7991,
      "▁والركض": 7992,
      "يتمتع": 7993,
      "▁يتمتع": 7994,
      "عزيزي": 7995,
      "▁عزيزي": 7996,
      "امضة": 7997,
      "▁امضة": 7998,
      "اروخ": 7999,
      "▁اروخ": 8000,
      "العملة": 8001,
      "▁العملة": 8002,
      "قبلة": 8003,
      "▁قبلة": 8004,
      "شرير": 8005,
      "▁شرير": 8006,
      "حين": 8007,
      "▁حين": 8008,
      "غاز": 8009,
      "▁غاز": 8010,
      "الفرع": 8011,
      "▁الفرع": 8012,
      "تان": 8013,
      "▁تان": 8014,
      "بوط": 8015,
      "▁بوط": 8016,
      "وران": 8017,
      "▁وران": 8018,
      "ولها": 8019,
      "▁ولها": 8020,
      "وإيا": 8021,
      "▁وإيا": 8022,
      "حضر": 8023,
      "▁حضر": 8024,
      "اتهم": 8025,
      "▁اتهم": 8026,
      "أصغر": 8027,
      "▁أصغر": 8028,
      "جس": 8029,
      "▁جس": 8030,
      "الدودة": 8031,
      "▁الدودة": 8032,
      "بألوان": 8033,
      "▁بألوان": 8034,
      "ارتدى": 8035,
      "▁ارتدى": 8036,
      "الفيلم": 8037,
      "▁الفيلم": 8038,
      "مشي": 8039,
      "▁مشي": 8040,
      "رقام": 8041,
      "▁رقام": 8042,
      "عالقة": 8043,
      "▁عالقة": 8044,
      "العرض": 8045,
      "▁العرض": 8046,
      "السكر": 8047,
      "▁السكر": 8048,
      "مخيفا": 8049,
      "▁مخيفا": 8050,
      "للفتاة": 8051,
      "▁للفتاة": 8052,
      "تراقب": 8053,
      "▁تراقب": 8054,
      "تعل": 8055,
      "▁تعل": 8056,
      "ارات": 8057,
      "▁ارات": 8058,
      "كهذا": 8059,
      "▁كهذا": 8060,
      "اللوحة": 8061,
      "▁اللوحة": 8062,
      "العنب": 8063,
      "▁العنب": 8064,
      "عصار": 8065,
      "▁عصار": 8066,
      "صاخب": 8067,
      "▁صاخب": 8068,
      "الجسر": 8069,
      "▁الجسر": 8070,
      "بحار": 8071,
      "▁بحار": 8072,
      "أحدهم": 8073,
      "▁أحدهم": 8074,
      "ثعبان": 8075,
      "▁ثعبان": 8076,
      "الحب": 8077,
      "▁الحب": 8078,
      "رطب": 8079,
      "▁رطب": 8080,
      "يضحكان": 8081,
      "▁يضحكان": 8082,
      "معلم": 8083,
      "▁معلم": 8084,
      "يعزف": 8085,
      "▁يعزف": 8086,
      "مطيع": 8087,
      "▁مطيع": 8088,
      "المعكرونة": 8089,
      "▁المعكرونة": 8090,
      "كار": 8091,
      "▁كار": 8092,
      "عشب": 8093,
      "▁عشب": 8094,
      "المسار": 8095,
      "▁المسار": 8096,
      "لامة": 8097,
      "▁لامة": 8098,
      "مضغ": 8099,
      "▁مضغ": 8100,
      "وأغلق": 8101,
      "▁وأغلق": 8102,
      "القماش": 8103,
      "▁القماش": 8104,
      "ساحة": 8105,
      "▁ساحة": 8106,
      "الصح": 8107,
      "▁الصح": 8108,
      "افظ": 8109,
      "▁افظ": 8110,
      "يحلم": 8111,
      "▁يحلم": 8112,
      "أذهب": 8113,
      "▁أذهب": 8114,
      "ينسى": 8115,
      "▁ينسى": 8116,
      "سؤ": 8117,
      "▁سؤ": 8118,
      "أصدقائهم": 8119,
      "▁أصدقائهم": 8120,
      "عطي": 8121,
      "▁عطي": 8122,
      "والزلاجة": 8123,
      "▁والزلاجة": 8124,
      "ولف": 8125,
      "▁ولف": 8126,
      "تخف": 8127,
      "▁تخف": 8128,
      "فطار": 8129,
      "▁فطار": 8130,
      "شقيقته": 8131,
      "▁شقيقته": 8132,
      "رأها": 8133,
      "▁رأها": 8134,
      "السل": 8135,
      "▁السل": 8136,
      "ويقولون": 8137,
      "▁ويقولون": 8138,
      "طاد": 8139,
      "▁طاد": 8140,
      "بسبب": 8141,
      "▁بسبب": 8142,
      "أسف": 8143,
      "▁أسف": 8144,
      "النمل": 8145,
      "▁النمل": 8146,
      "ماية": 8147,
      "▁ماية": 8148,
      "ينتمي": 8149,
      "▁ينتمي": 8150,
      "رطبة": 8151,
      "▁رطبة": 8152,
      "مصباح": 8153,
      "▁مصباح": 8154,
      "ظف": 8155,
      "▁ظف": 8156,
      "الصاروخ": 8157,
      "▁الصاروخ": 8158,
      "ولوحت": 8159,
      "▁ولوحت": 8160,
      "لأمي": 8161,
      "▁لأمي": 8162,
      "مثال": 8163,
      "▁مثال": 8164,
      "عاشت": 8165,
      "▁عاشت": 8166,
      "الدافئ": 8167,
      "▁الدافئ": 8168,
      "الكا": 8169,
      "▁الكا": 8170,
      "المسافة": 8171,
      "▁المسافة": 8172,
      "للحفاظ": 8173,
      "▁للحفاظ": 8174,
      "الدلو": 8175,
      "▁الدلو": 8176,
      "يني": 8177,
      "▁يني": 8178,
      "اكتشف": 8179,
      "▁اكتشف": 8180,
      "قدميه": 8181,
      "▁قدميه": 8182,
      "أسنان": 8183,
      "▁أسنان": 8184,
      "بحماس": 8185,
      "▁بحماس": 8186,
      "يفعلون": 8187,
      "▁يفعلون": 8188,
      "لسماع": 8189,
      "▁لسماع": 8190,
      "وخاصة": 8191,
      "▁وخاصة": 8192,
      "الراحة": 8193,
      "▁الراحة": 8194,
      "والسيارات": 8195,
      "▁والسيارات": 8196,
      "لرؤيتها": 8197,
      "▁لرؤيتها": 8198,
      "قفزوا": 8199,
      "▁قفزوا": 8200,
      "فارغ": 8201,
      "▁فارغ": 8202,
      "الأكثر": 8203,
      "▁الأكثر": 8204,
      "مميزة": 8205,
      "▁مميزة": 8206,
      "وصاح": 8207,
      "▁وصاح": 8208,
      "خلع": 8209,
      "▁خلع": 8210,
      "فال": 8211,
      "▁فال": 8212,
      "تبلغ": 8213,
      "▁تبلغ": 8214,
      "ملون": 8215,
      "▁ملون": 8216,
      "العج": 8217,
      "▁العج": 8218,
      "بعصا": 8219,
      "▁بعصا": 8220,
      "رسمت": 8221,
      "▁رسمت": 8222,
      "وصديق": 8223,
      "▁وصديق": 8224,
      "أشارت": 8225,
      "▁أشارت": 8226,
      "التلة": 8227,
      "▁التلة": 8228,
      "ظهرتها": 8229,
      "▁ظهرتها": 8230,
      "للرجل": 8231,
      "▁للرجل": 8232,
      "مندهشين": 8233,
      "▁مندهشين": 8234,
      "الوجبات": 8235,
      "▁الوجبات": 8236,
      "بالد": 8237,
      "▁بالد": 8238,
      "ظهره": 8239,
      "▁ظهره": 8240,
      "أرض": 8241,
      "▁أرض": 8242,
      "عجلة": 8243,
      "▁عجلة": 8244,
      "يدخل": 8245,
      "▁يدخل": 8246,
      "مظلم": 8247,
      "▁مظلم": 8248,
      "الآلة": 8249,
      "▁الآلة": 8250,
      "عوا": 8251,
      "▁عوا": 8252,
      "تاج": 8253,
      "▁تاج": 8254,
      "تتأرجح": 8255,
      "▁تتأرجح": 8256,
      "قضت": 8257,
      "▁قضت": 8258,
      "ويلعبون": 8259,
      "▁ويلعبون": 8260,
      "جها": 8261,
      "▁جها": 8262,
      "ذهابا": 8263,
      "▁ذهابا": 8264,
      "جانب": 8265,
      "▁جانب": 8266,
      "وأعاد": 8267,
      "▁وأعاد": 8268,
      "الأول": 8269,
      "▁الأول": 8270,
      "شرائح": 8271,
      "▁شرائح": 8272,
      "البلو": 8273,
      "▁البلو": 8274,
      "قادرة": 8275,
      "▁قادرة": 8276,
      "التد": 8277,
      "▁التد": 8278,
      "تهب": 8279,
      "▁تهب": 8280,
      "الأسئلة": 8281,
      "▁الأسئلة": 8282,
      "ضغ": 8283,
      "▁ضغ": 8284,
      "دفء": 8285,
      "▁دفء": 8286,
      "يرمي": 8287,
      "▁يرمي": 8288,
      "يعجبه": 8289,
      "▁يعجبه": 8290,
      "المالك": 8291,
      "▁المالك": 8292,
      "لرؤيته": 8293,
      "▁لرؤيته": 8294,
      "روبي": 8295,
      "▁روبي": 8296,
      "اميرا": 8297,
      "▁اميرا": 8298,
      "طيران": 8299,
      "▁طيران": 8300,
      "بيعة": 8301,
      "▁بيعة": 8302,
      "وإيابا": 8303,
      "▁وإيابا": 8304,
      "نحتاج": 8305,
      "▁نحتاج": 8306,
      "ومشاهدة": 8307,
      "▁ومشاهدة": 8308,
      "زم": 8309,
      "▁زم": 8310,
      "هادئا": 8311,
      "▁هادئا": 8312,
      "الشع": 8313,
      "▁الشع": 8314,
      "وضعتها": 8315,
      "▁وضعتها": 8316,
      "تطلب": 8317,
      "▁تطلب": 8318,
      "قوة": 8319,
      "▁قوة": 8320,
      "دوائر": 8321,
      "▁دوائر": 8322,
      "شكروا": 8323,
      "▁شكروا": 8324,
      "الصياد": 8325,
      "▁الصياد": 8326,
      "صبح": 8327,
      "▁صبح": 8328,
      "انو": 8329,
      "▁انو": 8330,
      "والغضب": 8331,
      "▁والغضب": 8332,
      "مساك": 8333,
      "▁مساك": 8334,
      "نرى": 8335,
      "▁نرى": 8336,
      "رافعة": 8337,
      "▁رافعة": 8338,
      "الصل": 8339,
      "▁الصل": 8340,
      "جالسة": 8341,
      "▁جالسة": 8342,
      "المثيرة": 8343,
      "▁المثيرة": 8344,
      "نحاول": 8345,
      "▁نحاول": 8346,
      "فاع": 8347,
      "▁فاع": 8348,
      "طاردة": 8349,
      "▁طاردة": 8350,
      "السق": 8351,
      "▁السق": 8352,
      "حنات": 8353,
      "▁حنات": 8354,
      "النباتات": 8355,
      "▁النباتات": 8356,
      "فمها": 8357,
      "▁فمها": 8358,
      "وابت": 8359,
      "▁وابت": 8360,
      "السوداني": 8361,
      "▁السوداني": 8362,
      "يعض": 8363,
      "▁يعض": 8364,
      "مدر": 8365,
      "▁مدر": 8366,
      "بسيارته": 8367,
      "▁بسيارته": 8368,
      "حفر": 8369,
      "▁حفر": 8370,
      "مكتب": 8371,
      "▁مكتب": 8372,
      "براوني": 8373,
      "▁براوني": 8374,
      "اختار": 8375,
      "▁اختار": 8376,
      "عدت": 8377,
      "▁عدت": 8378,
      "شيائ": 8379,
      "▁شيائ": 8380,
      "واجه": 8381,
      "▁واجه": 8382,
      "يسمح": 8383,
      "▁يسمح": 8384,
      "هش": 8385,
      "▁هش": 8386,
      "أعطاه": 8387,
      "▁أعطاه": 8388,
      "يحتاجون": 8389,
      "▁يحتاجون": 8390,
      "ممل": 8391,
      "▁ممل": 8392,
      "أكلوا": 8393,
      "▁أكلوا": 8394,
      "السحابة": 8395,
      "▁السحابة": 8396,
      "مرارا": 8397,
      "▁مرارا": 8398,
      "رجال": 8399,
      "▁رجال": 8400,
      "اللطيفة": 8401,
      "▁اللطيفة": 8402,
      "الضباب": 8403,
      "▁الضباب": 8404,
      "أكن": 8405,
      "▁أكن": 8406,
      "نجد": 8407,
      "▁نجد": 8408,
      "بفكرة": 8409,
      "▁بفكرة": 8410,
      "راة": 8411,
      "▁راة": 8412,
      "رؤيتها": 8413,
      "▁رؤيتها": 8414,
      "وتكرارا": 8415,
      "▁وتكرارا": 8416,
      "يستمتعان": 8417,
      "▁يستمتعان": 8418,
      "شعرا": 8419,
      "▁شعرا": 8420,
      "صفقوا": 8421,
      "▁صفقوا": 8422,
      "ولديها": 8423,
      "▁ولديها": 8424,
      "تلة": 8425,
      "▁تلة": 8426,
      "بالكتل": 8427,
      "▁بالكتل": 8428,
      "ملاحظ": 8429,
      "▁ملاحظ": 8430,
      "المفاجأة": 8431,
      "▁المفاجأة": 8432,
      "ألعابك": 8433,
      "▁ألعابك": 8434,
      "صبور": 8435,
      "▁صبور": 8436,
      "لعائ": 8437,
      "▁لعائ": 8438,
      "البارد": 8439,
      "▁البارد": 8440,
      "وسري": 8441,
      "▁وسري": 8442,
      "ومخيف": 8443,
      "▁ومخيف": 8444,
      "لمشاهدة": 8445,
      "▁لمشاهدة": 8446,
      "الأكل": 8447,
      "▁الأكل": 8448,
      "علاج": 8449,
      "▁علاج": 8450,
      "جدد": 8451,
      "▁جدد": 8452,
      "الشبكة": 8453,
      "▁الشبكة": 8454,
      "والأوراق": 8455,
      "▁والأوراق": 8456,
      "دراجتها": 8457,
      "▁دراجتها": 8458,
      "مضط": 8459,
      "▁مضط": 8460,
      "الجن": 8461,
      "▁الجن": 8462,
      "كهف": 8463,
      "▁كهف": 8464,
      "دخول": 8465,
      "▁دخول": 8466,
      "يبلغ": 8467,
      "▁يبلغ": 8468,
      "القفل": 8469,
      "▁القفل": 8470,
      "أرادتا": 8471,
      "▁أرادتا": 8472,
      "مخلوق": 8473,
      "▁مخلوق": 8474,
      "تأكدت": 8475,
      "▁تأكدت": 8476,
      "خدمها": 8477,
      "▁خدمها": 8478,
      "طفو": 8479,
      "▁طفو": 8480,
      "أندي": 8481,
      "▁أندي": 8482,
      "مشارك": 8483,
      "▁مشارك": 8484,
      "يضعون": 8485,
      "▁يضعون": 8486,
      "أرجوك": 8487,
      "▁أرجوك": 8488,
      "منزعجة": 8489,
      "▁منزعجة": 8490,
      "مضى": 8491,
      "▁مضى": 8492,
      "يلاحظ": 8493,
      "▁يلاحظ": 8494,
      "أجنحة": 8495,
      "▁أجنحة": 8496,
      "الدافئة": 8497,
      "▁الدافئة": 8498,
      "مشيا": 8499,
      "▁مشيا": 8500,
      "ميم": 8501,
      "▁ميم": 8502,
      "للان": 8503,
      "▁للان": 8504,
      "حالة": 8505,
      "▁حالة": 8506,
      "دتها": 8507,
      "▁دتها": 8508,
      "الفقاعات": 8509,
      "▁الفقاعات": 8510,
      "الإن": 8511,
      "▁الإن": 8512,
      "الطوي": 8513,
      "▁الطوي": 8514,
      "شطيرة": 8515,
      "▁شطيرة": 8516,
      "وحزينة": 8517,
      "▁وحزينة": 8518,
      "زيين": 8519,
      "▁زيين": 8520,
      "داني": 8521,
      "▁داني": 8522,
      "أسن": 8523,
      "▁أسن": 8524,
      "طويلا": 8525,
      "▁طويلا": 8526,
      "تستسلم": 8527,
      "▁تستسلم": 8528,
      "يتسلق": 8529,
      "▁يتسلق": 8530,
      "ويبتسم": 8531,
      "▁ويبتسم": 8532,
      "صديقان": 8533,
      "▁صديقان": 8534,
      "زئير": 8535,
      "▁زئير": 8536,
      "المكونات": 8537,
      "▁المكونات": 8538,
      "وتس": 8539,
      "▁وتس": 8540,
      "وكانا": 8541,
      "▁وكانا": 8542,
      "والحزن": 8543,
      "▁والحزن": 8544,
      "الطويلة": 8545,
      "▁الطويلة": 8546,
      "أحبت": 8547,
      "▁أحبت": 8548,
      "ثوبها": 8549,
      "▁ثوبها": 8550,
      "وأخبرت": 8551,
      "▁وأخبرت": 8552,
      "نظيفا": 8553,
      "▁نظيفا": 8554,
      "مجد": 8555,
      "▁مجد": 8556,
      "يستسلم": 8557,
      "▁يستسلم": 8558,
      "وسي": 8559,
      "▁وسي": 8560,
      "مخيفة": 8561,
      "▁مخيفة": 8562,
      "ينية": 8563,
      "▁ينية": 8564,
      "إيذاء": 8565,
      "▁إيذاء": 8566,
      "التقطها": 8567,
      "▁التقطها": 8568,
      "وته": 8569,
      "▁وته": 8570,
      "منظ": 8571,
      "▁منظ": 8572,
      "الجدول": 8573,
      "▁الجدول": 8574,
      "أصدقائك": 8575,
      "▁أصدقائك": 8576,
      "انتظرت": 8577,
      "▁انتظرت": 8578,
      "تقترب": 8579,
      "▁تقترب": 8580,
      "بعضنا": 8581,
      "▁بعضنا": 8582,
      "ويبدو": 8583,
      "▁ويبدو": 8584,
      "فيف": 8585,
      "▁فيف": 8586,
      "يتأرجح": 8587,
      "▁يتأرجح": 8588,
      "الأطباق": 8589,
      "▁الأطباق": 8590,
      "يحتضن": 8591,
      "▁يحتضن": 8592,
      "أليكس": 8593,
      "▁أليكس": 8594,
      "ابل": 8595,
      "▁ابل": 8596,
      "خرطوم": 8597,
      "▁خرطوم": 8598,
      "أغراض": 8599,
      "▁أغراض": 8600,
      "العجينة": 8601,
      "▁العجينة": 8602,
      "المحرك": 8603,
      "▁المحرك": 8604,
      "احة": 8605,
      "▁احة": 8606,
      "وسهم": 8607,
      "▁وسهم": 8608,
      "وملمعة": 8609,
      "▁وملمعة": 8610,
      "جيري": 8611,
      "▁جيري": 8612,
      "الشعر": 8613,
      "▁الشعر": 8614,
      "للأطفال": 8615,
      "▁للأطفال": 8616,
      "متأخرا": 8617,
      "▁متأخرا": 8618,
      "بالدفء": 8619,
      "▁بالدفء": 8620,
      "نظيم": 8621,
      "▁نظيم": 8622,
      "الفول": 8623,
      "▁الفول": 8624,
      "اتم": 8625,
      "▁اتم": 8626,
      "الذرة": 8627,
      "▁الذرة": 8628,
      "التقطه": 8629,
      "▁التقطه": 8630,
      "رحون": 8631,
      "▁رحون": 8632,
      "مهذ": 8633,
      "▁مهذ": 8634,
      "آني": 8635,
      "▁آني": 8636,
      "جدته": 8637,
      "▁جدته": 8638,
      "حرك": 8639,
      "▁حرك": 8640,
      "اللامع": 8641,
      "▁اللامع": 8642,
      "سمعا": 8643,
      "▁سمعا": 8644,
      "ووضعته": 8645,
      "▁ووضعته": 8646,
      "يشعران": 8647,
      "▁يشعران": 8648,
      "تفتح": 8649,
      "▁تفتح": 8650,
      "فسهم": 8651,
      "▁فسهم": 8652,
      "برأسه": 8653,
      "▁برأسه": 8654,
      "الساحرة": 8655,
      "▁الساحرة": 8656,
      "مغاد": 8657,
      "▁مغاد": 8658,
      "لعبتها": 8659,
      "▁لعبتها": 8660,
      "يجعلك": 8661,
      "▁يجعلك": 8662,
      "غداء": 8663,
      "▁غداء": 8664,
      "تحلم": 8665,
      "▁تحلم": 8666,
      "اتص": 8667,
      "▁اتص": 8668,
      "تجلس": 8669,
      "▁تجلس": 8670,
      "السفينة": 8671,
      "▁السفينة": 8672,
      "نافذ": 8673,
      "▁نافذ": 8674,
      "مرتفع": 8675,
      "▁مرتفع": 8676,
      "يعانقون": 8677,
      "▁يعانقون": 8678,
      "انزل": 8679,
      "▁انزل": 8680,
      "وأصبحوا": 8681,
      "▁وأصبحوا": 8682,
      "الناعم": 8683,
      "▁الناعم": 8684,
      "اختيار": 8685,
      "▁اختيار": 8686,
      "بهذا": 8687,
      "▁بهذا": 8688,
      "تهتم": 8689,
      "▁تهتم": 8690,
      "البيض": 8691,
      "▁البيض": 8692,
      "ويحاول": 8693,
      "▁ويحاول": 8694,
      "التسلق": 8695,
      "▁التسلق": 8696,
      "زحف": 8697,
      "▁زحف": 8698,
      "وجلس": 8699,
      "▁وجلس": 8700,
      "وتستمتع": 8701,
      "▁وتستمتع": 8702,
      "القرش": 8703,
      "▁القرش": 8704,
      "الإثارة": 8705,
      "▁الإثارة": 8706,
      "يحبها": 8707,
      "▁يحبها": 8708,
      "قلادة": 8709,
      "▁قلادة": 8710,
      "لساعات": 8711,
      "▁لساعات": 8712,
      "فاف": 8713,
      "▁فاف": 8714,
      "يتجول": 8715,
      "▁يتجول": 8716,
      "طيب": 8717,
      "▁طيب": 8718,
      "لبن": 8719,
      "▁لبن": 8720,
      "لسلة": 8721,
      "▁لسلة": 8722,
      "جن": 8723,
      "▁جن": 8724,
      "صبورة": 8725,
      "▁صبورة": 8726,
      "أة": 8727,
      "▁أة": 8728,
      "ودية": 8729,
      "▁ودية": 8730,
      "كاو": 8731,
      "▁كاو": 8732,
      "نعود": 8733,
      "▁نعود": 8734,
      "وبر": 8735,
      "▁وبر": 8736,
      "المحمص": 8737,
      "▁المحمص": 8738,
      "الحفر": 8739,
      "▁الحفر": 8740,
      "تمر": 8741,
      "▁تمر": 8742,
      "إضا": 8743,
      "▁إضا": 8744,
      "وأعطاها": 8745,
      "▁وأعطاها": 8746,
      "باردة": 8747,
      "▁باردة": 8748,
      "أمنية": 8749,
      "▁أمنية": 8750,
      "قبعته": 8751,
      "▁قبعته": 8752,
      "وغير": 8753,
      "▁وغير": 8754,
      "اللافتة": 8755,
      "▁اللافتة": 8756,
      "تشارلي": 8757,
      "▁تشارلي": 8758,
      "طمت": 8759,
      "▁طمت": 8760,
      "شريط": 8761,
      "▁شريط": 8762,
      "أول": 8763,
      "▁أول": 8764,
      "عثر": 8765,
      "▁عثر": 8766,
      "فاحصة": 8767,
      "▁فاحصة": 8768,
      "قدة": 8769,
      "▁قدة": 8770,
      "باهظ": 8771,
      "▁باهظ": 8772,
      "الشوكولاته": 8773,
      "▁الشوكولاته": 8774,
      "ريهة": 8775,
      "▁ريهة": 8776,
      "وحلو": 8777,
      "▁وحلو": 8778,
      "رصاص": 8779,
      "▁رصاص": 8780,
      "نفساء": 8781,
      "▁نفساء": 8782,
      "خجولة": 8783,
      "▁خجولة": 8784,
      "صدار": 8785,
      "▁صدار": 8786,
      "حكيمة": 8787,
      "▁حكيمة": 8788,
      "عادية": 8789,
      "▁عادية": 8790,
      "اختبار": 8791,
      "▁اختبار": 8792,
      "حني": 8793,
      "▁حني": 8794,
      "الشجاعة": 8795,
      "▁الشجاعة": 8796,
      "وعانقتها": 8797,
      "▁وعانقتها": 8798,
      "ائي": 8799,
      "▁ائي": 8800,
      "واسع": 8801,
      "▁واسع": 8802,
      "تملك": 8803,
      "▁تملك": 8804,
      "اعتقدوا": 8805,
      "▁اعتقدوا": 8806,
      "معت": 8807,
      "▁معت": 8808,
      "والف": 8809,
      "▁والف": 8810,
      "تفعله": 8811,
      "▁تفعله": 8812,
      "رقيقة": 8813,
      "▁رقيقة": 8814,
      "تحطم": 8815,
      "▁تحطم": 8816,
      "اث": 8817,
      "▁اث": 8818,
      "غابت": 8819,
      "▁غابت": 8820,
      "جانبا": 8821,
      "▁جانبا": 8822,
      "لحفاة": 8823,
      "▁لحفاة": 8824,
      "الحقيق": 8825,
      "▁الحقيق": 8826,
      "قطعت": 8827,
      "▁قطعت": 8828,
      "تنسى": 8829,
      "▁تنسى": 8830,
      "الطابق": 8831,
      "▁الطابق": 8832,
      "حظى": 8833,
      "▁حظى": 8834,
      "الأف": 8835,
      "▁الأف": 8836,
      "الأماكن": 8837,
      "▁الأماكن": 8838,
      "تتذكر": 8839,
      "▁تتذكر": 8840,
      "أطلق": 8841,
      "▁أطلق": 8842,
      "مفتوح": 8843,
      "▁مفتوح": 8844,
      "بالعودة": 8845,
      "▁بالعودة": 8846,
      "يتحدثون": 8847,
      "▁يتحدثون": 8848,
      "لتلقي": 8849,
      "▁لتلقي": 8850,
      "وعانقوا": 8851,
      "▁وعانقوا": 8852,
      "الحوت": 8853,
      "▁الحوت": 8854,
      "سرطان": 8855,
      "▁سرطان": 8856,
      "الرائع": 8857,
      "▁الرائع": 8858,
      "الروح": 8859,
      "▁الروح": 8860,
      "أقوى": 8861,
      "▁أقوى": 8862,
      "رخت": 8863,
      "▁رخت": 8864,
      "إليك": 8865,
      "▁إليك": 8866,
      "قس": 8867,
      "▁قس": 8868,
      "يعودوا": 8869,
      "▁يعودوا": 8870,
      "الحبوب": 8871,
      "▁الحبوب": 8872,
      "بكرا": 8873,
      "▁بكرا": 8874,
      "متأكد": 8875,
      "▁متأكد": 8876,
      "يستكشف": 8877,
      "▁يستكشف": 8878,
      "شرحت": 8879,
      "▁شرحت": 8880,
      "ولطيف": 8881,
      "▁ولطيف": 8882,
      "والفخر": 8883,
      "▁والفخر": 8884,
      "الأرجواني": 8885,
      "▁الأرجواني": 8886,
      "جلب": 8887,
      "▁جلب": 8888,
      "خاط": 8889,
      "▁خاط": 8890,
      "وكاد": 8891,
      "▁وكاد": 8892,
      "سعيدان": 8893,
      "▁سعيدان": 8894,
      "أحبها": 8895,
      "▁أحبها": 8896,
      "بالسيارة": 8897,
      "▁بالسيارة": 8898,
      "نافذة": 8899,
      "▁نافذة": 8900,
      "ساخنة": 8901,
      "▁ساخنة": 8902,
      "الصنبور": 8903,
      "▁الصنبور": 8904,
      "ولديه": 8905,
      "▁ولديه": 8906,
      "واعد": 8907,
      "▁واعد": 8908,
      "صديقك": 8909,
      "▁صديقك": 8910,
      "وبعد": 8911,
      "▁وبعد": 8912,
      "يؤ": 8913,
      "▁يؤ": 8914,
      "استخدامه": 8915,
      "▁استخدامه": 8916,
      "تترك": 8917,
      "▁تترك": 8918,
      "وجعلت": 8919,
      "▁وجعلت": 8920,
      "شجع": 8921,
      "▁شجع": 8922,
      "تتسلق": 8923,
      "▁تتسلق": 8924,
      "كلمة": 8925,
      "▁كلمة": 8926,
      "ويرى": 8927,
      "▁ويرى": 8928,
      "رع": 8929,
      "▁رع": 8930,
      "لأمه": 8931,
      "▁لأمه": 8932,
      "بشأن": 8933,
      "▁بشأن": 8934,
      "رم": 8935,
      "▁رم": 8936,
      "تبدأ": 8937,
      "▁تبدأ": 8938,
      "وهذه": 8939,
      "▁وهذه": 8940,
      "أسقطت": 8941,
      "▁أسقطت": 8942,
      "الدجاجة": 8943,
      "▁الدجاجة": 8944,
      "وألعاب": 8945,
      "▁وألعاب": 8946,
      "وهاد": 8947,
      "▁وهاد": 8948,
      "الاقت": 8949,
      "▁الاقت": 8950,
      "فأكثر": 8951,
      "▁فأكثر": 8952,
      "الاستسلام": 8953,
      "▁الاستسلام": 8954,
      "السبب": 8955,
      "▁السبب": 8956,
      "وعلم": 8957,
      "▁وعلم": 8958,
      "ينظران": 8959,
      "▁ينظران": 8960,
      "المطاف": 8961,
      "▁المطاف": 8962,
      "جيء": 8963,
      "▁جيء": 8964,
      "والكثير": 8965,
      "▁والكثير": 8966,
      "بالذنب": 8967,
      "▁بالذنب": 8968,
      "بالإحباط": 8969,
      "▁بالإحباط": 8970,
      "ضواء": 8971,
      "▁ضواء": 8972,
      "الغراب": 8973,
      "▁الغراب": 8974,
      "زاهية": 8975,
      "▁زاهية": 8976,
      "المربى": 8977,
      "▁المربى": 8978,
      "بعضا": 8979,
      "▁بعضا": 8980,
      "يضرب": 8981,
      "▁يضرب": 8982,
      "أنفه": 8983,
      "▁أنفه": 8984,
      "فظيع": 8985,
      "▁فظيع": 8986,
      "بيوتر": 8987,
      "▁بيوتر": 8988,
      "إعداد": 8989,
      "▁إعداد": 8990,
      "الغراء": 8991,
      "▁الغراء": 8992,
      "طح": 8993,
      "▁طح": 8994,
      "ورطة": 8995,
      "▁ورطة": 8996,
      "ادع": 8997,
      "▁ادع": 8998,
      "سيف": 8999,
      "▁سيف": 9000,
      "تقوم": 9001,
      "▁تقوم": 9002,
      "صرخوا": 9003,
      "▁صرخوا": 9004,
      "أهمية": 9005,
      "▁أهمية": 9006,
      "الصابون": 9007,
      "▁الصابون": 9008,
      "جرس": 9009,
      "▁جرس": 9010,
      "دق": 9011,
      "▁دق": 9012,
      "قدميها": 9013,
      "▁قدميها": 9014,
      "السقف": 9015,
      "▁السقف": 9016,
      "ركبتها": 9017,
      "▁ركبتها": 9018,
      "وريلا": 9019,
      "▁وريلا": 9020,
      "احتفظ": 9021,
      "▁احتفظ": 9022,
      "وصرخت": 9023,
      "▁وصرخت": 9024,
      "وتكون": 9025,
      "▁وتكون": 9026,
      "حذائه": 9027,
      "▁حذائه": 9028,
      "الوردية": 9029,
      "▁الوردية": 9030,
      "ابتسام": 9031,
      "▁ابتسام": 9032,
      "اردة": 9033,
      "▁اردة": 9034,
      "البسكويت": 9035,
      "▁البسكويت": 9036,
      "ورقص": 9037,
      "▁ورقص": 9038,
      "جرى": 9039,
      "▁جرى": 9040,
      "احتضنت": 9041,
      "▁احتضنت": 9042,
      "مصنوع": 9043,
      "▁مصنوع": 9044,
      "ويصرخ": 9045,
      "▁ويصرخ": 9046,
      "السحري": 9047,
      "▁السحري": 9048,
      "بطا": 9049,
      "▁بطا": 9050,
      "وحدها": 9051,
      "▁وحدها": 9052,
      "وأعطى": 9053,
      "▁وأعطى": 9054,
      "هيكل": 9055,
      "▁هيكل": 9056,
      "يكي": 9057,
      "▁يكي": 9058,
      "السفر": 9059,
      "▁السفر": 9060,
      "فهمت": 9061,
      "▁فهمت": 9062,
      "يعودون": 9063,
      "▁يعودون": 9064,
      "لالتقاط": 9065,
      "▁لالتقاط": 9066,
      "العاء": 9067,
      "▁العاء": 9068,
      "قادما": 9069,
      "▁قادما": 9070,
      "تؤ": 9071,
      "▁تؤ": 9072,
      "ارتكب": 9073,
      "▁ارتكب": 9074,
      "القريبة": 9075,
      "▁القريبة": 9076,
      "تمت": 9077,
      "▁تمت": 9078,
      "الإمساك": 9079,
      "▁الإمساك": 9080,
      "الطبا": 9081,
      "▁الطبا": 9082,
      "ريبا": 9083,
      "▁ريبا": 9084,
      "صاخبا": 9085,
      "▁صاخبا": 9086,
      "استطاعت": 9087,
      "▁استطاعت": 9088,
      "نجح": 9089,
      "▁نجح": 9090,
      "وراءها": 9091,
      "▁وراءها": 9092,
      "يغادر": 9093,
      "▁يغادر": 9094,
      "غلاق": 9095,
      "▁غلاق": 9096,
      "المقص": 9097,
      "▁المقص": 9098,
      "هولة": 9099,
      "▁هولة": 9100,
      "يزي": 9101,
      "▁يزي": 9102,
      "أليف": 9103,
      "▁أليف": 9104,
      "وأوم": 9105,
      "▁وأوم": 9106,
      "النظ": 9107,
      "▁النظ": 9108,
      "وراءه": 9109,
      "▁وراءه": 9110,
      "يتناوب": 9111,
      "▁يتناوب": 9112,
      "وجميع": 9113,
      "▁وجميع": 9114,
      "ولاحظ": 9115,
      "▁ولاحظ": 9116,
      "بطاقة": 9117,
      "▁بطاقة": 9118,
      "كسول": 9119,
      "▁كسول": 9120,
      "يرتد": 9121,
      "▁يرتد": 9122,
      "رؤيته": 9123,
      "▁رؤيته": 9124,
      "تض": 9125,
      "▁تض": 9126,
      "وعاش": 9127,
      "▁وعاش": 9128,
      "ره": 9129,
      "▁ره": 9130,
      "احتضنوا": 9131,
      "▁احتضنوا": 9132,
      "الحلاق": 9133,
      "▁الحلاق": 9134,
      "الماعز": 9135,
      "▁الماعز": 9136,
      "وتدور": 9137,
      "▁وتدور": 9138,
      "صاخبة": 9139,
      "▁صاخبة": 9140,
      "أضاء": 9141,
      "▁أضاء": 9142,
      "يلقي": 9143,
      "▁يلقي": 9144,
      "الملكة": 9145,
      "▁الملكة": 9146,
      "وائ": 9147,
      "▁وائ": 9148,
      "فريق": 9149,
      "▁فريق": 9150,
      "العا": 9151,
      "▁العا": 9152,
      "امة": 9153,
      "▁امة": 9154,
      "الكرز": 9155,
      "▁الكرز": 9156,
      "وألق": 9157,
      "▁وألق": 9158,
      "الثلاث": 9159,
      "▁الثلاث": 9160,
      "أخت": 9161,
      "▁أخت": 9162,
      "فرس": 9163,
      "▁فرس": 9164,
      "واعت": 9165,
      "▁واعت": 9166,
      "صديقها": 9167,
      "▁صديقها": 9168,
      "عباد": 9169,
      "▁عباد": 9170,
      "الأمطار": 9171,
      "▁الأمطار": 9172,
      "الاقتراب": 9173,
      "▁الاقتراب": 9174,
      "هنري": 9175,
      "▁هنري": 9176,
      "مخروط": 9177,
      "▁مخروط": 9178,
      "ساقي": 9179,
      "▁ساقي": 9180,
      "طارات": 9181,
      "▁طارات": 9182,
      "لفل": 9183,
      "▁لفل": 9184,
      "العلية": 9185,
      "▁العلية": 9186,
      "جاد": 9187,
      "▁جاد": 9188,
      "زلج": 9189,
      "▁زلج": 9190,
      "يتك": 9191,
      "▁يتك": 9192,
      "ينجح": 9193,
      "▁ينجح": 9194,
      "يرقص": 9195,
      "▁يرقص": 9196,
      "أعدك": 9197,
      "▁أعدك": 9198,
      "يبت": 9199,
      "▁يبت": 9200,
      "القراءة": 9201,
      "▁القراءة": 9202,
      "كات": 9203,
      "▁كات": 9204,
      "جربة": 9205,
      "▁جربة": 9206,
      "غادرت": 9207,
      "▁غادرت": 9208,
      "يهز": 9209,
      "▁يهز": 9210,
      "بطي": 9211,
      "▁بطي": 9212,
      "مقا": 9213,
      "▁مقا": 9214,
      "وهبط": 9215,
      "▁وهبط": 9216,
      "الزبدة": 9217,
      "▁الزبدة": 9218,
      "رعاية": 9219,
      "▁رعاية": 9220,
      "جيب": 9221,
      "▁جيب": 9222,
      "السلحفاة": 9223,
      "▁السلحفاة": 9224,
      "الأرضية": 9225,
      "▁الأرضية": 9226,
      "ئين": 9227,
      "▁ئين": 9228,
      "تحتفظ": 9229,
      "▁تحتفظ": 9230,
      "أدركوا": 9231,
      "▁أدركوا": 9232,
      "الآخرون": 9233,
      "▁الآخرون": 9234,
      "وقبعة": 9235,
      "▁وقبعة": 9236,
      "منهما": 9237,
      "▁منهما": 9238,
      "وأخبرتها": 9239,
      "▁وأخبرتها": 9240,
      "كتابا": 9241,
      "▁كتابا": 9242,
      "تعتني": 9243,
      "▁تعتني": 9244,
      "يقصد": 9245,
      "▁يقصد": 9246,
      "البطي": 9247,
      "▁البطي": 9248,
      "الأرانب": 9249,
      "▁الأرانب": 9250,
      "هتف": 9251,
      "▁هتف": 9252,
      "البرية": 9253,
      "▁البرية": 9254,
      "دعى": 9255,
      "▁دعى": 9256,
      "مبكرا": 9257,
      "▁مبكرا": 9258,
      "انع": 9259,
      "▁انع": 9260,
      "خدمه": 9261,
      "▁خدمه": 9262,
      "وست": 9263,
      "▁وست": 9264,
      "وغاضبة": 9265,
      "▁وغاضبة": 9266,
      "الضخ": 9267,
      "▁الضخ": 9268,
      "حديقته": 9269,
      "▁حديقته": 9270,
      "وعائلتها": 9271,
      "▁وعائلتها": 9272,
      "فضول": 9273,
      "▁فضول": 9274,
      "فاء": 9275,
      "▁فاء": 9276,
      "شاركون": 9277,
      "▁شاركون": 9278,
      "حكام": 9279,
      "▁حكام": 9280,
      "جاح": 9281,
      "▁جاح": 9282,
      "يجرب": 9283,
      "▁يجرب": 9284,
      "جابة": 9285,
      "▁جابة": 9286,
      "استعا": 9287,
      "▁استعا": 9288,
      "وصاخ": 9289,
      "▁وصاخ": 9290,
      "الأزرار": 9291,
      "▁الأزرار": 9292,
      "ولن": 9293,
      "▁ولن": 9294,
      "الفلفل": 9295,
      "▁الفلفل": 9296,
      "الدخان": 9297,
      "▁الدخان": 9298,
      "يتشاجران": 9299,
      "▁يتشاجران": 9300,
      "وقا": 9301,
      "▁وقا": 9302,
      "العلكة": 9303,
      "▁العلكة": 9304,
      "سأله": 9305,
      "▁سأله": 9306,
      "النق": 9307,
      "▁النق": 9308,
      "جافة": 9309,
      "▁جافة": 9310,
      "وعادوا": 9311,
      "▁وعادوا": 9312,
      "وفتحت": 9313,
      "▁وفتحت": 9314,
      "وأصاب": 9315,
      "▁وأصاب": 9316,
      "وتدحرج": 9317,
      "▁وتدحرج": 9318,
      "يجعله": 9319,
      "▁يجعله": 9320,
      "أغني": 9321,
      "▁أغني": 9322,
      "قادرا": 9323,
      "▁قادرا": 9324,
      "والك": 9325,
      "▁والك": 9326,
      "حكيم": 9327,
      "▁حكيم": 9328,
      "ميمي": 9329,
      "▁ميمي": 9330,
      "يأكلون": 9331,
      "▁يأكلون": 9332,
      "الحقيقة": 9333,
      "▁الحقيقة": 9334,
      "دفعت": 9335,
      "▁دفعت": 9336,
      "سامحك": 9337,
      "▁سامحك": 9338,
      "انحنى": 9339,
      "▁انحنى": 9340,
      "بالفرح": 9341,
      "▁بالفرح": 9342,
      "جرت": 9343,
      "▁جرت": 9344,
      "الشوكولاتة": 9345,
      "▁الشوكولاتة": 9346,
      "ليم": 9347,
      "▁ليم": 9348,
      "يرن": 9349,
      "▁يرن": 9350,
      "قادر": 9351,
      "▁قادر": 9352,
      "بإحكام": 9353,
      "▁بإحكام": 9354,
      "قياس": 9355,
      "▁قياس": 9356,
      "حدر": 9357,
      "▁حدر": 9358,
      "الصلصة": 9359,
      "▁الصلصة": 9360,
      "وأكلوا": 9361,
      "▁وأكلوا": 9362,
      "وفان": 9363,
      "▁وفان": 9364,
      "تدخل": 9365,
      "▁تدخل": 9366,
      "ورفع": 9367,
      "▁ورفع": 9368,
      "يذهبان": 9369,
      "▁يذهبان": 9370,
      "مملة": 9371,
      "▁مملة": 9372,
      "أولي": 9373,
      "▁أولي": 9374,
      "كله": 9375,
      "▁كله": 9376,
      "عظيم": 9377,
      "▁عظيم": 9378,
      "واية": 9379,
      "▁واية": 9380,
      "للاختباء": 9381,
      "▁للاختباء": 9382,
      "ساعدها": 9383,
      "▁ساعدها": 9384,
      "شعره": 9385,
      "▁شعره": 9386,
      "إنهاء": 9387,
      "▁إنهاء": 9388,
      "بالض": 9389,
      "▁بالض": 9390,
      "محفظ": 9391,
      "▁محفظ": 9392,
      "الإفطار": 9393,
      "▁الإفطار": 9394,
      "اختارت": 9395,
      "▁اختارت": 9396,
      "ولذيذ": 9397,
      "▁ولذيذ": 9398,
      "هات": 9399,
      "▁هات": 9400,
      "مختلفا": 9401,
      "▁مختلفا": 9402,
      "الطبيعة": 9403,
      "▁الطبيعة": 9404,
      "ركبت": 9405,
      "▁ركبت": 9406,
      "بالص": 9407,
      "▁بالص": 9408,
      "إطعام": 9409,
      "▁إطعام": 9410,
      "الأبيض": 9411,
      "▁الأبيض": 9412,
      "السلالم": 9413,
      "▁السلالم": 9414,
      "بقار": 9415,
      "▁بقار": 9416,
      "المجيء": 9417,
      "▁المجيء": 9418,
      "هاري": 9419,
      "▁هاري": 9420,
      "واش": 9421,
      "▁واش": 9422,
      "الجدران": 9423,
      "▁الجدران": 9424,
      "همس": 9425,
      "▁همس": 9426,
      "وأنت": 9427,
      "▁وأنت": 9428,
      "والمتعة": 9429,
      "▁والمتعة": 9430,
      "بيد": 9431,
      "▁بيد": 9432,
      "كيت": 9433,
      "▁كيت": 9434,
      "الوقوف": 9435,
      "▁الوقوف": 9436,
      "الخيمة": 9437,
      "▁الخيمة": 9438,
      "وبق": 9439,
      "▁وبق": 9440,
      "هروب": 9441,
      "▁هروب": 9442,
      "بريد": 9443,
      "▁بريد": 9444,
      "اتها": 9445,
      "▁اتها": 9446,
      "ذراعها": 9447,
      "▁ذراعها": 9448,
      "متأخر": 9449,
      "▁متأخر": 9450,
      "المتحركة": 9451,
      "▁المتحركة": 9452,
      "قرش": 9453,
      "▁قرش": 9454,
      "سد": 9455,
      "▁سد": 9456,
      "طعمه": 9457,
      "▁طعمه": 9458,
      "قصيرة": 9459,
      "▁قصيرة": 9460,
      "دميتي": 9461,
      "▁دميتي": 9462,
      "ساندي": 9463,
      "▁ساندي": 9464,
      "ماريا": 9465,
      "▁ماريا": 9466,
      "وجو": 9467,
      "▁وجو": 9468,
      "تعوي": 9469,
      "▁تعوي": 9470,
      "الحديد": 9471,
      "▁الحديد": 9472,
      "أصدقائي": 9473,
      "▁أصدقائي": 9474,
      "والخوف": 9475,
      "▁والخوف": 9476,
      "فيلم": 9477,
      "▁فيلم": 9478,
      "عميق": 9479,
      "▁عميق": 9480,
      "ينتظرون": 9481,
      "▁ينتظرون": 9482,
      "وهرات": 9483,
      "▁وهرات": 9484,
      "ونظروا": 9485,
      "▁ونظروا": 9486,
      "صيحة": 9487,
      "▁صيحة": 9488,
      "النز": 9489,
      "▁النز": 9490,
      "ويصدر": 9491,
      "▁ويصدر": 9492,
      "اسمهما": 9493,
      "▁اسمهما": 9494,
      "الرحلة": 9495,
      "▁الرحلة": 9496,
      "أصاب": 9497,
      "▁أصاب": 9498,
      "تعجبها": 9499,
      "▁تعجبها": 9500,
      "حريصة": 9501,
      "▁حريصة": 9502,
      "يتع": 9503,
      "▁يتع": 9504,
      "أحاول": 9505,
      "▁أحاول": 9506,
      "وكة": 9507,
      "▁وكة": 9508,
      "رسال": 9509,
      "▁رسال": 9510,
      "واعتقدت": 9511,
      "▁واعتقدت": 9512,
      "بالف": 9513,
      "▁بالف": 9514,
      "لحسن": 9515,
      "▁لحسن": 9516,
      "موسيق": 9517,
      "▁موسيق": 9518,
      "خرجوا": 9519,
      "▁خرجوا": 9520,
      "تقريبا": 9521,
      "▁تقريبا": 9522,
      "دائرة": 9523,
      "▁دائرة": 9524,
      "مجددا": 9525,
      "▁مجددا": 9526,
      "حبوب": 9527,
      "▁حبوب": 9528,
      "بمفردها": 9529,
      "▁بمفردها": 9530,
      "يته": 9531,
      "▁يته": 9532,
      "يسة": 9533,
      "▁يسة": 9534,
      "كتلة": 9535,
      "▁كتلة": 9536,
      "حقيبتها": 9537,
      "▁حقيبتها": 9538,
      "اكتشفت": 9539,
      "▁اكتشفت": 9540,
      "مشغول": 9541,
      "▁مشغول": 9542,
      "الصناديق": 9543,
      "▁الصناديق": 9544,
      "بالدوار": 9545,
      "▁بالدوار": 9546,
      "يساعدها": 9547,
      "▁يساعدها": 9548,
      "ضعة": 9549,
      "▁ضعة": 9550,
      "الوسادة": 9551,
      "▁الوسادة": 9552,
      "المسن": 9553,
      "▁المسن": 9554,
      "ندق": 9555,
      "▁ندق": 9556,
      "بأكملها": 9557,
      "▁بأكملها": 9558,
      "بقرة": 9559,
      "▁بقرة": 9560,
      "وسارة": 9561,
      "▁وسارة": 9562,
      "الجوهرة": 9563,
      "▁الجوهرة": 9564,
      "الأصوات": 9565,
      "▁الأصوات": 9566,
      "راته": 9567,
      "▁راته": 9568,
      "نومها": 9569,
      "▁نومها": 9570,
      "شرائ": 9571,
      "▁شرائ": 9572,
      "تصفيق": 9573,
      "▁تصفيق": 9574,
      "المغادرة": 9575,
      "▁المغادرة": 9576,
      "تحدثت": 9577,
      "▁تحدثت": 9578,
      "وعانقته": 9579,
      "▁وعانقته": 9580,
      "رفس": 9581,
      "▁رفس": 9582,
      "وانتظرت": 9583,
      "▁وانتظرت": 9584,
      "الاختبار": 9585,
      "▁الاختبار": 9586,
      "دنا": 9587,
      "▁دنا": 9588,
      "يختبئ": 9589,
      "▁يختبئ": 9590,
      "تنهدت": 9591,
      "▁تنهدت": 9592,
      "والحصول": 9593,
      "▁والحصول": 9594,
      "لادة": 9595,
      "▁لادة": 9596,
      "أخبرها": 9597,
      "▁أخبرها": 9598,
      "قاربه": 9599,
      "▁قاربه": 9600,
      "بوق": 9601,
      "▁بوق": 9602,
      "وث": 9603,
      "▁وث": 9604,
      "جزرة": 9605,
      "▁جزرة": 9606,
      "ترو": 9607,
      "▁ترو": 9608,
      "صادق": 9609,
      "▁صادق": 9610,
      "الديك": 9611,
      "▁الديك": 9612,
      "وكلي": 9613,
      "▁وكلي": 9614,
      "والراحة": 9615,
      "▁والراحة": 9616,
      "دير": 9617,
      "▁دير": 9618,
      "الأشخاص": 9619,
      "▁الأشخاص": 9620,
      "طس": 9621,
      "▁طس": 9622,
      "لتك": 9623,
      "▁لتك": 9624,
      "زلان": 9625,
      "▁زلان": 9626,
      "روف": 9627,
      "▁روف": 9628,
      "بشجاعة": 9629,
      "▁بشجاعة": 9630,
[...]
