{
  "version": "1.0",
  "truncation": null,
  "padding": null,
  "added_tokens": [
    {
      "id": 0,
      "content": "<|PAD|>",
      "single_word": false,
      "lstrip": false,
      "rstrip": false,
      "normalized": false,
      "special": true
    },
    {
      "id": 1,
      "content": "<|BOS|>",
      "single_word": false,
      "lstrip": false,
      "rstrip": false,
      "normalized": false,
      "special": true
    },
    {
      "id": 2,
      "content": "<|EOS|>",
      "single_word": false,
      "lstrip": false,
      "rstrip": false,
      "normalized": false,
      "special": true
    },
    {
      "id": 3,
      "content": "<|UNK|>",
      "single_word": false,
      "lstrip": false,
      "rstrip": false,
      "normalized": false,
      "special": true
    }
  ],
  "normalizer": {
    "type": "NFKC"
  },
  "pre_tokenizer": {
    "type": "Sequence",
    "pretokenizers": [
      {
        "type": "UnicodeScripts"
      },
      {
        "type": "Digits",
        "individual_digits": true
      },
      {
        "type": "Metaspace",
        "replacement": "▁",
        "prepend_scheme": "never",
        "split": true
      }
    ]
  },
  "post_processor": {
    "type": "TemplateProcessing",
    "single": [
      {
        "SpecialToken": {
          "id": "<|BOS|>",
          "type_id": 0
        }
      },
      {
        "Sequence": {
          "id": "A",
          "type_id": 0
        }
      },
      {
        "SpecialToken": {
          "id": "<|EOS|>",
          "type_id": 0
        }
      }
    ],
    "pair": [
      {
        "SpecialToken": {
          "id": "<|BOS|>",
          "type_id": 0
        }
      },
      {
        "Sequence": {
          "id": "A",
          "type_id": 0
        }
      },
      {
        "SpecialToken": {
          "id": "<|EOS|>",
          "type_id": 0
        }
      },
      {
        "SpecialToken": {
          "id": "<|BOS|>",
          "type_id": 1
        }
      },
      {
        "Sequence": {
          "id": "B",
          "type_id": 1
        }
      },
      {
        "SpecialToken": {
          "id": "<|EOS|>",
          "type_id": 1
        }
      }
    ],
    "special_tokens": {
      "<|BOS|>": {
        "id": "<|BOS|>",
        "ids": [
          1
        ],
        "tokens": [
          "<|BOS|>"
        ]
      },
      "<|EOS|>": {
        "id": "<|EOS|>",
        "ids": [
          2
        ],
        "tokens": [
          "<|EOS|>"
        ]
      }
    }
  },
  "decoder": {
    "type": "Metaspace",
    "replacement": "▁",
    "prepend_scheme": "never",
    "split": true
  },
  "model": {
    "type": "BPE",
    "dropout": null,
    "unk_token": "<|UNK|>",
    "continuing_subword_prefix": null,
    "end_of_word_suffix": null,
    "fuse_unk": false,
    "byte_fallback": false,
    "ignore_merges": false,
    "vocab": {
      "<|PAD|>": 0,
      "<|BOS|>": 1,
      "<|EOS|>": 2,
      "<|UNK|>": 3,
      "!": 4,
      "\"": 5,
      "$": 6,
      "%": 7,
      "&": 8,
      "'": 9,
      "(": 10,
      ")": 11,
      "*": 12,
      "+": 13,
      ",": 14,
      "-": 15,
      ".": 16,
      "/": 17,
      "0": 18,
      "1": 19,
      "2": 20,
      "3": 21,
      "4": 22,
      "5": 23,
      "6": 24,
      "7": 25,
      "8": 26,
      "9": 27,
      ":": 28,
      ";": 29,
      "=": 30,
      "?": 31,
      "A": 32,
      "B": 33,
      "C": 34,
      "D": 35,
      "E": 36,
      "F": 37,
      "G": 38,
      "H": 39,
      "I": 40,
      "J": 41,
      "K": 42,
      "L": 43,
      "M": 44,
      "N": 45,
      "O": 46,
      "P": 47,
      "Q": 48,
      "R": 49,
      "S": 50,
      "T": 51,
      "U": 52,
      "V": 53,
      "W": 54,
      "X": 55,
      "Y": 56,
      "Z": 57,
      "_": 58,
      "a": 59,
      "b": 60,
      "c": 61,
      "d": 62,
      "e": 63,
      "f": 64,
      "g": 65,
      "h": 66,
      "i": 67,
      "j": 68,
      "k": 69,
      "l": 70,
      "m": 71,
      "n": 72,
      "o": 73,
      "p": 74,
      "q": 75,
      "r": 76,
      "s": 77,
      "t": 78,
      "u": 79,
      "v": 80,
      "w": 81,
      "x": 82,
      "y": 83,
      "z": 84,
      "~": 85,
      "м": 86,
      "ю": 87,
      "▁": 88,
      "拍": 89,
      "詩": 90,
      "가": 91,
      "각": 92,
      "간": 93,
      "갇": 94,
      "갈": 95,
      "갉": 96,
      "감": 97,
      "갑": 98,
      "값": 99,
      "갓": 100,
      "갔": 101,
      "강": 102,
      "갖": 103,
      "같": 104,
      "갚": 105,
      "갛": 106,
      "개": 107,
      "객": 108,
      "갠": 109,
      "갤": 110,
      "갯": 111,
      "갰": 112,
      "갱": 113,
      "갸": 114,
      "걀": 115,
      "걔": 116,
      "거": 117,
      "걱": 118,
      "건": 119,
      "걷": 120,
      "걸": 121,
      "검": 122,
      "겁": 123,
      "것": 124,
      "겅": 125,
      "겉": 126,
      "겊": 127,
      "게": 128,
      "겐": 129,
      "겔": 130,
      "겟": 131,
      "겠": 132,
      "겨": 133,
      "격": 134,
      "겪": 135,
      "견": 136,
      "결": 137,
      "겸": 138,
      "겹": 139,
      "겼": 140,
      "경": 141,
      "곁": 142,
      "계": 143,
      "고": 144,
      "곡": 145,
      "곤": 146,
      "곧": 147,
      "골": 148,
      "곰": 149,
      "곱": 150,
      "곳": 151,
      "공": 152,
      "과": 153,
      "곽": 154,
      "관": 155,
      "괄": 156,
      "광": 157,
      "괜": 158,
      "괭": 159,
      "괴": 160,
      "굉": 161,
      "교": 162,
      "구": 163,
      "국": 164,
      "군": 165,
      "굳": 166,
      "굴": 167,
      "굵": 168,
      "굶": 169,
      "굼": 170,
      "굽": 171,
      "굿": 172,
      "궁": 173,
      "궂": 174,
      "궈": 175,
      "권": 176,
      "궜": 177,
      "궤": 178,
      "귀": 179,
      "귄": 180,
      "귈": 181,
      "귐": 182,
      "귓": 183,
      "규": 184,
      "균": 185,
      "귤": 186,
      "그": 187,
      "극": 188,
      "근": 189,
      "글": 190,
      "긁": 191,
      "금": 192,
      "급": 193,
      "긋": 194,
      "긍": 195,
      "기": 196,
      "긴": 197,
      "긷": 198,
      "길": 199,
      "김": 200,
      "깁": 201,
      "깃": 202,
      "깅": 203,
      "깊": 204,
      "까": 205,
      "깍": 206,
      "깎": 207,
      "깐": 208,
      "깔": 209,
      "깜": 210,
      "깝": 211,
      "깡": 212,
      "깥": 213,
      "깨": 214,
      "깬": 215,
      "깰": 216,
      "깼": 217,
      "꺼": 218,
      "꺽": 219,
      "꺾": 220,
      "껌": 221,
      "껍": 222,
      "껏": 223,
      "껐": 224,
      "껑": 225,
      "께": 226,
      "껴": 227,
      "꼈": 228,
      "꼬": 229,
      "꼭": 230,
      "꼴": 231,
      "꼼": 232,
      "꼽": 233,
      "꽁": 234,
      "꽂": 235,
      "꽃": 236,
      "꽉": 237,
      "꽝": 238,
      "꽤": 239,
      "꽥": 240,
      "꾀": 241,
      "꾸": 242,
      "꾹": 243,
      "꾼": 244,
      "꿀": 245,
      "꿇": 246,
      "꿈": 247,
      "꿉": 248,
      "꿋": 249,
      "꿍": 250,
      "꿔": 251,
      "꿨": 252,
      "꿩": 253,
      "꿰": 254,
      "꿴": 255,
      "뀌": 256,
      "뀐": 257,
      "뀔": 258,
      "끄": 259,
      "끈": 260,
      "끊": 261,
      "끌": 262,
      "끓": 263,
      "끔": 264,
      "끕": 265,
      "끗": 266,
      "끝": 267,
      "끼": 268,
      "끽": 269,
      "낀": 270,
      "낄": 271,
      "낌": 272,
      "낍": 273,
      "나": 274,
      "낙": 275,
      "낚": 276,
      "난": 277,
      "날": 278,
      "낡": 279,
      "남": 280,
      "납": 281,
      "낫": 282,
      "났": 283,
      "낭": 284,
      "낮": 285,
      "낯": 286,
      "낱": 287,
      "낳": 288,
      "내": 289,
      "낵": 290,
      "낸": 291,
      "낼": 292,
      "냄": 293,
      "냅": 294,
      "냇": 295,
      "냈": 296,
      "냉": 297,
      "냐": 298,
      "냘": 299,
      "냠": 300,
      "냥": 301,
      "너": 302,
      "넉": 303,
      "넋": 304,
      "넌": 305,
      "널": 306,
      "넓": 307,
      "넘": 308,
      "넛": 309,
      "넜": 310,
      "넣": 311,
      "네": 312,
      "넥": 313,
      "넨": 314,
      "넬": 315,
      "넵": 316,
      "넷": 317,
      "넸": 318,
      "녀": 319,
      "녁": 320,
      "년": 321,
      "념": 322,
      "녔": 323,
      "녕": 324,
      "녘": 325,
      "노": 326,
      "녹": 327,
      "논": 328,
      "놀": 329,
      "놈": 330,
      "놉": 331,
      "농": 332,
      "높": 333,
      "놓": 334,
      "놔": 335,
      "놨": 336,
      "뇌": 337,
      "뇨": 338,
      "뇽": 339,
      "누": 340,
      "눅": 341,
      "눈": 342,
      "눌": 343,
      "눔": 344,
      "눕": 345,
      "눗": 346,
      "눙": 347,
      "눠": 348,
      "눴": 349,
      "뉘": 350,
      "뉜": 351,
      "뉴": 352,
      "늉": 353,
      "느": 354,
      "늑": 355,
      "는": 356,
      "늘": 357,
      "늙": 358,
      "늠": 359,
      "능": 360,
      "늦": 361,
      "늪": 362,
      "늬": 363,
      "니": 364,
      "닉": 365,
      "닌": 366,
      "닐": 367,
      "님": 368,
      "닙": 369,
      "닛": 370,
      "닝": 371,
      "다": 372,
      "닥": 373,
      "닦": 374,
      "단": 375,
      "닫": 376,
      "달": 377,
      "닭": 378,
      "닮": 379,
      "닳": 380,
      "담": 381,
      "답": 382,
      "닷": 383,
      "당": 384,
      "닻": 385,
      "닿": 386,
      "대": 387,
      "댁": 388,
      "댄": 389,
      "댈": 390,
      "댐": 391,
      "댑": 392,
      "댓": 393,
      "댔": 394,
      "댕": 395,
      "더": 396,
      "덕": 397,
      "던": 398,
      "덜": 399,
      "덟": 400,
      "덤": 401,
      "덥": 402,
      "덧": 403,
      "덩": 404,
      "덫": 405,
      "덮": 406,
      "데": 407,
      "덱": 408,
      "덴": 409,
      "델": 410,
      "뎁": 411,
      "뎌": 412,
      "뎠": 413,
      "도": 414,
      "독": 415,
      "돈": 416,
      "돋": 417,
      "돌": 418,
      "돔": 419,
      "돕": 420,
      "돗": 421,
      "동": 422,
      "돛": 423,
      "돼": 424,
      "됐": 425,
      "되": 426,
      "된": 427,
      "될": 428,
      "됨": 429,
      "됩": 430,
      "두": 431,
      "둑": 432,
      "둔": 433,
      "둘": 434,
      "둠": 435,
      "둡": 436,
      "둣": 437,
      "둥": 438,
      "둬": 439,
      "뒀": 440,
      "뒤": 441,
      "뒷": 442,
      "뒹": 443,
      "듀": 444,
      "드": 445,
      "득": 446,
      "든": 447,
      "듣": 448,
      "들": 449,
      "듬": 450,
      "듭": 451,
      "듯": 452,
      "등": 453,
      "디": 454,
      "딕": 455,
      "딘": 456,
      "딛": 457,
      "딜": 458,
      "딤": 459,
      "딥": 460,
      "딧": 461,
      "딨": 462,
      "딩": 463,
      "딪": 464,
      "따": 465,
      "딱": 466,
      "딴": 467,
      "딸": 468,
      "땀": 469,
      "땃": 470,
      "땄": 471,
      "땅": 472,
      "땋": 473,
      "때": 474,
      "땐": 475,
      "땔": 476,
      "땠": 477,
      "땡": 478,
      "떠": 479,
      "떡": 480,
      "떤": 481,
      "떨": 482,
      "떫": 483,
      "떴": 484,
      "떻": 485,
      "떼": 486,
      "뗀": 487,
      "뗄": 488,
      "뗏": 489,
      "뗐": 490,
      "또": 491,
      "똑": 492,
      "똘": 493,
      "똥": 494,
      "뚜": 495,
      "뚝": 496,
      "뚤": 497,
      "뚫": 498,
      "뚱": 499,
      "뛰": 500,
      "뛴": 501,
      "뛸": 502,
      "뜁": 503,
      "뜨": 504,
      "뜩": 505,
      "뜬": 506,
      "뜯": 507,
      "뜰": 508,
      "뜸": 509,
      "뜹": 510,
      "뜻": 511,
      "띄": 512,
      "띈": 513,
      "띠": 514,
      "띤": 515,
      "띱": 516,
      "띵": 517,
      "라": 518,
      "락": 519,
      "란": 520,
      "랄": 521,
      "람": 522,
      "랍": 523,
      "랐": 524,
      "랑": 525,
      "랗": 526,
      "래": 527,
      "랙": 528,
      "랜": 529,
      "램": 530,
      "랩": 531,
      "랫": 532,
      "랬": 533,
      "랭": 534,
      "랴": 535,
      "략": 536,
      "량": 537,
      "러": 538,
      "럭": 539,
      "런": 540,
      "럴": 541,
      "럼": 542,
      "럽": 543,
      "럿": 544,
      "렀": 545,
      "렁": 546,
      "렇": 547,
      "레": 548,
      "렉": 549,
      "렌": 550,
      "렐": 551,
      "렘": 552,
      "렙": 553,
      "렛": 554,
      "려": 555,
      "력": 556,
      "련": 557,
      "렬": 558,
      "렴": 559,
      "렵": 560,
      "렷": 561,
      "렸": 562,
      "령": 563,
      "례": 564,
      "로": 565,
      "록": 566,
      "론": 567,
      "롤": 568,
      "롬": 569,
      "롭": 570,
      "롯": 571,
      "롱": 572,
      "뢰": 573,
      "료": 574,
      "룡": 575,
      "루": 576,
      "룩": 577,
      "룬": 578,
      "룰": 579,
      "룸": 580,
      "룹": 581,
      "룻": 582,
      "룽": 583,
      "뤄": 584,
      "뤘": 585,
      "뤼": 586,
      "류": 587,
      "륙": 588,
      "륜": 589,
      "률": 590,
      "륨": 591,
      "륭": 592,
      "르": 593,
      "륵": 594,
      "른": 595,
      "를": 596,
      "름": 597,
      "릅": 598,
      "릇": 599,
      "릉": 600,
      "릎": 601,
      "리": 602,
      "릭": 603,
      "린": 604,
      "릴": 605,
      "림": 606,
      "립": 607,
      "릿": 608,
      "링": 609,
      "마": 610,
      "막": 611,
      "만": 612,
      "많": 613,
      "맏": 614,
      "말": 615,
      "맑": 616,
      "맘": 617,
      "맙": 618,
      "맛": 619,
      "망": 620,
      "맞": 621,
      "맡": 622,
      "맣": 623,
      "매": 624,
      "맥": 625,
      "맨": 626,
      "맬": 627,
      "맴": 628,
      "맵": 629,
      "맷": 630,
      "맸": 631,
      "맹": 632,
      "맺": 633,
      "머": 634,
      "먹": 635,
      "먼": 636,
      "멀": 637,
      "멈": 638,
      "멋": 639,
      "멍": 640,
      "멎": 641,
      "메": 642,
      "멕": 643,
      "멘": 644,
      "멜": 645,
      "멤": 646,
      "멧": 647,
      "멩": 648,
      "며": 649,
      "면": 650,
      "멸": 651,
      "몄": 652,
      "명": 653,
      "몇": 654,
      "모": 655,
      "목": 656,
      "몫": 657,
      "몬": 658,
      "몰": 659,
      "몸": 660,
      "몹": 661,
      "못": 662,
      "몽": 663,
      "묘": 664,
      "무": 665,
      "묵": 666,
      "묶": 667,
      "문": 668,
      "묻": 669,
      "물": 670,
      "묽": 671,
      "뭅": 672,
      "뭇": 673,
      "뭉": 674,
      "뭍": 675,
      "뭐": 676,
      "뭔": 677,
      "뭘": 678,
      "뮤": 679,
      "뮬": 680,
      "므": 681,
      "믈": 682,
      "미": 683,
      "믹": 684,
      "민": 685,
      "믿": 686,
      "밀": 687,
      "밈": 688,
      "밉": 689,
      "밋": 690,
      "밌": 691,
      "밍": 692,
      "및": 693,
      "밑": 694,
      "바": 695,
      "박": 696,
      "밖": 697,
      "반": 698,
      "받": 699,
      "발": 700,
      "밝": 701,
      "밟": 702,
      "밤": 703,
      "밥": 704,
      "밧": 705,
      "방": 706,
      "밭": 707,
      "배": 708,
      "백": 709,
      "밴": 710,
      "밸": 711,
      "뱀": 712,
      "뱁": 713,
      "뱃": 714,
      "뱅": 715,
      "뱉": 716,
      "버": 717,
      "벅": 718,
      "번": 719,
      "벌": 720,
      "범": 721,
      "법": 722,
      "벗": 723,
      "벙": 724,
      "벚": 725,
      "베": 726,
      "벡": 727,
      "벤": 728,
      "벨": 729,
      "벳": 730,
      "벵": 731,
      "벼": 732,
      "벽": 733,
      "변": 734,
      "별": 735,
      "볍": 736,
      "볏": 737,
      "볐": 738,
      "병": 739,
      "볕": 740,
      "보": 741,
      "복": 742,
      "볶": 743,
      "본": 744,
      "볼": 745,
      "봄": 746,
      "봅": 747,
      "봇": 748,
      "봉": 749,
      "봐": 750,
      "봤": 751,
      "봬": 752,
      "뵈": 753,
      "뵐": 754,
      "뵙": 755,
      "부": 756,
      "북": 757,
      "분": 758,
      "불": 759,
      "붉": 760,
      "붐": 761,
      "붓": 762,
      "붕": 763,
      "붙": 764,
      "뷰": 765,
      "뷸": 766,
      "브": 767,
      "븐": 768,
      "블": 769,
      "비": 770,
      "빅": 771,
      "빈": 772,
      "빌": 773,
      "빔": 774,
      "빕": 775,
      "빗": 776,
      "빙": 777,
      "빚": 778,
      "빛": 779,
      "빠": 780,
      "빡": 781,
      "빤": 782,
      "빨": 783,
      "빴": 784,
      "빵": 785,
      "빻": 786,
      "빼": 787,
      "빽": 788,
      "뺏": 789,
      "뺐": 790,
      "뺨": 791,
      "뻐": 792,
      "뻑": 793,
      "뻔": 794,
      "뻗": 795,
      "뻘": 796,
      "뻣": 797,
      "뻤": 798,
      "뼈": 799,
      "뼉": 800,
      "뼘": 801,
      "뽀": 802,
      "뽁": 803,
      "뽐": 804,
      "뽑": 805,
      "뽕": 806,
      "뾰": 807,
      "뿌": 808,
      "뿍": 809,
      "뿐": 810,
      "뿔": 811,
      "뿜": 812,
      "뿡": 813,
      "쁘": 814,
      "쁜": 815,
      "쁠": 816,
      "쁨": 817,
      "쁩": 818,
      "삐": 819,
      "삑": 820,
      "삔": 821,
      "삘": 822,
      "사": 823,
      "삭": 824,
      "산": 825,
      "살": 826,
      "삶": 827,
      "삼": 828,
      "삽": 829,
      "삿": 830,
      "샀": 831,
      "상": 832,
      "샅": 833,
      "새": 834,
      "색": 835,
      "샌": 836,
      "샐": 837,
      "샘": 838,
      "샛": 839,
      "생": 840,
      "샤": 841,
      "샨": 842,
      "샬": 843,
      "샴": 844,
      "샵": 845,
      "샷": 846,
      "샹": 847,
      "섀": 848,
      "서": 849,
      "석": 850,
      "섞": 851,
      "선": 852,
      "섣": 853,
      "설": 854,
      "섬": 855,
      "섭": 856,
      "섯": 857,
      "섰": 858,
      "성": 859,
      "세": 860,
      "섹": 861,
      "센": 862,
      "셀": 863,
      "셈": 864,
      "셉": 865,
      "셋": 866,
      "셌": 867,
      "셔": 868,
      "션": 869,
      "셜": 870,
      "셨": 871,
      "셰": 872,
      "셸": 873,
      "소": 874,
      "속": 875,
      "손": 876,
      "솔": 877,
      "솜": 878,
      "솝": 879,
      "솟": 880,
      "송": 881,
      "솥": 882,
      "쇄": 883,
      "쇠": 884,
      "쇼": 885,
      "숀": 886,
      "숄": 887,
      "숍": 888,
      "숏": 889,
      "수": 890,
      "숙": 891,
      "순": 892,
      "숟": 893,
      "술": 894,
      "숨": 895,
      "숩": 896,
      "숫": 897,
      "숭": 898,
      "숯": 899,
      "숲": 900,
      "숴": 901,
      "쉈": 902,
      "쉐": 903,
      "쉘": 904,
      "쉬": 905,
      "쉭": 906,
      "쉰": 907,
      "쉴": 908,
      "쉼": 909,
      "쉽": 910,
      "쉿": 911,
      "슈": 912,
      "슉": 913,
      "슐": 914,
      "슙": 915,
      "슛": 916,
      "슝": 917,
      "스": 918,
      "슥": 919,
      "슨": 920,
      "슬": 921,
      "슭": 922,
      "슴": 923,
      "습": 924,
      "슷": 925,
      "승": 926,
      "시": 927,
      "식": 928,
      "신": 929,
      "싣": 930,
      "실": 931,
      "싫": 932,
      "심": 933,
      "십": 934,
      "싯": 935,
      "싱": 936,
      "싶": 937,
      "싸": 938,
      "싹": 939,
      "싼": 940,
      "쌀": 941,
      "쌉": 942,
      "쌌": 943,
      "쌍": 944,
      "쌓": 945,
      "쌔": 946,
      "쌩": 947,
      "썅": 948,
      "써": 949,
      "썩": 950,
      "썬": 951,
      "썰": 952,
      "썸": 953,
      "썹": 954,
      "썼": 955,
      "썽": 956,
      "쎄": 957,
      "쏘": 958,
      "쏙": 959,
      "쏜": 960,
      "쏟": 961,
      "쏠": 962,
      "쏩": 963,
      "쏴": 964,
      "쐈": 965,
      "쑤": 966,
      "쑥": 967,
      "쓰": 968,
      "쓱": 969,
      "쓴": 970,
      "쓸": 971,
      "씀": 972,
      "씁": 973,
      "씌": 974,
      "씨": 975,
      "씩": 976,
      "씬": 977,
      "씰": 978,
      "씹": 979,
      "씻": 980,
      "씽": 981,
      "아": 982,
      "악": 983,
      "안": 984,
      "앉": 985,
      "않": 986,
      "알": 987,
      "앓": 988,
      "암": 989,
      "압": 990,
      "앗": 991,
      "았": 992,
      "앙": 993,
      "앞": 994,
      "애": 995,
      "액": 996,
      "앤": 997,
      "앨": 998,
      "앰": 999,
      "앱": 1000,
      "앴": 1001,
      "앵": 1002,
      "야": 1003,
      "약": 1004,
      "얀": 1005,
      "얄": 1006,
      "얇": 1007,
      "얌": 1008,
      "얏": 1009,
      "양": 1010,
      "얕": 1011,
      "얗": 1012,
      "얘": 1013,
      "어": 1014,
      "억": 1015,
      "언": 1016,
      "얹": 1017,
      "얻": 1018,
      "얼": 1019,
      "얽": 1020,
      "엄": 1021,
      "업": 1022,
      "없": 1023,
      "엇": 1024,
      "었": 1025,
      "엉": 1026,
      "엌": 1027,
      "엎": 1028,
      "에": 1029,
      "엑": 1030,
      "엔": 1031,
      "엘": 1032,
      "엠": 1033,
      "엣": 1034,
      "엥": 1035,
      "여": 1036,
      "역": 1037,
      "엮": 1038,
      "연": 1039,
      "열": 1040,
      "염": 1041,
      "엽": 1042,
      "엾": 1043,
      "엿": 1044,
      "였": 1045,
      "영": 1046,
      "옅": 1047,
      "옆": 1048,
      "옇": 1049,
      "예": 1050,
      "옐": 1051,
      "옛": 1052,
      "오": 1053,
      "옥": 1054,
      "온": 1055,
      "올": 1056,
      "옮": 1057,
      "옳": 1058,
      "옴": 1059,
      "옵": 1060,
      "옷": 1061,
      "옹": 1062,
      "와": 1063,
      "왁": 1064,
      "완": 1065,
      "왈": 1066,
      "왐": 1067,
      "왔": 1068,
      "왕": 1069,
      "왜": 1070,
      "왝": 1071,
      "왠": 1072,
      "왱": 1073,
      "외": 1074,
      "왼": 1075,
      "요": 1076,
      "욕": 1077,
      "용": 1078,
      "우": 1079,
      "욱": 1080,
      "운": 1081,
      "울": 1082,
      "움": 1083,
      "웁": 1084,
      "웃": 1085,
      "웅": 1086,
      "워": 1087,
      "원": 1088,
      "월": 1089,
      "웜": 1090,
      "웠": 1091,
      "웡": 1092,
      "웨": 1093,
      "웩": 1094,
      "웬": 1095,
      "웰": 1096,
      "웹": 1097,
      "웻": 1098,
      "웽": 1099,
      "윁": 1100,
      "위": 1101,
      "윅": 1102,
      "윈": 1103,
      "윌": 1104,
      "윔": 1105,
      "윗": 1106,
      "윙": 1107,
      "유": 1108,
      "육": 1109,
      "윤": 1110,
      "윧": 1111,
      "율": 1112,
      "윭": 1113,
      "윰": 1114,
      "융": 1115,
      "으": 1116,
      "윽": 1117,
      "윾": 1118,
      "은": 1119,
      "을": 1120,
      "읊": 1121,
      "음": 1122,
      "읍": 1123,
      "응": 1124,
      "의": 1125,
      "이": 1126,
      "익": 1127,
      "인": 1128,
      "일": 1129,
      "읽": 1130,
      "잃": 1131,
      "임": 1132,
      "입": 1133,
      "잇": 1134,
      "있": 1135,
      "잉": 1136,
      "잊": 1137,
      "잎": 1138,
      "자": 1139,
      "작": 1140,
      "잔": 1141,
      "잖": 1142,
      "잘": 1143,
      "잠": 1144,
      "잡": 1145,
      "잣": 1146,
      "잤": 1147,
      "장": 1148,
      "잦": 1149,
      "재": 1150,
      "잭": 1151,
      "잰": 1152,
      "잴": 1153,
      "잼": 1154,
      "잽": 1155,
      "잿": 1156,
      "쟀": 1157,
      "쟁": 1158,
      "쟈": 1159,
      "쟌": 1160,
      "쟐": 1161,
      "저": 1162,
      "적": 1163,
      "전": 1164,
      "절": 1165,
      "젊": 1166,
      "점": 1167,
      "접": 1168,
      "젓": 1169,
      "정": 1170,
      "젖": 1171,
      "제": 1172,
      "젝": 1173,
      "젠": 1174,
      "젤": 1175,
      "젬": 1176,
      "젯": 1177,
      "젱": 1178,
      "져": 1179,
      "졌": 1180,
      "조": 1181,
      "족": 1182,
      "존": 1183,
      "졸": 1184,
      "좀": 1185,
      "좁": 1186,
      "종": 1187,
      "좇": 1188,
      "좋": 1189,
      "좌": 1190,
      "죄": 1191,
      "죠": 1192,
      "주": 1193,
      "죽": 1194,
      "준": 1195,
      "줄": 1196,
      "줌": 1197,
      "줍": 1198,
      "줏": 1199,
      "중": 1200,
      "줘": 1201,
      "줬": 1202,
      "줴": 1203,
      "쥐": 1204,
      "쥔": 1205,
      "쥘": 1206,
      "쥣": 1207,
      "쥬": 1208,
      "쥴": 1209,
      "즈": 1210,
      "즉": 1211,
      "즌": 1212,
      "즐": 1213,
      "즘": 1214,
      "즙": 1215,
      "증": 1216,
      "지": 1217,
      "직": 1218,
      "진": 1219,
      "짇": 1220,
      "질": 1221,
      "짊": 1222,
      "짐": 1223,
      "집": 1224,
      "짓": 1225,
      "징": 1226,
      "짖": 1227,
      "짙": 1228,
      "짚": 1229,
      "짜": 1230,
      "짝": 1231,
      "짠": 1232,
      "짤": 1233,
      "짦": 1234,
      "짧": 1235,
      "짭": 1236,
      "짰": 1237,
      "짱": 1238,
      "째": 1239,
      "짹": 1240,
      "쨈": 1241,
      "쨌": 1242,
      "쨍": 1243,
      "쩌": 1244,
      "쩍": 1245,
      "쩔": 1246,
      "쩝": 1247,
      "쩡": 1248,
      "쪄": 1249,
      "쪘": 1250,
      "쪼": 1251,
      "쪽": 1252,
      "쫀": 1253,
      "쫄": 1254,
      "쫑": 1255,
      "쫓": 1256,
      "쫙": 1257,
      "쬐": 1258,
      "쭉": 1259,
      "쭐": 1260,
      "쭤": 1261,
      "쯔": 1262,
      "쯤": 1263,
      "쯩": 1264,
      "찌": 1265,
      "찍": 1266,
      "찐": 1267,
      "찔": 1268,
      "찜": 1269,
      "찝": 1270,
      "찡": 1271,
      "찢": 1272,
      "찧": 1273,
      "차": 1274,
      "착": 1275,
      "찬": 1276,
      "찮": 1277,
      "찰": 1278,
      "참": 1279,
      "찹": 1280,
      "찻": 1281,
      "찼": 1282,
      "창": 1283,
      "찾": 1284,
      "채": 1285,
      "책": 1286,
      "챈": 1287,
      "챌": 1288,
      "챔": 1289,
      "챕": 1290,
      "챗": 1291,
      "챘": 1292,
      "챙": 1293,
      "처": 1294,
      "척": 1295,
      "천": 1296,
      "철": 1297,
      "첨": 1298,
      "첩": 1299,
      "첫": 1300,
      "청": 1301,
      "체": 1302,
      "첼": 1303,
      "쳇": 1304,
      "쳉": 1305,
      "쳐": 1306,
      "쳤": 1307,
      "초": 1308,
      "촉": 1309,
      "촌": 1310,
      "촘": 1311,
      "촛": 1312,
      "총": 1313,
      "촤": 1314,
      "촬": 1315,
      "최": 1316,
      "쵸": 1317,
      "추": 1318,
      "축": 1319,
      "춘": 1320,
      "출": 1321,
      "춤": 1322,
      "춥": 1323,
      "춧": 1324,
      "충": 1325,
      "춰": 1326,
      "췄": 1327,
      "취": 1328,
      "츄": 1329,
      "츠": 1330,
      "측": 1331,
      "츰": 1332,
      "층": 1333,
      "치": 1334,
      "칙": 1335,
      "친": 1336,
      "칠": 1337,
      "침": 1338,
      "칩": 1339,
      "칫": 1340,
      "칭": 1341,
      "카": 1342,
      "칵": 1343,
      "칸": 1344,
      "칼": 1345,
      "캄": 1346,
      "캉": 1347,
      "캐": 1348,
      "캔": 1349,
      "캘": 1350,
      "캠": 1351,
      "캡": 1352,
      "캣": 1353,
      "캥": 1354,
      "캬": 1355,
      "커": 1356,
      "컨": 1357,
      "컬": 1358,
      "컴": 1359,
      "컵": 1360,
      "컷": 1361,
      "컸": 1362,
      "컹": 1363,
      "케": 1364,
      "켄": 1365,
      "켈": 1366,
      "켓": 1367,
      "켜": 1368,
      "켠": 1369,
      "켤": 1370,
      "켭": 1371,
      "켰": 1372,
      "코": 1373,
      "콕": 1374,
      "콘": 1375,
      "콜": 1376,
      "콤": 1377,
      "콥": 1378,
      "콧": 1379,
      "콩": 1380,
      "콰": 1381,
      "콸": 1382,
      "쾅": 1383,
      "쾌": 1384,
      "쿠": 1385,
      "쿡": 1386,
      "쿤": 1387,
      "쿨": 1388,
      "쿱": 1389,
      "쿵": 1390,
      "쿼": 1391,
      "퀘": 1392,
      "퀴": 1393,
      "퀵": 1394,
      "퀸": 1395,
      "퀼": 1396,
      "큐": 1397,
      "크": 1398,
      "큰": 1399,
      "클": 1400,
      "큼": 1401,
      "큽": 1402,
      "킁": 1403,
      "키": 1404,
      "킥": 1405,
      "킨": 1406,
      "킬": 1407,
      "킴": 1408,
      "킵": 1409,
      "킷": 1410,
      "킹": 1411,
      "타": 1412,
      "탁": 1413,
      "탄": 1414,
      "탈": 1415,
      "탉": 1416,
      "탐": 1417,
      "탑": 1418,
      "탓": 1419,
      "탔": 1420,
      "탕": 1421,
      "태": 1422,
      "택": 1423,
      "탠": 1424,
      "탤": 1425,
      "탬": 1426,
      "탭": 1427,
      "탰": 1428,
      "탱": 1429,
      "터": 1430,
      "턱": 1431,
      "턴": 1432,
      "털": 1433,
      "텀": 1434,
      "텁": 1435,
      "텅": 1436,
      "테": 1437,
      "텍": 1438,
      "텐": 1439,
      "텔": 1440,
      "템": 1441,
      "텝": 1442,
      "텨": 1443,
      "텼": 1444,
      "토": 1445,
      "톡": 1446,
      "톤": 1447,
      "톨": 1448,
      "톰": 1449,
      "톱": 1450,
      "통": 1451,
      "퇴": 1452,
      "투": 1453,
      "툭": 1454,
      "툰": 1455,
      "툴": 1456,
      "툼": 1457,
      "툽": 1458,
      "퉁": 1459,
      "퉜": 1460,
      "튀": 1461,
      "튄": 1462,
      "튈": 1463,
      "튕": 1464,
      "튜": 1465,
      "튤": 1466,
      "튬": 1467,
      "트": 1468,
      "특": 1469,
      "튼": 1470,
      "튿": 1471,
      "틀": 1472,
      "틈": 1473,
      "틋": 1474,
      "틔": 1475,
      "티": 1476,
      "틱": 1477,
      "틴": 1478,
      "틸": 1479,
      "팀": 1480,
      "팁": 1481,
      "팃": 1482,
      "팅": 1483,
      "파": 1484,
      "팍": 1485,
      "팎": 1486,
      "판": 1487,
      "팔": 1488,
      "팜": 1489,
      "팝": 1490,
      "팟": 1491,
      "팠": 1492,
      "팡": 1493,
      "패": 1494,
      "팩": 1495,
      "팬": 1496,
      "팸": 1497,
      "팻": 1498,
      "팽": 1499,
      "퍼": 1500,
      "퍽": 1501,
      "펀": 1502,
      "펄": 1503,
      "펌": 1504,
      "펐": 1505,
      "펑": 1506,
      "페": 1507,
      "펙": 1508,
      "펜": 1509,
      "펠": 1510,
      "펩": 1511,
      "펫": 1512,
      "펭": 1513,
      "펴": 1514,
      "편": 1515,
      "펼": 1516,
      "폈": 1517,
      "평": 1518,
      "폐": 1519,
      "포": 1520,
      "폭": 1521,
      "폰": 1522,
      "폴": 1523,
      "폼": 1524,
      "폿": 1525,
      "퐁": 1526,
      "표": 1527,
      "푯": 1528,
      "푸": 1529,
      "푹": 1530,
      "푼": 1531,
      "풀": 1532,
      "품": 1533,
      "풉": 1534,
      "풋": 1535,
      "풍": 1536,
      "퓐": 1537,
      "퓔": 1538,
      "퓨": 1539,
      "프": 1540,
      "픈": 1541,
      "플": 1542,
      "픔": 1543,
      "픕": 1544,
      "피": 1545,
      "픽": 1546,
      "핀": 1547,
      "필": 1548,
      "핌": 1549,
      "핍": 1550,
      "핏": 1551,
      "핑": 1552,
      "하": 1553,
      "학": 1554,
      "한": 1555,
      "할": 1556,
      "핥": 1557,
      "함": 1558,
      "합": 1559,
      "핫": 1560,
      "항": 1561,
      "해": 1562,
      "핵": 1563,
      "핸": 1564,
      "햄": 1565,
      "햇": 1566,
      "했": 1567,
      "행": 1568,
      "향": 1569,
      "허": 1570,
      "헉": 1571,
      "헌": 1572,
      "헐": 1573,
      "험": 1574,
      "헛": 1575,
      "헝": 1576,
      "헤": 1577,
      "헥": 1578,
      "헨": 1579,
      "헬": 1580,
      "헷": 1581,
      "헹": 1582,
      "혀": 1583,
      "현": 1584,
      "혈": 1585,
      "혐": 1586,
      "협": 1587,
      "혔": 1588,
      "형": 1589,
      "혜": 1590,
      "호": 1591,
      "혹": 1592,
      "혼": 1593,
      "홀": 1594,
      "홈": 1595,
      "홉": 1596,
      "홍": 1597,
      "화": 1598,
      "확": 1599,
      "환": 1600,
      "활": 1601,
      "황": 1602,
      "횃": 1603,
      "회": 1604,
      "획": 1605,
      "횟": 1606,
      "횡": 1607,
      "효": 1608,
      "후": 1609,
      "훅": 1610,
      "훈": 1611,
      "훌": 1612,
      "훑": 1613,
      "훔": 1614,
      "훗": 1615,
      "훨": 1616,
      "훼": 1617,
      "휘": 1618,
      "휙": 1619,
      "휠": 1620,
      "휩": 1621,
      "휴": 1622,
      "흉": 1623,
      "흐": 1624,
      "흑": 1625,
      "흔": 1626,
      "흘": 1627,
      "흙": 1628,
      "흠": 1629,
      "흡": 1630,
      "흥": 1631,
      "흩": 1632,
      "희": 1633,
      "흰": 1634,
      "히": 1635,
      "힌": 1636,
      "힐": 1637,
      "힘": 1638,
      "힙": 1639,
      "힝": 1640,
      "�": 1641,
      "니다": 1642,
      "어요": 1643,
      "습니다": 1644,
      "▁있": 1645,
      "▁그": 1646,
      "들은": 1647,
      "했습니다": 1648,
      "▁말": 1649,
      "▁\"": 1650,
      "▁있었": 1651,
      "▁가": 1652,
      "했어요": 1653,
      "▁보": 1654,
      "그들은": 1655,
      "▁것": 1656,
      "▁놀": 1657,
      "▁날": 1658,
      "▁수": 1659,
      "엄마": 1660,
      "▁나": 1661,
      "에게": 1662,
      "▁친": 1663,
      "에서": 1664,
      "▁소": 1665,
      "▁좋": 1666,
      "녀는": 1667,
      "답니다": 1668,
      "그는": 1669,
      "▁이": 1670,
      "▁다": 1671,
      "▁아": 1672,
      "▁친구": 1673,
      "라고": 1674,
      "라는": 1675,
      "지만": 1676,
      "릴리": 1677,
      "그녀는": 1678,
      "▁싶": 1679,
      "어느": 1680,
      "했죠": 1681,
      "으로": 1682,
      "▁것을": 1683,
      "함께": 1684,
      "▁좋아": 1685,
      "▁큰": 1686,
      "▁하": 1687,
      "▁사": 1688,
      "작은": 1689,
      "▁함께": 1690,
      "▁매": 1691,
      "▁새": 1692,
      "▁시": 1693,
      "▁자": 1694,
      "팀은": 1695,
      "▁공": 1696,
      "었어요": 1697,
      "▁않": 1698,
      ".\"": 1699,
      "!\"": 1700,
      "었습니다": 1701,
      "▁행": 1702,
      "▁기": 1703,
      "▁정": 1704,
      "▁물": 1705,
      "▁엄마": 1706,
      "▁행복": 1707,
      "았어요": 1708,
      "▁모": 1709,
      "▁있었어요": 1710,
      "▁고": 1711,
      "▁장": 1712,
      "▁매우": 1713,
      "▁작은": 1714,
      "▁도": 1715,
      "▁거": 1716,
      "난감": 1717,
      "▁만": 1718,
      "▁들": 1719,
      "았습니다": 1720,
      "▁걸": 1721,
      "▁무": 1722,
      "▁해": 1723,
      "▁안": 1724,
      "하고": 1725,
      "▁정말": 1726,
      "▁마": 1727,
      "▁있었습니다": 1728,
      "지요": 1729,
      "▁찾": 1730,
      "▁장난감": 1731,
      "▁말했습니다": 1732,
      "▁바": 1733,
      "▁웃": 1734,
      "▁되": 1735,
      "▁생": 1736,
      "▁싶어": 1737,
      "양이": 1738,
      "▁위": 1739,
      "▁지": 1740,
      "▁집": 1741,
      "들을": 1742,
      "?\"": 1743,
      "▁노": 1744,
      "▁발": 1745,
      "▁너": 1746,
      "▁개": 1747,
      "▁있는": 1748,
      "▁가지": 1749,
      "으며": 1750,
      "▁일": 1751,
      "▁어": 1752,
      "릴리는": 1753,
      "▁더": 1754,
      "옛날": 1755,
      "들이": 1756,
      "▁주": 1757,
      "▁나무": 1758,
      "다는": 1759,
      "▁시작": 1760,
      "▁재": 1761,
      "했답니다": 1762,
      "리를": 1763,
      "▁슬": 1764,
      "▁대": 1765,
      "▁발견": 1766,
      "하는": 1767,
      "▁많": 1768,
      "▁부": 1769,
      "맥스": 1770,
      "▁생각": 1771,
      "▁때": 1772,
      "리고": 1773,
      "▁달": 1774,
      "▁보고": 1775,
      "▁없": 1776,
      "톰은": 1777,
      "▁미": 1778,
      "하지만": 1779,
      "▁말했어요": 1780,
      "▁너무": 1781,
      "리는": 1782,
      "이라는": 1783,
      "다고": 1784,
      "▁돌": 1785,
      "▁가지고": 1786,
      "기를": 1787,
      "▁살": 1788,
      "▁소년": 1789,
      "▁즐": 1790,
      "▁상": 1791,
      "하며": 1792,
      "▁재미": 1793,
      "▁자신": 1794,
      "▁한": 1795,
      "하게": 1796,
      "▁했습니다": 1797,
      "▁고양이": 1798,
      "▁소녀": 1799,
      "었죠": 1800,
      "▁다시": 1801,
      "▁먹": 1802,
      "▁만들": 1803,
      "▁알": 1804,
      "▁배": 1805,
      "▁뛰": 1806,
      "▁조": 1807,
      "갔어요": 1808,
      "스팟": 1809,
      "▁재미있": 1810,
      "▁놀고": 1811,
      "▁내": 1812,
      "해요": 1813,
      "▁이름": 1814,
      "▁크": 1815,
      "▁공원": 1816,
      "▁있어": 1817,
      "▁동": 1818,
      "▁팀": 1819,
      "▁많은": 1820,
      "▁친구가": 1821,
      "그래": 1822,
      "로운": 1823,
      "▁노는": 1824,
      "▁옛": 1825,
      "▁옛적": 1826,
      "▁웃으며": 1827,
      "▁도와": 1828,
      "▁슬퍼": 1829,
      "▁했어요": 1830,
      "▁옛적에": 1831,
      "▁무서": 1832,
      "그리고": 1833,
      "▁소년이": 1834,
      "▁오": 1835,
      "▁이름의": 1836,
      "하지": 1837,
      "기로": 1838,
      "려고": 1839,
      "▁방": 1840,
      "▁소녀가": 1841,
      "▁했": 1842,
      "자를": 1843,
      "▁올": 1844,
      "▁할": 1845,
      "▁시간": 1846,
      "면서": 1847,
      "▁말했죠": 1848,
      "▁차": 1849,
      "▁여": 1850,
      "▁열": 1851,
      "▁빨": 1852,
      "미는": 1853,
      "들과": 1854,
      "▁모두": 1855,
      "▁봤": 1856,
      "▁못": 1857,
      "▁들어": 1858,
      "▁종": 1859,
      "졌어요": 1860,
      "▁기뻐": 1861,
      "▁아이": 1862,
      "▁찾아": 1863,
      "▁즐거": 1864,
      "갔습니다": 1865,
      "루시": 1866,
      "▁보았습니다": 1867,
      "▁신": 1868,
      "▁예": 1869,
      ",\"": 1870,
      "▁같": 1871,
      "엄마는": 1872,
      "▁릴리": 1873,
      "▁공을": 1874,
      "▁있을": 1875,
      "▁크고": 1876,
      "▁돌아": 1877,
      "한때": 1878,
      "▁뛰어": 1879,
      "해서": 1880,
      "맥스는": 1881,
      "리가": 1882,
      "▁강": 1883,
      "▁그녀": 1884,
      "에는": 1885,
      "▁사람": 1886,
      "▁구": 1887,
      "했지요": 1888,
      "▁것이": 1889,
      "▁장난감을": 1890,
      "▁보냈": 1891,
      "그래서": 1892,
      "▁어린": 1893,
      "▁새로운": 1894,
      "▁벌": 1895,
      "나는": 1896,
      "▁톰": 1897,
      "▁벤": 1898,
      "거든": 1899,
      "▁불": 1900,
      "▁무서워": 1901,
      "이를": 1902,
      "▁위해": 1903,
      "▁결": 1904,
      "이는": 1905,
      "▁남": 1906,
      "▁갔어요": 1907,
      "미아": 1908,
      "▁항": 1909,
      "▁행복해": 1910,
      "▁아주": 1911,
      "▁대답": 1912,
      "▁느": 1913,
      "았죠": 1914,
      "▁재미있게": 1915,
      "▁엄마는": 1916,
      "▁손": 1917,
      "▁시간을": 1918,
      "▁파": 1919,
      "거든요": 1920,
      "▁하고": 1921,
      "▁즐거운": 1922,
      "▁가져": 1923,
      "▁서": 1924,
      "었답니다": 1925,
      "▁계": 1926,
      "▁않았어요": 1927,
      "▁화": 1928,
      "▁자신의": 1929,
      "▁봤어요": 1930,
      "▁인": 1931,
      "▁일이": 1932,
      "▁다른": 1933,
      "▁샘": 1934,
      "▁말을": 1935,
      "▁게": 1936,
      "▁밖": 1937,
      "▁살고": 1938,
      "▁따": 1939,
      "▁비": 1940,
      "었고": 1941,
      "▁종일": 1942,
      "렸어요": 1943,
      "▁보여": 1944,
      "▁몰": 1945,
      "▁깨": 1946,
      "그런": 1947,
      "이야": 1948,
      "▁우": 1949,
      "▁감": 1950,
      "▁집으로": 1951,
      "▁달려": 1952,
      "스팟은": 1953,
      "▁반": 1954,
      "▁거야": 1955,
      "들에게": 1956,
      "했고": 1957,
      "정말": 1958,
      "그런데": 1959,
      "▁놀았어요": 1960,
      "▁있었죠": 1961,
      "▁건": 1962,
      "▁그들은": 1963,
      "▁엄마에게": 1964,
      "▁사랑": 1965,
      "▁아빠": 1966,
      "다가": 1967,
      "고양이": 1968,
      "▁높": 1969,
      "▁이상": 1970,
      "예요": 1971,
      "▁듣": 1972,
      "▁잡": 1973,
      "▁좋아했죠": 1974,
      "▁발견했어요": 1975,
      "▁맛": 1976,
      "▁항상": 1977,
      "▁울": 1978,
      "에이": 1979,
      "▁물었어요": 1980,
      "▁하루": 1981,
      "스러": 1982,
      "▁도와주": 1983,
      "토끼": 1984,
      "분이": 1985,
      "마워": 1986,
      "▁세": 1987,
      "▁데": 1988,
      "▁연": 1989,
      "▁떨": 1990,
      "이크": 1991,
      "▁빨간": 1992,
      "아지": 1993,
      "▁음": 1994,
      "▁행복하게": 1995,
      "▁잘": 1996,
      "움을": 1997,
      "후로": 1998,
      "▁소리를": 1999,
      "▁새는": 2000,
      "셨어요": 2001,
      "자는": 2002,
      "식을": 2003,
      "▁동물": 2004,
      "새는": 2005,
      "▁이야": 2006,
      "▁멋": 2007,
      "▁문": 2008,
      "동차": 2009,
      "▁않았": 2010,
      "▁엄마가": 2011,
      "팀과": 2012,
      "까요": 2013,
      "엄마가": 2014,
      "▁물고": 2015,
      "안녕": 2016,
      "▁전": 2017,
      "▁들고": 2018,
      "들의": 2019,
      "▁올라": 2020,
      "왔어요": 2021,
      "▁미소": 2022,
      "개를": 2023,
      "▁포": 2024,
      "▁했죠": 2025,
      "▁날아": 2026,
      "▁팀은": 2027,
      "이제": 2028,
      "졌습니다": 2029,
      "▁않았습니다": 2030,
      "▁선": 2031,
      "▁중": 2032,
      "▁그것": 2033,
      "특별": 2034,
      "▁스": 2035,
      "▁버": 2036,
      "▁앉": 2037,
      "▁모든": 2038,
      "▁떠": 2039,
      "▁시작했습니다": 2040,
      "▁좋은": 2041,
      "자기": 2042,
      "▁뒤": 2043,
      "▁잠": 2044,
      "▁공원에": 2045,
      "▁말씀": 2046,
      "▁입": 2047,
      "▁상자를": 2048,
      "▁조심": 2049,
      "렇게": 2050,
      "▁줄": 2051,
      "▁목": 2052,
      "▁좋아했습니다": 2053,
      "▁친구들과": 2054,
      "▁친절": 2055,
      "▁아니": 2056,
      "▁배웠": 2057,
      "▁기분이": 2058,
      "▁이후로": 2059,
      "렸습니다": 2060,
      "어서": 2061,
      "▁대해": 2062,
      "▁몰랐": 2063,
      "▁했지만": 2064,
      "▁꽃": 2065,
      "했지만": 2066,
      "났어요": 2067,
      "▁자동차": 2068,
      "▁원": 2069,
      "머니": 2070,
      "▁두": 2071,
      "▁얼": 2072,
      "릴리와": 2073,
      "▁작": 2074,
      "팀이라는": 2075,
      "▁새가": 2076,
      "▁반짝": 2077,
      "▁떨어": 2078,
      "▁위에": 2079,
      "▁서로": 2080,
      "▁속": 2081,
      "▁그의": 2082,
      "▁특별": 2083,
      "사를": 2084,
      "▁둘": 2085,
      "가서": 2086,
      "루시는": 2087,
      "보고": 2088,
      "책을": 2089,
      "▁착": 2090,
      "오래": 2091,
      "였죠": 2092,
      "▁매일": 2093,
      "▁타": 2094,
      "▁알고": 2095,
      "기는": 2096,
      "처럼": 2097,
      "▁곳": 2098,
      "▁땅": 2099,
      "▁맛있": 2100,
      "지를": 2101,
      "▁있다는": 2102,
      "▁그림": 2103,
      "▁있었지요": 2104,
      "▁있어요": 2105,
      "▁공원에서": 2106,
      "▁좋아하는": 2107,
      "갑자기": 2108,
      "▁물었습니다": 2109,
      "▁제": 2110,
      "세요": 2111,
      "케이크": 2112,
      "▁말씀하": 2113,
      "▁숲": 2114,
      "지는": 2115,
      "아요": 2116,
      "었지만": 2117,
      "▁눈": 2118,
      "▁같이": 2119,
      "▁숨": 2120,
      "▁최": 2121,
      "자가": 2122,
      "▁바라": 2123,
      "▁치": 2124,
      "▁가장": 2125,
      "▁시작했어요": 2126,
      "미아는": 2127,
      "▁그녀의": 2128,
      "친구": 2129,
      "▁계속": 2130,
      "티머": 2131,
      "▁벌레": 2132,
      "고양이는": 2133,
      "▁소리": 2134,
      "▁나무를": 2135,
      "▁쓰": 2136,
      "▁후": 2137,
      "▁먹고": 2138,
      "임을": 2139,
      "▁보여주": 2140,
      "▁빠": 2141,
      "▁마음": 2142,
      "▁하늘": 2143,
      "▁예쁜": 2144,
      "▁좋아했어요": 2145,
      "▁거예요": 2146,
      "▁손을": 2147,
      "▁드": 2148,
      "▁바위": 2149,
      "▁멋진": 2150,
      "▁흔": 2151,
      "▁피": 2152,
      "였어요": 2153,
      "▁아래": 2154,
      "▁가서": 2155,
      "▁새를": 2156,
      "까지": 2157,
      "▁특별한": 2158,
      "▁맥스": 2159,
      "샘은": 2160,
      "톰과": 2161,
      "▁길": 2162,
      "우리": 2163,
      "▁교": 2164,
      "았답니다": 2165,
      "났습니다": 2166,
      "▁노래": 2167,
      "▁흔들": 2168,
      "▁릴리는": 2169,
      "▁돕": 2170,
      "▁느꼈": 2171,
      "▁머": 2172,
      "▁벤은": 2173,
      "▁나눠": 2174,
      "▁집에": 2175,
      "▁톰은": 2176,
      "수는": 2177,
      "▁가득": 2178,
      "해야": 2179,
      "▁넣": 2180,
      "에요": 2181,
      "▁자랑": 2182,
      "▁용": 2183,
      "▁근": 2184,
      "도록": 2185,
      "였습니다": 2186,
      "러운": 2187,
      "▁되었습니다": 2188,
      "▁토끼": 2189,
      "▁나서": 2190,
      "▁고양이가": 2191,
      "▁기뻤": 2192,
      "▁안전": 2193,
      "▁개가": 2194,
      "▁사라": 2195,
      "▁경": 2196,
      "▁밖에서": 2197,
      "아니": 2198,
      "▁정원": 2199,
      "▁강아지": 2200,
      "으려고": 2201,
      "아주": 2202,
      "걱정": 2203,
      "▁높이": 2204,
      "▁근처": 2205,
      "▁도움을": 2206,
      "▁표": 2207,
      "▁멈": 2208,
      "왔습니다": 2209,
      "▁꼭": 2210,
      "▁사과": 2211,
      "▁케이크": 2212,
      "▁되어": 2213,
      "▁무엇": 2214,
      "▁놀라": 2215,
      "나무": 2216,
      "▁끄": 2217,
      "▁발견했습니다": 2218,
      "▁미소를": 2219,
      "▁곰": 2220,
      "▁내려": 2221,
      "이지": 2222,
      "그것": 2223,
      "▁교훈": 2224,
      "▁호": 2225,
      "▁싶지": 2226,
      "▁산": 2227,
      "기가": 2228,
      "▁그들을": 2229,
      "오래전": 2230,
      "▁트": 2231,
      "▁스팟": 2232,
      "필요": 2233,
      "스를": 2234,
      "▁깨달": 2235,
      "▁앉아": 2236,
      "▁최고": 2237,
      "었지요": 2238,
      "▁고양이는": 2239,
      "▁언": 2240,
      "▁준": 2241,
      "법을": 2242,
      "▁식": 2243,
      "▁갈": 2244,
      "와서": 2245,
      "▁놀며": 2246,
      "▁추": 2247,
      "▁아름": 2248,
      "지고": 2249,
      "▁친구를": 2250,
      "▁부드": 2251,
      "▁필요": 2252,
      "▁행복했습니다": 2253,
      "옛날에": 2254,
      "▁미아": 2255,
      "▁잃": 2256,
      "▁결심": 2257,
      "▁저": 2258,
      "▁해요": 2259,
      "▁마을": 2260,
      "▁기다": 2261,
      "▁점": 2262,
      "이라고": 2263,
      "▁누": 2264,
      "▁이렇게": 2265,
      "▁끄덕": 2266,
      "▁간": 2267,
      "셨죠": 2268,
      "▁한다는": 2269,
      "▁음식을": 2270,
      "▁다가": 2271,
      "▁상자": 2272,
      "▁나누": 2273,
      "▁봐": 2274,
      "아빠": 2275,
      "▁설": 2276,
      "▁게임을": 2277,
      "▁엄마와": 2278,
      "수라는": 2279,
      "어를": 2280,
      "▁있는지": 2281,
      "▁말해요": 2282,
      "음을": 2283,
      "그러": 2284,
      "▁팀이라는": 2285,
      "그날": 2286,
      "▁그것을": 2287,
      "▁놀러": 2288,
      "랐습니다": 2289,
      "▁춤": 2290,
      "▁도와줄": 2291,
      "▁일어": 2292,
      "▁듣고": 2293,
      "물을": 2294,
      "했다": 2295,
      "▁도착": 2296,
      "▁싶었어요": 2297,
      "▁개는": 2298,
      "▁이야기": 2299,
      "▁신나": 2300,
      "릴리가": 2301,
      "았고": 2302,
      "▁바라보": 2303,
      "▁미끄": 2304,
      "▁막": 2305,
      "▁자신이": 2306,
      "▁자랑스러": 2307,
      "는지": 2308,
      "안해": 2309,
      "▁가족": 2310,
      "▁맛있는": 2311,
      "벤은": 2312,
      "▁인형": 2313,
      "▁의": 2314,
      "보자": 2315,
      "▁청": 2316,
      "그녀": 2317,
      "뜻밖": 2318,
      "▁마법": 2319,
      "져서": 2320,
      "▁요": 2321,
      "키티": 2322,
      "안나": 2323,
      "모두": 2324,
      "에이미는": 2325,
      "에이미": 2326,
      "란색": 2327,
      "개는": 2328,
      "▁고마워": 2329,
      "▁당": 2330,
      "언가": 2331,
      "▁실": 2332,
      "트를": 2333,
      "▁친구들은": 2334,
      "▁영": 2335,
      "▁색": 2336,
      "어가": 2337,
      "▁감사": 2338,
      "▁놀았습니다": 2339,
      "▁해야": 2340,
      "▁수가": 2341,
      "▁사용": 2342,
      "▁빠르": 2343,
      "는데": 2344,
      "▁아름다": 2345,
      "▁고개를": 2346,
      "▁최고의": 2347,
      "고마워": 2348,
      "전히": 2349,
      "밥은": 2350,
      "기에": 2351,
      "▁뭐": 2352,
      "▁될": 2353,
      "그때": 2354,
      "▁따라": 2355,
      "▁자기": 2356,
      "▁반짝이는": 2357,
      "▁보냈답니다": 2358,
      "졌고": 2359,
      "▁생각했습니다": 2360,
      "▁없었어요": 2361,
      "다니": 2362,
      "람쥐": 2363,
      "▁좋아했지요": 2364,
      "▁고양이를": 2365,
      "▁돼": 2366,
      "▁않아": 2367,
      "▁담": 2368,
      "스는": 2369,
      "▁구멍": 2370,
      "▁그는": 2371,
      "합니다": 2372,
      "괜찮": 2373,
      "▁만들어": 2374,
      "움직": 2375,
      "뜻밖의": 2376,
      "으니": 2377,
      "▁가까": 2378,
      "▁시도": 2379,
      "▁기뻐하며": 2380,
      "매일": 2381,
      "럼틀": 2382,
      "▁네": 2383,
      "▁되었답니다": 2384,
      "둘은": 2385,
      "어버": 2386,
      "▁무언가": 2387,
      "▁샘은": 2388,
      "▁소녀는": 2389,
      "쳤어요": 2390,
      "▁있어서": 2391,
      "▁것들을": 2392,
      "▁물건": 2393,
      "▁그림을": 2394,
      "▁움직": 2395,
      "▁코": 2396,
      "으면서": 2397,
      "했어": 2398,
      "겠다고": 2399,
      "내가": 2400,
      "팀의": 2401,
      "▁싶었지만": 2402,
      "톰이": 2403,
      "드는": 2404,
      "▁성": 2405,
      "▁안에": 2406,
      "▁갔습니다": 2407,
      "리에": 2408,
      "▁개구": 2409,
      "▁블": 2410,
      "아이": 2411,
      "수를": 2412,
      "▁밀": 2413,
      "▁슬프": 2414,
      "럽게": 2415,
      "▁보았어요": 2416,
      "▁볼": 2417,
      "공원": 2418,
      "그의": 2419,
      "▁지켜": 2420,
      "▁대답했어요": 2421,
      "▁친구인": 2422,
      "▁하나": 2423,
      "▁물을": 2424,
      "▁길을": 2425,
      "하기": 2426,
      "▁화가": 2427,
      "▁맞": 2428,
      "▁진": 2429,
      "▁있을까요": 2430,
      "▁약": 2431,
      "▁문을": 2432,
      "벤이": 2433,
      "이고": 2434,
      "▁그를": 2435,
      "▁그녀는": 2436,
      "▁싶어서": 2437,
      "▁찾을": 2438,
      "▁빨리": 2439,
      "▁되었어요": 2440,
      "▁아름다운": 2441,
      "▁아이디": 2442,
      "▁때문": 2443,
      "▁재미있는": 2444,
      "▁오래": 2445,
      "떻게": 2446,
      "▁창": 2447,
      "▁있었고": 2448,
      "▁지으며": 2449,
      "▁받": 2450,
      "졌죠": 2451,
      "▁번": 2452,
      "▁꼬": 2453,
      "그것은": 2454,
      "▁좋아했답니다": 2455,
      "웠습니다": 2456,
      "▁안으로": 2457,
      "인은": 2458,
      "▁준비": 2459,
      "▁시작했죠": 2460,
      "▁용감": 2461,
      "▁다음": 2462,
      "▁집에서": 2463,
      "▁먹을": 2464,
      "▁질": 2465,
      "▁노래를": 2466,
      "다른": 2467,
      "▁여전히": 2468,
      "▁보냈습니다": 2469,
      "▁벌어": 2470,
      "다음": 2471,
      "으면": 2472,
      "▁일을": 2473,
      "▁궁": 2474,
      "나도": 2475,
      "▁만났어요": 2476,
      "장난감": 2477,
      "▁많이": 2478,
      "너무": 2479,
      "▁갔": 2480,
      "▁따뜻": 2481,
      "▁결정": 2482,
      "이며": 2483,
      "도와": 2484,
      "▁끝": 2485,
      "▁얼굴": 2486,
      "▁트럭": 2487,
      "플러": 2488,
      "▁행복했어요": 2489,
      "▁집을": 2490,
      "▁땅에": 2491,
      "▁조금": 2492,
      "다보": 2493,
      "▁하루를": 2494,
      "▁멀": 2495,
      "▁없었습니다": 2496,
      "플러피": 2497,
      "▁하는": 2498,
      "▁만들고": 2499,
      "▁주변": 2500,
      "사라": 2501,
      "▁같은": 2502,
      "▁굴": 2503,
      "치고": 2504,
      "▁남자는": 2505,
      "랐어요": 2506,
      "▁달려가": 2507,
      "▁밝": 2508,
      "▁나무에": 2509,
      "▁중요": 2510,
      "소년": 2511,
      "너는": 2512,
      "▁빛": 2513,
      "▁또": 2514,
      "▁차를": 2515,
      "▁외": 2516,
      "▁왔어요": 2517,
      "▁유": 2518,
      "▁놓": 2519,
      "▁하며": 2520,
      "▁것에": 2521,
      "▁친한": 2522,
      "▁꺼": 2523,
      "▁케이크를": 2524,
      "결국": 2525,
      "티머는": 2526,
      "▁와서": 2527,
      "었어": 2528,
      "▁바람": 2529,
      "▁친구들에게": 2530,
      "▁궁금": 2531,
      "▁수는": 2532,
      "사라는": 2533,
      "▁올려": 2534,
      "험을": 2535,
      "▁가까이": 2536,
      "▁둘러": 2537,
      "줘서": 2538,
      "▁공으로": 2539,
      "▁박": 2540,
      "▁좋아해요": 2541,
      "▁농": 2542,
      "▁산책을": 2543,
      "▁친구들이": 2544,
      "▁책을": 2545,
      "▁탐": 2546,
      "▁할지": 2547,
      "▁거라고": 2548,
      "르고": 2549,
      "▁힘": 2550,
      "▁있게": 2551,
      "▁해주": 2552,
      "▁빠르게": 2553,
      "▁설레": 2554,
      "▁어느": 2555,
      "▁베": 2556,
      "▁데려": 2557,
      "▁대답했습니다": 2558,
      "▁행복하고": 2559,
      "▁잎": 2560,
      "▁단": 2561,
      "▁개를": 2562,
      "님은": 2563,
      "▁옷": 2564,
      "▁놀기를": 2565,
      "▁미끄럼틀": 2566,
      "▁혼": 2567,
      "▁릴리라는": 2568,
      "▁친구들을": 2569,
      "▁숲속": 2570,
      "▁목소": 2571,
      "▁분": 2572,
      "▁착한": 2573,
      "그들이": 2574,
      "▁맥스는": 2575,
      "▁연못": 2576,
      "▁교훈은": 2577,
      "▁천": 2578,
      "▁초": 2579,
      "▁자랑스러워": 2580,
      "▁타고": 2581,
      "▁말씀하셨어요": 2582,
      "▁행복한": 2583,
      "▁싶었습니다": 2584,
      "▁동의": 2585,
      "벌레": 2586,
      "▁이야기를": 2587,
      "▁쫓": 2588,
      "놀이를": 2589,
      "다시": 2590,
      "▁책": 2591,
      "▁안아주": 2592,
      "쳤습니다": 2593,
      "▁밖으로": 2594,
      "침대": 2595,
      "셨습니다": 2596,
      "▁던": 2597,
      "스크": 2598,
      "▁놀기": 2599,
      "▁토": 2600,
      "▁헤": 2601,
      "▁그녀를": 2602,
      "이었습니다": 2603,
      "▁돕고": 2604,
      "▁즐겼": 2605,
      "▁양": 2606,
      "▁하지": 2607,
      "사는": 2608,
      "해가": 2609,
      "▁옆": 2610,
      "▁예쁘": 2611,
      "보는": 2612,
      "▁긴": 2613,
      "가는": 2614,
      "▁아이디어를": 2615,
      "▁가게": 2616,
      "▁색깔": 2617,
      "▁모습": 2618,
      "그건": 2619,
      "▁조각": 2620,
      "▁신이": 2621,
      "▁그네": 2622,
      "▁마을에": 2623,
      "▁자동차를": 2624,
      "한테": 2625,
      "같이": 2626,
      "▁적": 2627,
      "▁팀에게": 2628,
      "▁찾았어요": 2629,
      "▁않았죠": 2630,
      "보다": 2631,
      "▁쉬": 2632,
      "▁테": 2633,
      "▁커": 2634,
      "▁슬프고": 2635,
      "▁루시": 2636,
      "이에요": 2637,
      "▁둥": 2638,
      "인지": 2639,
      "▁껴": 2640,
      "▁걱정": 2641,
      "▁그들의": 2642,
      "▁가진": 2643,
      "▁껴안": 2644,
      "▁싸": 2645,
      "일을": 2646,
      "움이": 2647,
      "▁장난감이": 2648,
      "저는": 2649,
      "▁듣지": 2650,
      "▁기억": 2651,
      "▁부탁": 2652,
      "▁짓": 2653,
      "▁들었어요": 2654,
      "추고": 2655,
      "▁위로": 2656,
      "▁티": 2657,
      "▁빨간색": 2658,
      "▁없어": 2659,
      "▁부드러운": 2660,
      "▁읽": 2661,
      "▁바닥": 2662,
      "▁발견했죠": 2663,
      "우는": 2664,
      "하다고": 2665,
      "▁난": 2666,
      "▁과": 2667,
      "냈어요": 2668,
      "▁깨끗": 2669,
      "▁무언가를": 2670,
      "렸죠": 2671,
      "스럽게": 2672,
      "▁웃으면서": 2673,
      "▁싶었죠": 2674,
      "▁위한": 2675,
      "▁알아": 2676,
      "▁톰이": 2677,
      "▁모자를": 2678,
      "▁잊": 2679,
      "선을": 2680,
      "▁뜻밖의": 2681,
      "▁어디": 2682,
      "프를": 2683,
      "▁드레": 2684,
      "▁여기": 2685,
      "▁때문에": 2686,
      "▁멀리": 2687,
      "▁넘": 2688,
      "▁어떻게": 2689,
      "▁믿": 2690,
      "▁마당": 2691,
      "▁블록": 2692,
      "▁안에서": 2693,
      "쿠키": 2694,
      "▁놀자": 2695,
      "▁애": 2696,
      "▁팀의": 2697,
      "▁막대": 2698,
      "▁가방": 2699,
      "▁언덕": 2700,
      "▁파티": 2701,
      "이었죠": 2702,
      "▁친절한": 2703,
      "▁슬펐": 2704,
      "▁그들이": 2705,
      "디는": 2706,
      "▁튀": 2707,
      "▁냄": 2708,
      "리며": 2709,
      "입니다": 2710,
      "리와": 2711,
      "▁레": 2712,
      "▁경주": 2713,
      "웠어요": 2714,
      "▁가고": 2715,
      "샐리는": 2716,
      "▁기뻐했어요": 2717,
      "이건": 2718,
      "러워": 2719,
      "▁풀": 2720,
      "▁장난감으로": 2721,
      "▁먼": 2722,
      "▁행복해하며": 2723,
      "▁밥": 2724,
      "▁채": 2725,
      "네가": 2726,
      "▁엄마를": 2727,
      "▁점점": 2728,
      "▁기뻐했습니다": 2729,
      "▁카": 2730,
      "▁말했답니다": 2731,
      "▁꺼내": 2732,
      "우리는": 2733,
      "맑은": 2734,
      "▁강아지가": 2735,
      "▁절": 2736,
      "▁궁금해": 2737,
      "하다는": 2738,
      "▁나갔습니다": 2739,
      "들로": 2740,
      "▁팀을": 2741,
      "▁얻": 2742,
      "저기": 2743,
      "이가": 2744,
      "우고": 2745,
      "▁서로를": 2746,
      "스크림": 2747,
      "▁되고": 2748,
      "스러운": 2749,
      "▁포옹": 2750,
      "부터": 2751,
      "▁방법을": 2752,
      "▁망": 2753,
      "▁만드는": 2754,
      "▁본": 2755,
      "니는": 2756,
      "▁바위를": 2757,
      "안나는": 2758,
      "그게": 2759,
      "▁잠시": 2760,
      "잭은": 2761,
      "▁붙": 2762,
      "리기": 2763,
      "▁침대": 2764,
      "▁아빠는": 2765,
      "▁다람쥐": 2766,
      "▁돌려": 2767,
      "이었어요": 2768,
      "▁올라가": 2769,
      "당신": 2770,
      "전거": 2771,
      "새가": 2772,
      "그녀의": 2773,
      "가락": 2774,
      "사람": 2775,
      "▁선물": 2776,
      "▁했답니다": 2777,
      "▁햇": 2778,
      "▁싫": 2779,
      "침내": 2780,
      "▁떠올": 2781,
      "▁생각했죠": 2782,
      "으니까요": 2783,
      "▁보내": 2784,
      "▁꽃을": 2785,
      "▁깊": 2786,
      "▁병": 2787,
      "▁좋지": 2788,
      "▁싶어요": 2789,
      "▁배웠습니다": 2790,
      "었거든요": 2791,
      "▁쫓아": 2792,
      "▁변": 2793,
      "냈습니다": 2794,
      "었다": 2795,
      "▁찾았": 2796,
      "▁잃어버": 2797,
      "▁탐험": 2798,
      "▁주변을": 2799,
      "물론": 2800,
      "▁있을까": 2801,
      "중에": 2802,
      "▁발견했답니다": 2803,
      "사귀": 2804,
      "▁풍": 2805,
      "▁그들에게": 2806,
      "팀아": 2807,
      "▁꼬리를": 2808,
      "▁젖": 2809,
      "▁들어가": 2810,
      "▁톰에게": 2811,
      "▁귀": 2812,
      "▁로": 2813,
      "▁헤엄": 2814,
      "▁아무": 2815,
      "▁보냈어요": 2816,
      "▁없었죠": 2817,
      "▁지나": 2818,
      "▁녹": 2819,
      "미안해": 2820,
      "▁약속": 2821,
      "바로": 2822,
      "▁앞": 2823,
      "▁쥐": 2824,
      "하면": 2825,
      "▁바로": 2826,
      "▁물고기": 2827,
      "▁뒤에": 2828,
      "▁밤": 2829,
      "▁우리": 2830,
      "들도": 2831,
      "▁옛날에": 2832,
      "▁무슨": 2833,
      "▁작별": 2834,
      "▁공이": 2835,
      "▁갖": 2836,
      "깡충": 2837,
      "▁흔들며": 2838,
      "▁사람들이": 2839,
      "▁참": 2840,
      "▁팀과": 2841,
      "▁있도록": 2842,
      "▁배가": 2843,
      "▁빼": 2844,
      "▁살펴": 2845,
      "▁안에는": 2846,
      "줬어요": 2847,
      "다녔": 2848,
      "모든": 2849,
      "▁다시는": 2850,
      "▁편": 2851,
      "▁행동": 2852,
      "▁즐겁": 2853,
      "▁남자가": 2854,
      "지가": 2855,
      "▁되었고": 2856,
      "▁나아": 2857,
      "심이": 2858,
      "▁뛰고": 2859,
      "▁놀았답니다": 2860,
      "▁높은": 2861,
      "▁팔": 2862,
      "심히": 2863,
      "어린": 2864,
      "재미": 2865,
      "▁스팟은": 2866,
      "▁아래에서": 2867,
      "▁느꼈습니다": 2868,
      "▁새에게": 2869,
      "▁잡고": 2870,
      "봤어요": 2871,
      "집에": 2872,
      "치를": 2873,
      "▁놀면서": 2874,
      "키티는": 2875,
      "▁모험을": 2876,
      "▁좀": 2877,
      "▁간식을": 2878,
      "▁부엌": 2879,
      "괜찮아": 2880,
      "▁운": 2881,
      "▁생각한": 2882,
      "▁자신을": 2883,
      "▁쪽": 2884,
      "▁벌어졌어요": 2885,
      "장을": 2886,
      "▁기뻤습니다": 2887,
      "▁쿠키": 2888,
      "▁좋아하지": 2889,
      "▁눈을": 2890,
      "▁크게": 2891,
      "▁별": 2892,
      "▁근처에서": 2893,
      "▁했지요": 2894,
      "▁박수를": 2895,
      "르는": 2896,
      "▁환": 2897,
      "▁벽": 2898,
      "하자": 2899,
      "▁슬퍼하며": 2900,
      "▁열고": 2901,
      "자신": 2902,
      "▁피곤": 2903,
      "▁들었습니다": 2904,
      "▁감사를": 2905,
      "▁열어": 2906,
      "▁된": 2907,
      "▁그에게": 2908,
      "▁않아요": 2909,
      "게요": 2910,
      "▁때까지": 2911,
      "▁파란색": 2912,
      "물이": 2913,
      "▁키": 2914,
      "▁짖": 2915,
      "미를": 2916,
      "▁장소": 2917,
      "▁말씀하셨죠": 2918,
      "▁가져가": 2919,
      "▁리": 2920,
      "새로운": 2921,
      "▁릴리가": 2922,
      "좋아": 2923,
      "았지만": 2924,
      "토끼는": 2925,
      "에게는": 2926,
      "리로": 2927,
      "적인": 2928,
      "▁법을": 2929,
      "▁나뭇": 2930,
      "▁바람이": 2931,
      "▁않고": 2932,
      "문을": 2933,
      "▁쳐": 2934,
      "았지요": 2935,
      "마나": 2936,
      "▁릴리를": 2937,
      "지기": 2938,
      "▁탑": 2939,
      "▁자전거": 2940,
      "▁가야": 2941,
      "이었고": 2942,
      "▁왕": 2943,
      "비는": 2944,
      "주고": 2945,
      "▁통": 2946,
      "▁생각을": 2947,
      "▁생쥐": 2948,
      "▁불렀": 2949,
      "▁떠나": 2950,
      "▁행복했답니다": 2951,
      "▁동안": 2952,
      "▁감사의": 2953,
      "▁바닥에": 2954,
      "▁허": 2955,
      "▁입고": 2956,
      "▁다가가": 2957,
      "▁잎사귀": 2958,
      "오는": 2959,
      "▁주워": 2960,
      "▁정원에서": 2961,
      "▁그게": 2962,
      "▁그가": 2963,
      "어야": 2964,
      "▁사과를": 2965,
      "웠지만": 2966,
      "아서": 2967,
      "재미있": 2968,
      "▁꿈": 2969,
      "▁소년은": 2970,
      "▁걸어가": 2971,
      "▁춤을": 2972,
      "토미는": 2973,
      "▁아이스크림": 2974,
      "▁돌아가": 2975,
      "▁열심히": 2976,
      "▁안전하게": 2977,
      "▁인사를": 2978,
      "▁보는": 2979,
      "▁느끼": 2980,
      "졌답니다": 2981,
      "보니": 2982,
      "대한": 2983,
      "▁혼자": 2984,
      "▁끄덕이며": 2985,
      "늙은": 2986,
      "미가": 2987,
      "▁너를": 2988,
      "▁자신들의": 2989,
      "위를": 2990,
      "▁관": 2991,
      "▁접": 2992,
      "▁조심스럽게": 2993,
      "▁가르": 2994,
      "나랑": 2995,
      "▁기차": 2996,
      "▁벌레를": 2997,
      "▁잔": 2998,
      "▁너무나": 2999,
      "▁사람들을": 3000,
      "▁보여주고": 3001,
      "줄게": 3002,
      "▁나는": 3003,
      "릴리라는": 3004,
      "하기로": 3005,
      "▁남자": 3006,
      "▁씨": 3007,
      "▁생각했어요": 3008,
      "마침내": 3009,
      "소녀는": 3010,
      "▁닦": 3011,
      "나요": 3012,
      "물론이지": 3013,
      "비가": 3014,
      "▁얼마나": 3015,
      "▁무엇을": 3016,
      "▁대답했죠": 3017,
      "▁소녀를": 3018,
      "▁있다고": 3019,
      "상을": 3020,
      "▁모래": 3021,
      "럽고": 3022,
      "▁몇": 3023,
      "심을": 3024,
      "▁온": 3025,
      "▁바다": 3026,
      "▁넘어": 3027,
      "▁주고": 3028,
      "▁위에서": 3029,
      "존은": 3030,
      "▁만들었어요": 3031,
      "▁도와주고": 3032,
      "▁주었습니다": 3033,
      "▁웃음을": 3034,
      "▁즐겁게": 3035,
      "제가": 3036,
      "▁웃었어요": 3037,
      "▁빌": 3038,
      "▁똑": 3039,
      "많은": 3040,
      "▁말했지요": 3041,
      "지도": 3042,
      "▁쓰고": 3043,
      "크고": 3044,
      "팀이": 3045,
      "기의": 3046,
      "▁완": 3047,
      "아버": 3048,
      "▁안을": 3049,
      "▁미아는": 3050,
      "▁수영": 3051,
      "▁계획": 3052,
      "▁웃었습니다": 3053,
      "▁있고": 3054,
      "화를": 3055,
      "▁근처에": 3056,
      "했을": 3057,
      "▁곧": 3058,
      "치는": 3059,
      "개구": 3060,
      "▁에이미": 3061,
      "▁도움이": 3062,
      "▁터": 3063,
      "▁마음이": 3064,
      "다니며": 3065,
      "▁향": 3066,
      "기도": 3067,
      "▁톰을": 3068,
      "▁조심해야": 3069,
      "▁말했다": 3070,
      "▁청소": 3071,
      "거나": 3072,
      "▁나타": 3073,
      "개가": 3074,
      "▁슬퍼했습니다": 3075,
      "▁왔": 3076,
      "양한": 3077,
      "지지": 3078,
      "▁할머니": 3079,
      "▁방에": 3080,
      "▁털": 3081,
      "▁가는": 3082,
      "어나": 3083,
      "▁싫어": 3084,
      "▁깨달았어요": 3085,
      "▁나무에서": 3086,
      "▁않을": 3087,
      "▁걷": 3088,
      "함을": 3089,
      "드를": 3090,
      "▁답": 3091,
      "▁금": 3092,
      "리라는": 3093,
      "▁형": 3094,
      "할머니": 3095,
      "▁음식": 3096,
      "벤과": 3097,
      "▁현": 3098,
      "니까": 3099,
      "▁신나게": 3100,
      "아야": 3101,
      "▁놀랐": 3102,
      "▁수도": 3103,
      "▁재미를": 3104,
      "하늘": 3105,
      "▁퍼": 3106,
      "▁아이들이": 3107,
      "▁한다고": 3108,
      "동물": 3109,
      "갔답니다": 3110,
      "안나와": 3111,
      "구나": 3112,
      "▁봐요": 3113,
      "▁아빠에게": 3114,
      "▁휘": 3115,
      "오늘": 3116,
      "▁포근": 3117,
      "▁넓": 3118,
      "▁못한": 3119,
      "▁평": 3120,
      "▁미안해": 3121,
      "아빠는": 3122,
      "판을": 3123,
      "▁그녀에게": 3124,
      "▁전에": 3125,
      "▁아니야": 3126,
      "▁그리고": 3127,
      "홍색": 3128,
      "▁시간이": 3129,
      "▁주었어요": 3130,
      "주는": 3131,
      "▁물속": 3132,
      "▁몰랐어요": 3133,
      "▁물어": 3134,
      "▁떨어져": 3135,
      "▁교훈을": 3136,
      "▁날아가": 3137,
      "여기": 3138,
      "시는": 3139,
      "▁물었죠": 3140,
      "▁걸어서": 3141,
      "▁릴리에게": 3142,
      "▁슬픈": 3143,
      "▁인형을": 3144,
      "▁놀았고": 3145,
      "▁모양": 3146,
      "▁방에서": 3147,
      "실에": 3148,
      "릴리의": 3149,
      "그가": 3150,
      "▁이상한": 3151,
      "▁배웠어요": 3152,
      "▁나가": 3153,
      "▁그렇게": 3154,
      "▁먼저": 3155,
      "톰이라는": 3156,
      "▁슬퍼졌어요": 3157,
      "▁찾고": 3158,
      "▁보지": 3159,
      "마다": 3160,
      "▁구름": 3161,
      "나를": 3162,
      "▁모습을": 3163,
      "▁무거": 3164,
      "▁않았답니다": 3165,
      "곰은": 3166,
      "▁뛰어올": 3167,
      "▁노력": 3168,
      "▁몰랐습니다": 3169,
      "▁느꼈어요": 3170,
      "▁뛰어들": 3171,
      "▁시작했답니다": 3172,
      "▁지켜보": 3173,
      "▁시도해": 3174,
      "나고": 3175,
      "▁강한": 3176,
      "▁가져다": 3177,
      "다람쥐": 3178,
      "▁당신": 3179,
      "▁놀랐습니다": 3180,
      "▁도망": 3181,
      "▁달아": 3182,
      "▁걸어": 3183,
      "▁아빠가": 3184,
      "▁축": 3185,
      "▁못했습니다": 3186,
      "갔고": 3187,
      "▁정리": 3188,
      "주었어요": 3189,
      "공원에": 3190,
      "▁머리를": 3191,
      "▁밑": 3192,
      "▁수라는": 3193,
      "▁다양한": 3194,
      "▁갖고": 3195,
      "▁샐": 3196,
      "키는": 3197,
      "▁딸": 3198,
      "▁놀았죠": 3199,
      "▁배웠답니다": 3200,
      "▁샘에게": 3201,
      "달라고": 3202,
      "리의": 3203,
      "▁빼앗": 3204,
      "▁아침": 3205,
      "이에": 3206,
      "▁나누고": 3207,
      "도를": 3208,
      "명한": 3209,
      "▁하늘을": 3210,
      "▁만들었습니다": 3211,
      "친구들은": 3212,
      "▁푸": 3213,
      "발을": 3214,
      "했거든요": 3215,
      "▁멈추고": 3216,
      "▁동물들이": 3217,
      "▁그리": 3218,
      "▁미안": 3219,
      "▁릴리와": 3220,
      "다보며": 3221,
      "대로": 3222,
      "▁오래오래": 3223,
      "▁엄마의": 3224,
      "▁달린": 3225,
      "▁괴": 3226,
      "스터": 3227,
      "▁장난": 3228,
      "▁그것이": 3229,
      "▁여행": 3230,
      "▁릴리의": 3231,
      "▁거라는": 3232,
      "▁건네": 3233,
      "플러피는": 3234,
      "원히": 3235,
      "소년은": 3236,
      "서로": 3237,
      "▁물고기를": 3238,
      "▁나쁜": 3239,
      "▁골": 3240,
      "정을": 3241,
      "▁해가": 3242,
      "▁만든": 3243,
      "우리가": 3244,
      "▁방으로": 3245,
      "▁열쇠": 3246,
      "였고": 3247,
      "하세요": 3248,
      "스가": 3249,
      "▁충": 3250,
      "▁나무가": 3251,
      "▁나뭇가": 3252,
      "▁조용": 3253,
      "▁절친": 3254,
      "▁낮": 3255,
      "아니야": 3256,
      "▁토끼가": 3257,
      "▁비행": 3258,
      "▁것도": 3259,
      "▁보니": 3260,
      "▁지저": 3261,
      "▁잡으려고": 3262,
      "▁그날": 3263,
      "▁소리가": 3264,
      "▁못했어요": 3265,
      "이야기의": 3266,
      "▁그걸": 3267,
      "▁없어서": 3268,
      "▁톰과": 3269,
      "갈아": 3270,
      "▁살았어요": 3271,
      "▁쿠키를": 3272,
      "▁이제": 3273,
      "▁순": 3274,
      "▁생겼": 3275,
      "▁넣고": 3276,
      "▁옆에": 3277,
      "▁포옹을": 3278,
      "▁몸": 3279,
      "▁차가": 3280,
      "▁놀라운": 3281,
      "렸고": 3282,
      "▁등": 3283,
      "▁그릇": 3284,
      "▁무엇인지": 3285,
      "너희": 3286,
      "감사": 3287,
      "▁하셨어요": 3288,
      "▁보였습니다": 3289,
      "▁갑자기": 3290,
      "가며": 3291,
      "▁속에": 3292,
      "기고": 3293,
      "에도": 3294,
      "리석": 3295,
      "단다": 3296,
      "▁돕는": 3297,
      "▁어두": 3298,
      "▁물건을": 3299,
      "사라와": 3300,
      "▁척": 3301,
      "▁뜨": 3302,
      "▁검": 3303,
      "▁무서워하지": 3304,
      "티미는": 3305,
      "▁알았죠": 3306,
      "구를": 3307,
      "벌레는": 3308,
      "제나": 3309,
      "▁영원히": 3310,
      "▁여기저기": 3311,
      "▁찾지": 3312,
      "▁얼굴을": 3313,
      "▁절친한": 3314,
      "▁무서웠지만": 3315,
      "▁마당에서": 3316,
      "주었습니다": 3317,
      "▁공은": 3318,
      "▁경주를": 3319,
      "전을": 3320,
      "▁메": 3321,
      "물고": 3322,
      "▁방을": 3323,
      "▁알았어요": 3324,
      "▁구멍을": 3325,
      "시고": 3326,
      "터를": 3327,
      "공을": 3328,
      "▁그때": 3329,
      "▁존": 3330,
      "▁무서운": 3331,
      "▁가방을": 3332,
      "▁작고": 3333,
      "▁내며": 3334,
      "거기": 3335,
      "▁울기": 3336,
      "웅덩": 3337,
      "▁가자": 3338,
      "▁연주": 3339,
      "▁살았답니다": 3340,
      "▁나아지": 3341,
      "▁것은": 3342,
      "미와": 3343,
      "사가": 3344,
      "▁늙은": 3345,
      "▁물고기는": 3346,
      "▁결심했습니다": 3347,
      "▁가게에": 3348,
      "프레": 3349,
      "▁굴러": 3350,
      "▁춤추": 3351,
      "▁허락": 3352,
      "▁딱": 3353,
      "▁해변": 3354,
      "물은": 3355,
      "▁꾸": 3356,
      "갔죠": 3357,
      "줘요": 3358,
      "▁티머": 3359,
      "▁공놀이를": 3360,
      "기며": 3361,
      "▁달콤": 3362,
      "모두가": 3363,
      "▁있었답니다": 3364,
      "▁만났습니다": 3365,
      "장에": 3366,
      "▁비가": 3367,
      "▁둘러보": 3368,
      "▁녹색": 3369,
      "▁개의": 3370,
      "▁몰라": 3371,
      "▁있나요": 3372,
      "▁시끄": 3373,
      "인이": 3374,
      "잖아": 3375,
      "▁났어요": 3376,
      "▁음악": 3377,
      "바람": 3378,
      "▁깨달았습니다": 3379,
      "▁벗": 3380,
      "인형": 3381,
      "겠어": 3382,
      "▁사람들은": 3383,
      "샘이": 3384,
      "▁드레스를": 3385,
      "▁좋아해": 3386,
      "▁의자": 3387,
      "▁공원으로": 3388,
      "▁속에서": 3389,
      "▁떨어뜨": 3390,
      "▁주머니": 3391,
      "생님": 3392,
      "리지": 3393,
      "▁들여": 3394,
      "라와": 3395,
      "버렸어요": 3396,
      "겠어요": 3397,
      "▁있던": 3398,
      "▁개에게": 3399,
      "▁돌을": 3400,
      "학교": 3401,
      "▁차는": 3402,
      "▁방문": 3403,
      "▁포기": 3404,
      "상자": 3405,
      "▁가르쳐": 3406,
      "▁찾았습니다": 3407,
      "▁곳에": 3408,
      "봐요": 3409,
      "▁슬퍼했지만": 3410,
      "▁호기": 3411,
      "모는": 3412,
      "록색": 3413,
      "▁똑똑": 3414,
      "▁친구는": 3415,
      "무서": 3416,
      "▁즐거워": 3417,
      "이기": 3418,
      "▁이해": 3419,
      "▁페": 3420,
      "▁왜": 3421,
      "▁정원에": 3422,
      "▁과일을": 3423,
      "▁식탁": 3424,
      "▁비밀": 3425,
      "▁그려": 3426,
      "▁장난감과": 3427,
      "▁잔디": 3428,
      "▁햇볕": 3429,
      "루가": 3430,
      "▁싶어졌어요": 3431,
      "원을": 3432,
      "▁깃": 3433,
      "▁소년을": 3434,
      "▁분홍색": 3435,
      "▁끌": 3436,
      "▁쪽으로": 3437,
      "▁소리쳤어요": 3438,
      "▁아빠와": 3439,
      "▁저녁": 3440,
      "▁샘이": 3441,
      "▁담요": 3442,
      "▁보러": 3443,
      "▁났": 3444,
      "▁찾아보": 3445,
      "▁돈": 3446,
      "스로": 3447,
      "▁크레": 3448,
      "▁행복했고": 3449,
      "▁상상": 3450,
      "천히": 3451,
      "조심": 3452,
      "▁치며": 3453,
      "▁무서워하며": 3454,
      "▁바라보며": 3455,
      "▁언덕을": 3456,
      "오래전에": 3457,
      "그냥": 3458,
      "장에서": 3459,
      "▁회": 3460,
      "▁위험": 3461,
      "공은": 3462,
      "그러다가": 3463,
      "둥이": 3464,
      "▁도착했을": 3465,
      "▁이야기의": 3466,
      "상치": 3467,
      "하러": 3468,
      "▁언제나": 3469,
      "▁계획을": 3470,
      "라색": 3471,
      "▁아니라": 3472,
      "▁밝은": 3473,
      "▁옛날": 3474,
      "▁무엇이": 3475,
      "▁넓은": 3476,
      "▁나비": 3477,
      "▁공원을": 3478,
      "▁가질": 3479,
      "꾸나": 3480,
      "▁날개를": 3481,
      "반짝": 3482,
      "▁알게": 3483,
      "▁마리가": 3484,
      "르며": 3485,
      "▁사는": 3486,
      "군가": 3487,
      "▁하기": 3488,
      "▁냄새": 3489,
      "번에는": 3490,
      "▁다치": 3491,
      "▁섞": 3492,
      "▁고양이와": 3493,
      "▁톰이라는": 3494,
      "▁있었는데": 3495,
      "▁행복해졌어요": 3496,
      "▁게임": 3497,
      "친절": 3498,
      "▁깜": 3499,
      "▁미소지": 3500,
      "▁기뻐서": 3501,
      "▁생각에": 3502,
      "이와": 3503,
      "▁운전": 3504,
      "란다": 3505,
      "▁닿": 3506,
      "▁나와": 3507,
      "▁도와줄게": 3508,
      "수가": 3509,
      "▁깊은": 3510,
      "▁벌레는": 3511,
      "▁어리석": 3512,
      "▁확": 3513,
      "▁문제": 3514,
      "▁미끄럼틀을": 3515,
      "▁결심했어요": 3516,
      "피는": 3517,
      "▁싶은": 3518,
      "▁행복했죠": 3519,
      "▁행복해졌고": 3520,
      "르기": 3521,
      "▁토끼는": 3522,
      "▁않았고": 3523,
      "조는": 3524,
      "▁슬퍼했어요": 3525,
      "▁거기": 3526,
      "▁사탕": 3527,
      "▁마법의": 3528,
      "▁생각이": 3529,
      "▁기뻤어요": 3530,
      "▁컵": 3531,
      "▁않은": 3532,
      "▁때마다": 3533,
      "▁안나": 3534,
      "▁않는": 3535,
      "질을": 3536,
      "그러자": 3537,
      "▁막대기를": 3538,
      "자리에": 3539,
      "무슨": 3540,
      "▁않도록": 3541,
      "▁배를": 3542,
      "개구리는": 3543,
      "▁스팟이라는": 3544,
      "다면": 3545,
      "▁흥": 3546,
      "맥스와": 3547,
      "계를": 3548,
      "▁중요하다는": 3549,
      "▁톰의": 3550,
      "루는": 3551,
      "▁상자에": 3552,
      "핀은": 3553,
      "▁집어": 3554,
      "하니": 3555,
      "▁부모": 3556,
      "▁것입니다": 3557,
      "▁결정했습니다": 3558,
      "었을": 3559,
      "바닥": 3560,
      "▁거대한": 3561,
      "리에게": 3562,
      "▁둘은": 3563,
      "제인은": 3564,
      "▁사랑해": 3565,
      "▁마음을": 3566,
      "▁옷을": 3567,
      "미라는": 3568,
      "▁체": 3569,
      "트는": 3570,
      "훨씬": 3571,
      "▁짓을": 3572,
      "안나가": 3573,
      "▁사진": 3574,
      "▁따뜻한": 3575,
      "▁씻": 3576,
      "빨간": 3577,
      "▁먹는": 3578,
      "그녀가": 3579,
      "어는": 3580,
      "▁나무는": 3581,
      "▁그네를": 3582,
      "▁노란색": 3583,
      "▁고쳐": 3584,
      "보려고": 3585,
      "엄마님은": 3586,
      "▁이기": 3587,
      "▁멈춰": 3588,
      "▁종이를": 3589,
      "▁찬": 3590,
      "▁있지": 3591,
      "▁찾기": 3592,
      "고마워요": 3593,
      "숟가락": 3594,
      "그들의": 3595,
      "▁뛰쳐": 3596,
      "자와": 3597,
      "▁대한": 3598,
      "▁두려": 3599,
      "▁느껴": 3600,
      "시를": 3601,
      "▁올려놓": 3602,
      "▁가득한": 3603,
      "▁자전거를": 3604,
      "맛있": 3605,
      "▁테이": 3606,
      "▁팀이": 3607,
      "봤지만": 3608,
      "▁밀어": 3609,
      "▁목소리가": 3610,
      "▁곳을": 3611,
      "▁나무로": 3612,
      "▁있었지만": 3613,
      "▁물고기가": 3614,
      "▁심": 3615,
      "▁뿌": 3616,
      "▁칠": 3617,
      "하죠": 3618,
      "▁말합니다": 3619,
      "▁뛰쳐나": 3620,
      "네요": 3621,
      "▁계속해서": 3622,
      "▁힘을": 3623,
      "▁광": 3624,
      "▁보석": 3625,
      "지어": 3626,
      "▁맥스라는": 3627,
      "▁진흙": 3628,
      "▁닫": 3629,
      "미아와": 3630,
      "▁안아주며": 3631,
      "▁이름은": 3632,
      "▁재미있을": 3633,
      "▁태": 3634,
      "▁훨씬": 3635,
      "▁냈어요": 3636,
      "▁영리": 3637,
      "▁가리": 3638,
      "▁야": 3639,
      "성을": 3640,
      "▁좋아해서": 3641,
      "▁남자를": 3642,
      "▁푸른": 3643,
      "다니는": 3644,
      "▁개와": 3645,
      "아이들은": 3646,
      "▁놀다가": 3647,
      "▁세게": 3648,
      "▁동물들을": 3649,
      "품을": 3650,
      "▁숲속에": 3651,
      "▁붉": 3652,
      "▁루시는": 3653,
      "▁진짜": 3654,
      "으러": 3655,
      "▁달려갔습니다": 3656,
      "▁아이스크림을": 3657,
      "▁망가": 3658,
      "▁찾는": 3659,
      "가족": 3660,
      "▁크레용": 3661,
      "▁뭐가": 3662,
      "▁다음에": 3663,
      "▁들려": 3664,
      "▁하면서": 3665,
      "▁달려갔어요": 3666,
      "▁힘들": 3667,
      "처음": 3668,
      "고양이와": 3669,
      "▁미끄러": 3670,
      "▁기쁨": 3671,
      "▁쌍": 3672,
      "▁사람이": 3673,
      "▁모두가": 3674,
      "▁했고": 3675,
      "▁쓸": 3676,
      "▁일어나": 3677,
      "드릴": 3678,
      "▁달려가서": 3679,
      "▁묻": 3680,
      "깡충깡충": 3681,
      "▁났습니다": 3682,
      "▁지팡": 3683,
      "▁마음에": 3684,
      "▁돌아갔습니다": 3685,
      "▁곰은": 3686,
      "▁지었습니다": 3687,
      "▁고양이에게": 3688,
      "나중에": 3689,
      "▁지저분": 3690,
      "▁봤죠": 3691,
      "▁곳으로": 3692,
      "▁없는": 3693,
      "▁항아": 3694,
      "▁보며": 3695,
      "셔서": 3696,
      "▁곰이": 3697,
      "라고요": 3698,
      "▁늦": 3699,
      "▁슬퍼하고": 3700,
      "워서": 3701,
      "분을": 3702,
      "▁새의": 3703,
      "▁사용해": 3704,
      "▁알려": 3705,
      "▁흙": 3706,
      "였지요": 3707,
      "▁줄게": 3708,
      "▁알았습니다": 3709,
      "▁탑을": 3710,
      "▁기대": 3711,
      "쳐서": 3712,
      "▁뻗": 3713,
      "라가": 3714,
      "▁일어났습니다": 3715,
      "▁두고": 3716,
      "잘했어": 3717,
      "▁놀이를": 3718,
      "▁잭": 3719,
      "▁초록색": 3720,
      "▁갈색": 3721,
      "▁괜찮": 3722,
      "▁와": 3723,
      "▁웃고": 3724,
      "▁그냥": 3725,
      "▁숨겨": 3726,
      "강아지": 3727,
      "▁포기하지": 3728,
      "마을": 3729,
      "▁아팠": 3730,
      "▁무지": 3731,
      "▁나섰": 3732,
      "▁천천히": 3733,
      "엄마도": 3734,
      "▁때는": 3735,
      "▁멈추": 3736,
      "▁형제": 3737,
      "쥐는": 3738,
      "▁맥스가": 3739,
      "▁구해": 3740,
      "▁적이": 3741,
      "구니": 3742,
      "▁탈": 3743,
      "창한": 3744,
      "▁벤이": 3745,
      "▁소리쳤습니다": 3746,
      "크는": 3747,
      "잠시": 3748,
      "차는": 3749,
      "▁놀랐어요": 3750,
      "▁거라": 3751,
      "▁머리": 3752,
      "에마": 3753,
      "▁라": 3754,
      "잠을": 3755,
      "▁믿을": 3756,
      "▁않게": 3757,
      "▁사귀": 3758,
      "▁중요한": 3759,
      "천만": 3760,
      "▁돌아오": 3761,
      "▁빵": 3762,
      "▁수에게": 3763,
      "▁사라져": 3764,
      "겼어요": 3765,
      "▁화려": 3766,
      "▁공유": 3767,
      "바꼭": 3768,
      "▁오래된": 3769,
      "▁뼈": 3770,
      "복숭": 3771,
      "▁않았지만": 3772,
      "▁병을": 3773,
      "보보는": 3774,
      "▁번갈아": 3775,
      "▁것처럼": 3776,
      "스웨": 3777,
      "▁화를": 3778,
      "▁벨": 3779,
      "빙글": 3780,
      "아빠가": 3781,
      "트가": 3782,
      "▁여행을": 3783,
      "▁깡충깡충": 3784,
      "▁아니었어요": 3785,
      "놀고": 3786,
      "▁풍선": 3787,
      "▁결국": 3788,
      "엄마와": 3789,
      "행복": 3790,
      "▁몰랐죠": 3791,
      "소년이": 3792,
      "▁트럭을": 3793,
      "▁친절하게": 3794,
      "▁다가가서": 3795,
      "갑을": 3796,
      "▁말았어요": 3797,
      "▁맡": 3798,
      "▁사실에": 3799,
      "▁뱀": 3800,
      "▁뛰어오": 3801,
      "▁달리고": 3802,
      "▁붉은": 3803,
      "공원에서": 3804,
      "▁친구야": 3805,
      "▁장소를": 3806,
      "이죠": 3807,
      "▁숨을": 3808,
      "▁독": 3809,
      "▁꿈을": 3810,
      "▁여자": 3811,
      "▁좋아했고": 3812,
      "▁쌍둥이": 3813,
      "나게": 3814,
      "항상": 3815,
      "하려고": 3816,
      "부탁": 3817,
      "보기로": 3818,
      "▁찾았어": 3819,
      "맥스라는": 3820,
      "▁위를": 3821,
      "▁못된": 3822,
      "미끄": 3823,
      "스커": 3824,
      "▁맥스를": 3825,
      "레이": 3826,
      "▁버튼": 3827,
      "엄마에게": 3828,
      "▁당근": 3829,
      "▁강해": 3830,
      "내고": 3831,
      "▁그녀가": 3832,
      "하면서": 3833,
      "다람쥐는": 3834,
      "▁선물을": 3835,
      "▁완벽": 3836,
      "▁이미": 3837,
      "▁하셨죠": 3838,
      "▁울타": 3839,
      "미아가": 3840,
      "폭풍": 3841,
      "▁발견하고": 3842,
      "이번에는": 3843,
      "인을": 3844,
      "▁과일": 3845,
      "▁껴안고": 3846,
      "웠죠": 3847,
      "▁벌레가": 3848,
      "▁들어있": 3849,
      "▁밖에": 3850,
      "▁즐겼습니다": 3851,
      "▁빗": 3852,
      "▁후로": 3853,
      "마법": 3854,
      "▁발견했지요": 3855,
      "▁앉아서": 3856,
      "▁스웨": 3857,
      "▁갇": 3858,
      "▁반짝거": 3859,
      "▁예뻐": 3860,
      "거운": 3861,
      "즈를": 3862,
      "샌드": 3863,
      "치며": 3864,
      "안녕하세요": 3865,
      "▁만들었죠": 3866,
      "▁살았습니다": 3867,
      "▁보라색": 3868,
      "루시라는": 3869,
      "이로": 3870,
      "▁친구예요": 3871,
      "렸답니다": 3872,
      "▁주위를": 3873,
      "▁바라보고": 3874,
      "▁파티를": 3875,
      "▁걸려": 3876,
      "▁만나": 3877,
      "가를": 3878,
      "수와": 3879,
      "▁쌓": 3880,
      "▁플러피": 3881,
      "▁벤에게": 3882,
      "▁키티": 3883,
      "▁덮": 3884,
      "감을": 3885,
      "아마": 3886,
      "▁환호": 3887,
      "▁서로에게": 3888,
      "▁놀기로": 3889,
      "았다": 3890,
      "▁기뻤답니다": 3891,
      "하던": 3892,
      "▁어떤": 3893,
      "한다고": 3894,
      "▁안고": 3895,
      "▁풍선을": 3896,
      "톰의": 3897,
      "▁상자가": 3898,
      "▁깔": 3899,
      "▁새와": 3900,
      "샌드위": 3901,
      "▁학교": 3902,
      "▁부러": 3903,
      "▁자라": 3904,
      "스와": 3905,
      "▁시작했고": 3906,
      "▁준비가": 3907,
      "▁숟가락": 3908,
      "▁버렸어요": 3909,
      "▁먹었어요": 3910,
      "미안": 3911,
      "▁시작한": 3912,
      "▁누워": 3913,
      "▁벤을": 3914,
      "▁지루": 3915,
      "▁숲에서": 3916,
      "▁신발을": 3917,
      "았어": 3918,
      "▁성공": 3919,
      "▁하얀": 3920,
      "▁해보자": 3921,
      "▁스스로": 3922,
      "▁견": 3923,
      "말을": 3924,
      "▁나갔어요": 3925,
      "더라고요": 3926,
      "▁되었죠": 3927,
      "▁씨앗": 3928,
      "부는": 3929,
      "▁블록을": 3930,
      "샘과": 3931,
      "▁친절하고": 3932,
      "▁샘을": 3933,
      "▁것보다": 3934,
      "▁머물": 3935,
      "▁몸을": 3936,
      "로는": 3937,
      "▁달렸습니다": 3938,
      "▁루": 3939,
      "▁멈췄": 3940,
      "겼습니다": 3941,
      "남자는": 3942,
      "맥스가": 3943,
      "▁부서": 3944,
      "▁좋았어요": 3945,
      "▁잡아": 3946,
      "▁고마워요": 3947,
      "자신이": 3948,
      "▁달콤한": 3949,
      "▁없이": 3950,
      "▁개구리는": 3951,
      "었다는": 3952,
      "▁개구리가": 3953,
      "▁명": 3954,
      "예쁜": 3955,
      "▁사람들에게": 3956,
      "티는": 3957,
      "▁가족과": 3958,
      "▁잠을": 3959,
      "저도": 3960,
      "▁향해": 3961,
      "다시는": 3962,
      "르르": 3963,
      "▁모험": 3964,
      "지에": 3965,
      "디베": 3966,
      "것도": 3967,
      "▁사람을": 3968,
      "너도": 3969,
      "▁고장": 3970,
      "▁동생": 3971,
      "▁기다릴": 3972,
      "▁손에": 3973,
      "▁파란": 3974,
      "친절한": 3975,
      "▁걷고": 3976,
      "▁건강": 3977,
      "▁슬퍼하는": 3978,
      "냐하면": 3979,
      "▁삼": 3980,
      "대를": 3981,
      "▁걱정이": 3982,
      "▁입을": 3983,
      "왜냐하면": 3984,
      "▁잊지": 3985,
      "▁간식": 3986,
      "바꼭질을": 3987,
      "주었죠": 3988,
      "▁그래": 3989,
      "▁생각해": 3990,
      "▁바구니": 3991,
      "▁끈": 3992,
      "▁예쁘게": 3993,
      "▁느끼고": 3994,
      "심지어": 3995,
      "▁가족을": 3996,
      "빨리": 3997,
      "▁땅에서": 3998,
      "▁개미": 3999,
      "▁되찾": 4000,
      "▁만족": 4001,
      "았거든요": 4002,
      "▁행복해서": 4003,
      "▁곁": 4004,
      "▁냈습니다": 4005,
      "▁원숭": 4006,
      "집으로": 4007,
      "치에": 4008,
      "▁친구들": 4009,
      "▁가끔": 4010,
      "▁도움": 4011,
      "▁피곤해": 4012,
      "▁호기심이": 4013,
      "▁낫": 4014,
      "수야": 4015,
      "▁모르": 4016,
      "▁아래에": 4017,
      "▁동굴": 4018,
      "▁다이": 4019,
      "▁열쇠를": 4020,
      "실을": 4021,
      "▁해서": 4022,
      "▁네가": 4023,
      "▁날이": 4024,
      "▁먹기": 4025,
      "어떻게": 4026,
      "▁내려와": 4027,
      "▁배우고": 4028,
      "▁하나를": 4029,
      "▁잃고": 4030,
      "아무": 4031,
      "황색": 4032,
      "▁초대": 4033,
      "근한": 4034,
      "▁용감한": 4035,
      "▁놀이": 4036,
      "▁어려": 4037,
      "▁무릎": 4038,
      "라도": 4039,
      "바람이": 4040,
      "인사를": 4041,
      "▁싶다고": 4042,
      "▁잎사귀를": 4043,
      "▁보이지": 4044,
      "▁최선을": 4045,
      "▁뿐": 4046,
      "▁갔답니다": 4047,
      "▁호박": 4048,
      "▁같아": 4049,
      "▁멋져": 4050,
      "▁생각했답니다": 4051,
      "▁날고": 4052,
      "미끄럼틀": 4053,
      "했지": 4054,
      "나무는": 4055,
      "▁보여주었습니다": 4056,
      "하루가": 4057,
      "▁다리를": 4058,
      "으니까": 4059,
      "▁도와주는": 4060,
      "▁소원을": 4061,
      "▁편지를": 4062,
      "▁말아야": 4063,
      "▁도착해서": 4064,
      "▁신나서": 4065,
      "▁그들": 4066,
      "▁더러워": 4067,
      "▁밥을": 4068,
      "▁가며": 4069,
      "▁햇살": 4070,
      "▁뛰어다니며": 4071,
      "▁아기": 4072,
      "▁애썼": 4073,
      "▁우리가": 4074,
      "▁쳐다보며": 4075,
      "▁루시라는": 4076,
      "▁부끄": 4077,
      "▁자동차로": 4078,
      "이나": 4079,
      "감사합니다": 4080,
      "▁공과": 4081,
      "▁낮잠을": 4082,
      "▁못했죠": 4083,
      "▁동전을": 4084,
      "▁강아지는": 4085,
      "트럭": 4086,
      "▁냉": 4087,
      "도와줄": 4088,
      "▁했어": 4089,
      "▁써": 4090,
      "무서워": 4091,
      "▁맥스에게": 4092,
      "▁않았거든요": 4093,
      "▁장난감들을": 4094,
      "▁남자에게": 4095,
      "▁누구": 4096,
      "▁던져": 4097,
      "셔츠": 4098,
      "▁글": 4099,
      "▁들판": 4100,
      "▁나가서": 4101,
      "▁무서워했습니다": 4102,
      "튼튼": 4103,
      "▁않아서": 4104,
      "▁뛰어올라": 4105,
      "▁지기": 4106,
      "▁선생님": 4107,
      "▁질렀": 4108,
      "▁만났": 4109,
      "▁놀아요": 4110,
      "▁조각을": 4111,
      "▁핀": 4112,
      "▁의자에": 4113,
      "▁돌아갔어요": 4114,
      "▁목욕": 4115,
      "▁판": 4116,
      "소는": 4117,
      "▁작별인사를": 4118,
      "▁도울": 4119,
      "▁견과": 4120,
      "▁꿀": 4121,
      "공이": 4122,
      "▁요정": 4123,
      "▁입에": 4124,
      "▁배울": 4125,
      "▁샌드위": 4126,
      "▁만들기": 4127,
      "전에": 4128,
      "▁잘못": 4129,
      "▁기어": 4130,
      "▁마세요": 4131,
      "▁다행": 4132,
      "스러워": 4133,
      "루시와": 4134,
      "▁산책": 4135,
      "▁전화": 4136,
      "▁항해": 4137,
      "▁여러": 4138,
      "▁아버": 4139,
      "▁스팟이": 4140,
      "형을": 4141,
      "다보고": 4142,
      "유를": 4143,
      "▁부딪": 4144,
      "누가": 4145,
      "▁뛰어놀": 4146,
      "▁옮": 4147,
      "▁소녀와": 4148,
      "▁목소리를": 4149,
      "▁거기에": 4150,
      "▁이름을": 4151,
      "▁이용": 4152,
      "▁움직이기": 4153,
      "▁토끼를": 4154,
      "▁동물들은": 4155,
      "▁데려가": 4156,
      "▁새끼": 4157,
      "▁꼭대": 4158,
      "▁난장": 4159,
      "▁왔습니다": 4160,
      "▁예뻤": 4161,
      "▁올라타": 4162,
      "▁해주고": 4163,
      "당신은": 4164,
      "▁자동차가": 4165,
      "▁브": 4166,
      "▁화창한": 4167,
      "렸어": 4168,
      "루를": 4169,
      "▁뭔": 4170,
      "▁생각하고": 4171,
      "▁정원을": 4172,
      "스팟과": 4173,
      "▁싶어했죠": 4174,
      "▁친구에게": 4175,
      "▁'": 4176,
      "▁플": 4177,
      "시며": 4178,
      "▁울고": 4179,
      "실로": 4180,
      "▁눈사람": 4181,
      "▁쓰레": 4182,
      "▁너무나도": 4183,
      "▁얼굴에": 4184,
      "▁곳에서": 4185,
      "▁검은": 4186,
      "▁거죠": 4187,
      "미에게": 4188,
      "▁화려한": 4189,
      "착한": 4190,
      "▁날을": 4191,
      "음이": 4192,
      "▁바퀴": 4193,
      "▁날려": 4194,
      "▁혼란": 4195,
      "▁발생": 4196,
      "키며": 4197,
      "▁가지게": 4198,
      "▁싶었거든요": 4199,
      "▁되자": 4200,
      "▁표정을": 4201,
      "▁부모님": 4202,
      "사자는": 4203,
      "▁제일": 4204,
      "▁숫": 4205,
      "▁숨어": 4206,
      "다녔어요": 4207,
      "였답니다": 4208,
      "▁하늘에서": 4209,
      "▁둥지를": 4210,
      "▁역": 4211,
      "▁뒷": 4212,
      "▁포근한": 4213,
      "▁목걸": 4214,
      "상에": 4215,
      "프는": 4216,
      "▁퍼즐": 4217,
      "▁놀지": 4218,
      "▁도달": 4219,
      "자동차": 4220,
      "장이": 4221,
      "이게": 4222,
      "▁코끼": 4223,
      "마자": 4224,
      "뚱뚱": 4225,
      "▁무섭": 4226,
      "▁먹었습니다": 4227,
      "▁더러운": 4228,
      "▁좋겠다고": 4229,
      "▁활": 4230,
      "▁미스터": 4231,
      "줘야": 4232,
      "▁슬펐습니다": 4233,
      "하라고": 4234,
      "▁놀라서": 4235,
      "▁스팟을": 4236,
      "▁무서워졌어요": 4237,
      "▁안의": 4238,
      "줄을": 4239,
      "▁가기로": 4240,
      "미아라는": 4241,
      "▁웅덩": 4242,
      "▁집안": 4243,
      "▁밥은": 4244,
      "▁흥미": 4245,
      "▁쇼": 4246,
      "상자를": 4247,
      "▁해결": 4248,
      "소리를": 4249,
      "▁식사를": 4250,
      "▁나를": 4251,
      "늑대": 4252,
      "▁올빼": 4253,
      "▁찾아보자": 4254,
      "▁음악을": 4255,
      "▁속으로": 4256,
      "▁상처": 4257,
      "가끔": 4258,
      "▁한번": 4259,
      "▁튼튼": 4260,
      "브는": 4261,
      "겨서": 4262,
      "▁쉽": 4263,
      "▁다치게": 4264,
      "▁덕": 4265,
      "▁생각하며": 4266,
      "▁돈을": 4267,
      "▁더욱": 4268,
      "장고": 4269,
      "▁리본": 4270,
      "▁차고": 4271,
      "▁떨어진": 4272,
      "▁나누는": 4273,
      "▁엄": 4274,
      "▁주방": 4275,
      "▁살펴보": 4276,
      "마당": 4277,
      "기와": 4278,
      "▁설명": 4279,
      "▁찼": 4280,
      "▁서서": 4281,
      "▁다투": 4282,
      "▁원치": 4283,
      "▁가져갔어요": 4284,
      "▁느낌": 4285,
      "분에": 4286,
      "▁농담": 4287,
      "▁행복해졌습니다": 4288,
      "▁도와주러": 4289,
      "▁보내고": 4290,
      "머리": 4291,
      "졌어": 4292,
      "▁테디베": 4293,
      "▁사진을": 4294,
      "▁돼요": 4295,
      "▁호수": 4296,
      "▁낡": 4297,
      "▁보냈죠": 4298,
      "▁일에": 4299,
      "▁누군가": 4300,
      "▁맑은": 4301,
      "▁됐": 4302,
      "▁셔츠": 4303,
      "▁아무도": 4304,
      "웠답니다": 4305,
      "▁터뜨": 4306,
      "▁깃털": 4307,
      "라를": 4308,
      "▁파티에": 4309,
      "▁벽에": 4310,
      "▁그런": 4311,
      "▁하기로": 4312,
      "▁사랑스러운": 4313,
      "▁싶어했습니다": 4314,
      "▁밝게": 4315,
      "▁무서워했어요": 4316,
      "▁느꼈답니다": 4317,
      "▁상태": 4318,
      "▁바라보았습니다": 4319,
      "▁개구리를": 4320,
      "미의": 4321,
      "▁충분": 4322,
      "▁수줍": 4323,
      "▁미소지으며": 4324,
      "▁주인": 4325,
      "밖에서": 4326,
      "▁기뻐했답니다": 4327,
      "뛰어": 4328,
      "지와": 4329,
      "▁있었거든요": 4330,
      "▁회색": 4331,
      "냐고": 4332,
      "▁맥스와": 4333,
      "▁마치고": 4334,
      "▁악": 4335,
      "롭게": 4336,
      "▁기다려": 4337,
      "▁눌": 4338,
      "장난감을": 4339,
      "해주": 4340,
      "▁든": 4341,
      "어디": 4342,
      "▁으": 4343,
      "▁견과류": 4344,
      "▁바라보았어요": 4345,
      "▁줄을": 4346,
      "▁몰랐거든요": 4347,
      "▁생각해요": 4348,
      "▁나타났습니다": 4349,
      "할머니는": 4350,
      "지금": 4351,
      "덤불": 4352,
      "▁하늘에": 4353,
      "▁부엌으로": 4354,
      "사과": 4355,
      "▁사람들과": 4356,
      "▁난장판을": 4357,
      "빌리는": 4358,
      "▁배고": 4359,
      "▁욕": 4360,
      "▁소파": 4361,
      "터는": 4362,
      "라운": 4363,
      "▁후에": 4364,
      "▁섬": 4365,
      "▁것과": 4366,
      "▁컸": 4367,
      "▁고칠": 4368,
      "하셨어요": 4369,
      "이지는": 4370,
      "프로": 4371,
      "▁빠른": 4372,
      "터가": 4373,
      "▁쨍": 4374,
      "▁사고": 4375,
      "▁손가락": 4376,
      "▁소녀에게": 4377,
      "▁문제를": 4378,
      "길을": 4379,
      "▁아무것도": 4380,
      "▁불렀어요": 4381,
      "▁연습": 4382,
      "▁배는": 4383,
      "바위": 4384,
      "▁착하게": 4385,
      "분은": 4386,
      "▁말라고": 4387,
      "▁그림이": 4388,
      "너를": 4389,
      "▁펼": 4390,
      "▁깨달았죠": 4391,
      "▁부엉": 4392,
      "▁깜짝": 4393,
      "▁보여주었어요": 4394,
      "▁돌아와": 4395,
      "▁소년과": 4396,
      "▁보이는": 4397,
      "▁사자": 4398,
      "▁있기를": 4399,
      "▁강아지를": 4400,
      "▁숲을": 4401,
      "▁주황색": 4402,
      "▁각": 4403,
      "맛있는": 4404,
      "▁돌아왔": 4405,
      "카락": 4406,
      "▁졸": 4407,
      "▁물이": 4408,
      "▁베어": 4409,
      "▁마음으로": 4410,
      "▁아빠를": 4411,
      "▁요청": 4412,
      "▁블록으로": 4413,
      "▁보자": 4414,
      "▁아파": 4415,
      "▁머리에": 4416,
      "▁둥근": 4417,
      "▁요리": 4418,
      "종일": 4419,
      "▁타는": 4420,
      "▁물건들을": 4421,
      "▁헬": 4422,
      "▁물속에서": 4423,
      "▁것들이": 4424,
      "▁동의했고": 4425,
      "▁결심했죠": 4426,
      "그러면": 4427,
      "▁숨바꼭질을": 4428,
      "씨가": 4429,
      "▁로봇": 4430,
      "더니": 4431,
      "▁용감해": 4432,
      "가게": 4433,
      "어져": 4434,
      "냈답니다": 4435,
      "지게": 4436,
      "스럽고": 4437,
      "▁없을": 4438,
      "서는": 4439,
      "▁부엌에서": 4440,
      "▁없었거든요": 4441,
      "밭에서": 4442,
      "▁옆에서": 4443,
      "▁거북": 4444,
      "▁유지": 4445,
      "실에서": 4446,
      "▁드레스": 4447,
      "사람들은": 4448,
      "머니는": 4449,
      "▁가기": 4450,
      "▁놀랐지만": 4451,
      "▁나비를": 4452,
      "▁보관": 4453,
      "▁듣는": 4454,
      "▁도와주기로": 4455,
      "숨을": 4456,
      "▁지내": 4457,
      "▁가짜": 4458,
      "▁지었어요": 4459,
      "꾸러": 4460,
      "▁넣어": 4461,
      "▁지팡이를": 4462,
      "▁아래로": 4463,
      "▁너에게": 4464,
      "▁필요해": 4465,
      "가요": 4466,
      "▁선반": 4467,
      "▁수를": 4468,
      "▁시작했지요": 4469,
      "▁어두운": 4470,
      "랐죠": 4471,
      "▁없어요": 4472,
      "▁그렇": 4473,
      "웃으며": 4474,
      "▁신경": 4475,
      "았을": 4476,
      "▁감고": 4477,
      "▁헤엄쳐": 4478,
      "나무를": 4479,
      "원에": 4480,
      "▁친구와": 4481,
      "▁웃긴": 4482,
      "뚱뚱한": 4483,
      "소를": 4484,
      "▁발을": 4485,
      "리야": 4486,
      "▁식물": 4487,
      "▁거였죠": 4488,
      "▁놀아": 4489,
      "▁가족은": 4490,
      "▁색깔을": 4491,
      "▁곳이": 4492,
      "▁바랐습니다": 4493,
      "동물들은": 4494,
      "▁수프를": 4495,
      "웠고": 4496,
      "로워": 4497,
      "▁레몬": 4498,
      "▁따뜻하고": 4499,
      "주세요": 4500,
      "파티": 4501,
      "▁양동": 4502,
      "▁버튼을": 4503,
      "▁꽃이": 4504,
      "▁꽉": 4505,
      "▁스팟과": 4506,
      "▁고집": 4507,
      "▁울음을": 4508,
      "도가": 4509,
      "▁부탁했어요": 4510,
      "▁필요할": 4511,
      "▁그릴": 4512,
      "▁깨끗해": 4513,
      "▁단단": 4514,
      "▁표지": 4515,
      "그들": 4516,
      "▁화장": 4517,
      "다귀": 4518,
      "▁즐겼답니다": 4519,
      "▁방법": 4520,
      "▁모두에게": 4521,
      "강아지는": 4522,
      "▁세상을": 4523,
      "▁에이미는": 4524,
      "가지": 4525,
      "▁예상치": 4526,
      "▁찾아서": 4527,
      "안에는": 4528,
      "▁뛰는": 4529,
      "▁찾으려고": 4530,
      "우리도": 4531,
      "버디는": 4532,
      "리게": 4533,
      "▁기뻐했죠": 4534,
      "▁공중": 4535,
      "▁끄덕였습니다": 4536,
      "▁자신에게": 4537,
      "▁용서": 4538,
      "▁뭘": 4539,
      "▁시원": 4540,
      "▁이용해": 4541,
      "브를": 4542,
      "티모": 4543,
      "▁생일": 4544,
      "▁선물로": 4545,
      "▁다녔": 4546,
      "▁연을": 4547,
      "리스": 4548,
      "▁깔끔": 4549,
      "케이": 4550,
      "즈는": 4551,
      "아이들": 4552,
      "시에": 4553,
      "경주": 4554,
      "근데": 4555,
      "혜로운": 4556,
      "아버지는": 4557,
      "▁숨겨진": 4558,
      "▁날아올": 4559,
      "▁테이블": 4560,
      "▁잊어버": 4561,
      "▁냄새가": 4562,
      "▁기다렸어요": 4563,
      "▁손으로": 4564,
      "다리를": 4565,
      "▁잊고": 4566,
      "▁축하": 4567,
      "▁좋아하고": 4568,
      "▁사랑했습니다": 4569,
      "▁안전한": 4570,
      "▁앞으로": 4571,
      "꾸러기": 4572,
      "▁상점": 4573,
      "▁잡을": 4574,
      "▁사탕을": 4575,
      "▁살폈": 4576,
      "조금": 4577,
      "고래": 4578,
      "▁버렸습니다": 4579,
      "오늘은": 4580,
      "매우": 4581,
      "▁담요를": 4582,
      "▁매달": 4583,
      "▁모자": 4584,
      "▁원했습니다": 4585,
      "▁보석을": 4586,
      "▁미아라는": 4587,
      "▁춤추고": 4588,
      "▁부드럽게": 4589,
      "▁불어": 4590,
      "▁잠자리에": 4591,
      "범한": 4592,
      "했던": 4593,
      "▁하자": 4594,
      "▁코트를": 4595,
      "▁슬퍼하니": 4596,
      "▁불리는": 4597,
      "▁오븐": 4598,
      "▁나오": 4599,
      "▁위해서": 4600,
      "▁표했습니다": 4601,
      "좋은": 4602,
      "▁우스": 4603,
      "미아의": 4604,
      "▁않다는": 4605,
      "장은": 4606,
      "▁공주": 4607,
      "▁예쁘고": 4608,
      "▁완벽한": 4609,
      "▁나뭇가지를": 4610,
      "▁장난감은": 4611,
      "▁인내": 4612,
      "▁휴": 4613,
      "그네": 4614,
      "다듬": 4615,
      "▁찢": 4616,
      "▁혼자서": 4617,
      "▁인사": 4618,
      "▁가리키며": 4619,
      "▁일어났어요": 4620,
      "▁질투": 4621,
      "▁연못에": 4622,
      "하여": 4623,
      "▁빛을": 4624,
      "▁만큼": 4625,
      "▁무서워하고": 4626,
      "▁내가": 4627,
      "▁챙": 4628,
      "왕은": 4629,
      "▁도착하자": 4630,
      "▁어지": 4631,
      "▁커서": 4632,
      "▁바위가": 4633,
      "▁있었다": 4634,
      "관을": 4635,
      "▁사랑해요": 4636,
      "▁돕기": 4637,
      "▁폭풍": 4638,
      "▁하면": 4639,
      "▁편안": 4640,
      "▁총": 4641,
      "▁나눠주": 4642,
      "▁돌아왔습니다": 4643,
      "▁디": 4644,
      "▁들여다보": 4645,
      "▁새들이": 4646,
      "▁합": 4647,
      "▁결코": 4648,
      "▁무거운": 4649,
      "▁일들을": 4650,
      "▁현명한": 4651,
      "▁이빨": 4652,
      "▁시도했지만": 4653,
      "성이": 4654,
      "▁차에": 4655,
      "▁듯": 4656,
      "새야": 4657,
      "▁된다는": 4658,
      "▁쳤어요": 4659,
      "▁걸었습니다": 4660,
      "▁까": 4661,
      "콜릿": 4662,
      "▁오르": 4663,
      "▁누가": 4664,
      "▁스팟에게": 4665,
      "막스는": 4666,
      "▁다해": 4667,
      "!'": 4668,
      "▁썼": 4669,
      "▁곰을": 4670,
      "▁있죠": 4671,
      "봐도": 4672,
      "▁맞춰": 4673,
      "▁하셨습니다": 4674,
      "▁아니라는": 4675,
      "▁불을": 4676,
      "▁엘": 4677,
      "티모는": 4678,
      "▁춤추는": 4679,
      "▁그것들을": 4680,
      "▁말하고": 4681,
      "▁예의": 4682,
      "▁쓰다듬": 4683,
      "▁앉았어요": 4684,
      "▁그저": 4685,
      "나쁜": 4686,
      "▁말하는": 4687,
      "▁제안": 4688,
      "계속": 4689,
      "▁훌": 4690,
      "▁강력": 4691,
      "디오": 4692,
      "려요": 4693,
      "▁되는": 4694,
      "수의": 4695,
      "▁꺼내서": 4696,
      "▁행복해졌답니다": 4697,
      "제발": 4698,
      "▁시끄러운": 4699,
      "크를": 4700,
      "▁실을": 4701,
      "맞아": 4702,
      "▁드럼": 4703,
      "▁남을": 4704,
      "▁안아주고": 4705,
      "▁기억해": 4706,
      "▁떠올렸어요": 4707,
      "▁행복해요": 4708,
      "▁중에": 4709,
      "▁샐리는": 4710,
      "▁연못에서": 4711,
      "▁봤습니다": 4712,
      "▁있을지": 4713,
      "▁어리석은": 4714,
      "▁했다": 4715,
      "▁대신": 4716,
      "▁울면서": 4717,
      "▁것으로": 4718,
      "▁끝에": 4719,
      "▁쓴": 4720,
      "▁보낸": 4721,
      "▁미끄러져": 4722,
      "▁빛나고": 4723,
      "▁들어올": 4724,
      "▁나눌": 4725,
      "부드": 4726,
      "▁들어가서": 4727,
      "▁만지": 4728,
      "팀미는": 4729,
      "▁그리워": 4730,
      "▁에이미라는": 4731,
      "▁쨍쨍": 4732,
      "그만": 4733,
      "▁무례": 4734,
      "▁될까요": 4735,
      "치지": 4736,
      "▁하는지": 4737,
      "▁로켓": 4738,
      "▁여우": 4739,
      "면서도": 4740,
      "▁배우는": 4741,
      "▁균": 4742,
      "차를": 4743,
      "력을": 4744,
      "▁즐기며": 4745,
      "▁나눴": 4746,
      "▁확인": 4747,
      "▁들어갈": 4748,
      "부짖": 4749,
      "친구들과": 4750,
      "미미는": 4751,
      "▁만지고": 4752,
      "▁직": 4753,
      "쳤죠": 4754,
      "조심해": 4755,
      "졌지요": 4756,
      "▁덕분에": 4757,
      "▁찾은": 4758,
      "▁뼈다귀": 4759,
      "▁덤불": 4760,
      "▁도와줘서": 4761,
      "릴리야": 4762,
      "▁흐": 4763,
      "라면": 4764,
      "▁상황": 4765,
      "▁빼앗아": 4766,
      "▁싶어졌습니다": 4767,
      "콘을": 4768,
      "▁팬": 4769,
      "▁바나": 4770,
      "들어": 4771,
      "▁조깅": 4772,
      "▁패": 4773,
      "▁소년에게": 4774,
      "▁한숨을": 4775,
      "▁자유": 4776,
      "▁위의": 4777,
      "피를": 4778,
      "▁않겠다고": 4779,
      "▁보호": 4780,
      "였지만": 4781,
      "▁샘의": 4782,
      "으려": 4783,
      "졌지만": 4784,
      "으라고": 4785,
      "▁똑똑한": 4786,
      "▁안아": 4787,
      "너랑": 4788,
      "▁아이디어가": 4789,
      "예상치": 4790,
      "▁폴": 4791,
      "▁고민": 4792,
      "▁깨끗이": 4793,
      "▁찍": 4794,
      "▁벌어졌습니다": 4795,
      "▁몰랐지만": 4796,
      "▁있지만": 4797,
      "▁창의": 4798,
      "▁잠이": 4799,
      "친구들이": 4800,
      "▁있어야": 4801,
      "▁날카": 4802,
      "사랑": 4803,
      "▁쓰러": 4804,
      "▁아이들을": 4805,
      "▁먹지": 4806,
      "도로": 4807,
      "몰리는": 4808,
      "▁아이가": 4809,
      "되고": 4810,
      "▁좋다는": 4811,
      "▁탐험하는": 4812,
      "▁냉장고": 4813,
      "▁올라가서": 4814,
      "동안": 4815,
      "▁무서워했지만": 4816,
      "TV": 4817,
      "▁이루": 4818,
      "▁슬펐지만": 4819,
      "유한": 4820,
      "▁낫다는": 4821,
      "▁부르는": 4822,
      "생쥐는": 4823,
      "▁신발": 4824,
      "▁핥": 4825,
      "▁장난감들이": 4826,
      "▁마치": 4827,
      "▁슬퍼했죠": 4828,
      "당신의": 4829,
      "▁주머니에": 4830,
      "▁파스": 4831,
      "▁것이었습니다": 4832,
      "렸지만": 4833,
      "▁원하는": 4834,
      "▁많았어요": 4835,
      "▁있었어": 4836,
      "▁보기": 4837,
      "타를": 4838,
      "▁눈이": 4839,
      "▁넣었습니다": 4840,
      "▁전혀": 4841,
      "▁다람쥐가": 4842,
      "울을": 4843,
      "니가": 4844,
      "▁뜻": 4845,
      "▁행진": 4846,
      "▁울부짖": 4847,
      "오리는": 4848,
      "소리가": 4849,
      "여전히": 4850,
      "▁농담을": 4851,
      "▁끄덕였어요": 4852,
      "▁필요한": 4853,
      "적이": 4854,
      "▁당근을": 4855,
      "▁결정했죠": 4856,
      "▁말하며": 4857,
      "각형": 4858,
      "버렸습니다": 4859,
      "▁나무와": 4860,
      "▁슬퍼졌습니다": 4861,
      "▁불꽃": 4862,
      "▁묶": 4863,
      "들고": 4864,
      "▁사람은": 4865,
      "▁동물들과": 4866,
      "너에게": 4867,
      "▁말았죠": 4868,
      "▁파이": 4869,
      "스라는": 4870,
      "▁부끄러워": 4871,
      "▁결혼": 4872,
      "▁좋아했지만": 4873,
      "▁의자를": 4874,
      "▁줘": 4875,
      "▁뒤에서": 4876,
      "▁구멍이": 4877,
      "만큼": 4878,
      "▁웃기": 4879,
      "▁비행기를": 4880,
      "▁스파": 4881,
      "▁블루": 4882,
      "▁앞에": 4883,
      "물고기는": 4884,
      "▁밑에서": 4885,
      "▁머리카락": 4886,
      "르렁": 4887,
      "▁아름답": 4888,
      "스팟이라는": 4889,
      "▁조심해": 4890,
      "▁일으": 4891,
      "▁끝나": 4892,
      "▁봉": 4893,
      "▁가져갔습니다": 4894,
      "▁버디": 4895,
      "▁생긴": 4896,
      "에마는": 4897,
      "▁착용": 4898,
      "수록": 4899,
      "▁집이": 4900,
      "▁천을": 4901,
      "스팟이": 4902,
      "▁벤치에": 4903,
      "▁훔": 4904,
      "라의": 4905,
      "▁싶니": 4906,
      "▁펜": 4907,
      "▁가족이": 4908,
      "▁뛰어넘": 4909,
      "▁좋아요": 4910,
      "▁맛있어": 4911,
      "▁자세": 4912,
      "▁지금": 4913,
      "▁곁에": 4914,
      "또한": 4915,
      "▁우스꽝": 4916,
      "▁자동차와": 4917,
      "▁샌드위치를": 4918,
      "▁읽고": 4919,
      "만의": 4920,
      "차가": 4921,
      "해졌어요": 4922,
      "▁밴": 4923,
      "▁들었죠": 4924,
      "▁불러": 4925,
      "▁대로": 4926,
      "▁담긴": 4927,
      "가자": 4928,
      "무엇": 4929,
      "▁있겠": 4930,
      "▁바다에서": 4931,
      "▁나왔어요": 4932,
      "▁우체": 4933,
      "▁문이": 4934,
      "▁마리": 4935,
      "드렸어요": 4936,
      "이크는": 4937,
      "▁그리는": 4938,
      "직한": 4939,
      "▁팔을": 4940,
      "▁그렸어요": 4941,
      "▁잡았어요": 4942,
      "자마자": 4943,
      "▁빵을": 4944,
      "▁칼": 4945,
      "▁보트를": 4946,
      "▁낚": 4947,
      "었다고": 4948,
      "▁견과류를": 4949,
      "가에": 4950,
      "▁쓰지": 4951,
      "▁배웠죠": 4952,
      "▁가져다가": 4953,
      "림을": 4954,
      "▁나눔": 4955,
      "▁보물을": 4956,
      "▁계단": 4957,
      "▁팝": 4958,
      "간이": 4959,
      "냈죠": 4960,
      "▁친근한": 4961,
      "▁속삭": 4962,
      "▁끼": 4963,
      "▁즐겼어요": 4964,
      "▁주었죠": 4965,
      "나가": 4966,
      "▁모양을": 4967,
      "▁원했죠": 4968,
      "바라": 4969,
      "드릴게요": 4970,
      "▁기울": 4971,
      "▁훌륭": 4972,
      "▁앤": 4973,
      "▁움직이지": 4974,
      "기분이": 4975,
      "▁벤의": 4976,
      "▁우유를": 4977,
      "게도": 4978,
      "▁자부": 4979,
      "▁신비": 4980,
      "▁구슬": 4981,
      "▁무서워하게": 4982,
      "▁부르고": 4983,
      "▁가까워": 4984,
      "거리며": 4985,
      "▁지나가": 4986,
      "▁기차를": 4987,
      "▁둘이": 4988,
      "▁말하죠": 4989,
      "▁비둘": 4990,
      "에이미라는": 4991,
      "▁널": 4992,
      "▁달라고": 4993,
      "마토": 4994,
      "아니요": 4995,
      "생긴": 4996,
      "▁들어왔어요": 4997,
      "었던": 4998,
      "▁싸우": 4999,
      "▁수레": 5000,
      "▁어두워": 5001,
      "에게서": 5002,
      "▁후회": 5003,
      "▁평화": 5004,
      "▁안나는": 5005,
      "▁웃게": 5006,
      "에이미와": 5007,
      "바닥에": 5008,
      "▁달리는": 5009,
      "용감": 5010,
      "▁학교에": 5011,
      "여우는": 5012,
      "▁도왔": 5013,
      "밖에": 5014,
      "▁아이들": 5015,
      "▁털을": 5016,
      "▁젖은": 5017,
      "▁보였죠": 5018,
      "▁살펴보고": 5019,
      "천만에": 5020,
      "롭지": 5021,
      "치가": 5022,
      "▁수건": 5023,
      "▁티머라는": 5024,
      "놀이": 5025,
      "▁얼음": 5026,
      "▁완성": 5027,
      "대신": 5028,
      "스웨는": 5029,
      "▁울었어요": 5030,
      "요정": 5031,
      "속에서": 5032,
      "▁컵을": 5033,
      "▁종이": 5034,
      "▁처음": 5035,
      "내려": 5036,
      "▁그릇을": 5037,
      "▁바위에": 5038,
      "▁그렇다고": 5039,
      "▁굽": 5040,
      "미안해요": 5041,
      "▁수의": 5042,
      "▁주스를": 5043,
      "라서": 5044,
      "▁끌어": 5045,
      "▁뛰며": 5046,
      "▁새야": 5047,
      "▁인쇄": 5048,
      "▁무릎을": 5049,
      "▁받아": 5050,
      "▁재미있어": 5051,
      "▁금방": 5052,
      "도와줘": 5053,
      "셨고": 5054,
      "▁끄덕이고": 5055,
      "▁길에": 5056,
      "▁불어서": 5057,
      "▁돌아왔어요": 5058,
      "▁말했어": 5059,
      "주변": 5060,
      "▁다친": 5061,
      "▁생쥐는": 5062,
      "도는": 5063,
      "▁기분을": 5064,
      "▁노인": 5065,
      "▁쏟": 5066,
      "▁된다고": 5067,
      "▁일하는": 5068,
      "▁차례": 5069,
      "▁들어갔습니다": 5070,
      "사라가": 5071,
      "수로": 5072,
      "나무가": 5073,
      "롭고": 5074,
      "▁그랬": 5075,
      "▁능": 5076,
      "료를": 5077,
      "▁가요": 5078,
      "▁자세히": 5079,
      "워야": 5080,
      "▁그대로": 5081,
      "▁보았죠": 5082,
      "부모": 5083,
      "▁숲속에서": 5084,
      "▁해변에": 5085,
      "비를": 5086,
      "▁가방에": 5087,
      "파란색": 5088,
      "▁전화를": 5089,
      "▁아이들은": 5090,
      "▁지키": 5091,
      "▁이전에": 5092,
      "▁않았어": 5093,
      "▁탐험하고": 5094,
      "▁결정했어요": 5095,
      "▁모두를": 5096,
      "주었고": 5097,
      "▁불렀습니다": 5098,
      "▁치고": 5099,
      "▁사랑하는": 5100,
      "▁데리고": 5101,
      "▁죽": 5102,
      "아를": 5103,
      "▁그리기": 5104,
      "▁봤어": 5105,
      "여서": 5106,
      "▁짐": 5107,
      "▁새들을": 5108,
      "▁목소리로": 5109,
      "보보": 5110,
      "되어": 5111,
      "▁샘이라는": 5112,
      "▁나고": 5113,
      "▁잭은": 5114,
      "▁치즈를": 5115,
      "▁안이": 5116,
      "▁코를": 5117,
      "어떤": 5118,
      "▁귀여": 5119,
      "▁고팠": 5120,
      "▁쓰레기": 5121,
      "선생님": 5122,
      "재미있게": 5123,
      "▁그만": 5124,
      "복숭이": 5125,
      "▁찾아봤지만": 5126,
      "▁날아와": 5127,
      "▁거닐": 5128,
      "▁열어보니": 5129,
      "프가": 5130,
      "▁오리": 5131,
      "▁놀래": 5132,
      "문이": 5133,
      "▁구멍에": 5134,
      "▁돌아가서": 5135,
      "▁나섰어요": 5136,
      "▁기다렸습니다": 5137,
      "▁미끄럼틀에서": 5138,
      "르게": 5139,
      "▁뒤로": 5140,
      "▁놀았지요": 5141,
      "이스": 5142,
      "운데": 5143,
      "마크는": 5144,
      "그렇게": 5145,
      "▁장난감들로": 5146,
      "껍데": 5147,
      "▁자부심을": 5148,
      "▁목욕을": 5149,
      "아이는": 5150,
      "▁목걸이를": 5151,
      "시가": 5152,
      "사에게": 5153,
      "▁같다고": 5154,
      "▁늘": 5155,
      "마귀": 5156,
      "▁구석": 5157,
      "▁도중에": 5158,
      "▁고프": 5159,
      "▁먹어": 5160,
      "▁해볼": 5161,
      "▁평범한": 5162,
      "▁도토": 5163,
      "▁되어서": 5164,
      "미스터": 5165,
      "다녔습니다": 5166,
      "고양이가": 5167,
      "▁즐거움을": 5168,
      "▁떠났습니다": 5169,
      "▁가지에": 5170,
      "▁마음먹": 5171,
      "▁공룡": 5172,
      "▁물속으로": 5173,
      "▁만들었답니다": 5174,
      "▁올라갔어요": 5175,
      "두막": 5176,
      "▁생쥐가": 5177,
      "▁제인": 5178,
      "루시의": 5179,
      "누군가": 5180,
      "특별한": 5181,
      "▁떠올렸습니다": 5182,
      "라이": 5183,
      "밭에": 5184,
      "▁달렸어요": 5185,
      "▁노란": 5186,
      "▁켜": 5187,
      "나와": 5188,
      "멋진": 5189,
      "▁떨어졌어요": 5190,
      "▁뛰어들어": 5191,
      "▁살아": 5192,
      "▁마시고": 5193,
      "▁찾아야": 5194,
      "▁어디에": 5195,
      "▁맛이": 5196,
      "▁따뜻하게": 5197,
      "▁찔": 5198,
      "▁결심했답니다": 5199,
      "트에": 5200,
      "촛불": 5201,
      "▁기계": 5202,
      "▁경주에서": 5203,
      "▁어디로": 5204,
      "▁놀라고": 5205,
      "▁외쳤어요": 5206,
      "▁신고": 5207,
      "추를": 5208,
      "쪽으로": 5209,
      "가족은": 5210,
      "▁달릴": 5211,
      "▁슬펐어요": 5212,
      "▁하던": 5213,
      "▁없다는": 5214,
      "이걸": 5215,
      "▁오리는": 5216,
      "▁존중": 5217,
      "랫동안": 5218,
      "▁샘과": 5219,
      "▁또한": 5220,
      "꼬마": 5221,
      "▁훌륭한": 5222,
      "▁접시를": 5223,
      "▁밝고": 5224,
      "돌아": 5225,
      "져요": 5226,
      "▁부탁했습니다": 5227,
      "▁항아리를": 5228,
      "▁재채": 5229,
      "▁먹으며": 5230,
      "▁상자는": 5231,
      "▁나뭇잎": 5232,
      "▁프레": 5233,
      "빙글빙글": 5234,
      "새를": 5235,
      "으셨어요": 5236,
      "▁즐길": 5237,
      "▁느꼈죠": 5238,
      "연못": 5239,
      "▁돌아갔답니다": 5240,
      "갔지만": 5241,
      "▁잡아당": 5242,
      "▁다니": 5243,
      "▁겨": 5244,
      "▁보려고": 5245,
      "▁수영을": 5246,
      "하겠다고": 5247,
      "쁘게": 5248,
      "▁꿀을": 5249,
      "▁동물들에게": 5250,
      "▁들렸어요": 5251,
      "▁사나": 5252,
      "▁침대에": 5253,
      "마치": 5254,
      "▁그려져": 5255,
      "마를": 5256,
      "▁떨어져서": 5257,
      "▁관한": 5258,
      "▁붙잡": 5259,
      "▁엄청": 5260,
      "▁줬어요": 5261,
      "데이지는": 5262,
      "▁웃어요": 5263,
      "▁줍": 5264,
      "▁작동": 5265,
      "▁깨끗하고": 5266,
      "▁내려가": 5267,
      "▁안전하고": 5268,
      "▁열었습니다": 5269,
      "▁휘스커": 5270,
      "▁껴안으며": 5271,
      "미야": 5272,
      "▁구름이": 5273,
      "▁아이는": 5274,
      "▁넣었어요": 5275,
      "제인": 5276,
      "▁아프": 5277,
      "▁부드럽고": 5278,
      "▁야생": 5279,
      "▁싶어졌죠": 5280,
      "▁오는": 5281,
      "▁낡은": 5282,
      "내일": 5283,
      "▁확신": 5284,
      "▁짖으며": 5285,
      "▁도왔습니다": 5286,
      "▁빛나는": 5287,
      "▁맥스의": 5288,
      "▁날아갔습니다": 5289,
      "▁추워": 5290,
      "▁균형을": 5291,
      "통을": 5292,
      "파람": 5293,
      "▁들을": 5294,
      "▁장갑을": 5295,
      "▁경고": 5296,
      "▁트럭이": 5297,
      "엄마를": 5298,
      "▁스티": 5299,
      "▁깜빡": 5300,
      "▁없다고": 5301,
      "▁초콜릿": 5302,
      "개와": 5303,
      "소녀": 5304,
      "▁울었습니다": 5305,
      "▁했다는": 5306,
      "밖을": 5307,
      "▁동전": 5308,
      "▁귀를": 5309,
      "▁좋았을": 5310,
      "▁두려워": 5311,
      "▁발견한": 5312,
      "▁영웅": 5313,
      "▁되었을": 5314,
      "▁내는": 5315,
      "▁친구였어요": 5316,
      "밥과": 5317,
      "지막": 5318,
      "▁따라가": 5319,
      "▁놓여": 5320,
      "▁소음을": 5321,
      "래를": 5322,
      "▁만들기로": 5323,
      "놀다가": 5324,
      "지로": 5325,
      "▁카드를": 5326,
      "저녁": 5327,
      "▁날아가는": 5328,
      "디어": 5329,
      "▁잼": 5330,
      "▁고치": 5331,
      "▁뒷마당": 5332,
      "▁우는": 5333,
      "▁씨앗을": 5334,
      "▁행복해했습니다": 5335,
      "오르고": 5336,
      "▁물에서": 5337,
      "천만에요": 5338,
      "▁튼튼한": 5339,
      "▁할아버": 5340,
      "▁그와": 5341,
      "▁장난을": 5342,
      "▁창문을": 5343,
      "▁키스를": 5344,
      "▁재빨리": 5345,
      "▁열었어요": 5346,
      "아노": 5347,
      "▁아주머니": 5348,
      "▁애완": 5349,
      "었는데": 5350,
      "그거": 5351,
      "체를": 5352,
      "▁알았거든요": 5353,
      "▁성을": 5354,
      "한다는": 5355,
      "▁찾아보았지만": 5356,
      "▁장난꾸러기": 5357,
      "다니고": 5358,
      "렀어요": 5359,
      "▁보낼": 5360,
      "▁사라는": 5361,
      "▁대화": 5362,
      "▁콩": 5363,
      "▁적혀": 5364,
      "▁그릇에": 5365,
      "▁무서워서": 5366,
      "더라면": 5367,
      "▁숟가락을": 5368,
      "▁오기": 5369,
      "▁용감하고": 5370,
      "▁들이": 5371,
      "▁냄새를": 5372,
      "▁보냈고": 5373,
      "▁데려다": 5374,
      "▁젖고": 5375,
      "여러": 5376,
      "▁케이크가": 5377,
      "▁돌봐": 5378,
      "▁튀어나": 5379,
      "새와": 5380,
      "▁소중": 5381,
      "리사는": 5382,
      "▁거니": 5383,
      "려서": 5384,
      "▁아직": 5385,
      "이거": 5386,
      "▁불행": 5387,
      "▁경찰": 5388,
      "한번": 5389,
      "▁자고": 5390,
      "▁데려갔습니다": 5391,
      "▁도와주려고": 5392,
      "▁열매": 5393,
      "▁없었답니다": 5394,
      "낯선": 5395,
      "▁시작하자": 5396,
      "둘이": 5397,
      "▁식물을": 5398,
      "아이스크림": 5399,
      "하나": 5400,
      "▁빙글빙글": 5401,
      "몰라": 5402,
      "났답니다": 5403,
      "병을": 5404,
      "▁티모": 5405,
      "옥수": 5406,
      "▁아니었습니다": 5407,
      "봤죠": 5408,
      "▁방이": 5409,
      "▁번째": 5410,
      "▁사랑했어요": 5411,
      "이크를": 5412,
      "▁당신을": 5413,
      "▁달리기": 5414,
      "▁닿을": 5415,
      "언덕": 5416,
      "▁잃어버린": 5417,
      "이해": 5418,
      "▁그늘": 5419,
      "▁올라가고": 5420,
      "▁고마워했어요": 5421,
      "▁놀라워": 5422,
      "▁보보": 5423,
      "▁실수를": 5424,
      "▁찌": 5425,
      "▁개구리": 5426,
      "▁달아나": 5427,
      "▁퍼즐을": 5428,
      "▁싶어해요": 5429,
      "▁색깔의": 5430,
      "군요": 5431,
      "번갈아": 5432,
      "▁바꾸": 5433,
      "지미는": 5434,
      "▁오랫동안": 5435,
      "▁돌아와서": 5436,
      "▁들어야": 5437,
      "▁우스꽝스러운": 5438,
      "▁보였어요": 5439,
      "▁가져오": 5440,
      "▁닭": 5441,
      "그것이": 5442,
      "▁동의했습니다": 5443,
      "▁공중으로": 5444,
      "▁대답했답니다": 5445,
      "▁거미": 5446,
      "셨답니다": 5447,
      "▁장난감들과": 5448,
      "▁새로": 5449,
      "▁표하고": 5450,
      "여기서": 5451,
      "▁재미있고": 5452,
      "▁발생했습니다": 5453,
      "▁좋다고": 5454,
      "부가": 5455,
      "▁움직일": 5456,
      "▁보여줬어요": 5457,
      "레미는": 5458,
      "▁아닌": 5459,
      "▁오두막": 5460,
      "할게": 5461,
      "▁꽃은": 5462,
      "그곳": 5463,
      "▁사랑했답니다": 5464,
      "▁아니에요": 5465,
      "▁사이": 5466,
      "▁순간": 5467,
      "▁모자와": 5468,
      "▁만져": 5469,
      "▁내밀": 5470,
      "▁출": 5471,
      "들에": 5472,
      "▁기다리고": 5473,
      "▁색깔이": 5474,
      "▁조용히": 5475,
      "▁쉽게": 5476,
      "▁지저분한": 5477,
      "들처럼": 5478,
      "화가": 5479,
      "▁멋지": 5480,
      "스팟의": 5481,
      "▁튀기며": 5482,
      "▁설레었습니다": 5483,
      "▁못했답니다": 5484,
      "▁자동차는": 5485,
      "▁전했습니다": 5486,
      "처음에는": 5487,
      "▁모으": 5488,
      "▁마시": 5489,
      "▁뜨거": 5490,
      "▁틀": 5491,
      "▁데려갔어요": 5492,
      "▁으르렁": 5493,
      "▁부츠": 5494,
      "▁먹은": 5495,
      "▁거칠": 5496,
      "▁밧": 5497,
      "좋아요": 5498,
      "먼저": 5499,
      "▁통해": 5500,
      "무엇을": 5501,
      "▁어깨": 5502,
      "▁오렌": 5503,
      "▁비누": 5504,
      "▁지낼": 5505,
      "▁부드러": 5506,
      "개야": 5507,
      "반짝이는": 5508,
      "▁휘파람": 5509,
      "▁연필": 5510,
      "▁않았다": 5511,
      "▁끌고": 5512,
      "▁온종일": 5513,
      "▁이겼": 5514,
      "하는지": 5515,
      "▁둘러보니": 5516,
      "▁등에": 5517,
      "▁이웃": 5518,
      "▁슈": 5519,
      "▁신나했어요": 5520,
      "로콜": 5521,
      "▁오리가": 5522,
      "봅니다": 5523,
      "색깔": 5524,
      "▁흔들었습니다": 5525,
      "물에": 5526,
      "▁질주": 5527,
      "▁보게": 5528,
      "▁말씀하셨습니다": 5529,
      "▁무렵": 5530,
      "▁찾았죠": 5531,
      "▁자랑스러워했습니다": 5532,
      "▁면": 5533,
      "감사해요": 5534,
      "▁붓": 5535,
      "▁클": 5536,
      "▁가져왔어요": 5537,
      "겸손": 5538,
      "▁하러": 5539,
      "▁거에요": 5540,
      "생님은": 5541,
      "▁준비를": 5542,
      "▁자랑스러웠습니다": 5543,
      "▁마침내": 5544,
      "▁부탁했죠": 5545,
      "호기": 5546,
      "정원": 5547,
      "해졌습니다": 5548,
      "였다": 5549,
      "었지": 5550,
      "자신의": 5551,
      "▁낙": 5552,
      "▁않으면": 5553,
      "재미있는": 5554,
      "산을": 5555,
      "▁두드": 5556,
      "거기서": 5557,
      "▁행복하지": 5558,
      "▁안도": 5559,
      "▁슬퍼졌죠": 5560,
      "▁곰인형": 5561,
      "▁눈으로": 5562,
      "▁내고": 5563,
      "▁공부": 5564,
      "끼를": 5565,
      "▁맛있게": 5566,
      "▁해를": 5567,
      "이것": 5568,
      "위는": 5569,
      "▁환하게": 5570,
      "▁주는": 5571,
      "▁열자": 5572,
      "▁미안한": 5573,
      "즐거운": 5574,
      "▁짓고": 5575,
      "▁재미있다고": 5576,
      "▁백": 5577,
      "위험": 5578,
      "가장": 5579,
      "▁조용한": 5580,
      "▁달리": 5581,
      "▁다람쥐는": 5582,
      "▁욕조": 5583,
      "▁무언가가": 5584,
      "▁미아에게": 5585,
      "▁제인은": 5586,
      "▁지퍼": 5587,
      "▁소방": 5588,
      "▁너희": 5589,
      "▁조개를": 5590,
      "▁들어왔습니다": 5591,
      "▁점심을": 5592,
      "달을": 5593,
      "▁외쳤습니다": 5594,
      "▁발톱": 5595,
      "▁사다리를": 5596,
      "▁신비한": 5597,
      "하셨죠": 5598,
      "▁갔죠": 5599,
      "▁팔찌": 5600,
      "▁보여주었죠": 5601,
      "▁옳": 5602,
      "하기를": 5603,
      "▁벗어나": 5604,
      "▁캔": 5605,
      "마뱀": 5606,
      "▁다칠": 5607,
      "원숭": 5608,
      "▁토마토": 5609,
      "▁레이": 5610,
      "▁크레용을": 5611,
      "▁실망": 5612,
      "하려": 5613,
      "로를": 5614,
      "▁만지지": 5615,
      "▁지켜보았습니다": 5616,
      "▁흘": 5617,
      "▁물웅덩": 5618,
      "▁같아요": 5619,
      "▁돌며": 5620,
      "▁살았지요": 5621,
      "▁엄청나게": 5622,
      "장난": 5623,
      "벌레가": 5624,
      "▁죄": 5625,
      "▁올리": 5626,
      "잠깐": 5627,
      "▁원했어요": 5628,
      "▁텐": 5629,
      "▁건너": 5630,
      "▁지켜보며": 5631,
      "무서워하지": 5632,
      "리콥": 5633,
      "▁받았어요": 5634,
      "▁우리는": 5635,
      "▁바위는": 5636,
      "내는": 5637,
      "경을": 5638,
      "▁둘러보고": 5639,
      "쳤답니다": 5640,
      "장으로": 5641,
      "쿠션": 5642,
      "▁물어봐요": 5643,
      "▁루시가": 5644,
      "▁흥미로운": 5645,
      "에밀": 5646,
      "아무도": 5647,
      "▁수도꼭": 5648,
      "▁꼭대기에": 5649,
      "▁수리": 5650,
      "▁멈추지": 5651,
      "▁보여주며": 5652,
      "▁나아지게": 5653,
      "구멍": 5654,
      "▁찾아왔습니다": 5655,
      "▁친구로": 5656,
      "하다가": 5657,
      "라라는": 5658,
      "▁말해": 5659,
      "▁남아": 5660,
      "▁돌아온": 5661,
      "▁사자가": 5662,
      "▁잎을": 5663,
      "부탁해요": 5664,
      "▁흔들었어요": 5665,
      "▁동의하며": 5666,
      "▁쏘": 5667,
      "▁매운": 5668,
      "농부는": 5669,
      "▁땅콩": 5670,
      "▁깃털을": 5671,
      "▁놀면": 5672,
      "▁친구였죠": 5673,
      "▁샀": 5674,
      "벨라는": 5675,
      "▁농장에서": 5676,
      "▁갇혀": 5677,
      "▁돌아다니며": 5678,
      "▁지어": 5679,
      "▁잤": 5680,
      "래요": 5681,
      "▁앉았습니다": 5682,
      "▁먹었죠": 5683,
      "▁사랑한다고": 5684,
      "버디": 5685,
      "▁빠르고": 5686,
      "휘스커": 5687,
      "▁손잡": 5688,
      "▁반짝반짝": 5689,
      "▁궁금해하며": 5690,
      "▁생겼어요": 5691,
      "원이": 5692,
      "네이": 5693,
      "▁점토": 5694,
      "▁기뻤고": 5695,
      "▁잃어버렸": 5696,
      "▁반죽": 5697,
      "관에": 5698,
      "이에게": 5699,
      "주변을": 5700,
      "버렸죠": 5701,
      "▁소리는": 5702,
      "▁강력한": 5703,
      "안전": 5704,
      "현명한": 5705,
      "▁떨어뜨리고": 5706,
      "밥이라는": 5707,
      "▁자랑스럽게": 5708,
      "가까": 5709,
      "요일": 5710,
      "▁가지를": 5711,
      "▁덩": 5712,
      "컴퓨": 5713,
      "▁일어났": 5714,
      "▁달아났습니다": 5715,
      "▁쳤습니다": 5716,
      "▁착지": 5717,
      "▁미아가": 5718,
      "▁어머니": 5719,
      "▁있으면": 5720,
      "▁뼈다귀를": 5721,
      "구름": 5722,
      "▁무서웠습니다": 5723,
      "▁돌아갈": 5724,
      "아몬": 5725,
      "▁세웠어요": 5726,
      "렀습니다": 5727,
      "▁일이야": 5728,
      "▁복숭": 5729,
      "▁눈치": 5730,
      "▁씹": 5731,
      ".'": 5732,
      "▁뭐야": 5733,
      "맥스야": 5734,
      "▁오늘": 5735,
      "▁당신의": 5736,
      "▁않니": 5737,
      "▁더미를": 5738,
      "▁뛰어다니는": 5739,
      "노는": 5740,
      "끔찍": 5741,
      "곰이": 5742,
      "보카": 5743,
      "▁골라": 5744,
      "▁단어": 5745,
      "전등": 5746,
      "나비는": 5747,
      "메리는": 5748,
      "바른": 5749,
      "▁일어날": 5750,
      "이런": 5751,
      "▁세상": 5752,
      "▁뻗어": 5753,
      "시지를": 5754,
      "때로는": 5755,
      "▁번갈아가며": 5756,
      "넥타": 5757,
      "▁생각했거든요": 5758,
      "▁남자와": 5759,
      "르르르르": 5760,
      "▁맞는": 5761,
      "▁해줄": 5762,
      "친구가": 5763,
      "눈을": 5764,
      "놓고": 5765,
      "▁날카로운": 5766,
      "▁털복숭이": 5767,
      "▁구름을": 5768,
      "립니다": 5769,
      "▁케이": 5770,
      "▁사랑했죠": 5771,
      "▁다행이야": 5772,
      "▁않다고": 5773,
      "▁숲속을": 5774,
      "▁즐기": 5775,
      "▁펼쳐": 5776,
      "배가": 5777,
      "▁다람쥐를": 5778,
      "▁떴": 5779,
      "▁돌아가야": 5780,
      "▁못하고": 5781,
      "▁놀랐답니다": 5782,
      "▁싶어하지": 5783,
      "▁빼앗으려고": 5784,
      "▁있습니다": 5785,
      "갔지요": 5786,
      "▁종을": 5787,
      "그러다": 5788,
      "▁밑에": 5789,
      "▁페인": 5790,
      "▁뜯": 5791,
      "▁선택": 5792,
      "▁사슴": 5793,
      "다음에": 5794,
      "▁동그": 5795,
      "▁생겨서": 5796,
      "루시가": 5797,
      "▁배우": 5798,
      "더군요": 5799,
      "렸지요": 5800,
      "▁섰": 5801,
      "▁들어오": 5802,
      "저를": 5803,
      "했으니까요": 5804,
      "▁시간이야": 5805,
      "그저": 5806,
      "▁엉": 5807,
      "▁푹": 5808,
      "▁아이들에게": 5809,
      "▁낼": 5810,
      "▁풀어": 5811,
      "▁별을": 5812,
      "이에서": 5813,
      "▁아이들과": 5814,
      "▁이를": 5815,
      "▁올라갔습니다": 5816,
      "▁늑대": 5817,
      "▁고파": 5818,
      "코끼": 5819,
      "▁빈": 5820,
      "▁이루어": 5821,
      "▁화난": 5822,
      "▁복": 5823,
      "따뜻": 5824,
      "▁지갑을": 5825,
      "▁신나는": 5826,
      "▁빛나": 5827,
      "▁종이에": 5828,
      "▁가져가서": 5829,
      "▁바구니를": 5830,
      "▁귀여운": 5831,
      "▁만들었어": 5832,
      "랐답니다": 5833,
      "▁갔고": 5834,
      "드가": 5835,
      "▁샐러": 5836,
      "▁고양이의": 5837,
      "▁유용": 5838,
      "▁매끄": 5839,
      "▁세웠습니다": 5840,
      "▁모아": 5841,
      "▁헤엄치고": 5842,
      "▁받고": 5843,
      "▁깨어나": 5844,
      "▁부엌에": 5845,
      "이올": 5846,
      "▁주셨어요": 5847,
      "▁먹었답니다": 5848,
      "▁마리의": 5849,
      "▁잡는": 5850,
      "▁경쟁": 5851,
      "동생": 5852,
      "▁즐겨": 5853,
      "▁일하고": 5854,
      "▁움직이는": 5855,
      "▁해골": 5856,
      "▁밟": 5857,
      "▁빌려": 5858,
      "▁역시": 5859,
      "▁하죠": 5860,
      "▁올라갈": 5861,
      "콤한": 5862,
      "리얼": 5863,
      "저건": 5864,
      "▁탁": 5865,
      "▁떨어졌습니다": 5866,
      "▁괴물이": 5867,
      "▁올려다보며": 5868,
      "▁촛불": 5869,
      "▁피아노": 5870,
      "▁해도": 5871,
      "서로를": 5872,
      "르지": 5873,
      "님이": 5874,
      "었기": 5875,
      "▁헬멧": 5876,
      "거리는": 5877,
      "그만해": 5878,
      "▁사과하고": 5879,
      "아름": 5880,
      "▁놀자고": 5881,
      "▁걸었어요": 5882,
      "▁상자에서": 5883,
      "▁뚱뚱한": 5884,
      "▁따서": 5885,
      "▁마구": 5886,
      "▁내리": 5887,
      "▁들어갔어요": 5888,
      "▁창문": 5889,
      "▁놀라움을": 5890,
      "▁갔지요": 5891,
      "▁흩": 5892,
      "▁사러": 5893,
      "▁건조": 5894,
      "▁도와주길": 5895,
      "▁뭐예요": 5896,
      "▁화살": 5897,
      "▁잠들": 5898,
      "▁느낌을": 5899,
      "▁어둡": 5900,
      "▁물었고": 5901,
      "슬퍼": 5902,
      "요정은": 5903,
      "▁아래를": 5904,
      "▁말할": 5905,
      "주의": 5906,
      "끼는": 5907,
      "자고": 5908,
      "▁사나운": 5909,
      "▁티머는": 5910,
      "▁싸움을": 5911,
      "▁우리를": 5912,
      "마는": 5913,
      "▁못해": 5914,
      "도와주세요": 5915,
      "▁찌푸": 5916,
      "▁먹이를": 5917,
      "왔죠": 5918,
      "▁타이": 5919,
      "▁지혜로운": 5920,
      "▁독립": 5921,
      "▁동물을": 5922,
      "부드러운": 5923,
      "▁행운": 5924,
      "▁표지판을": 5925,
      "숲속": 5926,
      "래곤": 5927,
      "▁폭풍이": 5928,
      "▁맑": 5929,
      "▁벤과": 5930,
      "▁파고": 5931,
      "▁발견해서": 5932,
      "지며": 5933,
      "▁새들과": 5934,
      "▁행복해졌죠": 5935,
      "▁좋아하": 5936,
      "▁리본을": 5937,
      "나한테": 5938,
      "▁도우": 5939,
      "▁슬프지": 5940,
      "▁시계를": 5941,
      "▁있으니까요": 5942,
      "▁내내": 5943,
      "▁고치는": 5944,
      "▁무시": 5945,
      "▁알았답니다": 5946,
      "▁연못을": 5947,
      "▁다치지": 5948,
      "▁쉬고": 5949,
      "▁보물": 5950,
      "강한": 5951,
      "아기는": 5952,
      "▁생쥐를": 5953,
      "혼자": 5954,
      "▁소리에": 5955,
      "▁영화를": 5956,
      "▁가득했어요": 5957,
      "▁멜": 5958,
      "물쇠": 5959,
      "집을": 5960,
      "▁무늬": 5961,
      "▁배웠고": 5962,
      "▁나오는": 5963,
      "▁남겨": 5964,
      "크가": 5965,
      "▁아빠의": 5966,
      "그걸": 5967,
      "겠다": 5968,
      "▁인해": 5969,
      "▁될까": 5970,
      "▁거품": 5971,
      "▁장식": 5972,
      "하다": 5973,
      "▁나아졌어요": 5974,
      "이올린": 5975,
      "▁가까이에서": 5976,
      "상한": 5977,
      "▁기도": 5978,
      "▁않았으면": 5979,
      "▁쥐는": 5980,
      "아는": 5981,
      "▁담아": 5982,
      "▁뒤를": 5983,
      "▁읽는": 5984,
      "꼭꼭": 5985,
      "▁기뻐했고": 5986,
      "▁땅을": 5987,
      "▁던지고": 5988,
      "▁집은": 5989,
      "배는": 5990,
      "기만": 5991,
      "▁말씀하세요": 5992,
      "▁양말을": 5993,
      "▁날지": 5994,
      "▁테디베어를": 5995,
      "▁부는": 5996,
      "▁트럭은": 5997,
      "▁예쁘다고": 5998,
      "▁비밀을": 5999,
      "▁냄새나는": 6000,
      "▁호기심": 6001,
      "하곤": 6002,
      "▁왕관을": 6003,
      "▁거리를": 6004,
      "▁생각해서": 6005,
      "▁적힌": 6006,
      "▁났죠": 6007,
      "▁찾았답니다": 6008,
      "에이미의": 6009,
      "맥스의": 6010,
      "▁물에": 6011,
      "▁껌": 6012,
      "▁멈췄어요": 6013,
      "▁키티는": 6014,
      "물론이죠": 6015,
      "▁무지개를": 6016,
      "▁청했습니다": 6017,
      "▁안나를": 6018,
      "벌은": 6019,
      "▁동의했어요": 6020,
      "▁몰랐답니다": 6021,
      "럼펫": 6022,
      "뗏목": 6023,
      "▁나누었습니다": 6024,
      "▁미아의": 6025,
      "▁차분": 6026,
      "▁나아질": 6027,
      "먹을": 6028,
      "탕을": 6029,
      "만약": 6030,
      "▁마른": 6031,
      "▁그려진": 6032,
      "▁이길": 6033,
      "▁넣었죠": 6034,
      "▁터트": 6035,
      "▁다루": 6036,
      "▁나타나": 6037,
      "▁올려놓고": 6038,
      "▁스티커": 6039,
      "▁마스크": 6040,
      "▁행복을": 6041,
      "▁주의": 6042,
      "▁많고": 6043,
      "봐야": 6044,
      "▁가져가고": 6045,
      "▁셔츠를": 6046,
      "비행": 6047,
      "▁쥐고": 6048,
      "▁삽": 6049,
      "▁깨끗한": 6050,
      "▁걸으며": 6051,
      "▁유연": 6052,
      "▁스타": 6053,
      "▁가져갈": 6054,
      "▁거의": 6055,
      "▁슬퍼했답니다": 6056,
      "▁띄": 6057,
      "주었답니다": 6058,
      "둘러": 6059,
      "▁반짝이고": 6060,
      "▁삶": 6061,
      "었는지": 6062,
      "▁가능": 6063,
      "▁못할": 6064,
      "관이": 6065,
      "그날은": 6066,
      "▁드럼을": 6067,
      "줬죠": 6068,
      "▁웃는": 6069,
      "▁보고는": 6070,
      "▁서로의": 6071,
      "▁지르며": 6072,
      "▁더미": 6073,
      "▁빨갛": 6074,
      "▁탐험을": 6075,
      "▁운이": 6076,
      "▁불편": 6077,
      "▁울음": 6078,
      "▁숲에": 6079,
      "▁부모님은": 6080,
      "보세요": 6081,
      "▁좋고": 6082,
      "▁지켜봤어요": 6083,
      "▁덥": 6084,
      "누구": 6085,
      "▁들어와": 6086,
      "▁친절해": 6087,
      "하루": 6088,
      "▁사랑했고": 6089,
      "말은": 6090,
      "베이": 6091,
      "▁노래하고": 6092,
      "모래": 6093,
      "▁젤": 6094,
      "▁영리한": 6095,
      "트와": 6096,
      "▁뭐지": 6097,
      "▁망가뜨": 6098,
      "▁빠져": 6099,
      "프레드는": 6100,
      "젠가": 6101,
      "▁떼": 6102,
      "▁잃어버렸어요": 6103,
      "▁플러피는": 6104,
      "▁쿠션": 6105,
      "▁너랑": 6106,
      "▁표했어요": 6107,
      "▁오르기": 6108,
      "▁햇볕을": 6109,
      "▁급": 6110,
      "게티": 6111,
      "고를": 6112,
      "▁놀았": 6113,
      "▁스팟의": 6114,
      "▁호박을": 6115,
      "▁웃으": 6116,
      "▁순종": 6117,
      "▁둘러보며": 6118,
      "▁들었어": 6119,
      "개미는": 6120,
      "▁작아": 6121,
      "▁막대기로": 6122,
      "▁미아를": 6123,
      "아래": 6124,
      "▁옥수": 6125,
      "▁스쿠": 6126,
      "풍선": 6127,
      "▁다이아몬": 6128,
      "▁뿔": 6129,
      "▁시작되": 6130,
      "▁여성": 6131,
      "▁깨달았답니다": 6132,
      "▁지저귀": 6133,
      "▁해바라": 6134,
      "모모는": 6135,
      "블록": 6136,
      "밥을": 6137,
      "▁착해": 6138,
      "▁솟": 6139,
      "▁잡았습니다": 6140,
      "▁타기": 6141,
      "▁쏟아": 6142,
      "제를": 6143,
      "갔다": 6144,
      "▁스카": 6145,
      "▁했던": 6146,
      "▁넥타": 6147,
      "▁사라진": 6148,
      "▁돌아왔을": 6149,
      "▁문제가": 6150,
      "▁추운": 6151,
      "약한": 6152,
      "▁도와야": 6153,
      "▁걸어가다가": 6154,
      "▁버섯": 6155,
      "나무에": 6156,
      "▁꺾": 6157,
      "케이크를": 6158,
      "▁땅으로": 6159,
      "펭귄": 6160,
      "시다": 6161,
      "▁건초": 6162,
      "통에": 6163,
      "▁재미난": 6164,
      "▁우편": 6165,
      "토머": 6166,
      "▁바늘": 6167,
      "▁상점에": 6168,
      "▁자석": 6169,
      "▁약속했습니다": 6170,
      "▁아이였죠": 6171,
      "▁답했습니다": 6172,
      "빨간색": 6173,
      "▁왔어": 6174,
      "▁이런": 6175,
      "가로": 6176,
      "▁보내는": 6177,
      "▁주었고": 6178,
      "▁불쌍": 6179,
      "▁느낄": 6180,
      "날씨가": 6181,
      "▁약속했어요": 6182,
      "▁찢어": 6183,
      "했다는": 6184,
      "▁오리를": 6185,
      "팀도": 6186,
      "쟁반": 6187,
      "▁토끼에게": 6188,
      "▁미안하다고": 6189,
      "대는": 6190,
      "점점": 6191,
      "▁놓고": 6192,
      "▁모래성을": 6193,
      "분홍색": 6194,
      "▁응": 6195,
      "그들을": 6196,
      "▁놀게": 6197,
      "▁높고": 6198,
      "시켜": 6199,
      "랍게도": 6200,
      "▁자리를": 6201,
      "증을": 6202,
      "▁매력": 6203,
      "▁카메": 6204,
      "대신에": 6205,
      "▁있었는지": 6206,
      "▁도와주었어요": 6207,
      "▁설레고": 6208,
      "▁어디서": 6209,
      "▁브로콜": 6210,
      "▁겸손": 6211,
      "▁솥": 6212,
      "▁도토리를": 6213,
      "주며": 6214,
      "▁있을지도": 6215,
      "▁놀랐죠": 6216,
      "이의": 6217,
      "▁바나나를": 6218,
      "명을": 6219,
      "부를": 6220,
      "▁호랑": 6221,
      "▁질문을": 6222,
      "▁실수로": 6223,
      "▁지우": 6224,
      "▁있었던": 6225,
      "블루는": 6226,
      "▁싶었답니다": 6227,
      "▁크리스": 6228,
      "뚜껑": 6229,
      "▁해변에서": 6230,
      "가방": 6231,
      "▁벌을": 6232,
      "▁이기적": 6233,
      "▁강하고": 6234,
      "▁싶어하는": 6235,
      "어붙": 6236,
      "▁해주었습니다": 6237,
      "▁소리로": 6238,
      "조각": 6239,
      "▁눈사람을": 6240,
      "▁약을": 6241,
      "▁도움으로": 6242,
      "▁충분히": 6243,
      "아름다": 6244,
      "▁저으며": 6245,
      "노란색": 6246,
      "톰도": 6247,
      "해보자": 6248,
      "리면서": 6249,
      "하니까": 6250,
      "물고기": 6251,
      "▁생각했지요": 6252,
      "▁멈췄습니다": 6253,
      "▁좋게": 6254,
      "▁차와": 6255,
      "▁맞추": 6256,
      "뭐가": 6257,
      "▁읽어": 6258,
      "▁조각들을": 6259,
      "다이스": 6260,
      "진짜": 6261,
      "구하고": 6262,
      "▁만들었지요": 6263,
      "토미와": 6264,
      "▁맛보고": 6265,
      "아마도": 6266,
      "▁올라탔": 6267,
      "▁용서해": 6268,
      "▁만나서": 6269,
      "티머와": 6270,
      "▁들렸습니다": 6271,
      "▁상처를": 6272,
      "▁부리로": 6273,
      "▁설레며": 6274,
      "▁찾으러": 6275,
      "▁차로": 6276,
      "▁괴물": 6277,
      "▁인형이": 6278,
      "재미있을": 6279,
      "▁토미는": 6280,
      "▁도움에": 6281,
      "▁지쳐": 6282,
      "▁도구": 6283,
      "부터는": 6284,
      "리라와": 6285,
      "디를": 6286,
      "히고": 6287,
      "▁마을을": 6288,
      "▁설레었어요": 6289,
      "▁총을": 6290,
      "시간이": 6291,
      "▁거지": 6292,
      "▁주방에서": 6293,
      "▁부유한": 6294,
      "▁침": 6295,
      "▁여기서": 6296,
      "▁전하고": 6297,
      "▁게으": 6298,
      "▁비를": 6299,
      "▁권": 6300,
      "떠나": 6301,
      "마법의": 6302,
      "▁열려고": 6303,
      "▁하늘로": 6304,
      "▁조심하라고": 6305,
      "▁올라타서": 6306,
      "올리는": 6307,
      "▁블루베": 6308,
      "▁말이야": 6309,
      "▁명의": 6310,
      "해져서": 6311,
      "▁단어를": 6312,
      "▁보냈지요": 6313,
      "소가": 6314,
      "▁시리얼": 6315,
      "▁소리치며": 6316,
      "도와줄게": 6317,
      "▁먹으러": 6318,
      "▁가족에게": 6319,
      "▁나비가": 6320,
      "▁울타리": 6321,
      "▁이것": 6322,
      "손을": 6323,
      "▁작업": 6324,
      "▁하늘이": 6325,
      "혔어요": 6326,
      "졌다": 6327,
      "▁이걸": 6328,
      "▁즐기는": 6329,
      "▁넘어지고": 6330,
      "▁정리하는": 6331,
      "▁계단을": 6332,
      "났죠": 6333,
      "름을": 6334,
      "▁있었기": 6335,
      "스트": 6336,
      "▁이야기하고": 6337,
      "파란": 6338,
      "리베이": 6339,
      "보지": 6340,
      "▁손전등": 6341,
      "▁하나가": 6342,
      "그러고": 6343,
      "▁놓았어요": 6344,
      "▁달려와": 6345,
      "▁기쁨에": 6346,
      "▁시계": 6347,
      "▁소녀의": 6348,
      "▁맛을": 6349,
      "▁낙엽": 6350,
      "▁소풍": 6351,
      "▁입은": 6352,
      "셀러": 6353,
      "혹시": 6354,
      "▁와플": 6355,
      "▁도착했습니다": 6356,
      "술을": 6357,
      "▁창밖을": 6358,
      "▁좋아졌어요": 6359,
      "기차는": 6360,
      "디오를": 6361,
      "▁회전": 6362,
      "▁흙을": 6363,
      "▁루시에게": 6364,
      "▁보내며": 6365,
      "▁바이올린": 6366,
      "자전거": 6367,
      "지의": 6368,
      "뛰어오르고": 6369,
      "▁다가오는": 6370,
      "켰습니다": 6371,
      "▁용기를": 6372,
      "▁눌러": 6373,
      "글라": 6374,
      "▁사자는": 6375,
      "▁못생긴": 6376,
      "▁되었지요": 6377,
      "위로": 6378,
      "▁동물이": 6379,
      "▁플루": 6380,
      "▁날씨": 6381,
      "아기": 6382,
      "자매": 6383,
      "피가": 6384,
      "아름다운": 6385,
      "지자": 6386,
      "▁봉투": 6387,
      "▁아팠어요": 6388,
      "▁양파": 6389,
      "▁도와주겠다고": 6390,
      "▁막대를": 6391,
      "▁차가운": 6392,
      "스파": 6393,
      "▁조각으로": 6394,
      "로봇": 6395,
      "킷티는": 6396,
      "▁알아챘": 6397,
      "▁유명한": 6398,
      "▁발로": 6399,
      "▁뜨거운": 6400,
      "▁조깅을": 6401,
      "▁말이": 6402,
      "▁정말정말": 6403,
      "▁우아": 6404,
      "▁마당에": 6405,
      "▁마친": 6406,
      "▁착하고": 6407,
      "▁날아갔어요": 6408,
      "되게": 6409,
      "작고": 6410,
      "▁같았습니다": 6411,
      "▁믹": 6412,
      "▁너는": 6413,
      "멀리": 6414,
      "▁무엇이든": 6415,
      "▁날아올라": 6416,
      "▁카펫": 6417,
      "움에": 6418,
      "▁있니": 6419,
      "▁낯선": 6420,
      "▁트럼펫": 6421,
      "▁고래": 6422,
      "앤은": 6423,
      "가운데": 6424,
      "그것들은": 6425,
      "레오는": 6426,
      "▁깨끗하게": 6427,
      "▁벽을": 6428,
      "됐어": 6429,
      "라에게": 6430,
      "▁레몬을": 6431,
      "▁가든": 6432,
      "조가": 6433,
      "▁터널": 6434,
      "경찰": 6435,
      "▁못해서": 6436,
      "▁게는": 6437,
      "엔진": 6438,
      "▁입으로": 6439,
      "▁둘러보다가": 6440,
      "▁진지": 6441,
      "▁닦아": 6442,
      "안에": 6443,
      "▁보여줄": 6444,
      "니를": 6445,
      "▁차갑": 6446,
      "▁코코": 6447,
      "대가": 6448,
      "▁정상에": 6449,
      "▁멈춰서": 6450,
      "▁과일이": 6451,
      "▁것만": 6452,
      "▁공유하고": 6453,
      "▁퍼덕": 6454,
      "▁정원으로": 6455,
      "트로": 6456,
      "▁무서워져서": 6457,
      "▁쓰는": 6458,
      "가에서": 6459,
      "너한테": 6460,
      "▁루시의": 6461,
      "▁주세요": 6462,
      "높은": 6463,
      "보았어요": 6464,
      "▁피자를": 6465,
      "▁발바닥": 6466,
      "▁꽃들이": 6467,
      "새들은": 6468,
      "▁정돈": 6469,
      "▁끔찍": 6470,
      "▁노래하는": 6471,
      "▁흰": 6472,
      "▁재채기를": 6473,
      "▁어떨": 6474,
      "▁밥이": 6475,
      "▁깨어": 6476,
      "▁나왔습니다": 6477,
      "▁자물쇠": 6478,
      "게임": 6479,
      "▁말았습니다": 6480,
      "▁개야": 6481,
      "▁관찰": 6482,
      "약을": 6483,
      "▁기차가": 6484,
      "▁싶었지요": 6485,
      "였어": 6486,
      "▁기다려야": 6487,
      "▁숫자를": 6488,
      "냥꾼": 6489,
      "▁아보카": 6490,
      "▁개미는": 6491,
      "▁가끔은": 6492,
      "▁불구하고": 6493,
      "▁것이라고": 6494,
      "▁뛸": 6495,
      "올리": 6496,
      "▁마실": 6497,
      "▁없게": 6498,
      "▁청했어요": 6499,
      "▁고마워하며": 6500,
      "의사는": 6501,
      "적으로": 6502,
      "▁마구간": 6503,
      "▁염": 6504,
      "로부터": 6505,
      "▁우주": 6506,
      "▁머핀": 6507,
      "▁해보고": 6508,
      "▁씨는": 6509,
      "▁인내심을": 6510,
      "▁그네에서": 6511,
      "▁뿐이야": 6512,
      "뛰고": 6513,
      "었으니까요": 6514,
      "▁무지개": 6515,
      "랍니다": 6516,
      "▁없었고": 6517,
      "▁사과했어요": 6518,
      "▁인형과": 6519,
      "▁쥐가": 6520,
      "▁컴퓨": 6521,
      "▁올려다보": 6522,
      "▁돛": 6523,
      "▁답했죠": 6524,
      "▁감사합니다": 6525,
      "지면서": 6526,
      "며칠": 6527,
      "▁놀라게": 6528,
      "▁별로": 6529,
      "지에게": 6530,
      "너가": 6531,
      "▁도와준": 6532,
      "▁거실로": 6533,
      "▁추며": 6534,
      "거북": 6535,
      "▁시도해보고": 6536,
      "▁같았어요": 6537,
      "친구들에게": 6538,
      "▁데이지": 6539,
      "▁사용하는": 6540,
      "▁예쁘다": 6541,
      "▁있단다": 6542,
      "볼까": 6543,
      "▁철": 6544,
      "으세요": 6545,
      "부모님은": 6546,
      "▁거실에서": 6547,
      "▁달려가요": 6548,
      "▁애쓰": 6549,
      "트럭은": 6550,
      "▁다다": 6551,
      "▁공연": 6552,
      "▁시냇": 6553,
      "▁설명해": 6554,
      "▁해주었어요": 6555,
      "▁러": 6556,
      "▁무서워졌습니다": 6557,
      "▁부를": 6558,
      "▁죄책": 6559,
      "▁여자아이": 6560,
      "▁채로": 6561,
      "▁떠올랐어요": 6562,
      "▁되지": 6563,
      "▁돈이": 6564,
      "▁위험한": 6565,
      "기다": 6566,
      "▁들판에서": 6567,
      "▁버렸죠": 6568,
      "겠지": 6569,
      "▁자신도": 6570,
      "▁요거": 6571,
      "▁괜찮아": 6572,
      "▁나뭇가지": 6573,
      "▁안타": 6574,
      "▁슬프게": 6575,
      "이렇게": 6576,
      "▁발견해요": 6577,
      "▁독특": 6578,
      "올빼": 6579,
      "규칙": 6580,
      "게임을": 6581,
      "안으로": 6582,
      "▁그곳": 6583,
      "▁밥이라는": 6584,
      "▁넘어져서": 6585,
      "▁바람을": 6586,
      "톰아": 6587,
      "▁웃었죠": 6588,
      "▁환영": 6589,
      "케이크가": 6590,
      "▁추기": 6591,
      "▁하얀색": 6592,
      "▁돌이": 6593,
      "▁탈출": 6594,
      "▁지켜보고": 6595,
      "▁감상": 6596,
      "▁많아": 6597,
      "▁싸우는": 6598,
      "뜻밖에도": 6599,
      "▁만들어보자": 6600,
      "했다고": 6601,
      "부엉": 6602,
      "킷티": 6603,
      "▁정글": 6604,
      "▁사라졌고": 6605,
      "괜찮니": 6606,
      "▁프로": 6607,
      "니와": 6608,
      "▁카드": 6609,
      "두고": 6610,
      "하늘은": 6611,
      "잔을": 6612,
      "▁살이었고": 6613,
      "▁쥐를": 6614,
      "▁보여서": 6615,
      "▁달걀": 6616,
      "▁이야기했습니다": 6617,
      "▁몹": 6618,
      "▁찔러": 6619,
      "▁이야기에서": 6620,
      "▁오랜": 6621,
      "▁아끼는": 6622,
      "▁걸어갔습니다": 6623,
      "있는": 6624,
      "관은": 6625,
      "▁정도로": 6626,
      "▁걱정하지": 6627,
      "▁오고": 6628,
      "▁드는": 6629,
      "▁밖을": 6630,
      "가끔은": 6631,
      "시키": 6632,
      "▁도망쳤어요": 6633,
      "▁일기를": 6634,
      "▁쟁반": 6635,
      "그림": 6636,
      "▁구워": 6637,
      "아니면": 6638,
      "▁내려오": 6639,
      "▁행복해져서": 6640,
      "락방": 6641,
      "▁긁": 6642,
      "더라도": 6643,
      "렸다": 6644,
      "▁알아차": 6645,
      "사슴": 6646,
      "▁딱정": 6647,
      "▁가려": 6648,
      "보라색": 6649,
      "받고": 6650,
      "▁슬퍼졌고": 6651,
      "▁물과": 6652,
      "▁고마워했습니다": 6653,
      "▁바라보았죠": 6654,
      "▁모양의": 6655,
      "구공을": 6656,
      "금을": 6657,
      "▁구멍에서": 6658,
      "▁공에": 6659,
      "▁자랑스러워했어요": 6660,
      "▁도둑": 6661,
      "▁얼굴로": 6662,
      "만을": 6663,
      "짜리": 6664,
      "▁오를": 6665,
      "▁한가운데": 6666,
      "지길": 6667,
      "▁슈퍼": 6668,
      "▁필요가": 6669,
      "▁도중": 6670,
      "▁친구였습니다": 6671,
      "▁나섰습니다": 6672,
      "▁스위": 6673,
      "▁창피": 6674,
      "▁내리쬐": 6675,
      "▁수와": 6676,
      "원은": 6677,
      "▁얼어붙": 6678,
      "▁자랑스러워하며": 6679,
      "▁삼촌": 6680,
      "▁가져와": 6681,
      "다니다": 6682,
      "▁안아주었습니다": 6683,
      "▁스파게티": 6684,
      "▁루시와": 6685,
      "▁부르": 6686,
      "▁내지": 6687,
      "냅킨": 6688,
      "▁덩굴": 6689,
      "▁뛰어가": 6690,
      "▁스테": 6691,
      "▁혼란스러워": 6692,
      "▁각자": 6693,
      "워요": 6694,
      "▁탁자": 6695,
      "▁쳐다보": 6696,
      "▁인상": 6697,
      "▁협": 6698,
      "텔레": 6699,
      "▁결과": 6700,
      "▁할머니를": 6701,
      "▁행복했지요": 6702,
      "▁친구의": 6703,
      "▁울며": 6704,
      "▁동의하고": 6705,
      "▁엄마도": 6706,
      "▁사과가": 6707,
      "▁풀을": 6708,
      "경주가": 6709,
      "▁루시를": 6710,
      "랐고": 6711,
      "▁관리": 6712,
      "▁꼭대기": 6713,
      "수지는": 6714,
      "▁피곤했지만": 6715,
      "동을": 6716,
      "▁감탄": 6717,
      "▁드문": 6718,
      "▁하늘은": 6719,
      "어로": 6720,
      "▁주었답니다": 6721,
      "▁멜론": 6722,
      "그들에게": 6723,
      "▁처": 6724,
      "▁표하며": 6725,
      "▁말씀을": 6726,
      "땅에": 6727,
      "▁나머": 6728,
      "▁재능": 6729,
      "릴라는": 6730,
      "▁트럭으로": 6731,
      "텔레비": 6732,
      "▁형제자매": 6733,
      "▁양동이를": 6734,
      "▁싸우고": 6735,
      "되었습니다": 6736,
      "▁나아지도록": 6737,
      "▁속상": 6738,
      "▁밀고": 6739,
      "▁사무": 6740,
      "▁지붕": 6741,
      "무언가": 6742,
      "▁하려고": 6743,
      "▁방패": 6744,
      "▁무서워했죠": 6745,
      "▁오지": 6746,
      "다봤어요": 6747,
      "▁일이라는": 6748,
      "놀랍게도": 6749,
      "▁젖어": 6750,
      "▁소년의": 6751,
      "▁불빛": 6752,
      "▁무섭지": 6753,
      "▁폴더": 6754,
      "▁스토": 6755,
      "▁말고": 6756,
      "▁돌멩": 6757,
      "▁챙겨": 6758,
      "▁빨랐습니다": 6759,
      "▁애썼지만": 6760,
      "▁도왔어요": 6761,
      "▁소리와": 6762,
      "▁여왕": 6763,
      "▁접시": 6764,
      "▁배워야": 6765,
      "비둘": 6766,
      "여요": 6767,
      "켓을": 6768,
      "▁얻고": 6769,
      "▁프": 6770,
      "▁약속을": 6771,
      "▁조심해서": 6772,
      "▁올바른": 6773,
      "▁여우는": 6774,
      "▁베개를": 6775,
      "▁주셔서": 6776,
      "이상한": 6777,
      "▁대답했지요": 6778,
      "▁키스": 6779,
      "못된": 6780,
      "▁곰에게": 6781,
      "▁어둡고": 6782,
      "▁나눠서": 6783,
      "▁사용할": 6784,
      "▁만든다는": 6785,
      "▁발견했다": 6786,
      "▁울타리를": 6787,
      "▁지쳐서": 6788,
      "▁엉망": 6789,
      "에이미가": 6790,
      "▁센": 6791,
      "▁기쁨을": 6792,
      "켰어요": 6793,
      "▁됐어": 6794,
      "▁좋아할": 6795,
      "▁조개": 6796,
      "▁섬세": 6797,
      "▁떠났어요": 6798,
      "▁가난": 6799,
      "▁잠깐": 6800,
      "▁티미는": 6801,
      "▁뗏목": 6802,
      "▁얼룩": 6803,
      "그를": 6804,
      "▁좋았습니다": 6805,
      "▁어깨를": 6806,
      "▁현대": 6807,
      "디가": 6808,
      "▁귀엽": 6809,
      "▁싶어했어요": 6810,
      "▁쪼": 6811,
      "▁망쳐": 6812,
      "▁내리기": 6813,
      "일이": 6814,
      "▁매듭": 6815,
      "▁서랍": 6816,
      "▁청했죠": 6817,
      "▁대머리": 6818,
      "▁끝내": 6819,
      "갑니다": 6820,
      "음식": 6821,
      "▁공정": 6822,
      "▁꽃들을": 6823,
      "▁어디를": 6824,
      "▁뚜껑": 6825,
      "▁팔찌를": 6826,
      "▁깃발을": 6827,
      "송해요": 6828,
      "▁멋지다고": 6829,
      "▁바랐어요": 6830,
      "▁좋아했다": 6831,
      "▁나무에게": 6832,
      "▁배터": 6833,
      "▁장갑": 6834,
      "▁탔": 6835,
      "▁참을": 6836,
      "▁자유롭게": 6837,
      "▁지나가는": 6838,
      "▁먹어야": 6839,
      "거대한": 6840,
      "▁놀라움이": 6841,
      "▁고마": 6842,
      "▁이끌": 6843,
      "▁쉴": 6844,
      "드디어": 6845,
      "il": 6846,
      "은색": 6847,
      "▁냄비": 6848,
      "▁즐겼죠": 6849,
      "▁그물을": 6850,
      "▁강했습니다": 6851,
      "▁주머니를": 6852,
      "무서운": 6853,
      "▁나무에는": 6854,
      "▁다쳤어요": 6855,
      "▁결정했답니다": 6856,
      "너희들은": 6857,
      "▁뛰어가서": 6858,
      "▁대답하지": 6859,
      "▁램": 6860,
      "넓은": 6861,
      "▁치는": 6862,
      "▁질렀어요": 6863,
      "▁잘라": 6864,
      "▁거품을": 6865,
      "▁뻔": 6866,
      "▁바보": 6867,
      "▁속의": 6868,
      "▁것임을": 6869,
      "▁시작할": 6870,
      "▁맞이": 6871,
      "도착": 6872,
      "▁지하": 6873,
      "▁알았": 6874,
      "▁금속": 6875,
      "▁던졌어요": 6876,
      "한다면": 6877,
      "▁꿇": 6878,
      "겠습니다": 6879,
      "▁작아서": 6880,
      "▁수줍음이": 6881,
      "▁상황을": 6882,
      "사와": 6883,
      "바람은": 6884,
      "▁이야기했어요": 6885,
      "▁행동하고": 6886,
      "▁친구도": 6887,
      "▁침대를": 6888,
      "▁많았습니다": 6889,
      "▁사랑을": 6890,
      "▁물러": 6891,
      "▁민": 6892,
      "▁껴안았어요": 6893,
      "갔다가": 6894,
      "▁동물은": 6895,
      "▁궁금해했습니다": 6896,
      "▁몹시": 6897,
      "▁주인은": 6898,
      "양은": 6899,
      "▁요리를": 6900,
      "▁서둘러": 6901,
      "공으로": 6902,
      "▁시험": 6903,
      "리에서": 6904,
      "▁들었답니다": 6905,
      "▁친절해야": 6906,
      "소년과": 6907,
      "스에": 6908,
      "사람들이": 6909,
      "렉스는": 6910,
      "▁이어": 6911,
      "▁만났죠": 6912,
      "무지": 6913,
      "음악": 6914,
      "▁좋을": 6915,
      "▁보여요": 6916,
      "▁물고기와": 6917,
      "▁튀어": 6918,
      "▁상을": 6919,
      "▁둥글": 6920,
      "해는": 6921,
      "치르": 6922,
      "▁선글라": 6923,
      "▁콘을": 6924,
      "▁아늑": 6925,
      "▁일찍": 6926,
      "▁낚아": 6927,
      "▁성냥": 6928,
      "해질": 6929,
      "질이": 6930,
      "▁배운": 6931,
      "▁빨간색의": 6932,
      "▁날에": 6933,
      "우리랑": 6934,
      "▁인형은": 6935,
      "리스는": 6936,
      "▁협력": 6937,
      "찬가지": 6938,
      "▁울음소리를": 6939,
      "토끼가": 6940,
      "▁모른": 6941,
      "▁우산을": 6942,
      "▁봅니다": 6943,
      "▁죄책감을": 6944,
      "▁재밌": 6945,
      "▁베개": 6946,
      "▁배에": 6947,
      "▁존은": 6948,
      "석탄": 6949,
      "▁기분": 6950,
      "▁추고": 6951,
      "키를": 6952,
      "▁말한": 6953,
      "▁약속했답니다": 6954,
      "▁그치고": 6955,
      "밥이": 6956,
      "▁올라서": 6957,
      "리도": 6958,
      "▁휘파람을": 6959,
      "▁사라졌어요": 6960,
      "▁마찬가지": 6961,
      "▁일은": 6962,
      "▁달라": 6963,
      "▁닦고": 6964,
      "냈어": 6965,
      "일은": 6966,
      "대에": 6967,
      "해도": 6968,
      "▁날며": 6969,
      "▁멀어져": 6970,
      "잭과": 6971,
      "날이": 6972,
      "▁뛰어오르고": 6973,
      "▁쫓아가": 6974,
      "다니다가": 6975,
      "엄마한테": 6976,
      "▁잘못된": 6977,
      "▁손가락을": 6978,
      "블루": 6979,
      "▁사랑하고": 6980,
      "▁이해할": 6981,
      "벌레를": 6982,
      "보려": 6983,
      "▁부르기": 6984,
      "▁슬퍼했고": 6985,
      "도움을": 6986,
      "▁껴안았습니다": 6987,
      "배기": 6988,
      "▁나머지": 6989,
      "▁급히": 6990,
      "▁매트": 6991,
      "▁쇼를": 6992,
      "▁있으니까": 6993,
      "▁더러": 6994,
      "▁드릴": 6995,
      "아래로": 6996,
      "샘이라는": 6997,
      "잎사귀": 6998,
      "▁놀라며": 6999,
      "▁느끼며": 7000,
      "▁믿음": 7001,
      "막대": 7002,
      "▁지냈답니다": 7003,
      "▁부드러워": 7004,
      "▁일어나고": 7005,
      "▁눈물을": 7006,
      "▁윙": 7007,
      "▁힘이": 7008,
      "▁일어나서": 7009,
      "▁다가와": 7010,
      "▁없었지요": 7011,
      "주었지요": 7012,
      "혔습니다": 7013,
      "▁치우고": 7014,
      "우며": 7015,
      "▁승": 7016,
      "▁사라에게": 7017,
      "▁문질": 7018,
      "▁따라잡": 7019,
      "캥거": 7020,
      "▁용감하게": 7021,
      "▁뒷마당에서": 7022,
      "▁연습을": 7023,
      "희망": 7024,
      "▁식물이": 7025,
      "분의": 7026,
      "▁외롭지": 7027,
      "▁함께하는": 7028,
      "정이": 7029,
      "▁예전": 7030,
      "공주는": 7031,
      "▁책은": 7032,
      "▁행복해했어요": 7033,
      "▁친구들의": 7034,
      "가까이": 7035,
      "▁멈출": 7036,
      "▁딸기를": 7037,
      "▁아니란다": 7038,
      "▁셀러": 7039,
      "꺼이": 7040,
      "▁있었으면": 7041,
      "▁미소지었습니다": 7042,
      "앞으로": 7043,
      "▁사람들의": 7044,
      "자인": 7045,
      "▁파이를": 7046,
      "▁미아와": 7047,
      "▁찾아내": 7048,
      "▁쇼핑": 7049,
      "▁이해하지": 7050,
      "▁잼을": 7051,
      "도움이": 7052,
      "▁시원한": 7053,
      "▁말이에요": 7054,
      "엄마의": 7055,
      "▁기타를": 7056,
      "▁나왔": 7057,
      "▁못되게": 7058,
      "▁속에는": 7059,
      "▁비행기": 7060,
      "▁나은": 7061,
      "▁자주": 7062,
      "▁기차는": 7063,
      "▁크리스털": 7064,
      "▁사자를": 7065,
      "▁비명을": 7066,
      "▁지금까지": 7067,
      "▁나누며": 7068,
      "▁음식이": 7069,
      "▁폭": 7070,
      "▁모자가": 7071,
      "▁당황": 7072,
      "준비": 7073,
      "국을": 7074,
      "▁도마뱀": 7075,
      "뭉치를": 7076,
      "▁소중히": 7077,
      "서로에게": 7078,
      "높이": 7079,
      "▁상관": 7080,
      "▁나중에": 7081,
      "할게요": 7082,
      "▁뱀을": 7083,
      "▁저녁을": 7084,
      "▁시작했지만": 7085,
      "▁구슬을": 7086,
      "▁돌아오지": 7087,
      "▁공중에": 7088,
      "▁선인": 7089,
      "▁등을": 7090,
      "▁말했지": 7091,
      "▁주기로": 7092,
      "냈고": 7093,
      "토바": 7094,
      "▁주변에": 7095,
      "▁친구들도": 7096,
      "▁때쯤": 7097,
      "▁나타났어요": 7098,
      "토미": 7099,
      "알겠어요": 7100,
      "멈춰": 7101,
      "▁다람쥐에게": 7102,
      "▁배려": 7103,
      "▁수건을": 7104,
      "▁새들은": 7105,
      "▁연못으로": 7106,
      "부엌": 7107,
      "▁그렸습니다": 7108,
      "담한": 7109,
      "▁설레서": 7110,
      "▁색깔과": 7111,
      "▁감사했습니다": 7112,
      "▁했을": 7113,
      "팀에게는": 7114,
      "▁짖고": 7115,
      "▁짖었어요": 7116,
      "▁기꺼이": 7117,
      "했으며": 7118,
      "▁궁금해졌어요": 7119,
      "▁꽃과": 7120,
      "스에게": 7121,
      "▁떠나고": 7122,
      "▁떨고": 7123,
      "▁늦었습니다": 7124,
      "▁핑": 7125,
      "할머니가": 7126,
      "▁먹자": 7127,
      "▁헬리콥": 7128,
      "이었지요": 7129,
      "▁솔": 7130,
      "▁삐": 7131,
      "그날부터": 7132,
      "▁잃은": 7133,
      "다녔죠": 7134,
      "거기에서": 7135,
      "려면": 7136,
      "개미": 7137,
      "▁혜": 7138,
      "▁기계를": 7139,
      "▁도구를": 7140,
      "▁아팠습니다": 7141,
      "▁졸린": 7142,
      "▁어울": 7143,
      "▁샐러드를": 7144,
      "▁커튼": 7145,
      "▁존재": 7146,
      "행복한": 7147,
      "▁택": 7148,
      "▁치워": 7149,
      "수라와": 7150,
      "▁목도": 7151,
      "브가": 7152,
      "▁트로": 7153,
      "▁놀라면서도": 7154,
      "▁막스는": 7155,
      "▁숫자": 7156,
      "▁대단": 7157,
      "▁집안을": 7158,
      "▁크레용으로": 7159,
      "▁뛰어올랐습니다": 7160,
      "▁톱": 7161,
      "▁잉": 7162,
      "샘도": 7163,
      "▁세계": 7164,
      "였거든요": 7165,
      "▁거기서": 7166,
      "▁괴물은": 7167,
      "샴푸": 7168,
      "▁에이미가": 7169,
      "▁부서진": 7170,
      "▁돌고래": 7171,
      "리한": 7172,
      "▁치우": 7173,
      "▁칼을": 7174,
      "▁토스": 7175,
      "▁기회": 7176,
      "▁하지만": 7177,
      "쉬고": 7178,
      "▁안타까": 7179,
      "키티와": 7180,
      "▁붙여": 7181,
      "나에게": 7182,
      "보며": 7183,
      "혐오": 7184,
      "▁마지막": 7185,
      "▁가져왔습니다": 7186,
      "▁줍고": 7187,
      "▁몰아": 7188,
      "▁그래요": 7189,
      "그도": 7190,
      "▁차량": 7191,
      "▁새도": 7192,
      "▁물로": 7193,
      "▁바깥": 7194,
      "장난감이": 7195,
      "야만": 7196,
      "▁가게에서": 7197,
      "▁안전해": 7198,
      "▁못하게": 7199,
      "▁다투기": 7200,
      "쳤지만": 7201,
      "▁열린": 7202,
      "▁어둠": 7203,
      "▁뛰어다니고": 7204,
      "▁토끼와": 7205,
      "위에": 7206,
      "▁부주의": 7207,
      "▁나쁘": 7208,
      "세척": 7209,
      "▁똑같이": 7210,
      "▁오븐에": 7211,
      "▁살았죠": 7212,
      "▁치르": 7213,
      "먹고": 7214,
      "리자": 7215,
      "▁살펴봤어요": 7216,
      "용서": 7217,
      "그것을": 7218,
      "▁걸으면서": 7219,
      "▁점심": 7220,
      "▁방해": 7221,
      "하늘에": 7222,
      "▁버디는": 7223,
      "새의": 7224,
      "▁무서워하는": 7225,
      "▁빨갛고": 7226,
      "▁치즈": 7227,
      "▁화면": 7228,
      "▁열매를": 7229,
      "▁불쌍히": 7230,
      "바다": 7231,
      "거기에": 7232,
      "▁청소하는": 7233,
      "▁웃었답니다": 7234,
      "▁둥지에": 7235,
      "▁창의적인": 7236,
      "▁헬멧을": 7237,
      "▁세는": 7238,
      "▁바퀴를": 7239,
      "휘스커스는": 7240,
      "지혜로운": 7241,
      "▁목이": 7242,
      "▁파는": 7243,
      "▁걸린": 7244,
      "▁빨랐어요": 7245,
      "▁끊": 7246,
      "초록색": 7247,
      "친구들도": 7248,
      "▁색상": 7249,
      "녹색": 7250,
      "▁미끄럼틀로": 7251,
      "기세척": 7252,
      "▁헤엄치는": 7253,
      "▁날아오": 7254,
      "라우": 7255,
      "▁침대에서": 7256,
      "▁찰": 7257,
      "▁슬펐답니다": 7258,
      "▁아래서": 7259,
      "께서": 7260,
      "▁숨는": 7261,
      "▁빗을": 7262,
      "▁좋아했거든요": 7263,
      "▁꼼": 7264,
      "▁있겠니": 7265,
      "▁개도": 7266,
      "▁벽돌": 7267,
      "름이": 7268,
      "▁찼습니다": 7269,
      "▁저어": 7270,
      "▁물었다": 7271,
      "▁부시": 7272,
      "▁받았습니다": 7273,
      "▁갇힌": 7274,
      "▁건강한": 7275,
      "▁얻을": 7276,
      "▁그들과": 7277,
      "▁익": 7278,
      "▁껍데": 7279,
      "▁다리가": 7280,
      "▁검은색": 7281,
      "▁이번에는": 7282,
      "▁찾아다녔어요": 7283,
      "너의": 7284,
      "운전": 7285,
      "당신이": 7286,
      "선생님은": 7287,
      "▁기둥": 7288,
      "어두": 7289,
      "▁연주하는": 7290,
      "▁걸음": 7291,
      "제니는": 7292,
      "▁지도를": 7293,
      "플라": 7294,
      "▁도와달라고": 7295,
      "▁공간": 7296,
      "들아": 7297,
      "력이": 7298,
      "▁추가": 7299,
      "▁못하는": 7300,
      "여기저기": 7301,
      "▁주문": 7302,
      "▁때문입니다": 7303,
      "▁방은": 7304,
      "▁반창": 7305,
      "▁안나에게": 7306,
      "▁동물원에": 7307,
      "▁가위를": 7308,
      "▁놀곤": 7309,
      "▁튜": 7310,
      "▁걸음을": 7311,
      "▁응원": 7312,
      "▁가져갔": 7313,
      "▁친구였고": 7314,
      "▁도망치": 7315,
      "▁레오": 7316,
      "▁없고": 7317,
      "▁펜을": 7318,
      "▁동물들도": 7319,
      "▁나아졌습니다": 7320,
      "▁곰과": 7321,
      "▁맛있었습니다": 7322,
      "▁밧줄을": 7323,
      "▁나눠주고": 7324,
      "▁그리기를": 7325,
      "▁주방으로": 7326,
      "음식을": 7327,
      "▁벗어": 7328,
      "▁거울을": 7329,
      "▁뜨겁": 7330,
      "새도": 7331,
      "▁일했습니다": 7332,
      "▁핀을": 7333,
      "▁질렀습니다": 7334,
      "▁그녀와": 7335,
      "▁움직이고": 7336,
      "▁주인이": 7337,
      "▁액": 7338,
      "▁일어났는지": 7339,
      "▁얘": 7340,
      "데이지": 7341,
      "▁넘어져": 7342,
      "슬을": 7343,
      "▁얻었습니다": 7344,
      "▁모르겠어요": 7345,
      "살이었고": 7346,
      "▁가운": 7347,
      "이이": 7348,
      "▁주실": 7349,
      "▁감싸": 7350,
      "▁누구도": 7351,
      "▁떠오": 7352,
      "▁흔들리기": 7353,
      "▁최대한": 7354,
      "재밌": 7355,
      "▁조언": 7356,
      "▁다쳐서": 7357,
      "주실": 7358,
      "채로운": 7359,
      "해변": 7360,
      "▁물속에": 7361,
      "▁생각했지만": 7362,
      "눈사람": 7363,
      "터로": 7364,
      "늑대는": 7365,
      "조용": 7366,
      "▁들여다보고": 7367,
      "▁달아났어요": 7368,
      "기차": 7369,
      "▁떠나기로": 7370,
      "▁긴장": 7371,
      "▁냅킨": 7372,
      "▁붙어": 7373,
      "▁헤맸": 7374,
      "▁날아다니며": 7375,
      "모두들": 7376,
      "▁말도": 7377,
      "▁미안해하며": 7378,
      "▁근처의": 7379,
      "▁내려왔습니다": 7380,
      "▁사라가": 7381,
      "▁죽은": 7382,
      "▁알을": 7383,
      "꽃은": 7384,
      "▁식사": 7385,
      "▁비어": 7386,
      "▁평소": 7387,
      "엘라는": 7388,
      "▁펴": 7389,
      "▁지혜": 7390,
      "임무": 7391,
      "티머의": 7392,
      "였던": 7393,
      "키티라는": 7394,
      "스티": 7395,
      "▁벤이라는": 7396,
      "▁펭귄": 7397,
      "▁알아요": 7398,
      "용감한": 7399,
      "든지": 7400,
      "▁탱": 7401,
      "▁나비는": 7402,
      "▁말은": 7403,
      "▁겪": 7404,
      "▁털이": 7405,
      "앤디는": 7406,
      "노인은": 7407,
      "안돼": 7408,
      "▁장난감에": 7409,
      "▁부러진": 7410,
      "▁항구": 7411,
      "▁구석에": 7412,
      "▁물건들이": 7413,
      "쪽에": 7414,
      "릴리도": 7415,
      "질은": 7416,
      "▁가졌습니다": 7417,
      "▁검을": 7418,
      "▁필요해요": 7419,
      "▁더럽": 7420,
      "▁통과": 7421,
      "이지를": 7422,
      "▁돌아서": 7423,
      "▁바다에": 7424,
      "어버렸어요": 7425,
      "▁만들었고": 7426,
      "▁반짝이며": 7427,
      "▁유령": 7428,
      "스의": 7429,
      "스럽": 7430,
      "뾰족": 7431,
      "▁고치고": 7432,
      "인데": 7433,
      "▁아이였어요": 7434,
      "▁바랐죠": 7435,
      "▁놀던": 7436,
      "▁엔진": 7437,
      "▁너한테": 7438,
      "▁부츠를": 7439,
      "▁해적": 7440,
      "▁단단히": 7441,
      "▁나빴": 7442,
      "▁알아보고": 7443,
      "▁날개": 7444,
      "▁부르며": 7445,
      "▁기뻤죠": 7446,
      "▁축축": 7447,
      "▁붙잡고": 7448,
      "크레": 7449,
      "걱정하지": 7450,
      "▁엄마한테": 7451,
      "약속": 7452,
      "▁까마귀": 7453,
      "괴물은": 7454,
      "▁덜": 7455,
      "▁자랑스럽고": 7456,
      "▁안나가": 7457,
      "▁생겨": 7458,
      "▁놓아주": 7459,
      "▁겁": 7460,
      "▁내려다보": 7461,
      "▁이모": 7462,
      "▁행동을": 7463,
      "꽃을": 7464,
      "▁태양": 7465,
      "샐리라는": 7466,
      "▁나눠야": 7467,
      "▁싶은데": 7468,
      "름은": 7469,
      "▁뒤뜰": 7470,
      "하길": 7471,
      "까마귀": 7472,
      "▁짐을": 7473,
      "▁시큼": 7474,
      "▁뛰쳐나가": 7475,
      "리려고": 7476,
      "판이": 7477,
      "판에": 7478,
      "쳤고": 7479,
      "▁뛰어노는": 7480,
      "디와": 7481,
      "식탁": 7482,
      "▁변해": 7483,
      "▁들판에": 7484,
      "▁테이프를": 7485,
      "▁원을": 7486,
      "주기로": 7487,
      "▁말이죠": 7488,
      "▁뛰었어요": 7489,
      "▁마을에서": 7490,
      "줄이": 7491,
      "▁괜찮다고": 7492,
      "▁게으른": 7493,
      "▁할머니가": 7494,
      "▁무거워": 7495,
      "▁키티가": 7496,
      "겠다는": 7497,
      "보았습니다": 7498,
      "했는데": 7499,
      "▁여권": 7500,
      "▁다행이라고": 7501,
      "▁파도가": 7502,
      "▁넥타이를": 7503,
      "▁상기": 7504,
      "▁저울": 7505,
      "▁참여": 7506,
      "▁착하지": 7507,
      "▁요정이": 7508,
      "▁주며": 7509,
      "▁불었어요": 7510,
      "▁댄": 7511,
      "▁텔레비": 7512,
      "▁찾게": 7513,
      "▁웃음": 7514,
      "▁둥지": 7515,
      "니라는": 7516,
      "▁해줬어요": 7517,
      "▁듣게": 7518,
      "▁손전등을": 7519,
      "▁소년이었습니다": 7520,
      "▁떠서": 7521,
      "▁농장에": 7522,
      "맛이": 7523,
      "▁뜻밖에도": 7524,
      "부탁드": 7525,
      "울타": 7526,
      "모르": 7527,
      "▁점프": 7528,
      "▁비싼": 7529,
      "쌩쌩": 7530,
      "티모시는": 7531,
      "▁놓았습니다": 7532,
      "▁의견": 7533,
      "▁내려놓고": 7534,
      "▁거절": 7535,
      "▁즐기고": 7536,
      "▁절대": 7537,
      "▁수학": 7538,
      "▁느끼게": 7539,
      "▁걸레": 7540,
      "▁뛰쳐나와": 7541,
      "▁기쁨으로": 7542,
      "▁시작해요": 7543,
      "▁뽑": 7544,
      "▁풀밭에서": 7545,
      "▁플루트를": 7546,
      "▁진흙에서": 7547,
      "에밀리는": 7548,
      "▁즐거웠": 7549,
      "▁떠올랐습니다": 7550,
      "벤의": 7551,
      "▁바라며": 7552,
      "▁마스크를": 7553,
      "▁정리하고": 7554,
      "▁겸손한": 7555,
      "▁않기로": 7556,
      "▁스스로에게": 7557,
      "▁웃으시며": 7558,
      "마크": 7559,
      "▁드래곤": 7560,
      "▁공원의": 7561,
      "▁반죽을": 7562,
      "▁바구니에": 7563,
      "▁계셨어요": 7564,
      "▁브라운": 7565,
      "오고": 7566,
      "▁안나의": 7567,
      "▁때면": 7568,
      "▁불었습니다": 7569,
      "어도": 7570,
      "▁물었지요": 7571,
      "▁방식": 7572,
      "▁붕": 7573,
      "▁꽤": 7574,
      "▁생각이야": 7575,
      "▁싸우기": 7576,
      "▁변했어요": 7577,
      "났고": 7578,
      "▁그리며": 7579,
      "▁현명": 7580,
      "▁법": 7581,
      "▁오르고": 7582,
      "오리": 7583,
      "규칙을": 7584,
      "히는": 7585,
      "▁이름이": 7586,
      "상자는": 7587,
      "▁안아주었어요": 7588,
      "▁의사": 7589,
      "▁다음엔": 7590,
      "▁선생님이": 7591,
      "▁커지기": 7592,
      "▁나빠": 7593,
      "▁구덩": 7594,
      "▁혼란스러": 7595,
      "▁지키고": 7596,
      "나뭇": 7597,
      "▁않아도": 7598,
      "▁가져가지": 7599,
      "끈한": 7600,
      "▁안전하다고": 7601,
      "안나야": 7602,
      "▁숲속의": 7603,
      "▁싶었어": 7604,
      "▁쪽지를": 7605,
      "▁제공": 7606,
      "▁아늑한": 7607,
      "니에게": 7608,
      "▁스쿠터를": 7609,
      "▁기억했어요": 7610,
      "▁나누기로": 7611,
      "▁제자리에": 7612,
      "▁물고기에게": 7613,
      "▁차지": 7614,
      "▁남자의": 7615,
      "짐은": 7616,
      "▁허락해": 7617,
      "▁찾아왔어요": 7618,
      "▁간식이": 7619,
      "▁잃었어요": 7620,
      "▁맡고": 7621,
      "▁읽을": 7622,
      "▁못했고": 7623,
      "▁평화로운": 7624,
      "▁파스타를": 7625,
      "▁불평": 7626,
      "▁흔들어": 7627,
      "▁밥과": 7628,
      "▁주고받": 7629,
      "하구나": 7630,
      "▁뛰어갔어요": 7631,
      "▁음식과": 7632,
      "▁내어": 7633,
      "▁아이야": 7634,
      "▁장난기": 7635,
      "▁건데": 7636,
      "▁기쁘게": 7637,
      "▁강하게": 7638,
      "주위를": 7639,
      "지면": 7640,
      "▁높았어요": 7641,
      "▁별이": 7642,
      "▁힘들었어요": 7643,
      "▁이빨을": 7644,
      "▁클럽": 7645,
      "나눠": 7646,
      "루나는": 7647,
      "▁로켓을": 7648,
      "▁선풍": 7649,
      "보라고": 7650,
      "저씨": 7651,
      "▁도착했어요": 7652,
      "▁으르렁거": 7653,
      "▁돌아갔고": 7654,
      "▁채소를": 7655,
      "▁임무": 7656,
      "▁두려움을": 7657,
      "수염": 7658,
      "디라는": 7659,
      "▁책이": 7660,
      "▁청하는": 7661,
      "성은": 7662,
      "할아버": 7663,
      "▁포도를": 7664,
      "▁동그란": 7665,
      "밭을": 7666,
      "▁사라의": 7667,
      "▁세계를": 7668,
      "▁지냈습니다": 7669,
      "▁채찍": 7670,
      "격을": 7671,
      "▁석탄": 7672,
      "▁건지": 7673,
      "하늘에서": 7674,
      "▁뛰어놀기를": 7675,
      "올빼미는": 7676,
      "▁나한테": 7677,
      "▁모험에": 7678,
      "▁사용하여": 7679,
      "▁위험해": 7680,
      "▁사실": 7681,
      "▁빨라": 7682,
      "▁에": 7683,
      "▁격": 7684,
      "났을": 7685,
      "▁해파": 7686,
      "▁뭔가": 7687,
      "▁굉": 7688,
      "▁짜": 7689,
      "▁나눴어요": 7690,
      "샘의": 7691,
      "▁얼굴이": 7692,
      "▁싶었다": 7693,
      "님을": 7694,
      "편에": 7695,
      "▁모양이": 7696,
      "▁쌩쌩": 7697,
      "앵무": 7698,
      "▁미사": 7699,
      "▁살배기": 7700,
      "▁도와주었습니다": 7701,
      "▁쉬며": 7702,
      "▁수레를": 7703,
      "▁사람에게": 7704,
      "▁일했어요": 7705,
      "▁오토바": 7706,
      "표를": 7707,
      "원에서": 7708,
      "새끼": 7709,
      "▁당장": 7710,
      "▁양말": 7711,
      "프고": 7712,
      "▁지내는": 7713,
      "▁들어서": 7714,
      "▁숲속으로": 7715,
      "▁편안한": 7716,
      "사자": 7717,
      "▁가져야": 7718,
      "▁로션": 7719,
      "▁화산": 7720,
      "▁시도했습니다": 7721,
      "랐지만": 7722,
      "▁살피": 7723,
      "▁것이죠": 7724,
      "▁않았지요": 7725,
      "▁꽃들과": 7726,
      "밖이": 7727,
      "▁몇몇": 7728,
      "▁조심하고": 7729,
      "▁반복": 7730,
      "▁이들을": 7731,
      "▁호스를": 7732,
      "▁했는데": 7733,
      "브러": 7734,
      "▁벌이": 7735,
      "▁장난감인": 7736,
      "▁사라졌습니다": 7737,
      "▁있었으니까요": 7738,
      "▁굴뚝": 7739,
      "그래도": 7740,
      "▁팝콘을": 7741,
      "하늘을": 7742,
      "▁불고": 7743,
      "저리": 7744,
      "▁있잖아": 7745,
      "▁척을": 7746,
      "▁뛰어난": 7747,
      "▁목재": 7748,
      "레오": 7749,
      "▁복숭아를": 7750,
      "천천히": 7751,
      "▁끝나갈": 7752,
      "▁표범": 7753,
      "색의": 7754,
      "▁사랑하게": 7755,
      "▁먹으면": 7756,
      "▁떼어": 7757,
      "워를": 7758,
      "▁느낌이": 7759,
      "▁풍선이": 7760,
      "▁하셨": 7761,
      "▁날기": 7762,
      "▁작았어요": 7763,
      "▁깊이": 7764,
      "▁했거든요": 7765,
      "뱀은": 7766,
      "키라는": 7767,
      "▁괜찮다는": 7768,
      "▁현대적인": 7769,
      "▁재킷": 7770,
      "▁햇볕이": 7771,
      "버려": 7772,
      "▁강해서": 7773,
      "주셨어요": 7774,
      "▁날아다니는": 7775,
      "부엉이는": 7776,
      "▁합니다": 7777,
      "▁가능한": 7778,
      "▁발톱으로": 7779,
      "▁여기에": 7780,
      "▁퍼레이": 7781,
      "▁껌을": 7782,
      "▁흥분": 7783,
      "팀이야": 7784,
      "▁안나와": 7785,
      "▁소풍을": 7786,
      "▁떨어뜨렸어요": 7787,
      "▁때도": 7788,
      "▁숲으로": 7789,
      "▁다이빙": 7790,
      "겠니": 7791,
      "▁내렸습니다": 7792,
      "▁종이와": 7793,
      "▁행복해질": 7794,
      "▁코로": 7795,
      "▁영화": 7796,
      "▁불안해": 7797,
      "▁주었지요": 7798,
      "십자가": 7799,
      "점에": 7800,
      "바위는": 7801,
      "▁주인에게": 7802,
      "▁줬": 7803,
      "▁일들이": 7804,
      "▁상자와": 7805,
      "스틱": 7806,
      "거기엔": 7807,
      "▁나뭇잎을": 7808,
      "맥은": 7809,
      "▁도서": 7810,
      "▁현미": 7811,
      "▁사라와": 7812,
      "달은": 7813,
      "▁못했지만": 7814,
      "▁다치고": 7815,
      "루시야": 7816,
      "▁빛이": 7817,
      "가루": 7818,
      "▁걷다가": 7819,
      "▁안전하지": 7820,
      "▁잔디밭에서": 7821,
      "▁이기고": 7822,
      "슬퍼하지": 7823,
      "▁숨어서": 7824,
      "▁다이아몬드를": 7825,
      "▁싫어했어요": 7826,
      "▁자랑스러웠어요": 7827,
      "▁땅콩을": 7828,
      "▁블라우": 7829,
      "▁떨어지는": 7830,
      "때로": 7831,
      "▁옷장": 7832,
      "▁그네와": 7833,
      "▁잎사귀가": 7834,
      "▁구급": 7835,
      "나무에서": 7836,
      "▁유리": 7837,
      "▁뭐에요": 7838,
      "▁혐오": 7839,
      "▁도와줄래": 7840,
      "▁격려": 7841,
      "▁굴러가": 7842,
      "▁자리에": 7843,
      "▁디저": 7844,
      "▁면도": 7845,
      "▁지나가다가": 7846,
      "▁나온": 7847,
      "소방": 7848,
      "▁가면": 7849,
      "▁앞치": 7850,
      "▁해결할": 7851,
      "이었답니다": 7852,
      "▁어른": 7853,
      "겼고": 7854,
      "▁춤추며": 7855,
      "쳤어": 7856,
      "▁소설": 7857,
      "▁내려왔어요": 7858,
      "그곳은": 7859,
      "얼굴": 7860,
      "▁항아리": 7861,
      "▁화살을": 7862,
      "그와": 7863,
      "바비는": 7864,
      "▁걸어가며": 7865,
      "리플라": 7866,
      "▁쳐다보고": 7867,
      "▁들어있는지": 7868,
      "▁초콜릿을": 7869,
      "▁뭔지": 7870,
      "었으며": 7871,
      "쿨러": 7872,
      "▁그럴": 7873,
      "▁집과": 7874,
      "▁꿇고": 7875,
      "▁뛰어내": 7876,
      "▁벽난": 7877,
      "▁샐리에게": 7878,
      "▁닻": 7879,
      "▁앉을": 7880,
      "▁나눔이": 7881,
      "▁보여드렸어요": 7882,
      "▁외로운": 7883,
      "샐리와": 7884,
      "▁마녀": 7885,
      "▁씻고": 7886,
      "▁바지를": 7887,
      "에게도": 7888,
      "아가": 7889,
      "▁몰래": 7890,
      "▁성에": 7891,
      "져야": 7892,
      "▁입는": 7893,
      "▁녹음": 7894,
      "▁우유": 7895,
      "▁인내심이": 7896,
      "▁도착한": 7897,
      "▁재떨": 7898,
      "▁트릭": 7899,
      "▁다락방": 7900,
      "없이": 7901,
      "▁찾아냈어요": 7902,
      "▁날려버렸어요": 7903,
      "▁푹신": 7904,
      "▁머핀을": 7905,
      "기지": 7906,
      "▁보인": 7907,
      "▁신나했습니다": 7908,
      "▁티미라는": 7909,
      "▁뜻을": 7910,
      "▁끝난": 7911,
      "▁던졌습니다": 7912,
      "해지고": 7913,
      "▁때를": 7914,
      "쳤다": 7915,
      "▁의자가": 7916,
      "▁건물": 7917,
      "▁짖었습니다": 7918,
      "▁환한": 7919,
      "▁들었어야": 7920,
      "▁형제입니다": 7921,
      "되었고": 7922,
      "▁스웨터를": 7923,
      "▁텅": 7924,
      "불을": 7925,
      "▁제가": 7926,
      "▁교회": 7927,
      "▁목소리는": 7928,
      "정한": 7929,
      "▁목줄을": 7930,
      "용서해": 7931,
      "▁컬": 7932,
      "▁가져왔": 7933,
      "▁개구리에게": 7934,
      "▁멀리서": 7935,
      "아시": 7936,
      "▁아담한": 7937,
      "▁너도": 7938,
      "▁차서": 7939,
      "▁특": 7940,
      "진다는": 7941,
      "저게": 7942,
      "내려고": 7943,
      "▁소가": 7944,
      "▁샴푸": 7945,
      "▁청소를": 7946,
      "▁널브러": 7947,
      "▁불기": 7948,
      "▁극": 7949,
      "▁닫고": 7950,
      "▁불이": 7951,
      "▁강아지와": 7952,
      "▁놉": 7953,
      "▁다르": 7954,
      "▁믹서": 7955,
      "샐리": 7956,
      "밖으로": 7957,
      "▁여자는": 7958,
      "▁벌레와": 7959,
      "꽥꽥": 7960,
      "▁때로는": 7961,
      "상이": 7962,
      "▁좋았죠": 7963,
      "▁소시지를": 7964,
      "▁봤지요": 7965,
      "▁벨트를": 7966,
      "▁있다면": 7967,
      "▁줄은": 7968,
      "▁브로콜리를": 7969,
      "▁모른다고": 7970,
      "리저리": 7971,
      "▁진실을": 7972,
      "▁권총": 7973,
      "▁농부": 7974,
      "▁거였어요": 7975,
      "▁시를": 7976,
      "프와": 7977,
      "▁약속했죠": 7978,
      "해줘서": 7979,
      "▁접착": 7980,
      "▁지르고": 7981,
      "▁끈적": 7982,
      "▁찾았지만": 7983,
      "▁뒤져": 7984,
      "▁저를": 7985,
      "▁나요": 7986,
      "▁드레스와": 7987,
      "▁비추고": 7988,
      "▁깃발": 7989,
      "▁캠": 7990,
      "▁분필": 7991,
      "터에": 7992,
      "친구는": 7993,
      "▁정도": 7994,
      "▁대신에": 7995,
      "▁화나게": 7996,
      "▁뛰기": 7997,
      "▁트로피를": 7998,
      "▁구조": 7999,
      "▁걸어가서": 8000,
      "기찬": 8001,
      "▁갔다": 8002,
      "▁무너": 8003,
      "▁홀": 8004,
      "▁먹으려고": 8005,
      "▁여우가": 8006,
      "▁목에": 8007,
      "▁잎이": 8008,
      "▁호텔": 8009,
      "▁가게를": 8010,
      "브라운": 8011,
      "▁뭐니": 8012,
      "▁곰인형을": 8013,
      "▁올라갔고": 8014,
      "▁손잡이를": 8015,
      "▁그네에": 8016,
      "▁사과했습니다": 8017,
      "언젠가": 8018,
      "▁노인은": 8019,
      "▁칠면": 8020,
      "▁마당을": 8021,
      "하늘이": 8022,
      "▁바이올린을": 8023,
      "터에서": 8024,
      "내며": 8025,
      "▁좋아하게": 8026,
      "▁시도하는": 8027,
      "그재": 8028,
      "▁선글라스를": 8029,
      "▁미친": 8030,
      "▁거울": 8031,
      "▁답답": 8032,
      "키와": 8033,
      "▁돌보는": 8034,
      "차게": 8035,
      "최고": 8036,
      "스팟아": 8037,
      "▁감사하며": 8038,
      "호기심": 8039,
      "▁파도를": 8040,
      "▁뾰족": 8041,
      "▁상자로": 8042,
      "▁얻었어요": 8043,
      "콧수염": 8044,
      "보기": 8045,
      "젊은": 8046,
      "▁바라보면서": 8047,
      "▁돌려주고": 8048,
      "고양이야": 8049,
      "▁주문을": 8050,
      "▁줌": 8051,
      "▁사귀게": 8052,
      "집에서": 8053,
      "▁추억": 8054,
      "▁뛰어들었어요": 8055,
      "▁엘리베이": 8056,
      "▁없었지만": 8057,
      "▁거닐고": 8058,
      "▁모습에": 8059,
      "관에서": 8060,
      "▁좌": 8061,
      "혼자서": 8062,
      "▁날기를": 8063,
      "상자가": 8064,
      "▁렉": 8065,
      "▁오늘은": 8066,
      "▁넓고": 8067,
      "▁노력했어요": 8068,
      "▁지켜보았어요": 8069,
      "▁머그": 8070,
      "▁단추를": 8071,
      "▁나지": 8072,
      "▁시끄러": 8073,
      "▁자랑스러워했답니다": 8074,
      "▁풀밭에": 8075,
      "주를": 8076,
      "콜리플라": 8077,
      "▁바빴": 8078,
      "▁계셨습니다": 8079,
      "▁파티에서": 8080,
      "▁잃어버려": 8081,
      "▁놀아야": 8082,
      "▁열정": 8083,
      "▁뛰어다녔어요": 8084,
      "▁으쓱": 8085,
      "▁곤": 8086,
      "▁노인이": 8087,
      "맞아요": 8088,
      "▁싶었을": 8089,
      "▁모르는": 8090,
      "▁같아서": 8091,
      "수에게는": 8092,
      "▁이발": 8093,
      "▁고기를": 8094,
      "▁분수": 8095,
      "▁기린": 8096,
      "▁나무의": 8097,
      "시도": 8098,
      "▁구부": 8099,
      "▁벌레에게": 8100,
      "친구들을": 8101,
      "▁아름답게": 8102,
      "▁세고": 8103,
      "▁커져": 8104,
      "▁원숭이가": 8105,
      "▁가져가는": 8106,
      "▁다녔어요": 8107,
      "▁반창고를": 8108,
      "▁위로해": 8109,
      "▁행복해했답니다": 8110,
      "▁이야기가": 8111,
      "▁망치를": 8112,
      "▁나라": 8113,
      "▁웅덩이를": 8114,
      "▁밥에게": 8115,
      "원숭이는": 8116,
      "▁소파에": 8117,
      "▁어때": 8118,
      "▁놀았지만": 8119,
      "▁버렸고": 8120,
      "▁이리저리": 8121,
      "▁시리얼을": 8122,
      "▁벌은": 8123,
      "▁끈을": 8124,
      "▁채우고": 8125,
      "▁부모님께": 8126,
      "악어는": 8127,
      "▁벌어졌죠": 8128,
      "볼게": 8129,
      "▁흔들고": 8130,
      "▁첫": 8131,
      "회색": 8132,
      "▁이글": 8133,
      "▁반대": 8134,
      "▁해주었죠": 8135,
      "▁주지": 8136,
      "▁컸습니다": 8137,
      "산책": 8138,
      "▁열쇠가": 8139,
      "▁창백": 8140,
      "수영": 8141,
      "▁원했지만": 8142,
      "▁외롭게": 8143,
      "▁트럼펫을": 8144,
      "▁메달을": 8145,
      "▁잡지": 8146,
      "▁간절": 8147,
      "거미는": 8148,
      "살짜리": 8149,
      "고래는": 8150,
      "▁조종": 8151,
      "▁놉니다": 8152,
      "존과": 8153,
      "▁섬세한": 8154,
      "▁비싸": 8155,
      "▁자랑스러운": 8156,
      "▁유연한": 8157,
      "▁봤답니다": 8158,
      "코끼리는": 8159,
      "▁스카프를": 8160,
      "▁솟구": 8161,
      "▁다니며": 8162,
      "▁했지": 8163,
      "?'": 8164,
      "▁갈수록": 8165,
      "▁그림자를": 8166,
      "▁들지": 8167,
      "제리는": 8168,
      "▁앞에서": 8169,
      "▁에이미에게": 8170,
      "코코": 8171,
      "점심": 8172,
      "갈색": 8173,
      "▁조언을": 8174,
      "▁기대하고": 8175,
      "기치": 8176,
      "그램": 8177,
      "▁어떨까": 8178,
      "▁말했고": 8179,
      "봤습니다": 8180,
      "▁날은": 8181,
      "▁에마": 8182,
      "우린": 8183,
      "▁예뻤어요": 8184,
      "▁했잖아": 8185,
      "▁못을": 8186,
      "▁노력했습니다": 8187,
      "▁모여": 8188,
      "▁들었": 8189,
      "▁잠겨": 8190,
      "그녀도": 8191,
      "리라가": 8192,
      "▁약한": 8193,
      "새에게": 8194,
      "무늬": 8195,
      "▁좋겠어": 8196,
      "▁다채로운": 8197,
      "▁할머니에게": 8198,
      "내지": 8199,
      "▁왕이": 8200,
      "아이를": 8201,
      "▁나아지기": 8202,
      "▁농장": 8203,
      "두를": 8204,
      "▁끄덕여요": 8205,
      "거북이는": 8206,
      "▁소원": 8207,
      "▁하품을": 8208,
      "▁집에는": 8209,
      "각형을": 8210,
      "▁바람은": 8211,
      "▁비틀": 8212,
      "▁올려놓았어요": 8213,
      "▁세서": 8214,
      "▁촛불을": 8215,
      "대머리": 8216,
      "▁와플을": 8217,
      "▁꾸미": 8218,
      "▁오렌지": 8219,
      "벤도": 8220,
      "▁맞지": 8221,
      "개도": 8222,
      "▁요거트를": 8223,
      "▁고파서": 8224,
      "▁함": 8225,
      "자리를": 8226,
      "▁올려다보고": 8227,
      "▁부엉이는": 8228,
      "▁직접": 8229,
      "▁바다를": 8230,
      "▁뭔가를": 8231,
      "▁그림들을": 8232,
      "▁장난감들은": 8233,
      "▁일어나지": 8234,
      "▁싱": 8235,
      "▁방문했어요": 8236,
      "▁잭이": 8237,
      "▁표시": 8238,
      "주셔서": 8239,
      "▁배달": 8240,
      "▁시작했다": 8241,
      "▁트럭에": 8242,
      "▁경주에": 8243,
      "▁단추": 8244,
      "▁끔찍한": 8245,
      "▁어려운": 8246,
      "▁고무": 8247,
      "▁희망": 8248,
      "호박": 8249,
      "▁원숭이": 8250,
      "▁흰색": 8251,
      "▁바닥을": 8252,
      "▁샐리라는": 8253,
      "▁아파서": 8254,
      "▁도와드릴": 8255,
      "▁반지를": 8256,
      "▁깨뜨": 8257,
      "버렸고": 8258,
      "▁물장": 8259,
      "▁힘들어": 8260,
      "▁읽기": 8261,
      "▁단지": 8262,
      "▁간직": 8263,
      "▁올빼미는": 8264,
      "보다도": 8265,
      "▁지갑": 8266,
      "친구들": 8267,
      "▁부딪혀": 8268,
      "죄송해요": 8269,
      "▁간호": 8270,
      "▁각각": 8271,
      "했니": 8272,
      "▁지도": 8273,
      "▁스파게티를": 8274,
      "▁에이미와": 8275,
      "▁자연": 8276,
      "▁깊게": 8277,
      "▁그물": 8278,
      "▁뜨거워": 8279,
      "▁드러": 8280,
      "▁높아": 8281,
      "▁테디베어": 8282,
      "▁만들지": 8283,
      "화창한": 8284,
      "▁손에서": 8285,
      "▁책들을": 8286,
      "▁깔끔한": 8287,
      "▁스테이크를": 8288,
      "자에": 8289,
      "▁배고팠": 8290,
      "▁능숙": 8291,
      "보브는": 8292,
      "▁걸어가기": 8293,
      "자동차는": 8294,
      "▁좋아합니다": 8295,
      "▁환호했습니다": 8296,
      "▁안은": 8297,
      "▁가까운": 8298,
      "▁만한": 8299,
      "▁재료": 8300,
      "잭이": 8301,
      "▁분이": 8302,
      "▁모여서": 8303,
      "▁무서웠어요": 8304,
      "▁못해요": 8305,
      "대폰": 8306,
      "▁깔끔하게": 8307,
      "뒤로": 8308,
      "▁듣기": 8309,
      "파티에서": 8310,
      "▁척하며": 8311,
      "친구를": 8312,
      "▁다리에": 8313,
      "▁아버지는": 8314,
      "▁방문하러": 8315,
      "▁황": 8316,
      "▁튕": 8317,
      "▁애썼어요": 8318,
      "착하게": 8319,
      "▁뛰어오르며": 8320,
      "▁토스트를": 8321,
      "▁찾아보기로": 8322,
      "▁증": 8323,
      "▁제트": 8324,
      "그럼": 8325,
      "▁들이쉬고": 8326,
      "▁짓는": 8327,
      "수도": 8328,
      "▁음료를": 8329,
      "▁청소하고": 8330,
      "달록": 8331,
      "그분은": 8332,
      "▁조는": 8333,
      "록달록": 8334,
      "▁기대하며": 8335,
      "당근": 8336,
      "▁발라": 8337,
      "으셨습니다": 8338,
      "▁만들어요": 8339,
      "▁시장에": 8340,
      "니까요": 8341,
      "▁날개가": 8342,
      "우리를": 8343,
      "▁나갈": 8344,
      "줍니다": 8345,
      "▁모래를": 8346,
      "니의": 8347,
      "부유한": 8348,
      "▁쭉": 8349,
      "▁십자가": 8350,
      "거인은": 8351,
      "▁전했어요": 8352,
      "▁인상을": 8353,
      "▁돌아가는": 8354,
      "▁닿지": 8355,
      "치와": 8356,
      "▁색깔로": 8357,
      "여기에": 8358,
      "▁건네며": 8359,
      "구가": 8360,
      "봅시다": 8361,
      "꼬마야": 8362,
      "▁보이": 8363,
      "▁단단한": 8364,
      "▁때문이죠": 8365,
      "겼죠": 8366,
      "다이스리는": 8367,
      "리케": 8368,
      "▁저는": 8369,
      "▁꽂": 8370,
      "사랑해": 8371,
      "▁지퍼를": 8372,
      "▁휴가를": 8373,
      "자꾸나": 8374,
      "▁작아지": 8375,
      "프에": 8376,
      "금방": 8377,
      "▁기억하고": 8378,
      "해진": 8379,
      "▁썼어요": 8380,
      "▁날아갔고": 8381,
      "▁무게": 8382,
      "▁잭이라는": 8383,
      "▁났답니다": 8384,
      "▁나아진": 8385,
      "▁토마토를": 8386,
      "▁달리기를": 8387,
      "▁즐거워했어요": 8388,
      "선생님이": 8389,
      "▁받을": 8390,
      "녀석": 8391,
      "▁샐리가": 8392,
      "피라는": 8393,
      "▁확신이": 8394,
      "▁유용한": 8395,
      "▁내용": 8396,
      "▁놀러갔습니다": 8397,
      "▁일인지": 8398,
      "비와": 8399,
      "▁꼬마": 8400,
      "자신들의": 8401,
      "잖아요": 8402,
      "▁쉬기로": 8403,
      "▁소스를": 8404,
      "▁발생했어요": 8405,
      "▁웅덩이에": 8406,
      "▁찼어요": 8407,
      "▁매달려": 8408,
      "▁열렸어요": 8409,
      "같은": 8410,
      "▁달고": 8411,
      "햇볕": 8412,
      "▁걸어갔어요": 8413,
      "▁골랐습니다": 8414,
      "▁담은": 8415,
      "▁게임에": 8416,
      "▁여동생": 8417,
      "▁딸이": 8418,
      "▁어렵": 8419,
      "▁포장": 8420,
      "▁멜론을": 8421,
      "장히": 8422,
      "▁감옥": 8423,
      "▁헛": 8424,
      "소파": 8425,
      "▁알았지만": 8426,
      "비록": 8427,
      "▁놀란": 8428,
      "▁들여다보니": 8429,
      "피곤": 8430,
      "▁가다가": 8431,
      "▁왔는지": 8432,
      "▁매력적인": 8433,
      "▁여정을": 8434,
      "이걸로": 8435,
      "▁달려왔어요": 8436,
      "▁필요하다는": 8437,
      "데이": 8438,
      "▁움직이": 8439,
      "노란": 8440,
      "▁슬퍼요": 8441,
      "▁지었죠": 8442,
      "스레": 8443,
      "▁지켜보는": 8444,
      "▁멍": 8445,
      "▁취": 8446,
      "▁달콤하고": 8447,
      "▁잘했어": 8448,
      "루라": 8449,
      "▁숙": 8450,
      "▁추워서": 8451,
      "▁달려갔죠": 8452,
      "르르르르르르르르": 8453,
      "록달록한": 8454,
      "의사": 8455,
      "▁보여드": 8456,
      "께서는": 8457,
      "▁자랑스러워했죠": 8458,
      "목욕": 8459,
      "▁생각하지": 8460,
      "▁찾아다녔": 8461,
      "▁닦는": 8462,
      "▁그린": 8463,
      "▁숨었습니다": 8464,
      "열쇠": 8465,
      "릴리를": 8466,
      "▁보여주러": 8467,
      "▁내렸어요": 8468,
      "▁팬을": 8469,
      "▁찾는데": 8470,
      "졌을": 8471,
      "▁연기": 8472,
      "▁우리에게": 8473,
      "▁믿지": 8474,
      "걸으면서": 8475,
      "▁마리를": 8476,
      "▁조끼를": 8477,
      "▁이야기는": 8478,
      "뭐하는": 8479,
      "▁내일": 8480,
      "▁보았지만": 8481,
      "▁연필을": 8482,
      "▁기억했습니다": 8483,
      "호초": 8484,
      "▁자루를": 8485,
      "▁절대로": 8486,
      "▁넣는": 8487,
      "▁냉동": 8488,
      "보았지만": 8489,
      "▁뛰어올랐어요": 8490,
      "▁젤리를": 8491,
      "새미는": 8492,
      "▁받은": 8493,
      "▁돕기로": 8494,
      "나라는": 8495,
      "들었어요": 8496,
      "▁오르는": 8497,
      "▁카메라를": 8498,
      "토미가": 8499,
      "▁바꿔": 8500,
      "▁우체통": 8501,
      "▁옳다는": 8502,
      "▁허락하지": 8503,
      "도와줘서": 8504,
      "▁겨우": 8505,
      "히어로": 8506,
      "▁끝날": 8507,
      "▁걸어가면서": 8508,
      "▁플러피라는": 8509,
      "▁원하지": 8510,
      "▁잠금": 8511,
      "▁키가": 8512,
      "▁뜨고": 8513,
      "테이": 8514,
      "▁도와드릴게요": 8515,
      "▁자는": 8516,
      "▁할머니는": 8517,
      "▁이야기했죠": 8518,
      "▁사라지고": 8519,
      "▁자신과": 8520,
      "보자꾸나": 8521,
      "해서는": 8522,
      "▁삽을": 8523,
      "▁자신만의": 8524,
      "▁조심하겠다고": 8525,
      "▁몰랐어": 8526,
      "▁터뜨렸어요": 8527,
      "▁뚜껑을": 8528,
      "▁흘러": 8529,
      "▁눈치채": 8530,
      "▁전선을": 8531,
      "일지": 8532,
      "▁머리가": 8533,
      "▁개였죠": 8534,
      "달이": 8535,
      "▁만나러": 8536,
      "손가락": 8537,
      "▁하게": 8538,
      "▁뜯어": 8539,
      "▁시험을": 8540,
      "바보": 8541,
      "▁가득했습니다": 8542,
      "▁괴물을": 8543,
      "못생긴": 8544,
      "주겠다고": 8545,
      "▁생각했다": 8546,
      "▁독특한": 8547,
      "아직": 8548,
      "▁얇": 8549,
      "하거나": 8550,
      "▁돌아올": 8551,
      "▁아보카도를": 8552,
      "르자": 8553,
      "▁계획이": 8554,
      "▁해낼": 8555,
      "▁보통": 8556,
      "도둑": 8557,
      "▁돌고": 8558,
      "▁리본이": 8559,
      "▁속도를": 8560,
      "▁지루해": 8561,
      "▁머리카락을": 8562,
      "▁보여줘요": 8563,
      "▁설탕을": 8564,
      "▁뱀이": 8565,
      "▁오래되고": 8566,
      "울지": 8567,
      "하셨습니다": 8568,
      "▁은색": 8569,
      "▁바닥에서": 8570,
      "▁가자고": 8571,
      "▁붙들고": 8572,
      "▁지나갔습니다": 8573,
      "미끄럼틀을": 8574,
      "▁식기세척": 8575,
      "▁무례한": 8576,
      "▁파스텔": 8577,
      "▁싶은지": 8578,
      "▁절벽": 8579,
      "아이디": 8580,
      "깨끗": 8581,
      "어리석": 8582,
      "▁금이": 8583,
      "어디로": 8584,
      "예쁘": 8585,
      "▁거북이": 8586,
      "릅니다": 8587,
      "친구인": 8588,
      "▁올렸어요": 8589,
      "▁소유": 8590,
      "다람쥐가": 8591,
      "▁햇볕에": 8592,
      "인에게": 8593,
      "▁들어가고": 8594,
      "▁상기시켜": 8595,
      "▁이것이": 8596,
      "▁보기로": 8597,
      "▁아는": 8598,
      "▁가지가": 8599,
      "실한": 8600,
      "티니는": 8601,
      "핀과": 8602,
      "사슴은": 8603,
      "히지": 8604,
      "▁박물": 8605,
      "▁오리와": 8606,
      "듯이": 8607,
      "▁생겼습니다": 8608,
      "▁부어": 8609,
      "▁변한": 8610,
      "▁꼭대기까지": 8611,
      "▁쾅": 8612,
      "진창": 8613,
      "▁미끄럼틀에": 8614,
      "렸거든요": 8615,
      "▁작게": 8616,
      "▁삼각형": 8617,
      "토머스는": 8618,
      "▁가졌어요": 8619,
      "▁마이크": 8620,
      "▁사라를": 8621,
      "파랑": 8622,
      "▁샐리를": 8623,
      "하도록": 8624,
      "▁날들을": 8625,
      "▁자갈": 8626,
      "▁행복함을": 8627,
      "▁짧": 8628,
      "▁더운": 8629,
      "▁대화를": 8630,
      "▁모모": 8631,
      "▁셀러리를": 8632,
      "▁사기": 8633,
      "번갈아가며": 8634,
      "▁던졌고": 8635,
      "▁잡지를": 8636,
      "▁시작해서": 8637,
      "▁무거웠습니다": 8638,
      "피터는": 8639,
      "기야": 8640,
      "▁탄": 8641,
      "▁뛰어들었습니다": 8642,
      "이미": 8643,
      "▁가게로": 8644,
      "▁올렸습니다": 8645,
      "▁남의": 8646,
      "돼지": 8647,
      "▁뜰": 8648,
      "▁요가를": 8649,
      "▁나랑": 8650,
      "▁순록": 8651,
      "▁다가와서": 8652,
      "▁예쁘지": 8653,
      "▁나누었어요": 8654,
      "▁타며": 8655,
      "▁자라기": 8656,
      "▁봄": 8657,
      "▁살폈어요": 8658,
      "▁불렀죠": 8659,
      "▁상해": 8660,
      "▁끝나자": 8661,
      "호기심이": 8662,
      "▁무를": 8663,
      "▁게를": 8664,
      "▁세어": 8665,
      "▁벗고": 8666,
      "▁들려왔습니다": 8667,
      "▁빌리는": 8668,
      "▁흠": 8669,
      "▁지우개를": 8670,
      "노래": 8671,
      "비둘기는": 8672,
      "▁트릭을": 8673,
      "▁구경": 8674,
      "▁줘요": 8675,
      "▁귀가": 8676,
      "▁들려왔어요": 8677,
      "▁쉬었어요": 8678,
      "▁투": 8679,
      "할아버지는": 8680,
      "▁동시에": 8681,
      "▁도시": 8682,
      "▁에이미의": 8683,
      "있었습니다": 8684,
      "▁헤엄치며": 8685,
      "스피": 8686,
      "▁뛰었습니다": 8687,
      "▁돌려주었습니다": 8688,
      "▁없었다": 8689,
      "▁충분한": 8690,
      "▁캣": 8691,
      "▁파기": 8692,
      "▁고팠습니다": 8693,
      "▁기계가": 8694,
      "증이": 8695,
      "▁잃어버렸어": 8696,
      "밝은": 8697,
      "▁하나씩": 8698,
      "▁누군가가": 8699,
      "▁벽난로": 8700,
      "아이들이": 8701,
      "로봇은": 8702,
      "▁바라보았고": 8703,
      "돼지는": 8704,
      "▁만나고": 8705,
      "스야": 8706,
      "어머니는": 8707,
      "▁소식을": 8708,
      "▁찾아줄게": 8709,
      "▁수도꼭지를": 8710,
      "▁젠": 8711,
      "▁신문을": 8712,
      "▁그러": 8713,
      "▁녀석": 8714,
      "▁피어": 8715,
      "▁몰랐기": 8716,
      "▁도망쳤습니다": 8717,
      "▁강을": 8718,
      "렀고": 8719,
      "▁나이가": 8720,
      "기기": 8721,
      "▁찻": 8722,
      "▁해줘서": 8723,
      "▁동굴을": 8724,
      "▁아주머니가": 8725,
      "▁만지면": 8726,
      "..": 8727,
      "▁아름답고": 8728,
      "▁지냈어요": 8729,
      "▁내기": 8730,
      "▁전선": 8731,
      "▁물건들로": 8732,
      "▁학": 8733,
      "▁생명": 8734,
      "불은": 8735,
      "▁떠날": 8736,
      "▁봉투를": 8737,
      "도기는": 8738,
      "▁마크": 8739,
      "▁반짝이게": 8740,
      "▁했다고": 8741,
      "시끄": 8742,
      "▁합류": 8743,
      "▁블루베리를": 8744,
      "▁캥거": 8745,
      "▁너머": 8746,
      "▁잊어버렸어요": 8747,
      "앨리스는": 8748,
      "▁결심하고": 8749,
      "▁모습이": 8750,
      "▁일부": 8751,
      "▁자랑스러웠답니다": 8752,
      "▁불며": 8753,
      "▁쿨러": 8754,
      "▁별은": 8755,
      "마가": 8756,
      "▁목도리를": 8757,
      "▁붕대를": 8758,
      "▁플러피를": 8759,
      "▁날씨가": 8760,
      "▁되면": 8761,
      "▁행동하는": 8762,
      "▁비행기가": 8763,
      "▁맑고": 8764,
      "랗고": 8765,
      "▁옥수수를": 8766,
      "저거": 8767,
      "▁소리쳤죠": 8768,
      "▁딸을": 8769,
      "러풀": 8770,
      "그렇": 8771,
      "▁변했습니다": 8772,
      "▁고집이": 8773,
      "▁발가락": 8774,
      "▁너와": 8775,
      "▁뛰어놀며": 8776,
      "▁열었고": 8777,
      "▁없었어": 8778,
      "▁따라갔어요": 8779,
      "▁낚아채": 8780,
      "▁파도": 8781,
      "하네": 8782,
      "▁안녕": 8783,
      "▁칭": 8784,
      "▁방식으로": 8785,
      "▁보트": 8786,
      "▁게가": 8787,
      "▁아빠도": 8788,
      "▁댁": 8789,
      "▁새들에게": 8790,
      "▁이기적인": 8791,
      "▁장미를": 8792,
      "▁쓰여": 8793,
      "▁되기": 8794,
      "보러": 8795,
      "▁좋아하니": 8796,
      "▁지렁": 8797,
      "생쥐": 8798,
      "아침": 8799,
      "▁끝나고": 8800,
      "▁미로": 8801,
      "▁찾아줘서": 8802,
      "▁물건이": 8803,
      "▁건네주었어요": 8804,
      "▁이유": 8805,
      "▁대고": 8806,
      "▁손이": 8807,
      "▁여자애": 8808,
      "적이고": 8809,
      "▁보이고": 8810,
      "▁척하는": 8811,
      "▁바른": 8812,
      "웠다": 8813,
      "▁무서워해요": 8814,
      "▁비누를": 8815,
      "▁우아한": 8816,
      "▁사람들": 8817,
      "어이": 8818,
      "▁강했어요": 8819,
      "▁행복해했죠": 8820,
      "▁어리": 8821,
      "▁물고기들이": 8822,
      "▁부리에": 8823,
      "▁채워": 8824,
      "열심히": 8825,
      "▁뭐하는": 8826,
      "정상에": 8827,
      "▁쓰인": 8828,
      "▁달랐습니다": 8829,
      "▁따고": 8830,
      "있었죠": 8831,
      "▁들어요": 8832,
      "방을": 8833,
      "▁딱딱": 8834,
      "듀키는": 8835,
      "▁오라고": 8836,
      "▁항해를": 8837,
      "▁해볼까": 8838,
      "폭풍이": 8839,
      "▁경쟁심이": 8840,
      "▁규칙을": 8841,
      "우체": 8842,
      "에서는": 8843,
      "▁페이지를": 8844,
      "▁탑이": 8845,
      "▁해롭지": 8846,
      "어쩌": 8847,
      "추는": 8848,
      "▁코끼리가": 8849,
      "꼭꼭꼭꼭": 8850,
      "▁곳곳": 8851,
      "아빠와": 8852,
      "▁쌀": 8853,
      "으윽": 8854,
      "▁샀어요": 8855,
      "▁거기에서": 8856,
      "▁프레드": 8857,
      "키가": 8858,
      "호랑": 8859,
      "▁임무를": 8860,
      "▁새우": 8861,
      "사탕": 8862,
      "주지": 8863,
      "▁전화기를": 8864,
      "▁다리": 8865,
      "▁색색깔": 8866,
      "▁앞치마를": 8867,
      "업을": 8868,
      "▁좋아하며": 8869,
      "생일": 8870,
      "▁갖게": 8871,
      "거의": 8872,
      "▁애썼습니다": 8873,
      "▁벌레들을": 8874,
      "▁기다리": 8875,
      "▁그네로": 8876,
      "▁이룰": 8877,
      "시계": 8878,
      "▁프로그램": 8879,
      "▁뚫": 8880,
      "▁정직": 8881,
      "포기": 8882,
      "시작": 8883,
      "▁물감을": 8884,
      "▁도는": 8885,
      "▁원숭이는": 8886,
      "▁피곤해져서": 8887,
      "▁유니": 8888,
      "남의": 8889,
      "▁사용했죠": 8890,
      "▁폴더를": 8891,
      "▁들어가자": 8892,
      "졌다는": 8893,
      "▁매끈한": 8894,
      "▁의자는": 8895,
      "▁사라라는": 8896,
      "▁무서워요": 8897,
      "▁기회를": 8898,
      "▁기다렸죠": 8899,
      "▁나아졌고": 8900,
      "▁휴대폰": 8901,
      "▁물장구를": 8902,
      "▁발견했어": 8903,
      "제로": 8904,
      "몇몇": 8905,
      "▁아이를": 8906,
      "▁저었어요": 8907,
      "▁일어난": 8908,
      "올라": 8909,
      "▁살폈습니다": 8910,
      "▁포효": 8911,
      "▁머물러": 8912,
      "▁들판을": 8913,
      "▁붓을": 8914,
      "▁올랐습니다": 8915,
      "웠거든요": 8916,
      "▁내려갔어요": 8917,
      "▁따라갔습니다": 8918,
      "▁훔쳐": 8919,
      "게는": 8920,
      "▁안내": 8921,
      "▁생길": 8922,
      "▁아버지가": 8923,
      "샘미는": 8924,
      "▁맥": 8925,
      "피와": 8926,
      "▁누나": 8927,
      "▁걸어가던": 8928,
      "▁바퀴가": 8929,
      "▁사용하고": 8930,
      "▁친근": 8931,
      "▁만났답니다": 8932,
      "▁뾰족한": 8933,
      "▁아이에게": 8934,
      "숨바꼭질을": 8935,
      "▁안쓰": 8936,
      "▁사랑과": 8937,
      "▁영웅이": 8938,
      "▁공기를": 8939,
      "▁전체를": 8940,
      "▁크림을": 8941,
      "▁참가": 8942,
      "▁피아노를": 8943,
      "▁덮어": 8944,
      "▁모자는": 8945,
      "▁사라질": 8946,
      "▁담았어요": 8947,
      "▁접시에": 8948,
      "▁호루라": 8949,
      "어져서": 8950,
      "미안하다고": 8951,
      "▁길고": 8952,
      "▁듯한": 8953,
      "▁신났어요": 8954,
      "ill": 8955,
      "▁바나나": 8956,
      "▁쿠션을": 8957,
      "▁지나자": 8958,
      "▁눈치챘": 8959,
      "▁흔들었죠": 8960,
      "▁그림에": 8961,
      "▁필요했습니다": 8962,
      "해바라": 8963,
      "시와": 8964,
      "▁기사": 8965,
      "▁나올": 8966,
      "▁준비했어요": 8967,
      "조이는": 8968,
      "▁가난한": 8969,
      "▁생일을": 8970,
      "▁나무들을": 8971,
      "▁감자를": 8972,
      "▁친절했고": 8973,
      "끈적": 8974,
      "▁버터를": 8975,
      "▁다가가자": 8976,
      "▁물었지만": 8977,
      "▁플라": 8978,
      "▁주셨습니다": 8979,
      "▁개구리와": 8980,
      "▁꺼냈습니다": 8981,
      "지저": 8982,
      "▁소리도": 8983,
      "▁콧수염": 8984,
      "▁천으로": 8985,
      "▁떨어지고": 8986,
      "▁소리치": 8987,
      "▁뛰어다녔": 8988,
      "▁원래": 8989,
      "장난감은": 8990,
      "▁찡": 8991,
      "▁세차게": 8992,
      "▁외로워": 8993,
      "▁푸르": 8994,
      "▁속상해": 8995,
      "▁트랙": 8996,
      "▁괴롭": 8997,
      "▁싼": 8998,
      "▁종류": 8999,
      "아니에요": 9000,
      "파리는": 9001,
      "▁플러피가": 9002,
      "▁소개": 9003,
      "▁스티커를": 9004,
      "▁궁금해졌습니다": 9005,
      "시간": 9006,
      "▁가로": 9007,
      "박한": 9008,
      "모모": 9009,
      "▁것인지": 9010,
      "▁여자가": 9011,
      "▁받아들": 9012,
      "▁탐험할": 9013,
      "▁있으니": 9014,
      "▁고양이야": 9015,
      "▁피곤해졌어요": 9016,
      "해지는": 9017,
      "▁지나갈": 9018,
      "▁필요했죠": 9019,
      "클을": 9020,
      "▁어두워지고": 9021,
      "▁일도": 9022,
      "▁거짓": 9023,
      "크색": 9024,
      "▁다니는": 9025,
      "▁체리를": 9026,
      "▁배수": 9027,
      "▁걸고": 9028,
      "▁마셨습니다": 9029,
      "▁뛰기를": 9030,
      "▁맨": 9031,
      "▁페인트를": 9032,
      "▁행성": 9033,
      "▁무사": 9034,
      "▁콜리플라": 9035,
      "▁듯이": 9036,
      "▁보여주었고": 9037,
      "▁흠뻑": 9038,
      "▁안전하다는": 9039,
      "거야": 9040,
      "▁계셨죠": 9041,
      "▁수영하는": 9042,
      "▁가운을": 9043,
      "상은": 9044,
      "가게에서": 9045,
      "▁자라는": 9046,
      "▁실로": 9047,
      "▁호수에": 9048,
      "▁손가락으로": 9049,
      "▁드디어": 9050,
      "▁가득했죠": 9051,
      "결국에는": 9052,
      "▁다이스": 9053,
      "▁오아시": 9054,
      "▁지하철": 9055,
      "▁끄고": 9056,
      "▁식탁에": 9057,
      "하얀": 9058,
      "자랑": 9059,
      "▁표지를": 9060,
      "▁날았어요": 9061,
      "▁보여줄게": 9062,
      "▁않았기": 9063,
      "크닉": 9064,
      "▁소는": 9065,
      "▁조개껍데": 9066,
      "▁중요해": 9067,
      "▁미안해했습니다": 9068,
      "저랑": 9069,
      "▁벗겨": 9070,
      "너희는": 9071,
      "▁올라가기": 9072,
      "엘리는": 9073,
      "스타": 9074,
      "▁차갑고": 9075,
      "▁사용해서": 9076,
      "▁무늬를": 9077,
      "▁코뿔": 9078,
      "▁스토브": 9079,
      "놀라운": 9080,
      "▁잭에게": 9081,
      "▁핫": 9082,
      "▁사랑해서": 9083,
      "우기": 9084,
      "호사는": 9085,
      "▁조심스럽고": 9086,
      "▁찾았고": 9087,
      "▁꾀": 9088,
      "그림을": 9089,
      "▁놀아도": 9090,
      "▁대하는": 9091,
      "▁들어줄": 9092,
      "▁위험할": 9093,
      "▁다녀": 9094,
      "▁체육": 9095,
      "▁전하며": 9096,
      "야옹": 9097,
      "만한": 9098,
      "▁다음으로": 9099,
      "▁더러워졌어요": 9100,
      "▁기억할": 9101,
      "▁치마를": 9102,
      "▁걷는": 9103,
      "▁어떤지": 9104,
      "▁빨강": 9105,
      "▁바라보는": 9106,
      "따뜻한": 9107,
      "▁삶을": 9108,
      "▁한쪽": 9109,
      "해보고": 9110,
      "▁둘러보았지만": 9111,
      "▁어지럽": 9112,
      "음에도": 9113,
      "▁마음먹었습니다": 9114,
      "▁대하고": 9115,
      "▁배로": 9116,
      "▁태워": 9117,
      "▁물은": 9118,
      "▁배부": 9119,
      "지에는": 9120,
      "▁해줘": 9121,
      "▁달을": 9122,
      "▁갈퀴": 9123,
      "보았고": 9124,
      "▁쉬어야": 9125,
      "▁샤": 9126,
      "▁푹신한": 9127,
      "▁잡기": 9128,
      "정원에서": 9129,
      "▁않기를": 9130,
      "▁정상": 9131,
      "▁무서워졌죠": 9132,
      "▁전까지": 9133,
      "전이": 9134,
      "▁선생님은": 9135,
      "▁달렸죠": 9136,
      "▁물감": 9137,
      "▁빗자": 9138,
      "▁예의를": 9139,
      "▁오페": 9140,
      "▁느린": 9141,
      "▁걸어가고": 9142,
      "▁빌릴": 9143,
      "▁부수": 9144,
      "▁저었습니다": 9145,
      "▁냈": 9146,
      "았지": 9147,
      "버렸답니다": 9148,
      "윌은": 9149,
      "▁베일을": 9150,
      "이어": 9151,
      "▁나도": 9152,
      "▁사서": 9153,
      "▁매듭을": 9154,
      "▁늦었어요": 9155,
      "▁색상과": 9156,
      "▁만들며": 9157,
      "▁아기가": 9158,
      "으셨죠": 9159,
      "▁빨간색과": 9160,
      "퍼즐": 9161,
      "제이크는": 9162,
      "▁높아서": 9163,
      "▁굉장히": 9164,
      "어쩌면": 9165,
      "토끼와": 9166,
      "▁딸은": 9167,
      "▁사용했습니다": 9168,
      "▁것을요": 9169,
      "다양한": 9170,
      "최고의": 9171,
      "▁서투": 9172,
      "▁걸요": 9173,
      "▁만질": 9174,
      "▁즐거워했습니다": 9175,
      "술궂": 9176,
      "▁버스를": 9177,
      "▁여자아이를": 9178,
      "▁멋지게": 9179,
      "▁식당": 9180,
      "했기": 9181,
      "▁쇼핑몰": 9182,
      "▁계곡": 9183,
      "목소리가": 9184,
      "야호": 9185,
      "▁달렸지만": 9186,
      "▁에이미를": 9187,
      "▁슈퍼히어로": 9188,
      "트루는": 9189,
      "▁알록달록한": 9190,
      "▁고픈": 9191,
      "▁손뼉": 9192,
      "▁방패를": 9193,
      "사과를": 9194,
      "이해했니": 9195,
      "▁얘기": 9196,
      "▁기다리며": 9197,
      "공원을": 9198,
      "▁우리의": 9199,
      "▁콩을": 9200,
      "표범": 9201,
      "까마귀는": 9202,
      "▁칭찬": 9203,
      "벤니는": 9204,
      "▁올빼미가": 9205,
      "▁감사하다고": 9206,
      "즙이": 9207,
      "▁무엇인": 9208,
      "▁잔디밭에": 9209,
      "▁울어요": 9210,
      "▁마을의": 9211,
      "내리": 9212,
      "▁시간이라고": 9213,
      "대요": 9214,
      "▁사냥꾼": 9215,
      "▁썼습니다": 9216,
      "▁좋아한다는": 9217,
      "▁계속했습니다": 9218,
      "▁거미를": 9219,
      "▁세상에서": 9220,
      "▁유명": 9221,
      "사의": 9222,
      "▁주인을": 9223,
      "▁플라스틱": 9224,
      "▁백조": 9225,
      "▁창을": 9226,
      "▁젖지": 9227,
      "▁쓰레기를": 9228,
      "▁파티가": 9229,
      "▁지내고": 9230,
      "▁만화를": 9231,
      "▁아주머니는": 9232,
      "▁헤엄치": 9233,
      "▁오렌지를": 9234,
      "▁않았더라면": 9235,
      "▁앉고": 9236,
      "괜찮아요": 9237,
      "▁시도했어요": 9238,
      "거기에는": 9239,
      "▁노트를": 9240,
      "▁목을": 9241,
      "▁나오지": 9242,
      "▁산책하러": 9243,
      "▁해줄게": 9244,
      "▁달걀을": 9245,
      "▁컵에": 9246,
      "▁느끼지": 9247,
      "▁됐어요": 9248,
      "▁상쾌": 9249,
      "▁안심": 9250,
      "신가요": 9251,
      "▁때가": 9252,
      "▁최고야": 9253,
      "▁살짝": 9254,
      "▁뿐이에요": 9255,
      "▁엉망진창": 9256,
      "▁사야": 9257,
      "을까": 9258,
      "경주를": 9259,
      "▁있었지": 9260,
      "▁돌들을": 9261,
      "▁지킬": 9262,
      "러풀한": 9263,
      "▁고양이인": 9264,
      "그래요": 9265,
      "▁못됐": 9266,
      "▁싸서": 9267,
      "돌려": 9268,
      "새들이": 9269,
      "▁설명했습니다": 9270,
      "▁독립적인": 9271,
      "랐을": 9272,
      "잔디": 9273,
      "하시": 9274,
      "줬어": 9275,
      "▁어머니는": 9276,
      "▁라임을": 9277,
      "▁팔에": 9278,
      "▁쉽지": 9279,
      "▁강아지에게": 9280,
      "▁쟁반을": 9281,
      "▁보인다고": 9282,
      "느라": 9283,
      "나서": 9284,
      "▁요리하는": 9285,
      "▁드릴게요": 9286,
      "▁싱크": 9287,
      "▁날이었고": 9288,
      "▁골랐어요": 9289,
      "실이": 9290,
      "▁이겼습니다": 9291,
      "▁찡그": 9292,
      "▁인상적인": 9293,
      "▁모래놀이를": 9294,
      "▁마셔": 9295,
      "▁옷장을": 9296,
      "▁핀은": 9297,
      "꺼운": 9298,
      "▁잘했어요": 9299,
      "▁친절을": 9300,
      "으로부터": 9301,
      "▁새인": 9302,
      "▁성질이": 9303,
      "하다며": 9304,
      "▁벤치": 9305,
      "▁사랑했지요": 9306,
      "부탁드립니다": 9307,
      "▁뜻인지": 9308,
      "들로부터": 9309,
      "▁많았죠": 9310,
      "▁팀미는": 9311,
      "▁여성이": 9312,
      "▁포크를": 9313,
      "▁못생": 9314,
      "▁크리스털을": 9315,
      "▁창백한": 9316,
      "▁운전사는": 9317,
      "그럴": 9318,
      "요한": 9319,
      "▁세기": 9320,
      "▁갔다가": 9321,
      "▁느껴졌어요": 9322,
      "▁안타까워": 9323,
      "▁노래도": 9324,
      "얼마": 9325,
      "방으로": 9326,
      "▁어지러": 9327,
      "▁걸을": 9328,
      "리라": 9329,
      "▁슬퍼해요": 9330,
      "▁자석을": 9331,
      "▁제인이라는": 9332,
      "▁열쇠로": 9333,
      "▁저녁으로": 9334,
      "울이": 9335,
      "▁생물": 9336,
      "▁몰라요": 9337,
      "삼촌": 9338,
      "하기도": 9339,
      "▁도왔다는": 9340,
      "▁양파를": 9341,
      "▁고마움을": 9342,
      "사라의": 9343,
      "▁케이크는": 9344,
      "▁토미를": 9345,
      "▁되찾고": 9346,
      "▁퍼덕이며": 9347,
      "▁시도해보기로": 9348,
      "▁냄비를": 9349,
      "▁큐": 9350,
      "▁물어봐야": 9351,
      "Jill": 9352,
      "▁구름은": 9353,
      "생각": 9354,
      "▁산호초": 9355,
      "▁짖는": 9356,
      "달콤": 9357,
      "지프는": 9358,
      "▁옮겨": 9359,
      "▁맞다는": 9360,
      "▁북": 9361,
      "▁짙": 9362,
      "아무리": 9363,
      "▁달리며": 9364,
      "▁친구라는": 9365,
      "우와": 9366,
      "▁만들자": 9367,
      "▁반으로": 9368,
      "▁해달라고": 9369,
      "▁얼어붙은": 9370,
      "▁추측": 9371,
      "장난꾸러기": 9372,
      "질러": 9373,
      "▁신나했죠": 9374,
      "즈가": 9375,
      "▁구멍으로": 9376,
      "▁다리로": 9377,
      "▁구할": 9378,
      "▁짓기": 9379,
      "▁낮잠": 9380,
      "원으로": 9381,
      "▁각자의": 9382,
      "▁켜고": 9383,
      "▁좋아져서": 9384,
      "▁가져간": 9385,
      "▁비밀이": 9386,
      "▁지을": 9387,
      "▁마당으로": 9388,
      "행복하고": 9389,
      "바나": 9390,
      "친근한": 9391,
      "▁비늘": 9392,
      "▁바람에": 9393,
      "▁게임이": 9394,
      "대에서": 9395,
      "▁꽃으로": 9396,
      "▁컸어요": 9397,
      "▁배터리를": 9398,
      "▁롤": 9399,
      "가가": 9400,
      "항아": 9401,
      "▁신중": 9402,
      "소녀가": 9403,
      "▁편안하게": 9404,
      "▁라디오를": 9405,
      "▁곤충": 9406,
      "▁가운데": 9407,
      "▁장난감이라고": 9408,
      "▁게을": 9409,
      "▁잘못되": 9410,
      "▁진지한": 9411,
      "무섭": 9412,
      "▁보보는": 9413,
      "▁그만두": 9414,
      "보다는": 9415,
      "▁보았다": 9416,
      "▁하키를": 9417,
      "▁농장을": 9418,
      "▁선물이야": 9419,
      "구석": 9420,
      "보송": 9421,
      "▁답했답니다": 9422,
      "▁위해서는": 9423,
      "▁인기": 9424,
      "▁만난": 9425,
      "▁뱀은": 9426,
      "▁주고받으며": 9427,
      "▁자신들이": 9428,
      "▁해준": 9429,
      "냉장고": 9430,
      "▁준비했습니다": 9431,
      "▁섞어": 9432,
      "▁텐트": 9433,
      "▁군": 9434,
      "▁기쁜": 9435,
      "▁저물": 9436,
      "▁따스": 9437,
      "당신을": 9438,
      "▁감사했어요": 9439,
      "▁시큼한": 9440,
      "▁출발": 9441,
      "야생": 9442,
      "▁다녔습니다": 9443,
      "▁예뻤죠": 9444,
      "문에": 9445,
      "▁이겼어요": 9446,
      "▁고프고": 9447,
      "▁보금": 9448,
      "▁튀는": 9449,
      "▁말하지": 9450,
      "▁요구": 9451,
      "▁좋겠다": 9452,
      "▁해변으로": 9453,
      "▁매달린": 9454,
      "▁떨어뜨렸습니다": 9455,
      "위가": 9456,
      "▁탐험하며": 9457,
      "▁운동": 9458,
      "▁상상하며": 9459,
      "▁느껴졌습니다": 9460,
      "▁표정": 9461,
      "▁세우고": 9462,
      "케이크는": 9463,
      "안나의": 9464,
      "▁캔디를": 9465,
      "밤이": 9466,
      "드에": 9467,
      "▁결심했지요": 9468,
      "▁계세요": 9469,
      "▁키우고": 9470,
      "▁쉬었습니다": 9471,
      "안에서": 9472,
      "릴라와": 9473,
      "▁건넸": 9474,
      "▁둘러봤어요": 9475,
      "▁왔답니다": 9476,
      "▁뿔을": 9477,
      "▁싶을": 9478,
      "프레드": 9479,
      "▁공항": 9480,
      "쳐요": 9481,
      "▁간지": 9482,
      "▁잃어버려서": 9483,
      "파는": 9484,
      "수라의": 9485,
      "여행": 9486,
      "▁바늘을": 9487,
      "시라는": 9488,
      "노랑": 9489,
      "▁것들": 9490,
      "▁꿈이": 9491,
      "아무것도": 9492,
      "▁닫혀": 9493,
      "벽에": 9494,
      "▁깊숙": 9495,
      "숲속의": 9496,
      "▁나아져서": 9497,
      "▁줄이": 9498,
      "사각형": 9499,
      "▁내리쬐고": 9500,
      "▁가지는": 9501,
      "딱정": 9502,
      "▁둥지로": 9503,
      "▁뛰어다녔습니다": 9504,
      "▁기쁘": 9505,
      "▁고추를": 9506,
      "▁대답해요": 9507,
      "▁추었습니다": 9508,
      "▁껴안아요": 9509,
      "▁문은": 9510,
      "▁식물은": 9511,
      "▁부숴": 9512,
      "▁넣었답니다": 9513,
      "▁숟가락으로": 9514,
      "버렸어": 9515,
      "▁새처럼": 9516,
      "딸은": 9517,
      "▁담겨": 9518,
      "▁토미에게": 9519,
      "갔어": 9520,
      "▁개였어요": 9521,
      "▁하나도": 9522,
      "▁학교에서": 9523,
      "여왕은": 9524,
      "▁자르고": 9525,
      "▁방법이": 9526,
      "▁다가왔어요": 9527,
      "가고": 9528,
      "남을": 9529,
      "졌거든요": 9530,
      "▁고를": 9531,
      "▁종이로": 9532,
      "▁사귀고": 9533,
      "그네를": 9534,
      "▁의견이": 9535,
      "▁마법을": 9536,
      "▁아기를": 9537,
      "깊은": 9538,
      "▁보였고": 9539,
      "▁구하러": 9540,
      "▁제리는": 9541,
      "▁라벨": 9542,
      "▁불렀답니다": 9543,
      "누구도": 9544,
      "왕자는": 9545,
      "▁개미를": 9546,
      "▁보았고": 9547,
      "▁기타": 9548,
      "▁섰어요": 9549,
      "나비": 9550,
      "미스": 9551,
      "터와": 9552,
      "▁불렀고": 9553,
      "▁쏟아져": 9554,
      "공유": 9555,
      "드레": 9556,
      "▁얼음을": 9557,
      "▁봤다": 9558,
      "▁놔": 9559,
      "▁놀아서": 9560,
      "▁명이": 9561,
      "▁대해야": 9562,
      "▁포근하게": 9563,
      "▁씻어": 9564,
      "▁싫어했죠": 9565,
      "안을": 9566,
      "▁걸었죠": 9567,
      "쓰레": 9568,
      "▁답했어요": 9569,
      "들었습니다": 9570,
      "▁도착해": 9571,
      "키티가": 9572,
      "▁앞뒤로": 9573,
      "▁휘스커스는": 9574,
      "맥스도": 9575,
      "▁보트가": 9576,
      "▁티머가": 9577,
      "▁일이냐고": 9578,
      "▁퀴": 9579,
      "똑똑": 9580,
      "▁보트는": 9581,
      "▁케이블": 9582,
      "▁자동차에": 9583,
      "▁손뼉을": 9584,
      "▁넣을": 9585,
      "▁디자인": 9586,
      "▁가죽": 9587,
      "▁받게": 9588,
      "락내리": 9589,
      "버린": 9590,
      "▁무력": 9591,
      "줄래": 9592,
      "락내리락": 9593,
      "폴리는": 9594,
      "▁많았고": 9595,
      "▁나기": 9596,
      "▁알아챘어요": 9597,
      "▁티미가": 9598,
      "▁매콤한": 9599,
      "▁안아줘요": 9600,
      "티미와": 9601,
      "▁틈": 9602,
      "▁그것들이": 9603,
      "▁특별하게": 9604,
      "▁떨어지지": 9605,
      "▁달려왔습니다": 9606,
      "▁곰곰이": 9607,
      "▁놀자꾸나": 9608,
      "▁잭과": 9609,
      "▁집어들고": 9610,
      "▁단어들을": 9611,
      "공원은": 9612,
      "▁서지": 9613,
      "▁정원이": 9614,
      "조심해야": 9615,
      "▁두려워하지": 9616,
      "▁스웨는": 9617,
      "간식을": 9618,
      "▁설탕": 9619,
      "▁냅킨을": 9620,
      "▁웅": 9621,
      "▁핀이": 9622,
      "햇살": 9623,
      "▁까만": 9624,
      "▁원해서": 9625,
      "▁따라오": 9626,
      "섰어요": 9627,
      "적을": 9628,
      "크로": 9629,
      "▁놀아주": 9630,
      "아버지가": 9631,
      "팀에게": 9632,
      "이웃": 9633,
      "▁생각은": 9634,
      "▁들어와서": 9635,
      "▁솔직": 9636,
      "▁나니": 9637,
      "▁선반에": 9638,
      "▁휩": 9639,
      "▁마시며": 9640,
      "모자": 9641,
      "▁돌아오자": 9642,
      "▁보여주는": 9643,
      "릴라가": 9644,
      "▁잔을": 9645,
      "▁궁금해했죠": 9646,
      "▁빛나기": 9647,
      "▁돌려주었어요": 9648,
      "▁외로": 9649,
      "파이": 9650,
      "▁아니라고": 9651,
      "▁도로": 9652,
      "▁요정은": 9653,
      "▁똑똑하고": 9654,
      "▁코코아를": 9655,
      "▁빠른지": 9656,
      "행복하게": 9657,
      "▁찾아갔습니다": 9658,
      "▁다툼": 9659,
      "▁서핑": 9660,
      "바보는": 9661,
      "▁찾으려": 9662,
      "▁달렸고": 9663,
      "▁곧바로": 9664,
      "▁모양으로": 9665,
      "구는": 9666,
      "▁개미가": 9667,
      "용은": 9668,
      "▁강으로": 9669,
      "▁입었어요": 9670,
      "▁통나무를": 9671,
      "샘아": 9672,
      "▁느껴요": 9673,
      "▁멋지고": 9674,
      "동물을": 9675,
      "▁실험": 9676,
      "▁부엉이가": 9677,
      "▁얹": 9678,
      "치르피는": 9679,
      "였으며": 9680,
      "했는지": 9681,
      "▁유지하는": 9682,
      "▁전달": 9683,
      "▁드라이": 9684,
      "아이스크림을": 9685,
      "▁줘야": 9686,
      "▁입었습니다": 9687,
      "우면서": 9688,
      "▁상상을": 9689,
      "▁말씀드": 9690,
      "▁못했거든요": 9691,
      "▁글을": 9692,
      "▁캐": 9693,
      "사냥꾼": 9694,
      "▁내려놓": 9695,
      "▁변하기": 9696,
      "▁스프레": 9697,
      "신발": 9698,
      "▁문으로": 9699,
      "▁댈": 9700,
      "▁띠": 9701,
      "▁위아래로": 9702,
      "▁봉지를": 9703,
      "▁공주가": 9704,
      "▁재킷을": 9705,
      "바늘": 9706,
      "▁섞고": 9707,
      "▁잃어버렸거든요": 9708,
      "▁다쳤습니다": 9709,
      "▁주머니에서": 9710,
      "▁블라우스를": 9711,
      "▁믿고": 9712,
      "▁둘러싸": 9713,
      "▁즙이": 9714,
      "▁왕은": 9715,
      "▁도달할": 9716,
      "의를": 9717,
      "▁건물을": 9718,
      "▁성장": 9719,
      "▁장소로": 9720,
      "▁호수를": 9721,
      "▁통나무": 9722,
      "▁농부가": 9723,
      "▁콘": 9724,
      "▁갔지만": 9725,
      "▁느리게": 9726,
      "설탕": 9727,
      "하하": 9728,
      "▁골프": 9729,
      "▁튀어나와": 9730,
      "▁되기로": 9731,
      "도와드릴": 9732,
      "▁물웅덩이를": 9733,
      "다행": 9734,
      "▁다가왔습니다": 9735,
      "▁기름을": 9736,
      "병은": 9737,
      "▁발바닥을": 9738,
      "▁마이크를": 9739,
      "▁우정": 9740,
      "▁미안해요": 9741,
      "▁릴리야": 9742,
      "쿠키를": 9743,
      "▁마사": 9744,
      "▁인형에게": 9745,
      "▁라임": 9746,
      "누군가가": 9747,
      "토록": 9748,
      "피닌": 9749,
      "▁망토": 9750,
      "▁사다": 9751,
      "▁즐거웠답니다": 9752,
      "▁장소가": 9753,
      "호를": 9754,
      "▁날이었습니다": 9755,
      "▁서툴": 9756,
      "▁메시지를": 9757,
      "▁연주하고": 9758,
      "▁함께하고": 9759,
      "▁깊고": 9760,
      "▁안았어요": 9761,
      "염소는": 9762,
      "말이": 9763,
      "▁메뉴": 9764,
      "▁웅덩이에서": 9765,
      "▁해주며": 9766,
      "어이쿠": 9767,
      "맛있어": 9768,
      "▁코끼리": 9769,
      "▁새롭고": 9770,
      "꼬리를": 9771,
      "구요": 9772,
      "▁페이지": 9773,
      "알았어": 9774,
      "▁중에서": 9775,
      "▁예뻐서": 9776,
      "▁모험심이": 9777,
      "▁예뻤습니다": 9778,
      "잠깐만": 9779,
      "고기를": 9780,
      "▁나무들이": 9781,
      "▁결승": 9782,
      "▁거미줄을": 9783,
      "▁호수에서": 9784,
      "렀죠": 9785,
      "▁빨라서": 9786,
      "▁준비하고": 9787,
      "▁울리는": 9788,
      "▁싫어했습니다": 9789,
      "▁체스를": 9790,
      "▁돌은": 9791,
      "▁토미가": 9792,
      "▁봐야": 9793,
      "▁밀었습니다": 9794,
      "저희": 9795,
      "▁가져갔답니다": 9796,
      "▁왔죠": 9797,
      "▁소용": 9798,
      "▁해골을": 9799,
      "움과": 9800,
      "▁도와주려": 9801,
      "▁피크닉": 9802,
      "▁패키": 9803,
      "▁어디에서": 9804,
      "그레이": 9805,
      "▁탐험하기로": 9806,
      "▁경험": 9807,
      "되었어요": 9808,
      "자기야": 9809,
      "인형을": 9810,
      "담요": 9811,
      "열어": 9812,
      "완벽": 9813,
      "▁무거웠어요": 9814,
      "개미들은": 9815,
      "이발": 9816,
      "▁로봇은": 9817,
      "▁강에서": 9818,
      "▁미안하고": 9819,
      "▁양은": 9820,
      "▁슬퍼서": 9821,
      "티머가": 9822,
      "▁블록이": 9823,
      "▁사람의": 9824,
      "▁반짝거리는": 9825,
      "▁보여주기": 9826,
      "▁나갔답니다": 9827,
      "다음부터는": 9828,
      "▁산을": 9829,
      "▁왔고": 9830,
      "우우": 9831,
      "▁자루": 9832,
      "▁일하면": 9833,
      "▁쳤답니다": 9834,
      "▁햇빛": 9835,
      "▁변했답니다": 9836,
      "윗은": 9837,
      "▁스위치를": 9838,
      "▁재미있었어요": 9839,
      "▁쳐다": 9840,
      "▁가라": 9841,
      "▁섞는": 9842,
      "티미": 9843,
      "▁무겁": 9844,
      "▁활기찬": 9845,
      "▁쬐": 9846,
      "▁로봇을": 9847,
      "▁항해하는": 9848,
      "▁들기": 9849,
      "▁깊숙이": 9850,
      "▁먹었지요": 9851,
      "주황색": 9852,
      "최선을": 9853,
      "▁아플": 9854,
      "▁행동해야": 9855,
      "소리": 9856,
      "프라이": 9857,
      "▁웃었고": 9858,
      "란을": 9859,
      "▁우울": 9860,
      "▁가져갔죠": 9861,
      "▁피해": 9862,
      "▁인형들을": 9863,
      "▁여름": 9864,
      "▁끄덕였고": 9865,
      "▁나사를": 9866,
      "▁뛰어오르": 9867,
      "▁상징": 9868,
      "판에는": 9869,
      "▁밤새": 9870,
      "▁놀기에": 9871,
      "▁실뭉치를": 9872,
      "▁모으고": 9873,
      "▁무서울": 9874,
      "▁뒤집": 9875,
      "▁애쓰는": 9876,
      "곰과": 9877,
      "▁만들려고": 9878,
      "▁필요했어요": 9879,
      "▁고마워했죠": 9880,
      "▁종류의": 9881,
      "▁당신이": 9882,
      "▁진흙을": 9883,
      "▁컬러풀한": 9884,
      "▁가져가려고": 9885,
      "▁따랐습니다": 9886,
      "▁걱정스러운": 9887,
      "▁않는다는": 9888,
      "푸른": 9889,
      "▁시도했죠": 9890,
      "▁자르는": 9891,
      "▁디저트를": 9892,
      "놀면서": 9893,
      "무늬가": 9894,
      "칠면": 9895,
      "▁근처를": 9896,
      "우면서도": 9897,
      "▁않습니다": 9898,
      "품에": 9899,
      "▁생각이라고": 9900,
      "사에": 9901,
      "쪽을": 9902,
      "▁구하고": 9903,
      "▁굴리며": 9904,
      "▁나에게": 9905,
      "▁요청했습니다": 9906,
      "옷을": 9907,
      "▁상관하지": 9908,
      "▁방향": 9909,
      "▁찾아내고": 9910,
      "▁데이지는": 9911,
      "▁아름다워": 9912,
      "▁고치려고": 9913,
      "▁두꺼운": 9914,
      "▁자유로워": 9915,
      "불이": 9916,
      "▁앉아있": 9917,
      "상점": 9918,
      "▁끼고": 9919,
      "진흙": 9920,
      "▁열리지": 9921,
      "▁나쁘지": 9922,
      "어리석은": 9923,
      "▁되었다는": 9924,
      "물에서": 9925,
      "하셨": 9926,
      "▁불러서": 9927,
      "▁자라고": 9928,
      "리면": 9929,
      "▁깨끗해진": 9930,
      "비라는": 9931,
      "슬픈": 9932,
      "인과": 9933,
      "▁말아": 9934,
      "기에게": 9935,
      "▁새것": 9936,
      "▁가볍": 9937,
      "▁축제": 9938,
      "▁고마워했답니다": 9939,
      "▁바다로": 9940,
      "▁꺼냈어요": 9941,
      "▁휙": 9942,
      "뭐하고": 9943,
      "▁얻게": 9944,
      "▁밀었어요": 9945,
      "▁놀았다": 9946,
      "▁마시는": 9947,
      "▁카약을": 9948,
      "적이었습니다": 9949,
      "▁주스": 9950,
      "▁타기를": 9951,
      "▁필요로": 9952,
      "▁열었죠": 9953,
      "▁가까이에": 9954,
      "▁떨어졌죠": 9955,
      "보보와": 9956,
      "운전사는": 9957,
      "▁소녀였습니다": 9958,
      "그녀를": 9959,
      "▁할게": 9960,
      "▁의상을": 9961,
      "▁오르락내리락": 9962,
      "▁넣었지요": 9963,
      "▁붙이고": 9964,
      "도마뱀": 9965,
      "▁있겠어": 9966,
      "▁말에": 9967,
      "▁친구였답니다": 9968,
      "▁달려갔답니다": 9969,
      "그것들을": 9970,
      "▁영리하고": 9971,
      "▁언제": 9972,
      "▁토미라는": 9973,
      "▁찾아볼": 9974,
      "▁말했지만": 9975,
      "▁해변을": 9976,
      "오븐": 9977,
      "체가": 9978,
      "▁특별하다고": 9979,
      "▁주기": 9980,
      "▁모으는": 9981,
      "헬리콥": 9982,
      "깜짝": 9983,
      "구에": 9984,
      "농부": 9985,
      "▁신중하게": 9986,
      "▁믿음직한": 9987,
      "▁행복했다": 9988,
      "▁베리를": 9989,
      "▁나눠주는": 9990,
      "간식": 9991,
      "속에": 9992,
      "▁뛰어갔습니다": 9993,
      "해하며": 9994,
      "▁숨겨져": 9995,
      "▁쓰러뜨": 9996,
      "▁뛰어내려": 9997,
      "▁오후": 9998,
      "팝피는": 9999,
      "▁멈추게": 10000,
      "사랑해요": 10001,
      "픔을": 10002,
      "▁가져가기로": 10003,
      "▁마무": 10004,
      "일라는": 10005,
      "▁당겨": 10006,
      "▁다음에는": 10007,
      "▁도기는": 10008,
      "▁도와줘야": 10009,
      "재미있고": 10010,
      "▁봤지만": 10011,
      "▁연주를": 10012,
      "▁레이저": 10013,
      "▁토네이": 10014,
      "재미있어": 10015,
      "아이디어가": 10016,
      "해져": 10017,
      "▁건강하고": 10018,
      "▁입방": 10019,
      "▁땅이": 10020,
      "▁날부터": 10021,
      "▁쉬운": 10022,
      "▁써야": 10023,
      "▁거리에": 10024,
      "▁능력을": 10025,
      "▁통을": 10026,
      "어두운": 10027,
      "▁이야기하며": 10028,
      "▁모르겠어": 10029,
      "샐리의": 10030,
      "▁오리에게": 10031,
      "▁열기": 10032,
      "▁벨벳": 10033,
      "▁찾아봤어요": 10034,
      "고양이를": 10035,
      "▁거미가": 10036,
      "▁떴을": 10037,
      "▁고맙": 10038,
      "▁돼지는": 10039,
      "▁준비해": 10040,
      "▁바꿀": 10041,
      "▁러그": 10042,
      "▁충격을": 10043,
      "▁새였죠": 10044,
      "▁나면": 10045,
      "▁상냥": 10046,
      "▁폐": 10047,
      "▁테니": 10048,
      "▁민트": 10049,
      "▁시끄럽고": 10050,
      "▁운전하는": 10051,
      "▁한가운데에": 10052,
      "▁리듬": 10053,
      "▁텐트를": 10054,
      "▁돛을": 10055,
      "시끄러운": 10056,
      "▁안기고": 10057,
      "▁닿는": 10058,
      "그때부터": 10059,
      "▁포옹과": 10060,
      "려는": 10061,
      "▁구해준": 10062,
      "▁일으켜": 10063,
      "▁돌려줘": 10064,
      "▁텔레비전을": 10065,
      "▁게을러": 10066,
      "복을": 10067,
      "▁키티를": 10068,
      "▁낭": 10069,
      "▁답을": 10070,
      "테디베": 10071,
      "▁안겼어요": 10072,
      "▁지었답니다": 10073,
      "▁점토로": 10074,
      "▁해냈어요": 10075,
      "▁언젠가": 10076,
      "▁낡고": 10077,
      "님께": 10078,
      "▁상태로": 10079,
      "▁뒤졌지만": 10080,
      "가짜": 10081,
      "▁나을": 10082,
      "▁반짝거렸어요": 10083,
      "▁불에": 10084,
      "▁의사에게": 10085,
      "▁심술궂": 10086,
      "겼지만": 10087,
      "▁들었다": 10088,
      "더미를": 10089,
      "▁파괴": 10090,
      "▁뭐라고": 10091,
      "오랜": 10092,
      "미아도": 10093,
      "겠지만": 10094,
      "▁문지": 10095,
      "반짝이고": 10096,
      "▁많아요": 10097,
      "▁막대기": 10098,
      "▁핑크색": 10099,
      "거리를": 10100,
      "▁아닐": 10101,
      "▁비디오를": 10102,
      "▁건초를": 10103,
      "▁제안했습니다": 10104,
      "▁가보자": 10105,
      "▁문제에": 10106,
      "▁무릎에": 10107,
      "리아는": 10108,
      "▁인형들과": 10109,
      "노래를": 10110,
      "▁날아올랐습니다": 10111,
      "▁욕조에": 10112,
      "▁뛰어다니": 10113,
      "▁가벼": 10114,
      "▁공연을": 10115,
      "알아": 10116,
      "▁나아지길": 10117,
      "▁윙윙": 10118,
      "이모": 10119,
      "▁심지어": 10120,
      "염둥이": 10121,
      "▁포옹하며": 10122,
      "▁냈죠": 10123,
      "문은": 10124,
      "▁오빠": 10125,
      "▁지그재": 10126,
      "▁도끼를": 10127,
      "▁고약한": 10128,
      "▁보시고": 10129,
      "깝게도": 10130,
      "달콤하고": 10131,
      "모네이": 10132,
      "브와": 10133,
      "웠어": 10134,
      "▁바위와": 10135,
      "▁덫": 10136,
      "▁바라보곤": 10137,
      "▁꼬리가": 10138,
      "▁둥지가": 10139,
      "▁곳마다": 10140,
      "▁돌멩이를": 10141,
      "▁코끼리는": 10142,
      "▁하루가": 10143,
      "▁동네": 10144,
      "▁시간까지": 10145,
      "▁동의했죠": 10146,
      "▁뿌리를": 10147,
      "▁것이라는": 10148,
      "소리로": 10149,
      "▁속도로": 10150,
      "▁주의를": 10151,
      "▁베풀": 10152,
      "▁자물쇠를": 10153,
      "▁가슴": 10154,
      "▁깼": 10155,
      "▁낸": 10156,
      "▁진정": 10157,
      "▁충실한": 10158,
      "했어야": 10159,
      "▁공유하는": 10160,
      "추지": 10161,
      "▁껍데기를": 10162,
      "꽃이": 10163,
      "해졌죠": 10164,
      "▁행복했지만": 10165,
      "▁걸로": 10166,
      "▁있어도": 10167,
      "언제나": 10168,
      "▁하거나": 10169,
      "▁들었지요": 10170,
      "▁먹어요": 10171,
      "▁숨고": 10172,
      "개구리": 10173,
      "▁축구를": 10174,
      "▁로션을": 10175,
      "다섯": 10176,
      "▁시작하면서": 10177,
      "▁용감했고": 10178,
      "▁둘러보았습니다": 10179,
      "▁느꼈고": 10180,
      "정원에": 10181,
      "▁사람들도": 10182,
      "플러피가": 10183,
      "다며": 10184,
      "▁안개": 10185,
      "?\",": 10186,
      "▁세탁": 10187,
      "▁물고기들을": 10188,
      "▁좋아졌고": 10189,
      "▁용감해져서": 10190,
      "▁날아가서": 10191,
      "▁창피함을": 10192,
      "▁달려갔고": 10193,
      "▁좋아하던": 10194,
      "▁갉": 10195,
      "▁원했답니다": 10196,
      "가족들은": 10197,
      "▁싸우지": 10198,
      "▁비둘기는": 10199,
      "나눔": 10200,
      "화장": 10201,
      "▁시끄러워": 10202,
      "마켓": 10203,
      "▁탐욕": 10204,
      "사이": 10205,
      "교훈": 10206,
      "랐다": 10207,
      "따뜻하고": 10208,
      "▁커지고": 10209,
      "바퀴": 10210,
      "▁루나는": 10211,
      "▁에너": 10212,
      "▁버섯을": 10213,
      "▁소금을": 10214,
      "▁만들었": 10215,
      "▁바위에서": 10216,
      "▁놓아": 10217,
      "안타": 10218,
      "▁배고픈": 10219,
      "없는": 10220,
      "▁하니까": 10221,
      "▁설레어": 10222,
      "가지고": 10223,
      "알겠지": 10224,
      "유령": 10225,
      "초콜릿": 10226,
      "이크가": 10227,
      "▁램프를": 10228,
      "▁방에는": 10229,
      "그렇지": 10230,
      "▁찾아가": 10231,
      "▁건네주었습니다": 10232,
      "▁모습으로": 10233,
      "▁지루하지": 10234,
      "▁채찍을": 10235,
      "▁무게를": 10236,
      "▁소녀였어요": 10237,
      "▁티켓을": 10238,
      "▁열려": 10239,
      "▁수영하고": 10240,
      "위험해": 10241,
      "▁우산": 10242,
      "얼룩": 10243,
      "▁사전을": 10244,
      "▁추었어요": 10245,
      "티머라는": 10246,
      "▁슬펐고": 10247,
      "▁나눠줄": 10248,
      "▁기다리는": 10249,
      "▁공주님": 10250,
      "▁놀러왔습니다": 10251,
      "▁알아채": 10252,
      "▁무거워서": 10253,
      "▁자기가": 10254,
      "▁아저씨": 10255,
      "▁양의": 10256,
      "▁섰습니다": 10257,
      "▁끌어당": 10258,
      "▁노트": 10259,
      "▁꼼짝": 10260,
      "그릇": 10261,
      "▁살밖에": 10262,
      "▁자매": 10263,
      "▁버렸답니다": 10264,
      "▁시도해봤지만": 10265,
      "▁즐겁다는": 10266,
      "너와": 10267,
      "토비는": 10268,
      "▁가보니": 10269,
      "▁모래놀이": 10270,
      "▁자동차들을": 10271,
      "▁팀이야": 10272,
      "소녀와": 10273,
      "▁생겼어": 10274,
      "▁수집": 10275,
      "▁되었다고": 10276,
      "▁입어": 10277,
      "▁꿈꿨": 10278,
      "병이": 10279,
      "▁드레스가": 10280,
      "▁소중한": 10281,
      "▁형제였습니다": 10282,
      "▁숨어있": 10283,
      "씨앗": 10284,
      "▁존중해야": 10285,
      "순한": 10286,
      "▁쫓아가며": 10287,
      "▁불어와": 10288,
      "▁밀가루": 10289,
      "▁근육": 10290,
      "▁언덕에서": 10291,
      "▁날려버렸습니다": 10292,
      "▁되죠": 10293,
      "그고": 10294,
      "▁혀": 10295,
      "다닐": 10296,
      "▁토끼의": 10297,
      "나의": 10298,
      "▁공이야": 10299,
      "▁여성분은": 10300,
      "▁프로그램을": 10301,
      "▁터뜨렸습니다": 10302,
      "▁자전거가": 10303,
      "남자가": 10304,
      "▁용은": 10305,
      "이었어": 10306,
      "쳤지요": 10307,
      "주머니": 10308,
      "감이": 10309,
      "▁착용하고": 10310,
      "▁내려다보며": 10311,
      "개구리가": 10312,
      "려야": 10313,
      "▁쌓아": 10314,
      "▁거북이는": 10315,
      "베시는": 10316,
      "▁무서워졌고": 10317,
      "▁천둥": 10318,
      "▁성격": 10319,
      "▁티머의": 10320,
      "▁체리": 10321,
      "▁소리였죠": 10322,
      "꿈속에서": 10323,
      "▁있답니다": 10324,
      "▁구하기": 10325,
      "▁스타디": 10326,
      "씨는": 10327,
      "마녀는": 10328,
      "▁슬퍼보": 10329,
      "너희가": 10330,
      "아이들아": 10331,
      "▁왕과": 10332,
      "▁포옹하고": 10333,
      "선인": 10334,
      "친절하고": 10335,
      "▁아프게": 10336,
      "▁상처가": 10337,
      "광대는": 10338,
      "지저분": 10339,
      "▁바꾸고": 10340,
      "▁가라앉": 10341,
      "체는": 10342,
      "▁올리고": 10343,
      "▁언어를": 10344,
      "▁불꽃을": 10345,
      "드래곤": 10346,
      "▁즐거워했죠": 10347,
      "근처": 10348,
      "▁공간을": 10349,
      "시죠": 10350,
      "▁왔을": 10351,
      "▁찾기를": 10352,
      "▁날아갈": 10353,
      "시키고": 10354,
      "섰습니다": 10355,
      "▁열렸습니다": 10356,
      "▁작품을": 10357,
      "물건": 10358,
      "▁하얗": 10359,
      "▁돌아가고": 10360,
      "▁시간이었어요": 10361,
      "▁꿈꾸": 10362,
      "달콤한": 10363,
      "떨어": 10364,
      "모래놀이": 10365,
      "▁현미경": 10366,
      "▁사실을": 10367,
      "▁불편함을": 10368,
[...]
