{
  "version": "1.0",
  "truncation": null,
  "padding": null,
  "added_tokens": [
    {
      "id": 0,
      "content": "<|PAD|>",
      "single_word": false,
      "lstrip": false,
      "rstrip": false,
      "normalized": false,
      "special": true
    },
    {
      "id": 1,
      "content": "<|BOS|>",
      "single_word": false,
      "lstrip": false,
      "rstrip": false,
      "normalized": false,
      "special": true
    },
    {
      "id": 2,
      "content": "<|EOS|>",
      "single_word": false,
      "lstrip": false,
      "rstrip": false,
      "normalized": false,
      "special": true
    },
    {
      "id": 3,
      "content": "<|UNK|>",
      "single_word": false,
      "lstrip": false,
      "rstrip": false,
      "normalized": false,
      "special": true
    }
  ],
  "normalizer": {
    "type": "NFKC"
  },
  "pre_tokenizer": {
    "type": "Sequence",
    "pretokenizers": [
      {
        "type": "UnicodeScripts"
      },
      {
        "type": "Digits",
        "individual_digits": true
      },
      {
        "type": "Metaspace",
        "replacement": "▁",
        "prepend_scheme": "never",
        "split": true
      }
    ]
  },
  "post_processor": {
    "type": "TemplateProcessing",
    "single": [
      {
        "SpecialToken": {
          "id": "<|BOS|>",
          "type_id": 0
        }
      },
      {
        "Sequence": {
          "id": "A",
          "type_id": 0
        }
      },
      {
        "SpecialToken": {
          "id": "<|EOS|>",
          "type_id": 0
        }
      }
    ],
    "pair": [
      {
        "SpecialToken": {
          "id": "<|BOS|>",
          "type_id": 0
        }
      },
      {
        "Sequence": {
          "id": "A",
          "type_id": 0
        }
      },
      {
        "SpecialToken": {
          "id": "<|EOS|>",
          "type_id": 0
        }
      },
      {
        "SpecialToken": {
          "id": "<|BOS|>",
          "type_id": 1
        }
      },
      {
        "Sequence": {
          "id": "B",
          "type_id": 1
        }
      },
      {
        "SpecialToken": {
          "id": "<|EOS|>",
          "type_id": 1
        }
      }
    ],
    "special_tokens": {
      "<|BOS|>": {
        "id": "<|BOS|>",
        "ids": [
          1
        ],
        "tokens": [
          "<|BOS|>"
        ]
      },
      "<|EOS|>": {
        "id": "<|EOS|>",
        "ids": [
          2
        ],
        "tokens": [
          "<|EOS|>"
        ]
      }
    }
  },
  "decoder": {
    "type": "Metaspace",
    "replacement": "▁",
    "prepend_scheme": "never",
    "split": true
  },
  "model": {
    "type": "BPE",
    "dropout": null,
    "unk_token": "<|UNK|>",
    "continuing_subword_prefix": null,
    "end_of_word_suffix": null,
    "fuse_unk": false,
    "byte_fallback": false,
    "ignore_merges": false,
    "vocab": {
      "<|PAD|>": 0,
      "<|BOS|>": 1,
      "<|EOS|>": 2,
      "<|UNK|>": 3,
      "!": 4,
      "\"": 5,
      "'": 6,
      ",": 7,
      "-": 8,
      ".": 9,
      "0": 10,
      "1": 11,
      "2": 12,
      "3": 13,
      "4": 14,
      "5": 15,
      "6": 16,
      "7": 17,
      "8": 18,
      "9": 19,
      ":": 20,
      ";": 21,
      "<": 22,
      ">": 23,
      "?": 24,
      "A": 25,
      "B": 26,
      "C": 27,
      "D": 28,
      "F": 29,
      "G": 30,
      "H": 31,
      "I": 32,
      "M": 33,
      "N": 34,
      "O": 35,
      "P": 36,
      "Q": 37,
      "R": 38,
      "S": 39,
      "T": 40,
      "V": 41,
      "W": 42,
      "X": 43,
      "Y": 44,
      "Z": 45,
      "a": 46,
      "b": 47,
      "c": 48,
      "d": 49,
      "e": 50,
      "f": 51,
      "g": 52,
      "h": 53,
      "i": 54,
      "k": 55,
      "l": 56,
      "m": 57,
      "n": 58,
      "o": 59,
      "p": 60,
      "r": 61,
      "s": 62,
      "t": 63,
      "u": 64,
      "v": 65,
      "w": 66,
      "x": 67,
      "y": 68,
      "z": 69,
      "|": 70,
      "־": 71,
      "׃": 72,
      "א": 73,
      "ב": 74,
      "ג": 75,
      "ד": 76,
      "ה": 77,
      "ו": 78,
      "ז": 79,
      "ח": 80,
      "ט": 81,
      "י": 82,
      "ך": 83,
      "כ": 84,
      "ל": 85,
      "ם": 86,
      "מ": 87,
      "ן": 88,
      "נ": 89,
      "ס": 90,
      "ע": 91,
      "ף": 92,
      "פ": 93,
      "ץ": 94,
      "צ": 95,
      "ק": 96,
      "ר": 97,
      "ש": 98,
      "ת": 99,
      "▁": 100,
      "▁ה": 101,
      "▁ל": 102,
      "▁א": 103,
      "▁ש": 104,
      "ים": 105,
      "▁ו": 106,
      "▁מ": 107,
      "▁ב": 108,
      "▁הי": 109,
      "▁ע": 110,
      "ות": 111,
      "ול": 112,
      "וא": 113,
      "▁י": 114,
      "▁את": 115,
      "הי": 116,
      "▁של": 117,
      "▁כ": 118,
      "ום": 119,
      "ור": 120,
      "▁ר": 121,
      "הם": 122,
      "ית": 123,
      "לי": 124,
      "▁ח": 125,
      "וב": 126,
      "▁היה": 127,
      "או": 128,
      "חד": 129,
      "מר": 130,
      "▁\"": 131,
      "ני": 132,
      "הוא": 133,
      "בר": 134,
      "▁ק": 135,
      "▁לא": 136,
      "חק": 137,
      "▁ט": 138,
      "▁ג": 139,
      "נה": 140,
      "זה": 141,
      "היא": 142,
      "▁נ": 143,
      "כל": 144,
      "▁פ": 145,
      "בל": 146,
      "דול": 147,
      "▁מאו": 148,
      "מא": 149,
      "יפ": 150,
      "תה": 151,
      "אה": 152,
      "יתה": 153,
      "יל": 154,
      "▁על": 155,
      "▁צ": 156,
      "▁עם": 157,
      "▁לה": 158,
      "▁לש": 159,
      "מי": 160,
      "שה": 161,
      "יי": 162,
      "▁אחד": 163,
      "▁הוא": 164,
      "▁בש": 165,
      "▁כל": 166,
      "כול": 167,
      "רה": 168,
      "nd": 169,
      "te": 170,
      "of": 171,
      "<|": 172,
      "end": 173,
      "xt": 174,
      "|>": 175,
      "text": 176,
      "oftext": 177,
      "endoftext": 178,
      "▁הח": 179,
      "▁גדול": 180,
      "▁שלו": 181,
      "▁ס": 182,
      "הב": 183,
      "דה": 184,
      "▁<|": 185,
      "נו": 186,
      "צה": 187,
      "די": 188,
      "▁הר": 189,
      "▁אות": 190,
      "▁אמר": 191,
      "היה": 192,
      "אבל": 193,
      "וע": 194,
      "▁וה": 195,
      "▁מאוד": 196,
      "▁וא": 197,
      "▁הייתה": 198,
      "▁קט": 199,
      "▁שלה": 200,
      "מה": 201,
      "▁המ": 202,
      "רי": 203,
      "פו": 204,
      "▁לע": 205,
      "▁טים": 206,
      "▁בשם": 207,
      "רו": 208,
      "▁לי": 209,
      "כו": 210,
      "יפור": 211,
      "גי": 212,
      "טים": 213,
      "תח": 214,
      "▁הצ": 215,
      "▁לשחק": 216,
      "▁שמ": 217,
      "ברים": 218,
      "יום": 219,
      "▁ת": 220,
      "▁זה": 221,
      "יו": 222,
      "עם": 223,
      "▁יכול": 224,
      "אתה": 225,
      "▁מה": 226,
      "מו": 227,
      "עצ": 228,
      "!\"": 229,
      "▁הכ": 230,
      "שר": 231,
      "▁אהב": 232,
      "בו": 233,
      ".\"": 234,
      "▁הק": 235,
      "אני": 236,
      "▁הם": 237,
      "בה": 238,
      "▁למ": 239,
      "רק": 240,
      "▁היא": 241,
      "▁ול": 242,
      "▁לח": 243,
      "▁שי": 244,
      "כה": 245,
      "בי": 246,
      "סו": 247,
      "▁ד": 248,
      "▁היו": 249,
      "▁יום": 250,
      "▁או": 251,
      "עצוע": 252,
      "שי": 253,
      "אמא": 254,
      "▁הס": 255,
      "לה": 256,
      "לילי": 257,
      "ופ": 258,
      "▁לו": 259,
      "▁פעם": 260,
      "לו": 261,
      "פר": 262,
      "תול": 263,
      "חקו": 264,
      "טום": 265,
      "▁לק": 266,
      "▁עצ": 267,
      "▁הא": 268,
      "חה": 269,
      "פה": 270,
      "ותר": 271,
      "סי": 272,
      "▁כך": 273,
      "▁טוב": 274,
      "▁הל": 275,
      "תי": 276,
      "▁הש": 277,
      "תו": 278,
      "▁מצ": 279,
      "עו": 280,
      "▁אותו": 281,
      "▁קטן": 282,
      "▁אמרה": 283,
      "▁ואמר": 284,
      "יר": 285,
      "▁הג": 286,
      "▁הב": 287,
      "סה": 288,
      "זור": 289,
      "דור": 290,
      "?\"": 291,
      "▁בי": 292,
      "חו": 293,
      "שו": 294,
      "▁קטנה": 295,
      "▁רצה": 296,
      "קס": 297,
      "▁הע": 298,
      "▁יותר": 299,
      "▁הפ": 300,
      "ציפור": 301,
      "▁להי": 302,
      "▁לב": 303,
      "רא": 304,
      "▁ראה": 305,
      "וד": 306,
      "▁ומ": 307,
      "נים": 308,
      "לד": 309,
      "▁ז": 310,
      "▁מאושר": 311,
      "▁רצ": 312,
      "עה": 313,
      "▁אמא": 314,
      "▁עצוב": 315,
      "▁הת": 316,
      "כלב": 317,
      "טי": 318,
      "▁וח": 319,
      "קה": 320,
      "לא": 321,
      "ארק": 322,
      "▁לילי": 323,
      "▁שלהם": 324,
      "פי": 325,
      "כש": 326,
      "תחיל": 327,
      "מש": 328,
      "▁כי": 329,
      "חר": 330,
      "▁גדולה": 331,
      "נית": 332,
      "▁הצעצוע": 333,
      "דו": 334,
      "בן": 335,
      "טו": 336,
      "נות": 337,
      "▁שיחקו": 338,
      "פארק": 339,
      "▁הד": 340,
      "▁מש": 341,
      "אם": 342,
      "▁לעזור": 343,
      "ער": 344,
      "▁טום": 345,
      "נח": 346,
      "▁רו": 347,
      "שהו": 348,
      "קר": 349,
      "בא": 350,
      "▁שמח": 351,
      "שב": 352,
      "▁יחד": 353,
      "▁שא": 354,
      "▁שהוא": 355,
      "▁ור": 356,
      "▁חיי": 357,
      "שים": 358,
      "אז": 359,
      "▁יד": 360,
      "▁הקט": 361,
      "▁רע": 362,
      "מן": 363,
      "▁ראתה": 364,
      "▁במ": 365,
      "לדה": 366,
      "שא": 367,
      "▁להיות": 368,
      "▁כדי": 369,
      "▁הרבה": 370,
      "פוט": 371,
      "דר": 372,
      "▁היום": 373,
      "יש": 374,
      "▁חז": 375,
      "▁ני": 376,
      "ראות": 377,
      "תכל": 378,
      "שות": 379,
      "חי": 380,
      "כת": 381,
      "▁צרי": 382,
      "▁הגדול": 383,
      "▁חבר": 384,
      "רג": 385,
      "▁הכדור": 386,
      "צא": 387,
      "▁הרגי": 388,
      "▁סו": 389,
      "▁שה": 390,
      "פת": 391,
      "קו": 392,
      "▁שוב": 393,
      "▁חי": 394,
      "אמר": 395,
      "▁לל": 396,
      "נחנו": 397,
      "בוא": 398,
      "מד": 399,
      "טה": 400,
      "▁אהבה": 401,
      "▁שלי": 402,
      "▁אותה": 403,
      "כן": 404,
      "▁התחיל": 405,
      "מים": 406,
      "▁הכי": 407,
      "ורה": 408,
      "יה": 409,
      "הח": 410,
      "עים": 411,
      "▁ואמרה": 412,
      "▁בח": 413,
      "גל": 414,
      "▁חד": 415,
      "זר": 416,
      "▁להם": 417,
      "כולם": 418,
      "חת": 419,
      "▁רצתה": 420,
      "כים": 421,
      "▁משהו": 422,
      "כונית": 423,
      "▁ילד": 424,
      "▁נה": 425,
      "▁רוצה": 426,
      "▁אית": 427,
      "▁שהם": 428,
      "▁אומר": 429,
      "כי": 430,
      "מיד": 431,
      "ולם": 432,
      "▁בא": 433,
      "▁לנ": 434,
      "על": 435,
      "קים": 436,
      "▁לך": 437,
      "▁כש": 438,
      "▁אוהב": 439,
      "וה": 440,
      "▁לעשות": 441,
      "זי": 442,
      "▁ביחד": 443,
      "▁מדי": 444,
      "▁עד": 445,
      "ון": 446,
      "בת": 447,
      "▁שהיא": 448,
      "ראה": 449,
      "סאם": 450,
      "חים": 451,
      "▁ונ": 452,
      "▁הביתה": 453,
      "▁לראות": 454,
      "▁נח": 455,
      "▁הלך": 456,
      "▁מו": 457,
      "▁הז": 458,
      "▁שלך": 459,
      "שחק": 460,
      "שת": 461,
      "▁מקס": 462,
      "▁עלי": 463,
      "▁חברים": 464,
      "▁כיף": 465,
      "נב": 466,
      "▁ילדה": 467,
      "צוא": 468,
      "▁אז": 469,
      "▁לפ": 470,
      "ופסה": 471,
      "▁צעצוע": 472,
      "▁אותם": 473,
      "הציפור": 474,
      "▁הצעצועים": 475,
      "זרה": 476,
      "אנחנו": 477,
      "▁גם": 478,
      "חרי": 479,
      "▁יש": 480,
      "צת": 481,
      "קום": 482,
      "▁עו": 483,
      "▁הציפור": 484,
      "▁טובים": 485,
      "▁למצוא": 486,
      "את": 487,
      "ילד": 488,
      "▁וש": 489,
      "גיע": 490,
      "▁יכולים": 491,
      "▁לג": 492,
      "▁אי": 493,
      "▁מס": 494,
      "▁אתה": 495,
      "גם": 496,
      "היר": 497,
      "▁החלי": 498,
      "בק": 499,
      "אי": 500,
      "▁מאושרים": 501,
      "בוה": 502,
      "▁בפארק": 503,
      "▁בע": 504,
      "▁הסתכל": 505,
      "מיה": 506,
      "▁מח": 507,
      "▁דברים": 508,
      "ספוט": 509,
      "ואז": 510,
      "ניהם": 511,
      "▁שזה": 512,
      "בע": 513,
      "מקס": 514,
      "▁מצא": 515,
      "▁וי": 516,
      "▁ראו": 517,
      "▁לחברים": 518,
      "▁ללכת": 519,
      "קי": 520,
      "▁לת": 521,
      "▁פחד": 522,
      "▁הלכו": 523,
      "כנ": 524,
      "הא": 525,
      "יימי": 526,
      "▁יפה": 527,
      "▁לאמא": 528,
      "▁לצ": 529,
      "ותו": 530,
      "▁החתול": 531,
      "גה": 532,
      "▁הקטנה": 533,
      "גן": 534,
      "▁בו": 535,
      "▁רצו": 536,
      "▁החד": 537,
      "פס": 538,
      "▁ליד": 539,
      "▁החברים": 540,
      "▁הרגיש": 541,
      "▁כלב": 542,
      "▁וע": 543,
      "עת": 544,
      "▁כמו": 545,
      "▁עץ": 546,
      "▁יכל": 547,
      "\",": 548,
      "בית": 549,
      "תודה": 550,
      "לך": 551,
      "ולי": 552,
      "▁שמחה": 553,
      "▁לד": 554,
      "▁וצ": 555,
      "יין": 556,
      "ילו": 557,
      "המ": 558,
      "כשיו": 559,
      "▁חש": 560,
      "וף": 561,
      "▁תמיד": 562,
      "▁צריך": 563,
      "▁ידע": 564,
      "▁בס": 565,
      "קן": 566,
      "▁גבוה": 567,
      "▁לפארק": 568,
      "דום": 569,
      "רנב": 570,
      "▁הקטן": 571,
      "▁נחמד": 572,
      "לת": 573,
      "▁העץ": 574,
      "▁אהבו": 575,
      "ברו": 576,
      "▁ציפור": 577,
      "של": 578,
      "▁הכלב": 579,
      "▁קרה": 580,
      "▁חייכה": 581,
      "▁הבי": 582,
      "פעם": 583,
      "צר": 584,
      "פל": 585,
      "▁חשב": 586,
      "בים": 587,
      "▁שיחק": 588,
      "קל": 589,
      "יון": 590,
      "תחת": 591,
      "ביב": 592,
      "▁נת": 593,
      "ובה": 594,
      "▁מע": 595,
      "▁משחק": 596,
      "▁לאכול": 597,
      "▁באו": 598,
      "בח": 599,
      "▁החו": 600,
      "▁הזה": 601,
      "▁לס": 602,
      "▁בחו": 603,
      "החתול": 604,
      "הש": 605,
      "רגי": 606,
      "▁חדש": 607,
      "▁להת": 608,
      "סוף": 609,
      "גר": 610,
      "▁ולא": 611,
      "▁הנ": 612,
      "▁ספוט": 613,
      "▁אבל": 614,
      "זו": 615,
      "▁הלכה": 616,
      "▁הפכו": 617,
      "▁עצובה": 618,
      "▁בוב": 619,
      "▁אחרי": 620,
      "▁אחר": 621,
      "▁מי": 622,
      "תוך": 623,
      "▁חזק": 624,
      "כות": 625,
      "▁חתול": 626,
      "מח": 627,
      "▁מא": 628,
      "חול": 629,
      "בואו": 630,
      "▁אני": 631,
      "יתי": 632,
      "לע": 633,
      "▁קצת": 634,
      "עי": 635,
      "סת": 636,
      "▁מהר": 637,
      ",\"": 638,
      "▁שם": 639,
      "▁צפו": 640,
      "▁ובן": 641,
      "ילה": 642,
      "בוב": 643,
      "צים": 644,
      "▁מאושרת": 645,
      "טער": 646,
      "יפה": 647,
      "היו": 648,
      "מיים": 649,
      "▁כדור": 650,
      "בור": 651,
      "גש": 652,
      "זמן": 653,
      "▁רק": 654,
      "פרד": 655,
      "לוק": 656,
      "▁רעיון": 657,
      "חור": 658,
      "▁נהנו": 659,
      "▁קפ": 660,
      "▁יכולה": 661,
      "ילדה": 662,
      "כב": 663,
      "▁לוסי": 664,
      "▁אלי": 665,
      "נשים": 666,
      "יות": 667,
      "▁דבר": 668,
      "חתול": 669,
      "▁בן": 670,
      "אלי": 671,
      "▁שו": 672,
      "ניים": 673,
      "מת": 674,
      "טר": 675,
      "גע": 676,
      "כדור": 677,
      "▁השני": 678,
      "והם": 679,
      "הילד": 680,
      "▁הו": 681,
      "▁אם": 682,
      "▁ושי": 683,
      "ופת": 684,
      "▁הט": 685,
      "▁שאלה": 686,
      "▁צפוי": 687,
      "שרה": 688,
      "▁בפ": 689,
      "▁קר": 690,
      "▁מצאה": 691,
      "▁גר": 692,
      "▁חל": 693,
      "▁שאל": 694,
      "▁כמה": 695,
      "▁והתחיל": 696,
      "▁החוצה": 697,
      "חדר": 698,
      "▁מקום": 699,
      "▁לקח": 700,
      "▁אומרת": 701,
      "▁מתחת": 702,
      "לוסי": 703,
      "▁חייך": 704,
      "▁חיו": 705,
      "▁פני": 706,
      "רגיש": 707,
      "סם": 708,
      "הכלב": 709,
      "גד": 710,
      "▁בחוץ": 711,
      "רוץ": 712,
      "שניהם": 713,
      "▁יצ": 714,
      "▁צריכים": 715,
      "בד": 716,
      "סר": 717,
      "▁מצאו": 718,
      "▁מיו": 719,
      "▁רץ": 720,
      "▁פר": 721,
      "שיב": 722,
      "וק": 723,
      "▁קי": 724,
      "אל": 725,
      "▁מת": 726,
      "כם": 727,
      "▁האו": 728,
      "▁מיוחד": 729,
      "▁לחבר": 730,
      "▁בטו": 731,
      "▁ניסה": 732,
      "וז": 733,
      "▁הגי": 734,
      "מוד": 735,
      "▁בק": 736,
      "אמרה": 737,
      "▁איתו": 738,
      "היי": 739,
      "▁מיה": 740,
      "רים": 741,
      "▁מצטער": 742,
      "▁הרגישה": 743,
      "הד": 744,
      "הצ": 745,
      "▁וב": 746,
      "סתכל": 747,
      "▁לר": 748,
      "▁בבית": 749,
      "הע": 750,
      "▁כולם": 751,
      "..": 752,
      "אנה": 753,
      "ברי": 754,
      "רגש": 755,
      "▁מפ": 756,
      "▁הקופסה": 757,
      "▁נו": 758,
      "▁ארו": 759,
      "▁בשב": 760,
      "לים": 761,
      "▁בסדר": 762,
      "▁רוא": 763,
      "עלה": 764,
      "צו": 765,
      "▁לעץ": 766,
      "לאפי": 767,
      "▁ואבא": 768,
      "▁נראה": 769,
      "▁אותך": 770,
      "▁עליו": 771,
      "▁עכשיו": 772,
      "▁לבית": 773,
      "▁עדיין": 774,
      "▁בר": 775,
      "▁הילד": 776,
      "רוק": 777,
      "אג": 778,
      "וי": 779,
      "נת": 780,
      "▁וק": 781,
      "▁תו": 782,
      "▁עוד": 783,
      "▁נפ": 784,
      "▁ואמא": 785,
      "הייתה": 786,
      "▁איך": 787,
      "כר": 788,
      "▁ולילי": 789,
      "▁צחקו": 790,
      "▁חו": 791,
      "▁החבר": 792,
      "חות": 793,
      "צי": 794,
      "ובע": 795,
      "▁בכל": 796,
      "▁אוכל": 797,
      "פות": 798,
      "לון": 799,
      "▁ידעה": 800,
      "▁וטום": 801,
      "בוד": 802,
      "▁כא": 803,
      "ניות": 804,
      "פים": 805,
      "ילך": 806,
      "▁ועו": 807,
      "דות": 808,
      "בקשה": 809,
      "▁למד": 810,
      "▁נש": 811,
      "פרדע": 812,
      "▁אמרו": 813,
      "▁הנה": 814,
      "▁לקבל": 815,
      "כבר": 816,
      "▁ולשחק": 817,
      "למה": 818,
      "▁קשה": 819,
      "הילדה": 820,
      "▁סביב": 821,
      "אום": 822,
      "ייה": 823,
      "גול": 824,
      "פוץ": 825,
      "▁בל": 826,
      "נק": 827,
      "צפה": 828,
      "▁העו": 829,
      "רך": 830,
      "▁איימי": 831,
      "▁והוא": 832,
      "▁חשבה": 833,
      "▁וס": 834,
      "▁בה": 835,
      "▁הזמן": 836,
      "▁לחלוק": 837,
      "▁יצא": 838,
      "▁הגדולה": 839,
      "פילו": 840,
      "▁בפנים": 841,
      "▁והיה": 842,
      "▁המכונית": 843,
      "סות": 844,
      "▁לט": 845,
      "▁סאם": 846,
      "▁לקחת": 847,
      "דנ": 848,
      "▁והח": 849,
      "עזור": 850,
      "חרים": 851,
      "ין": 852,
      "מאותו": 853,
      "▁ושיחקו": 854,
      "קות": 855,
      "▁נכנ": 856,
      "▁הרי": 857,
      "כשהם": 858,
      "גים": 859,
      "▁וג": 860,
      "▁והם": 861,
      "שאר": 862,
      "▁בצ": 863,
      "▁יו": 864,
      "בוק": 865,
      "▁עי": 866,
      "▁חבריו": 867,
      "בבקשה": 868,
      "▁אוהבים": 869,
      "▁אכל": 870,
      "▁אמי": 871,
      "▁הצלי": 872,
      "▁החדש": 873,
      "▁פתח": 874,
      "▁ות": 875,
      "צץ": 876,
      "דת": 877,
      "▁בת": 878,
      "▁יוד": 879,
      "▁הה": 880,
      "▁באושר": 881,
      "▁חזרה": 882,
      "▁מכונית": 883,
      "בריו": 884,
      "קח": 885,
      "▁טיפ": 886,
      "נאי": 887,
      "▁אדום": 888,
      "▁ידי": 889,
      "▁וני": 890,
      "▁אל": 891,
      "▁וסאם": 892,
      "▁זמן": 893,
      "▁הסיפור": 894,
      "▁צע": 895,
      "בזמן": 896,
      "▁לקחה": 897,
      "▁קפץ": 898,
      "▁בחזרה": 899,
      "▁הול": 900,
      "פיים": 901,
      "ווא": 902,
      "חוק": 903,
      "▁התחילה": 904,
      "▁שק": 905,
      "מות": 906,
      "▁הרצפה": 907,
      "ערה": 908,
      "▁השת": 909,
      "פוס": 910,
      "▁ידעו": 911,
      "▁שמש": 912,
      "▁הפר": 913,
      "▁הספר": 914,
      "▁ביער": 915,
      "▁לטי": 916,
      "אים": 917,
      "▁צעצועים": 918,
      "איימי": 919,
      "רב": 920,
      "▁ונה": 921,
      "▁גאה": 922,
      "מדה": 923,
      "▁והל": 924,
      "▁הגיע": 925,
      "טוב": 926,
      "ירות": 927,
      "ייר": 928,
      "פש": 929,
      "▁ואז": 930,
      "▁פנימה": 931,
      "אחרי": 932,
      "סתה": 933,
      "שם": 934,
      "▁יכלה": 935,
      "בקה": 936,
      "קש": 937,
      "▁באה": 938,
      "▁חיפ": 939,
      "▁כשהוא": 940,
      "צאת": 941,
      "שלום": 942,
      "▁להרגיש": 943,
      "▁צב": 944,
      "דיוק": 945,
      "\".": 946,
      "יים": 947,
      "ברת": 948,
      "נצ": 949,
      "לילה": 950,
      "▁עשה": 951,
      "קרוב": 952,
      "לב": 953,
      "▁ואת": 954,
      "טבח": 955,
      "▁עצובים": 956,
      "▁ורצה": 957,
      "▁הסתכלה": 958,
      "▁בשמיים": 959,
      "▁למדו": 960,
      "גו": 961,
      "אומר": 962,
      "טן": 963,
      "▁ולה": 964,
      "▁טובה": 965,
      "▁תי": 966,
      "▁נעל": 967,
      "ייך": 968,
      "▁עפה": 969,
      "▁משחקים": 970,
      "▁החיות": 971,
      "▁לנו": 972,
      "מור": 973,
      "▁וסו": 974,
      "ולח": 975,
      "זיר": 976,
      "▁שאה": 977,
      "תוח": 978,
      "▁הדלת": 979,
      "▁עזרה": 980,
      "כשה": 981,
      "גינה": 982,
      "▁מב": 983,
      "למ": 984,
      "▁וראה": 985,
      "▁החליט": 986,
      "▁מופת": 987,
      "▁לציפור": 988,
      "▁בית": 989,
      "דם": 990,
      "אולי": 991,
      "▁עושה": 992,
      "מע": 993,
      "שון": 994,
      "▁התחילו": 995,
      "טוס": 996,
      "פחה": 997,
      "▁צחק": 998,
      "לק": 999,
      "▁שרה": 1000,
      "▁השי": 1001,
      "כין": 1002,
      "▁אוהבת": 1003,
      "אבא": 1004,
      "פור": 1005,
      "▁שלנו": 1006,
      "מצא": 1007,
      "▁עליה": 1008,
      "▁לטים": 1009,
      "▁האה": 1010,
      "▁שע": 1011,
      "▁ועושר": 1012,
      "לח": 1013,
      "▁המשי": 1014,
      "רות": 1015,
      "▁נרגש": 1016,
      "▁לנסות": 1017,
      "מלה": 1018,
      "▁קופסה": 1019,
      "והוא": 1020,
      "וואו": 1021,
      "מונה": 1022,
      "רוח": 1023,
      "דומה": 1024,
      "▁חדשים": 1025,
      "▁וכ": 1026,
      "▁בטוח": 1027,
      "▁לקפוץ": 1028,
      "▁שיש": 1029,
      "שאל": 1030,
      "רקע": 1031,
      "▁כיפ": 1032,
      "▁טעים": 1033,
      "▁שמע": 1034,
      "זהר": 1035,
      "ריה": 1036,
      "▁נתנה": 1037,
      "פוח": 1038,
      "▁כשהם": 1039,
      "פוחד": 1040,
      "רון": 1041,
      "האיש": 1042,
      "ולחן": 1043,
      "▁יהיה": 1044,
      "ורות": 1045,
      "▁ההש": 1046,
      "▁ממ": 1047,
      "▁ההשכל": 1048,
      "▁מד": 1049,
      "▁רעש": 1050,
      "▁הני": 1051,
      "בעה": 1052,
      "▁המי": 1053,
      "▁התרג": 1054,
      "הירות": 1055,
      "▁הבית": 1056,
      "▁השמש": 1057,
      "▁לעוף": 1058,
      "עמים": 1059,
      "▁מים": 1060,
      "סיבה": 1061,
      "▁החליטו": 1062,
      "תר": 1063,
      "▁ופ": 1064,
      "וח": 1065,
      "▁המס": 1066,
      "▁ונו": 1067,
      "בודה": 1068,
      "נף": 1069,
      "עש": 1070,
      "▁לטיול": 1071,
      "▁קול": 1072,
      "יירה": 1073,
      "▁לרוץ": 1074,
      "▁רוצים": 1075,
      "ירה": 1076,
      "▁כבר": 1077,
      "▁האדום": 1078,
      "קשיב": 1079,
      "▁לדבר": 1080,
      "▁העוגה": 1081,
      "▁עש": 1082,
      "▁שיחקה": 1083,
      "▁ביותר": 1084,
      "שתמש": 1085,
      "▁מעולם": 1086,
      "נן": 1087,
      "▁ואילך": 1088,
      "סא": 1089,
      "▁בכ": 1090,
      "זיק": 1091,
      "▁למעלה": 1092,
      "▁פגש": 1093,
      "כבת": 1094,
      "וכולם": 1095,
      "עצועים": 1096,
      "טוף": 1097,
      "▁לתפוס": 1098,
      "▁התי": 1099,
      "ובב": 1100,
      "▁פנים": 1101,
      "עכשיו": 1102,
      "▁כפיים": 1103,
      "▁וחי": 1104,
      "▁ניסתה": 1105,
      "▁להראות": 1106,
      "▁לתוך": 1107,
      "▁כחול": 1108,
      "חרת": 1109,
      "וט": 1110,
      "▁והב": 1111,
      "דמה": 1112,
      "▁אנה": 1113,
      "בש": 1114,
      "▁להח": 1115,
      "▁כשהיא": 1116,
      "▁לתקן": 1117,
      "משהו": 1118,
      "▁נע": 1119,
      "▁נהדר": 1120,
      "▁מצחי": 1121,
      "רגע": 1122,
      "לט": 1123,
      "▁אנחנו": 1124,
      "▁הכל": 1125,
      "▁מנ": 1126,
      "פתאום": 1127,
      "▁וראתה": 1128,
      "▁רואה": 1129,
      "היות": 1130,
      "▁וחבריו": 1131,
      "▁דרך": 1132,
      "ברה": 1133,
      "▁בחורה": 1134,
      "▁צריכה": 1135,
      "הס": 1136,
      "▁בד": 1137,
      "▁הקרקע": 1138,
      "▁לפתוח": 1139,
      "חורה": 1140,
      "▁המים": 1141,
      "צח": 1142,
      "▁לצאת": 1143,
      "▁זר": 1144,
      "זרו": 1145,
      "חיד": 1146,
      "שוב": 1147,
      "מחה": 1148,
      "▁למי": 1149,
      "▁פלאפי": 1150,
      "שוף": 1151,
      "▁בחצר": 1152,
      "כוניות": 1153,
      "▁הדוב": 1154,
      "▁קיטי": 1155,
      "ורי": 1156,
      "פתע": 1157,
      "▁הסתכלו": 1158,
      "בס": 1159,
      "▁והציפור": 1160,
      "▁רבים": 1161,
      "▁וטים": 1162,
      "ורים": 1163,
      "▁והמ": 1164,
      "פרים": 1165,
      "סיק": 1166,
      "סופו": 1167,
      "▁יכלו": 1168,
      "▁עשו": 1169,
      "▁להצ": 1170,
      "▁פחדה": 1171,
      "▁איתי": 1172,
      "▁רג": 1173,
      "▁אחרים": 1174,
      "▁בלתי": 1175,
      "ריים": 1176,
      "▁הרים": 1177,
      "לג": 1178,
      "▁בגינה": 1179,
      "▁ומקס": 1180,
      "▁ונהנו": 1181,
      "▁לכל": 1182,
      "מון": 1183,
      "ברווז": 1184,
      "הר": 1185,
      "▁שמה": 1186,
      "▁ולק": 1187,
      "▁סקר": 1188,
      "▁איתה": 1189,
      "▁חושב": 1190,
      "...": 1191,
      "חקור": 1192,
      "▁האהוב": 1193,
      "▁וט": 1194,
      "▁ונת": 1195,
      "▁יודע": 1196,
      "לידה": 1197,
      "▁והיא": 1198,
      "▁לחנות": 1199,
      "▁מסביב": 1200,
      "▁פי": 1201,
      "▁והכלב": 1202,
      "▁משם": 1203,
      "▁הבל": 1204,
      "יפים": 1205,
      "▁רי": 1206,
      "▁נלך": 1207,
      "▁לטפס": 1208,
      "▁הצליח": 1209,
      "▁חם": 1210,
      "▁תד": 1211,
      "▁סוף": 1212,
      "▁למטה": 1213,
      "▁יצאה": 1214,
      "▁בחדר": 1215,
      "בתא": 1216,
      "▁וד": 1217,
      "נוק": 1218,
      "מוסר": 1219,
      "▁לנקות": 1220,
      "▁שמעה": 1221,
      "ילים": 1222,
      "▁ארוך": 1223,
      "▁סאלי": 1224,
      "בסדר": 1225,
      "▁ובר": 1226,
      "▁דוב": 1227,
      "▁החליטה": 1228,
      "▁סם": 1229,
      "▁מק": 1230,
      "נתה": 1231,
      "רר": 1232,
      "▁זהיר": 1233,
      "▁לפני": 1234,
      "▁שניהם": 1235,
      "גלשה": 1236,
      "לום": 1237,
      "עד": 1238,
      "תראה": 1239,
      "הה": 1240,
      "▁שהיה": 1241,
      "▁ללמוד": 1242,
      "נשוף": 1243,
      "▁הארנב": 1244,
      "▁פג": 1245,
      "▁במים": 1246,
      "אית": 1247,
      "וס": 1248,
      "גדל": 1249,
      "▁עב": 1250,
      "מצ": 1251,
      "שע": 1252,
      "▁לחדר": 1253,
      "▁חזר": 1254,
      "זק": 1255,
      "▁מאחור": 1256,
      "▁ומצ": 1257,
      "▁איתם": 1258,
      "הן": 1259,
      "▁נתן": 1260,
      "▁כאן": 1261,
      "▁חול": 1262,
      "▁שלא": 1263,
      "▁נשחק": 1264,
      "שמש": 1265,
      "▁שכ": 1266,
      "קיטי": 1267,
      "▁מקל": 1268,
      "טיח": 1269,
      "▁הוד": 1270,
      "▁והו": 1271,
      "▁הדברים": 1272,
      "▁אליו": 1273,
      "▁הגיעה": 1274,
      "בדיוק": 1275,
      "▁מסו": 1276,
      "▁להגיע": 1277,
      "▁די": 1278,
      "עור": 1279,
      "▁אבא": 1280,
      "▁מלא": 1281,
      "▁רואים": 1282,
      "▁עזר": 1283,
      "▁שני": 1284,
      "▁לצייר": 1285,
      "סף": 1286,
      "היום": 1287,
      "רת": 1288,
      "▁בז": 1289,
      "▁חיים": 1290,
      "בבית": 1291,
      "ביש": 1292,
      "נור": 1293,
      "▁והת": 1294,
      "▁נחמדה": 1295,
      "▁והלאה": 1296,
      "▁מתו": 1297,
      "▁מז": 1298,
      "▁העצ": 1299,
      "▁לשמור": 1300,
      "סים": 1301,
      "סאלי": 1302,
      "▁רא": 1303,
      "▁הכובע": 1304,
      "▁הכחול": 1305,
      "עץ": 1306,
      "רח": 1307,
      "▁אותי": 1308,
      "▁מכ": 1309,
      "▁תודה": 1310,
      "ימי": 1311,
      "▁איתך": 1312,
      "▁שח": 1313,
      "▁לישון": 1314,
      "▁הגיעו": 1315,
      "▁שאתה": 1316,
      "ועה": 1317,
      "▁בקרוב": 1318,
      "▁לקנות": 1319,
      "▁שמחו": 1320,
      "▁לבכות": 1321,
      "▁המו": 1322,
      "בורה": 1323,
      "▁להפ": 1324,
      "▁להשתמש": 1325,
      "▁לעצ": 1326,
      "▁אדי": 1327,
      "זיקה": 1328,
      "▁הקשיב": 1329,
      "▁מט": 1330,
      "▁חדשה": 1331,
      "ויר": 1332,
      "▁אפילו": 1333,
      "▁נר": 1334,
      "▁לתת": 1335,
      "▁צה": 1336,
      "בות": 1337,
      "▁לטום": 1338,
      "▁במש": 1339,
      "▁לשני": 1340,
      "▁להכין": 1341,
      "▁ולח": 1342,
      "כנס": 1343,
      "▁עצם": 1344,
      "צתה": 1345,
      "הנות": 1346,
      "כלו": 1347,
      "דים": 1348,
      "▁לגר": 1349,
      "▁שת": 1350,
      "שאלה": 1351,
      "▁ומח": 1352,
      "▁התרגשה": 1353,
      "▁אמ": 1354,
      "▁אנשים": 1355,
      "ליים": 1356,
      "נוע": 1357,
      "▁לחכות": 1358,
      "▁ברי": 1359,
      "▁חייב": 1360,
      "▁חזרו": 1361,
      "▁שר": 1362,
      "▁האוכל": 1363,
      "▁ללילי": 1364,
      "▁הילדה": 1365,
      "▁הסלע": 1366,
      "▁הילדים": 1367,
      "▁טעי": 1368,
      "ופסת": 1369,
      "פח": 1370,
      "▁כשה": 1371,
      "▁עוגה": 1372,
      "▁וצחקו": 1373,
      "▁להישאר": 1374,
      "▁לחקור": 1375,
      "ייזי": 1376,
      "פין": 1377,
      "▁חיבקה": 1378,
      "▁אמיץ": 1379,
      "הירה": 1380,
      "▁האיש": 1381,
      "הנ": 1382,
      "▁לז": 1383,
      "▁גדולים": 1384,
      "קשה": 1385,
      "▁מרו": 1386,
      "▁חשוב": 1387,
      "▁תק": 1388,
      "▁לחזור": 1389,
      "ביא": 1390,
      "▁הרגישו": 1391,
      "▁נס": 1392,
      "▁הביט": 1393,
      "מם": 1394,
      "▁לרגע": 1395,
      "▁כן": 1396,
      "רקוד": 1397,
      "מנ": 1398,
      "למחרת": 1399,
      "▁חיות": 1400,
      "▁והצ": 1401,
      "▁חברה": 1402,
      "עלים": 1403,
      "▁קרוב": 1404,
      "שיחק": 1405,
      "▁איש": 1406,
      "▁לאחרים": 1407,
      "▁דג": 1408,
      "▁בשביל": 1409,
      "▁עשתה": 1410,
      "▁שלום": 1411,
      "▁והע": 1412,
      "גיות": 1413,
      "▁רוח": 1414,
      "▁אומרים": 1415,
      "▁והלך": 1416,
      "▁ויותר": 1417,
      "▁שאמא": 1418,
      "▁בעצ": 1419,
      "▁החול": 1420,
      "קיי": 1421,
      "▁מפוחד": 1422,
      "שוך": 1423,
      "▁לגרום": 1424,
      "▁התח": 1425,
      "▁מהרה": 1426,
      "בקו": 1427,
      "בנים": 1428,
      "לוכל": 1429,
      "קרב": 1430,
      "▁מג": 1431,
      "▁קוד": 1432,
      "▁המפ": 1433,
      "גלגל": 1434,
      "▁מהיר": 1435,
      "▁השולחן": 1436,
      "▁פחדו": 1437,
      "בעיירה": 1438,
      "▁מצחיק": 1439,
      "▁לכ": 1440,
      "▁נפל": 1441,
      "▁נעלם": 1442,
      "▁ומיה": 1443,
      "▁למדה": 1444,
      "ייש": 1445,
      "אושר": 1446,
      "▁בתוך": 1447,
      "מונות": 1448,
      "ופי": 1449,
      "גדים": 1450,
      "▁מר": 1451,
      "▁החדר": 1452,
      "רפת": 1453,
      "▁סיפ": 1454,
      "▁הפך": 1455,
      "קט": 1456,
      "▁שמחים": 1457,
      "אות": 1458,
      "▁לנצח": 1459,
      "▁עף": 1460,
      "ועל": 1461,
      "דנדה": 1462,
      "▁המר": 1463,
      "▁הכו": 1464,
      "▁תפ": 1465,
      "▁יצאו": 1466,
      "▁מסתכל": 1467,
      "▁תח": 1468,
      "דותי": 1469,
      "▁יפים": 1470,
      "לול": 1471,
      "▁והסתכל": 1472,
      "▁הגבעה": 1473,
      "▁תדאג": 1474,
      "הג": 1475,
      "שוט": 1476,
      "▁לגעת": 1477,
      "והיא": 1478,
      "בני": 1479,
      "▁אחת": 1480,
      "▁ועצ": 1481,
      "▁עבדו": 1482,
      "▁בלו": 1483,
      "▁האחרים": 1484,
      "▁במקום": 1485,
      "טרף": 1486,
      "▁מאחורי": 1487,
      "הת": 1488,
      "▁כע": 1489,
      "▁המש": 1490,
      "המכונית": 1491,
      "▁בט": 1492,
      "▁הזאת": 1493,
      "▁לחפש": 1494,
      "פיפ": 1495,
      "▁חברו": 1496,
      "פתור": 1497,
      "בול": 1498,
      "לות": 1499,
      "שאית": 1500,
      "▁מוזר": 1501,
      "▁מל": 1502,
      "▁רחוק": 1503,
      "▁הפת": 1504,
      "הארנב": 1505,
      "השמש": 1506,
      "צות": 1507,
      "▁חיבוק": 1508,
      "▁הבובה": 1509,
      "▁ניסו": 1510,
      "גשם": 1511,
      "שמח": 1512,
      "▁לילה": 1513,
      "▁והא": 1514,
      "סירה": 1515,
      "פניים": 1516,
      "▁לזה": 1517,
      "הק": 1518,
      "▁הופת": 1519,
      "▁שנ": 1520,
      "▁הצי": 1521,
      "▁ארנב": 1522,
      "▁לקר": 1523,
      "וחד": 1524,
      "▁קיו": 1525,
      "▁נופ": 1526,
      "כמה": 1527,
      "▁שמו": 1528,
      "עוד": 1529,
      "▁והתחילה": 1530,
      "▁למה": 1531,
      "▁להקשיב": 1532,
      "מחים": 1533,
      "▁פרחים": 1534,
      "▁אכלו": 1535,
      "בעים": 1536,
      "אהב": 1537,
      "הפ": 1538,
      "הכדור": 1539,
      "▁כו": 1540,
      "טימי": 1541,
      "ורד": 1542,
      "▁סיי": 1543,
      "שיר": 1544,
      "חיה": 1545,
      "▁ולע": 1546,
      "מל": 1547,
      "כנית": 1548,
      "▁בשבילך": 1549,
      "קד": 1550,
      "קור": 1551,
      "▁ורצתה": 1552,
      "▁קיבל": 1553,
      "ייק": 1554,
      "ייף": 1555,
      "▁הראה": 1556,
      "▁לחתול": 1557,
      "טב": 1558,
      "פעמים": 1559,
      "▁חרק": 1560,
      "▁דח": 1561,
      "▁זו": 1562,
      "▁גרם": 1563,
      "לפתע": 1564,
      "עות": 1565,
      "▁להע": 1566,
      "▁לבנות": 1567,
      "▁טימי": 1568,
      "פוך": 1569,
      "▁וחיי": 1570,
      "▁רעב": 1571,
      "וזה": 1572,
      "▁היפה": 1573,
      "▁עלה": 1574,
      "פלאפי": 1575,
      "שך": 1576,
      "▁וזה": 1577,
      "▁והפ": 1578,
      "▁המקל": 1579,
      "▁ניג": 1580,
      "▁צבעו": 1581,
      "נדי": 1582,
      "▁אף": 1583,
      "▁זרחה": 1584,
      "וש": 1585,
      "▁הסת": 1586,
      "▁ולי": 1587,
      "▁שלוש": 1588,
      "רימה": 1589,
      "▁ומר": 1590,
      "▁הרוח": 1591,
      "▁ורו": 1592,
      "▁קס": 1593,
      "בט": 1594,
      "▁חייכו": 1595,
      "▁הרימה": 1596,
      "▁כוע": 1597,
      "מין": 1598,
      "▁בזמן": 1599,
      "פון": 1600,
      "▁חיוך": 1601,
      "בריכה": 1602,
      "▁רך": 1603,
      "פץ": 1604,
      "▁בג": 1605,
      "▁הסירה": 1606,
      "▁הבחי": 1607,
      "▁נכנס": 1608,
      "▁בכדור": 1609,
      "בוש": 1610,
      "▁בובו": 1611,
      "ביר": 1612,
      "ראי": 1613,
      "▁להסתכל": 1614,
      "▁לשיר": 1615,
      "▁תמונה": 1616,
      "▁וז": 1617,
      "▁בשמש": 1618,
      "▁המח": 1619,
      "▁הדשא": 1620,
      "▁קודם": 1621,
      "▁השתמ": 1622,
      "▁הנו": 1623,
      "נהג": 1624,
      "פרחים": 1625,
      "גוע": 1626,
      "▁סלע": 1627,
      "כשהוא": 1628,
      "חברים": 1629,
      "▁ברא": 1630,
      "▁ספר": 1631,
      "▁פס": 1632,
      "▁מופתע": 1633,
      "▁לרקוד": 1634,
      "ואי": 1635,
      "▁חיפשו": 1636,
      "▁והחתול": 1637,
      "▁ולמ": 1638,
      "כמ": 1639,
      "▁הצה": 1640,
      "▁ויש": 1641,
      "▁ואומר": 1642,
      "▁לבן": 1643,
      "ילדים": 1644,
      "פלצת": 1645,
      "ואר": 1646,
      "▁נקי": 1647,
      "המש": 1648,
      "▁תהיה": 1649,
      "הסוף": 1650,
      "▁גד": 1651,
      "▁החדשה": 1652,
      "▁כובע": 1653,
      "יתן": 1654,
      "▁הולכים": 1655,
      "▁לקחו": 1656,
      "▁והחלי": 1657,
      "בסוף": 1658,
      "▁מברי": 1659,
      "▁ילדים": 1660,
      "▁צבעים": 1661,
      "▁והיו": 1662,
      "כשהיא": 1663,
      "חבר": 1664,
      "מתקים": 1665,
      "▁מוד": 1666,
      "▁שמעו": 1667,
      "▁הקשי": 1668,
      "שיך": 1669,
      "▁ואמרו": 1670,
      "▁אעזור": 1671,
      "▁וכולם": 1672,
      "וחק": 1673,
      "▁להתח": 1674,
      "רקון": 1675,
      "▁הדבר": 1676,
      "נס": 1677,
      "ניו": 1678,
      "חיות": 1679,
      "▁יר": 1680,
      "▁המשחק": 1681,
      "▁הסכי": 1682,
      "▁שאהב": 1683,
      "▁לשחות": 1684,
      "▁פתחה": 1685,
      "גלה": 1686,
      "לבסוף": 1687,
      "▁הים": 1688,
      "▁פת": 1689,
      "תיק": 1690,
      "▁חכם": 1691,
      "▁המשאית": 1692,
      "▁וניסה": 1693,
      "▁למטבח": 1694,
      "▁ברח": 1695,
      "מצאתי": 1696,
      "▁האדומה": 1697,
      "▁לבד": 1698,
      "▁חלק": 1699,
      "דיו": 1700,
      "בסופו": 1701,
      "▁להצטרף": 1702,
      "האם": 1703,
      "החבר": 1704,
      "▁מפחד": 1705,
      "גרה": 1706,
      "▁גרה": 1707,
      "▁מהנה": 1708,
      "אר": 1709,
      "▁מאוחר": 1710,
      "הז": 1711,
      "▁בלי": 1712,
      "ריח": 1713,
      "כון": 1714,
      "▁מאותו": 1715,
      "▁אדומה": 1716,
      "פיפון": 1717,
      "▁והודה": 1718,
      "גור": 1719,
      "▁עדי": 1720,
      "▁לאט": 1721,
      "▁ביקשה": 1722,
      "▁ושיחק": 1723,
      "לוח": 1724,
      "דרך": 1725,
      "▁ישבו": 1726,
      "▁המשיך": 1727,
      "שני": 1728,
      "▁אכ": 1729,
      "▁ארוחת": 1730,
      "נצנת": 1731,
      "מאו": 1732,
      "▁דר": 1733,
      "מס": 1734,
      "▁מנו": 1735,
      "▁בהיר": 1736,
      "בילי": 1737,
      "▁סקרן": 1738,
      "▁ביקש": 1739,
      "פוחים": 1740,
      "▁עליהם": 1741,
      "▁חשבו": 1742,
      "▁ערב": 1743,
      "▁המגלשה": 1744,
      "▁זקן": 1745,
      "▁לשבת": 1746,
      "דהים": 1747,
      "▁ויפה": 1748,
      "רפתקה": 1749,
      "▁הסו": 1750,
      "▁לזו": 1751,
      "▁עמו": 1752,
      "ריך": 1753,
      "טרה": 1754,
      "▁המע": 1755,
      "▁הפארק": 1756,
      "בואי": 1757,
      "▁כיפי": 1758,
      "▁לקרוא": 1759,
      "▁לכולם": 1760,
      "▁במי": 1761,
      "▁לנגן": 1762,
      "פיק": 1763,
      "▁צחקה": 1764,
      "▁התכו": 1765,
      "▁הפתעה": 1766,
      "קרה": 1767,
      "▁לסו": 1768,
      "נחש": 1769,
      "▁אליה": 1770,
      "צור": 1771,
      "▁לכלב": 1772,
      "▁יושב": 1773,
      "בפארק": 1774,
      "▁לצפות": 1775,
      "▁מתח": 1776,
      "▁בהם": 1777,
      "ליק": 1778,
      "כור": 1779,
      "▁שוא": 1780,
      "▁ירוק": 1781,
      "▁הראתה": 1782,
      "▁במטבח": 1783,
      "העץ": 1784,
      "▁הנהן": 1785,
      "▁והד": 1786,
      "ובות": 1787,
      "▁המד": 1788,
      "▁הנהנה": 1789,
      "▁הסכים": 1790,
      "▁הולך": 1791,
      "▁בשמחה": 1792,
      "▁זרק": 1793,
      "בחורה": 1794,
      "▁הודה": 1795,
      "נדנ": 1796,
      "▁כת": 1797,
      "▁קפצה": 1798,
      "▁הרפת": 1799,
      "▁נכנסה": 1800,
      "צל": 1801,
      "▁בעיר": 1802,
      "▁חזקה": 1803,
      "ציא": 1804,
      "עשה": 1805,
      "ובים": 1806,
      "ברוח": 1807,
      "צצת": 1808,
      "עון": 1809,
      "▁באותו": 1810,
      "▁נא": 1811,
      "▁סיפור": 1812,
      "▁המת": 1813,
      "זרת": 1814,
      "▁לזוז": 1815,
      "נט": 1816,
      "▁חלקו": 1817,
      "▁להביא": 1818,
      "▁לשת": 1819,
      "▁ולהיות": 1820,
      "▁שיהיה": 1821,
      "ביע": 1822,
      "▁במורד": 1823,
      "כתב": 1824,
      "אט": 1825,
      "▁לעזרה": 1826,
      "ביער": 1827,
      "▁עצים": 1828,
      "▁נעשה": 1829,
      "▁לשים": 1830,
      "גיד": 1831,
      "▁האבן": 1832,
      "▁ולעשות": 1833,
      "כמו": 1834,
      "▁בדיוק": 1835,
      "אתם": 1836,
      "פסל": 1837,
      "סיר": 1838,
      "▁עק": 1839,
      "רוחת": 1840,
      "▁הקיר": 1841,
      "הדוב": 1842,
      "הל": 1843,
      "חל": 1844,
      "▁והר": 1845,
      "▁מהמ": 1846,
      "לווי": 1847,
      "▁התפוח": 1848,
      "קודה": 1849,
      "שית": 1850,
      "▁תה": 1851,
      "▁הבאה": 1852,
      "▁מחיי": 1853,
      "▁מבול": 1854,
      "הו": 1855,
      "פשר": 1856,
      "אוקיי": 1857,
      "▁שיר": 1858,
      "▁להיכנס": 1859,
      "הילדים": 1860,
      "▁השתמש": 1861,
      "▁להרים": 1862,
      "גלל": 1863,
      "זרים": 1864,
      "▁וברח": 1865,
      "ונ": 1866,
      "▁אר": 1867,
      "▁ממש": 1868,
      "רגשת": 1869,
      "חוץ": 1870,
      "קופ": 1871,
      "▁ללבוש": 1872,
      "▁באוויר": 1873,
      "▁הפסי": 1874,
      "פיה": 1875,
      "▁אליהם": 1876,
      "▁התעור": 1877,
      "סקר": 1878,
      "▁מלוכל": 1879,
      "אלה": 1880,
      "▁נפתח": 1881,
      "פחתו": 1882,
      "▁אדם": 1883,
      "▁גלידה": 1884,
      "בדה": 1885,
      "▁מקו": 1886,
      "מרי": 1887,
      "▁הביטה": 1888,
      "ולה": 1889,
      "▁חור": 1890,
      "▁פשוט": 1891,
      "▁סבל": 1892,
      "שיג": 1893,
      "▁לרדת": 1894,
      "▁ושאלה": 1895,
      "▁רוע": 1896,
      "▁תקוע": 1897,
      "ובן": 1898,
      "▁לאנשים": 1899,
      "▁נשא": 1900,
      "▁למקום": 1901,
      "▁הדג": 1902,
      "אב": 1903,
      "סיים": 1904,
      "▁הדרך": 1905,
      "וכ": 1906,
      "▁החור": 1907,
      "▁המג": 1908,
      "▁הצפרדע": 1909,
      "▁העכבר": 1910,
      "▁לספר": 1911,
      "▁חיפש": 1912,
      "▁ושאל": 1913,
      "▁החרק": 1914,
      "▁התיק": 1915,
      "נסה": 1916,
      "▁ומו": 1917,
      "▁וספוט": 1918,
      "▁הכר": 1919,
      "▁וחזק": 1920,
      "▁הציפורים": 1921,
      "אוי": 1922,
      "▁לפגוע": 1923,
      "בטי": 1924,
      "▁ונוצץ": 1925,
      "החרק": 1926,
      "▁בוכה": 1927,
      "▁צעק": 1928,
      "תראי": 1929,
      "מיכה": 1930,
      "▁במהירות": 1931,
      "רט": 1932,
      "▁גשם": 1933,
      "▁להיזהר": 1934,
      "▁בקול": 1935,
      "תראו": 1936,
      "החברים": 1937,
      "צע": 1938,
      "▁צי": 1939,
      "▁מיוחדת": 1940,
      "▁ליהנות": 1941,
      "▁ונח": 1942,
      "▁תפס": 1943,
      "▁לגדול": 1944,
      "▁החל": 1945,
      "▁הקר": 1946,
      "▁ועשו": 1947,
      "▁ידידותי": 1948,
      "הנה": 1949,
      "▁אח": 1950,
      "▁בגלל": 1951,
      "דיים": 1952,
      "▁הבין": 1953,
      "▁נוצץ": 1954,
      "ועות": 1955,
      "▁תפוח": 1956,
      "▁תוכנית": 1957,
      "▁ממנו": 1958,
      "▁ההוא": 1959,
      "▁גדולות": 1960,
      "חם": 1961,
      "▁הקסם": 1962,
      "▁שונים": 1963,
      "▁ענק": 1964,
      "ליכה": 1965,
      "לפון": 1966,
      "▁הבר": 1967,
      "▁עבודה": 1968,
      "פרפר": 1969,
      "טיס": 1970,
      "▁ורץ": 1971,
      "▁וראו": 1972,
      "▁בזהירות": 1973,
      "▁עייף": 1974,
      "▁להשיג": 1975,
      "▁קטנים": 1976,
      "טומי": 1977,
      "בובו": 1978,
      "▁והבי": 1979,
      "פא": 1980,
      "▁ונתן": 1981,
      "▁צל": 1982,
      "▁עושים": 1983,
      "▁בקופסה": 1984,
      "▁ששיחק": 1985,
      "▁מהם": 1986,
      "רררר": 1987,
      "ובוט": 1988,
      "▁המיוחד": 1989,
      "וטים": 1990,
      "▁החי": 1991,
      "▁והס": 1992,
      "▁מהעץ": 1993,
      "▁פגשה": 1994,
      "סיכה": 1995,
      "סתובב": 1996,
      "▁מצטערים": 1997,
      "▁וחייכה": 1998,
      "כביש": 1999,
      "▁נג": 2000,
      "פרח": 2001,
      "▁בטוחים": 2002,
      "▁טיפס": 2003,
      "▁אכפת": 2004,
      "כנה": 2005,
      "כתה": 2006,
      "▁קל": 2007,
      "▁בלגן": 2008,
      "▁למיטה": 2009,
      "לטים": 2010,
      "▁תמונות": 2011,
      "▁למקס": 2012,
      "בינה": 2013,
      "▁נהנה": 2014,
      "▁תאו": 2015,
      "▁דייזי": 2016,
      "פרו": 2017,
      "ניב": 2018,
      "▁להפוך": 2019,
      "▁ולצ": 2020,
      "▁לביתו": 2021,
      "▁שקעה": 2022,
      "▁הודתה": 2023,
      "▁עז": 2024,
      "▁סבתא": 2025,
      "▁כאשר": 2026,
      "▁לשם": 2027,
      "▁וכוע": 2028,
      "▁מנסה": 2029,
      "אול": 2030,
      "▁מרגי": 2031,
      "▁מכוניות": 2032,
      "▁בחד": 2033,
      "▁רח": 2034,
      "▁עלים": 2035,
      "▁נחמדים": 2036,
      "▁מדהים": 2037,
      "▁ותמיד": 2038,
      "▁שחה": 2039,
      "מוך": 2040,
      "▁לבקר": 2041,
      "▁מספיק": 2042,
      "▁בטוחה": 2043,
      "▁סיימו": 2044,
      "▁פתאום": 2045,
      "ליפה": 2046,
      "טיף": 2047,
      "פינה": 2048,
      "▁הפרחים": 2049,
      "סקרס": 2050,
      "▁לשאול": 2051,
      "▁דלת": 2052,
      "▁חיבקו": 2053,
      "▁הפרח": 2054,
      "▁טעימים": 2055,
      "זיה": 2056,
      "כדי": 2057,
      "▁הרא": 2058,
      "ביט": 2059,
      "עיף": 2060,
      "קפי": 2061,
      "▁מאמא": 2062,
      "▁בכי": 2063,
      "▁כר": 2064,
      "ניין": 2065,
      "▁הרע": 2066,
      "▁המט": 2067,
      "▁הסנאי": 2068,
      "הרוח": 2069,
      "▁חדר": 2070,
      "▁ולראות": 2071,
      "▁וחבר": 2072,
      "כמובן": 2073,
      "לעים": 2074,
      "▁למר": 2075,
      "הבחורה": 2076,
      "▁בעץ": 2077,
      "▁טו": 2078,
      "▁צפרדע": 2079,
      "▁לעבוד": 2080,
      "כתוב": 2081,
      "▁מצטערת": 2082,
      "▁קופ": 2083,
      "▁החזי": 2084,
      "▁נהנים": 2085,
      "לוויזיה": 2086,
      "אן": 2087,
      "נגול": 2088,
      "▁שטים": 2089,
      "▁עבד": 2090,
      "▁חסר": 2091,
      "▁אחריו": 2092,
      "▁כבד": 2093,
      "▁נשאר": 2094,
      "בטח": 2095,
      "ושניהם": 2096,
      "▁שבו": 2097,
      "▁רם": 2098,
      "ניק": 2099,
      "▁לאי": 2100,
      "▁נות": 2101,
      "▁מסת": 2102,
      "בקים": 2103,
      "זוב": 2104,
      "▁בוד": 2105,
      "דימה": 2106,
      "▁שיכול": 2107,
      "▁אמיתי": 2108,
      "רץ": 2109,
      "▁לרי": 2110,
      "▁מרגיש": 2111,
      "▁בך": 2112,
      "▁נייר": 2113,
      "▁ולקחה": 2114,
      "ארנב": 2115,
      "תן": 2116,
      "▁אולי": 2117,
      "▁עזרו": 2118,
      "▁וחל": 2119,
      "▁מוכן": 2120,
      "▁לפעמים": 2121,
      "▁לחבריו": 2122,
      "▁לנוח": 2123,
      "פק": 2124,
      "פרה": 2125,
      "קול": 2126,
      "▁באגם": 2127,
      "▁מפחיד": 2128,
      "▁מופתעים": 2129,
      "▁הברווז": 2130,
      "▁כיפיים": 2131,
      "▁בזה": 2132,
      "▁בבו": 2133,
      "לוש": 2134,
      "▁האי": 2135,
      "▁במשך": 2136,
      "▁באדי": 2137,
      "▁האופניים": 2138,
      "נדנד": 2139,
      "תל": 2140,
      "חוף": 2141,
      "תם": 2142,
      "▁לארוחת": 2143,
      "▁מהח": 2144,
      "▁פרח": 2145,
      "▁שטוף": 2146,
      "▁היש": 2147,
      "▁למים": 2148,
      "שלם": 2149,
      "הצפרדע": 2150,
      "במ": 2151,
      "קאות": 2152,
      "▁רבות": 2153,
      "▁גי": 2154,
      "▁הרעש": 2155,
      "▁הקס": 2156,
      "▁ולקח": 2157,
      "▁מישהו": 2158,
      "▁מתנה": 2159,
      "דנדות": 2160,
      "▁בלוקים": 2161,
      "▁לסאם": 2162,
      "▁סיר": 2163,
      "▁ליצור": 2164,
      "▁ויצ": 2165,
      "▁והש": 2166,
      "▁שהגיע": 2167,
      "רוצה": 2168,
      "▁הזקן": 2169,
      "▁ישן": 2170,
      "▁מבריק": 2171,
      "▁וצע": 2172,
      "בלב": 2173,
      "▁ומפוחד": 2174,
      "▁אמיצה": 2175,
      "▁ונתנה": 2176,
      "נבו": 2177,
      "▁ברו": 2178,
      "אוכל": 2179,
      "▁מהא": 2180,
      "עוגה": 2181,
      "▁זקו": 2182,
      "קרר": 2183,
      "▁הודו": 2184,
      "רצ": 2185,
      "▁נק": 2186,
      "▁ומפ": 2187,
      "▁שאהבה": 2188,
      "▁המשיכו": 2189,
      "גייה": 2190,
      "קת": 2191,
      "▁היד": 2192,
      "▁למכונית": 2193,
      "▁לבשה": 2194,
      "טירה": 2195,
      "▁הבלגן": 2196,
      "בתוך": 2197,
      "כבים": 2198,
      "מוע": 2199,
      "▁איפה": 2200,
      "▁בכו": 2201,
      "נון": 2202,
      "בעות": 2203,
      "▁מודאג": 2204,
      "▁מהב": 2205,
      "▁חתי": 2206,
      "כונה": 2207,
      "בכל": 2208,
      "▁ומאושר": 2209,
      "▁לדעת": 2210,
      "▁המשפחה": 2211,
      "נוח": 2212,
      "▁השמלה": 2213,
      "▁המפתח": 2214,
      "בטיה": 2215,
      "▁רטוב": 2216,
      "ליו": 2217,
      "▁קרא": 2218,
      "בלה": 2219,
      "בלו": 2220,
      "בוגר": 2221,
      "▁וחשב": 2222,
      "▁הכינה": 2223,
      "הגיע": 2224,
      "פפה": 2225,
      "▁לילד": 2226,
      "▁בפעם": 2227,
      "▁האנשים": 2228,
      "▁וחייך": 2229,
      "▁השמיים": 2230,
      "▁הפס": 2231,
      "▁התקרב": 2232,
      "▁מוצא": 2233,
      "▁יודעת": 2234,
      "קדח": 2235,
      "▁אבן": 2236,
      "▁בור": 2237,
      "▁לעלות": 2238,
      "ציפורים": 2239,
      "▁ומצא": 2240,
      "▁וחש": 2241,
      "וץ": 2242,
      "לעת": 2243,
      "▁רב": 2244,
      "נין": 2245,
      "▁למש": 2246,
      "▁העולם": 2247,
      "▁ויד": 2248,
      "אפילו": 2249,
      "▁שאר": 2250,
      "▁לנס": 2251,
      "מכונית": 2252,
      "▁להו": 2253,
      "▁רצים": 2254,
      "▁בסופו": 2255,
      "▁סי": 2256,
      "▁עצר": 2257,
      "▁והתחילו": 2258,
      "▁וקפץ": 2259,
      "הכ": 2260,
      "▁בתו": 2261,
      "▁חמה": 2262,
      "▁פירות": 2263,
      "▁הגבוה": 2264,
      "עלם": 2265,
      "ציאה": 2266,
      "אפשר": 2267,
      "גוז": 2268,
      "נר": 2269,
      "פף": 2270,
      "▁האדמה": 2271,
      "▁הדגים": 2272,
      "▁שובב": 2273,
      "▁לנסוע": 2274,
      "▁נהיה": 2275,
      "▁למסיבה": 2276,
      "▁לבש": 2277,
      "זן": 2278,
      "▁עוב": 2279,
      "ותה": 2280,
      "איך": 2281,
      "▁הבינה": 2282,
      "גרום": 2283,
      "▁עייפים": 2284,
      "ראיתי": 2285,
      "▁ומשחק": 2286,
      "גות": 2287,
      "▁מגיע": 2288,
      "▁ענף": 2289,
      "עמון": 2290,
      "▁לברוח": 2291,
      "▁פין": 2292,
      "בין": 2293,
      "▁התמונה": 2294,
      "טל": 2295,
      "▁הבו": 2296,
      "▁קסם": 2297,
      "▁צבע": 2298,
      "▁שאהבו": 2299,
      "▁הנח": 2300,
      "▁לשמוע": 2301,
      "▁לחוף": 2302,
      "▁הפסיק": 2303,
      "▁החברה": 2304,
      "▁נשבר": 2305,
      "נא": 2306,
      "נע": 2307,
      "▁היער": 2308,
      "▁עבור": 2309,
      "ניה": 2310,
      "▁זכ": 2311,
      "▁התק": 2312,
      "▁בצד": 2313,
      "▁וליהנות": 2314,
      "אשר": 2315,
      "▁מהיום": 2316,
      "▁יי": 2317,
      "ייד": 2318,
      "▁המצ": 2319,
      "▁האגם": 2320,
      "▁איבד": 2321,
      "▁נראתה": 2322,
      "▁הקשיבה": 2323,
      "▁תאומים": 2324,
      "▁ומה": 2325,
      "▁נרגשת": 2326,
      "▁החכם": 2327,
      "ופה": 2328,
      "גלות": 2329,
      "▁לרעוד": 2330,
      "▁נכנסו": 2331,
      "▁להחזיר": 2332,
      "בוע": 2333,
      "ליג": 2334,
      "▁הפכה": 2335,
      "▁זאת": 2336,
      "פתעה": 2337,
      "צוף": 2338,
      "▁עכבר": 2339,
      "▁קסום": 2340,
      "ומאותו": 2341,
      "לם": 2342,
      "קנה": 2343,
      "▁אור": 2344,
      "וער": 2345,
      "▁לבוא": 2346,
      "▁פתחו": 2347,
      "▁סיפר": 2348,
      "▁השתמשה": 2349,
      "זקה": 2350,
      "תפ": 2351,
      "▁ולעזור": 2352,
      "▁החוט": 2353,
      "בורים": 2354,
      "▁בצעצועים": 2355,
      "מנם": 2356,
      "▁ספרים": 2357,
      "▁הרכבת": 2358,
      "▁עוגיות": 2359,
      "▁לרכב": 2360,
      "העכבר": 2361,
      "▁כחולה": 2362,
      "מאוחר": 2363,
      "דוב": 2364,
      "▁ישב": 2365,
      "▁העלים": 2366,
      "אחד": 2367,
      "▁מעל": 2368,
      "▁כסף": 2369,
      "▁החזיר": 2370,
      "▁המכ": 2371,
      "שרת": 2372,
      "חיק": 2373,
      "▁צבעוניים": 2374,
      "פריים": 2375,
      "ייס": 2376,
      "▁האריה": 2377,
      "▁ומש": 2378,
      "▁התע": 2379,
      "בואים": 2380,
      "▁לצחוק": 2381,
      "▁וצחק": 2382,
      "▁ציפורים": 2383,
      "▁כוכב": 2384,
      "וחקים": 2385,
      "▁ענה": 2386,
      "▁העפיפון": 2387,
      "▁בחווה": 2388,
      "▁הספרים": 2389,
      "תמיד": 2390,
      "▁וקר": 2391,
      "▁לוק": 2392,
      "פרס": 2393,
      "▁פרו": 2394,
      "בוך": 2395,
      "טובוס": 2396,
      "▁נעלמה": 2397,
      "▁הטוב": 2398,
      "דברים": 2399,
      "לס": 2400,
      "▁בים": 2401,
      "באדי": 2402,
      "▁חיה": 2403,
      "▁מזל": 2404,
      "עשו": 2405,
      "▁ושמח": 2406,
      "הההה": 2407,
      "▁מתוק": 2408,
      "▁לנה": 2409,
      "▁לאסוף": 2410,
      "▁השק": 2411,
      "כשטים": 2412,
      "▁וחיבקה": 2413,
      "▁ובי": 2414,
      "רוקה": 2415,
      "▁האור": 2416,
      "▁משאית": 2417,
      "אין": 2418,
      "▁קיוו": 2419,
      "שיתוף": 2420,
      "איש": 2421,
      "▁מרי": 2422,
      "הינשוף": 2423,
      "בוצה": 2424,
      "▁שאנחנו": 2425,
      "▁מימי": 2426,
      "וג": 2427,
      "▁אדו": 2428,
      "▁נשי": 2429,
      "▁הכיסא": 2430,
      "▁מגניב": 2431,
      "▁מלאה": 2432,
      "▁גדל": 2433,
      "ננים": 2434,
      "▁עסו": 2435,
      "▁דגים": 2436,
      "ביל": 2437,
      "זא": 2438,
      "זים": 2439,
      "▁התו": 2440,
      "▁הנדנדות": 2441,
      "הדגים": 2442,
      "הצילו": 2443,
      "▁ומצאו": 2444,
      "טף": 2445,
      "▁הכחולה": 2446,
      "▁אדיב": 2447,
      "▁כועס": 2448,
      "▁לריב": 2449,
      "דג": 2450,
      "▁הלי": 2451,
      "▁אנו": 2452,
      "▁גאים": 2453,
      "▁להגיד": 2454,
      "▁מוסר": 2455,
      "▁עיניו": 2456,
      "▁כעסה": 2457,
      "▁נופף": 2458,
      "▁אש": 2459,
      "▁ניגש": 2460,
      "▁שומ": 2461,
      "▁בשבילו": 2462,
      "טפה": 2463,
      "▁הופי": 2464,
      "▁אס": 2465,
      "און": 2466,
      "▁להליכה": 2467,
      "▁בילי": 2468,
      "▁זכר": 2469,
      "▁ושוב": 2470,
      "▁דחף": 2471,
      "▁לשתות": 2472,
      "▁מלוכלך": 2473,
      "תלתול": 2474,
      "▁הרח": 2475,
      "▁מרוצה": 2476,
      "רציתי": 2477,
      "▁ולל": 2478,
      "▁הגלידה": 2479,
      "▁פניו": 2480,
      "אמה": 2481,
      "▁האחר": 2482,
      "▁בעלי": 2483,
      "▁מחבואים": 2484,
      "מלים": 2485,
      "▁אמה": 2486,
      "אוג": 2487,
      "▁וחיפ": 2488,
      "▁ועשה": 2489,
      "▁ברווז": 2490,
      "אכ": 2491,
      "▁רכה": 2492,
      "▁החבל": 2493,
      "רוס": 2494,
      "▁התקר": 2495,
      "▁העצים": 2496,
      "▁הסתוב": 2497,
      "▁לספוט": 2498,
      "▁לשלום": 2499,
      "▁המטוס": 2500,
      "▁ביס": 2501,
      "▁הכיף": 2502,
      "▁מחאו": 2503,
      "▁ולהת": 2504,
      "▁שחשוב": 2505,
      "▁בראשו": 2506,
      "ביי": 2507,
      "ולדת": 2508,
      "▁שלהיות": 2509,
      "▁נור": 2510,
      "▁דא": 2511,
      "▁הפי": 2512,
      "לגל": 2513,
      "▁קופסת": 2514,
      "רוך": 2515,
      "▁השלג": 2516,
      "▁הפעם": 2517,
      "▁שהשמש": 2518,
      "▁החדשים": 2519,
      "▁ההולדת": 2520,
      "▁ירד": 2521,
      "▁הסכימו": 2522,
      "מט": 2523,
      "ננה": 2524,
      "▁וית": 2525,
      "▁להרפתקה": 2526,
      "▁הרג": 2527,
      "ריות": 2528,
      "תיים": 2529,
      "▁השיר": 2530,
      "▁לשמח": 2531,
      "▁סגול": 2532,
      "▁הצבע": 2533,
      "יוך": 2534,
      "לאחר": 2535,
      "▁בחול": 2536,
      "▁ושניהם": 2537,
      "▁דיברו": 2538,
      "האו": 2539,
      "▁שזו": 2540,
      "▁הירוק": 2541,
      "▁ענתה": 2542,
      "ותי": 2543,
      "▁והני": 2544,
      "▁הצל": 2545,
      "▁זז": 2546,
      "▁עדין": 2547,
      "עיר": 2548,
      "▁ער": 2549,
      "▁קשת": 2550,
      "יפול": 2551,
      "מימי": 2552,
      "▁וחכם": 2553,
      "▁משע": 2554,
      "▁שאני": 2555,
      "▁בייש": 2556,
      "הייתי": 2557,
      "▁לאיש": 2558,
      "▁נשבה": 2559,
      "▁האחרות": 2560,
      "ען": 2561,
      "▁שלפעמים": 2562,
      "▁חמו": 2563,
      "▁נדי": 2564,
      "▁להסתובב": 2565,
      "בון": 2566,
      "▁יוצא": 2567,
      "▁ביתו": 2568,
      "▁במשחק": 2569,
      "▁ורק": 2570,
      "ליה": 2571,
      "▁חום": 2572,
      "▁החוף": 2573,
      "▁ואנה": 2574,
      "▁הקול": 2575,
      "רקה": 2576,
      "▁בעולם": 2577,
      "▁הנדנדה": 2578,
      "▁שונה": 2579,
      "▁התרגשו": 2580,
      "▁בגן": 2581,
      "מיץ": 2582,
      "ועד": 2583,
      "▁לעולם": 2584,
      "סומה": 2585,
      "שיט": 2586,
      "▁בכתה": 2587,
      "▁ומצאה": 2588,
      "▁טעימה": 2589,
      "▁פגע": 2590,
      "שיחקו": 2591,
      "סיך": 2592,
      "זיז": 2593,
      "האנשים": 2594,
      "▁נוכל": 2595,
      "▁אכלה": 2596,
      "▁צעקה": 2597,
      "▁שקט": 2598,
      "פג": 2599,
      "▁לאגם": 2600,
      "▁סירה": 2601,
      "▁המגדל": 2602,
      "▁ידיים": 2603,
      "▁ופתח": 2604,
      "זל": 2605,
      "כיר": 2606,
      "▁הפנים": 2607,
      "▁ושם": 2608,
      "▁וידי": 2609,
      "הדג": 2610,
      "▁כעס": 2611,
      "לשחק": 2612,
      "▁בלה": 2613,
      "מאז": 2614,
      "▁החזיקה": 2615,
      "כיף": 2616,
      "▁הבלון": 2617,
      "קוד": 2618,
      "▁לגלות": 2619,
      "▁וכלב": 2620,
      "ופים": 2621,
      "משחק": 2622,
      "▁קפצו": 2623,
      "▁להפסיק": 2624,
      "יניים": 2625,
      "פתח": 2626,
      "▁ואה": 2627,
      "▁וגם": 2628,
      "▁מסיבה": 2629,
      "ורו": 2630,
      "▁נבח": 2631,
      "מינה": 2632,
      "▁העלה": 2633,
      "▁לגן": 2634,
      "▁נתנו": 2635,
      "הסנאי": 2636,
      "▁מסתכלים": 2637,
      "▁עמוק": 2638,
      "משיך": 2639,
      "▁שרו": 2640,
      "▁החלה": 2641,
      "תיזהר": 2642,
      "▁התר": 2643,
      "▁ורך": 2644,
      "למד": 2645,
      "▁שגם": 2646,
      "▁מיל": 2647,
      "▁למס": 2648,
      "▁לקטוף": 2649,
      "▁והלכה": 2650,
      "כתי": 2651,
      "ואני": 2652,
      "נוזא": 2653,
      "▁לעזוב": 2654,
      "▁תפוחים": 2655,
      "▁עצמו": 2656,
      "חשב": 2657,
      "▁ידו": 2658,
      "▁קור": 2659,
      "▁החזיק": 2660,
      "▁וחזרו": 2661,
      "▁נשמע": 2662,
      "▁מסוכן": 2663,
      "▁הבחין": 2664,
      "▁שחו": 2665,
      "▁מהי": 2666,
      "▁קראה": 2667,
      "▁החלון": 2668,
      "▁הצבעים": 2669,
      "ודר": 2670,
      "▁חייבים": 2671,
      "קוף": 2672,
      "הגברת": 2673,
      "▁מחייכת": 2674,
      "▁שום": 2675,
      "וביל": 2676,
      "תינוק": 2677,
      "▁שהצ": 2678,
      "▁להחזיק": 2679,
      "כנים": 2680,
      "סבתא": 2681,
      "▁הכביש": 2682,
      "▁במעלה": 2683,
      "▁וניסתה": 2684,
      "לחם": 2685,
      "▁סקרנית": 2686,
      "▁הופתעו": 2687,
      "הזקן": 2688,
      "▁התעורר": 2689,
      "כס": 2690,
      "פית": 2691,
      "▁שטום": 2692,
      "▁במר": 2693,
      "▁בני": 2694,
      "יפרון": 2695,
      "▁ליער": 2696,
      "▁האחור": 2697,
      "▁נהנתה": 2698,
      "▁צהוב": 2699,
      "▁הסכימה": 2700,
      "▁נקודה": 2701,
      "▁לשמיים": 2702,
      "דינות": 2703,
      "רופא": 2704,
      "ערב": 2705,
      "▁לדחוף": 2706,
      "▁נתק": 2707,
      "▁בקבוק": 2708,
      "▁תיזהר": 2709,
      "▁הבחינה": 2710,
      "▁המתנה": 2711,
      "▁גבעה": 2712,
      "▁אותן": 2713,
      "▁ואני": 2714,
      "▁הגשם": 2715,
      "▁מחבק": 2716,
      "▁לחברה": 2717,
      "בעו": 2718,
      "מנה": 2719,
      "▁ודי": 2720,
      "▁מסי": 2721,
      "▁החיים": 2722,
      "▁ואדום": 2723,
      "▁לחתוך": 2724,
      "▁לקש": 2725,
      "▁טובות": 2726,
      "▁העיר": 2727,
      "▁משת": 2728,
      "טרייה": 2729,
      "▁חיפשה": 2730,
      "פצו": 2731,
      "▁שמלה": 2732,
      "▁הכפתור": 2733,
      "▁הפיל": 2734,
      "▁מבולבל": 2735,
      "▁לאבא": 2736,
      "▁הבובות": 2737,
      "והציפור": 2738,
      "▁שכח": 2739,
      "▁השתמשו": 2740,
      "מולי": 2741,
      "פנים": 2742,
      "▁צפה": 2743,
      "▁ואכלו": 2744,
      "▁לחו": 2745,
      "▁משפחה": 2746,
      "▁שלילי": 2747,
      "▁להתנדנד": 2748,
      "▁ואהב": 2749,
      "▁ביום": 2750,
      "▁בדרך": 2751,
      "ליל": 2752,
      "▁טס": 2753,
      "▁עלול": 2754,
      "▁כלום": 2755,
      "▁הבגדים": 2756,
      "▁ללמד": 2757,
      "עימה": 2758,
      "▁והחליט": 2759,
      "גברת": 2760,
      "מך": 2761,
      "▁זור": 2762,
      "▁הלילה": 2763,
      "▁בכה": 2764,
      "▁ימים": 2765,
      "▁טיפש": 2766,
      "▁להציל": 2767,
      "▁נפתחה": 2768,
      "▁מהש": 2769,
      "ראית": 2770,
      "▁שהמ": 2771,
      "▁לספור": 2772,
      "▁השיער": 2773,
      "▁בודד": 2774,
      "באה": 2775,
      "דייזי": 2776,
      "רטן": 2777,
      "▁מחוץ": 2778,
      "▁הרגל": 2779,
      "▁והתח": 2780,
      "▁לבשל": 2781,
      "▁התגלגל": 2782,
      "▁הזנב": 2783,
      "▁יפהפה": 2784,
      "▁בתורות": 2785,
      "▁המשיכה": 2786,
      "▁הנייר": 2787,
      "קבוק": 2788,
      "▁המקום": 2789,
      "▁תורות": 2790,
      "גוש": 2791,
      "▁יפות": 2792,
      "ייני": 2793,
      "ביחד": 2794,
      "▁להיראות": 2795,
      "גב": 2796,
      "הסירה": 2797,
      "▁לאו": 2798,
      "▁אריה": 2799,
      "▁שאם": 2800,
      "▁שחור": 2801,
      "▁ידה": 2802,
      "ריף": 2803,
      "ריש": 2804,
      "▁הדואר": 2805,
      "▁אחרת": 2806,
      "▁הצליחה": 2807,
      "▁סיפרה": 2808,
      "▁המרק": 2809,
      "המשפחה": 2810,
      "ורך": 2811,
      "▁גור": 2812,
      "▁סנאי": 2813,
      "ירפי": 2814,
      "▁התרגש": 2815,
      "▁ובטו": 2816,
      "▁נפלה": 2817,
      "לפעמים": 2818,
      "מץ": 2819,
      "▁האלה": 2820,
      "▁הגג": 2821,
      "גרש": 2822,
      "▁ורוד": 2823,
      "ונים": 2824,
      "▁וכל": 2825,
      "ניס": 2826,
      "פסת": 2827,
      "▁מופתעת": 2828,
      "▁רגיל": 2829,
      "▁זהירים": 2830,
      "▁הנוצץ": 2831,
      "עכבר": 2832,
      "▁שלג": 2833,
      "▁חמים": 2834,
      "▁להד": 2835,
      "נוס": 2836,
      "▁שירים": 2837,
      "▁הלקח": 2838,
      "דון": 2839,
      "▁במכונית": 2840,
      "וריד": 2841,
      "▁ודח": 2842,
      "וות": 2843,
      "▁רד": 2844,
      "▁לקופסה": 2845,
      "▁כיסא": 2846,
      "▁מחבקים": 2847,
      "▁האהובה": 2848,
      "▁ריח": 2849,
      "לולית": 2850,
      "נוזאור": 2851,
      "בקרוב": 2852,
      "▁הפה": 2853,
      "ליט": 2854,
      "מארק": 2855,
      "▁ולש": 2856,
      "▁באדמה": 2857,
      "▁לפס": 2858,
      "▁הנהר": 2859,
      "כשהגיע": 2860,
      "מצטער": 2861,
      "▁והעיפה": 2862,
      "▁והסתכלה": 2863,
      "נקי": 2864,
      "פתה": 2865,
      "▁המא": 2866,
      "▁חופ": 2867,
      "▁קצר": 2868,
      "דין": 2869,
      "▁ואדי": 2870,
      "▁האמ": 2871,
      "בדתי": 2872,
      "▁האחורית": 2873,
      "▁מולי": 2874,
      "▁עקש": 2875,
      "נוכל": 2876,
      "▁השטיח": 2877,
      "ודו": 2878,
      "▁במשהו": 2879,
      "בעלי": 2880,
      "▁מאשר": 2881,
      "הלו": 2882,
      "פיו": 2883,
      "ציר": 2884,
      "▁למו": 2885,
      "▁אלה": 2886,
      "▁שהייתה": 2887,
      "▁והילדה": 2888,
      "▁כנ": 2889,
      "▁נד": 2890,
      "▁פיה": 2891,
      "▁תר": 2892,
      "▁לחשוב": 2893,
      "▁אוצר": 2894,
      "▁הספה": 2895,
      "▁רציתי": 2896,
      "▁בענן": 2897,
      "געיל": 2898,
      "נצל": 2899,
      "▁ונוצצת": 2900,
      "הרכבת": 2901,
      "▁הצהריים": 2902,
      "▁לאיבוד": 2903,
      "וני": 2904,
      "▁שבור": 2905,
      "▁הבעלים": 2906,
      "▁לבקש": 2907,
      "▁מחייך": 2908,
      "▁בוקר": 2909,
      "▁נפלא": 2910,
      "▁הצליחו": 2911,
      "▁סיפורים": 2912,
      "▁נגמר": 2913,
      "איפה": 2914,
      "טיפים": 2915,
      "פסו": 2916,
      "יתון": 2917,
      "▁האר": 2918,
      "▁התא": 2919,
      "▁משפחתו": 2920,
      "▁הגדולים": 2921,
      "רגשים": 2922,
      "▁לגבי": 2923,
      "ויסקרס": 2924,
      "▁וסיפ": 2925,
      "▁חושבת": 2926,
      "▁לעצור": 2927,
      "▁צהריים": 2928,
      "▁הפסיקו": 2929,
      "▁בבוץ": 2930,
      "הברווז": 2931,
      "כאשר": 2932,
      "פגע": 2933,
      "▁מרק": 2934,
      "▁השעון": 2935,
      "תוק": 2936,
      "▁הגדר": 2937,
      "טיק": 2938,
      "באותו": 2939,
      "▁הניח": 2940,
      "▁החולצה": 2941,
      "▁ניגשה": 2942,
      "הט": 2943,
      "▁ערימה": 2944,
      "▁בחנות": 2945,
      "▁החברות": 2946,
      "▁הנהנו": 2947,
      "▁מזון": 2948,
      "האי": 2949,
      "למר": 2950,
      "▁הזר": 2951,
      "▁לכדור": 2952,
      "▁חיבק": 2953,
      "▁בעדינות": 2954,
      "תחתית": 2955,
      "▁עיניה": 2956,
      "▁תיק": 2957,
      "▁ואומרת": 2958,
      "▁עקב": 2959,
      "▁הן": 2960,
      "▁שייך": 2961,
      "▁עפו": 2962,
      "▁שלט": 2963,
      "ורוד": 2964,
      "▁חכמה": 2965,
      "▁והראה": 2966,
      "▁ליאו": 2967,
      "▁הקי": 2968,
      "▁ולו": 2969,
      "▁האצ": 2970,
      "▁השועל": 2971,
      "עוס": 2972,
      "▁רקדו": 2973,
      "▁הופתעה": 2974,
      "לן": 2975,
      "נש": 2976,
      "צפרדע": 2977,
      "תחלה": 2978,
      "▁דאג": 2979,
      "▁במס": 2980,
      "▁ובאה": 2981,
      "▁ממנה": 2982,
      "▁בריצה": 2983,
      "יד": 2984,
      "▁לכתוב": 2985,
      "▁שהב": 2986,
      "▁עמד": 2987,
      "▁פופ": 2988,
      "▁המכתב": 2989,
      "▁הפירות": 2990,
      "▁לבדו": 2991,
      "▁ישנו": 2992,
      "עירה": 2993,
      "ופתאום": 2994,
      "בנה": 2995,
      "נג": 2996,
      "סגו": 2997,
      "▁כוס": 2998,
      "▁חשוך": 2999,
      "▁בשקט": 3000,
      "▁לערב": 3001,
      "▁הלבנים": 3002,
      "משאית": 3003,
      "▁ישבה": 3004,
      "▁לערבב": 3005,
      "ביו": 3006,
      "כח": 3007,
      "▁ששיתוף": 3008,
      "▁מכל": 3009,
      "ולית": 3010,
      "ורג": 3011,
      "▁תא": 3012,
      "יוון": 3013,
      "▁עצבני": 3014,
      "▁התינוק": 3015,
      "▁חושבים": 3016,
      "חבריו": 3017,
      "▁אותנו": 3018,
      "▁למחרת": 3019,
      "▁לעצמו": 3020,
      "▁קיוותה": 3021,
      "▁מוצאים": 3022,
      "▁אדומים": 3023,
      "החיות": 3024,
      "▁ועל": 3025,
      "▁האש": 3026,
      "▁לביתה": 3027,
      "▁רעשים": 3028,
      "איבדתי": 3029,
      "▁להעמיד": 3030,
      "▁שפ": 3031,
      "▁כזה": 3032,
      "▁צד": 3033,
      "▁המכוניות": 3034,
      "חרר": 3035,
      "▁משנה": 3036,
      "אזל": 3037,
      "▁ושמחה": 3038,
      "סכל": 3039,
      "▁הלו": 3040,
      "▁מתחיל": 3041,
      "▁היפים": 3042,
      "▁יח": 3043,
      "▁החנות": 3044,
      "▁תופסת": 3045,
      "▁לוקח": 3046,
      "▁ורצו": 3047,
      "▁מושלם": 3048,
      "▁בסלון": 3049,
      "כבד": 3050,
      "▁העצם": 3051,
      "▁הסי": 3052,
      "▁ומע": 3053,
      "▁ולאכול": 3054,
      "▁פניה": 3055,
      "▁וגאה": 3056,
      "▁ולחלוק": 3057,
      "▁להתחרות": 3058,
      "▁ומפחיד": 3059,
      "קופסה": 3060,
      "▁מכן": 3061,
      "ברשת": 3062,
      "▁קטנות": 3063,
      "▁הסגול": 3064,
      "▁הקטנים": 3065,
      "▁תפסה": 3066,
      "▁שואלת": 3067,
      "▁ומשחקים": 3068,
      "▁חטיף": 3069,
      "▁קורה": 3070,
      "▁לבחור": 3071,
      "ראים": 3072,
      "דרגות": 3073,
      "מדים": 3074,
      "▁נפג": 3075,
      "▁העוגיות": 3076,
      "▁ידידות": 3077,
      "אומרת": 3078,
      "▁עשית": 3079,
      "▁ולקפוץ": 3080,
      "▁מרושע": 3081,
      "▁בעצמו": 3082,
      "▁מפוחדת": 3083,
      "▁במירוץ": 3084,
      "לכה": 3085,
      "מדו": 3086,
      "▁להז": 3087,
      "▁הממתקים": 3088,
      "▁וחזר": 3089,
      "רגל": 3090,
      "▁צעיר": 3091,
      "הרבה": 3092,
      "פחתה": 3093,
      "▁קיבלה": 3094,
      "▁קסמים": 3095,
      "לטום": 3096,
      "▁מחר": 3097,
      "▁הינשוף": 3098,
      "מילי": 3099,
      "▁עצרה": 3100,
      "▁עצמה": 3101,
      "▁העגלה": 3102,
      "▁שואל": 3103,
      "גת": 3104,
      "וים": 3105,
      "טייק": 3106,
      "▁שיו": 3107,
      "▁וגר": 3108,
      "▁יער": 3109,
      "▁ספסל": 3110,
      "גיש": 3111,
      "תולעת": 3112,
      "▁העלי": 3113,
      "▁לבוב": 3114,
      "▁עוזר": 3115,
      "▁הריח": 3116,
      "▁כחולים": 3117,
      "▁הדובי": 3118,
      "▁טומי": 3119,
      "אנשים": 3120,
      "אדם": 3121,
      "ספר": 3122,
      "תך": 3123,
      "▁לילדה": 3124,
      "▁ליפול": 3125,
      "▁מזו": 3126,
      "▁הידיים": 3127,
      "תיז": 3128,
      "▁מצאתי": 3129,
      "▁פרד": 3130,
      "▁תפחד": 3131,
      "▁להתחבא": 3132,
      "▁חמוד": 3133,
      "▁הקשת": 3134,
      "ירת": 3135,
      "▁הפרו": 3136,
      "▁מוכנה": 3137,
      "▁מפתח": 3138,
      "כשהשמש": 3139,
      "כית": 3140,
      "ללילי": 3141,
      "צעצועים": 3142,
      "▁לחד": 3143,
      "▁לילדים": 3144,
      "מישהו": 3145,
      "▁סיים": 3146,
      "ביעה": 3147,
      "והר": 3148,
      "▁אחרות": 3149,
      "▁ארוכה": 3150,
      "▁וססגו": 3151,
      "נצח": 3152,
      "▁בדשא": 3153,
      "▁וברחו": 3154,
      "▁ולמטה": 3155,
      "▁הישן": 3156,
      "▁זכרה": 3157,
      "הים": 3158,
      "ננית": 3159,
      "סנאי": 3160,
      "▁שמר": 3161,
      "▁בחי": 3162,
      "▁בבקשה": 3163,
      "אוהב": 3164,
      "▁נמצא": 3165,
      "▁ליום": 3166,
      "▁ונעשו": 3167,
      "נבים": 3168,
      "המלך": 3169,
      "▁הטעים": 3170,
      "▁בדברים": 3171,
      "▁מסודר": 3172,
      "▁סיימה": 3173,
      "▁הסתובב": 3174,
      "זכור": 3175,
      "▁בקר": 3176,
      "ותיה": 3177,
      "▁כף": 3178,
      "▁היהלום": 3179,
      "▁לאפות": 3180,
      "רוצץ": 3181,
      "כוכב": 3182,
      "▁הקן": 3183,
      "שיכו": 3184,
      "▁האח": 3185,
      "▁הדלי": 3186,
      "▁ניגן": 3187,
      "רגשות": 3188,
      "▁באמת": 3189,
      "▁גבוהה": 3190,
      "▁וסאלי": 3191,
      "▁בזנבו": 3192,
      "רררררררר": 3193,
      "כך": 3194,
      "▁הבריכה": 3195,
      "▁מהירה": 3196,
      "▁בנ": 3197,
      "ולו": 3198,
      "▁והרי": 3199,
      "▁הבקבוק": 3200,
      "ראש": 3201,
      "▁ומת": 3202,
      "▁עליי": 3203,
      "▁ועגול": 3204,
      "סרטן": 3205,
      "▁עייפה": 3206,
      "ונגל": 3207,
      "בשה": 3208,
      "כחול": 3209,
      "▁מזה": 3210,
      "▁בב": 3211,
      "▁בנו": 3212,
      "ורת": 3213,
      "וריה": 3214,
      "▁נדה": 3215,
      "עצים": 3216,
      "▁לחייך": 3217,
      "▁לחפור": 3218,
      "▁התייש": 3219,
      "מותק": 3220,
      "אגי": 3221,
      "חנה": 3222,
      "יף": 3223,
      "סל": 3224,
      "▁ממתקים": 3225,
      "▁קו": 3226,
      "▁נבה": 3227,
      "ילון": 3228,
      "▁לדאוג": 3229,
      "▁בצבעים": 3230,
      "▁יודעים": 3231,
      "▁ניגנו": 3232,
      "רס": 3233,
      "▁מארק": 3234,
      "▁יהיו": 3235,
      "▁אתם": 3236,
      "ניבה": 3237,
      "▁למשוך": 3238,
      "רקות": 3239,
      "▁הבטי": 3240,
      "▁הענק": 3241,
      "▁העבודה": 3242,
      "▁לבסוף": 3243,
      "▁תוכל": 3244,
      "פשף": 3245,
      "▁המיטה": 3246,
      "▁נסעה": 3247,
      "▁הכוס": 3248,
      "▁הרפתקאות": 3249,
      "▁הפסיקה": 3250,
      "▁בחדרה": 3251,
      "מניות": 3252,
      "קדימה": 3253,
      "▁מוע": 3254,
      "▁קן": 3255,
      "▁לאן": 3256,
      "▁לשטוף": 3257,
      "▁העט": 3258,
      "▁איתנו": 3259,
      "▁ושמה": 3260,
      "▁בכלל": 3261,
      "▁ראשו": 3262,
      "▁והארנב": 3263,
      "▁מרגישים": 3264,
      "בז": 3265,
      "ויתן": 3266,
      "פני": 3267,
      "פרי": 3268,
      "▁השר": 3269,
      "▁שתי": 3270,
      "▁להר": 3271,
      "▁לשלוח": 3272,
      "▁ולת": 3273,
      "תיכות": 3274,
      "ניתי": 3275,
      "▁בחור": 3276,
      "גדלים": 3277,
      "▁כאילו": 3278,
      "▁השינה": 3279,
      "▁הרעיון": 3280,
      "▁וחשבה": 3281,
      "▁משעמם": 3282,
      "▁בגדים": 3283,
      "ובעים": 3284,
      "▁לאחר": 3285,
      "▁בשדה": 3286,
      "▁ואי": 3287,
      "▁הגברת": 3288,
      "▁הבחורה": 3289,
      "▁זהירה": 3290,
      "▁והלכו": 3291,
      "▁בעצמה": 3292,
      "▁שחי": 3293,
      "▁ויר": 3294,
      "▁במה": 3295,
      "ואה": 3296,
      "▁הצנצנת": 3297,
      "▁דו": 3298,
      "▁עצלן": 3299,
      "שוק": 3300,
      "▁הענף": 3301,
      "טון": 3302,
      "חידה": 3303,
      "▁ונפ": 3304,
      "▁בשבילה": 3305,
      "▁טיפסה": 3306,
      "▁וידידותי": 3307,
      "עבודה": 3308,
      "צרה": 3309,
      "קוב": 3310,
      "קרו": 3311,
      "▁שהיו": 3312,
      "▁במו": 3313,
      "היית": 3314,
      "▁בשי": 3315,
      "▁סוד": 3316,
      "▁ואכל": 3317,
      "▁תת": 3318,
      "ביה": 3319,
      "ביבה": 3320,
      "▁ורע": 3321,
      "חתולה": 3322,
      "▁תדאגי": 3323,
      "▁מחייכים": 3324,
      "▁נשארו": 3325,
      "▁מרגישה": 3326,
      "▁אנוכי": 3327,
      "סור": 3328,
      "▁מגדל": 3329,
      "▁להס": 3330,
      "▁להזיז": 3331,
      "▁לשבור": 3332,
      "יוד": 3333,
      "ופר": 3334,
      "▁חייבת": 3335,
      "▁הוציאה": 3336,
      "▁מדבר": 3337,
      "▁לזרוק": 3338,
      "דבר": 3339,
      "יחד": 3340,
      "מנו": 3341,
      "עליים": 3342,
      "▁הדו": 3343,
      "▁מני": 3344,
      "▁בדר": 3345,
      "ואמר": 3346,
      "▁נז": 3347,
      "▁המלך": 3348,
      "▁שימו": 3349,
      "▁חתולה": 3350,
      "▁פרצוף": 3351,
      "למעלה": 3352,
      "▁הכרטיס": 3353,
      "▁קופץ": 3354,
      "▁התקשרה": 3355,
      "חברה": 3356,
      "יג": 3357,
      "▁מגי": 3358,
      "▁אתן": 3359,
      "מיטב": 3360,
      "יישב": 3361,
      "▁שלהן": 3362,
      "▁המנ": 3363,
      "▁וחשה": 3364,
      "▁במע": 3365,
      "▁חבריה": 3366,
      "הציפורים": 3367,
      "▁אישה": 3368,
      "▁ויצא": 3369,
      "▁ועד": 3370,
      "▁להתנהג": 3371,
      "גרת": 3372,
      "▁מיץ": 3373,
      "▁וחלקו": 3374,
      "ביום": 3375,
      "נדה": 3376,
      "נפים": 3377,
      "▁אסי": 3378,
      "▁בוא": 3379,
      "▁כמיטב": 3380,
      "ליאו": 3381,
      "▁קסומה": 3382,
      "▁להשת": 3383,
      "רוקים": 3384,
      "ופסא": 3385,
      "▁השו": 3386,
      "▁הפרי": 3387,
      "האריה": 3388,
      "לעזור": 3389,
      "▁וחייכו": 3390,
      "▁כועסת": 3391,
      "▁ביישן": 3392,
      "בכ": 3393,
      "לציפור": 3394,
      "צצים": 3395,
      "ואים": 3396,
      "▁כוא": 3397,
      "▁הרך": 3398,
      "▁לעבר": 3399,
      "▁משך": 3400,
      "▁ישנה": 3401,
      "▁הוגן": 3402,
      "▁כאב": 3403,
      "עשית": 3404,
      "▁וטיפ": 3405,
      "▁בריכה": 3406,
      "מאוד": 3407,
      "▁בחדרו": 3408,
      "ושע": 3409,
      "צחקו": 3410,
      "▁שגר": 3411,
      "ולים": 3412,
      "▁יקרה": 3413,
      "▁גס": 3414,
      "מאה": 3415,
      "▁צר": 3416,
      "▁צוע": 3417,
      "▁לשולחן": 3418,
      "▁סל": 3419,
      "מהות": 3420,
      "▁שמן": 3421,
      "▁תש": 3422,
      "▁הארון": 3423,
      "▁חזקים": 3424,
      "▁ונראה": 3425,
      "▁הולכת": 3426,
      "▁אדמה": 3427,
      "▁יבש": 3428,
      "ועית": 3429,
      "▁מהת": 3430,
      "▁לחיות": 3431,
      "▁שאלו": 3432,
      "▁חיכה": 3433,
      "▁לפחד": 3434,
      "▁מספר": 3435,
      "המורה": 3436,
      "המשאית": 3437,
      "פרונות": 3438,
      "פגטי": 3439,
      "▁שכולם": 3440,
      "▁וצה": 3441,
      "▁מטוס": 3442,
      "▁השמיכה": 3443,
      "▁ונפל": 3444,
      "▁איבדה": 3445,
      "▁עבדה": 3446,
      "▁אדיבים": 3447,
      "▁הכוכב": 3448,
      "החו": 3449,
      "טובה": 3450,
      "יהם": 3451,
      "צאו": 3452,
      "▁למיה": 3453,
      "▁אפור": 3454,
      "▁ששיחקו": 3455,
      "▁מילים": 3456,
      "▁בהירה": 3457,
      "▁היטב": 3458,
      "▁להש": 3459,
      "▁החלו": 3460,
      "▁השבור": 3461,
      "▁הערב": 3462,
      "▁ומלא": 3463,
      "▁איטי": 3464,
      "▁האוצר": 3465,
      "▁חוט": 3466,
      "הסלע": 3467,
      "▁חולה": 3468,
      "▁מתוקים": 3469,
      "▁צהובה": 3470,
      "▁הכרית": 3471,
      "▁הראש": 3472,
      "באו": 3473,
      "המים": 3474,
      "נוב": 3475,
      "▁לזמן": 3476,
      "▁מבוגר": 3477,
      "▁בדי": 3478,
      "▁ציירה": 3479,
      "▁צנצנת": 3480,
      "▁החם": 3481,
      "▁החלק": 3482,
      "▁הרובוט": 3483,
      "דוף": 3484,
      "שבת": 3485,
      "▁מעבר": 3486,
      "בריק": 3487,
      "▁בראשה": 3488,
      "▁עמוקה": 3489,
      "▁סבלני": 3490,
      "חשבתי": 3491,
      "▁מקרוב": 3492,
      "▁מפלצת": 3493,
      "ואתה": 3494,
      "▁חיר": 3495,
      "ובי": 3496,
      "▁עלו": 3497,
      "מיי": 3498,
      "נועה": 3499,
      "פיס": 3500,
      "▁מומו": 3501,
      "▁ושמחים": 3502,
      "▁מחלי": 3503,
      "▁ידעתי": 3504,
      "▁הטלפון": 3505,
      "▁בפני": 3506,
      "▁גרמה": 3507,
      "▁טיפשי": 3508,
      "▁ראשון": 3509,
      "▁מטבע": 3510,
      "▁רועש": 3511,
      "במקום": 3512,
      "מתי": 3513,
      "פסה": 3514,
      "▁ללוסי": 3515,
      "▁אקדח": 3516,
      "▁והילד": 3517,
      "▁בשר": 3518,
      "▁והק": 3519,
      "▁המפלצת": 3520,
      "▁לחם": 3521,
      "▁חיכו": 3522,
      "▁לפגוש": 3523,
      "▁הוציא": 3524,
      "▁ראיתי": 3525,
      "▁אדיבה": 3526,
      "▁מפחדים": 3527,
      "▁לשתף": 3528,
      "צועה": 3529,
      "▁אהיה": 3530,
      "▁בובה": 3531,
      "ולש": 3532,
      "▁טי": 3533,
      "ריד": 3534,
      "▁שיער": 3535,
      "▁שהציפור": 3536,
      "▁נשברה": 3537,
      "גוג": 3538,
      "▁הניחה": 3539,
      "▁דרכו": 3540,
      "וכך": 3541,
      "תפסיק": 3542,
      "▁ודיברו": 3543,
      "סך": 3544,
      "סן": 3545,
      "▁אנ": 3546,
      "▁מכתב": 3547,
      "ורב": 3548,
      "▁רמי": 3549,
      "ליחה": 3550,
      "בלון": 3551,
      "▁הכבוד": 3552,
      "▁משאלה": 3553,
      "▁רעים": 3554,
      "▁ללעוס": 3555,
      "בעת": 3556,
      "קלות": 3557,
      "הצעצוע": 3558,
      "▁בפה": 3559,
      "▁עבר": 3560,
      "ותים": 3561,
      "ורר": 3562,
      "▁צייר": 3563,
      "▁צורות": 3564,
      "▁המסיבה": 3565,
      "▁הקרח": 3566,
      "▁העמי": 3567,
      "▁לנמנם": 3568,
      "▁נוס": 3569,
      "▁נוצצת": 3570,
      "▁מטופ": 3571,
      "הנמלה": 3572,
      "▁מקווה": 3573,
      "▁וחבריה": 3574,
      "▁משתמש": 3575,
      "גורה": 3576,
      "קוע": 3577,
      "▁לדו": 3578,
      "▁להמשיך": 3579,
      "▁לוח": 3580,
      "▁השלט": 3581,
      "▁מאושרות": 3582,
      "▁וחם": 3583,
      "▁שהכלב": 3584,
      "▁ויכול": 3585,
      "גרטל": 3586,
      "כבות": 3587,
      "▁כיפית": 3588,
      "▁הקשיבו": 3589,
      "▁המעיל": 3590,
      "▁זקוק": 3591,
      "פן": 3592,
      "קב": 3593,
      "▁המזו": 3594,
      "ריחה": 3595,
      "▁להילחם": 3596,
      "▁וירוק": 3597,
      "▁וברחה": 3598,
      "▁מתוסכל": 3599,
      "▁מכדי": 3600,
      "הכל": 3601,
      "קשו": 3602,
      "▁אסיר": 3603,
      "▁מראה": 3604,
      "ליסה": 3605,
      "▁חלו": 3606,
      "נוקים": 3607,
      "▁מהס": 3608,
      "סיף": 3609,
      "▁השבורה": 3610,
      "ודות": 3611,
      "▁הדרקון": 3612,
      "▁לחבריה": 3613,
      "הצעצועים": 3614,
      "▁ותפס": 3615,
      "▁הפרפר": 3616,
      "▁מצחיקים": 3617,
      "▁הכלים": 3618,
      "▁ומחאו": 3619,
      "▁מחבקת": 3620,
      "לכו": 3621,
      "קניק": 3622,
      "שבר": 3623,
      "שתה": 3624,
      "▁מאז": 3625,
      "▁ענן": 3626,
      "▁רחו": 3627,
      "ליילה": 3628,
      "▁קערה": 3629,
      "▁להק": 3630,
      "▁להגן": 3631,
      "▁ואפילו": 3632,
      "רקים": 3633,
      "▁ולשים": 3634,
      "▁שיכל": 3635,
      "▁השביל": 3636,
      "▁שאולי": 3637,
      "כנסיים": 3638,
      "מעות": 3639,
      "▁וכחול": 3640,
      "▁נראו": 3641,
      "▁בטלוויזיה": 3642,
      "▁המטבע": 3643,
      "▁להוציא": 3644,
      "גוזים": 3645,
      "▁חמוץ": 3646,
      "חותו": 3647,
      "טדי": 3648,
      "יכול": 3649,
      "להיות": 3650,
      "מאושר": 3651,
      "עול": 3652,
      "▁שג": 3653,
      "וריו": 3654,
      "▁רכבת": 3655,
      "מאחור": 3656,
      "▁לשי": 3657,
      "▁הקוב": 3658,
      "▁הקשה": 3659,
      "▁ומסו": 3660,
      "השמיים": 3661,
      "▁להתקרב": 3662,
      "געגע": 3663,
      "▁מדף": 3664,
      "▁המירוץ": 3665,
      "▁מבולגן": 3666,
      "רצה": 3667,
      "▁והייתה": 3668,
      "▁מבין": 3669,
      "▁שלולית": 3670,
      "▁והכ": 3671,
      "▁דופ": 3672,
      "▁העז": 3673,
      "שאיר": 3674,
      "▁נסער": 3675,
      "▁לוקחת": 3676,
      "גלו": 3677,
      "צן": 3678,
      "צעצוע": 3679,
      "▁ככל": 3680,
      "▁נדנדה": 3681,
      "ייכים": 3682,
      "ריץ": 3683,
      "▁תכ": 3684,
      "צרות": 3685,
      "▁חלב": 3686,
      "▁יוכל": 3687,
      "▁נהדרת": 3688,
      "▁שכחו": 3689,
      "עורר": 3690,
      "▁ועצוב": 3691,
      "▁ברחוב": 3692,
      "▁שומעים": 3693,
      "זג": 3694,
      "עס": 3695,
      "▁בכנ": 3696,
      "▁קדימה": 3697,
      "דינוזאור": 3698,
      "מונים": 3699,
      "עצור": 3700,
      "▁הסולם": 3701,
      "▁ומס": 3702,
      "▁התמונות": 3703,
      "חרחור": 3704,
      "▁הביא": 3705,
      "▁הנכון": 3706,
      "▁נפלו": 3707,
      "▁ההרפתקה": 3708,
      "קורן": 3709,
      "חוב": 3710,
      "▁לפתור": 3711,
      "▁בתי": 3712,
      "ליח": 3713,
      "▁גלגל": 3714,
      "▁צוחקים": 3715,
      "▁הדלעת": 3716,
      "▁תיבת": 3717,
      "▁להחליק": 3718,
      "▁המושב": 3719,
      "▁נשארה": 3720,
      "▁לנהוג": 3721,
      "▁הרגליים": 3722,
      "▁לפסגה": 3723,
      "והיה": 3724,
      "צחק": 3725,
      "רמי": 3726,
      "▁ובוב": 3727,
      "▁ית": 3728,
      "▁ינשוף": 3729,
      "רוז": 3730,
      "מומו": 3731,
      "▁ולנ": 3732,
      "▁זחל": 3733,
      "משפחה": 3734,
      "גלים": 3735,
      "▁ויסקרס": 3736,
      "מצע": 3737,
      "כמניות": 3738,
      "▁הצהוב": 3739,
      "▁העליון": 3740,
      "חלק": 3741,
      "כז": 3742,
      "▁עשיר": 3743,
      "יתית": 3744,
      "▁חבל": 3745,
      "▁המילים": 3746,
      "▁לחלון": 3747,
      "▁הסיר": 3748,
      "▁לקרות": 3749,
      "תוקה": 3750,
      "שוח": 3751,
      "▁ברחו": 3752,
      "▁הריעו": 3753,
      "▁שקופ": 3754,
      "▁מדהי": 3755,
      "▁מהחלון": 3756,
      "הסתכל": 3757,
      "הגשם": 3758,
      "מנים": 3759,
      "מנון": 3760,
      "קק": 3761,
      "שק": 3762,
      "▁מפה": 3763,
      "▁יקר": 3764,
      "▁החמה": 3765,
      "▁המקור": 3766,
      "▁דבש": 3767,
      "▁הלא": 3768,
      "▁רעבה": 3769,
      "▁הביצה": 3770,
      "גושם": 3771,
      "לקפוץ": 3772,
      "אהבתי": 3773,
      "▁וכועס": 3774,
      "אכיל": 3775,
      "עום": 3776,
      "פך": 3777,
      "▁לטוס": 3778,
      "▁עמדה": 3779,
      "דולי": 3780,
      "▁לשלם": 3781,
      "▁לעמוד": 3782,
      "▁לחצר": 3783,
      "ביבו": 3784,
      "▁נחש": 3785,
      "מתק": 3786,
      "▁הטובה": 3787,
      "▁חלום": 3788,
      "הדבורה": 3789,
      "▁נפגע": 3790,
      "▁ולצפות": 3791,
      "▁דאקי": 3792,
      "פסודה": 3793,
      "▁הופ": 3794,
      "▁אבנים": 3795,
      "▁בסוף": 3796,
      "ליף": 3797,
      "מרטו": 3798,
      "▁קיר": 3799,
      "יפו": 3800,
      "שיטה": 3801,
      "עוש": 3802,
      "כיסא": 3803,
      "ולילי": 3804,
      "▁הוורוד": 3805,
      "צוצרה": 3806,
      "מעט": 3807,
      "▁מכאן": 3808,
      "▁הצינור": 3809,
      "▁סבלנות": 3810,
      "▁נותן": 3811,
      "מאחורי": 3812,
      "בשים": 3813,
      "וכל": 3814,
      "מיע": 3815,
      "שינו": 3816,
      "שיטים": 3817,
      "▁עצמא": 3818,
      "▁רעבים": 3819,
      "▁הגדולות": 3820,
      "▁חדשות": 3821,
      "▁בעיה": 3822,
      "▁וצוחקים": 3823,
      "▁קראו": 3824,
      "בוקדו": 3825,
      "▁פינוק": 3826,
      "▁ורודה": 3827,
      "▁ולמצוא": 3828,
      "▁יושבת": 3829,
      "▁חתיכת": 3830,
      "למרות": 3831,
      "בדו": 3832,
      "סס": 3833,
      "▁לסי": 3834,
      "▁הירח": 3835,
      "▁כול": 3836,
      "▁והנה": 3837,
      "▁המז": 3838,
      "כווץ": 3839,
      "▁נהג": 3840,
      "▁לצד": 3841,
      "▁לדלת": 3842,
      "▁מעיל": 3843,
      "▁הופתע": 3844,
      "קדש": 3845,
      "▁החזירה": 3846,
      "▁למשפחה": 3847,
      "הההההההה": 3848,
      "▁נשימה": 3849,
      "▁מסיבת": 3850,
      "▁והריעו": 3851,
      "▁עגול": 3852,
      "▁גן": 3853,
      "▁גזר": 3854,
      "יירו": 3855,
      "▁לעבור": 3856,
      "▁תע": 3857,
      "בוקר": 3858,
      "לונה": 3859,
      "▁רצי": 3860,
      "כשפה": 3861,
      "▁ידוע": 3862,
      "▁הקטנות": 3863,
      "▁עומד": 3864,
      "▁חלקה": 3865,
      "▁ופלאפי": 3866,
      "▁חרקים": 3867,
      "▁עסוקה": 3868,
      "חרחורת": 3869,
      "זאת": 3870,
      "לטן": 3871,
      "צב": 3872,
      "▁הטירה": 3873,
      "▁אבוד": 3874,
      "▁מגעיל": 3875,
      "▁בציפור": 3876,
      "▁כפתור": 3877,
      "▁טעם": 3878,
      "נהרה": 3879,
      "ילתה": 3880,
      "▁צוד": 3881,
      "פופוט": 3882,
      "▁ליסה": 3883,
      "▁ולחקור": 3884,
      "ירתי": 3885,
      "▁העמו": 3886,
      "▁זום": 3887,
      "▁וחזרה": 3888,
      "▁מוש": 3889,
      "▁הנמלה": 3890,
      "▁בובי": 3891,
      "▁תחרות": 3892,
      "▁ועצובה": 3893,
      "▁והחליטה": 3894,
      "▁המשחקים": 3895,
      "▁והראתה": 3896,
      "▁התקרבה": 3897,
      "▁הסתובבה": 3898,
      "האמא": 3899,
      "השו": 3900,
      "▁הנחש": 3901,
      "▁לתי": 3902,
      "▁בבריכה": 3903,
      "הבי": 3904,
      "▁המורה": 3905,
      "ריק": 3906,
      "▁ולרוץ": 3907,
      "כשכש": 3908,
      "▁שאפילו": 3909,
      "▁עוגייה": 3910,
      "▁גבוהים": 3911,
      "▁כדורים": 3912,
      "▁העוגייה": 3913,
      "▁מבט": 3914,
      "תרנגול": 3915,
      "▁הצהובה": 3916,
      "▁נותנת": 3917,
      "פרסק": 3918,
      "אלא": 3919,
      "דא": 3920,
      "פתי": 3921,
      "▁שבר": 3922,
      "▁נסיכה": 3923,
      "▁סלעים": 3924,
      "▁הכפפה": 3925,
      "▁לחתיכות": 3926,
      "זיאון": 3927,
      "▁ושרה": 3928,
      "▁ועזרה": 3929,
      "שלמת": 3930,
      "▁למדוד": 3931,
      "▁הריבה": 3932,
      "▁שכחה": 3933,
      "▁נסעו": 3934,
      "▁מסתכלת": 3935,
      "▁עקשן": 3936,
      "▁לבדוק": 3937,
      "המו": 3938,
      "וטום": 3939,
      "טור": 3940,
      "מבטיה": 3941,
      "פעל": 3942,
      "▁הזי": 3943,
      "▁הלוח": 3944,
      "▁לבריכה": 3945,
      "▁ובוד": 3946,
      "▁רכ": 3947,
      "▁נכון": 3948,
      "דולפין": 3949,
      "▁צוחק": 3950,
      "דיעה": 3951,
      "▁והשת": 3952,
      "▁שאת": 3953,
      "רגן": 3954,
      "▁מוטר": 3955,
      "▁פרפר": 3956,
      "▁וקפצו": 3957,
      "▁נעלמו": 3958,
      "▁וחיבק": 3959,
      "▁וטסה": 3960,
      "לוכלך": 3961,
      "▁התעוררה": 3962,
      "▁נורא": 3963,
      "בכפר": 3964,
      "אף": 3965,
      "טע": 3966,
      "קתה": 3967,
      "▁שתו": 3968,
      "▁שנק": 3969,
      "▁בנוח": 3970,
      "▁ישר": 3971,
      "▁יעזור": 3972,
      "▁צפתה": 3973,
      "מהר": 3974,
      "▁הכסף": 3975,
      "▁האמין": 3976,
      "ודא": 3977,
      "▁משקפי": 3978,
      "▁הזקנה": 3979,
      "▁החזיקו": 3980,
      "▁גיבור": 3981,
      "▁ורקדו": 3982,
      "לל": 3983,
      "נפ": 3984,
      "פחד": 3985,
      "▁ופרחים": 3986,
      "▁פות": 3987,
      "יפש": 3988,
      "רופה": 3989,
      "ופא": 3990,
      "▁שהח": 3991,
      "▁ועף": 3992,
      "▁לסלון": 3993,
      "▁קרח": 3994,
      "▁וקופ": 3995,
      "▁בהתחלה": 3996,
      "▁לטעום": 3997,
      "▁למיין": 3998,
      "▁האהובים": 3999,
      "עדיין": 4000,
      "▁מקווים": 4001,
      "▁ויתר": 4002,
      "▁הארנק": 4003,
      "▁שקופית": 4004,
      "נדר": 4005,
      "▁לגינה": 4006,
      "▁בלון": 4007,
      "▁לשרוק": 4008,
      "כוכית": 4009,
      "▁שמקס": 4010,
      "▁ולברוח": 4011,
      "להת": 4012,
      "ופט": 4013,
      "▁במקל": 4014,
      "▁ללטף": 4015,
      "▁בעפר": 4016,
      "▁עיניים": 4017,
      "▁ממך": 4018,
      "▁מקלות": 4019,
      "▁דחפו": 4020,
      "▁ואהבה": 4021,
      "הפרפר": 4022,
      "לכל": 4023,
      "נאים": 4024,
      "▁מכו": 4025,
      "▁בזר": 4026,
      "▁גברת": 4027,
      "▁נגע": 4028,
      "▁נראים": 4029,
      "יפי": 4030,
      "▁הסל": 4031,
      "▁הלבן": 4032,
      "חוש": 4033,
      "▁מיד": 4034,
      "▁בראון": 4035,
      "▁ההודו": 4036,
      "▁וחיכה": 4037,
      "▁דחפה": 4038,
      "▁התכוו": 4039,
      "▁ענקית": 4040,
      "▁צלחת": 4041,
      "▁הצלחת": 4042,
      "גבני": 4043,
      "צריך": 4044,
      "▁לסיים": 4045,
      "▁ודו": 4046,
      "▁ירוקה": 4047,
      "▁גבינה": 4048,
      "▁פו": 4049,
      "▁להבין": 4050,
      "▁המלון": 4051,
      "▁למלא": 4052,
      "תוש": 4053,
      "▁העשיר": 4054,
      "▁זנב": 4055,
      "▁בוץ": 4056,
      "▁ועזר": 4057,
      "▁לדברים": 4058,
      "▁מפור": 4059,
      "▁נפנ": 4060,
      "▁טיפסו": 4061,
      "▁רגוע": 4062,
      "▁דיבר": 4063,
      "▁הקסום": 4064,
      "▁מהבית": 4065,
      "▁הופיע": 4066,
      "פופוטם": 4067,
      "טנים": 4068,
      "▁מזיק": 4069,
      "▁כשא": 4070,
      "▁הכת": 4071,
      "▁הסרט": 4072,
      "להקה": 4073,
      "▁ניקו": 4074,
      "▁הביטו": 4075,
      "השועל": 4076,
      "▁הנעליים": 4077,
      "בובי": 4078,
      "ירותים": 4079,
      "הקופסה": 4080,
      "▁מנוחה": 4081,
      "▁כתום": 4082,
      "מריא": 4083,
      "▁להדפיס": 4084,
      "▁חופשי": 4085,
      "דבנים": 4086,
      "הפיה": 4087,
      "נם": 4088,
      "קטה": 4089,
      "▁תחת": 4090,
      "▁אצ": 4091,
      "▁מבי": 4092,
      "▁מלך": 4093,
      "▁בול": 4094,
      "▁לאנה": 4095,
      "▁טעות": 4096,
      "מיס": 4097,
      "▁בשלג": 4098,
      "▁הצבעו": 4099,
      "▁הבטיח": 4100,
      "ודל": 4101,
      "▁שהת": 4102,
      "▁מוזיקה": 4103,
      "▁הביאה": 4104,
      "▁ההפתעה": 4105,
      "▁והציפורים": 4106,
      "▁והמשיך": 4107,
      "▁וזרק": 4108,
      "▁נאמן": 4109,
      "▁הסתובבו": 4110,
      "▁שנקרא": 4111,
      "בדרך": 4112,
      "▁אחות": 4113,
      "▁שכל": 4114,
      "▁באני": 4115,
      "▁בתיק": 4116,
      "▁עט": 4117,
      "▁חריף": 4118,
      "ניי": 4119,
      "מיש": 4120,
      "▁בשבילי": 4121,
      "ועדון": 4122,
      "▁למח": 4123,
      "▁לחגוג": 4124,
      "▁אומל": 4125,
      "▁לוותר": 4126,
      "▁לומדים": 4127,
      "▁האמת": 4128,
      "▁הבאג": 4129,
      "▁העכביש": 4130,
      "▁התפוחים": 4131,
      "▁חברות": 4132,
      "▁מוק": 4133,
      "▁להתגלגל": 4134,
      "רגשתי": 4135,
      "▁יוכלו": 4136,
      "▁אמיצים": 4137,
      "▁שנראה": 4138,
      "▁ששיחקה": 4139,
      "▁ויצאה": 4140,
      "▁המכוער": 4141,
      "▁ידידותית": 4142,
      "▁שימושי": 4143,
      "לסו": 4144,
      "מחו": 4145,
      "עקה": 4146,
      "פנוע": 4147,
      "▁מול": 4148,
      "▁ביר": 4149,
      "▁לאורך": 4150,
      "▁להאכיל": 4151,
      "▁החלב": 4152,
      "▁ולג": 4153,
      "▁אופניים": 4154,
      "▁לונה": 4155,
      "חון": 4156,
      "▁סוכר": 4157,
      "▁לדלג": 4158,
      "▁בקערה": 4159,
      "▁ובכה": 4160,
      "▁תינוק": 4161,
      "▁חולקים": 4162,
      "▁שתמיד": 4163,
      "▁לכיוון": 4164,
      "גבנייה": 4165,
      "הקוף": 4166,
      "שמחים": 4167,
      "▁אן": 4168,
      "▁והי": 4169,
      "▁וטוב": 4170,
      "▁בתח": 4171,
      "▁להצי": 4172,
      "ייכת": 4173,
      "▁סמי": 4174,
      "▁סחרחורת": 4175,
      "▁והרגיש": 4176,
      "▁ולהי": 4177,
      "▁ולגרום": 4178,
      "▁לחברו": 4179,
      "▁אושר": 4180,
      "▁ביד": 4181,
      "▁הענן": 4182,
      "▁הפאזל": 4183,
      "▁ומשך": 4184,
      "▁חיכתה": 4185,
      "▁לנשוך": 4186,
      "▁ונכנ": 4187,
      "▁הבינו": 4188,
      "פלל": 4189,
      "▁מעניין": 4190,
      "לטת": 4191,
      "▁וכועסת": 4192,
      "▁הקסמים": 4193,
      "▁מודאגת": 4194,
      "▁שומעת": 4195,
      "▁למסע": 4196,
      "▁דופן": 4197,
      "בילה": 4198,
      "שמע": 4199,
      "▁שועל": 4200,
      "▁לארנב": 4201,
      "▁ננסה": 4202,
      "▁להכ": 4203,
      "דיף": 4204,
      "▁הרשת": 4205,
      "▁לעקוב": 4206,
      "▁שמשהו": 4207,
      "שיכה": 4208,
      "▁האף": 4209,
      "▁וחמוד": 4210,
      "▁במסיבה": 4211,
      "▁ניצח": 4212,
      "אמרתי": 4213,
      "החזיר": 4214,
      "בקש": 4215,
      "▁לספק": 4216,
      "▁מירוץ": 4217,
      "▁והחזי": 4218,
      "▁ונהנים": 4219,
      "▁להפליג": 4220,
      "▁להעביר": 4221,
      "▁ואומרים": 4222,
      "▁וחברותיה": 4223,
      "▁בבוקר": 4224,
      "▁וידע": 4225,
      "▁לוקחים": 4226,
      "▁הרחוב": 4227,
      "▁וללמוד": 4228,
      "▁לקשט": 4229,
      "הבר": 4230,
      "▁לבל": 4231,
      "▁חר": 4232,
      "▁להתחיל": 4233,
      "מיטה": 4234,
      "ייג": 4235,
      "וערת": 4236,
      "תחזיר": 4237,
      "▁תלו": 4238,
      "▁הבא": 4239,
      "קראו": 4240,
      "▁באמצע": 4241,
      "▁עוזרים": 4242,
      "▁רקד": 4243,
      "▁צעד": 4244,
      "▁וטעים": 4245,
      "▁ושיחקה": 4246,
      "▁בכיס": 4247,
      "▁חתיכה": 4248,
      "▁כנפיים": 4249,
      "הנו": 4250,
      "נראה": 4251,
      "קטוס": 4252,
      "▁ים": 4253,
      "▁לכו": 4254,
      "▁שז": 4255,
      "▁מגושם": 4256,
      "▁בצרות": 4257,
      "גישה": 4258,
      "▁ולשיר": 4259,
      "▁שיח": 4260,
      "▁שימח": 4261,
      "▁אונים": 4262,
      "סימה": 4263,
      "▁זזה": 4264,
      "▁הכינו": 4265,
      "▁חלש": 4266,
      "▁סקרנים": 4267,
      "▁ריק": 4268,
      "▁המחמד": 4269,
      "שניכם": 4270,
      "▁המדף": 4271,
      "▁תרנגול": 4272,
      "מרטוט": 4273,
      "איר": 4274,
      "דק": 4275,
      "רע": 4276,
      "▁לראש": 4277,
      "▁אחיה": 4278,
      "▁שב": 4279,
      "▁מכי": 4280,
      "▁יע": 4281,
      "▁כמעט": 4282,
      "▁רקס": 4283,
      "הבית": 4284,
      "▁והז": 4285,
      "▁שמצאו": 4286,
      "▁מהכלב": 4287,
      "▁דבק": 4288,
      "▁הגן": 4289,
      "▁הפעמון": 4290,
      "▁הדגל": 4291,
      "▁שהחתול": 4292,
      "▁עליז": 4293,
      "▁לגלוש": 4294,
      "▁החליק": 4295,
      "עימים": 4296,
      "▁הושיטה": 4297,
      "▁קרים": 4298,
      "▁מדברים": 4299,
      "הספר": 4300,
      "▁פגשו": 4301,
      "מצאו": 4302,
      "▁נופל": 4303,
      "▁פסק": 4304,
      "▁ארמון": 4305,
      "▁התקרבו": 4306,
      "טח": 4307,
      "טות": 4308,
      "▁התה": 4309,
      "▁ויו": 4310,
      "▁בנה": 4311,
      "▁ככה": 4312,
      "▁רשל": 4313,
      "אווה": 4314,
      "▁קוף": 4315,
      "▁גול": 4316,
      "מיין": 4317,
      "נומה": 4318,
      "▁המסת": 4319,
      "פופי": 4320,
      "▁שמנ": 4321,
      "▁שמים": 4322,
      "▁מהע": 4323,
      "▁השער": 4324,
      "▁ומכ": 4325,
      "▁ונבח": 4326,
      "איזה": 4327,
      "▁כמוך": 4328,
      "▁להתנצל": 4329,
      "▁אחריה": 4330,
      "▁האוויר": 4331,
      "צוץ": 4332,
      "▁שקית": 4333,
      "▁ראשה": 4334,
      "▁ומאושרת": 4335,
      "▁פופול": 4336,
      "אדו": 4337,
      "אמן": 4338,
      "נדו": 4339,
      "עיה": 4340,
      "ואמא": 4341,
      "▁חנות": 4342,
      "אוורר": 4343,
      "▁גילו": 4344,
      "▁פלס": 4345,
      "יפוש": 4346,
      "▁החתלתול": 4347,
      "▁סבא": 4348,
      "▁סרט": 4349,
      "▁סביבו": 4350,
      "דיר": 4351,
      "▁הרטוב": 4352,
      "בוי": 4353,
      "▁הסרטן": 4354,
      "כשלילי": 4355,
      "שבים": 4356,
      "▁שהא": 4357,
      "אמרו": 4358,
      "▁כשאתה": 4359,
      "▁לגנוב": 4360,
      "▁מחבר": 4361,
      "▁כלבים": 4362,
      "▁הושיט": 4363,
      "▁שעזרת": 4364,
      "▁וחיבקו": 4365,
      "▁עזב": 4366,
      "▁כרטיס": 4367,
      "▁הנחמד": 4368,
      "נעול": 4369,
      "הסרטן": 4370,
      "ויל": 4371,
      "ומי": 4372,
      "וגם": 4373,
      "מנות": 4374,
      "▁לוב": 4375,
      "▁לפתע": 4376,
      "▁ושר": 4377,
      "▁ובא": 4378,
      "▁מפו": 4379,
      "▁עמדו": 4380,
      "▁לאיימי": 4381,
      "הבאג": 4382,
      "רימ": 4383,
      "▁שמצא": 4384,
      "▁מהמים": 4385,
      "▁למשחק": 4386,
      "יראט": 4387,
      "▁ביקשו": 4388,
      "▁משוע": 4389,
      "▁משכו": 4390,
      "המטוס": 4391,
      "בחנות": 4392,
      "פרדעים": 4393,
      "הדרקון": 4394,
      "▁נוח": 4395,
      "▁וסקר": 4396,
      "▁קולות": 4397,
      "▁פינוקים": 4398,
      "▁ריחם": 4399,
      "▁המוזיקה": 4400,
      "▁מהנהנים": 4401,
      "▁רדף": 4402,
      "▁התיישבו": 4403,
      "פייק": 4404,
      "ראתה": 4405,
      "תרגשות": 4406,
      "▁שית": 4407,
      "▁ועם": 4408,
      "▁הייתי": 4409,
      "▁ואתה": 4410,
      "ריסה": 4411,
      "כוש": 4412,
      "▁תפו": 4413,
      "▁הגלגל": 4414,
      "▁הפיה": 4415,
      "▁להירגע": 4416,
      "קוקים": 4417,
      "קווה": 4418,
      "▁בארון": 4419,
      "▁לסובב": 4420,
      "▁הגינה": 4421,
      "כרית": 4422,
      "▁צעקו": 4423,
      "▁ולהקשיב": 4424,
      "▁שעזר": 4425,
      "לטנית": 4426,
      "▁לזחול": 4427,
      "▁זרקה": 4428,
      "צעק": 4429,
      "▁ונחמד": 4430,
      "▁והביטו": 4431,
      "▁גורם": 4432,
      "התו": 4433,
      "מתחת": 4434,
      "נקה": 4435,
      "נמלה": 4436,
      "▁לכם": 4437,
      "▁בטירה": 4438,
      "▁והכדור": 4439,
      "▁לימון": 4440,
      "▁ביש": 4441,
      "▁החליפה": 4442,
      "בחן": 4443,
      "▁שומר": 4444,
      "▁הטיל": 4445,
      "▁הטובים": 4446,
      "▁ובכתה": 4447,
      "▁לרדוף": 4448,
      "▁ההורים": 4449,
      "▁הולדת": 4450,
      "▁עזרתו": 4451,
      "▁אמיתית": 4452,
      "▁מרוצים": 4453,
      "▁והסתכלו": 4454,
      "▁בטעות": 4455,
      "▁הברווזים": 4456,
      "▁וצעק": 4457,
      "בלוקים": 4458,
      "▁עובד": 4459,
      "▁לקשור": 4460,
      "בפנים": 4461,
      "הוב": 4462,
      "הפרח": 4463,
      "צאה": 4464,
      "שן": 4465,
      "תסתכל": 4466,
      "▁בבור": 4467,
      "▁בלילה": 4468,
      "ובית": 4469,
      "▁טירה": 4470,
      "▁להעיף": 4471,
      "▁סול": 4472,
      "גירה": 4473,
      "▁דלי": 4474,
      "שימה": 4475,
      "עוף": 4476,
      "ירפה": 4477,
      "▁וחתול": 4478,
      "▁במח": 4479,
      "▁מספרים": 4480,
      "▁והמשיכו": 4481,
      "התנין": 4482,
      "הקול": 4483,
      "▁גדלה": 4484,
      "▁עזבו": 4485,
      "▁חסרת": 4486,
      "▁זכרו": 4487,
      "▁הלימון": 4488,
      "▁וססגוני": 4489,
      "▁בקרבת": 4490,
      "▁אסירת": 4491,
      "אנדי": 4492,
      "▁לפי": 4493,
      "▁לאבד": 4494,
      "▁הקלה": 4495,
      "▁האקדח": 4496,
      "▁הארוך": 4497,
      "▁לבנה": 4498,
      "▁ורכה": 4499,
      "▁חברתה": 4500,
      "▁שהס": 4501,
      "▁מיטה": 4502,
      "▁השנייה": 4503,
      "ציאו": 4504,
      "בולנס": 4505,
      "▁והחליטו": 4506,
      "נטליג": 4507,
      "▁המגף": 4508,
      "קולד": 4509,
      "רימפס": 4510,
      "אכל": 4511,
      "גנת": 4512,
      "סט": 4513,
      "▁שמיכה": 4514,
      "ואפילו": 4515,
      "▁לאחור": 4516,
      "▁החום": 4517,
      "פופ": 4518,
      "▁למכור": 4519,
      "ביק": 4520,
      "▁הארץ": 4521,
      "▁העיתון": 4522,
      "▁עצובות": 4523,
      "טוח": 4524,
      "פתורים": 4525,
      "▁עליך": 4526,
      "▁אין": 4527,
      "▁וצפה": 4528,
      "▁הנקי": 4529,
      "▁האוטובוס": 4530,
      "▁לטפל": 4531,
      "▁והחזיר": 4532,
      "▁צבעוני": 4533,
      "▁נאנח": 4534,
      "▁מקומות": 4535,
      "▁רחב": 4536,
      "▁וצחקה": 4537,
      "▁מוקדם": 4538,
      "אדוני": 4539,
      "חכה": 4540,
      "לפל": 4541,
      "▁אשמח": 4542,
      "▁שולחן": 4543,
      "▁בגשם": 4544,
      "▁עכביש": 4545,
      "▁רעה": 4546,
      "▁נמלה": 4547,
      "▁פחות": 4548,
      "▁צמח": 4549,
      "▁צווא": 4550,
      "▁לשניים": 4551,
      "▁סאני": 4552,
      "▁המזל": 4553,
      "▁תעזור": 4554,
      "▁לומר": 4555,
      "▁האפור": 4556,
      "פיצה": 4557,
      "▁שאמר": 4558,
      "עלית": 4559,
      "▁לגברת": 4560,
      "▁בתנור": 4561,
      "▁אמבטיה": 4562,
      "הפיל": 4563,
      "▁וידעה": 4564,
      "▁נשיקה": 4565,
      "▁מועיל": 4566,
      "▁בואו": 4567,
      "▁ומסודר": 4568,
      "ווי": 4569,
      "ממת": 4570,
      "נגו": 4571,
      "שש": 4572,
      "שהיה": 4573,
      "▁ירוקים": 4574,
      "▁קנה": 4575,
      "▁פרי": 4576,
      "▁עלתה": 4577,
      "▁להוריד": 4578,
      "▁לשקוע": 4579,
      "▁מהג": 4580,
      "מוכן": 4581,
      "עצוב": 4582,
      "בוכה": 4583,
      "בירה": 4584,
      "▁לקן": 4585,
      "▁האדו": 4586,
      "בארץ": 4587,
      "▁בחיוך": 4588,
      "▁נהר": 4589,
      "▁כשאמא": 4590,
      "והכלב": 4591,
      "זיקים": 4592,
      "▁מושך": 4593,
      "▁לדגים": 4594,
      "▁אחריהם": 4595,
      "▁והעכבר": 4596,
      "▁החלקים": 4597,
      "▁לנהר": 4598,
      "▁מתחילים": 4599,
      "▁הפרווה": 4600,
      "קרופון": 4601,
      "חום": 4602,
      "ממים": 4603,
      "▁באז": 4604,
      "▁חבש": 4605,
      "▁טיל": 4606,
      "▁גילה": 4607,
      "▁פארק": 4608,
      "ייבש": 4609,
      "▁כלבלב": 4610,
      "▁לעוד": 4611,
      "▁לחיים": 4612,
      "▁הגול": 4613,
      "▁שאף": 4614,
      "מידים": 4615,
      "▁מסריח": 4616,
      "▁בעבוד": 4617,
      "▁מחפש": 4618,
      "▁המסכה": 4619,
      "▁מקבל": 4620,
      "▁בריא": 4621,
      "רפתקאות": 4622,
      "▁והדוב": 4623,
      "▁הרפתקה": 4624,
      "▁והניחה": 4625,
      "▁ריחמה": 4626,
      "נגווי": 4627,
      "התחיל": 4628,
      "הרופא": 4629,
      "חברו": 4630,
      "להב": 4631,
      "פייה": 4632,
      "שתיים": 4633,
      "▁מלח": 4634,
      "ורית": 4635,
      "מרגיש": 4636,
      "▁קנו": 4637,
      "▁לאזן": 4638,
      "▁להמריא": 4639,
      "▁הרחק": 4640,
      "▁והג": 4641,
      "▁תב": 4642,
      "▁הספסל": 4643,
      "סיקה": 4644,
      "▁העיפרון": 4645,
      "כשטום": 4646,
      "▁מחמד": 4647,
      "צרים": 4648,
      "▁מעץ": 4649,
      "▁בובות": 4650,
      "▁רקדה": 4651,
      "▁לטייל": 4652,
      "▁המספריים": 4653,
      "▁פגעה": 4654,
      "▁להפחיד": 4655,
      "ופיע": 4656,
      "▁מתחבא": 4657,
      "▁המיוחדת": 4658,
      "▁האצבע": 4659,
      "החדר": 4660,
      "כריה": 4661,
      "▁הורי": 4662,
      "▁התולעת": 4663,
      "▁וחו": 4664,
      "▁ברג": 4665,
      "▁גבר": 4666,
      "ריקה": 4667,
      "▁הצב": 4668,
      "▁לחץ": 4669,
      "▁הגבינה": 4670,
      "▁הפילה": 4671,
      "קומות": 4672,
      "▁לגמרי": 4673,
      "קלק": 4674,
      "▁משחקת": 4675,
      "▁לסאלי": 4676,
      "▁אליך": 4677,
      "▁הטעימה": 4678,
      "לבש": 4679,
      "▁התחבא": 4680,
      "▁צייתן": 4681,
      "▁ויצאו": 4682,
      "▁עובדים": 4683,
      "למדתי": 4684,
      "השי": 4685,
      "כברו": 4686,
      "מק": 4687,
      "▁לים": 4688,
      "ותם": 4689,
      "ולא": 4690,
      "ניף": 4691,
      "▁ציירו": 4692,
      "▁בשלולית": 4693,
      "▁המסו": 4694,
      "יפורים": 4695,
      "גיטרה": 4696,
      "▁מהקופסה": 4697,
      "▁ולב": 4698,
      "▁דיל": 4699,
      "▁הלבנה": 4700,
      "עוט": 4701,
      "▁הבעיה": 4702,
      "לעץ": 4703,
      "▁אליי": 4704,
      "▁בקופסת": 4705,
      "▁וכמה": 4706,
      "▁רגליו": 4707,
      "הפרה": 4708,
      "▁יושבים": 4709,
      "▁עקבה": 4710,
      "גבניות": 4711,
      "הלוואי": 4712,
      "דל": 4713,
      "כלי": 4714,
      "רחק": 4715,
      "שמחה": 4716,
      "▁שבורה": 4717,
      "▁מטו": 4718,
      "▁נבוך": 4719,
      "▁צליל": 4720,
      "▁להרוס": 4721,
      "▁לשאת": 4722,
      "▁בשק": 4723,
      "▁סליחה": 4724,
      "תחבא": 4725,
      "▁יכולות": 4726,
      "בידיעה": 4727,
      "▁דקות": 4728,
      "▁ונעים": 4729,
      "▁בעי": 4730,
      "צוחק": 4731,
      "▁בצבע": 4732,
      "▁דיברה": 4733,
      "▁ומרושע": 4734,
      "▁כרית": 4735,
      "▁הידית": 4736,
      "▁ומאושרים": 4737,
      "▁התקשר": 4738,
      "▁הופיעה": 4739,
      "▁דאגה": 4740,
      "אחת": 4741,
      "טיפ": 4742,
      "כשיטים": 4743,
      "מטי": 4744,
      "עשינו": 4745,
      "פע": 4746,
      "שלוש": 4747,
      "▁לרופא": 4748,
      "▁כפות": 4749,
      "ורף": 4750,
      "▁חתך": 4751,
      "כלבלב": 4752,
      "▁לשוק": 4753,
      "▁לשירותים": 4754,
      "מיוחד": 4755,
      "▁המקרר": 4756,
      "▁תיר": 4757,
      "▁הסטייק": 4758,
      "▁השחור": 4759,
      "▁העיפה": 4760,
      "▁וחלק": 4761,
      "דוזה": 4762,
      "▁ורד": 4763,
      "▁ניצ": 4764,
      "▁חיית": 4765,
      "▁ונש": 4766,
      "▁מוח": 4767,
      "▁לסבתא": 4768,
      "▁מיני": 4769,
      "▁בהתרגשות": 4770,
      "▁מבטיח": 4771,
      "▁המיץ": 4772,
      "עשיתי": 4773,
      "▁בכפר": 4774,
      "▁והבטי": 4775,
      "▁עשוי": 4776,
      "▁והודיו": 4777,
      "▁קיווה": 4778,
      "▁זרקו": 4779,
      "ונתי": 4780,
      "▁נגעה": 4781,
      "▁הבטיחו": 4782,
      "▁כואב": 4783,
      "▁לסיבוב": 4784,
      "בגן": 4785,
      "התינוק": 4786,
      "זון": 4787,
      "לקח": 4788,
      "▁שכב": 4789,
      "▁ואוכל": 4790,
      "▁קנתה": 4791,
      "▁גל": 4792,
      "▁להן": 4793,
      "▁החמו": 4794,
      "▁סערה": 4795,
      "דינה": 4796,
      "▁הרוע": 4797,
      "▁והוד": 4798,
      "▁לעיר": 4799,
      "▁תראה": 4800,
      "▁הכד": 4801,
      "עוק": 4802,
      "שונה": 4803,
      "▁זי": 4804,
      "טיש": 4805,
      "▁לצפרדע": 4806,
      "▁הנמלים": 4807,
      "▁ברך": 4808,
      "▁ברחה": 4809,
      "▁ועוד": 4810,
      "▁ועושה": 4811,
      "גולת": 4812,
      "▁בצל": 4813,
      "▁ולקחו": 4814,
      "קיינוס": 4815,
      "▁התחרו": 4816,
      "▁דרכה": 4817,
      "▁בהירים": 4818,
      "▁פרווה": 4819,
      "▁ופתחה": 4820,
      "▁ובטוח": 4821,
      "▁ולוסי": 4822,
      "▁השרשרת": 4823,
      "▁חירש": 4824,
      "דלת": 4825,
      "הפתעה": 4826,
      "יטי": 4827,
      "לפני": 4828,
      "נטי": 4829,
      "תים": 4830,
      "▁ממה": 4831,
      "▁הירוקה": 4832,
      "▁שלכם": 4833,
      "ובח": 4834,
      "מרק": 4835,
      "▁גרו": 4836,
      "▁נאל": 4837,
      "▁צעירה": 4838,
      "▁להסת": 4839,
      "מירוץ": 4840,
      "▁והשמש": 4841,
      "▁המבוגר": 4842,
      "▁הצמח": 4843,
      "▁הכריך": 4844,
      "▁הקליפה": 4845,
      "▁למגלשה": 4846,
      "▁היומן": 4847,
      "סיעה": 4848,
      "תיר": 4849,
      "▁להיעלם": 4850,
      "רגז": 4851,
      "▁ונס": 4852,
      "▁הזאב": 4853,
      "▁ישנים": 4854,
      "תחתן": 4855,
      "▁גרמו": 4856,
      "▁ונופף": 4857,
      "▁מנסים": 4858,
      "▁המושלם": 4859,
      "▁המדבר": 4860,
      "▁הנחמדה": 4861,
      "▁וללכת": 4862,
      "▁ואדיב": 4863,
      "▁לחדרה": 4864,
      "▁העמידו": 4865,
      "▁שיכלה": 4866,
      "כברוש": 4867,
      "מטיקה": 4868,
      "אכלו": 4869,
      "אמין": 4870,
      "בייש": 4871,
      "הזר": 4872,
      "יק": 4873,
      "עט": 4874,
      "צופים": 4875,
      "▁שדה": 4876,
      "▁שבן": 4877,
      "▁מתי": 4878,
      "▁בקן": 4879,
      "▁היי": 4880,
      "▁יק": 4881,
      "▁קרי": 4882,
      "זהרי": 4883,
      "▁החץ": 4884,
      "▁החזק": 4885,
      "▁החטיף": 4886,
      "▁סולם": 4887,
      "▁מהחו": 4888,
      "▁הקוף": 4889,
      "ביסה": 4890,
      "ופשה": 4891,
      "▁הארו": 4892,
      "▁הגר": 4893,
      "▁הגשר": 4894,
      "▁הגזר": 4895,
      "▁שאי": 4896,
      "▁הכדורים": 4897,
      "▁ועי": 4898,
      "▁בסלע": 4899,
      "עיניים": 4900,
      "סתוב": 4901,
      "▁מיוחדים": 4902,
      "▁וקצת": 4903,
      "▁וניסו": 4904,
      "▁למישהו": 4905,
      "▁ולקחת": 4906,
      "▁ומצטער": 4907,
      "▁והפכו": 4908,
      "▁מבריקה": 4909,
      "אטרון": 4910,
      "▁אחותו": 4911,
      "▁הראשון": 4912,
      "▁נקייה": 4913,
      "▁המצחיק": 4914,
      "▁וחיפשו": 4915,
      "ורודה": 4916,
      "▁נדהם": 4917,
      "▁ישנוני": 4918,
      "▁להזמין": 4919,
      "▁שס": 4920,
      "מיג": 4921,
      "▁המתוק": 4922,
      "▁הצמיד": 4923,
      "▁תול": 4924,
      "רקס": 4925,
      "▁לבשו": 4926,
      "▁ומסתכל": 4927,
      "▁וחזקה": 4928,
      "▁במדרגות": 4929,
      "▁ניקח": 4930,
      "צאית": 4931,
      "▁ושמו": 4932,
      "▁מחבריו": 4933,
      "כנת": 4934,
      "האדם": 4935,
      "▁לצעוד": 4936,
      "▁וצפו": 4937,
      "▁וצעצועים": 4938,
      "▁הטלוויזיה": 4939,
      "▁שעזרה": 4940,
      "▁וחיכו": 4941,
      "▁להחליף": 4942,
      "▁קיבלו": 4943,
      "▁הרפתק": 4944,
      "▁הברבור": 4945,
      "▁פרוותי": 4946,
      "▁אספו": 4947,
      "▁לחווה": 4948,
      "▁מהשמיים": 4949,
      "▁ודחף": 4950,
      "▁קירח": 4951,
      "טת": 4952,
      "מז": 4953,
      "נדנדה": 4954,
      "נקודה": 4955,
      "עתי": 4956,
      "▁לכי": 4957,
      "▁ובור": 4958,
      "▁וברי": 4959,
      "וארת": 4960,
      "▁כנף": 4961,
      "▁לארגן": 4962,
      "כולנו": 4963,
      "הבעלים": 4964,
      "פושות": 4965,
      "כוס": 4966,
      "▁ולהע": 4967,
      "סוס": 4968,
      "סיבת": 4969,
      "פיטר": 4970,
      "▁שאסור": 4971,
      "▁באור": 4972,
      "בקות": 4973,
      "▁בספר": 4974,
      "▁לסלע": 4975,
      "▁לנוע": 4976,
      "▁מצחיקה": 4977,
      "▁וטעימה": 4978,
      "▁פיצה": 4979,
      "▁מקרה": 4980,
      "רחץ": 4981,
      "▁מכוער": 4982,
      "▁שחמט": 4983,
      "▁כשהגיע": 4984,
      "▁תקועה": 4985,
      "▁והצעצועים": 4986,
      "▁החולים": 4987,
      "▁תחזור": 4988,
      "גורו": 4989,
      "גורט": 4990,
      "▁עקבו": 4991,
      "▁ומפוחדת": 4992,
      "האישה": 4993,
      "בזם": 4994,
      "בטיח": 4995,
      "ספור": 4996,
      "▁מקשיב": 4997,
      "▁יעשה": 4998,
      "▁צנוע": 4999,
      "▁להוביל": 5000,
      "▁והול": 5001,
      "פושת": 5002,
      "▁לעבודה": 5003,
      "▁שמך": 5004,
      "▁זהב": 5005,
      "שרד": 5006,
      "▁דשא": 5007,
      "▁הסלעים": 5008,
      "▁עצרו": 5009,
      "▁הלחם": 5010,
      "▁בידו": 5011,
      "▁לבחורה": 5012,
      "▁ומים": 5013,
      "▁הכין": 5014,
      "קיעה": 5015,
      "▁לצלול": 5016,
      "▁לסחוב": 5017,
      "▁הנסיכה": 5018,
      "הענן": 5019,
      "בולת": 5020,
      "▁ולמדו": 5021,
      "▁גדלו": 5022,
      "▁מנומס": 5023,
      "▁הסוודר": 5024,
      "▁התכוונתי": 5025,
      "▁החימר": 5026,
      "▁סירת": 5027,
      "▁בתוכו": 5028,
      "▁וביקשה": 5029,
      "▁לבלות": 5030,
      "גס": 5031,
      "חרק": 5032,
      "מתח": 5033,
      "מהיום": 5034,
      "עועית": 5035,
      "קפצו": 5036,
      "▁אעשה": 5037,
      "▁שנת": 5038,
      "▁וקי": 5039,
      "▁חטיפים": 5040,
      "▁נחת": 5041,
      "▁הצביע": 5042,
      "▁דבורה": 5043,
      "תוחה": 5044,
      "עוגיות": 5045,
      "▁הגרב": 5046,
      "▁העזרה": 5047,
      "▁התפו": 5048,
      "▁מוכ": 5049,
      "▁מחכה": 5050,
      "▁בחוף": 5051,
      "כבשים": 5052,
      "▁שונות": 5053,
      "נתר": 5054,
      "▁וספרים": 5055,
      "▁וגאים": 5056,
      "ברווזים": 5057,
      "מצן": 5058,
      "▁והרבה": 5059,
      "▁רועשת": 5060,
      "▁והשמיים": 5061,
      "▁ומהנה": 5062,
      "טדיון": 5063,
      "▁נפנפה": 5064,
      "החי": 5065,
      "וית": 5066,
      "זכ": 5067,
      "זרי": 5068,
      "חיי": 5069,
      "טייני": 5070,
      "מלי": 5071,
      "נגורו": 5072,
      "▁אגם": 5073,
      "▁שמישהו": 5074,
      "▁ורי": 5075,
      "▁בכת": 5076,
      "היפופוטם": 5077,
      "▁רשת": 5078,
      "▁חלוק": 5079,
      "▁גביע": 5080,
      "▁נהייתה": 5081,
      "▁נראית": 5082,
      "▁ואיימי": 5083,
      "ריקים": 5084,
      "בושת": 5085,
      "▁הקו": 5086,
      "▁לחבק": 5087,
      "▁שיבולת": 5088,
      "▁הספינה": 5089,
      "תיע": 5090,
      "▁לבעוט": 5091,
      "▁התג": 5092,
      "▁במקור": 5093,
      "זין": 5094,
      "▁ועזרו": 5095,
      "▁לסמוך": 5096,
      "▁להתאים": 5097,
      "הדלת": 5098,
      "▁נעליים": 5099,
      "▁רגילה": 5100,
      "▁שתלטן": 5101,
      "▁לזהור": 5102,
      "▁הברז": 5103,
      "▁ולצחוק": 5104,
      "▁וכועסים": 5105,
      "▁ברווזים": 5106,
      "▁מפורסם": 5107,
      "אמילי": 5108,
      "בפעם": 5109,
      "דית": 5110,
      "הפר": 5111,
      "מלא": 5112,
      "מסת": 5113,
      "פיל": 5114,
      "▁אחים": 5115,
      "▁ושא": 5116,
      "▁מרים": 5117,
      "▁בסי": 5118,
      "▁בסירה": 5119,
      "▁כהים": 5120,
      "▁רגל": 5121,
      "לילד": 5122,
      "▁קשר": 5123,
      "▁נפרד": 5124,
      "▁פניהם": 5125,
      "▁פעמים": 5126,
      "▁צמא": 5127,
      "▁להכיר": 5128,
      "▁לשרה": 5129,
      "▁לשפר": 5130,
      "▁והרים": 5131,
      "▁המוט": 5132,
      "רינר": 5133,
      "▁ולרקוד": 5134,
      "▁לחרק": 5135,
      "▁דרקון": 5136,
      "לונן": 5137,
      "▁בין": 5138,
      "▁הפרה": 5139,
      "▁הדבש": 5140,
      "▁משפחתה": 5141,
      "▁סוזי": 5142,
      "▁באג": 5143,
      "איכס": 5144,
      "▁בעט": 5145,
      "▁מחפ": 5146,
      "שלים": 5147,
      "▁שעדיף": 5148,
      "▁נסע": 5149,
      "▁כועסים": 5150,
      "▁עדינה": 5151,
      "▁זקוקים": 5152,
      "▁נקרא": 5153,
      "▁להוסיף": 5154,
      "▁תאכל": 5155,
      "▁שיוכל": 5156,
      "▁מזויף": 5157,
      "▁נדהמו": 5158,
      "▁הכתום": 5159,
      "הפעם": 5160,
      "חף": 5161,
      "כמים": 5162,
      "לצ": 5163,
      "לכולם": 5164,
      "מכוניות": 5165,
      "קאו": 5166,
      "שום": 5167,
      "▁מחי": 5168,
      "▁רטובה": 5169,
      "מראה": 5170,
      "▁צופה": 5171,
      "▁להתחתן": 5172,
      "מינו": 5173,
      "▁הרוכ": 5174,
      "▁אהבתי": 5175,
      "▁הקפ": 5176,
      "ופך": 5177,
      "▁זוהר": 5178,
      "▁התנצ": 5179,
      "שאיל": 5180,
      "▁סודי": 5181,
      "▁שהע": 5182,
      "▁שהש": 5183,
      "קווש": 5184,
      "▁אינטליג": 5185,
      "▁ויאמר": 5186,
      "▁להתרחץ": 5187,
      "אליס": 5188,
      "▁שוקולד": 5189,
      "געג": 5190,
      "▁עיניהם": 5191,
      "▁שתלטנית": 5192,
      "▁והצפרדע": 5193,
      "קוראים": 5194,
      "▁מתחשב": 5195,
      "▁והסנאי": 5196,
      "ייסבול": 5197,
      "▁במראה": 5198,
      "▁נפגעה": 5199,
      "רררררררררררררררר": 5200,
      "▁בדיחה": 5201,
      "▁רחוקה": 5202,
      "▁הרוכסן": 5203,
      "כובע": 5204,
      "לש": 5205,
      "ספרים": 5206,
      "ענה": 5207,
      "קרוס": 5208,
      "▁הבוה": 5209,
      "▁אסף": 5210,
      "▁בבר": 5211,
      "▁רוב": 5212,
      "▁קורי": 5213,
      "ועכשיו": 5214,
      "כוכבים": 5215,
      "▁תעשה": 5216,
      "▁דוח": 5217,
      "▁לקרקע": 5218,
      "▁ביצים": 5219,
      "▁העיניים": 5220,
      "▁הפלי": 5221,
      "▁זקנה": 5222,
      "כשאמא": 5223,
      "▁ושרו": 5224,
      "▁מעד": 5225,
      "גרפה": 5226,
      "▁אמילי": 5227,
      "▁הפרס": 5228,
      "▁וכובע": 5229,
      "▁חולצה": 5230,
      "▁לזכור": 5231,
      "לולה": 5232,
      "▁הציור": 5233,
      "▁המנורה": 5234,
      "▁מחליטים": 5235,
      "▁הקוביות": 5236,
      "נפיר": 5237,
      "לכלב": 5238,
      "פול": 5239,
      "קשר": 5240,
      "▁האמא": 5241,
      "▁לנח": 5242,
      "▁מגדלים": 5243,
      "▁היית": 5244,
      "▁עבוד": 5245,
      "▁שלח": 5246,
      "▁כה": 5247,
      "▁פתוח": 5248,
      "▁ציל": 5249,
      "▁החיה": 5250,
      "ריכים": 5251,
      "▁הצעיף": 5252,
      "▁הכף": 5253,
      "▁לחצות": 5254,
      "▁האמינה": 5255,
      "▁בידה": 5256,
      "▁ומהיר": 5257,
      "פירה": 5258,
      "ערפל": 5259,
      "זרן": 5260,
      "▁מוצאת": 5261,
      "▁לפרוק": 5262,
      "▁נתקל": 5263,
      "רוקית": 5264,
      "▁לעצב": 5265,
      "שיחקנו": 5266,
      "▁המראה": 5267,
      "▁המשקל": 5268,
      "▁ניגנה": 5269,
      "▁עדיף": 5270,
      "קפיץ": 5271,
      "▁האיכר": 5272,
      "▁וסיפר": 5273,
      "החוואי": 5274,
      "▁ולנסות": 5275,
      "▁כולנו": 5276,
      "▁העמוק": 5277,
      "▁למחוא": 5278,
      "אק": 5279,
      "באני": 5280,
      "העוגה": 5281,
      "חיו": 5282,
      "טטן": 5283,
      "לאמא": 5284,
      "נרגש": 5285,
      "שהוא": 5286,
      "▁בחר": 5287,
      "ורילה": 5288,
      "▁צמר": 5289,
      "מידה": 5290,
      "▁הרו": 5291,
      "▁הרופא": 5292,
      "ועף": 5293,
      "▁והרוח": 5294,
      "▁המק": 5295,
      "▁המטבח": 5296,
      "▁המדהים": 5297,
      "▁לעו": 5298,
      "▁לעטוף": 5299,
      "▁הציוד": 5300,
      "▁תופ": 5301,
      "▁מהצ": 5302,
      "▁ולר": 5303,
      "ופע": 5304,
      "▁הבננה": 5305,
      "▁ומד": 5306,
      "▁התעי": 5307,
      "▁רוק": 5308,
      "▁מחזיק": 5309,
      "▁וישב": 5310,
      "▁חלקים": 5311,
      "▁הרימו": 5312,
      "▁וגבוה": 5313,
      "▁שעות": 5314,
      "▁ריבה": 5315,
      "▁מסוגל": 5316,
      "▁וישבה": 5317,
      "▁למראה": 5318,
      "▁נתקע": 5319,
      "▁נבהל": 5320,
      "▁ולתת": 5321,
      "▁ונפלה": 5322,
      "▁בזרועות": 5323,
      "בלי": 5324,
      "והחתול": 5325,
      "יותר": 5326,
      "נבת": 5327,
      "סק": 5328,
      "סמי": 5329,
      "▁עברו": 5330,
      "▁גילתה": 5331,
      "▁פיל": 5332,
      "▁לשכב": 5333,
      "▁החצר": 5334,
      "▁הראו": 5335,
      "▁והגשם": 5336,
      "▁הקערה": 5337,
      "▁למנוע": 5338,
      "▁למשאית": 5339,
      "▁שיכלו": 5340,
      "שוטים": 5341,
      "▁זול": 5342,
      "▁זנבו": 5343,
      "▁ונשא": 5344,
      "▁מוכנים": 5345,
      "קיות": 5346,
      "כנן": 5347,
      "▁לדוב": 5348,
      "רגישו": 5349,
      "▁הנמר": 5350,
      "▁שומע": 5351,
      "▁לרכוש": 5352,
      "▁נוצצים": 5353,
      "▁ההר": 5354,
      "▁צעדו": 5355,
      "▁ונהנה": 5356,
      "▁ולהנות": 5357,
      "▁ביתם": 5358,
      "▁הניד": 5359,
      "▁המסך": 5360,
      "▁התיבה": 5361,
      "▁מטפס": 5362,
      "▁שרשרת": 5363,
      "▁פסטה": 5364,
      "▁מפחדת": 5365,
      "▁מלוכלכת": 5366,
      "▁וביקש": 5367,
      "▁וחיפש": 5368,
      "דאקי": 5369,
      "נגווין": 5370,
      "התי": 5371,
      "חזר": 5372,
      "יב": 5373,
      "ינשוף": 5374,
      "נאה": 5375,
      "פצה": 5376,
      "▁לתו": 5377,
      "▁אגוזים": 5378,
      "▁שסאם": 5379,
      "▁ובעלי": 5380,
      "▁מטום": 5381,
      "▁ביתה": 5382,
      "▁בטי": 5383,
      "▁בסיר": 5384,
      "▁בפינה": 5385,
      "▁עור": 5386,
      "▁עתיק": 5387,
      "▁יגרום": 5388,
      "זהרה": 5389,
      "▁פראי": 5390,
      "▁להוט": 5391,
      "▁סכין": 5392,
      "▁ספגטי": 5393,
      "נוף": 5394,
      "▁הרקטה": 5395,
      "▁והרימה": 5396,
      "▁לחור": 5397,
      "שיבו": 5398,
      "▁האלון": 5399,
      "תווכ": 5400,
      "▁הגב": 5401,
      "▁ומוע": 5402,
      "▁משכה": 5403,
      "▁בחוזקה": 5404,
      "▁לביתם": 5405,
      "▁בכלוב": 5406,
      "▁אמין": 5407,
      "▁אדיר": 5408,
      "הנמר": 5409,
      "▁הכוכבים": 5410,
      "▁המחבת": 5411,
      "▁בראש": 5412,
      "האווז": 5413,
      "▁לחוצה": 5414,
      "▁מגיעה": 5415,
      "▁לדוג": 5416,
      "▁צודק": 5417,
      "▁מוטרד": 5418,
      "דבן": 5419,
      "חש": 5420,
      "כטה": 5421,
      "שקה": 5422,
      "▁לסירה": 5423,
      "▁שסו": 5424,
      "▁ואו": 5425,
      "▁כנה": 5426,
      "▁גבו": 5427,
      "▁גדר": 5428,
      "▁נמר": 5429,
      "▁הקלטת": 5430,
      "▁למגרש": 5431,
      "שיבה": 5432,
      "פרש": 5433,
      "▁ומאו": 5434,
      "▁התנור": 5435,
      "חין": 5436,
      "▁סוס": 5437,
      "▁חימר": 5438,
      "▁כשטים": 5439,
      "▁מושלמת": 5440,
      "▁לגדר": 5441,
      "▁מספריים": 5442,
      "▁בעבר": 5443,
      "▁לצעצועים": 5444,
      "▁לסלוח": 5445,
      "טרפו": 5446,
      "▁הוציאו": 5447,
      "▁הוורודה": 5448,
      "▁הנידה": 5449,
      "▁הבלתי": 5450,
      "▁ולחפש": 5451,
      "▁שרצה": 5452,
      "▁בגאווה": 5453,
      "▁וזרקה": 5454,
      "▁פתק": 5455,
      "קופית": 5456,
      "▁הקרם": 5457,
      "קפיא": 5458,
      "▁המטען": 5459,
      "▁למשפחתו": 5460,
      "▁נדיב": 5461,
      "ופסאות": 5462,
      "קרוסקופ": 5463,
      "הלך": 5464,
      "הנחש": 5465,
      "ומקס": 5466,
      "חב": 5467,
      "צק": 5468,
      "▁וכדור": 5469,
      "▁בציפורים": 5470,
      "▁היתה": 5471,
      "ולבסוף": 5472,
      "▁כפית": 5473,
      "▁רובוט": 5474,
      "▁חרב": 5475,
      "▁הרכה": 5476,
      "▁יכולתי": 5477,
      "▁ולבן": 5478,
      "▁ולדבר": 5479,
      "▁שיעזור": 5480,
      "סיסי": 5481,
      "▁מצי": 5482,
      "▁בידיים": 5483,
      "חוט": 5484,
      "▁התנין": 5485,
      "▁התיישב": 5486,
      "לאך": 5487,
      "קרים": 5488,
      "▁באר": 5489,
      "▁ונרגש": 5490,
      "▁ושחה": 5491,
      "▁לגבעה": 5492,
      "▁לצי": 5493,
      "המקום": 5494,
      "המפלצת": 5495,
      "▁לסנאי": 5496,
      "היונה": 5497,
      "וזל": 5498,
      "מודד": 5499,
      "▁מיהרה": 5500,
      "▁מדברת": 5501,
      "▁לזרוח": 5502,
      "▁מפוחדים": 5503,
      "▁הכושר": 5504,
      "▁תהתה": 5505,
      "▁וצעקה": 5506,
      "▁קוראת": 5507,
      "▁ובודד": 5508,
      "גדול": 5509,
      "לתי": 5510,
      "▁לנחש": 5511,
      "▁וקיטי": 5512,
      "▁ואוהב": 5513,
      "▁מחו": 5514,
      "▁בוה": 5515,
      "▁בילו": 5516,
      "ואת": 5517,
      "▁כבדה": 5518,
      "▁חתלתול": 5519,
      "▁קבוצה": 5520,
      "הבה": 5521,
      "דיה": 5522,
      "רוצ": 5523,
      "▁לידו": 5524,
      "ביעי": 5525,
      "▁היונה": 5526,
      "▁הסערה": 5527,
      "▁האמיץ": 5528,
      "▁השאיר": 5529,
      "▁מצייר": 5530,
      "כתבים": 5531,
      "▁ונקי": 5532,
      "▁ועכשיו": 5533,
      "רגיה": 5534,
      "▁הנורה": 5535,
      "בובות": 5536,
      "▁הטעימים": 5537,
      "▁וקשה": 5538,
      "טוסט": 5539,
      "▁וחיכתה": 5540,
      "▁בדלת": 5541,
      "▁המוזר": 5542,
      "▁קרובות": 5543,
      "▁התחבקו": 5544,
      "▁מודר": 5545,
      "▁מהנהן": 5546,
      "▁הקירח": 5547,
      "▁ונחמדה": 5548,
      "▁וחיפשה": 5549,
      "▁האמבטיה": 5550,
      "▁ומעולם": 5551,
      "▁רציני": 5552,
      "טערו": 5553,
      "הקר": 5554,
      "כבי": 5555,
      "לספוט": 5556,
      "מקום": 5557,
      "צעד": 5558,
      "רטים": 5559,
      "▁אבי": 5560,
      "▁שחק": 5561,
      "▁מלילי": 5562,
      "▁בועות": 5563,
      "▁עולה": 5564,
      "▁ילך": 5565,
      "▁ימצא": 5566,
      "▁רבו": 5567,
      "▁נהיו": 5568,
      "▁פופי": 5569,
      "▁להורים": 5570,
      "▁להתיז": 5571,
      "▁להופיע": 5572,
      "מיצה": 5573,
      "▁לימד": 5574,
      "▁תמצא": 5575,
      "▁הקסומה": 5576,
      "▁האדם": 5577,
      "עושה": 5578,
      "▁הבד": 5579,
      "▁התגל": 5580,
      "באג": 5581,
      "▁ורואים": 5582,
      "▁במכוניות": 5583,
      "▁סוג": 5584,
      "▁עליזה": 5585,
      "האבא": 5586,
      "▁החדשות": 5587,
      "▁החווה": 5588,
      "החתולה": 5589,
      "▁מאיפה": 5590,
      "▁פרס": 5591,
      "▁ברכבת": 5592,
      "▁חומה": 5593,
      "▁המסריח": 5594,
      "▁ועצובים": 5595,
      "▁ירדה": 5596,
      "▁ציור": 5597,
      "▁מהאדמה": 5598,
      "▁אספה": 5599,
      "▁ובטוחים": 5600,
      "▁ואיך": 5601,
      "▁צרחה": 5602,
      "▁וצהוב": 5603,
      "▁מהחושך": 5604,
      "גבוה": 5605,
      "זב": 5606,
      "זניים": 5607,
      "חשוב": 5608,
      "נכון": 5609,
      "עלי": 5610,
      "צוע": 5611,
      "▁לפרח": 5612,
      "▁אנדי": 5613,
      "▁שור": 5614,
      "▁משו": 5615,
      "▁בעל": 5616,
      "▁עברה": 5617,
      "▁כריך": 5618,
      "▁רבה": 5619,
      "▁נפר": 5620,
      "▁נרגשים": 5621,
      "▁סלט": 5622,
      "▁סרטן": 5623,
      "▁המאוורר": 5624,
      "▁הצטער": 5625,
      "▁תלך": 5626,
      "▁מהעוגה": 5627,
      "בוט": 5628,
      "להח": 5629,
      "▁לקום": 5630,
      "תיהם": 5631,
      "▁רוז": 5632,
      "▁ורטוב": 5633,
      "בקת": 5634,
      "כנע": 5635,
      "▁הנעל": 5636,
      "▁הנסיך": 5637,
      "▁חתולים": 5638,
      "▁לרצפה": 5639,
      "▁השיח": 5640,
      "▁כיפיות": 5641,
      "▁פגועה": 5642,
      "▁שכאשר": 5643,
      "▁המפית": 5644,
      "▁כעסו": 5645,
      "▁והאדום": 5646,
      "נטגן": 5647,
      "▁החיטה": 5648,
      "▁החישוק": 5649,
      "▁החזירו": 5650,
      "▁ומשכו": 5651,
      "▁התוף": 5652,
      "ערבב": 5653,
      "▁ולשמור": 5654,
      "▁פופקורן": 5655,
      "▁צדקה": 5656,
      "▁מדהימה": 5657,
      "▁שמנמן": 5658,
      "גלי": 5659,
      "הכנ": 5660,
      "ונה": 5661,
      "לצל": 5662,
      "עיל": 5663,
      "קרא": 5664,
      "▁אפו": 5665,
      "▁אראה": 5666,
      "▁אשם": 5667,
      "▁שספוט": 5668,
      "▁שכתוב": 5669,
      "▁ומאותו": 5670,
      "▁מיי": 5671,
      "▁בתחתית": 5672,
      "▁בגיטרה": 5673,
      "▁רכים": 5674,
      "▁קשוח": 5675,
      "▁גמיש": 5676,
      "יפת": 5677,
      "▁המכנסיים": 5678,
      "▁הציל": 5679,
      "▁תן": 5680,
      "▁דעת": 5681,
      "▁ומתוקה": 5682,
      "▁באים": 5683,
      "▁בעיניים": 5684,
      "▁לצבוע": 5685,
      "המלח": 5686,
      "▁בסל": 5687,
      "טרך": 5688,
      "▁התירס": 5689,
      "▁לעצמה": 5690,
      "▁צבעונית": 5691,
      "בירדי": 5692,
      "▁פספס": 5693,
      "▁להתחמם": 5694,
      "▁רחבי": 5695,
      "▁בודדה": 5696,
      "▁הבוץ": 5697,
      "▁עסוק": 5698,
      "▁והניח": 5699,
      "האיכר": 5700,
      "▁הבטיחה": 5701,
      "▁להשתנות": 5702,
      "▁צועק": 5703,
      "▁והשתמ": 5704,
      "▁מבינים": 5705,
      "▁והחזירה": 5706,
      "▁פלסטר": 5707,
      "▁ולהעמיד": 5708,
      "▁לבו": 5709,
      "▁אקח": 5710,
      "▁שחיה": 5711,
      "▁וטימי": 5712,
      "▁מבע": 5713,
      "▁ביו": 5714,
      "▁רכב": 5715,
      "▁לארוז": 5716,
      "▁לשדה": 5717,
      "▁לשמש": 5718,
      "▁לשנות": 5719,
      "▁והמים": 5720,
      "▁המברשת": 5721,
      "▁לעצים": 5722,
      "▁ולמד": 5723,
      "▁דואר": 5724,
      "▁אופ": 5725,
      "שיש": 5726,
      "ופל": 5727,
      "פרורים": 5728,
      "▁השמן": 5729,
      "חודי": 5730,
      "▁שהכל": 5731,
      "▁באצ": 5732,
      "הירח": 5733,
      "▁בסרט": 5734,
      "▁הכלבים": 5735,
      "▁הביצים": 5736,
      "▁להתכווץ": 5737,
      "▁להתרחק": 5738,
      "▁שאלות": 5739,
      "▁מתקר": 5740,
      "▁והבטיח": 5741,
      "▁הכלוב": 5742,
      "▁והמכונית": 5743,
      "▁מרחוק": 5744,
      "▁בטח": 5745,
      "▁הפתק": 5746,
      "▁לקרוע": 5747,
      "▁המגבת": 5748,
      "▁ביישנית": 5749,
      "משחקים": 5750,
      "▁מבולבלת": 5751,
      "ניסיתי": 5752,
      "▁יחזור": 5753,
      "▁בחיים": 5754,
      "▁והנהנה": 5755,
      "▁המזלג": 5756,
      "התוכי": 5757,
      "תווכח": 5758,
      "אילו": 5759,
      "בב": 5760,
      "תהיה": 5761,
      "▁דולי": 5762,
      "▁שמי": 5763,
      "▁שער": 5764,
      "▁וציפור": 5765,
      "▁וילדה": 5766,
      "▁ועלים": 5767,
      "▁ממתק": 5768,
      "▁עפיפון": 5769,
      "▁גו": 5770,
      "▁פרה": 5771,
      "▁פעמון": 5772,
      "▁להשאיר": 5773,
      "▁החטיפים": 5774,
      "ריע": 5775,
      "כוח": 5776,
      "גיעו": 5777,
      "▁הצד": 5778,
      "▁מהציפור": 5779,
      "▁ולט": 5780,
      "סוזי": 5781,
      "▁דלעת": 5782,
      "טיבל": 5783,
      "▁ורואה": 5784,
      "▁במערה": 5785,
      "▁שהן": 5786,
      "▁מקסים": 5787,
      "▁בעד": 5788,
      "▁חשובה": 5789,
      "עיס": 5790,
      "▁יצירתי": 5791,
      "בדח": 5792,
      "▁קינא": 5793,
      "▁תוך": 5794,
      "▁ונהנתה": 5795,
      "▁בכך": 5796,
      "▁קודר": 5797,
      "▁הקסדה": 5798,
      "יידד": 5799,
      "תפסי": 5800,
      "▁נורמלי": 5801,
      "▁הפינוק": 5802,
      "▁ויתרה": 5803,
      "▁מילא": 5804,
      "▁זורחת": 5805,
      "ירתית": 5806,
      "▁נדהמה": 5807,
      "▁להסביר": 5808,
      "▁חלומות": 5809,
      "▁אומלל": 5810,
      "▁פופולרי": 5811,
      "אחיה": 5812,
      "הלי": 5813,
      "הכי": 5814,
      "ויש": 5815,
      "למקס": 5816,
      "נטן": 5817,
      "עדה": 5818,
      "פחת": 5819,
      "▁לבר": 5820,
      "▁לתח": 5821,
      "▁שש": 5822,
      "▁שתה": 5823,
      "▁וגדל": 5824,
      "▁מתוך": 5825,
      "▁ברוח": 5826,
      "▁עיפרון": 5827,
      "ולאה": 5828,
      "▁כלי": 5829,
      "ניח": 5830,
      "ניסה": 5831,
      "▁טירות": 5832,
      "▁נלח": 5833,
      "▁צוות": 5834,
      "▁להרפתקאות": 5835,
      "▁להאמין": 5836,
      "▁קטפה": 5837,
      "כונן": 5838,
      "ביצה": 5839,
      "▁הסבירה": 5840,
      "▁לוודא": 5841,
      "▁לקצה": 5842,
      "▁השמים": 5843,
      "ירית": 5844,
      "▁העננים": 5845,
      "זרח": 5846,
      "▁הזכוכית": 5847,
      "▁שוקו": 5848,
      "▁בפיו": 5849,
      "ויץ": 5850,
      "▁יוגה": 5851,
      "▁המסגרת": 5852,
      "▁שרצתה": 5853,
      "הנסיכה": 5854,
      "▁סיפרו": 5855,
      "▁והדגים": 5856,
      "▁החרקים": 5857,
      "▁הברך": 5858,
      "▁הישנה": 5859,
      "▁נדיר": 5860,
      "▁וידידות": 5861,
      "ידעתי": 5862,
      "▁לחדרו": 5863,
      "▁מכינה": 5864,
      "אגה": 5865,
      "ומאז": 5866,
      "חייך": 5867,
      "טפו": 5868,
      "טנס": 5869,
      "לחתול": 5870,
      "שהיא": 5871,
      "▁ותה": 5872,
      "▁ווי": 5873,
      "▁בבט": 5874,
      "▁בקלות": 5875,
      "▁רשע": 5876,
      "▁חפר": 5877,
      "▁נחו": 5878,
      "▁נעלה": 5879,
      "▁להתווכח": 5880,
      "▁החריף": 5881,
      "▁סטייק": 5882,
      "▁הרדיו": 5883,
      "▁הרצועה": 5884,
      "▁המון": 5885,
      "▁לימדה": 5886,
      "▁מהשי": 5887,
      "▁הכבד": 5888,
      "▁הכתר": 5889,
      "▁הכריש": 5890,
      "▁שיניים": 5891,
      "▁אוכמניות": 5892,
      "▁הסבון": 5893,
      "▁השוק": 5894,
      "תומה": 5895,
      "ירוע": 5896,
      "▁להישבר": 5897,
      "כשמקס": 5898,
      "משך": 5899,
      "▁הדבורה": 5900,
      "▁שמחות": 5901,
      "▁שהד": 5902,
      "▁שהופך": 5903,
      "▁מדיח": 5904,
      "▁לגור": 5905,
      "▁איזה": 5906,
      "וליות": 5907,
      "▁הביאו": 5908,
      "הצל": 5909,
      "▁חוזרים": 5910,
      "▁ידיו": 5911,
      "▁וניג": 5912,
      "טובי": 5913,
      "▁ולהסתכל": 5914,
      "▁להצליח": 5915,
      "▁כשהשמש": 5916,
      "הנסיך": 5917,
      "▁לזקן": 5918,
      "▁כוכבים": 5919,
      "▁הסוס": 5920,
      "▁הראשונה": 5921,
      "▁טווי": 5922,
      "▁גינה": 5923,
      "▁רטובים": 5924,
      "▁הבוקר": 5925,
      "▁המצלמה": 5926,
      "▁קורא": 5927,
      "▁זורק": 5928,
      "▁דאגו": 5929,
      "▁במוסך": 5930,
      "▁להקליט": 5931,
      "▁מחיאה": 5932,
      "לית": 5933,
      "מית": 5934,
      "סבא": 5935,
      "פצ": 5936,
      "תת": 5937,
      "▁הוריד": 5938,
      "▁התחתית": 5939,
      "▁הפופ": 5940,
      "▁לכבד": 5941,
      "▁וכבד": 5942,
      "▁מבית": 5943,
      "▁מילה": 5944,
      "▁מלון": 5945,
      "▁בצי": 5946,
      "ניון": 5947,
      "▁טלפון": 5948,
      "יפות": 5949,
      "▁להשאיל": 5950,
      "▁כלוב": 5951,
      "▁ספי": 5952,
      "▁הרפסודה": 5953,
      "▁המכונה": 5954,
      "רוד": 5955,
      "רונה": 5956,
      "▁לקפל": 5957,
      "▁האבוד": 5958,
      "▁האגוז": 5959,
      "סיס": 5960,
      "▁השביט": 5961,
      "▁הפני": 5962,
      "▁ומק": 5963,
      "▁התותים": 5964,
      "פיט": 5965,
      "▁ידית": 5966,
      "מדף": 5967,
      "▁ונרגשת": 5968,
      "▁לפרוח": 5969,
      "▁קרם": 5970,
      "▁נוצות": 5971,
      "צוות": 5972,
      "▁מבטו": 5973,
      "▁רגליים": 5974,
      "▁ומחייכים": 5975,
      "▁בשבילם": 5976,
      "▁בעצמך": 5977,
      "▁המחשב": 5978,
      "▁המעטפה": 5979,
      "▁במיטה": 5980,
      "פרפרת": 5981,
      "▁ולצייר": 5982,
      "▁המאפין": 5983,
      "▁הזרע": 5984,
      "▁הלוך": 5985,
      "▁מפונק": 5986,
      "חלו": 5987,
      "כרה": 5988,
      "למיה": 5989,
      "מתו": 5990,
      "נתי": 5991,
      "תפס": 5992,
      "▁הדינוזאור": 5993,
      "▁שנה": 5994,
      "▁שייכים": 5995,
      "▁וגד": 5996,
      "▁היותו": 5997,
      "▁עננים": 5998,
      "ואנחנו": 5999,
      "ובל": 6000,
      "▁טייני": 6001,
      "▁נצ": 6002,
      "▁נובח": 6003,
      "כולן": 6004,
      "▁והצי": 6005,
      "▁המפור": 6006,
      "▁המנעול": 6007,
      "▁לעכבר": 6008,
      "▁הצביעה": 6009,
      "▁ולד": 6010,
      "▁הסכין": 6011,
      "▁השאי": 6012,
      "▁הגעש": 6013,
      "▁הגומי": 6014,
      "▁הבור": 6015,
      "▁לבדה": 6016,
      "▁התכשיטים": 6017,
      "לאי": 6018,
      "מדת": 6019,
      "▁לפזר": 6020,
      "▁בעגלה": 6021,
      "האבן": 6022,
      "▁בוכים": 6023,
      "שלט": 6024,
      "זומי": 6025,
      "סתכלי": 6026,
      "▁מתחתיו": 6027,
      "▁פרצופים": 6028,
      "▁הריקוד": 6029,
      "▁הצליל": 6030,
      "▁בתמונה": 6031,
      "▁ידיה": 6032,
      "פורט": 6033,
      "תרחק": 6034,
      "▁הסודי": 6035,
      "▁במיוחד": 6036,
      "▁ונחת": 6037,
      "במסיבה": 6038,
      "▁הפסל": 6039,
      "▁הרחצה": 6040,
      "▁הפיצה": 6041,
      "▁הסיכה": 6042,
      "▁וגרם": 6043,
      "ללכת": 6044,
      "▁בבטחה": 6045,
      "הפארק": 6046,
      "וספוט": 6047,
      "חמט": 6048,
      "מפו": 6049,
      "נני": 6050,
      "ננו": 6051,
      "סטל": 6052,
      "▁שטיח": 6053,
      "▁יראה": 6054,
      "ניסו": 6055,
      "▁טעו": 6056,
      "▁צרח": 6057,
      "▁כלים": 6058,
      "הבובה": 6059,
      "▁המאושר": 6060,
      "רימת": 6061,
      "▁תאהב": 6062,
      "▁ולפ": 6063,
      "▁האדי": 6064,
      "▁השמיע": 6065,
      "▁התנהג": 6066,
      "▁הדר": 6067,
      "▁שאג": 6068,
      "▁שהכדור": 6069,
      "▁שובבה": 6070,
      "בקבוק": 6071,
      "▁ועק": 6072,
      "▁ועייף": 6073,
      "▁ועשתה": 6074,
      "המגדל": 6075,
      "▁מעלה": 6076,
      "העז": 6077,
      "▁וקרא": 6078,
      "▁והחבר": 6079,
      "▁לטירה": 6080,
      "וטב": 6081,
      "וטרינר": 6082,
      "▁והמשיכה": 6083,
      "הרפת": 6084,
      "▁להפתיע": 6085,
      "▁צהובים": 6086,
      "▁ומחאה": 6087,
      "מנסה": 6088,
      "שיחקתי": 6089,
      "▁מגבת": 6090,
      "▁והפך": 6091,
      "▁התכוון": 6092,
      "▁כתבה": 6093,
      "▁ציית": 6094,
      "▁מריר": 6095,
      "▁אדומות": 6096,
      "כסן": 6097,
      "▁עקשנית": 6098,
      "▁תחרותיים": 6099,
      "▁בתחפושות": 6100,
      "▁ולהישאר": 6101,
      "גבת": 6102,
      "דוד": 6103,
      "הרגשתי": 6104,
      "טיל": 6105,
      "כחו": 6106,
      "מדי": 6107,
      "שמה": 6108,
      "▁ליי": 6109,
      "▁אחורה": 6110,
      "▁וחד": 6111,
      "▁וכת": 6112,
      "▁עבה": 6113,
      "▁עפרונות": 6114,
      "▁יפגע": 6115,
      "▁כפי": 6116,
      "▁טוס": 6117,
      "▁נצא": 6118,
      "▁נזהר": 6119,
      "ועס": 6120,
      "▁לערוך": 6121,
      "עצבן": 6122,
      "בוח": 6123,
      "▁למורה": 6124,
      "▁ולשת": 6125,
      "סוי": 6126,
      "▁לבתיהם": 6127,
      "▁שאבא": 6128,
      "▁רעד": 6129,
      "פתעת": 6130,
      "▁חיננית": 6131,
      "והש": 6132,
      "בתים": 6133,
      "▁עוזרת": 6134,
      "▁ושית": 6135,
      "▁וצורות": 6136,
      "▁הנר": 6137,
      "▁בצורה": 6138,
      "▁בתור": 6139,
      "למטה": 6140,
      "▁לציפורים": 6141,
      "▁השירים": 6142,
      "▁פיקניק": 6143,
      "▁בזנב": 6144,
      "▁ראש": 6145,
      "▁מכיר": 6146,
      "▁טעימות": 6147,
      "▁תחבושת": 6148,
      "▁להעמיס": 6149,
      "לווייתן": 6150,
      "▁ודחפה": 6151,
      "▁התיישבה": 6152,
      "חלקם": 6153,
      "הההההההההההההההה": 6154,
      "▁מושכים": 6155,
      "זום": 6156,
      "טאה": 6157,
      "פלא": 6158,
      "פורה": 6159,
      "תסתכלי": 6160,
      "▁השיב": 6161,
      "▁לגלגל": 6162,
      "▁שבה": 6163,
      "▁שעון": 6164,
      "▁שבוע": 6165,
      "▁שצריך": 6166,
      "▁מרימה": 6167,
      "▁בננה": 6168,
      "▁עשי": 6169,
      "ברגע": 6170,
      "▁פתוחה": 6171,
      "▁מאוכז": 6172,
      "▁להבטיח": 6173,
      "מישה": 6174,
      "▁החמניות": 6175,
      "▁החגורה": 6176,
      "נועים": 6177,
      "▁והשתמש": 6178,
      "▁והחיות": 6179,
      "▁המערה": 6180,
      "▁המלח": 6181,
      "▁המשע": 6182,
      "▁הצמחים": 6183,
      "▁מהחור": 6184,
      "▁האגרטל": 6185,
      "▁האפרסק": 6186,
      "▁הגביע": 6187,
      "▁הבטן": 6188,
      "▁ביצה": 6189,
      "▁העור": 6190,
      "▁ומתח": 6191,
      "נותן": 6192,
      "▁הדבורים": 6193,
      "▁שאין": 6194,
      "כירה": 6195,
      "▁באמבטיה": 6196,
      "▁ישחקו": 6197,
      "▁לצעוק": 6198,
      "▁הזהב": 6199,
      "סתר": 6200,
      "▁שוחים": 6201,
      "▁לרסס": 6202,
      "▁וגדול": 6203,
      "▁ותפסה": 6204,
      "▁וניהנו": 6205,
      "מורמר": 6206,
      "▁ופג": 6207,
      "▁המספר": 6208,
      "▁ולקבל": 6209,
      "ההורים": 6210,
      "▁מתוקה": 6211,
      "▁בטלפון": 6212,
      "▁הסוכר": 6213,
      "▁והביא": 6214,
      "▁התעופה": 6215,
      "▁וסיפרה": 6216,
      "▁נבהלה": 6217,
      "▁דודה": 6218,
      "▁נזכר": 6219,
      "▁עצמאית": 6220,
      "▁התכוונו": 6221,
      "▁דעתך": 6222,
      "זקן": 6223,
      "מול": 6224,
      "ננות": 6225,
      "קחה": 6226,
      "רכבת": 6227,
      "▁הסוף": 6228,
      "▁הוביל": 6229,
      "▁הלהקה": 6230,
      "▁שמא": 6231,
      "▁שרק": 6232,
      "▁וקים": 6233,
      "▁מרח": 6234,
      "▁ממורמר": 6235,
      "▁רכש": 6236,
      "▁רביעי": 6237,
      "יתים": 6238,
      "ליד": 6239,
      "▁חן": 6240,
      "ובכל": 6241,
      "▁נתח": 6242,
      "▁להקפיץ": 6243,
      "▁לשקול": 6244,
      "▁החבילה": 6245,
      "▁ספייק": 6246,
      "▁לירח": 6247,
      "לווה": 6248,
      "▁האבקה": 6249,
      "▁הבמה": 6250,
      "▁להיפגע": 6251,
      "▁ומנסה": 6252,
      "▁וחיו": 6253,
      "שביל": 6254,
      "כיות": 6255,
      "▁החליקה": 6256,
      "אישה": 6257,
      "▁החתולה": 6258,
      "מודאג": 6259,
      "הדבר": 6260,
      "▁ארוחה": 6261,
      "כרת": 6262,
      "▁אוכלים": 6263,
      "▁ועושים": 6264,
      "▁והחרק": 6265,
      "מעולם": 6266,
      "▁ופגע": 6267,
      "▁לכיתה": 6268,
      "▁נקיים": 6269,
      "▁הפסטה": 6270,
      "▁סגולה": 6271,
      "▁מסירות": 6272,
      "▁ריחמו": 6273,
      "▁מטופש": 6274,
      "▁משתמשים": 6275,
      "▁גלגלים": 6276,
      "פתיות": 6277,
      "▁וקופץ": 6278,
      "▁הרומן": 6279,
      "ספו": 6280,
      "פם": 6281,
      "פקה": 6282,
      "פאים": 6283,
      "פשוט": 6284,
      "▁הברי": 6285,
      "▁אביו": 6286,
      "▁אהוב": 6287,
      "▁שפשף": 6288,
      "▁ובע": 6289,
      "▁בעלים": 6290,
      "היד": 6291,
      "▁כתר": 6292,
      "▁קש": 6293,
      "▁פנדי": 6294,
      "אהבה": 6295,
      "▁להג": 6296,
      "▁לשו": 6297,
      "▁והנ": 6298,
      "▁ואף": 6299,
      "▁המילה": 6300,
      "כונאי": 6301,
      "▁הצוות": 6302,
      "▁תשחק": 6303,
      "▁תיתן": 6304,
      "▁למסיבת": 6305,
      "סופי": 6306,
      "תיקה": 6307,
      "▁מצד": 6308,
      "▁הבצק": 6309,
      "▁בידיו": 6310,
      "▁הער": 6311,
      "▁הענבים": 6312,
      "▁ומנו": 6313,
      "▁זעיר": 6314,
      "▁זיג": 6315,
      "▁וחברו": 6316,
      "▁ורוע": 6317,
      "▁במגלשה": 6318,
      "▁שהג": 6319,
      "והמ": 6320,
      "▁נחלוק": 6321,
      "▁מושב": 6322,
      "▁בעיירה": 6323,
      "▁לדג": 6324,
      "▁וצוחק": 6325,
      "▁חשבתי": 6326,
      "▁מערה": 6327,
      "השעון": 6328,
      "▁להתפלל": 6329,
      "▁מידה": 6330,
      "▁חיוכים": 6331,
      "הצב": 6332,
      "▁חווה": 6333,
      "▁הנהג": 6334,
      "רבעה": 6335,
      "▁ונתנו": 6336,
      "▁דינוזאור": 6337,
      "▁מרשים": 6338,
      "▁תפסו": 6339,
      "▁שנהיה": 6340,
      "▁הציע": 6341,
      "▁למהר": 6342,
      "מלכה": 6343,
      "▁זוג": 6344,
      "▁ורודים": 6345,
      "▁המחט": 6346,
      "▁מתחבקים": 6347,
      "▁עזבה": 6348,
      "▁התעט": 6349,
      "▁מתוסכלת": 6350,
      "▁תכעס": 6351,
      "▁עצמאי": 6352,
      "▁תלוי": 6353,
      "▁גולף": 6354,
      "▁ושאלו": 6355,
      "אמי": 6356,
      "אסור": 6357,
      "דרון": 6358,
      "קצת": 6359,
      "שמי": 6360,
      "שתי": 6361,
      "▁ומא": 6362,
      "▁ובח": 6363,
      "▁עגלה": 6364,
      "▁יור": 6365,
      "ורגן": 6366,
      "ניט": 6367,
      "▁גבי": 6368,
      "▁החצוצרה": 6369,
      "▁שלווה": 6370,
      "▁סג": 6371,
      "▁והריח": 6372,
      "▁המבוך": 6373,
      "▁המדרגות": 6374,
      "רוף": 6375,
      "▁הצער": 6376,
      "▁תזכור": 6377,
      "▁מהק": 6378,
      "▁הכיפי": 6379,
      "▁הכביסה": 6380,
      "▁הקרי": 6381,
      "▁דלק": 6382,
      "▁האחות": 6383,
      "▁הגלים": 6384,
      "▁הבשר": 6385,
      "שוויץ": 6386,
      "▁ומבול": 6387,
      "לאן": 6388,
      "ישיון": 6389,
      "רגשה": 6390,
      "▁עוגת": 6391,
      "פלים": 6392,
      "▁קרן": 6393,
      "▁מתמטיקה": 6394,
      "▁הגיטרה": 6395,
      "היינו": 6396,
      "▁נוסף": 6397,
      "▁וקיו": 6398,
      "▁מבטה": 6399,
      "▁בכיתה": 6400,
      "זיקאי": 6401,
      "▁זרע": 6402,
      "▁זרעים": 6403,
      "וריקן": 6404,
      "▁פיטר": 6405,
      "▁דובדבנים": 6406,
      "▁ועצים": 6407,
      "▁וישבו": 6408,
      "הלכו": 6409,
      "▁תהה": 6410,
      "▁נותנים": 6411,
      "▁מסתובב": 6412,
      "▁ומפוחדים": 6413,
      "▁בכושר": 6414,
      "▁בתוף": 6415,
      "▁המכוערת": 6416,
      "▁ולהתרוצץ": 6417,
      "▁נתקעה": 6418,
      "▁המנטה": 6419,
      "▁המזויף": 6420,
      "▁נסערת": 6421,
      "▁בכנפיו": 6422,
      "▁לתיבת": 6423,
      "▁תירס": 6424,
      "▁טוסט": 6425,
      "▁זיגזג": 6426,
      "הרגיש": 6427,
      "ושה": 6428,
      "זע": 6429,
      "זקים": 6430,
      "כחים": 6431,
      "לבן": 6432,
      "סטי": 6433,
      "▁לולו": 6434,
      "▁אבוקדו": 6435,
      "▁וכי": 6436,
      "▁מגלשה": 6437,
      "▁מברשת": 6438,
      "▁הירקות": 6439,
      "ולצה": 6440,
      "▁ימי": 6441,
      "▁כד": 6442,
      "▁כובעים": 6443,
      "ורחים": 6444,
      "▁רזה": 6445,
      "▁רגע": 6446,
      "▁חות": 6447,
      "אוו": 6448,
      "אומים": 6449,
      "▁קם": 6450,
      "▁טסה": 6451,
      "▁טריק": 6452,
      "▁נקר": 6453,
      "▁פח": 6454,
      "▁לשפוך": 6455,
      "▁לשאר": 6456,
      "▁לשאוג": 6457,
      "▁החרב": 6458,
      "כונים": 6459,
      "▁תוה": 6460,
      "▁תנין": 6461,
      "לוהים": 6462,
      "▁האמהות": 6463,
      "▁הלב": 6464,
      "▁השלוש": 6465,
      "▁השלולית": 6466,
      "▁הגל": 6467,
      "קסם": 6468,
      "▁העתיק": 6469,
      "▁העגבנייה": 6470,
      "▁הפחיד": 6471,
      "▁הפנס": 6472,
      "▁ומיל": 6473,
      "▁ומלוכלך": 6474,
      "▁וחיוך": 6475,
      "פיץ": 6476,
      "▁הקטנוע": 6477,
      "▁לפלאפי": 6478,
      "▁איבדו": 6479,
      "▁בעיות": 6480,
      "▁לסגור": 6481,
      "▁שונא": 6482,
      "▁בביתו": 6483,
      "▁וקפצה": 6484,
      "▁ולהרגיש": 6485,
      "▁עשן": 6486,
      "▁ומקסים": 6487,
      "▁מקסימה": 6488,
      "▁הכחולים": 6489,
      "▁המפחיד": 6490,
      "הזאב": 6491,
      "▁המעגל": 6492,
      "▁נאכל": 6493,
      "▁צינור": 6494,
      "▁הפסקה": 6495,
      "▁בתוכה": 6496,
      "נרל": 6497,
      "▁האורן": 6498,
      "▁לשיח": 6499,
      "▁ודוגי": 6500,
      "רעיון": 6501,
      "▁ועייפים": 6502,
      "▁התנצלו": 6503,
      "▁אינטליגנטי": 6504,
      "▁ואוהבת": 6505,
      "אך": 6506,
      "אדי": 6507,
      "דנית": 6508,
      "החיה": 6509,
      "וסאם": 6510,
      "זרוק": 6511,
      "מעה": 6512,
      "נגד": 6513,
      "סאני": 6514,
      "▁הוריה": 6515,
      "▁לגי": 6516,
      "▁ובד": 6517,
      "▁ופתאום": 6518,
      "▁בקו": 6519,
      "▁עני": 6520,
      "ולד": 6521,
      "וללה": 6522,
      "▁שלע": 6523,
      "▁חג": 6524,
      "ובשים": 6525,
      "ובבים": 6526,
      "נהנו": 6527,
      "▁נמלים": 6528,
      "▁נלהב": 6529,
      "מיון": 6530,
      "צהוב": 6531,
      "ועם": 6532,
      "▁ואמיץ": 6533,
      "▁המפה": 6534,
      "▁לירות": 6535,
      "גיעה": 6536,
      "▁יכולתו": 6537,
      "▁הכיפ": 6538,
      "בוקים": 6539,
      "▁למערה": 6540,
      "▁היאכטה": 6541,
      "▁ולנוח": 6542,
      "▁אוהל": 6543,
      "▁עצמך": 6544,
      "▁ומתוק": 6545,
      "▁התביי": 6546,
      "▁התרופה": 6547,
      "▁ניכנס": 6548,
      "▁שהגשם": 6549,
      "▁כשזה": 6550,
      "זיף": 6551,
      "▁מחזיקה": 6552,
      "▁וצוע": 6553,
      "▁להתרוצץ": 6554,
      "▁נשך": 6555,
      "▁נשאה": 6556,
      "▁העוגן": 6557,
      "▁טיפשה": 6558,
      "▁ונהניתי": 6559,
      "▁תיקן": 6560,
      "▁מנעול": 6561,
      "▁שכבו": 6562,
      "▁מלאים": 6563,
      "כנסייה": 6564,
      "כלוך": 6565,
      "▁והפיל": 6566,
      "▁הנוצה": 6567,
      "▁יראו": 6568,
      "ארל": 6569,
      "קופיות": 6570,
      "▁התיקייה": 6571,
      "▁ונחתה": 6572,
      "▁וצעדו": 6573,
      "▁בכוחות": 6574,
      "▁חתיכות": 6575,
      "▁סימן": 6576,
      "הכובע": 6577,
      "▁ומהר": 6578,
      "▁ערני": 6579,
      "▁והתחבא": 6580,
      "▁שמרה": 6581,
      "▁רכשו": 6582,
      "יפושית": 6583,
      "▁ומאוד": 6584,
      "▁נפרדו": 6585,
      "התח": 6586,
      "ידת": 6587,
      "לתול": 6588,
      "נאו": 6589,
      "סנדי": 6590,
      "פפים": 6591,
      "שכים": 6592,
      "▁בניין": 6593,
      "▁ירקות": 6594,
      "▁חפרו": 6595,
      "ניקיות": 6596,
      "▁גזרים": 6597,
      "▁צמחים": 6598,
      "▁להבריק": 6599,
      "▁להשלים": 6600,
      "▁בשום": 6601,
      "▁סט": 6602,
      "▁ואנחנו": 6603,
      "▁המתו": 6604,
      "פוג": 6605,
      "▁לינשוף": 6606,
      "שרים": 6607,
      "▁ולוק": 6608,
      "▁דגל": 6609,
      "▁לקבור": 6610,
      "▁האבנים": 6611,
      "▁האבזם": 6612,
      "▁הגפן": 6613,
      "▁הבהיר": 6614,
      "▁לבנים": 6615,
      "▁התפ": 6616,
      "כלבים": 6617,
      "קרוא": 6618,
      "▁ללחוץ": 6619,
      "חתלתול": 6620,
      "▁ונשחק": 6621,
      "▁ונרגשים": 6622,
      "▁ושעיר": 6623,
      "האחות": 6624,
      "▁לצעצוע": 6625,
      "▁לדמיין": 6626,
      "▁מעדה": 6627,
      "▁שוחה": 6628,
      "▁שוכב": 6629,
      "▁לחברות": 6630,
      "▁בהלם": 6631,
      "נצלים": 6632,
      "▁מבטי": 6633,
      "▁שעועית": 6634,
      "▁מסוכנים": 6635,
      "▁בעצב": 6636,
      "▁המפואר": 6637,
      "▁לכסות": 6638,
      "▁המרושע": 6639,
      "▁הציץ": 6640,
      "פיקניק": 6641,
      "▁למרות": 6642,
      "▁סירב": 6643,
      "▁ומפחידה": 6644,
      "▁המכסה": 6645,
      "פרסקים": 6646,
      "▁ולתפוס": 6647,
      "▁בנהר": 6648,
      "▁וסקרן": 6649,
      "▁תפוחי": 6650,
      "▁ונסעו": 6651,
      "▁תופס": 6652,
      "ארה": 6653,
      "אדום": 6654,
      "בעל": 6655,
      "גנים": 6656,
      "וילון": 6657,
      "חיפש": 6658,
      "טתו": 6659,
      "מפ": 6660,
      "סיתי": 6661,
      "פפו": 6662,
      "קבות": 6663,
      "רוב": 6664,
      "תע": 6665,
      "▁לפה": 6666,
      "▁אנסה": 6667,
      "▁שגרה": 6668,
      "▁שאוהב": 6669,
      "▁מאי": 6670,
      "▁בלוק": 6671,
      "ואל": 6672,
      "ורנדו": 6673,
      "▁חב": 6674,
      "▁חיל": 6675,
      "ניש": 6676,
      "▁קיפ": 6677,
      "▁קמח": 6678,
      "▁טירת": 6679,
      "נוי": 6680,
      "▁המלוכלך": 6681,
      "רווה": 6682,
      "▁הצטערו": 6683,
      "▁תצ": 6684,
      "▁תות": 6685,
      "בוצת": 6686,
      "▁לחלום": 6687,
      "▁לחופשה": 6688,
      "▁לקו": 6689,
      "▁האת": 6690,
      "▁האבוקדו": 6691,
      "▁הבול": 6692,
      "▁הבדי": 6693,
      "▁העניבה": 6694,
      "▁להיפרד": 6695,
      "▁ומט": 6696,
      "▁ומברי": 6697,
      "▁ומכוניות": 6698,
      "▁משמחה": 6699,
      "באז": 6700,
      "▁שאתם": 6701,
      "▁הכדורסל": 6702,
      "▁בחלום": 6703,
      "איות": 6704,
      "▁בערימה": 6705,
      "▁מעניי": 6706,
      "▁להתעורר": 6707,
      "▁שוט": 6708,
      "כרבל": 6709,
      "▁ועוגיות": 6710,
      "נקות": 6711,
      "▁לטימי": 6712,
      "▁תיגע": 6713,
      "▁השיניים": 6714,
      "▁שעיר": 6715,
      "▁וכך": 6716,
      "▁המסרק": 6717,
      "▁נעולה": 6718,
      "▁הכלבלב": 6719,
      "שעזרת": 6720,
      "▁נרט": 6721,
      "▁שתתה": 6722,
      "▁בלונים": 6723,
      "▁פסקה": 6724,
      "▁הרפתקן": 6725,
      "▁מסתורי": 6726,
      "▁הנחל": 6727,
      "▁ומשפחתו": 6728,
      "▁ואהבו": 6729,
      "▁התרחק": 6730,
      "▁קוראים": 6731,
      "▁מהימן": 6732,
      "▁האמיתי": 6733,
      "למרבה": 6734,
      "▁כואבת": 6735,
      "לכודת": 6736,
      "הברבור": 6737,
      "▁החמוץ": 6738,
      "▁תולעת": 6739,
      "▁הרפתקנית": 6740,
      "▁שלחלוק": 6741,
      "אחר": 6742,
      "דבורה": 6743,
      "וסו": 6744,
      "והח": 6745,
      "חצח": 6746,
      "נורה": 6747,
      "ספי": 6748,
      "עף": 6749,
      "פפות": 6750,
      "רעש": 6751,
      "▁הוריו": 6752,
      "▁שעל": 6753,
      "▁שראה": 6754,
      "▁וזור": 6755,
      "▁וסם": 6756,
      "▁ערך": 6757,
      "היטים": 6758,
      "היער": 6759,
      "▁חשו": 6760,
      "▁חציר": 6761,
      "▁קליפה": 6762,
      "אהבו": 6763,
      "מיאו": 6764,
      "מידו": 6765,
      "▁החבית": 6766,
      "▁החשיכו": 6767,
      "▁והעץ": 6768,
      "▁ואביו": 6769,
      "▁הצבי": 6770,
      "▁הכנף": 6771,
      "▁הקירות": 6772,
      "▁הקבוצה": 6773,
      "▁ולבסוף": 6774,
      "▁לחבוש": 6775,
      "סוק": 6776,
      "▁הסלט": 6777,
      "▁הספגטי": 6778,
      "▁הפלפל": 6779,
      "▁לבור": 6780,
      "▁ידועה": 6781,
      "חיקה": 6782,
      "רגליים": 6783,
      "▁שובבים": 6784,
      "והע": 6785,
      "▁מוט": 6786,
      "▁הזחל": 6787,
      "▁מילי": 6788,
      "▁חלמה": 6789,
      "▁מתגלגל": 6790,
      "▁מתגעגע": 6791,
      "▁האוהל": 6792,
      "▁חוזר": 6793,
      "▁בצנצנת": 6794,
      "▁יוצאת": 6795,
      "▁המסטיק": 6796,
      "מצביע": 6797,
      "▁ומצחיק": 6798,
      "▁שניכם": 6799,
      "▁העצוב": 6800,
      "▁מטבעות": 6801,
      "הנערה": 6802,
      "▁התחבאו": 6803,
      "▁המגנט": 6804,
      "▁וחלקה": 6805,
      "▁שארית": 6806,
      "▁וקראה": 6807,
      "▁ואדיבים": 6808,
      "▁בדרכו": 6809,
      "▁אנרגיה": 6810,
      "להתראות": 6811,
      "▁בישלו": 6812,
      "▁ובורחים": 6813,
      "▁לעוגה": 6814,
      "בנית": 6815,
      "דגים": 6816,
      "דמנות": 6817,
      "הבלון": 6818,
      "המירוץ": 6819,
      "העיניים": 6820,
      "כפי": 6821,
      "ספת": 6822,
      "שלי": 6823,
      "▁לפרפר": 6824,
      "▁ארבעה": 6825,
      "▁שצ": 6826,
      "▁ובלה": 6827,
      "▁וויסקרס": 6828,
      "▁מטים": 6829,
      "▁מכשכש": 6830,
      "▁בוע": 6831,
      "ולת": 6832,
      "▁יה": 6833,
      "▁חת": 6834,
      "▁חכמים": 6835,
      "מרות": 6836,
      "ניבים": 6837,
      "▁קיי": 6838,
      "▁לארון": 6839,
      "▁טדי": 6840,
      "▁נערה": 6841,
      "▁פרא": 6842,
      "▁להסיר": 6843,
      "▁החציר": 6844,
      "▁שלוסי": 6845,
      "▁סנדי": 6846,
      "ועו": 6847,
      "תחזור": 6848,
      "▁הצלב": 6849,
      "▁יכולתה": 6850,
      "▁מהאו": 6851,
      "▁מהחדר": 6852,
      "▁מהגשם": 6853,
      "בהתחלה": 6854,
      "▁ולס": 6855,
      "ביים": 6856,
      "▁האגוזים": 6857,
      "תיזהרי": 6858,
      "▁הבנים": 6859,
      "▁העשב": 6860,
      "▁הפחם": 6861,
      "▁התרוצ": 6862,
      "טינה": 6863,
      "▁וחיות": 6864,
      "כשספוט": 6865,
      "▁משאל": 6866,
      "דרכה": 6867,
      "▁ניקתה": 6868,
      "▁לנבוח": 6869,
      "▁ונמוך": 6870,
      "▁הזו": 6871,
      "▁עוק": 6872,
      "המס": 6873,
      "▁מעמידים": 6874,
      "▁לספה": 6875,
      "▁לספסל": 6876,
      "▁להתעלם": 6877,
      "▁להתלונן": 6878,
      "▁מאפין": 6879,
      "▁אליס": 6880,
      "▁הוקי": 6881,
      "▁הטעם": 6882,
      "▁הטנדר": 6883,
      "▁לרכבת": 6884,
      "▁צעדה": 6885,
      "הסיפור": 6886,
      "▁ריקוד": 6887,
      "▁שרביט": 6888,
      "▁הנוצצת": 6889,
      "▁מודים": 6890,
      "▁מהנהנת": 6891,
      "ארבע": 6892,
      "▁לריצה": 6893,
      "▁וסיפרו": 6894,
      "▁האצבעות": 6895,
      "▁שיוכלו": 6896,
      "▁משועמם": 6897,
      "ספורת": 6898,
      "להחליק": 6899,
      "▁וגדלה": 6900,
      "אמו": 6901,
      "בתה": 6902,
      "בחדר": 6903,
      "גבר": 6904,
      "וו": 6905,
      "נד": 6906,
      "קפוץ": 6907,
      "▁לפיה": 6908,
      "▁לכבות": 6909,
      "▁שכש": 6910,
      "▁שייכת": 6911,
      "▁ותי": 6912,
      "▁ומודאג": 6913,
      "▁מרגש": 6914,
      "▁בלע": 6915,
      "ורסה": 6916,
      "▁חמאה": 6917,
      "▁חמצן": 6918,
      "ובש": 6919,
      "▁גלי": 6920,
      "▁גשר": 6921,
      "▁ננקה": 6922,
      "▁צנועה": 6923,
      "▁להנות": 6924,
      "▁לשוט": 6925,
      "נוד": 6926,
      "▁והמש": 6927,
      "▁והסתוב": 6928,
      "▁והרגישו": 6929,
      "▁המנוע": 6930,
      "▁ליקק": 6931,
      "תחה": 6932,
      "▁תל": 6933,
      "▁הקפה": 6934,
      "רקב": 6935,
      "▁לחי": 6936,
      "▁שיהיו": 6937,
      "סומים": 6938,
      "▁דוד": 6939,
      "▁לקיטי": 6940,
      "ותרת": 6941,
      "▁השדה": 6942,
      "▁הבאים": 6943,
      "▁העגול": 6944,
      "▁הפטרייה": 6945,
      "▁וחכמה": 6946,
      "פיקה": 6947,
      "דודה": 6948,
      "▁רוטב": 6949,
      "▁שהעוגה": 6950,
      "קווי": 6951,
      "▁באי": 6952,
      "והרת": 6953,
      "▁ונר": 6954,
      "▁מוזרה": 6955,
      "▁הזמינה": 6956,
      "▁החליקו": 6957,
      "האח": 6958,
      "▁לצלם": 6959,
      "▁להתמודד": 6960,
      "▁הנכונה": 6961,
      "▁קפוא": 6962,
      "▁חלם": 6963,
      "▁יצירתית": 6964,
      "▁בקיר": 6965,
      "▁בקופסא": 6966,
      "▁וקנה": 6967,
      "▁נשפך": 6968,
      "סאות": 6969,
      "הרובוט": 6970,
      "▁ריקה": 6971,
      "▁מקול": 6972,
      "▁הפתעות": 6973,
      "▁כוננית": 6974,
      "המשחק": 6975,
      "▁הסוכריה": 6976,
      "▁כתב": 6977,
      "▁תהו": 6978,
      "נעליים": 6979,
      "▁עסוקים": 6980,
      "▁בעליית": 6981,
      "▁מילאה": 6982,
      "▁התאמן": 6983,
      "▁הזרעים": 6984,
      "▁הסגולה": 6985,
      "▁האחרונה": 6986,
      "▁אסירי": 6987,
      "▁שגרם": 6988,
      "▁תשכח": 6989,
      "▁להקניט": 6990,
      "▁מדהימים": 6991,
      "▁להציג": 6992,
      "▁ונכנסו": 6993,
      "▁שזיפים": 6994,
      "▁נאנחת": 6995,
      "▁האדומים": 6996,
      "הזרע": 6997,
      "▁והולכים": 6998,
      "הכנתי": 6999,
      "▁הפופקורן": 7000,
      "▁ורועש": 7001,
      "הנהג": 7002,
      "הכוכב": 7003,
      "זרקה": 7004,
      "כריות": 7005,
      "לסאם": 7006,
      "לפק": 7007,
      "נץ": 7008,
      "צני": 7009,
      "רנגול": 7010,
      "▁שבא": 7011,
      "▁שמיה": 7012,
      "▁ובו": 7013,
      "▁והילדים": 7014,
      "▁וויל": 7015,
      "▁מן": 7016,
      "▁ברגע": 7017,
      "▁כוח": 7018,
      "▁קשים": 7019,
      "▁טריקים": 7020,
      "▁ציפ": 7021,
      "▁סולח": 7022,
      "▁ואנשים": 7023,
      "▁ואחורה": 7024,
      "▁קטנטן": 7025,
      "▁מהט": 7026,
      "▁מהשני": 7027,
      "▁למשהו": 7028,
      "שיקה": 7029,
      "שיבים": 7030,
      "▁ואמרתי": 7031,
      "▁הבצל": 7032,
      "▁זכה": 7033,
      "כשסו": 7034,
      "▁במד": 7035,
      "▁ניקה": 7036,
      "▁שהק": 7037,
      "קון": 7038,
      "▁בחרה": 7039,
      "▁בחושך": 7040,
      "▁הנדי": 7041,
      "▁שוטר": 7042,
      "▁הטבעת": 7043,
      "הצמח": 7044,
      "▁לטובים": 7045,
      "▁והחל": 7046,
      "▁ולהראות": 7047,
      "רותים": 7048,
      "▁המיקרופון": 7049,
      "▁המסכן": 7050,
      "▁להחלים": 7051,
      "לטאה": 7052,
      "▁שריפה": 7053,
      "▁מהירים": 7054,
      "▁לכאן": 7055,
      "▁הציורים": 7056,
      "▁הנוף": 7057,
      "▁ערבבו": 7058,
      "נדנדות": 7059,
      "▁רועשים": 7060,
      "▁הדגנים": 7061,
      "▁מהחנות": 7062,
      "▁וצעקו": 7063,
      "▁זקוקה": 7064,
      "▁אורז": 7065,
      "▁התוכנית": 7066,
      "▁נתקלה": 7067,
      "▁הלוויתן": 7068,
      "▁וגרמה": 7069,
      "▁סודית": 7070,
      "▁בשרביט": 7071,
      "▁ונכנסה": 7072,
      "▁שיתוף": 7073,
      "הכבשים": 7074,
      "זקות": 7075,
      "נמר": 7076,
      "צד": 7077,
      "קסי": 7078,
      "▁הטוסט": 7079,
      "▁שעם": 7080,
      "▁שאומר": 7081,
      "▁וראיתי": 7082,
      "▁מלמעלה": 7083,
      "▁בייסבול": 7084,
      "▁כות": 7085,
      "▁רעם": 7086,
      "▁רוד": 7087,
      "לילים": 7088,
      "ברר": 7089,
      "▁לאף": 7090,
      "▁טבי": 7091,
      "▁נבוכה": 7092,
      "▁פע": 7093,
      "▁להכות": 7094,
      "▁להודות": 7095,
      "▁להניף": 7096,
      "▁והתי": 7097,
      "▁המגש": 7098,
      "▁המלכה": 7099,
      "▁המגרפה": 7100,
      "פוד": 7101,
      "▁הצמר": 7102,
      "יונות": 7103,
      "▁מהכי": 7104,
      "מודה": 7105,
      "▁הכובעים": 7106,
      "▁הקשר": 7107,
      "בירו": 7108,
      "סוכר": 7109,
      "▁אוויר": 7110,
      "▁הבניין": 7111,
      "▁הפתוח": 7112,
      "▁להיכנע": 7113,
      "▁וחמה": 7114,
      "▁משלה": 7115,
      "החברה": 7116,
      "▁נחתה": 7117,
      "האש": 7118,
      "▁וצפתה": 7119,
      "▁שיחקנו": 7120,
      "מחזיק": 7121,
      "לעזרה": 7122,
      "הענק": 7123,
      "▁ברשת": 7124,
      "▁ההליכה": 7125,
      "לקק": 7126,
      "▁ופרו": 7127,
      "▁המסמר": 7128,
      "▁פיט": 7129,
      "▁להפריע": 7130,
      "▁לזכות": 7131,
      "▁תקבל": 7132,
      "▁בשבילנו": 7133,
      "▁צבעוניות": 7134,
      "▁דרכים": 7135,
      "▁מנומנם": 7136,
      "הלכתי": 7137,
      "▁הקרטון": 7138,
      "▁הישנים": 7139,
      "▁בתוכנית": 7140,
      "ורווה": 7141,
      "▁להדליק": 7142,
      "▁ורעב": 7143,
      "▁להסתיר": 7144,
      "▁לעברם": 7145,
      "▁צרחו": 7146,
      "מאושרים": 7147,
      "▁להכעיס": 7148,
      "▁הורידה": 7149,
      "▁מטונף": 7150,
      "הני": 7151,
      "הרי": 7152,
      "טית": 7153,
      "ככה": 7154,
      "לוליות": 7155,
      "מסתכל": 7156,
      "מצאת": 7157,
      "נפי": 7158,
      "נצים": 7159,
      "צצות": 7160,
      "רצו": 7161,
      "שתו": 7162,
      "▁שיום": 7163,
      "▁שביל": 7164,
      "▁ותח": 7165,
      "▁ופר": 7166,
      "▁ושו": 7167,
      "▁ברגל": 7168,
      "▁היתוש": 7169,
      "▁עשר": 7170,
      "▁יאהב": 7171,
      "▁שליו": 7172,
      "ליית": 7173,
      "▁חצר": 7174,
      "ניבר": 7175,
      "▁נזהרה": 7176,
      "▁בשמים": 7177,
      "▁סבון": 7178,
      "▁המגן": 7179,
      "רירים": 7180,
      "▁הצווא": 7181,
      "▁הסקווש": 7182,
      "▁האיפור": 7183,
      "סיטה": 7184,
      "▁הבטח": 7185,
      "?\",": 7186,
      "▁העורב": 7187,
      "▁ומתו": 7188,
      "▁התלכל": 7189,
      "פיות": 7190,
      "כשג": 7191,
      "▁משות": 7192,
      "▁ורצ": 7193,
      "▁ורגוע": 7194,
      "▁במפתח": 7195,
      "▁חזיר": 7196,
      "▁באף": 7197,
      "▁לנדנדה": 7198,
      "▁אוהבות": 7199,
      "▁מחזיקים": 7200,
      "▁ועדין": 7201,
      "המלכה": 7202,
      "ברוכים": 7203,
      "קלטת": 7204,
      "▁להתע": 7205,
      "▁הנקניק": 7206,
      "לעולם": 7207,
      "▁כדורגל": 7208,
      "טרובל": 7209,
      "▁חלפו": 7210,
      "▁יצרו": 7211,
      "▁מיהר": 7212,
      "העורב": 7213,
      "▁וסבתא": 7214,
      "▁ידיהם": 7215,
      "▁ופחד": 7216,
      "▁התיז": 7217,
      "▁והבחין": 7218,
      "▁זרועות": 7219,
      "▁להפריד": 7220,
      "לולו": 7221,
      "הפכו": 7222,
      "▁מתחשבת": 7223,
      "▁מסתור": 7224,
      "▁הרחב": 7225,
      "▁סלרי": 7226,
      "▁מהתנור": 7227,
      "▁מבוגרת": 7228,
      "▁נוספת": 7229,
      "תרנגולת": 7230,
      "▁פותח": 7231,
      "שמעתי": 7232,
      "▁האדומות": 7233,
      "▁לעודד": 7234,
      "▁והבטיחו": 7235,
      "▁הגרזן": 7236,
      "▁בכתפיו": 7237,
      "▁דוחף": 7238,
      "▁טעויות": 7239,
      "ניברסיטה": 7240,
      "אבי": 7241,
      "אחותו": 7242,
      "בחו": 7243,
      "בלילה": 7244,
      "זהירות": 7245,
      "זיפים": 7246,
      "יצא": 7247,
      "כיל": 7248,
      "כילה": 7249,
      "ממ": 7250,
      "מבולנס": 7251,
      "עגל": 7252,
      "שמו": 7253,
      "שועל": 7254,
      "תק": 7255,
      "תפוח": 7256,
      "▁לכיף": 7257,
      "▁אג": 7258,
      "▁אמו": 7259,
      "▁שהילד": 7260,
      "▁ששרה": 7261,
      "▁שחורה": 7262,
      "▁ובילי": 7263,
      "▁וכיף": 7264,
      "▁היקר": 7265,
      "▁ענפים": 7266,
      "▁יכ": 7267,
      "▁יצר": 7268,
      "▁חלון": 7269,
      "▁קמה": 7270,
      "▁קלה": 7271,
      "▁נסיך": 7272,
      "▁לשלולית": 7273,
      "▁לשחרר": 7274,
      "דידותי": 7275,
      "▁קטף": 7276,
      "▁המחק": 7277,
      "▁המקדש": 7278,
      "▁לענף": 7279,
      "▁ליילה": 7280,
      "▁הצנון": 7281,
      "▁תותים": 7282,
      "▁מהכדור": 7283,
      "▁עצמם": 7284,
      "▁השעועית": 7285,
      "▁השחמט": 7286,
      "▁העבה": 7287,
      "▁לבחון": 7288,
      "▁ומכונית": 7289,
      "▁התות": 7290,
      "▁החליל": 7291,
      "▁בעבודה": 7292,
      "▁ועפה": 7293,
      "▁ועסיסי": 7294,
      "▁וצבעים": 7295,
      "▁בסביבה": 7296,
      "שלח": 7297,
      "▁להתבדח": 7298,
      "▁שוכחים": 7299,
      "▁הוס": 7300,
      "▁הטיפ": 7301,
      "▁ובהיר": 7302,
      "▁מפואר": 7303,
      "▁שקטה": 7304,
      "מורד": 7305,
      "▁בכאילו": 7306,
      "פתעתו": 7307,
      "▁הבלוק": 7308,
      "▁ודברים": 7309,
      "▁מקור": 7310,
      "▁עזרתה": 7311,
      "לוכלכת": 7312,
      "▁המשולש": 7313,
      "▁ומרי": 7314,
      "שנינו": 7315,
      "▁ארזו": 7316,
      "▁והביט": 7317,
      "▁בכיסו": 7318,
      "▁שיכולתי": 7319,
      "▁בורח": 7320,
      "▁זורקים": 7321,
      "▁ודחפו": 7322,
      "▁העטיפה": 7323,
      "▁במהרה": 7324,
      "▁בשיח": 7325,
      "▁ועדיין": 7326,
      "השומה": 7327,
      "▁פוגע": 7328,
      "▁באזי": 7329,
      "▁הגולגולת": 7330,
      "צוחקים": 7331,
      "▁נאלצה": 7332,
      "עטש": 7333,
      "▁מוכשר": 7334,
      "▁מחפשים": 7335,
      "▁המפורסם": 7336,
      "▁שמאלה": 7337,
      "גף": 7338,
      "דע": 7339,
      "הפרחים": 7340,
      "ודה": 7341,
      "חזיר": 7342,
      "מני": 7343,
      "▁ובאדי": 7344,
      "▁מבק": 7345,
      "▁מהירות": 7346,
      "▁מבינה": 7347,
      "▁בטן": 7348,
      "▁בפרחים": 7349,
      "ותית": 7350,
      "נהנים": 7351,
      "זהרו": 7352,
      "▁נשב": 7353,
      "▁נשים": 7354,
      "▁נחוש": 7355,
      "▁להריח": 7356,
      "▁להשוויץ": 7357,
      "▁לשחזר": 7358,
      "מיעה": 7359,
      "ייב": 7360,
      "▁והפרחים": 7361,
      "▁המהיר": 7362,
      "▁המועדון": 7363,
      "רוש": 7364,
      "▁לימונים": 7365,
      "גיח": 7366,
      "▁הצטרפו": 7367,
      "▁שמפו": 7368,
      "▁תכנ": 7369,
      "▁תרופה": 7370,
      "▁מהד": 7371,
      "▁לחש": 7372,
      "▁הסיום": 7373,
      "פרור": 7374,
      "▁השם": 7375,
      "▁השקופית": 7376,
      "חודית": 7377,
      "פיצות": 7378,
      "אזלים": 7379,
      "פתק": 7380,
      "▁שלישי": 7381,
      "כימה": 7382,
      "▁באש": 7383,
      "▁באסם": 7384,
      "▁ונק": 7385,
      "▁הזמין": 7386,
      "▁ושפשף": 7387,
      "▁ושמחו": 7388,
      "▁מחא": 7389,
      "▁יפהפייה": 7390,
      "המגלשה": 7391,
      "שלג": 7392,
      "שלולית": 7393,
      "▁להתלבש": 7394,
      "▁אחריי": 7395,
      "גשתי": 7396,
      "מתנה": 7397,
      "טרת": 7398,
      "▁מתנות": 7399,
      "▁האופנוע": 7400,
      "▁הגיר": 7401,
      "▁ובגדים": 7402,
      "▁מפסי": 7403,
      "▁ותאמר": 7404,
      "▁ההז": 7405,
      "▁לנופף": 7406,
      "עשתה": 7407,
      "▁עשיתי": 7408,
      "▁דגנים": 7409,
      "התפוח": 7410,
      "▁והאנשים": 7411,
      "▁נופלים": 7412,
      "▁ירדו": 7413,
      "▁מנומסת": 7414,
      "▁הסוד": 7415,
      "▁הברזל": 7416,
      "▁עבורם": 7417,
      "▁התוכי": 7418,
      "▁יוצאים": 7419,
      "▁ולשחות": 7420,
      "▁התאמנו": 7421,
      "▁ומלאים": 7422,
      "▁צודקת": 7423,
      "▁בישלה": 7424,
      "▁בשקית": 7425,
      "▁התעייפו": 7426,
      "▁ביומן": 7427,
      "▁מתקרבת": 7428,
      "▁נתחרה": 7429,
      "▁הערפל": 7430,
      "גזג": 7431,
      "התולעת": 7432,
      "ונת": 7433,
      "יזר": 7434,
      "נמס": 7435,
      "עזוב": 7436,
      "▁הבוד": 7437,
      "▁אלך": 7438,
      "▁אריות": 7439,
      "▁ששניהם": 7440,
      "▁שנוכל": 7441,
      "▁מגרש": 7442,
      "▁עשב": 7443,
      "▁ענבים": 7444,
      "▁יבשים": 7445,
      "▁אתכם": 7446,
      "הימים": 7447,
      "ורם": 7448,
      "▁חמד": 7449,
      "▁לאסם": 7450,
      "▁נעים": 7451,
      "▁ניתן": 7452,
      "▁פקח": 7453,
      "בלת": 7454,
      "בלים": 7455,
      "יפר": 7456,
      "אהוב": 7457,
      "▁ספינה": 7458,
      "הבטן": 7459,
      "▁ואסי": 7460,
      "▁תג": 7461,
      "▁תהיי": 7462,
      "▁הכבשים": 7463,
      "▁לחלק": 7464,
      "▁דמות": 7465,
      "▁דפוס": 7466,
      "▁לומד": 7467,
      "▁הלחי": 7468,
      "▁השור": 7469,
      "▁השובב": 7470,
      "▁הענפים": 7471,
      "▁הפחד": 7472,
      "▁וממתקים": 7473,
      "▁וחום": 7474,
      "לאכול": 7475,
      "▁הדבק": 7476,
      "באזי": 7477,
      "▁רעדה": 7478,
      "▁באנשים": 7479,
      "והן": 7480,
      "▁ונכנס": 7481,
      "▁הזבל": 7482,
      "▁לתלות": 7483,
      "המנוע": 7484,
      "▁להתאמן": 7485,
      "כבשה": 7486,
      "▁גרב": 7487,
      "▁האוקיינוס": 7488,
      "הצבי": 7489,
      "▁מפחידה": 7490,
      "▁ברכות": 7491,
      "▁ונייר": 7492,
      "▁מבלי": 7493,
      "▁המסלול": 7494,
      "▁וטס": 7495,
      "▁הבלונים": 7496,
      "▁דובון": 7497,
      "▁מקורי": 7498,
      "▁מטורף": 7499,
      "▁מטלית": 7500,
      "▁קרובים": 7501,
      "▁התחבאה": 7502,
      "פיפין": 7503,
      "▁והאיש": 7504,
      "הקבוצה": 7505,
      "▁הציעה": 7506,
      "▁וזנב": 7507,
      "▁מהמטבח": 7508,
      "▁המגזין": 7509,
      "הכריש": 7510,
      "▁הלימונים": 7511,
      "▁ורקדה": 7512,
      "▁ואדיבה": 7513,
      "הלוויתן": 7514,
      "▁ישנונית": 7515,
      "▁ואכלה": 7516,
      "▁השוטר": 7517,
      "▁וצהובה": 7518,
      "▁בדיחות": 7519,
      "▁עומדת": 7520,
      "▁המבוגרת": 7521,
      "▁מצדך": 7522,
      "!!": 7523,
      "אח": 7524,
      "וויסקרס": 7525,
      "זעקה": 7526,
      "נכנס": 7527,
      "פירות": 7528,
      "שובה": 7529,
      "שייה": 7530,
      "▁לתינוק": 7531,
      "▁אבק": 7532,
      "▁אפרסק": 7533,
      "▁וסי": 7534,
      "▁ופי": 7535,
      "▁ופס": 7536,
      "▁וציפורים": 7537,
      "▁ומיוחד": 7538,
      "▁מגע": 7539,
      "▁מנצח": 7540,
      "▁בטים": 7541,
      "▁בסו": 7542,
      "▁בכלב": 7543,
      "▁בערפל": 7544,
      "▁עולם": 7545,
      "▁עגבניות": 7546,
      "▁רכשה": 7547,
      "▁רובי": 7548,
      "▁רפאים": 7549,
      "לישה": 7550,
      "▁חשה": 7551,
      "ובבה": 7552,
      "ובילה": 7553,
      "▁לאהוב": 7554,
      "▁טע": 7555,
      "▁גלג": 7556,
      "▁פיפ": 7557,
      "▁צעיף": 7558,
      "▁סמוך": 7559,
      "הבת": 7560,
      "▁הרעלה": 7561,
      "▁הרשע": 7562,
      "▁הרוטב": 7563,
      "▁המטרייה": 7564,
      "פוצץ": 7565,
      "▁ליותר": 7566,
      "גישים": 7567,
      "▁הצילו": 7568,
      "▁הצורות": 7569,
      "▁תנסה": 7570,
      "▁מהחתול": 7571,
      "▁מהשמש": 7572,
      "מונדה": 7573,
      "▁הכפר": 7574,
      "▁ולקרוא": 7575,
      "▁הסירות": 7576,
      "▁הסמרטוט": 7577,
      "▁השמח": 7578,
      "▁השקט": 7579,
      "▁השמפו": 7580,
      "▁הגורילה": 7581,
      "▁זאב": 7582,
      "▁זועף": 7583,
      "▁משלך": 7584,
      "▁משאר": 7585,
      "ערת": 7586,
      "▁ורג": 7587,
      "▁נישקה": 7588,
      "▁ונשאר": 7589,
      "▁ושני": 7590,
      "▁לגדל": 7591,
      "▁מסטיק": 7592,
      "איזו": 7593,
      "▁לתמוך": 7594,
      "▁להתנגד": 7595,
      "▁מאורגן": 7596,
      "▁אלינו": 7597,
      "▁שוק": 7598,
      "▁הווילון": 7599,
      "▁הטיפש": 7600,
      "▁קרטון": 7601,
      "▁מתאים": 7602,
      "הצי": 7603,
      "ברירי": 7604,
      "▁נוצה": 7605,
      "▁ארון": 7606,
      "▁בלשחק": 7607,
      "▁והחכם": 7608,
      "▁טיפלה": 7609,
      "▁שעשה": 7610,
      "▁המספרים": 7611,
      "▁נעשו": 7612,
      "הסערה": 7613,
      "▁והוציאה": 7614,
      "▁העציב": 7615,
      "▁נפלאה": 7616,
      "▁נופלת": 7617,
      "▁ברחבי": 7618,
      "▁דרכם": 7619,
      "סקרן": 7620,
      "▁רועדת": 7621,
      "צעקה": 7622,
      "▁והסכים": 7623,
      "▁תיקנו": 7624,
      "מייק": 7625,
      "▁לובש": 7626,
      "▁והבטיחה": 7627,
      "▁והודתה": 7628,
      "הפרעוש": 7629,
      "▁אופניו": 7630,
      "',": 7631,
      "אריה": 7632,
      "במה": 7633,
      "געת": 7634,
      "ווף": 7635,
      "טחה": 7636,
      "יקי": 7637,
      "כברים": 7638,
      "נפת": 7639,
      "סיי": 7640,
      "סלע": 7641,
      "ענן": 7642,
      "קאט": 7643,
      "רואה": 7644,
      "▁הדיו": 7645,
      "▁אגוז": 7646,
      "▁שיל": 7647,
      "▁שברה": 7648,
      "▁מטה": 7649,
      "▁מורה": 7650,
      "▁מופע": 7651,
      "▁ביל": 7652,
      "▁בביצה": 7653,
      "▁ימצאו": 7654,
      "▁רופא": 7655,
      "▁קפה": 7656,
      "▁קונ": 7657,
      "נהנה": 7658,
      "▁פלפל": 7659,
      "▁בשני": 7660,
      "▁סירות": 7661,
      "▁סדק": 7662,
      "▁והלו": 7663,
      "▁והגיע": 7664,
      "▁המוס": 7665,
      "▁המזרן": 7666,
      "ריכה": 7667,
      "רונות": 7668,
      "▁שמשי": 7669,
      "▁תס": 7670,
      "▁מהפארק": 7671,
      "▁מהמיטה": 7672,
      "!\",": 7673,
      "▁דפיקה": 7674,
      "▁אופנוע": 7675,
      "▁הסדין": 7676,
      "▁הסוללה": 7677,
      "▁האמינו": 7678,
      "▁השנה": 7679,
      "▁מצמץ": 7680,
      "▁הגלולה": 7681,
      "▁הפטיש": 7682,
      "▁להינמס": 7683,
      "▁משקה": 7684,
      "▁שאנה": 7685,
      "▁שהז": 7686,
      "▁חיטה": 7687,
      "▁חדות": 7688,
      "כיבים": 7689,
      "▁לנער": 7690,
      "▁עלינו": 7691,
      "▁ושמר": 7692,
      "אימה": 7693,
      "▁בוטנים": 7694,
      "צרצר": 7695,
      "▁מעגל": 7696,
      "▁להתראות": 7697,
      "▁הנק": 7698,
      "סרט": 7699,
      "▁האווז": 7700,
      "הדלעת": 7701,
      "▁לרפא": 7702,
      "▁וקול": 7703,
      "▁יוצרים": 7704,
      "▁צעדים": 7705,
      "▁שקטים": 7706,
      "▁תיקח": 7707,
      "▁צחקקה": 7708,
      "בשדה": 7709,
      "▁המושלמת": 7710,
      "▁בריאים": 7711,
      "▁המפוארת": 7712,
      "▁זוכר": 7713,
      "▁הנוצצים": 7714,
      "החברות": 7715,
      "▁דרכי": 7716,
      "צלחת": 7717,
      "▁סבלנית": 7718,
      "▁צלצל": 7719,
      "▁האישה": 7720,
      "▁מהאגם": 7721,
      "▁הרגיל": 7722,
      "▁ופתחו": 7723,
      "▁והתחבקו": 7724,
      "▁הפרוותי": 7725,
      "▁וססגונית": 7726,
      "▁מסודרת": 7727,
      "▁בשיער": 7728,
      "▁מניח": 7729,
      "▁מושכת": 7730,
      "▁רכבו": 7731,
      "▁הצבעוני": 7732,
      "▁בירדי": 7733,
      "▁להציץ": 7734,
      "▁להכניס": 7735,
      "▁סוללה": 7736,
      "▁בעבודתו": 7737,
      "יקירתי": 7738,
      "▁ומצטערים": 7739,
      "קוויקי": 7740,
      "בובה": 7741,
      "הופי": 7742,
      "ווה": 7743,
      "כנו": 7744,
      "מורה": 7745,
      "פיי": 7746,
      "פחות": 7747,
      "קפץ": 7748,
      "▁הדין": 7749,
      "▁ללא": 7750,
      "▁לכיסא": 7751,
      "▁בפרס": 7752,
      "▁היין": 7753,
      "▁היבש": 7754,
      "ואולי": 7755,
      "▁שלעזור": 7756,
      "ובר": 7757,
      "ובת": 7758,
      "ובכן": 7759,
      "▁קא": 7760,
      "▁לאמהות": 7761,
      "▁פאזל": 7762,
      "▁צופים": 7763,
      "▁לשער": 7764,
      "▁לשניהם": 7765,
      "▁החבי": 7766,
      "▁סביבה": 7767,
      "▁הרטובה": 7768,
      "ועים": 7769,
      "▁והט": 7770,
      "▁והאו": 7771,
      "▁ואל": 7772,
      "▁לעס": 7773,
      "▁הצעיר": 7774,
      "▁הצמיג": 7775,
      "▁שמת": 7776,
      "מופע": 7777,
      "▁הכפתורים": 7778,
      "▁דובה": 7779,
      "▁האגס": 7780,
      "▁השכן": 7781,
      "▁בישל": 7782,
      "▁העפר": 7783,
      "▁העמוד": 7784,
      "▁לבובה": 7785,
      "▁לבצע": 7786,
      "לאיימי": 7787,
      "משפחתו": 7788,
      "טווי": 7789,
      "▁משלו": 7790,
      "▁חבריהם": 7791,
      "החזי": 7792,
      "▁באחו": 7793,
      "▁לנגב": 7794,
      "▁נחזור": 7795,
      "▁ושקט": 7796,
      "▁מחכים": 7797,
      "בעיר": 7798,
      "▁לצלצל": 7799,
      "פסנתר": 7800,
      "▁מעריץ": 7801,
      "סתרת": 7802,
      "▁הוופל": 7803,
      "▁קינאו": 7804,
      "▁האוכמניות": 7805,
      "▁ארוכות": 7806,
      "▁אוכלת": 7807,
      "▁השתנה": 7808,
      "▁התיקים": 7809,
      "▁למירוץ": 7810,
      "פתעתה": 7811,
      "▁במשאית": 7812,
      "▁בעצים": 7813,
      "▁נופפה": 7814,
      "▁וליקק": 7815,
      "▁ערבבה": 7816,
      "▁המדליה": 7817,
      "אוקיינוס": 7818,
      "▁מסתתר": 7819,
      "▁וחשבו": 7820,
      "▁ייעלם": 7821,
      "▁ייחודי": 7822,
      "▁וקראו": 7823,
      "▁נגמרה": 7824,
      "▁ולונה": 7825,
      "▁וירד": 7826,
      "▁מגיעים": 7827,
      "▁במעגלים": 7828,
      "▁שגרו": 7829,
      "▁הקובייה": 7830,
      "▁בכנפיה": 7831,
      "▁רגועים": 7832,
      "▁ניצחה": 7833,
      "▁ואוכלים": 7834,
      "▁יקבל": 7835,
      "▁ובריא": 7836,
      "▁הקונוס": 7837,
      "▁הפליגו": 7838,
      "▁והשתמשה": 7839,
      "תפסיקו": 7840,
      "▁להגשים": 7841,
      "בשביל": 7842,
      "העו": 7843,
      "הרגל": 7844,
      "ויה": 7845,
      "וויל": 7846,
      "טריות": 7847,
      "מעו": 7848,
      "רית": 7849,
      "רטון": 7850,
      "שלו": 7851,
      "▁אפשר": 7852,
      "▁ותיק": 7853,
      "▁בעו": 7854,
      "▁בחיות": 7855,
      "▁ערימת": 7856,
      "▁יגדל": 7857,
      "ורא": 7858,
      "▁חץ": 7859,
      "▁חטטן": 7860,
      "ובד": 7861,
      "▁לאחותו": 7862,
      "▁טלוויזיה": 7863,
      "▁גיר": 7864,
      "▁נכין": 7865,
      "▁נשתמש": 7866,
      "▁בשמלה": 7867,
      "כולת": 7868,
      "▁סגר": 7869,
      "נוקות": 7870,
      "▁ואמיצה": 7871,
      "▁המגירה": 7872,
      "▁הצעירה": 7873,
      "▁תנומה": 7874,
      "▁הכפית": 7875,
      "▁למקל": 7876,
      "סוך": 7877,
      "▁לוויתן": 7878,
      "▁לקל": 7879,
      "▁הגנב": 7880,
      "▁העפרונות": 7881,
      "▁ומל": 7882,
      "▁זבל": 7883,
      "▁זוח": 7884,
      "▁התבייש": 7885,
      "דוור": 7886,
      "▁הדוד": 7887,
      "▁הדלק": 7888,
      "▁משל": 7889,
      "▁רוקד": 7890,
      "באגם": 7891,
      "באמת": 7892,
      "שבור": 7893,
      "▁במפעל": 7894,
      "כיב": 7895,
      "▁מוכר": 7896,
      "▁הזבוב": 7897,
      "שתמ": 7898,
      "▁ושבר": 7899,
      "▁מסכה": 7900,
      "▁וירוקה": 7901,
      "האמהות": 7902,
      "▁לצבוט": 7903,
      "▁וצר": 7904,
      "▁מעטפה": 7905,
      "▁להתאחד": 7906,
      "▁מאורג": 7907,
      "חולצה": 7908,
      "▁כדורסל": 7909,
      "▁צפויים": 7910,
      "▁מתקרב": 7911,
      "▁בהרפתקה": 7912,
      "▁והחברים": 7913,
      "▁יוגורט": 7914,
      "▁הפרעוש": 7915,
      "▁ממני": 7916,
      "▁הניחו": 7917,
      "▁מצחיקות": 7918,
      "▁מנע": 7919,
      "▁שכבה": 7920,
      "▁ומחא": 7921,
      "▁והעמידו": 7922,
      "▁ולעולם": 7923,
      "▁קסדה": 7924,
      "הזבוב": 7925,
      "הזחל": 7926,
      "גורן": 7927,
      "▁התכופפה": 7928,
      "▁מהמכונית": 7929,
      "▁ארנק": 7930,
      "▁הכרובית": 7931,
      "▁החלקה": 7932,
      "▁והביאה": 7933,
      "▁התעייף": 7934,
      "▁האורז": 7935,
      "▁הליצן": 7936,
      "▁רדפו": 7937,
      "▁המאפרה": 7938,
      "▁למוזיאון": 7939,
      "▁הלוטרה": 7940,
      "▁ואיטי": 7941,
      "▁נזכרה": 7942,
      "▁העמידה": 7943,
      "▁ויכולה": 7944,
      "▁והנהן": 7945,
      "▁פותחת": 7946,
      "▁השוקולד": 7947,
      "אחות": 7948,
      "בסי": 7949,
      "געים": 7950,
      "האוכל": 7951,
      "חזרה": 7952,
      "טט": 7953,
      "יהיה": 7954,
      "לראות": 7955,
      "קולי": 7956,
      "שברת": 7957,
      "▁הטי": 7958,
      "▁אה": 7959,
      "▁אחי": 7960,
      "▁אשחק": 7961,
      "▁אמצא": 7962,
      "▁אביה": 7963,
      "▁משי": 7964,
      "▁מביא": 7965,
      "▁מריח": 7966,
      "▁משימה": 7967,
      "▁עפים": 7968,
      "▁עיירה": 7969,
      "▁יורד": 7970,
      "▁כפתורים": 7971,
      "ורום": 7972,
      "▁ריי": 7973,
      "ליהם": 7974,
      "▁חצי": 7975,
      "▁קוב": 7976,
      "▁קצה": 7977,
      "יימס": 7978,
      "▁החנית": 7979,
      "▁החצאית": 7980,
      "▁סופר": 7981,
      "▁סגורה": 7982,
      "▁המכשפה": 7983,
      "▁לידה": 7984,
      "▁שמצאת": 7985,
      "▁מהכ": 7986,
      "▁מהתיק": 7987,
      "▁הכנ": 7988,
      "▁הקקטוס": 7989,
      "בהל": 7990,
      "▁ולהח": 7991,
      "▁לחת": 7992,
      "▁שינה": 7993,
      "▁הסמוך": 7994,
      "▁האפוד": 7995,
      "▁הלכתי": 7996,
      "▁הלטאה": 7997,
      "תוכל": 7998,
      "עושים": 7999,
      "▁הגוף": 8000,
      "▁בינקי": 8001,
      "▁הערימה": 8002,
      "▁הפח": 8003,
      "▁הפילו": 8004,
      "▁להירקב": 8005,
      "▁ומנ": 8006,
      "▁התנצל": 8007,
      "טיב": 8008,
      "▁וחול": 8009,
      "▁הדף": 8010,
      "▁חברי": 8011,
      "▁לפח": 8012,
      "▁ושחו": 8013,
      "ברוקולי": 8014,
      "▁באוהל": 8015,
      "▁בובת": 8016,
      "▁ובני": 8017,
      "▁נוחת": 8018,
      "▁יונה": 8019,
      "▁בתא": 8020,
      "כשהציפור": 8021,
      "▁שעשו": 8022,
      "▁ונוחה": 8023,
      "▁והבחורה": 8024,
      "▁להחשיך": 8025,
      "לטתי": 8026,
      "▁מנטה": 8027,
      "▁חולים": 8028,
      "▁מגניבים": 8029,
      "▁מוזרים": 8030,
      "▁כוחו": 8031,
      "▁והפסיק": 8032,
      "ושעת": 8033,
      "▁ומראה": 8034,
      "▁המתנות": 8035,
      "▁המתכת": 8036,
      "▁התעוררו": 8037,
      "▁הקרס": 8038,
      "▁סינר": 8039,
      "▁ומשפחתה": 8040,
      "ותיהם": 8041,
      "▁רדפה": 8042,
      "▁המאפה": 8043,
      "▁הקישוט": 8044,
      "▁לבובו": 8045,
      "▁במעבדה": 8046,
      "▁השומר": 8047,
      "▁צועקים": 8048,
      "▁מטוסים": 8049,
      "▁להשתח": 8050,
      "▁הזיקוקים": 8051,
      "▁והשתעש": 8052,
      "▁מוטרדת": 8053,
      "▁התכוונה": 8054,
      "▁מחבריה": 8055,
      "▁סולחת": 8056,
      "השיער": 8057,
      "▁דילגה": 8058,
      "יטיות": 8059,
      "▁להסתפר": 8060,
      "▁לכיור": 8061,
      "▁בספרייה": 8062,
      "זכרו": 8063,
      "הרפתקה": 8064,
      "▁ולשתף": 8065,
      "ip": 8066,
      "אמת": 8067,
      "והילדה": 8068,
      "זרק": 8069,
      "לקו": 8070,
      "סמת": 8071,
      "שכח": 8072,
      "תמונה": 8073,
      "תנין": 8074,
      "▁לרוח": 8075,
      "▁לכרית": 8076,
      "▁וער": 8077,
      "▁מות": 8078,
      "▁מבן": 8079,
      "▁מייק": 8080,
      "▁היות": 8081,
      "ולל": 8082,
      "הימה": 8083,
      "▁חליפה": 8084,
      "▁חבוי": 8085,
      "נהניתי": 8086,
      "▁נוה": 8087,
      "▁נוף": 8088,
      "▁פקחה": 8089,
      "▁להגיש": 8090,
      "▁להניח": 8091,
      "▁החשוב": 8092,
      "▁סמל": 8093,
      "▁ספרו": 8094,
      "▁ספרה": 8095,
      "דידות": 8096,
      "▁ואסיר": 8097,
      "▁המדים": 8098,
      "▁לעלה": 8099,
      "▁תרגיש": 8100,
      "יוץ": 8101,
      "▁מהחברים": 8102,
      "עצם": 8103,
      "▁הקודר": 8104,
      "▁הקקאו": 8105,
      "▁הקופסאות": 8106,
      "ופשי": 8107,
      "▁השזיפים": 8108,
      "▁הבועה": 8109,
      "▁בידיה": 8110,
      "▁להיר": 8111,
      "▁לבחוש": 8112,
      "ודעה": 8113,
      "▁ומג": 8114,
      "▁ומשע": 8115,
      "▁זיפ": 8116,
      "▁זמין": 8117,
      "▁התגעגע": 8118,
      "▁וחברים": 8119,
      "▁וחלב": 8120,
      "▁וחזקים": 8121,
      "טונה": 8122,
      "▁משמח": 8123,
      "▁במגרש": 8124,
      "החמניות": 8125,
      "▁לנשוב": 8126,
      "▁לנעול": 8127,
      "▁עוגות": 8128,
      "▁לצחצח": 8129,
      "▁שיחקתי": 8130,
      "▁קינוח": 8131,
      "▁מתכו": 8132,
      "▁מתעורר": 8133,
      "הצלת": 8134,
      "▁בצעצוע": 8135,
      "▁והבין": 8136,
      "▁רגלו": 8137,
      "▁לכלוב": 8138,
      "▁מקשיבים": 8139,
      "▁שחיו": 8140,
      "▁נרטב": 8141,
      "▁בטיפ": 8142,
      "הפיראט": 8143,
      "▁המחברת": 8144,
      "▁פסל": 8145,
      "▁מבריקים": 8146,
      "▁והראו": 8147,
      "קופץ": 8148,
      "▁רחום": 8149,
      "▁האיגלו": 8150,
      "▁וידעו": 8151,
      "▁הקולב": 8152,
      "▁מהיער": 8153,
      "▁חופשייה": 8154,
      "הלוטרה": 8155,
      "▁כנפיו": 8156,
      "▁ידידותיים": 8157,
      "▁להזהיר": 8158,
      "▁מזויפת": 8159,
      "▁קוקו": 8160,
      "▁הדוק": 8161,
      "▁מטופשים": 8162,
      "▁מטופשת": 8163,
      "▁בתיבה": 8164,
      "פחדתי": 8165,
      "▁למסעדה": 8166,
      "▁הארוחה": 8167,
      "▁הפליגה": 8168,
      "▁וצועקים": 8169,
      "▁מהכיס": 8170,
      "▁משותפת": 8171,
      "▁הכנפיים": 8172,
      "המא": 8173,
      "והיו": 8174,
      "ככל": 8175,
      "כבה": 8176,
      "נעים": 8177,
      "נערה": 8178,
      "סרי": 8179,
      "עגול": 8180,
      "פחיד": 8181,
      "צבע": 8182,
      "צבעים": 8183,
      "צופה": 8184,
      "רובי": 8185,
      "▁אבקה": 8186,
      "▁שאוכל": 8187,
      "▁וזר": 8188,
      "▁מתה": 8189,
      "▁בטום": 8190,
      "▁בפי": 8191,
      "▁עיתון": 8192,
      "ולפעמים": 8193,
      "▁אתמול": 8194,
      "ובדים": 8195,
      "נינו": 8196,
      "ברבור": 8197,
      "▁קקאו": 8198,
      "▁טבעת": 8199,
      "▁גוזל": 8200,
      "▁נעזור": 8201,
      "▁פול": 8202,
      "▁צבי": 8203,
      "▁בשורה": 8204,
      "▁בשלום": 8205,
      "▁החכמה": 8206,
      "▁החמאה": 8207,
      "▁סמרטוט": 8208,
      "דהמה": 8209,
      "▁ואכ": 8210,
      "▁ואחות": 8211,
      "▁ואפור": 8212,
      "▁המנהרה": 8213,
      "▁המבחן": 8214,
      "▁לענות": 8215,
      "▁לעליית": 8216,
      "מוש": 8217,
      "▁הכיר": 8218,
      "▁הכניס": 8219,
      "▁למתוח": 8220,
      "בינקי": 8221,
      "▁הסביר": 8222,
      "ופלים": 8223,
      "▁האפל": 8224,
      "▁האביב": 8225,
      "▁טובי": 8226,
      "▁הלולאה": 8227,
      "▁השופט": 8228,
      "ירא": 8229,
      "חושת": 8230,
      "▁העי": 8231,
      "▁ומתחיל": 8232,
      "▁ומבריק": 8233,
      "▁התאים": 8234,
      "טיסים": 8235,
      "▁וחשו": 8236,
      "▁משפחת": 8237,
      "▁רוכסן": 8238,
      "קרן": 8239,
      "▁ניצוץ": 8240,
      "▁שהחברים": 8241,
      "קוז": 8242,
      "▁בחתול": 8243,
      "▁כשאני": 8244,
      "▁ונע": 8245,
      "▁הזכירה": 8246,
      "▁עוצר": 8247,
      "האגם": 8248,
      "▁החתולים": 8249,
      "▁באוקיינוס": 8250,
      "▁לסטור": 8251,
      "▁לסחוט": 8252,
      "▁מיובשים": 8253,
      "▁בפעמון": 8254,
      "▁גרייס": 8255,
      "▁חיוור": 8256,
      "▁פרות": 8257,
      "▁מתנהג": 8258,
      "▁בקור": 8259,
      "העלה": 8260,
      "העכביש": 8261,
      "▁נשען": 8262,
      "לחץ": 8263,
      "▁ממקום": 8264,
      "▁בכפו": 8265,
      "וריהם": 8266,
      "▁פיסת": 8267,
      "▁העצובות": 8268,
      "▁ולחשוב": 8269,
      "▁בריאה": 8270,
      "▁ולעבוד": 8271,
      "▁עדינים": 8272,
      "קופצים": 8273,
      "▁מלוכלכים": 8274,
      "▁שיכולה": 8275,
      "▁שיכולים": 8276,
      "בלונים": 8277,
      "▁המצב": 8278,
      "▁סגולים": 8279,
      "▁נדירה": 8280,
      "▁התרנגול": 8281,
      "▁שהצעצוע": 8282,
      "▁למוסך": 8283,
      "▁הזרוע": 8284,
      "▁צדק": 8285,
      "▁הסינר": 8286,
      "▁בננות": 8287,
      "▁בביתה": 8288,
      "▁וטיפס": 8289,
      "▁והקשיבו": 8290,
      "▁ובודדה": 8291,
      "▁הצבעונית": 8292,
      "▁המסתור": 8293,
      "▁לובשת": 8294,
      "▁המסוק": 8295,
      "▁ולבנות": 8296,
      "▁צילום": 8297,
      "התיבה": 8298,
      "▁ומקסימה": 8299,
      "▁הדרכון": 8300,
      "▁לשוטט": 8301,
      "▁ורציתי": 8302,
      "▁והשתעשעו": 8303,
      "אנ": 8304,
      "בג": 8305,
      "הרים": 8306,
      "הדינוזאור": 8307,
      "וקים": 8308,
      "טתה": 8309,
      "עזרה": 8310,
      "פוא": 8311,
      "תנה": 8312,
      "תקשיב": 8313,
      "▁לכת": 8314,
      "▁שד": 8315,
      "▁שהיית": 8316,
      "▁ומיץ": 8317,
      "▁וערב": 8318,
      "▁מיום": 8319,
      "▁ממקס": 8320,
      "▁מנוע": 8321,
      "▁עמוד": 8322,
      "▁כריש": 8323,
      "ובבת": 8324,
      "ברח": 8325,
      "▁קסומים": 8326,
      "▁גפרורים": 8327,
      "▁פולי": 8328,
      "בלנות": 8329,
      "תהנה": 8330,
      "▁צנון": 8331,
      "▁לשכוח": 8332,
      "מיטנס": 8333,
      "יירים": 8334,
      "▁החזקות": 8335,
      "▁סלח": 8336,
      "▁סובב": 8337,
      "▁הרס": 8338,
      "▁הרעים": 8339,
      "▁והכל": 8340,
      "▁והכי": 8341,
      "▁והברווז": 8342,
      "▁ואדומה": 8343,
      "▁המבול": 8344,
      "▁מהגינה": 8345,
      "▁מהצעצועים": 8346,
      "▁הקרים": 8347,
      "▁למטוס": 8348,
      "▁למגדל": 8349,
      "▁לחשה": 8350,
      "ביצים": 8351,
      "▁האזעקה": 8352,
      "▁השן": 8353,
      "▁השקיעה": 8354,
      "▁הבורג": 8355,
      "▁העשן": 8356,
      "▁רצועה": 8357,
      "▁התור": 8358,
      "▁התפל": 8359,
      "ערות": 8360,
      "ערבל": 8361,
      "קרח": 8362,
      "▁שאיימי": 8363,
      "צאים": 8364,
      "▁שהר": 8365,
      "▁שהעץ": 8366,
      "▁שהדוב": 8367,
      "קווא": 8368,
      "▁בחצוצרה": 8369,
      "▁איתן": 8370,
      "▁כשלילי": 8371,
      "▁נחל": 8372,
      "▁הזמנה": 8373,
      "▁עוקב": 8374,
      "▁ושהוא": 8375,
      "בעץ": 8376,
      "▁לתקוע": 8377,
      "▁וצופה": 8378,
      "המקל": 8379,
      "המסיבה": 8380,
      "▁להתא": 8381,
      "▁להתיישב": 8382,
      "מחייך": 8383,
      "טרפה": 8384,
      "▁קרובה": 8385,
      "גדיל": 8386,
      "▁ובאו": 8387,
      "▁ובמורד": 8388,
      "העיר": 8389,
      "▁מפני": 8390,
      "▁חוזרת": 8391,
      "▁למדף": 8392,
      "▁לטחנה": 8393,
      "▁נכנע": 8394,
      "▁וגבינה": 8395,
      "▁הסיפורים": 8396,
      "▁הפרג": 8397,
      "▁ולהתיז": 8398,
      "▁נעליו": 8399,
      "▁מנורה": 8400,
      "פתעות": 8401,
      "▁עשויה": 8402,
      "▁ודייזי": 8403,
      "▁דובדבן": 8404,
      "▁מאחוריו": 8405,
      "▁חולק": 8406,
      "▁דיו": 8407,
      "▁נרדם": 8408,
      "▁שואלים": 8409,
      "▁לספרייה": 8410,
      "▁ומושכים": 8411,
      "▁ציורים": 8412,
      "▁תאונה": 8413,
      "▁כרע": 8414,
      "▁מסתורית": 8415,
      "▁אמיתיים": 8416,
      "▁האירו": 8417,
      "▁ייקח": 8418,
      "יידדו": 8419,
      "▁התעקש": 8420,
      "▁אנוכית": 8421,
      "▁משעממת": 8422,
      "▁מילאו": 8423,
      "▁למסור": 8424,
      "▁ובטוחה": 8425,
      "▁שפכה": 8426,
      "▁נפגשו": 8427,
      "השוטר": 8428,
      "הביא": 8429,
      "▁בירד": 8430,
      "▁חרדה": 8431,
      "▁פופולרית": 8432,
      "▁פלסטיק": 8433,
      "▁שמצאתי": 8434,
      "▁ומסתכלים": 8435,
      "▁התפוז": 8436,
      "רררררררררררררררררררררררררררררררר": 8437,
      "▁בברכה": 8438,
      "▁לדוגמה": 8439,
      "▁מבעד": 8440,
      "▁צייתנית": 8441,
      "▁התביישה": 8442,
      "▁המתוקים": 8443,
      "ביפ": 8444,
      "דן": 8445,
      "הלב": 8446,
      "וצה": 8447,
      "מפוחד": 8448,
      "נבה": 8449,
      "סערה": 8450,
      "צטדיון": 8451,
      "קחו": 8452,
      "קשת": 8453,
      "▁הפרד": 8454,
      "▁ההיפופוטם": 8455,
      "▁לזר": 8456,
      "▁לפיקניק": 8457,
      "▁מגן": 8458,
      "▁מכונה": 8459,
      "▁בלילי": 8460,
      "▁היותם": 8461,
      "היתוש": 8462,
      "▁כהה": 8463,
      "▁כולו": 8464,
      "▁כתומה": 8465,
      "▁חנית": 8466,
      "▁לאמה": 8467,
      "▁לאדמה": 8468,
      "▁גג": 8469,
      "▁פחם": 8470,
      "▁להאי": 8471,
      "▁להעלים": 8472,
      "▁לשתול": 8473,
      "▁לשמים": 8474,
      "יימה": 8475,
      "▁החצוף": 8476,
      "▁החזקה": 8477,
      "▁סופ": 8478,
      "▁סופי": 8479,
      "▁הרכב": 8480,
      "▁אמרתי": 8481,
      "אבלס": 8482,
      "▁והסתובב": 8483,
      "▁והרגשתי": 8484,
      "▁ואולי": 8485,
      "▁המילון": 8486,
      "▁לעתים": 8487,
      "▁הצטרף": 8488,
      "▁תקשיב": 8489,
      "▁מהחבר": 8490,
      "מוק": 8491,
      "▁הכבל": 8492,
      "▁דק": 8493,
      "▁הבת": 8494,
      "▁ומכשכש": 8495,
      "▁זיה": 8496,
      "▁זהירות": 8497,
      "▁וחמים": 8498,
      "▁הדמעות": 8499,
      "▁משולש": 8500,
      "באי": 8501,
      "▁במקרר": 8502,
      "שאיות": 8503,
      "פוטבול": 8504,
      "▁שהארנב": 8505,
      "▁שהאיש": 8506,
      "▁לנמלה": 8507,
      "▁ונגע": 8508,
      "▁הזכיר": 8509,
      "▁הזוהר": 8510,
      "▁בעזרת": 8511,
      "▁בעריסה": 8512,
      "▁משחקות": 8513,
      "▁באומץ": 8514,
      "▁בחוט": 8515,
      "השופט": 8516,
      "▁להתכונן": 8517,
      "▁הנחושת": 8518,
      "מחפש": 8519,
      "▁מתנצלים": 8520,
      "הדבורים": 8521,
      "בריח": 8522,
      "▁וקנו": 8523,
      "▁תוכי": 8524,
      "צינו": 8525,
      "▁בהר": 8526,
      "▁עיסוי": 8527,
      "▁הפרא": 8528,
      "▁הפראי": 8529,
      "▁הפרצוף": 8530,
      "▁הניף": 8531,
      "▁המידה": 8532,
      "▁והבובה": 8533,
      "▁מנגנת": 8534,
      "▁רגליה": 8535,
      "▁פגזים": 8536,
      "▁חשובים": 8537,
      "▁התחפושת": 8538,
      "פיפונים": 8539,
      "▁והפכה": 8540,
      "▁הקרנף": 8541,
      "▁והביטה": 8542,
      "פארי": 8543,
      "▁קלפים": 8544,
      "▁בכינור": 8545,
      "▁קופצת": 8546,
      "▁קופסאות": 8547,
      "▁סירבה": 8548,
      "▁הבוס": 8549,
      "▁הלייזר": 8550,
      "▁הצלחה": 8551,
      "▁משעממים": 8552,
      "▁חמודה": 8553,
      "▁הארובה": 8554,
      "▁להרבה": 8555,
      "▁וירדו": 8556,
      "▁הדוקה": 8557,
      "▁וכחולה": 8558,
      "▁שתוכל": 8559,
      "▁וקופצים": 8560,
      "▁מכוסה": 8561,
      "▁משועממים": 8562,
      "▁מחפשת": 8563,
      "▁הבוהן": 8564,
      "▁ומועיל": 8565,
      "▁מציירת": 8566,
      "▁מודרני": 8567,
      "▁ולטפל": 8568,
      "▁השאירו": 8569,
      "ספידי": 8570,
      "▁הנקניקייה": 8571,
      "▁תכננו": 8572,
      "יראטים": 8573,
      "קוואק": 8574,
      "▁להאיץ": 8575,
      "בחוץ": 8576,
      "גאה": 8577,
      "התיק": 8578,
      "זאב": 8579,
      "חמש": 8580,
      "כנות": 8581,
      "מטוס": 8582,
      "סליחה": 8583,
      "עזרו": 8584,
      "פנדי": 8585,
      "קע": 8586,
      "שמור": 8587,
      "▁הדולפין": 8588,
      "▁לפינה": 8589,
      "▁לתחתית": 8590,
      "▁שבי": 8591,
      "▁שהילדה": 8592,
      "▁מפרש": 8593,
      "▁עפר": 8594,
      "▁עפות": 8595,
      "▁עתיקה": 8596,
      "ואג": 8597,
      "▁ייפ": 8598,
      "▁ינצח": 8599,
      "▁כיוון": 8600,
      "▁רכות": 8601,
      "▁חורים": 8602,
      "מרגישים": 8603,
      "▁קארל": 8604,
      "▁נלחם": 8605,
      "▁פאי": 8606,
      "▁פנס": 8607,
      "▁ציפו": 8608,
      "▁בשוק": 8609,
      "▁החן": 8610,
      "▁הרנטגן": 8611,
      "▁הרגשתי": 8612,
      "▁והקשיב": 8613,
      "▁והשאיר": 8614,
      "▁ואבנים": 8615,
      "▁המגרש": 8616,
      "פוני": 8617,
      "▁הצר": 8618,
      "▁תבוא": 8619,
      "▁תנור": 8620,
      "▁הקל": 8621,
      "▁לחצה": 8622,
      "▁היוגורט": 8623,
      "לומות": 8624,
      "▁לקול": 8625,
      "▁לקופסת": 8626,
      "תיבה": 8627,
      "▁השוט": 8628,
      "▁לבניין": 8629,
      "▁ומנש": 8630,
      "▁זעירה": 8631,
      "▁התמנון": 8632,
      "▁וחרקים": 8633,
      "דוגי": 8634,
      "ערובת": 8635,
      "▁במצו": 8636,
      "שאול": 8637,
      "חינה": 8638,
      "▁צריכות": 8639,
      "רגיל": 8640,
      "החתלתול": 8641,
      "החליט": 8642,
      "▁לנשום": 8643,
      "והרים": 8644,
      "▁ונשיקה": 8645,
      "▁הזדמנות": 8646,
      "▁עוצ": 8647,
      "▁ושקטה": 8648,
      "▁מסגרת": 8649,
      "▁מסריחה": 8650,
      "בקי": 8651,
      "▁מחברו": 8652,
      "▁מחליק": 8653,
      "▁כמוני": 8654,
      "▁בסרטים": 8655,
      "ברוך": 8656,
      "▁לסם": 8657,
      "▁להתייבש": 8658,
      "גרייס": 8659,
      "▁הטבע": 8660,
      "▁חלשה": 8661,
      "הדייג": 8662,
      "▁מפוארת": 8663,
      "▁ברז": 8664,
      "▁כאלה": 8665,
      "▁ולהפוך": 8666,
      "▁תיזהרי": 8667,
      "▁לטיולים": 8668,
      "▁התיזו": 8669,
      "▁הדובדבנים": 8670,
      "▁הדובדבן": 8671,
      "הרחק": 8672,
      "▁מכוערת": 8673,
      "▁שחברים": 8674,
      "▁מרוש": 8675,
      "▁מגניבה": 8676,
      "▁ועצר": 8677,
      "▁בלוט": 8678,
      "▁הצידנית": 8679,
      "▁ומרגש": 8680,
      "▁ורוצה": 8681,
      "▁התכופף": 8682,
      "אטא": 8683,
      "▁רועד": 8684,
      "אביו": 8685,
      "▁הקרן": 8686,
      "▁המיוחדים": 8687,
      "▁נגעו": 8688,
      "▁טונה": 8689,
      "▁כבדים": 8690,
      "▁מסתובבים": 8691,
      "▁בכוס": 8692,
      "▁להוטה": 8693,
      "▁ומהנים": 8694,
      "אכטה": 8695,
      "▁ורקד": 8696,
      "קודם": 8697,
      "▁יחזרו": 8698,
      "▁בדרכם": 8699,
      "▁להשתפר": 8700,
      "▁להשמיע": 8701,
      "הכלבלב": 8702,
      "▁תכשיטים": 8703,
      "▁הופך": 8704,
      "▁ולגדול": 8705,
      "▁ולגלוש": 8706,
      "▁רשלני": 8707,
      "▁רשלנית": 8708,
      "▁וסקרנות": 8709,
      "▁צוואר": 8710,
      "▁הרועש": 8711,
      "▁הרועשת": 8712,
      "▁והודיתה": 8713,
      "▁ועקבה": 8714,
      "▁ושיתף": 8715,
      "▁עשירה": 8716,
      "▁המשעמם": 8717,
      "▁תוהה": 8718,
      "▁בקושי": 8719,
      "חיפשתי": 8720,
      "▁והתיזו": 8721,
      "▁ופרוותי": 8722,
      "▁במצוקה": 8723,
      "וך": 8724,
      "וכש": 8725,
      "כוב": 8726,
      "מתוקה": 8727,
      "נטים": 8728,
      "ספס": 8729,
      "ספייק": 8730,
      "▁לרו": 8731,
      "▁לפרחים": 8732,
      "▁אפרסקים": 8733,
      "▁שבוב": 8734,
      "▁ובל": 8735,
      "▁וקו": 8736,
      "▁ומאחורי": 8737,
      "▁יבשה": 8738,
      "▁כוב": 8739,
      "▁כבוד": 8740,
      "ורח": 8741,
      "ורחת": 8742,
      "ליב": 8743,
      "מרים": 8744,
      "▁קלי": 8745,
      "▁קלטת": 8746,
      "▁קפיצה": 8747,
      "▁לאח": 8748,
      "▁גנב": 8749,
      "▁גומי": 8750,
      "▁נשר": 8751,
      "תהות": 8752,
      "▁החיוך": 8753,
      "▁סמית": 8754,
      "▁ספורט": 8755,
      "הבגדים": 8756,
      "צהריים": 8757,
      "▁והשא": 8758,
      "▁והעצים": 8759,
      "▁המודר": 8760,
      "רין": 8761,
      "▁מהפי": 8762,
      "▁מהמשאית": 8763,
      "▁למקרר": 8764,
      "▁ולהצ": 8765,
      "שיער": 8766,
      "▁הספל": 8767,
      "▁האחו": 8768,
      "▁הלהבה": 8769,
      "תיה": 8770,
      "▁השרימפס": 8771,
      "▁השפם": 8772,
      "▁הגילו": 8773,
      "▁הבאר": 8774,
      "▁הבועות": 8775,
      "▁העמיד": 8776,
      "▁העריסה": 8777,
      "▁הפלס": 8778,
      "▁ומשהו": 8779,
      "כשבוב": 8780,
      "טוטו": 8781,
      "נחל": 8782,
      "קרת": 8783,
      "▁ורח": 8784,
      "▁במטוס": 8785,
      "▁במקומות": 8786,
      "שארו": 8787,
      "▁חישוק": 8788,
      "▁בארץ": 8789,
      "▁באיטיות": 8790,
      "▁לנמל": 8791,
      "▁צעצועי": 8792,
      "▁בעקבות": 8793,
      "▁פחדתי": 8794,
      "כנף": 8795,
      "▁לצלילי": 8796,
      "▁וצמחים": 8797,
      "המכוניות": 8798,
      "▁באוכל": 8799,
      "▁החוואי": 8800,
      "▁לסלעים": 8801,
      "▁להתקשר": 8802,
      "מחאו": 8803,
      "▁שוקל": 8804,
      "▁גרוע": 8805,
      "▁יצור": 8806,
      "▁בקצה": 8807,
      "בריהם": 8808,
      "כרטיס": 8809,
      "▁העוף": 8810,
      "▁בצק": 8811,
      "▁הניצוץ": 8812,
      "▁נעליה": 8813,
      "הספינה": 8814,
      "▁זרועו": 8815,
      "▁מקפץ": 8816,
      "זקנה": 8817,
      "▁מאחוריה": 8818,
      "▁מסוחר": 8819,
      "▁מסוכנת": 8820,
      "▁ולחכות": 8821,
      "הנמלים": 8822,
      "▁נסגרה": 8823,
      "▁לכא": 8824,
      "▁הכוח": 8825,
      "▁נופפו": 8826,
      "הפעמון": 8827,
      "▁להעריך": 8828,
      "▁הבחינו": 8829,
      "▁וישן": 8830,
      "ארלי": 8831,
      "▁אכזרי": 8832,
      "▁מנופפים": 8833,
      "▁תקועים": 8834,
      "▁ששיחקת": 8835,
      "▁רחצה": 8836,
      "▁למרבה": 8837,
      "▁מפחידים": 8838,
      "▁וחשבתי": 8839,
      "▁אשמה": 8840,
      "▁חמוצים": 8841,
      "▁במרפסת": 8842,
      "▁עלולים": 8843,
      "▁הקיץ": 8844,
      "▁במסדרון": 8845,
      "▁נפגעו": 8846,
      "▁ראשונה": 8847,
      "▁השרביט": 8848,
      "▁במוזיאון": 8849,
      "▁בדרכים": 8850,
      "▁פותחים": 8851,
      "להתנדנד": 8852,
      "▁בעבודתם": 8853,
      "▁היינו": 8854,
      "▁תולעים": 8855,
      "זכרי": 8856,
      "▁בזרועותיה": 8857,
      "▁מטפסים": 8858,
      "▁לציית": 8859,
      "▁התגלגלו": 8860,
      "▁משוגע": 8861,
      "▁יהלום": 8862,
      "▁היותך": 8863,
      "zip": 8864,
      "ארוחת": 8865,
      "אביה": 8866,
      "דמו": 8867,
      "הדולפין": 8868,
      "הלטאה": 8869,
      "ושים": 8870,
      "זבה": 8871,
      "זחל": 8872,
      "חלת": 8873,
      "יצאו": 8874,
      "כרון": 8875,
      "מכים": 8876,
      "סנפיר": 8877,
      "פשים": 8878,
      "פפת": 8879,
      "תני": 8880,
      "▁הור": 8881,
      "▁ההב": 8882,
      "▁המה": 8883,
      "▁אלון": 8884,
      "▁אבודה": 8885,
      "▁שורה": 8886,
      "▁שרים": 8887,
      "▁שבורים": 8888,
      "▁שסבתא": 8889,
      "▁ויל": 8890,
      "▁ושת": 8891,
      "▁ונותן": 8892,
      "▁מעו": 8893,
      "▁מכין": 8894,
      "▁מנחש": 8895,
      "▁מכשפה": 8896,
      "▁מנהרה": 8897,
      "▁מכתבים": 8898,
      "▁עיר": 8899,
      "▁יאהבו": 8900,
      "▁שלד": 8901,
      "▁שלם": 8902,
      "▁שלקח": 8903,
      "▁שלבסוף": 8904,
      "▁כנים": 8905,
      "▁חצה": 8906,
      "אוני": 8907,
      "בריה": 8908,
      "▁לאדם": 8909,
      "▁לאכילה": 8910,
      "▁נט": 8911,
      "▁נוע": 8912,
      "▁נורה": 8913,
      "▁נמס": 8914,
      "כלים": 8915,
      "▁פה": 8916,
      "ילזון": 8917,
      "▁ציפה": 8918,
      "▁לשלט": 8919,
      "מימה": 8920,
      "▁בשלוליות": 8921,
      "▁כלל": 8922,
      "▁החלום": 8923,
      "▁החפץ": 8924,
      "▁ספל": 8925,
      "ועת": 8926,
      "▁והמשפחה": 8927,
      "▁ואביה": 8928,
      "▁המופע": 8929,
      "▁המקפיא": 8930,
      "רוכים": 8931,
      "▁לימונדה": 8932,
      "▁הצוק": 8933,
      "▁תזרח": 8934,
      "▁מהן": 8935,
      "▁מהדלת": 8936,
      "עצב": 8937,
      "▁שיותר": 8938,
      "▁דבורים": 8939,
      "▁האסם": 8940,
      "סיסיים": 8941,
      "▁השריקה": 8942,
      "▁מצויר": 8943,
      "▁העדין": 8944,
      "▁להיפ": 8945,
      "▁זחלו": 8946,
      "▁התנה": 8947,
      "▁התאמה": 8948,
      "▁התגעג": 8949,
      "▁התאומים": 8950,
      "כשלוסי": 8951,
      "▁כיש": 8952,
      "▁כיסה": 8953,
      "חרח": 8954,
      "▁הדלפק": 8955,
      "▁משרוקית": 8956,
      "נחמד": 8957,
      "באים": 8958,
      "▁במלון": 8959,
      "▁שהמכונית": 8960,
      "▁חיבוקים": 8961,
      "▁חדים": 8962,
      "עלמה": 8963,
      "והפעם": 8964,
      "▁נחפש": 8965,
      "▁ויח": 8966,
      "האר": 8967,
      "▁ועקב": 8968,
      "▁לדרוך": 8969,
      "▁וצחוק": 8970,
      "המלאך": 8971,
      "▁באוטובוס": 8972,
      "▁הנסיעה": 8973,
      "▁מאפה": 8974,
      "▁שווה": 8975,
      "הצייר": 8976,
      "▁ובכו": 8977,
      "▁ובסופו": 8978,
      "▁מפסיק": 8979,
      "▁ברבור": 8980,
      "▁תווית": 8981,
      "▁נפצע": 8982,
      "▁בהן": 8983,
      "▁יומן": 8984,
      "▁השתלטן": 8985,
      "למכונית": 8986,
      "▁וכוא": 8987,
      "▁המיקרוסקופ": 8988,
      "▁בכף": 8989,
      "▁למיוחד": 8990,
      "▁הבלוקים": 8991,
      "שען": 8992,
      "▁והוציא": 8993,
      "▁להפיל": 8994,
      "▁ומחייך": 8995,
      "▁ומחייכת": 8996,
      "▁ומחבקת": 8997,
      "גלגלים": 8998,
      "▁לכעוס": 8999,
      "▁בלוטים": 9000,
      "▁להעריץ": 9001,
      "▁המקלות": 9002,
      "▁בגדר": 9003,
      "▁פספסו": 9004,
      "▁וישנו": 9005,
      "▁המעקה": 9006,
      "▁התכוננו": 9007,
      "▁והדג": 9008,
      "▁המדהימה": 9009,
      "▁כתוב": 9010,
      "▁כתמים": 9011,
      "▁המגב": 9012,
      "▁החייל": 9013,
      "▁והסכימה": 9014,
      "▁וחלש": 9015,
      "▁מהבור": 9016,
      "נרלים": 9017,
      "האופניים": 9018,
      "▁מהיד": 9019,
      "▁שהצעצועים": 9020,
      "▁תפחדי": 9021,
      "▁הענקית": 9022,
      "▁מועילה": 9023,
      "▁סלחה": 9024,
      "▁המזוודות": 9025,
      "▁המזרקה": 9026,
      "▁לתיאטרון": 9027,
      "▁פוקס": 9028,
      "▁נפנפו": 9029,
      "▁ולגעת": 9030,
      "▁רשלן": 9031,
      "▁המסתורי": 9032,
      "ששש": 9033,
      "▁הגולף": 9034,
      "▁תבכה": 9035,
      "▁ברגליו": 9036,
      "לקחתי": 9037,
      "▁התגנב": 9038,
      "▁לנחם": 9039,
      "▁המקורי": 9040,
      "▁התעייפה": 9041,
      "▁הצדפה": 9042,
      "▁נלחמים": 9043,
      "▁וידידותית": 9044,
      "▁נחושה": 9045,
      "▁ופגעה": 9046,
      "▁הבטחתו": 9047,
      "החזיקו": 9048,
      "▁הגילוח": 9049,
      "אש": 9050,
      "בשם": 9051,
      "בגדים": 9052,
      "גיל": 9053,
      "הרו": 9054,
      "הוריה": 9055,
      "העצים": 9056,
      "השלט": 9057,
      "התרנגולת": 9058,
      "ומיה": 9059,
      "זבו": 9060,
      "חן": 9061,
      "כייה": 9062,
      "מגי": 9063,
      "מילים": 9064,
      "נסות": 9065,
      "עתו": 9066,
      "פכה": 9067,
      "פלה": 9068,
      "צחון": 9069,
      "תפוס": 9070,
      "▁לסוף": 9071,
      "▁לדרך": 9072,
      "▁ובוכה": 9073,
      "▁מנצ": 9074,
      "▁מטרייה": 9075,
      "▁הימים": 9076,
      "▁ירק": 9077,
      "▁כפפה": 9078,
      "▁חפירה": 9079,
      "▁קערת": 9080,
      "▁לאריה": 9081,
      "▁לאמבטיה": 9082,
      "▁לאצטדיון": 9083,
      "▁נרות": 9084,
      "▁פיו": 9085,
      "▁להגדיל": 9086,
      "▁לשפשף": 9087,
      "▁בשכונה": 9088,
      "▁שלושה": 9089,
      "▁הרהיטים": 9090,
      "▁והתינוק": 9091,
      "▁והמשאית": 9092,
      "▁המדוזה": 9093,
      "כודת": 9094,
      "מוזיקה": 9095,
      "▁הקצה": 9096,
      "▁למועדון": 9097,
      "▁ולמדה": 9098,
      "▁אומץ": 9099,
      "▁הסתיים": 9100,
      "פרת": 9101,
      "▁עצום": 9102,
      "▁האבק": 9103,
      "▁האפורה": 9104,
      "▁השעיר": 9105,
      "▁השונים": 9106,
      "שומר": 9107,
      "ראת": 9108,
      "▁ומגעיל": 9109,
      "▁ומקלות": 9110,
      "▁ומשאיות": 9111,
      "כשסאם": 9112,
      "חררו": 9113,
      "▁שאגת": 9114,
      "▁ורחוק": 9115,
      "▁רעל": 9116,
      "▁רעידת": 9117,
      "▁ניירות": 9118,
      "▁ניסיתי": 9119,
      "▁שהכ": 9120,
      "קוק": 9121,
      "▁חינני": 9122,
      "▁הכיור": 9123,
      "▁הכיריים": 9124,
      "החל": 9125,
      "החולצה": 9126,
      "▁בחלון": 9127,
      "▁בחליל": 9128,
      "▁נהרס": 9129,
      "▁באחרים": 9130,
      "▁לנדנדות": 9131,
      "והתחיל": 9132,
      "▁ונשבר": 9133,
      "▁הזהירה": 9134,
      "▁לפרה": 9135,
      "▁ושטוף": 9136,
      "▁ושכחו": 9137,
      "▁מחבב": 9138,
      "▁ויצר": 9139,
      "פסטיבל": 9140,
      "▁ועזב": 9141,
      "▁כמוהו": 9142,
      "המעגל": 9143,
      "▁ידענו": 9144,
      "פלס": 9145,
      "▁הנפלא": 9146,
      "▁מאד": 9147,
      "▁הטנק": 9148,
      "▁מתכת": 9149,
      "▁מתגעג": 9150,
      "הדשא": 9151,
      "▁ובקרוב": 9152,
      "▁מפיל": 9153,
      "▁ארוכים": 9154,
      "▁ברכ": 9155,
      "כרובית": 9156,
      "▁כאבה": 9157,
      "▁סביבם": 9158,
      "▁והחזקה": 9159,
      "▁בתמונות": 9160,
      "▁בתדהמה": 9161,
      "▁מדבקה": 9162,
      "▁מדבקות": 9163,
      "הרסת": 9164,
      "הרעש": 9165,
      "▁ודאג": 9166,
      "▁מזג": 9167,
      "▁מזלג": 9168,
      "▁לעצום": 9169,
      "▁לעצמך": 9170,
      "▁ולחץ": 9171,
      "הנקודה": 9172,
      "▁מרוחק": 9173,
      "▁המרכיבים": 9174,
      "התמנון": 9175,
      "▁מלכה": 9176,
      "▁לחתולים": 9177,
      "▁וליצור": 9178,
      "▁המחיר": 9179,
      "▁ולמשוך": 9180,
      "נסייה": 9181,
      "קופסא": 9182,
      "▁סבלניים": 9183,
      "▁והסלע": 9184,
      "▁בכיסה": 9185,
      "▁קופצים": 9186,
      "▁ויצרו": 9187,
      "▁והשקופיות": 9188,
      "▁הבוטן": 9189,
      "אכפת": 9190,
      "▁פיהוק": 9191,
      "▁התאספו": 9192,
      "הטיל": 9193,
      "▁מתחילה": 9194,
      "▁בחינם": 9195,
      "ולוסי": 9196,
      "▁בבגדים": 9197,
      "▁צועקת": 9198,
      "▁תחרותי": 9199,
      "השומר": 9200,
      "▁אומללה": 9201,
      "▁המסתורית": 9202,
      "▁צווארו": 9203,
      "וויגלי": 9204,
      "מזם": 9205,
      "▁וקיבל": 9206,
      "החייל": 9207,
      "▁בברך": 9208,
      "▁שחקן": 9209,
      "הליצן": 9210,
      "▁לתחנה": 9211,
      "▁וניגנו": 9212,
      "פתעתם": 9213,
      "▁הכיפיים": 9214,
      "▁הבדיחה": 9215,
      "▁חשוכה": 9216,
      "▁משאלות": 9217,
      "▁טביעת": 9218,
      "▁שוקעת": 9219,
      "במהלך": 9220,
      "▁והלוואי": 9221,
      "▁לכאוב": 9222,
      "אנו": 9223,
      "אבן": 9224,
      "הול": 9225,
      "הפי": 9226,
      "המרק": 9227,
      "חייה": 9228,
      "חזק": 9229,
      "יאם": 9230,
      "כיתי": 9231,
      "להי": 9232,
      "לרוץ": 9233,
      "מג": 9234,
      "מפלצת": 9235,
      "נפל": 9236,
      "עמ": 9237,
      "עזרת": 9238,
      "פט": 9239,
      "פולי": 9240,
      "צמח": 9241,
      "רחוק": 9242,
      "תפוחים": 9243,
      "תגיד": 9244,
      "▁ליפה": 9245,
      "▁לייבש": 9246,
      "▁אמור": 9247,
      "▁אגס": 9248,
      "▁שנים": 9249,
      "▁מקרר": 9250,
      "▁בקי": 9251,
      "▁בבני": 9252,
      "▁עגבנייה": 9253,
      "▁יס": 9254,
      "▁יפ": 9255,
      "▁רכבות": 9256,
      "לינה": 9257,
      "ליקה": 9258,
      "▁קקטוס": 9259,
      "▁לאחות": 9260,
      "▁גז": 9261,
      "▁נמנ": 9262,
      "מאס": 9263,
      "▁להביט": 9264,
      "▁לשרת": 9265,
      "מיצים": 9266,
      "▁החמוד": 9267,
      "▁והתיז": 9268,
      "▁ואסף": 9269,
      "▁המפרש": 9270,
      "▁הצופר": 9271,
      "▁תוא": 9272,
      "▁תוף": 9273,
      "▁הכתומה": 9274,
      "▁הכורסה": 9275,
      "▁למקדש": 9276,
      "▁למקומות": 9277,
      "רקונים": 9278,
      "▁ולפעמים": 9279,
      "▁לחלות": 9280,
      "▁לחוץ": 9281,
      "▁שימחו": 9282,
      "▁שינוי": 9283,
      "▁דודו": 9284,
      "▁דמיי": 9285,
      "▁דייג": 9286,
      "▁אווז": 9287,
      "שיהיה": 9288,
      "▁לקשת": 9289,
      "▁עצמות": 9290,
      "▁האפר": 9291,
      "▁האדיר": 9292,
      "▁השכל": 9293,
      "▁השחורה": 9294,
      "תומים": 9295,
      "▁מצאת": 9296,
      "▁זבוב": 9297,
      "▁התגש": 9298,
      "▁התרח": 9299,
      "▁התקרה": 9300,
      "לאט": 9301,
      "לאים": 9302,
      "כשאתה": 9303,
      "דוג": 9304,
      "▁הדפוס": 9305,
      "▁הדליק": 9306,
      "▁במגדל": 9307,
      "▁במגבת": 9308,
      "רגר": 9309,
      "פתעים": 9310,
      "▁בחבל": 9311,
      "▁בחרו": 9312,
      "והציפורים": 9313,
      "▁ונג": 9314,
      "▁עוגן": 9315,
      "▁ושל": 9316,
      "▁ועיניים": 9317,
      "המכשפה": 9318,
      "השמלה": 9319,
      "השעועית": 9320,
      "▁ולאט": 9321,
      "▁הנערה": 9322,
      "▁הנדיר": 9323,
      "זוג": 9324,
      "▁מיקרופון": 9325,
      "▁קרנף": 9326,
      "▁ובגדלים": 9327,
      "▁נווה": 9328,
      "ויצ": 9329,
      "ויאמר": 9330,
      "▁חוצות": 9331,
      "▁והחזיק": 9332,
      "▁הריחה": 9333,
      "▁בתים": 9334,
      "▁ולהסתובב": 9335,
      "▁שעזרו": 9336,
      "▁שעליו": 9337,
      "▁שמעולם": 9338,
      "▁מדחום": 9339,
      "▁בכפות": 9340,
      "▁והבגדים": 9341,
      "▁הדובון": 9342,
      "▁והמלכה": 9343,
      "▁מקשיבה": 9344,
      "▁והתנצ": 9345,
      "▁והתייש": 9346,
      "▁נרדמה": 9347,
      "▁ולחבריו": 9348,
      "▁אמבולנס": 9349,
      "▁והצב": 9350,
      "▁בעצמם": 9351,
      "לוכלכים": 9352,
      "▁המרפסת": 9353,
      "▁הכוורת": 9354,
      "▁תחזיר": 9355,
      "▁תדאגו": 9356,
      "▁מלשחק": 9357,
      "▁המדחום": 9358,
      "▁אחזור": 9359,
      "▁אוליב": 9360,
      "▁מהארון": 9361,
      "▁מהבוץ": 9362,
      "בוגרים": 9363,
      "▁בורחים": 9364,
      "▁הבושם": 9365,
      "▁וקרים": 9366,
      "▁התווית": 9367,
      "▁והניחו": 9368,
      "▁שהציל": 9369,
      "▁במרוץ": 9370,
      "▁בנייר": 9371,
      "▁מהשולחן": 9372,
      "פריט": 9373,
      "▁להרחיק": 9374,
      "▁דוכן": 9375,
      "▁שימושית": 9376,
      "▁כולן": 9377,
      "▁צוחקת": 9378,
      "▁כשאנחנו": 9379,
      "▁תבכי": 9380,
      "קלקלה": 9381,
      "▁דילגו": 9382,
      "▁להסתתר": 9383,
      "▁הגריל": 9384,
      "▁וריצה": 9385,
      "▁עבודתו": 9386,
      "▁לתוכה": 9387,
      "▁ולפגוע": 9388,
      "▁הקריסטל": 9389,
      "▁שלעולם": 9390,
      "▁מבטיחה": 9391,
      "▁ומבריקים": 9392,
      "נפיריים": 9393,
      "▁הצוואר": 9394,
      "▁ואסירי": 9395,
      "▁גלגלו": 9396,
      "▁קונכיות": 9397,
      "▁המוסרי": 9398,
      "שתמשו": 9399,
      "▁בהרבה": 9400,
      "▁מצוירים": 9401,
      "בחה": 9402,
      "גודל": 9403,
      "הקו": 9404,
      "הוריו": 9405,
      "הסוס": 9406,
      "ינה": 9407,
      "ירוק": 9408,
      "לר": 9409,
      "ללוסי": 9410,
      "לשניהם": 9411,
      "לתחה": 9412,
      "מסים": 9413,
      "עזר": 9414,
      "עבד": 9415,
      "קלי": 9416,
      "רצינו": 9417,
      "שמ": 9418,
      "▁'": 9419,
      "▁־": 9420,
      "▁ההי": 9421,
      "▁לני": 9422,
      "▁לולה": 9423,
      "▁לכנסייה": 9424,
      "▁אביר": 9425,
      "▁שזיף": 9426,
      "▁מכולם": 9427,
      "▁מגר": 9428,
      "▁מגש": 9429,
      "▁מראים": 9430,
      "▁מבחן": 9431,
      "▁מדוזה": 9432,
      "▁בורה": 9433,
      "▁בילדים": 9434,
      "▁בקסם": 9435,
      "▁עזור": 9436,
      "▁עניבה": 9437,
      "ולכולם": 9438,
      "▁רפסודה": 9439,
      "▁רישיון": 9440,
      "▁חמש": 9441,
      "אוטובוס": 9442,
      "מרגישה": 9443,
      "ברז": 9444,
      "▁לארץ": 9445,
      "▁נמ": 9446,
      "▁נועד": 9447,
      "▁פנדה": 9448,
      "▁צייד": 9449,
      "▁ציוד": 9450,
      "▁צפרדעים": 9451,
      "▁להבה": 9452,
      "▁לשרוף": 9453,
      "מינים": 9454,
      "▁בשמיכה": 9455,
      "▁בשטח": 9456,
      "▁הרישיון": 9457,
      "▁והסירה": 9458,
      "▁וארנב": 9459,
      "▁קטפו": 9460,
      "▁קטנוע": 9461,
      "▁המפו": 9462,
      "▁המתוקה": 9463,
      "▁המלאך": 9464,
      "ריצה": 9465,
      "▁לער": 9466,
      "▁לערימה": 9467,
      "רוחה": 9468,
      "▁ליזי": 9469,
      "▁תור": 9470,
      "▁מהצי": 9471,
      "▁מהאוכל": 9472,
      "מופתע": 9473,
      "מוכנים": 9474,
      "▁הכיתה": 9475,
      "▁הכהה": 9476,
[...]
