{
  "version": "1.0",
  "truncation": null,
  "padding": null,
  "added_tokens": [
    {
      "id": 0,
      "content": "<|PAD|>",
      "single_word": false,
      "lstrip": false,
      "rstrip": false,
      "normalized": false,
      "special": true
    },
    {
      "id": 1,
      "content": "<|BOS|>",
      "single_word": false,
      "lstrip": false,
      "rstrip": false,
      "normalized": false,
      "special": true
    },
    {
      "id": 2,
      "content": "<|EOS|>",
      "single_word": false,
      "lstrip": false,
      "rstrip": false,
      "normalized": false,
      "special": true
    },
    {
      "id": 3,
      "content": "<|UNK|>",
      "single_word": false,
      "lstrip": false,
      "rstrip": false,
      "normalized": false,
      "special": true
    }
  ],
  "normalizer": {
    "type": "NFKC"
  },
  "pre_tokenizer": {
    "type": "Sequence",
    "pretokenizers": [
      {
        "type": "UnicodeScripts"
      },
      {
        "type": "Digits",
        "individual_digits": true
      },
      {
        "type": "Metaspace",
        "replacement": "▁",
        "prepend_scheme": "never",
        "split": true
      }
    ]
  },
  "post_processor": {
    "type": "TemplateProcessing",
    "single": [
      {
        "SpecialToken": {
          "id": "<|BOS|>",
          "type_id": 0
        }
      },
      {
        "Sequence": {
          "id": "A",
          "type_id": 0
        }
      },
      {
        "SpecialToken": {
          "id": "<|EOS|>",
          "type_id": 0
        }
      }
    ],
    "pair": [
      {
        "SpecialToken": {
          "id": "<|BOS|>",
          "type_id": 0
        }
      },
      {
        "Sequence": {
          "id": "A",
          "type_id": 0
        }
      },
      {
        "SpecialToken": {
          "id": "<|EOS|>",
          "type_id": 0
        }
      },
      {
        "SpecialToken": {
          "id": "<|BOS|>",
          "type_id": 1
        }
      },
      {
        "Sequence": {
          "id": "B",
          "type_id": 1
        }
      },
      {
        "SpecialToken": {
          "id": "<|EOS|>",
          "type_id": 1
        }
      }
    ],
    "special_tokens": {
      "<|BOS|>": {
        "id": "<|BOS|>",
        "ids": [
          1
        ],
        "tokens": [
          "<|BOS|>"
        ]
      },
      "<|EOS|>": {
        "id": "<|EOS|>",
        "ids": [
          2
        ],
        "tokens": [
          "<|EOS|>"
        ]
      }
    }
  },
  "decoder": {
    "type": "Metaspace",
    "replacement": "▁",
    "prepend_scheme": "never",
    "split": true
  },
  "model": {
    "type": "BPE",
    "dropout": null,
    "unk_token": "<|UNK|>",
    "continuing_subword_prefix": null,
    "end_of_word_suffix": null,
    "fuse_unk": false,
    "byte_fallback": false,
    "ignore_merges": false,
    "vocab": {
      "<|PAD|>": 0,
      "<|BOS|>": 1,
      "<|EOS|>": 2,
      "<|UNK|>": 3,
      "\n": 4,
      "!": 5,
      "\"": 6,
      "$": 7,
      "&": 8,
      "'": 9,
      "(": 10,
      ")": 11,
      "*": 12,
      "+": 13,
      ",": 14,
      "-": 15,
      ".": 16,
      "/": 17,
      "0": 18,
      "1": 19,
      "2": 20,
      "3": 21,
      "4": 22,
      "5": 23,
      "6": 24,
      "7": 25,
      "8": 26,
      "9": 27,
      ":": 28,
      ";": 29,
      "=": 30,
      "?": 31,
      "A": 32,
      "B": 33,
      "C": 34,
      "D": 35,
      "E": 36,
      "F": 37,
      "G": 38,
      "H": 39,
      "I": 40,
      "J": 41,
      "K": 42,
      "L": 43,
      "M": 44,
      "N": 45,
      "O": 46,
      "P": 47,
      "Q": 48,
      "R": 49,
      "S": 50,
      "T": 51,
      "U": 52,
      "V": 53,
      "W": 54,
      "X": 55,
      "Y": 56,
      "Z": 57,
      "[": 58,
      "]": 59,
      "a": 60,
      "b": 61,
      "c": 62,
      "d": 63,
      "e": 64,
      "f": 65,
      "g": 66,
      "h": 67,
      "i": 68,
      "j": 69,
      "k": 70,
      "l": 71,
      "m": 72,
      "n": 73,
      "o": 74,
      "p": 75,
      "q": 76,
      "r": 77,
      "s": 78,
      "t": 79,
      "u": 80,
      "v": 81,
      "w": 82,
      "x": 83,
      "y": 84,
      "z": 85,
      "¡": 86,
      "¿": 87,
      "Á": 88,
      "É": 89,
      "Í": 90,
      "Ñ": 91,
      "Ú": 92,
      "á": 93,
      "í": 94,
      "ñ": 95,
      "ó": 96,
      "ú": 97,
      "ü": 98,
      "а": 99,
      "▁": 100,
      "😊": 101,
      "▁e": 102,
      "▁p": 103,
      "ue": 104,
      "▁s": 105,
      "▁a": 106,
      "la": 107,
      "▁c": 108,
      "ra": 109,
      "ro": 110,
      "▁d": 111,
      "ta": 112,
      "▁m": 113,
      "os": 114,
      "El": 115,
      "en": 116,
      "▁n": 117,
      "un": 118,
      "er": 119,
      "ía": 120,
      "\n\n": 121,
      "▁\"": 122,
      "ba": 123,
      "▁un": 124,
      "▁t": 125,
      "que": 126,
      "▁co": 127,
      "▁es": 128,
      "jo": 129,
      "▁l": 130,
      "ga": 131,
      "▁¡": 132,
      "el": 133,
      "▁la": 134,
      "▁ni": 135,
      "▁niñ": 136,
      "es": 137,
      "▁el": 138,
      "do": 139,
      "ijo": 140,
      "am": 141,
      "ri": 142,
      "▁y": 143,
      "as": 144,
      "taba": 145,
      "▁f": 146,
      "to": 147,
      "▁se": 148,
      "▁j": 149,
      "!\"": 150,
      "▁v": 151,
      "▁que": 152,
      "▁estaba": 153,
      "▁mu": 154,
      "▁niño": 155,
      "▁\n\n": 156,
      "▁ju": 157,
      "▁en": 158,
      "te": 159,
      "▁su": 160,
      "ar": 161,
      "ió": 162,
      "▁\"¡": 163,
      "▁g": 164,
      "il": 165,
      "▁h": 166,
      "▁de": 167,
      "▁con": 168,
      "an": 169,
      "amá": 170,
      "re": 171,
      "▁per": 172,
      "▁dijo": 173,
      "ero": 174,
      "ran": 175,
      "La": 176,
      "▁perro": 177,
      "on": 178,
      "▁b": 179,
      "Lil": 180,
      "Lily": 181,
      "▁juga": 182,
      "ch": 183,
      "ja": 184,
      "or": 185,
      "io": 186,
      "de": 187,
      "dijo": 188,
      "ot": 189,
      "▁ga": 190,
      "Un": 191,
      "▁al": 192,
      "▁muy": 193,
      ".\n\n": 194,
      "us": 195,
      "oso": 196,
      "▁mamá": 197,
      "ma": 198,
      "▁no": 199,
      "▁gran": 200,
      "da": 201,
      "Él": 202,
      "ti": 203,
      "▁pe": 204,
      "eli": 205,
      "ol": 206,
      "▁era": 207,
      "al": 208,
      "▁una": 209,
      "om": 210,
      "enía": 211,
      "ría": 212,
      "▁oso": 213,
      "▁pel": 214,
      "in": 215,
      "Sp": 216,
      "Spot": 217,
      "▁fue": 218,
      "mi": 219,
      "tó": 220,
      "▁jugar": 221,
      "queñ": 222,
      "▁feli": 223,
      "▁\n": 224,
      "go": 225,
      "▁pequeñ": 226,
      "▁pa": 227,
      "▁le": 228,
      "ien": 229,
      "rió": 230,
      "ota": 231,
      "▁tenía": 232,
      "▁niña": 233,
      "Es": 234,
      "Era": 235,
      "▁grande": 236,
      "▁quería": 237,
      "▁pelota": 238,
      "Ella": 239,
      "▁gato": 240,
      "▁feliz": 241,
      "No": 242,
      "▁di": 243,
      "ui": 244,
      "ris": 245,
      "ab": 246,
      "▁ro": 247,
      "mp": 248,
      "▁much": 249,
      "jaro": 250,
      "\".": 251,
      "ájaro": 252,
      "▁pequeño": 253,
      "▁vio": 254,
      "lo": 255,
      "▁pájaro": 256,
      "▁tris": 257,
      "ron": 258,
      "Le": 259,
      "▁triste": 260,
      "ci": 261,
      "▁día": 262,
      "\",": 263,
      "Mi": 264,
      "ens": 265,
      "od": 266,
      "oc": 267,
      "▁mi": 268,
      "▁lla": 269,
      "▁ami": 270,
      "▁cam": 271,
      "▁son": 272,
      "!\",": 273,
      "▁cas": 274,
      "le": 275,
      "▁cor": 276,
      "▁llama": 277,
      "▁com": 278,
      "Pero": 279,
      "▁los": 280,
      "▁ca": 281,
      "abía": 282,
      "▁jug": 283,
      "▁div": 284,
      "Leo": 285,
      "Tom": 286,
      "ces": 287,
      "▁casa": 288,
      "ca": 289,
      "ró": 290,
      "▁re": 291,
      "ola": 292,
      "▁Lily": 293,
      "Ben": 294,
      "▁ha": 295,
      "Mamá": 296,
      "Ma": 297,
      "▁ba": 298,
      "▁ve": 299,
      "ás": 300,
      "tió": 301,
      "Max": 302,
      "uan": 303,
      "▁mucho": 304,
      "▁ta": 305,
      "!\n\n": 306,
      "Su": 307,
      "▁ab": 308,
      "▁las": 309,
      "▁diver": 310,
      "na": 311,
      "▁diverti": 312,
      "uso": 313,
      "vo": 314,
      "Una": 315,
      "ión": 316,
      "▁est": 317,
      "ren": 318,
      "dió": 319,
      "co": 320,
      "eron": 321,
      "gu": 322,
      "ues": 323,
      "tes": 324,
      "tens": 325,
      "Mit": 326,
      "Mittens": 327,
      "▁puso": 328,
      "▁lo": 329,
      "intió": 330,
      "▁para": 331,
      "tos": 332,
      "mos": 333,
      "ila": 334,
      "▁i": 335,
      "▁pas": 336,
      "bre": 337,
      "!\".": 338,
      "qui": 339,
      "odía": 340,
      "▁sintió": 341,
      "ón": 342,
      "▁sal": 343,
      "des": 344,
      "Juan": 345,
      "▁par": 346,
      "uen": 347,
      "Los": 348,
      "pá": 349,
      "res": 350,
      "yu": 351,
      "▁gus": 352,
      "ie": 353,
      "▁del": 354,
      "▁pue": 355,
      "▁llamado": 356,
      "▁sol": 357,
      "▁divertido": 358,
      "▁Spot": 359,
      "▁podía": 360,
      "con": 361,
      "De": 362,
      ".\"": 363,
      "lor": 364,
      "▁qui": 365,
      "Ana": 366,
      "▁corrió": 367,
      "ce": 368,
      "ndo": 369,
      "tas": 370,
      "▁me": 371,
      "▁nue": 372,
      "▁ayu": 373,
      "ora": 374,
      "▁jugue": 375,
      "▁sonrió": 376,
      "ul": 377,
      "tito": 378,
      "▁á": 379,
      "▁ra": 380,
      "ril": 381,
      "▁está": 382,
      "▁ama": 383,
      "▁sus": 384,
      "rb": 385,
      "Lila": 386,
      "▁r": 387,
      "▁amigo": 388,
      "pren": 389,
      "gos": 390,
      "zo": 391,
      "▁can": 392,
      "▁gatito": 393,
      "▁parque": 394,
      "dar": 395,
      "ente": 396,
      "rbol": 397,
      "▁árbol": 398,
      "▁te": 399,
      "cu": 400,
      "▁por": 401,
      "pero": 402,
      "▁comer": 403,
      "▁\n\n\"": 404,
      "Hola": 405,
      "▁vez": 406,
      "▁papá": 407,
      "▁más": 408,
      "ten": 409,
      "che": 410,
      "▁amigos": 411,
      "is": 412,
      "tra": 413,
      "▁rojo": 414,
      "gun": 415,
      "▁ver": 416,
      "di": 417,
      "Sam": 418,
      "jos": 419,
      "los": 420,
      "Se": 421,
      "lan": 422,
      "▁ma": 423,
      "▁to": 424,
      "Estaba": 425,
      "Que": 426,
      "pe": 427,
      "ensó": 428,
      "▁camión": 429,
      "▁ot": 430,
      "▁dio": 431,
      "uego": 432,
      "▁apren": 433,
      "mb": 434,
      "▁buen": 435,
      "▁jugando": 436,
      "Sí": 437,
      "?\"": 438,
      "ño": 439,
      "▁tien": 440,
      "cer": 441,
      "▁nuevo": 442,
      "▁lle": 443,
      "pa": 444,
      "▁pre": 445,
      "▁roja": 446,
      "ombre": 447,
      "▁jugó": 448,
      "En": 449,
      "tel": 450,
      "esp": 451,
      "▁pastel": 452,
      "ru": 453,
      "▁hi": 454,
      "có": 455,
      "▁rió": 456,
      "las": 457,
      "▁as": 458,
      "Las": 459,
      "▁pensó": 460,
      "▁man": 461,
      "▁sen": 462,
      "una": 463,
      "▁ser": 464,
      "ve": 465,
      "▁llamada": 466,
      "▁tamb": 467,
      "▁aprendió": 468,
      "▁eran": 469,
      "▁rep": 470,
      "Te": 471,
      "▁comp": 472,
      "amos": 473,
      "▁repente": 474,
      "▁car": 475,
      "▁pequeña": 476,
      "tar": 477,
      "Qui": 478,
      "dos": 479,
      "▁tom": 480,
      "▁sue": 481,
      "▁sabía": 482,
      "ros": 483,
      "▁li": 484,
      "ido": 485,
      "hora": 486,
      "odos": 487,
      "dó": 488,
      "guntó": 489,
      "oco": 490,
      "▁o": 491,
      "vi": 492,
      "zul": 493,
      "▁mal": 494,
      "▁caja": 495,
      "▁hues": 496,
      "▁jun": 497,
      "▁bril": 498,
      "▁tambien": 499,
      "▁na": 500,
      "ín": 501,
      "▁cos": 502,
      "▁ayudar": 503,
      "▁jugaron": 504,
      "lu": 505,
      "ir": 506,
      "▁so": 507,
      "!\"\n\n": 508,
      "▁cama": 509,
      "▁ar": 510,
      "▁mo": 511,
      "ado": 512,
      "ito": 513,
      "▁agu": 514,
      "▁mejo": 515,
      "se": 516,
      "Pue": 517,
      "▁Leo": 518,
      "▁mon": 519,
      "raci": 520,
      "▁encon": 521,
      "▁hueso": 522,
      "edo": 523,
      "▁azul": 524,
      "za": 525,
      "▁bon": 526,
      "▁ten": 527,
      "▁muchos": 528,
      "▁conten": 529,
      "▁bus": 530,
      "▁tomó": 531,
      "▁¿": 532,
      "▁jar": 533,
      "▁\"¿": 534,
      "▁miedo": 535,
      "▁hombre": 536,
      "▁cer": 537,
      "▁mejor": 538,
      "ritó": 539,
      "▁jard": 540,
      "ina": 541,
      "▁vol": 542,
      "▁estaban": 543,
      "Luego": 544,
      "racias": 545,
      "▁jardín": 546,
      "ita": 547,
      "▁tu": 548,
      "iemp": 549,
      "Tenía": 550,
      "jas": 551,
      "zó": 552,
      "nces": 553,
      "iente": 554,
      "▁juguete": 555,
      "Mira": 556,
      "▁asus": 557,
      "up": 558,
      "pre": 559,
      "ormi": 560,
      "▁juntos": 561,
      "▁Ben": 562,
      "▁fueron": 563,
      "Gracias": 564,
      "uga": 565,
      "Quiero": 566,
      "can": 567,
      "eb": 568,
      "tró": 569,
      "▁si": 570,
      "▁comi": 571,
      "▁ir": 572,
      "▁hacer": 573,
      "▁felices": 574,
      ".\n": 575,
      "▁había": 576,
      "\".\n\n": 577,
      "▁bien": 578,
      "▁comió": 579,
      "▁carro": 580,
      "▁abra": 581,
      "cia": 582,
      "▁toc": 583,
      "▁fuer": 584,
      "Vamos": 585,
      "▁Mittens": 586,
      "tir": 587,
      "demos": 588,
      "▁juguetes": 589,
      "▁cosas": 590,
      "▁solo": 591,
      "odemos": 592,
      "▁preoc": 593,
      "preguntó": 594,
      "tonces": 595,
      "▁pelu": 596,
      "espues": 597,
      "Vio": 598,
      "▁niños": 599,
      "erm": 600,
      "▁Max": 601,
      "no": 602,
      "▁algo": 603,
      "jó": 604,
      "▁gustaba": 605,
      "▁dormi": 606,
      "tón": 607,
      "▁flor": 608,
      "cuch": 609,
      "Había": 610,
      "ras": 611,
      "Fue": 612,
      "▁cal": 613,
      "▁tan": 614,
      "▁hizo": 615,
      ".\n\n\"": 616,
      "▁bueno": 617,
      "▁ti": 618,
      "▁preocup": 619,
      "▁brillan": 620,
      "▁Tom": 621,
      "ción": 622,
      "▁preocupes": 623,
      "▁compar": 624,
      "!\n": 625,
      "gó": 626,
      "▁pi": 627,
      "▁ch": 628,
      "ana": 629,
      ",\"": 630,
      "▁beb": 631,
      "▁gal": 632,
      "▁hacia": 633,
      "das": 634,
      "áp": 635,
      "▁grandes": 636,
      "▁fuerte": 637,
      "▁escuch": 638,
      "Ahora": 639,
      "uno": 640,
      "▁mov": 641,
      "▁agua": 642,
      "les": 643,
      "Yo": 644,
      "▁an": 645,
      "▁amaba": 646,
      "so": 647,
      "yó": 648,
      "ío": 649,
      "▁miró": 650,
      "▁llev": 651,
      "bo": 652,
      "▁coche": 653,
      "▁quier": 654,
      "▁va": 655,
      "rar": 656,
      "▁todos": 657,
      "▁espe": 658,
      "▁quiero": 659,
      "elo": 660,
      "Entonces": 661,
      "iempre": 662,
      "Br": 663,
      "mo": 664,
      "?\",": 665,
      "endo": 666,
      "▁ráp": 667,
      "▁os": 668,
      "▁vola": 669,
      "car": 670,
      "Bruno": 671,
      "▁alto": 672,
      "oy": 673,
      "▁bal": 674,
      "▁dormir": 675,
      "▁muchas": 676,
      "Eran": 677,
      "▁tor": 678,
      "gritó": 679,
      "▁hab": 680,
      "▁dice": 681,
      "▁escon": 682,
      "▁todo": 683,
      "Despues": 684,
      "▁poco": 685,
      "cía": 686,
      "▁ratón": 687,
      "uando": 688,
      "illa": 689,
      "me": 690,
      "uela": 691,
      "loró": 692,
      "mamá": 693,
      "▁lib": 694,
      "▁comida": 695,
      "▁cone": 696,
      "▁sentó": 697,
      "▁compartir": 698,
      "▁au": 699,
      "▁salió": 700,
      "ble": 701,
      "▁encontró": 702,
      "▁rápido": 703,
      "Est": 704,
      "▁tienda": 705,
      "▁he": 706,
      "mió": 707,
      "Puedo": 708,
      "▁quiere": 709,
      "▁bar": 710,
      "▁\n\n\"¡": 711,
      "Luna": 712,
      "▁pla": 713,
      "ques": 714,
      "▁cu": 715,
      "▁gusta": 716,
      "▁tiene": 717,
      "▁in": 718,
      "▁deb": 719,
      "▁Juan": 720,
      "ban": 721,
      "ano": 722,
      "▁contento": 723,
      "▁divir": 724,
      "▁siempre": 725,
      "uega": 726,
      "osa": 727,
      "qu": 728,
      "▁ol": 729,
      "▁lloró": 730,
      "Ay": 731,
      "▁otra": 732,
      "▁mar": 733,
      "▁Ana": 734,
      "ronto": 735,
      "▁sua": 736,
      "lump": 737,
      "▁colump": 738,
      "▁tener": 739,
      "▁sueño": 740,
      "▁cara": 741,
      "▁corri": 742,
      "▁rui": 743,
      "gi": 744,
      "▁pronto": 745,
      "▁brillante": 746,
      "rta": 747,
      "▁abrió": 748,
      "▁encan": 749,
      "▁auto": 750,
      "▁amaril": 751,
      "▁libro": 752,
      "cas": 753,
      "▁tra": 754,
      "▁ci": 755,
      "▁escuchó": 756,
      "ñe": 757,
      "▁ri": 758,
      "▁ella": 759,
      "▁galle": 760,
      "▁ojos": 761,
      "bu": 762,
      "tro": 763,
      "▁abrazó": 764,
      "Podemos": 765,
      "sa": 766,
      "▁cui": 767,
      "Ellos": 768,
      "illo": 769,
      "va": 770,
      "Está": 771,
      "▁tocar": 772,
      "▁balón": 773,
      "▁conejo": 774,
      "▁cayó": 775,
      "▁bonito": 776,
      "ino": 777,
      "▁du": 778,
      "▁suave": 779,
      "Quería": 780,
      "▁Lila": 781,
      "▁herm": 782,
      "▁puerta": 783,
      "▁malo": 784,
      "lado": 785,
      "Me": 786,
      "Eres": 787,
      "▁deli": 788,
      "▁volv": 789,
      "dice": 790,
      "▁flores": 791,
      ".\"\n\n": 792,
      "▁porque": 793,
      "mas": 794,
      "den": 795,
      "▁columpio": 796,
      "▁emp": 797,
      "tado": 798,
      "vio": 799,
      "cial": 800,
      "Al": 801,
      "▁sigu": 802,
      "▁otro": 803,
      "▁ruido": 804,
      "▁pal": 805,
      "▁pan": 806,
      "▁movió": 807,
      "ima": 808,
      "▁puedo": 809,
      "Pa": 810,
      "▁sub": 811,
      "▁saltó": 812,
      "▁juega": 813,
      "▁esc": 814,
      "Coco": 815,
      "▁pez": 816,
      "▁asustó": 817,
      "▁delici": 818,
      "▁glo": 819,
      "▁desp": 820,
      "ieron": 821,
      "▁lin": 822,
      "eg": 823,
      "▁dul": 824,
      "len": 825,
      "▁blo": 826,
      "▁Sam": 827,
      "ña": 828,
      "▁como": 829,
      "ando": 830,
      "Todos": 831,
      "tan": 832,
      "▁llo": 833,
      "eces": 834,
      "▁buscó": 835,
      "▁suelo": 836,
      "▁llegó": 837,
      "Ten": 838,
      "isa": 839,
      "▁color": 840,
      "▁lejos": 841,
      "▁fa": 842,
      "▁muñe": 843,
      "st": 844,
      "ugar": 845,
      "▁volar": 846,
      "Puedes": 847,
      "▁especial": 848,
      "▁anima": 849,
      "ya": 850,
      "▁cielo": 851,
      "par": 852,
      "▁canción": 853,
      "▁coc": 854,
      "▁helado": 855,
      "▁lad": 856,
      "pue": 857,
      "▁llevó": 858,
      "▁corriendo": 859,
      "fue": 860,
      "▁ahora": 861,
      "esa": 862,
      "▁manz": 863,
      "au": 864,
      "▁bebe": 865,
      "▁encantaba": 866,
      "▁iba": 867,
      "▁contenta": 868,
      "▁segu": 869,
      "ones": 870,
      "▁lamió": 871,
      "▁peludo": 872,
      "▁bloques": 873,
      "▁atra": 874,
      "▁det": 875,
      "▁pu": 876,
      "▁voló": 877,
      "gas": 878,
      "án": 879,
      "bajo": 880,
      "Oh": 881,
      "per": 882,
      "lar": 883,
      "abe": 884,
      "▁pri": 885,
      "▁hora": 886,
      "▁cerca": 887,
      "▁da": 888,
      "ame": 889,
      "▁desper": 890,
      "▁fr": 891,
      "▁má": 892,
      "▁nada": 893,
      "rena": 894,
      "rito": 895,
      "▁animales": 896,
      "ló": 897,
      "cha": 898,
      "▁cola": 899,
      "▁\n\"": 900,
      "dilla": 901,
      "ñó": 902,
      "ús": 903,
      "▁romp": 904,
      "▁sobre": 905,
      "▁us": 906,
      "yas": 907,
      "▁barco": 908,
      "ia": 909,
      "▁león": 910,
      "▁mági": 911,
      "▁dibu": 912,
      "tillo": 913,
      "?\".": 914,
      "ub": 915,
      "▁limp": 916,
      "quí": 917,
      "▁encontra": 918,
      "▁imp": 919,
      "▁pon": 920,
      "▁hay": 921,
      "▁puedes": 922,
      "emos": 923,
      "▁despertó": 924,
      "toy": 925,
      "▁mucha": 926,
      "itas": 927,
      "▁empu": 928,
      "rás": 929,
      "Son": 930,
      "ella": 931,
      "▁otros": 932,
      "cho": 933,
      "▁aleg": 934,
      "▁sombre": 935,
      "Por": 936,
      "uer": 937,
      "isto": 938,
      "gar": 939,
      "jero": 940,
      "dad": 941,
      "▁impor": 942,
      "▁mano": 943,
      "▁cuando": 944,
      "tieron": 945,
      "eado": 946,
      "jar": 947,
      "▁peluche": 948,
      "eres": 949,
      "oja": 950,
      "▁mari": 951,
      "raba": 952,
      "▁acer": 953,
      "▁buscar": 954,
      "▁caliente": 955,
      "▁estar": 956,
      "laba": 957,
      "▁sombrero": 958,
      "▁lugar": 959,
      "ef": 960,
      "▁dos": 961,
      "▁camin": 962,
      "Eso": 963,
      "▁ham": 964,
      "Lisa": 965,
      "▁cuen": 966,
      "oca": 967,
      "!\".\n\n": 968,
      "▁abuela": 969,
      "▁soleado": 970,
      "▁quedó": 971,
      "Papá": 972,
      "▁ex": 973,
      "▁baila": 974,
      "▁puede": 975,
      "iento": 976,
      "▁arena": 977,
      "había": 978,
      "zón": 979,
      "▁pudo": 980,
      "▁señ": 981,
      "▁sa": 982,
      "▁blan": 983,
      "▁marip": 984,
      "▁agujero": 985,
      "▁castillo": 986,
      "▁playa": 987,
      "▁amable": 988,
      "jeron": 989,
      "stru": 990,
      "▁ayuda": 991,
      "ún": 992,
      "orro": 993,
      "ños": 994,
      "cos": 995,
      "▁cans": 996,
      "eso": 997,
      "▁luego": 998,
      "unca": 999,
      "esta": 1000,
      "era": 1001,
      "▁globo": 1002,
      "fuera": 1003,
      "▁pol": 1004,
      "▁abe": 1005,
      "ientes": 1006,
      "▁afuera": 1007,
      "▁dar": 1008,
      "▁neces": 1009,
      "▁hue": 1010,
      "odas": 1011,
      "▁lu": 1012,
      "der": 1013,
      "íe": 1014,
      "Com": 1015,
      "▁fru": 1016,
      "▁frío": 1017,
      "▁mono": 1018,
      "ica": 1019,
      "▁oscu": 1020,
      "ante": 1021,
      "▁gritó": 1022,
      "tía": 1023,
      "▁bos": 1024,
      "lí": 1025,
      "▁rega": 1026,
      "▁torre": 1027,
      "mó": 1028,
      "▁preguntó": 1029,
      "▁perros": 1030,
      "▁pájaros": 1031,
      "Cor": 1032,
      "▁bosque": 1033,
      "▁divirtieron": 1034,
      "▁tuvo": 1035,
      "uel": 1036,
      "▁pap": 1037,
      "▁leche": 1038,
      "su": 1039,
      "vos": 1040,
      "▁fi": 1041,
      "▁amarillo": 1042,
      "▁nub": 1043,
      "▁detrás": 1044,
      "gres": 1045,
      ".\n\n\"¡": 1046,
      "▁vi": 1047,
      "Tengo": 1048,
      "▁ayudó": 1049,
      "▁ya": 1050,
      "▁corre": 1051,
      "anas": 1052,
      "taron": 1053,
      "▁palo": 1054,
      "▁mariposa": 1055,
      "▁importan": 1056,
      "Cuando": 1057,
      "▁pueden": 1058,
      "▁bi": 1059,
      "▁veces": 1060,
      "cari": 1061,
      "je": 1062,
      "omb": 1063,
      "▁dur": 1064,
      "mu": 1065,
      "▁gol": 1066,
      "▁mis": 1067,
      "ec": 1068,
      "▁llen": 1069,
      "Ha": 1070,
      "▁enf": 1071,
      "▁miel": 1072,
      "via": 1073,
      "▁cocina": 1074,
      "▁todas": 1075,
      "▁des": 1076,
      "van": 1077,
      "▁divirtió": 1078,
      "▁quiso": 1079,
      "▁acercó": 1080,
      "luvia": 1081,
      "iempo": 1082,
      "▁tiempo": 1083,
      "▁sor": 1084,
      "▁pie": 1085,
      "▁cabe": 1086,
      "▁verde": 1087,
      "lla": 1088,
      "▁ves": 1089,
      "▁galletas": 1090,
      "▁pro": 1091,
      "▁gusano": 1092,
      "teó": 1093,
      "▁elef": 1094,
      "▁boca": 1095,
      "▁ven": 1096,
      "Juga": 1097,
      "▁sonido": 1098,
      "▁podemos": 1099,
      "laro": 1100,
      "▁escondió": 1101,
      "▁\n\n\"¿": 1102,
      "Estoy": 1103,
      "Lo": 1104,
      "▁lar": 1105,
      "▁nunca": 1106,
      "▁comprar": 1107,
      "▁estr": 1108,
      "ónde": 1109,
      "▁nari": 1110,
      "iendo": 1111,
      "▁lluvia": 1112,
      "▁res": 1113,
      "▁corría": 1114,
      "▁levan": 1115,
      "▁cabeza": 1116,
      "▁ardilla": 1117,
      "▁galleta": 1118,
      "▁allí": 1119,
      "Tú": 1120,
      "rón": 1121,
      "asta": 1122,
      "▁importante": 1123,
      "riba": 1124,
      "▁abrazo": 1125,
      "▁cerró": 1126,
      "▁her": 1127,
      "zar": 1128,
      "▁empujó": 1129,
      "▁dulce": 1130,
      "▁alta": 1131,
      "cur": 1132,
      "▁pelotas": 1133,
      "▁delicioso": 1134,
      "▁pasa": 1135,
      "▁brillantes": 1136,
      "Sol": 1137,
      "▁bonitas": 1138,
      "▁nariz": 1139,
      "▁rompió": 1140,
      "▁asustado": 1141,
      "▁enoja": 1142,
      "▁jugaba": 1143,
      "▁aquí": 1144,
      "▁cansado": 1145,
      "▁divertida": 1146,
      "uc": 1147,
      "▁regres": 1148,
      "▁cre": 1149,
      "▁colores": 1150,
      "▁gustó": 1151,
      "▁plu": 1152,
      "▁lindo": 1153,
      "curru": 1154,
      "▁amiga": 1155,
      "hí": 1156,
      "▁acurru": 1157,
      "▁sentía": 1158,
      "▁hambre": 1159,
      "Claro": 1160,
      "▁volver": 1161,
      "▁encontrar": 1162,
      "▁rato": 1163,
      "▁golpe": 1164,
      "▁toda": 1165,
      "Voy": 1166,
      "▁siguió": 1167,
      "▁olvi": 1168,
      "\"¡": 1169,
      "Ya": 1170,
      "▁extra": 1171,
      "▁brillaba": 1172,
      "Este": 1173,
      "▁fres": 1174,
      "▁mos": 1175,
      "migo": 1176,
      "▁conti": 1177,
      "▁hacía": 1178,
      "ñana": 1179,
      "▁tocó": 1180,
      "▁vesti": 1181,
      "▁real": 1182,
      "aba": 1183,
      "▁Luna": 1184,
      "▁due": 1185,
      "▁manzana": 1186,
      "▁bonita": 1187,
      "▁rojas": 1188,
      "entro": 1189,
      "▁jugaban": 1190,
      "▁siguiente": 1191,
      "▁ho": 1192,
      "▁abri": 1193,
      "▁Bruno": 1194,
      "▁conmigo": 1195,
      "ches": 1196,
      "por": 1197,
      "dido": 1198,
      "▁bola": 1199,
      "Ju": 1200,
      "▁están": 1201,
      "▁payas": 1202,
      "▁av": 1203,
      "más": 1204,
      "▁gor": 1205,
      "▁nueva": 1206,
      "chas": 1207,
      "eta": 1208,
      "Gu": 1209,
      "▁plan": 1210,
      "vía": 1211,
      "▁ahí": 1212,
      "muy": 1213,
      "▁cuida": 1214,
      "▁roca": 1215,
      "▁pato": 1216,
      "▁tren": 1217,
      "▁monstru": 1218,
      "íris": 1219,
      "coíris": 1220,
      "▁mira": 1221,
      "Guau": 1222,
      "▁arcoíris": 1223,
      "pon": 1224,
      "▁dejó": 1225,
      "▁contigo": 1226,
      "▁alas": 1227,
      "puedes": 1228,
      "iera": 1229,
      "▁cantó": 1230,
      "ara": 1231,
      "▁chi": 1232,
      "▁raro": 1233,
      "vor": 1234,
      "▁favor": 1235,
      "▁escuela": 1236,
      "▁muñeca": 1237,
      "gió": 1238,
      "▁reía": 1239,
      "son": 1240,
      "▁volvió": 1241,
      "ier": 1242,
      "ció": 1243,
      "▁sonr": 1244,
      "▁eso": 1245,
      "eo": 1246,
      "dra": 1247,
      "▁seguía": 1248,
      "▁despues": 1249,
      "▁z": 1250,
      "Esta": 1251,
      "▁acurrucó": 1252,
      "zapa": 1253,
      "▁tro": 1254,
      "tio": 1255,
      "▁rojos": 1256,
      "vas": 1257,
      "▁toma": 1258,
      "▁elefante": 1259,
      "▁demás": 1260,
      "▁patio": 1261,
      "rita": 1262,
      "▁zapa": 1263,
      "▁cuenta": 1264,
      "▁abeja": 1265,
      "▁torta": 1266,
      "▁debajo": 1267,
      "▁favo": 1268,
      "Luc": 1269,
      "Lucy": 1270,
      "uena": 1271,
      "▁eres": 1272,
      "rando": 1273,
      "tu": 1274,
      "▁dijeron": 1275,
      "ena": 1276,
      "▁arriba": 1277,
      "rer": 1278,
      "Hi": 1279,
      "▁marrón": 1280,
      "▁mágico": 1281,
      "bos": 1282,
      "elig": 1283,
      "tor": 1284,
      "▁veía": 1285,
      "▁dulces": 1286,
      "ada": 1287,
      "▁mañana": 1288,
      "pó": 1289,
      "▁volando": 1290,
      "▁hasta": 1291,
      "▁mesa": 1292,
      "▁buena": 1293,
      "▁tiró": 1294,
      "gui": 1295,
      "▁fuego": 1296,
      "▁vas": 1297,
      "▁pequeños": 1298,
      "▁cach": 1299,
      "gan": 1300,
      "cl": 1301,
      "▁subir": 1302,
      "▁vestido": 1303,
      "diós": 1304,
      "▁subió": 1305,
      "▁fiesta": 1306,
      "tre": 1307,
      "▁verdes": 1308,
      "cieron": 1309,
      "Quieres": 1310,
      "ómo": 1311,
      "▁correr": 1312,
      "▁bot": 1313,
      "▁ese": 1314,
      "▁maes": 1315,
      "Sus": 1316,
      "▁razón": 1317,
      "▁caram": 1318,
      "▁bailar": 1319,
      "ento": 1320,
      "llama": 1321,
      "▁salir": 1322,
      "reg": 1323,
      "▁daño": 1324,
      "▁rieron": 1325,
      "▁\n\n¡": 1326,
      "▁durmió": 1327,
      "ed": 1328,
      "prendió": 1329,
      "ria": 1330,
      "▁bu": 1331,
      "inal": 1332,
      "▁cuidar": 1333,
      "▁hermos": 1334,
      "com": 1335,
      "▁ove": 1336,
      "▁hojas": 1337,
      "▁manzanas": 1338,
      "▁dis": 1339,
      "▁tar": 1340,
      "▁arreg": 1341,
      "ver": 1342,
      "cluso": 1343,
      "▁ide": 1344,
      "Tu": 1345,
      "▁vino": 1346,
      "▁noche": 1347,
      "▁pin": 1348,
      "▁pis": 1349,
      "▁osito": 1350,
      "▁hace": 1351,
      "So": 1352,
      "▁regalo": 1353,
      "vieron": 1354,
      "▁nie": 1355,
      "Tien": 1356,
      "gue": 1357,
      "▁azules": 1358,
      "▁ara": 1359,
      "tada": 1360,
      "iar": 1361,
      "Soy": 1362,
      "▁alcan": 1363,
      "Oso": 1364,
      "oló": 1365,
      "Adiós": 1366,
      "?\"\n\n": 1367,
      "eni": 1368,
      "San": 1369,
      "▁luz": 1370,
      "▁querían": 1371,
      "bal": 1372,
      "▁ladró": 1373,
      "▁tenían": 1374,
      "ng": 1375,
      "ellas": 1376,
      "ilo": 1377,
      "▁cerdo": 1378,
      "▁hablar": 1379,
      "▁llevar": 1380,
      "puedo": 1381,
      "▁plato": 1382,
      "Dame": 1383,
      "▁les": 1384,
      "▁tus": 1385,
      "▁monstruo": 1386,
      "▁osos": 1387,
      "Esa": 1388,
      "▁payaso": 1389,
      "mero": 1390,
      "▁gall": 1391,
      "▁escondi": 1392,
      "▁peda": 1393,
      "rag": 1394,
      "▁drag": 1395,
      "▁pateó": 1396,
      "▁hac": 1397,
      "▁alcanzar": 1398,
      "▁levantó": 1399,
      "▁nube": 1400,
      "▁entró": 1401,
      "▁atrapar": 1402,
      "▁olvidó": 1403,
      "▁tarde": 1404,
      "ama": 1405,
      "dor": 1406,
      "perro": 1407,
      "▁roto": 1408,
      "▁días": 1409,
      "▁silla": 1410,
      "▁comen": 1411,
      "▁cuer": 1412,
      "▁caminó": 1413,
      "▁árboles": 1414,
      "▁jugo": 1415,
      "▁idea": 1416,
      "▁busca": 1417,
      "▁lan": 1418,
      "▁fan": 1419,
      "▁pelig": 1420,
      "▁pes": 1421,
      "▁estu": 1422,
      "▁cabal": 1423,
      "▁habita": 1424,
      "▁herman": 1425,
      "▁tristes": 1426,
      "▁sonríe": 1427,
      "▁alegró": 1428,
      "Estaban": 1429,
      "▁nos": 1430,
      "▁tienes": 1431,
      "roso": 1432,
      "▁tengas": 1433,
      "du": 1434,
      "cio": 1435,
      "▁redo": 1436,
      "▁camina": 1437,
      "▁plumas": 1438,
      "▁usar": 1439,
      "Ted": 1440,
      "Buen": 1441,
      "peró": 1442,
      "mple": 1443,
      "▁blanco": 1444,
      "▁dentro": 1445,
      "Dónde": 1446,
      "Ese": 1447,
      "mente": 1448,
      "rio": 1449,
      "▁estás": 1450,
      "▁comieron": 1451,
      "▁vie": 1452,
      "▁ellos": 1453,
      "▁dol": 1454,
      "▁pata": 1455,
      "▁caer": 1456,
      "▁leer": 1457,
      "▁habitación": 1458,
      "raz": 1459,
      "▁gan": 1460,
      "▁enferm": 1461,
      "▁sin": 1462,
      "▁manos": 1463,
      "▁gi": 1464,
      "illas": 1465,
      "▁dientes": 1466,
      "cion": 1467,
      "▁histo": 1468,
      "▁person": 1469,
      "▁entonces": 1470,
      "aron": 1471,
      "▁oscuro": 1472,
      "▁uno": 1473,
      "úsica": 1474,
      "▁verdad": 1475,
      "dre": 1476,
      "▁amarilla": 1477,
      "▁ban": 1478,
      "▁vuel": 1479,
      "aría": 1480,
      "▁viento": 1481,
      "▁huevo": 1482,
      "▁bru": 1483,
      "estaba": 1484,
      "▁autob": 1485,
      "otas": 1486,
      "▁serp": 1487,
      "▁música": 1488,
      "▁poner": 1489,
      "▁zapatos": 1490,
      "um": 1491,
      "ír": 1492,
      "gre": 1493,
      "Hizo": 1494,
      "▁dueño": 1495,
      "▁zo": 1496,
      "die": 1497,
      "▁soñó": 1498,
      "▁queso": 1499,
      "▁P": 1500,
      "▁sentir": 1501,
      "enial": 1502,
      "▁bajó": 1503,
      "papá": 1504,
      "▁divertidos": 1505,
      "▁demas": 1506,
      "▁golpeó": 1507,
      "▁podían": 1508,
      "▁pasó": 1509,
      "▁pala": 1510,
      "▁dragón": 1511,
      "▁bol": 1512,
      "▁siento": 1513,
      "▁pasto": 1514,
      "▁montón": 1515,
      "ami": 1516,
      "▁tel": 1517,
      "▁genial": 1518,
      "▁dif": 1519,
      "chos": 1520,
      "▁esperó": 1521,
      "▁ladraba": 1522,
      "yo": 1523,
      "▁globos": 1524,
      "▁pod": 1525,
      "▁decía": 1526,
      "▁ballen": 1527,
      "▁fuera": 1528,
      "▁estrella": 1529,
      "▁entra": 1530,
      "▁dibujo": 1531,
      "▁acari": 1532,
      "▁movía": 1533,
      "▁avión": 1534,
      "Ayu": 1535,
      "nes": 1536,
      "pondió": 1537,
      "▁juegan": 1538,
      "iado": 1539,
      "años": 1540,
      "▁autobús": 1541,
      "ida": 1542,
      "▁nieve": 1543,
      "▁hicieron": 1544,
      "▁lobo": 1545,
      "oz": 1546,
      "▁camp": 1547,
      "ves": 1548,
      "inó": 1549,
      "erra": 1550,
      "vamos": 1551,
      "▁pequeñas": 1552,
      "▁llorar": 1553,
      "▁pollo": 1554,
      "pensó": 1555,
      "▁redon": 1556,
      "▁sopa": 1557,
      "▁esta": 1558,
      "▁escal": 1559,
      "▁tomar": 1560,
      "▁ayudarte": 1561,
      "▁araña": 1562,
      "undo": 1563,
      "cariño": 1564,
      "▁din": 1565,
      "▁enfermo": 1566,
      "▁debía": 1567,
      "▁cumple": 1568,
      "▁sí": 1569,
      "▁gordo": 1570,
      "▁fría": 1571,
      "▁enten": 1572,
      "pi": 1573,
      "To": 1574,
      "cre": 1575,
      "▁trajo": 1576,
      "▁cachorro": 1577,
      "▁vieron": 1578,
      "▁voz": 1579,
      "llamado": 1580,
      "▁\n\"¡": 1581,
      "▁vaso": 1582,
      "▁extraño": 1583,
      "Sal": 1584,
      "▁escuchar": 1585,
      "men": 1586,
      "Dijo": 1587,
      "▁cuidado": 1588,
      "Hay": 1589,
      "▁cumpleaños": 1590,
      "▁planta": 1591,
      "▁regresó": 1592,
      "Tenemos": 1593,
      "▁Coco": 1594,
      "▁deliciosa": 1595,
      "▁señora": 1596,
      "zza": 1597,
      "▁llega": 1598,
      "ícu": 1599,
      "dame": 1600,
      "▁lago": 1601,
      "▁ríe": 1602,
      "▁cuerda": 1603,
      "cado": 1604,
      "▁deci": 1605,
      "▁metió": 1606,
      "▁pira": 1607,
      "▁rodó": 1608,
      "▁fantas": 1609,
      "▁vaca": 1610,
      "Podía": 1611,
      "▁fam": 1612,
      "Ayú": 1613,
      "▁corrieron": 1614,
      "▁cantaba": 1615,
      "▁hermano": 1616,
      ".\n\n\"¿": 1617,
      "▁tengo": 1618,
      "▁beso": 1619,
      "ay": 1620,
      "▁moja": 1621,
      "dieron": 1622,
      "▁rue": 1623,
      "rieron": 1624,
      "▁pizza": 1625,
      "Ba": 1626,
      "▁cantar": 1627,
      "Ve": 1628,
      "gico": 1629,
      "▁or": 1630,
      "dera": 1631,
      "▁enojado": 1632,
      "▁necesita": 1633,
      "▁agar": 1634,
      "cto": 1635,
      "Corrió": 1636,
      "fa": 1637,
      "▁venta": 1638,
      "▁camino": 1639,
      "▁algun": 1640,
      "▁pus": 1641,
      "▁debe": 1642,
      "▁lav": 1643,
      "▁disf": 1644,
      "▁frutas": 1645,
      "▁ventana": 1646,
      "▁bebió": 1647,
      "▁cosa": 1648,
      "▁debes": 1649,
      "▁gu": 1650,
      "▁caramelo": 1651,
      "▁bici": 1652,
      "▁gati": 1653,
      "avi": 1654,
      "▁perf": 1655,
      "Mu": 1656,
      "▁seguro": 1657,
      "itos": 1658,
      "col": 1659,
      "▁comenzó": 1660,
      "▁col": 1661,
      "▁piedra": 1662,
      "ter": 1663,
      "▁asintió": 1664,
      "ciones": 1665,
      "▁paja": 1666,
      "día": 1667,
      "▁contó": 1668,
      "▁gigan": 1669,
      "itaba": 1670,
      "▁voy": 1671,
      "pájaro": 1672,
      "▁buenos": 1673,
      "▁luna": 1674,
      "▁mor": 1675,
      "▁muj": 1676,
      "▁fresas": 1677,
      "▁tambor": 1678,
      "Jugaron": 1679,
      "▁nues": 1680,
      "▁nadar": 1681,
      "▁papel": 1682,
      "cción": 1683,
      "Bus": 1684,
      "mbre": 1685,
      "cil": 1686,
      "▁Mi": 1687,
      "▁go": 1688,
      "▁choc": 1689,
      "▁rama": 1690,
      "▁sorprendió": 1691,
      "▁larga": 1692,
      "▁demasiado": 1693,
      "ste": 1694,
      "▁cómo": 1695,
      "cina": 1696,
      "ern": 1697,
      "▁coches": 1698,
      "bles": 1699,
      "▁gustaban": 1700,
      "▁sola": 1701,
      "!\n\n\"": 1702,
      "juga": 1703,
      "▁buenas": 1704,
      "ven": 1705,
      "▁bes": 1706,
      "▁cansa": 1707,
      "tal": 1708,
      "▁dinero": 1709,
      "illos": 1710,
      "▁caballo": 1711,
      "▁amo": 1712,
      "Jugó": 1713,
      "▁calle": 1714,
      "▁taza": 1715,
      "▁lección": 1716,
      "▁aún": 1717,
      "▁nubes": 1718,
      "Solo": 1719,
      "ál": 1720,
      "▁favorito": 1721,
      "▁concha": 1722,
      "▁esconder": 1723,
      "rada": 1724,
      "untos": 1725,
      "▁gallina": 1726,
      "▁detu": 1727,
      "▁sab": 1728,
      "ológico": 1729,
      "olate": 1730,
      "cor": 1731,
      "▁yo": 1732,
      "oo": 1733,
      "▁zoológico": 1734,
      "▁llamó": 1735,
      "Tienes": 1736,
      "▁mío": 1737,
      "▁term": 1738,
      "▁gris": 1739,
      "▁hilo": 1740,
      "▁pl": 1741,
      "▁mover": 1742,
      "▁basu": 1743,
      "▁doc": 1744,
      "Sara": 1745,
      "Más": 1746,
      "▁caminar": 1747,
      "▁ense": 1748,
      "▁pedazo": 1749,
      "▁hier": 1750,
      "▁hierba": 1751,
      "cle": 1752,
      "▁serpiente": 1753,
      "▁har": 1754,
      "mag": 1755,
      "▁redonda": 1756,
      "Ven": 1757,
      "▁huevos": 1758,
      "▁pone": 1759,
      "chi": 1760,
      "▁pavo": 1761,
      "▁fal": 1762,
      "▁necesitaba": 1763,
      "▁nuevos": 1764,
      "▁hermana": 1765,
      "▁estrellas": 1766,
      "▁lleno": 1767,
      "▁nuevas": 1768,
      "▁atrapó": 1769,
      "▁pasar": 1770,
      "ueve": 1771,
      "▁cab": 1772,
      "ni": 1773,
      "▁mí": 1774,
      "nos": 1775,
      "▁chocolate": 1776,
      "mocion": 1777,
      "▁juego": 1778,
      "edro": 1779,
      "▁mágica": 1780,
      "▁ayudare": 1781,
      "▁emocion": 1782,
      "▁detuvo": 1783,
      "▁atrapa": 1784,
      "▁chis": 1785,
      "▁peces": 1786,
      "▁doctor": 1787,
      "Neces": 1788,
      "▁sacó": 1789,
      "▁baño": 1790,
      "▁nido": 1791,
      "▁pajarito": 1792,
      "▁divertidas": 1793,
      "▁irse": 1794,
      "Siempre": 1795,
      "▁abrir": 1796,
      "ho": 1797,
      "▁zorro": 1798,
      "upa": 1799,
      "María": 1800,
      "▁ap": 1801,
      "▁calor": 1802,
      "▁muñeco": 1803,
      "▁jue": 1804,
      "dedor": 1805,
      "osas": 1806,
      "rro": 1807,
      "▁conf": 1808,
      "▁val": 1809,
      "▁tierra": 1810,
      "▁personas": 1811,
      "▁llena": 1812,
      "▁desa": 1813,
      "▁rico": 1814,
      "▁sop": 1815,
      "▁haciendo": 1816,
      "▁limpiar": 1817,
      "Vi": 1818,
      "▁Lisa": 1819,
      "ezó": 1820,
      "▁lim": 1821,
      "▁imag": 1822,
      "▁maestra": 1823,
      "Aquí": 1824,
      "Sabía": 1825,
      "ger": 1826,
      "▁cin": 1827,
      "▁teso": 1828,
      "▁bo": 1829,
      "▁am": 1830,
      "inas": 1831,
      "▁mundo": 1832,
      "▁sabe": 1833,
      "▁ton": 1834,
      "▁especiales": 1835,
      "▁historia": 1836,
      "▁lanzó": 1837,
      "▁maul": 1838,
      "Si": 1839,
      "elos": 1840,
      "▁hermosa": 1841,
      "▁señor": 1842,
      "▁inten": 1843,
      "rededor": 1844,
      "▁rosa": 1845,
      "▁respondió": 1846,
      "▁alrededor": 1847,
      "▁muñecas": 1848,
      "ea": 1849,
      "▁toques": 1850,
      "Tal": 1851,
      "Jugue": 1852,
      "▁salchi": 1853,
      "gatito": 1854,
      "quiero": 1855,
      "Per": 1856,
      "▁final": 1857,
      "▁fruta": 1858,
      "ck": 1859,
      "▁papas": 1860,
      "podemos": 1861,
      "rias": 1862,
      "gul": 1863,
      "▁tobo": 1864,
      "eros": 1865,
      "▁sueños": 1866,
      "▁pelícu": 1867,
      "▁orgul": 1868,
      "▁palom": 1869,
      "▁come": 1870,
      "ombra": 1871,
      "tura": 1872,
      "Juntos": 1873,
      "▁abajo": 1874,
      "ios": 1875,
      "▁ran": 1876,
      "!\n\n\"¡": 1877,
      "▁granja": 1878,
      "▁madre": 1879,
      "▁ballena": 1880,
      "Ayúdame": 1881,
      "Ch": 1882,
      "▁princes": 1883,
      "▁tras": 1884,
      "▁vuelta": 1885,
      "▁rodilla": 1886,
      "▁linda": 1887,
      "▁naran": 1888,
      "▁camisa": 1889,
      "▁dormido": 1890,
      "▁colo": 1891,
      "ngel": 1892,
      "▁mujer": 1893,
      "dy": 1894,
      "▁oveja": 1895,
      "▁famil": 1896,
      "▁ángel": 1897,
      "pequeñ": 1898,
      "▁arreglar": 1899,
      "cito": 1900,
      "▁apa": 1901,
      "▁malos": 1902,
      "▁acarició": 1903,
      "▁dije": 1904,
      "Ser": 1905,
      "azul": 1906,
      "▁caracol": 1907,
      "bri": 1908,
      "▁gru": 1909,
      "▁llamaba": 1910,
      "gán": 1911,
      "Lola": 1912,
      "sas": 1913,
      "fá": 1914,
      "▁tío": 1915,
      "▁u": 1916,
      "▁tobogán": 1917,
      "Dos": 1918,
      "▁sofá": 1919,
      "▁princesa": 1920,
      "pres": 1921,
      "▁acos": 1922,
      "▁río": 1923,
      "cen": 1924,
      "dando": 1925,
      "▁hecho": 1926,
      "▁abue": 1927,
      "Teddy": 1928,
      "▁pens": 1929,
      "ñas": 1930,
      "Ti": 1931,
      "▁abejas": 1932,
      "▁reco": 1933,
      "Hu": 1934,
      "razón": 1935,
      "▁este": 1936,
      "▁tesoro": 1937,
      "vis": 1938,
      "▁saltar": 1939,
      "▁pusieron": 1940,
      "▁habló": 1941,
      "Compar": 1942,
      "Tenían": 1943,
      "▁rana": 1944,
      "anos": 1945,
      "▁escalera": 1946,
      "incluso": 1947,
      "▁canciones": 1948,
      "▁durmi": 1949,
      "▁hoja": 1950,
      "viera": 1951,
      "▁bajar": 1952,
      "como": 1953,
      "▁leyó": 1954,
      "▁abrigo": 1955,
      "dijeron": 1956,
      "▁Mamá": 1957,
      "▁sem": 1958,
      "▁agarró": 1959,
      "ueva": 1960,
      "▁poll": 1961,
      "▁pelo": 1962,
      "▁perfec": 1963,
      "▁fantasma": 1964,
      "risa": 1965,
      "An": 1966,
      "Car": 1967,
      "ene": 1968,
      "▁llover": 1969,
      "▁olía": 1970,
      "▁gatos": 1971,
      "▁ayudarme": 1972,
      "▁huesos": 1973,
      "▁chico": 1974,
      "▁ave": 1975,
      "!\"\n": 1976,
      "▁largo": 1977,
      "are": 1978,
      "▁rota": 1979,
      "..": 1980,
      "▁fuertes": 1981,
      "▁listo": 1982,
      "▁ido": 1983,
      "tico": 1984,
      "tuga": 1985,
      "▁corazón": 1986,
      "iego": 1987,
      "▁cangre": 1988,
      "▁gente": 1989,
      "dentro": 1990,
      "▁beber": 1991,
      "▁siente": 1992,
      "uis": 1993,
      "▁eno": 1994,
      "wi": 1995,
      "Sof": 1996,
      "Juguemos": 1997,
      "dwi": 1998,
      "rbu": 1999,
      "rado": 2000,
      "▁bruja": 2001,
      "▁oscura": 2002,
      "entes": 2003,
      "▁toal": 2004,
      "▁manta": 2005,
      "presa": 2006,
      "▁cueva": 2007,
      "▁maulló": 2008,
      "▁perdido": 2009,
      "▁oc": 2010,
      "Ri": 2011,
      "mbos": 2012,
      "ándwi": 2013,
      "▁tele": 2014,
      "▁hormi": 2015,
      "▁asustada": 2016,
      "▁vis": 2017,
      "bió": 2018,
      "▁tortuga": 2019,
      "Luis": 2020,
      "▁sándwi": 2021,
      "po": 2022,
      "▁bomb": 2023,
      "▁cál": 2024,
      "▁nadie": 2025,
      "Estás": 2026,
      "tia": 2027,
      "▁cogió": 2028,
      "Lle": 2029,
      "▁adentro": 2030,
      "▁burbu": 2031,
      "▁entrar": 2032,
      "▁sombra": 2033,
      "▁rey": 2034,
      "▁todavía": 2035,
      "ierta": 2036,
      "▁hada": 2037,
      "▁velas": 2038,
      "▁decir": 2039,
      "▁tromp": 2040,
      "▁mirando": 2041,
      "▁dibujos": 2042,
      "Deb": 2043,
      "▁visto": 2044,
      "▁partes": 2045,
      "▁usó": 2046,
      "▁pare": 2047,
      "▁gigante": 2048,
      "▁besó": 2049,
      "▁lis": 2050,
      "Jugar": 2051,
      "▁vivía": 2052,
      "▁regalos": 2053,
      "▁sucio": 2054,
      "remos": 2055,
      "▁empezó": 2056,
      "ip": 2057,
      "▁juntas": 2058,
      "▁paloma": 2059,
      "▁sentado": 2060,
      "fi": 2061,
      "▁pos": 2062,
      "▁pate": 2063,
      "Carlos": 2064,
      "▁bebes": 2065,
      "▁plá": 2066,
      "▁po": 2067,
      "lie": 2068,
      "gues": 2069,
      "▁ruedas": 2070,
      "Jes": 2071,
      "▁basura": 2072,
      "▁palab": 2073,
      "Char": 2074,
      "Charlie": 2075,
      "▁pega": 2076,
      "▁cangrejo": 2077,
      "▁tre": 2078,
      "▁sien": 2079,
      "▁cena": 2080,
      "ura": 2081,
      "Ricar": 2082,
      "Ricardo": 2083,
      "▁nadó": 2084,
      "idos": 2085,
      "▁ovejas": 2086,
      "▁naranja": 2087,
      "▁perrito": 2088,
      "▁caf": 2089,
      "Em": 2090,
      "Emma": 2091,
      "▁mas": 2092,
      "▁amigas": 2093,
      "▁tab": 2094,
      "ían": 2095,
      "pequeño": 2096,
      "▁noches": 2097,
      "ablo": 2098,
      "▁limpio": 2099,
      "▁cabra": 2100,
      "▁acostó": 2101,
      "▁soy": 2102,
      "Ga": 2103,
      "▁mosca": 2104,
      "tenía": 2105,
      "▁intentó": 2106,
      "caron": 2107,
      "▁lá": 2108,
      "▁difer": 2109,
      "▁pirata": 2110,
      "▁gatita": 2111,
      "▁bail": 2112,
      "▁peligroso": 2113,
      "aló": 2114,
      "▁sándwich": 2115,
      "▁sonrisa": 2116,
      "Diego": 2117,
      "▁burro": 2118,
      "bot": 2119,
      "Laura": 2120,
      "Hugo": 2121,
      "▁peluda": 2122,
      "▁queda": 2123,
      "▁bayas": 2124,
      "Davi": 2125,
      "David": 2126,
      "rui": 2127,
      "▁gallo": 2128,
      "▁entendía": 2129,
      "▁pluma": 2130,
      "alto": 2131,
      "▁valiente": 2132,
      "▁olfa": 2133,
      "Pedro": 2134,
      "▁junto": 2135,
      "Anita": 2136,
      "Miau": 2137,
      "▁malas": 2138,
      "▁ore": 2139,
      "▁durmiendo": 2140,
      "▁tru": 2141,
      "strui": 2142,
      "si": 2143,
      "Algun": 2144,
      "▁carros": 2145,
      "▁comerlo": 2146,
      "▁enojada": 2147,
      "▁quie": 2148,
      "Santia": 2149,
      "Santiago": 2150,
      "▁pantal": 2151,
      "▁abraza": 2152,
      "ur": 2153,
      "▁paseo": 2154,
      "antes": 2155,
      "▁botón": 2156,
      "▁mala": 2157,
      "▁sacar": 2158,
      "chó": 2159,
      "▁patas": 2160,
      "▁construi": 2161,
      "▁primero": 2162,
      "orma": 2163,
      "▁chica": 2164,
      "▁disfraz": 2165,
      "▁ac": 2166,
      "tras": 2167,
      "▁cuento": 2168,
      "Fern": 2169,
      "Fernando": 2170,
      "Hacía": 2171,
      "▁miraba": 2172,
      "▁tú": 2173,
      "Sofía": 2174,
      "▁saltaba": 2175,
      "▁ron": 2176,
      "tarse": 2177,
      "▁dolía": 2178,
      "▁bomberos": 2179,
      "▁guar": 2180,
      "▁esperar": 2181,
      "mira": 2182,
      "▁ola": 2183,
      "▁llegar": 2184,
      "lada": 2185,
      "▁piso": 2186,
      "▁mone": 2187,
      "ñaba": 2188,
      "▁duele": 2189,
      "▁cubo": 2190,
      "▁pr": 2191,
      "▁construir": 2192,
      "anaho": 2193,
      "▁caminaba": 2194,
      "▁monta": 2195,
      "▁familia": 2196,
      "▁cinta": 2197,
      "loso": 2198,
      "▁algunas": 2199,
      "▁cometa": 2200,
      "▁olfateó": 2201,
      "▁autos": 2202,
      "otros": 2203,
      "▁bajo": 2204,
      "todos": 2205,
      "he": 2206,
      "▁bote": 2207,
      "▁toalla": 2208,
      "▁espejo": 2209,
      "▁otras": 2210,
      "tin": 2211,
      "▁salta": 2212,
      "▁capa": 2213,
      "ínci": 2214,
      "▁película": 2215,
      "Tim": 2216,
      "▁canta": 2217,
      "raron": 2218,
      "▁estuviera": 2219,
      "▁bicho": 2220,
      "▁niñas": 2221,
      "▁ronron": 2222,
      "▁burbujas": 2223,
      "íncipe": 2224,
      "▁aprender": 2225,
      "ow": 2226,
      "jaron": 2227,
      "Compartir": 2228,
      "▁tomate": 2229,
      "▁haber": 2230,
      "Jesús": 2231,
      "▁zanaho": 2232,
      "li": 2233,
      "tros": 2234,
      "Corrieron": 2235,
      ".\n\n¡": 2236,
      "Enri": 2237,
      "▁cocod": 2238,
      "▁mismo": 2239,
      "▁Lucy": 2240,
      "▁príncipe": 2241,
      "▁manchas": 2242,
      "Sue": 2243,
      "▁dejar": 2244,
      "rilo": 2245,
      "Cam": 2246,
      "▁sopló": 2247,
      "▁suaves": 2248,
      "▁blancas": 2249,
      "▁hará": 2250,
      "▁gustan": 2251,
      "▁traba": 2252,
      "▁patos": 2253,
      "▁enano": 2254,
      "▁arro": 2255,
      "▁mojado": 2256,
      "▁peligros": 2257,
      "▁bicicle": 2258,
      "▁conejos": 2259,
      "Enrique": 2260,
      "▁camis": 2261,
      "gles": 2262,
      "▁antes": 2263,
      "▁llegaron": 2264,
      "▁esp": 2265,
      "▁podría": 2266,
      "▁ning": 2267,
      "▁ningún": 2268,
      "Di": 2269,
      "▁contar": 2270,
      "▁compró": 2271,
      "▁hor": 2272,
      "otos": 2273,
      "tano": 2274,
      "▁esto": 2275,
      "▁olla": 2276,
      "oof": 2277,
      "▁at": 2278,
      "Nos": 2279,
      "ey": 2280,
      "Sandra": 2281,
      "▁oro": 2282,
      "▁pollito": 2283,
      "▁igles": 2284,
      "duras": 2285,
      "▁neg": 2286,
      "íz": 2287,
      "eó": 2288,
      "▁char": 2289,
      "▁mom": 2290,
      "íb": 2291,
      "íbora": 2292,
      "▁barri": 2293,
      "ckey": 2294,
      "Cómo": 2295,
      "▁rio": 2296,
      "▁Mia": 2297,
      "▁cocodrilo": 2298,
      "dida": 2299,
      "▁bonitos": 2300,
      "▁af": 2301,
      "▁juegos": 2302,
      "▁vec": 2303,
      "▁bicicleta": 2304,
      "▁toro": 2305,
      "▁mía": 2306,
      "est": 2307,
      "Dentro": 2308,
      "guila": 2309,
      "▁escondidas": 2310,
      "▁momento": 2311,
      "▁limpia": 2312,
      "▁plátano": 2313,
      "▁libros": 2314,
      "▁mordió": 2315,
      "▁sorpresa": 2316,
      "▁pescado": 2317,
      "dan": 2318,
      "▁botella": 2319,
      "rante": 2320,
      "▁esconderse": 2321,
      "▁pared": 2322,
      "▁pidió": 2323,
      "Soñó": 2324,
      "▁barriga": 2325,
      "▁gruñó": 2326,
      "erna": 2327,
      "▁fotos": 2328,
      "cara": 2329,
      "▁sil": 2330,
      "azules": 2331,
      "▁maíz": 2332,
      "inalmente": 2333,
      "▁cansada": 2334,
      "▁espa": 2335,
      "▁trabajo": 2336,
      "▁buscaron": 2337,
      "▁enojó": 2338,
      "▁cohe": 2339,
      "▁orejas": 2340,
      "▁monos": 2341,
      "Buenas": 2342,
      "▁nene": 2343,
      "▁duro": 2344,
      "Finalmente": 2345,
      "▁secre": 2346,
      "▁víbora": 2347,
      "ritas": 2348,
      "▁enseñó": 2349,
      "▁gori": 2350,
      "rida": 2351,
      "▁palabras": 2352,
      "▁pele": 2353,
      "▁águila": 2354,
      "▁vacas": 2355,
      "▁hero": 2356,
      "▁cansó": 2357,
      "▁rara": 2358,
      "▁encontre": 2359,
      "▁mueve": 2360,
      "▁favorita": 2361,
      "▁fresa": 2362,
      "▁blanca": 2363,
      "Na": 2364,
      "▁dibujar": 2365,
      "▁dedo": 2366,
      "orm": 2367,
      "▁uvas": 2368,
      "▁quieres": 2369,
      "Juega": 2370,
      "▁cohete": 2371,
      "Uno": 2372,
      "vol": 2373,
      "In": 2374,
      "▁mirar": 2375,
      "▁habla": 2376,
      "gunta": 2377,
      "▁proble": 2378,
      "▁reír": 2379,
      "▁ruidos": 2380,
      "▁doy": 2381,
      "▁verduras": 2382,
      "▁gusanos": 2383,
      "▁viejo": 2384,
      "ico": 2385,
      "dí": 2386,
      "Gato": 2387,
      "dio": 2388,
      "zos": 2389,
      "▁abuelo": 2390,
      "▁gui": 2391,
      "▁balan": 2392,
      "ere": 2393,
      "▁arma": 2394,
      "▁ras": 2395,
      "ono": 2396,
      "▁amor": 2397,
      "▁luces": 2398,
      "▁terminó": 2399,
      "▁confun": 2400,
      "▁balance": 2401,
      "▁armario": 2402,
      "▁hermosas": 2403,
      "ire": 2404,
      "▁mona": 2405,
      "▁bolas": 2406,
      "▁anda": 2407,
      "Pablo": 2408,
      "▁mejores": 2409,
      "▁gorila": 2410,
      "▁ú": 2411,
      "▁fo": 2412,
      "▁tran": 2413,
      "▁tonto": 2414,
      "▁bolsa": 2415,
      "guas": 2416,
      "▁salu": 2417,
      "▁preocupa": 2418,
      "guien": 2419,
      "▁soñaba": 2420,
      "úmero": 2421,
      "ales": 2422,
      "▁montar": 2423,
      "▁jab": 2424,
      "▁charco": 2425,
      "▁camb": 2426,
      "▁cesta": 2427,
      "▁hombrecito": 2428,
      "▁encontraron": 2429,
      "▁cua": 2430,
      "▁asusta": 2431,
      "▁cálido": 2432,
      "▁hacen": 2433,
      "▁maestro": 2434,
      "▁sed": 2435,
      "▁caramelos": 2436,
      "▁pies": 2437,
      "▁botas": 2438,
      "uimos": 2439,
      "▁cerrada": 2440,
      "▁frijo": 2441,
      "ícil": 2442,
      "Saltó": 2443,
      "▁difícil": 2444,
      "▁pesa": 2445,
      "▁número": 2446,
      "▁mostró": 2447,
      "▁coco": 2448,
      "▁aire": 2449,
      "▁ronroneó": 2450,
      "▁trompeta": 2451,
      "tengo": 2452,
      "Les": 2453,
      "zú": 2454,
      "▁ratones": 2455,
      "dón": 2456,
      "▁madera": 2457,
      "sta": 2458,
      "zúcar": 2459,
      "▁lámp": 2460,
      "▁jabón": 2461,
      "▁llorando": 2462,
      "Tomó": 2463,
      "▁salchicha": 2464,
      "▁encanta": 2465,
      "▁pico": 2466,
      "tera": 2467,
      "▁dónde": 2468,
      "▁cosqu": 2469,
      "▁escri": 2470,
      "pera": 2471,
      "▁cocin": 2472,
      "▁caminaron": 2473,
      "cán": 2474,
      "Aprendió": 2475,
      "▁lado": 2476,
      "orros": 2477,
      "▁lámpara": 2478,
      "▁suci": 2479,
      "▁tarta": 2480,
      "Ambos": 2481,
      "Lloró": 2482,
      "▁salvo": 2483,
      "▁medi": 2484,
      "▁lista": 2485,
      "▁secreto": 2486,
      "▁pintura": 2487,
      "▁pegó": 2488,
      "oh": 2489,
      "▁bandera": 2490,
      "▁graci": 2491,
      "Ayudar": 2492,
      "▁desapar": 2493,
      "▁enfer": 2494,
      "Toma": 2495,
      "▁cafe": 2496,
      "▁cajas": 2497,
      "▁gri": 2498,
      "▁perfecto": 2499,
      "ápi": 2500,
      "▁iglesia": 2501,
      "ju": 2502,
      "fre": 2503,
      "▁estoy": 2504,
      "▁volcán": 2505,
      "osos": 2506,
      "ácil": 2507,
      "▁tí": 2508,
      "▁fácil": 2509,
      "rones": 2510,
      "▁inse": 2511,
      "▁barro": 2512,
      "Ellas": 2513,
      "▁plantas": 2514,
      "▁regreso": 2515,
      "dras": 2516,
      "▁ala": 2517,
      "dir": 2518,
      "ne": 2519,
      "▁int": 2520,
      "▁lápi": 2521,
      "▁bailó": 2522,
      "▁amables": 2523,
      "▁san": 2524,
      "cuchó": 2525,
      "sol": 2526,
      "▁guitar": 2527,
      "Pip": 2528,
      "▁crecer": 2529,
      "▁sucia": 2530,
      "Mama": 2531,
      "▁lazo": 2532,
      "▁pierna": 2533,
      "ñera": 2534,
      "▁ayudo": 2535,
      "▁atrapado": 2536,
      "▁zapato": 2537,
      "▁quieren": 2538,
      "▁ladra": 2539,
      "omos": 2540,
      "▁llave": 2541,
      "▁bañera": 2542,
      "man": 2543,
      "▁cachorros": 2544,
      "ias": 2545,
      "▁cucha": 2546,
      "zas": 2547,
      "▁puer": 2548,
      "cuen": 2549,
      "▁piedras": 2550,
      "▁ge": 2551,
      "▁quitó": 2552,
      "razos": 2553,
      "▁tomates": 2554,
      "gato": 2555,
      "▁guitarra": 2556,
      "▁hones": 2557,
      "▁brazos": 2558,
      "▁pantalones": 2559,
      "▁pollos": 2560,
      "ex": 2561,
      "uelita": 2562,
      "▁elefantes": 2563,
      "▁vien": 2564,
      "▁lasti": 2565,
      "Ab": 2566,
      "▁hormigas": 2567,
      "▁campana": 2568,
      "▁muchacho": 2569,
      "▁paraguas": 2570,
      "▁cru": 2571,
      "▁gorro": 2572,
      "▁ad": 2573,
      "jito": 2574,
      "▁foto": 2575,
      "▁diente": 2576,
      "▁caí": 2577,
      "▁diam": 2578,
      "▁azúcar": 2579,
      "▁moto": 2580,
      "▁constru": 2581,
      "▁don": 2582,
      "▁moverse": 2583,
      "mer": 2584,
      "▁Oso": 2585,
      "▁rocas": 2586,
      "▁seas": 2587,
      "Woof": 2588,
      "▁lana": 2589,
      "▁palomas": 2590,
      "▁preci": 2591,
      "▁quieto": 2592,
      "▁aves": 2593,
      "▁alguien": 2594,
      "▁tocarlo": 2595,
      "▁cha": 2596,
      "▁durante": 2597,
      "▁ceb": 2598,
      "▁cuch": 2599,
      "\".\n": 2600,
      "▁pres": 2601,
      "creí": 2602,
      "▁vamos": 2603,
      "▁comía": 2604,
      "queta": 2605,
      "jón": 2606,
      "**": 2607,
      "▁casas": 2608,
      "eliz": 2609,
      "bur": 2610,
      "▁sirena": 2611,
      "room": 2612,
      "▁dorm": 2613,
      "ías": 2614,
      "▁telef": 2615,
      "▁cofre": 2616,
      "▁cami": 2617,
      "▁frijoles": 2618,
      "▁lavar": 2619,
      "▁men": 2620,
      "▁orgulloso": 2621,
      "burgues": 2622,
      "▁reales": 2623,
      "Encon": 2624,
      "▁goma": 2625,
      "vió": 2626,
      "▁condu": 2627,
      "▁mancha": 2628,
      "▁comiendo": 2629,
      "▁telefono": 2630,
      "▁cebol": 2631,
      "eloj": 2632,
      "▁aprendieron": 2633,
      "ruen": 2634,
      "ñar": 2635,
      "▁Sol": 2636,
      "Vete": 2637,
      "▁libre": 2638,
      "▁rica": 2639,
      "▁reloj": 2640,
      "▁cuchara": 2641,
      "▁insecto": 2642,
      "▁pasta": 2643,
      "▁ropa": 2644,
      "▁enferma": 2645,
      "▁sentaron": 2646,
      "▁gallinas": 2647,
      "▁camiones": 2648,
      "▁hamburgues": 2649,
      "deos": 2650,
      "eras": 2651,
      "▁descan": 2652,
      "▁tienen": 2653,
      "▁tabla": 2654,
      "▁payasos": 2655,
      "▁colori": 2656,
      "▁espon": 2657,
      "erman": 2658,
      "▁increí": 2659,
      "▁invi": 2660,
      "▁conejito": 2661,
      "▁ob": 2662,
      "▁nosotros": 2663,
      "rá": 2664,
      "▁chaqueta": 2665,
      "▁bailaron": 2666,
      "▁amarillas": 2667,
      "▁chup": 2668,
      "▁dare": 2669,
      "▁conchas": 2670,
      "▁alegría": 2671,
      "▁hoy": 2672,
      "▁marga": 2673,
      "?\n\n": 2674,
      "Nadie": 2675,
      "tien": 2676,
      "▁carne": 2677,
      "▁haces": 2678,
      "eció": 2679,
      "▁sería": 2680,
      "juega": 2681,
      "▁pedir": 2682,
      "Todo": 2683,
      "blo": 2684,
      "tero": 2685,
      "onada": 2686,
      "▁brilla": 2687,
      "▁chu": 2688,
      "amaril": 2689,
      "▁dibujó": 2690,
      "sí": 2691,
      "▁sorpren": 2692,
      "▁esa": 2693,
      "▁pito": 2694,
      "Pel": 2695,
      "▁ref": 2696,
      "▁volvieron": 2697,
      "iensa": 2698,
      "Lina": 2699,
      "▁llora": 2700,
      "▁travi": 2701,
      "▁hablaba": 2702,
      "▁diamante": 2703,
      "Beb": 2704,
      "▁fe": 2705,
      "▁ensa": 2706,
      "▁segura": 2707,
      "llamada": 2708,
      "▁máscara": 2709,
      "▁jus": 2710,
      "▁limonada": 2711,
      "▁reían": 2712,
      "▁fideos": 2713,
      "Wow": 2714,
      "Jugaba": 2715,
      "dado": 2716,
      "Pon": 2717,
      "▁piratas": 2718,
      "▁abuelita": 2719,
      "Voló": 2720,
      "lle": 2721,
      "▁sá": 2722,
      "▁ensalada": 2723,
      "▁donde": 2724,
      "▁comas": 2725,
      "▁sala": 2726,
      "▁estaría": 2727,
      "elicó": 2728,
      "elicóp": 2729,
      "▁televis": 2730,
      "Can": 2731,
      "lados": 2732,
      "▁incluso": 2733,
      "ástico": 2734,
      "Mami": 2735,
      "▁collar": 2736,
      "▁salieron": 2737,
      "▁casita": 2738,
      "▁hon": 2739,
      "▁salsa": 2740,
      "▁fritas": 2741,
      "▁tocino": 2742,
      "▁sobri": 2743,
      "amigo": 2744,
      "gri": 2745,
      "▁hermanito": 2746,
      "hay": 2747,
      "▁oyó": 2748,
      "▁ayudado": 2749,
      "▁sienta": 2750,
      "yeron": 2751,
      ".\n\"": 2752,
      "Algunos": 2753,
      "▁perdió": 2754,
      "▁prem": 2755,
      "Fueron": 2756,
      "Tiene": 2757,
      "▁encuen": 2758,
      "▁justo": 2759,
      "▁bra": 2760,
      "Necesito": 2761,
      "cita": 2762,
      "▁recogió": 2763,
      "▁cel": 2764,
      "▁lápiz": 2765,
      "▁abur": 2766,
      "▁cartas": 2767,
      "▁nombre": 2768,
      "▁aten": 2769,
      "▁pastor": 2770,
      "Mia": 2771,
      "Espera": 2772,
      "▁feo": 2773,
      "▁algunos": 2774,
      "dres": 2775,
      "▁darle": 2776,
      "▁cebolla": 2777,
      "Pare": 2778,
      "▁tela": 2779,
      "▁problema": 2780,
      "▁ag": 2781,
      "ible": 2782,
      "▁cosquillas": 2783,
      "▁pasteles": 2784,
      "▁vecina": 2785,
      "bar": 2786,
      "▁vieja": 2787,
      "▁cir": 2788,
      "▁calce": 2789,
      "▁arroz": 2790,
      "vir": 2791,
      "▁saltaron": 2792,
      "▁historias": 2793,
      "▁amigable": 2794,
      "cando": 2795,
      "▁circo": 2796,
      "▁helicóp": 2797,
      "▁montaña": 2798,
      "▁martillo": 2799,
      "▁monedas": 2800,
      ".\"\n": 2801,
      "▁nena": 2802,
      "▁orgullos": 2803,
      "▁cerdos": 2804,
      "▁cuidó": 2805,
      "▁extraña": 2806,
      "▁cen": 2807,
      "▁piensa": 2808,
      "Buscó": 2809,
      "▁dormía": 2810,
      "▁duer": 2811,
      "▁gra": 2812,
      "▁importa": 2813,
      "▁gorra": 2814,
      "▁monstruos": 2815,
      "Muchos": 2816,
      "▁pedazos": 2817,
      "▁elec": 2818,
      "▁van": 2819,
      "▁quedar": 2820,
      "▁lloraba": 2821,
      "▁vacía": 2822,
      "til": 2823,
      "▁trof": 2824,
      "▁prima": 2825,
      "▁entendió": 2826,
      "▁campo": 2827,
      "Nunca": 2828,
      "pregunta": 2829,
      "▁norma": 2830,
      "▁ganar": 2831,
      "Tar": 2832,
      "▁cajón": 2833,
      "▁truen": 2834,
      "▁vecino": 2835,
      "▁atún": 2836,
      "rido": 2837,
      "inaron": 2838,
      "▁diferente": 2839,
      "Mis": 2840,
      "quilo": 2841,
      "Miró": 2842,
      "Bat": 2843,
      "Batman": 2844,
      "▁dados": 2845,
      "▁clas": 2846,
      "▁N": 2847,
      "chila": 2848,
      "▁mochila": 2849,
      "Bo": 2850,
      "▁amó": 2851,
      "▁persona": 2852,
      "perman": 2853,
      "▁igu": 2854,
      "Tarz": 2855,
      "▁heroe": 2856,
      "▁lleva": 2857,
      "▁palomitas": 2858,
      "▁cuar": 2859,
      "▁platos": 2860,
      "▁trofeo": 2861,
      "Superman": 2862,
      "▁margarita": 2863,
      "▁imagina": 2864,
      "▁tirar": 2865,
      "Apren": 2866,
      "Juana": 2867,
      "Cui": 2868,
      "▁truco": 2869,
      "▁hermoso": 2870,
      "bó": 2871,
      "▁limpió": 2872,
      "▁rosas": 2873,
      "▁pescar": 2874,
      "unque": 2875,
      "▁rueda": 2876,
      "▁tenemos": 2877,
      "▁prof": 2878,
      "▁debil": 2879,
      "▁perra": 2880,
      "▁bota": 2881,
      "▁latas": 2882,
      "Baila": 2883,
      "▁cada": 2884,
      "fueron": 2885,
      "Comió": 2886,
      "▁Navi": 2887,
      "ira": 2888,
      "jugaban": 2889,
      "▁banco": 2890,
      "▁desay": 2891,
      "▁frutos": 2892,
      "▁alcanzarla": 2893,
      "▁miraron": 2894,
      "▁grises": 2895,
      "▁helados": 2896,
      "jugó": 2897,
      "▁alegre": 2898,
      "▁tibu": 2899,
      "escuchó": 2900,
      "▁encen": 2901,
      "▁lanza": 2902,
      "▁limón": 2903,
      "...": 2904,
      "botó": 2905,
      "▁barcos": 2906,
      "▁prepa": 2907,
      "▁ayudarlo": 2908,
      "▁meda": 2909,
      "Pup": 2910,
      "▁cae": 2911,
      "▁caminando": 2912,
      "▁asque": 2913,
      "▁gatitos": 2914,
      "Tarzán": 2915,
      "Pensó": 2916,
      "▁niñita": 2917,
      "▁llevaba": 2918,
      "▁unas": 2919,
      "amón": 2920,
      "tines": 2921,
      "amb": 2922,
      "▁rebotó": 2923,
      "▁recor": 2924,
      "mm": 2925,
      "▁mes": 2926,
      "▁lento": 2927,
      "iste": 2928,
      "▁necesitan": 2929,
      "▁bro": 2930,
      "▁ace": 2931,
      "▁gotas": 2932,
      "▁chicle": 2933,
      "▁caballos": 2934,
      "▁linter": 2935,
      "▁sig": 2936,
      "▁panque": 2937,
      "usa": 2938,
      "▁moscas": 2939,
      "Pe": 2940,
      "▁medalla": 2941,
      "▁sonrío": 2942,
      "pel": 2943,
      "Qu": 2944,
      "▁linterna": 2945,
      "▁salchichas": 2946,
      "▁ter": 2947,
      "▁anillos": 2948,
      "▁mapa": 2949,
      "▁calcetines": 2950,
      "▁amarillos": 2951,
      "▁corba": 2952,
      "▁pintar": 2953,
      "▁tres": 2954,
      "mar": 2955,
      "abul": 2956,
      "▁jamón": 2957,
      "▁cima": 2958,
      "▁viene": 2959,
      "vó": 2960,
      "▁mostra": 2961,
      "▁ocupa": 2962,
      "▁jau": 2963,
      "▁botellas": 2964,
      "tivo": 2965,
      "▁piscina": 2966,
      "tóma": 2967,
      "mentos": 2968,
      "▁cortó": 2969,
      "▁abre": 2970,
      "▁herido": 2971,
      "▁distin": 2972,
      "▁sonrieron": 2973,
      "▁zanahorias": 2974,
      "Debes": 2975,
      "ang": 2976,
      "▁orgullosa": 2977,
      "▁ayudan": 2978,
      "▁bichos": 2979,
      "▁calientes": 2980,
      "▁radio": 2981,
      "▁divier": 2982,
      "Allí": 2983,
      "▁abierta": 2984,
      "▁padres": 2985,
      "Bang": 2986,
      "▁cuarto": 2987,
      "▁patatas": 2988,
      "▁estóma": 2989,
      "▁prote": 2990,
      "▁romper": 2991,
      "Tamb": 2992,
      "tica": 2993,
      "▁contentos": 2994,
      "▁altos": 2995,
      "▁sale": 2996,
      "▁hici": 2997,
      "▁volvería": 2998,
      "▁atas": 2999,
      "▁tormen": 3000,
      "▁semilla": 3001,
      "▁estómago": 3002,
      "quilla": 3003,
      "Tambien": 3004,
      "▁respi": 3005,
      "▁dieron": 3006,
      "▁pij": 3007,
      "▁ballenas": 3008,
      "▁masc": 3009,
      "▁trueno": 3010,
      "Porque": 3011,
      "▁corbata": 3012,
      "▁cenar": 3013,
      "▁Navidad": 3014,
      "rte": 3015,
      "▁bols": 3016,
      "▁pesada": 3017,
      "▁dedos": 3018,
      "▁bara": 3019,
      "▁señaló": 3020,
      "▁camiseta": 3021,
      "▁travieso": 3022,
      "ha": 3023,
      "uesta": 3024,
      "▁pase": 3025,
      "▁asomb": 3026,
      "▁ellas": 3027,
      "▁correcto": 3028,
      "riendo": 3029,
      "▁cub": 3030,
      "▁tapa": 3031,
      "lti": 3032,
      "▁mante": 3033,
      "▁jaula": 3034,
      "vado": 3035,
      "▁mantequilla": 3036,
      "▁pavos": 3037,
      "guir": 3038,
      "má": 3039,
      "encon": 3040,
      "Ayuda": 3041,
      "▁fabul": 3042,
      "▁ratas": 3043,
      "▁hogar": 3044,
      "ciente": 3045,
      "▁visita": 3046,
      "Gritó": 3047,
      "▁últi": 3048,
      "▁lodo": 3049,
      "▁escondite": 3050,
      "Con": 3051,
      "▁cortar": 3052,
      "▁debemos": 3053,
      "▁bolsillo": 3054,
      "▁mago": 3055,
      "▁altas": 3056,
      "▁guardar": 3057,
      "▁mojada": 3058,
      "Come": 3059,
      "Esto": 3060,
      "▁descans": 3061,
      "deb": 3062,
      "fica": 3063,
      "▁coca": 3064,
      "▁equi": 3065,
      "rosa": 3066,
      "jita": 3067,
      "Feliz": 3068,
      "▁Teddy": 3069,
      "▁balanceó": 3070,
      "▁pino": 3071,
      "tener": 3072,
      "tí": 3073,
      "Jugaban": 3074,
      "▁simp": 3075,
      "▁hambri": 3076,
      "▁crema": 3077,
      "▁bata": 3078,
      "▁palos": 3079,
      "▁coger": 3080,
      "▁ale": 3081,
      "Parecía": 3082,
      "▁apagó": 3083,
      "▁hadas": 3084,
      "▁cuader": 3085,
      "▁hielo": 3086,
      "▁arreglarlo": 3087,
      "▁depor": 3088,
      "eri": 3089,
      "▁deliciosas": 3090,
      "▁barba": 3091,
      "▁gracioso": 3092,
      "▁dolor": 3093,
      "▁ganó": 3094,
      "▁parte": 3095,
      "▁cuaderno": 3096,
      "cal": 3097,
      "▁jira": 3098,
      "▁hermanita": 3099,
      "nte": 3100,
      "▁tenis": 3101,
      "gracias": 3102,
      "▁deja": 3103,
      "▁sill": 3104,
      "▁hijos": 3105,
      "dónde": 3106,
      "▁jaló": 3107,
      "▁gar": 3108,
      "▁lavó": 3109,
      "▁cartera": 3110,
      "▁recoger": 3111,
      "▁ru": 3112,
      "▁afila": 3113,
      "▁\n\"¿": 3114,
      "Estos": 3115,
      "solo": 3116,
      "▁sillón": 3117,
      "ernas": 3118,
      "▁estará": 3119,
      "▁pesado": 3120,
      "▁gigantes": 3121,
      "gia": 3122,
      "▁bloque": 3123,
      "▁semillas": 3124,
      "▁fuegos": 3125,
      "▁fea": 3126,
      "▁empujar": 3127,
      "▁toca": 3128,
      "▁fantasmas": 3129,
      "idad": 3130,
      "▁vasos": 3131,
      "▁confundido": 3132,
      "▁lobos": 3133,
      "▁gancho": 3134,
      "guieron": 3135,
      "Quiere": 3136,
      "▁cír": 3137,
      "▁increíble": 3138,
      "Así": 3139,
      "▁esconde": 3140,
      "▁buscando": 3141,
      "Mimi": 3142,
      "▁buscarla": 3143,
      "rav": 3144,
      "ital": 3145,
      "▁primer": 3146,
      "▁Jesús": 3147,
      "▁tigres": 3148,
      "▁parecía": 3149,
      "▁cuentos": 3150,
      "estoy": 3151,
      "▁venía": 3152,
      "▁normal": 3153,
      "▁alegra": 3154,
      "▁descansar": 3155,
      "▁encantado": 3156,
      "▁premio": 3157,
      "tú": 3158,
      "▁esca": 3159,
      "ecen": 3160,
      "Incluso": 3161,
      "Toc": 3162,
      "▁sufi": 3163,
      "▁marav": 3164,
      "▁piano": 3165,
      "ería": 3166,
      "Dej": 3167,
      "▁comerla": 3168,
      "▁verlo": 3169,
      "▁dormida": 3170,
      "▁panqueques": 3171,
      "▁mol": 3172,
      "▁piernas": 3173,
      "▁dora": 3174,
      "ervi": 3175,
      "▁nervi": 3176,
      "▁espera": 3177,
      "▁Mickey": 3178,
      "gado": 3179,
      "erno": 3180,
      "respondió": 3181,
      "▁negra": 3182,
      "▁ali": 3183,
      "▁tazón": 3184,
      "▁sientes": 3185,
      "garon": 3186,
      "▁carre": 3187,
      "nifica": 3188,
      "▁loco": 3189,
      "▁magia": 3190,
      "▁escrib": 3191,
      "▁lindas": 3192,
      "▁emocionado": 3193,
      "Emp": 3194,
      "pezó": 3195,
      "▁escaleras": 3196,
      "▁adul": 3197,
      "▁fuerza": 3198,
      "▁olor": 3199,
      "lueve": 3200,
      "▁nina": 3201,
      "▁nietos": 3202,
      "▁vuela": 3203,
      "sub": 3204,
      "▁chicas": 3205,
      "▁quemó": 3206,
      "▁panza": 3207,
      "▁señal": 3208,
      "uesto": 3209,
      "▁corrían": 3210,
      "▁compartes": 3211,
      "▁devol": 3212,
      "bol": 3213,
      "cido": 3214,
      "▁campanas": 3215,
      "guau": 3216,
      "▁caca": 3217,
      "▁oír": 3218,
      "▁alambre": 3219,
      "íra": 3220,
      "▁equiv": 3221,
      "sal": 3222,
      "▁nin": 3223,
      "▁nuestro": 3224,
      "▁secó": 3225,
      "▁hijas": 3226,
      "▁pañ": 3227,
      "▁pozo": 3228,
      "pas": 3229,
      "▁bocad": 3230,
      "▁animal": 3231,
      "▁tranquilo": 3232,
      "Puso": 3233,
      "▁conoc": 3234,
      "▁levantarse": 3235,
      "josa": 3236,
      "Quien": 3237,
      "▁ningun": 3238,
      "?\".\n\n": 3239,
      "▁tambores": 3240,
      "▁mariposas": 3241,
      "▁fu": 3242,
      "Gus": 3243,
      "ridad": 3244,
      "▁imaginación": 3245,
      "Míra": 3246,
      "▁pancita": 3247,
      "▁sea": 3248,
      "Sab": 3249,
      "Tus": 3250,
      "▁empuja": 3251,
      "Ol": 3252,
      "▁refres": 3253,
      "▁cantaron": 3254,
      "▁cuidaba": 3255,
      "▁qu": 3256,
      "▁hermanas": 3257,
      "▁serpientes": 3258,
      "\".\n\n\"": 3259,
      "▁len": 3260,
      "▁jugara": 3261,
      "▁marco": 3262,
      "▁abrazar": 3263,
      "▁baja": 3264,
      "pacio": 3265,
      "▁números": 3266,
      "▁intelig": 3267,
      "▁llaves": 3268,
      "▁españ": 3269,
      "zaron": 3270,
      "▁tos": 3271,
      "quier": 3272,
      "▁gota": 3273,
      "▁arañas": 3274,
      "▁ricas": 3275,
      "lad": 3276,
      "▁chispa": 3277,
      "▁siguieron": 3278,
      "▁Pedro": 3279,
      "rero": 3280,
      "▁cantaban": 3281,
      "▁encantaban": 3282,
      "▁creció": 3283,
      "▁comparti": 3284,
      "▁apla": 3285,
      "▁gas": 3286,
      "▁honesto": 3287,
      "▁Sue": 3288,
      "rano": 3289,
      "▁nuestros": 3290,
      "jeras": 3291,
      "▁quema": 3292,
      "▁quitar": 3293,
      "bado": 3294,
      "▁robot": 3295,
      "▁tropezó": 3296,
      "▁horri": 3297,
      "Za": 3298,
      "▁brazo": 3299,
      "espe": 3300,
      "▁primo": 3301,
      "▁diferentes": 3302,
      "▁divertir": 3303,
      "▁ún": 3304,
      "▁coloridas": 3305,
      "▁oscuridad": 3306,
      "▁rayo": 3307,
      "ientras": 3308,
      "melos": 3309,
      "▁chupar": 3310,
      "Vieron": 3311,
      "Alto": 3312,
      "Caminaron": 3313,
      "▁negras": 3314,
      "▁tocarla": 3315,
      "▁cier": 3316,
      "tienes": 3317,
      "▁olió": 3318,
      "▁atraparlo": 3319,
      "▁sucias": 3320,
      "porque": 3321,
      "vroom": 3322,
      "▁tijeras": 3323,
      "▁patear": 3324,
      "yendo": 3325,
      "▁canto": 3326,
      "Pum": 3327,
      "▁dura": 3328,
      "Subió": 3329,
      "▁homb": 3330,
      "▁bebida": 3331,
      "Buscaron": 3332,
      "▁hijo": 3333,
      "▁despacio": 3334,
      "ello": 3335,
      "▁pero": 3336,
      "!\n\n\"¿": 3337,
      "ólo": 3338,
      "Corría": 3339,
      "▁trucos": 3340,
      "▁hu": 3341,
      "▁segun": 3342,
      "Tra": 3343,
      "traron": 3344,
      "▁caso": 3345,
      "▁hamburguesas": 3346,
      "▁hermanos": 3347,
      "Mickey": 3348,
      "▁cruz": 3349,
      "▁feas": 3350,
      "tri": 3351,
      "▁trenes": 3352,
      "?\"\n\n\"": 3353,
      "▁brilló": 3354,
      "Au": 3355,
      "▁veo": 3356,
      "hi": 3357,
      "▁cocinando": 3358,
      "▁bailando": 3359,
      "▁palma": 3360,
      "▁alm": 3361,
      "▁abrazaron": 3362,
      "Estas": 3363,
      "▁habían": 3364,
      "jes": 3365,
      "pito": 3366,
      "▁falda": 3367,
      "▁raras": 3368,
      "▁muchachos": 3369,
      "▁estuvo": 3370,
      "lores": 3371,
      "cel": 3372,
      "▁abuelos": 3373,
      "tuvo": 3374,
      "▁significa": 3375,
      "▁algodón": 3376,
      "▁rápida": 3377,
      "▁horno": 3378,
      "Querían": 3379,
      "▁deliciosos": 3380,
      "Éra": 3381,
      "▁asustaron": 3382,
      "tbol": 3383,
      "▁desli": 3384,
      "▁jirafa": 3385,
      "quieres": 3386,
      "▁famoso": 3387,
      "rioso": 3388,
      "ume": 3389,
      "▁deberes": 3390,
      "▁electri": 3391,
      "▁fant": 3392,
      "ale": 3393,
      "▁olas": 3394,
      "▁desapareció": 3395,
      "útbol": 3396,
      "▁letre": 3397,
      "▁perfume": 3398,
      "ciar": 3399,
      "cada": 3400,
      "tanas": 3401,
      "▁nuez": 3402,
      "▁rodando": 3403,
      "Mmm": 3404,
      "▁hambriento": 3405,
      "▁chicos": 3406,
      "dije": 3407,
      "▁suerte": 3408,
      "▁ventanas": 3409,
      "▁pijama": 3410,
      "▁hijita": 3411,
      "Va": 3412,
      "Érase": 3413,
      "▁encuentra": 3414,
      "▁fútbol": 3415,
      "▁basurero": 3416,
      "Bum": 3417,
      "▁parecen": 3418,
      "itar": 3419,
      "▁largas": 3420,
      "sintió": 3421,
      "▁hormiga": 3422,
      "▁tías": 3423,
      "jugaron": 3424,
      "▁brujas": 3425,
      "▁zoo": 3426,
      "ritos": 3427,
      "▁así": 3428,
      "▁hondo": 3429,
      "timi": 3430,
      "▁pista": 3431,
      "▁B": 3432,
      "▁alcanzarlo": 3433,
      "ierto": 3434,
      "▁siesta": 3435,
      "▁temb": 3436,
      "Vimos": 3437,
      "▁zanahoria": 3438,
      "▁alum": 3439,
      "▁prime": 3440,
      "Perdí": 3441,
      "Bebe": 3442,
      "▁plástico": 3443,
      "▁broma": 3444,
      "Zaz": 3445,
      "▁andar": 3446,
      "▁duerme": 3447,
      "Salió": 3448,
      "uerzo": 3449,
      "▁trae": 3450,
      "!\"\n\n\"": 3451,
      "▁columpios": 3452,
      "▁red": 3453,
      "▁mist": 3454,
      "▁refresco": 3455,
      "▁inteligente": 3456,
      "▁lados": 3457,
      "▁ayudaron": 3458,
      "▁exp": 3459,
      "▁sean": 3460,
      "▁desayuno": 3461,
      "▁letrero": 3462,
      "Pelota": 3463,
      "▁almuerzo": 3464,
      "debes": 3465,
      "▁queremos": 3466,
      "Cre": 3467,
      "▁profundo": 3468,
      "Muy": 3469,
      "Ja": 3470,
      "Ca": 3471,
      "Muchas": 3472,
      "▁primos": 3473,
      "estás": 3474,
      "▁trozo": 3475,
      "▁amigui": 3476,
      "▁tigre": 3477,
      "▁visitante": 3478,
      "▁falso": 3479,
      "▁cantando": 3480,
      "▁coron": 3481,
      "▁cla": 3482,
      "▁esperaba": 3483,
      "cogió": 3484,
      "▁realidad": 3485,
      "Bien": 3486,
      "▁enam": 3487,
      "arriba": 3488,
      "▁construyó": 3489,
      "▁rí": 3490,
      "▁tablas": 3491,
      "▁fl": 3492,
      "▁seguir": 3493,
      "▁ninguna": 3494,
      "Dios": 3495,
      "Mañana": 3496,
      "▁enfada": 3497,
      "▁helicóptero": 3498,
      "ez": 3499,
      "llegó": 3500,
      "▁paró": 3501,
      "▁ajo": 3502,
      "▁tanto": 3503,
      "Hab": 3504,
      "▁importantes": 3505,
      "dícu": 3506,
      "hada": 3507,
      "▁puerco": 3508,
      "▁pintó": 3509,
      "▁bolsas": 3510,
      "cla": 3511,
      "▁compra": 3512,
      "Des": 3513,
      "Otro": 3514,
      "▁inven": 3515,
      "joso": 3516,
      "▁ridícu": 3517,
      "▁corona": 3518,
      "▁ángeles": 3519,
      "▁desde": 3520,
      "▁arregló": 3521,
      "▁espal": 3522,
      "▁correa": 3523,
      "▁marrones": 3524,
      "▁venir": 3525,
      "▁nuestra": 3526,
      "▁acerca": 3527,
      "▁cuna": 3528,
      "▁trató": 3529,
      "▁televisor": 3530,
      "Corre": 3531,
      "▁pensar": 3532,
      "▁disfru": 3533,
      "grita": 3534,
      "cam": 3535,
      "▁papás": 3536,
      "▁Sara": 3537,
      "iertos": 3538,
      "▁espalda": 3539,
      "orme": 3540,
      "▁sonidos": 3541,
      "▁vestidos": 3542,
      "Todas": 3543,
      "▁camisas": 3544,
      "▁padre": 3545,
      "▁daba": 3546,
      "Haz": 3547,
      "tinas": 3548,
      "▁sillas": 3549,
      "▁ambos": 3550,
      "▁vac": 3551,
      "▁emocionada": 3552,
      "lop": 3553,
      "tido": 3554,
      "Cu": 3555,
      "Algunas": 3556,
      "▁ducha": 3557,
      "▁decidió": 3558,
      "▁granjero": 3559,
      "▁películas": 3560,
      "▁cuchillo": 3561,
      "▁humo": 3562,
      "▁simpá": 3563,
      "▁colina": 3564,
      "rían": 3565,
      "▁loc": 3566,
      "▁asustar": 3567,
      "▁posi": 3568,
      "Llo": 3569,
      "▁medicina": 3570,
      "▁fren": 3571,
      "ladró": 3572,
      "▁imaginó": 3573,
      "▁fuimos": 3574,
      "▁iban": 3575,
      "▁tormenta": 3576,
      "▁preocupada": 3577,
      "▁escucha": 3578,
      "▁misteri": 3579,
      "▁poc": 3580,
      "ite": 3581,
      "▁aplau": 3582,
      "rimero": 3583,
      "▁cere": 3584,
      "▁papa": 3585,
      "imos": 3586,
      "Cuidado": 3587,
      "▁unos": 3588,
      "▁enorme": 3589,
      "dito": 3590,
      "talo": 3591,
      "abo": 3592,
      "▁pena": 3593,
      "cioso": 3594,
      "▁sobrino": 3595,
      "melo": 3596,
      "Sabes": 3597,
      "▁sinti": 3598,
      "yor": 3599,
      "▁condujo": 3600,
      "▁chupe": 3601,
      "▁caro": 3602,
      "▁mayor": 3603,
      "▁igual": 3604,
      "▁escondida": 3605,
      "▁lavabo": 3606,
      "▁andaba": 3607,
      "▁proteger": 3608,
      "▁suyo": 3609,
      "▁pelear": 3610,
      "Están": 3611,
      "▁pican": 3612,
      "Vuel": 3613,
      "▁dolió": 3614,
      "uma": 3615,
      "▁lindos": 3616,
      "▁enamora": 3617,
      "▁clase": 3618,
      "▁saluda": 3619,
      "▁escondieron": 3620,
      "▁pueblo": 3621,
      "▁sonriendo": 3622,
      "▁frente": 3623,
      "▁invis": 3624,
      "▁moneda": 3625,
      "▁usaba": 3626,
      "Pod": 3627,
      "▁comido": 3628,
      "ticas": 3629,
      "tres": 3630,
      "▁deben": 3631,
      "▁sabor": 3632,
      "▁tíos": 3633,
      "▁ositos": 3634,
      "▁almo": 3635,
      "▁chiste": 3636,
      "▁amiguito": 3637,
      "▁cortinas": 3638,
      "▁trepar": 3639,
      "ser": 3640,
      "▁cambiar": 3641,
      "undos": 3642,
      "▁moles": 3643,
      "▁acuesta": 3644,
      "▁sos": 3645,
      "▁marca": 3646,
      "▁somos": 3647,
      "▁divertirse": 3648,
      "my": 3649,
      "▁aga": 3650,
      "tante": 3651,
      "▁columpió": 3652,
      "▁pegar": 3653,
      "Necesita": 3654,
      "Primero": 3655,
      "▁espuma": 3656,
      "ge": 3657,
      "eran": 3658,
      "▁caído": 3659,
      "Rex": 3660,
      "▁lentes": 3661,
      "▁fiel": 3662,
      "▁gemelos": 3663,
      "▁do": 3664,
      "culo": 3665,
      "▁tramp": 3666,
      "Hicieron": 3667,
      "Ro": 3668,
      "▁calu": 3669,
      "▁dado": 3670,
      "▁arras": 3671,
      "dadoso": 3672,
      "▁escribir": 3673,
      "enzó": 3674,
      "▁cuidadoso": 3675,
      "▁pelea": 3676,
      "▁acariciar": 3677,
      "quen": 3678,
      "▁termin": 3679,
      "▁respe": 3680,
      "▁mando": 3681,
      "▁tenido": 3682,
      "▁caluroso": 3683,
      "▁salva": 3684,
      "Sub": 3685,
      "▁vacío": 3686,
      "cuando": 3687,
      "▁timbre": 3688,
      "▁seco": 3689,
      "decía": 3690,
      "▁soltó": 3691,
      "Necesitas": 3692,
      "▁plata": 3693,
      "▁ojo": 3694,
      "Somos": 3695,
      "toc": 3696,
      "▁hacerlo": 3697,
      "▁agarrar": 3698,
      "así": 3699,
      "gua": 3700,
      "▁anti": 3701,
      "▁sucios": 3702,
      "UM": 3703,
      "rina": 3704,
      "Ni": 3705,
      "▁cansados": 3706,
      "▁misma": 3707,
      "rac": 3708,
      "▁primera": 3709,
      "tiva": 3710,
      "Papi": 3711,
      "▁tend": 3712,
      "Santa": 3713,
      "jando": 3714,
      "▁fro": 3715,
      "▁lig": 3716,
      "▁despierta": 3717,
      "▁necesitas": 3718,
      "bus": 3719,
      "▁aceite": 3720,
      "inario": 3721,
      "▁vemos": 3722,
      "▁agachó": 3723,
      "Pas": 3724,
      "daba": 3725,
      "▁nervioso": 3726,
      "▁subirse": 3727,
      "Jugamos": 3728,
      "▁puertas": 3729,
      "▁buscaba": 3730,
      "▁suel": 3731,
      "inos": 3732,
      "▁bocadillo": 3733,
      "▁lastimó": 3734,
      "Dejame": 3735,
      "▁pasear": 3736,
      "ómi": 3737,
      "▁Superman": 3738,
      "▁lín": 3739,
      "▁estup": 3740,
      "▁espacio": 3741,
      "▁mimi": 3742,
      "▁María": 3743,
      "▁mami": 3744,
      "▁cuchillos": 3745,
      "▁mágicas": 3746,
      "▁quien": 3747,
      "▁chupete": 3748,
      "zz": 3749,
      "▁sube": 3750,
      "duc": 3751,
      "▁carta": 3752,
      "sión": 3753,
      "▁flota": 3754,
      "▁levantar": 3755,
      "▁mojó": 3756,
      "▁irnos": 3757,
      "banas": 3758,
      "uerdo": 3759,
      ".\"\n\n\"": 3760,
      "▁via": 3761,
      "Uste": 3762,
      "▁escucharon": 3763,
      "▁emocionó": 3764,
      "▁conduc": 3765,
      "▁desapare": 3766,
      "Zu": 3767,
      "xima": 3768,
      "▁demasia": 3769,
      "▁sábanas": 3770,
      "▁almohada": 3771,
      "▁excel": 3772,
      "ejo": 3773,
      "▁mundos": 3774,
      "▁hija": 3775,
      "▁será": 3776,
      "▁tocaba": 3777,
      "date": 3778,
      "▁gua": 3779,
      "erme": 3780,
      "▁golos": 3781,
      "▁enci": 3782,
      "▁dragones": 3783,
      "▁trabajar": 3784,
      "▁monte": 3785,
      "▁limpias": 3786,
      "▁peligrosas": 3787,
      "▁vivir": 3788,
      "omin": 3789,
      "▁mágicos": 3790,
      "Buenos": 3791,
      "▁adulto": 3792,
      "▁colm": 3793,
      "uncion": 3794,
      "▁cocinar": 3795,
      "▁pac": 3796,
      "▁columpiar": 3797,
      "▁fruto": 3798,
      "▁arreglado": 3799,
      "lejos": 3800,
      "ficial": 3801,
      "subió": 3802,
      "zado": 3803,
      "cta": 3804,
      "comenzó": 3805,
      "▁escondido": 3806,
      "Ustedes": 3807,
      "este": 3808,
      "▁masti": 3809,
      "▁aprende": 3810,
      "▁prop": 3811,
      "▁suficiente": 3812,
      "▁encima": 3813,
      "!\n\n¡": 3814,
      "▁diversión": 3815,
      "doso": 3816,
      "▁usa": 3817,
      "uerda": 3818,
      "▁devolvió": 3819,
      "▁vida": 3820,
      "div": 3821,
      "▁nuestras": 3822,
      "▁domin": 3823,
      "▁golpear": 3824,
      "estas": 3825,
      "cul": 3826,
      "▁pensaba": 3827,
      "▁instru": 3828,
      "Gol": 3829,
      "▁fila": 3830,
      "▁pró": 3831,
      "alquier": 3832,
      "▁aprendido": 3833,
      "ese": 3834,
      "▁besos": 3835,
      "▁echó": 3836,
      "▁tiburones": 3837,
      "▁invisible": 3838,
      "▁llevarlo": 3839,
      "▁sorprendido": 3840,
      "etas": 3841,
      "Mex": 3842,
      "cón": 3843,
      "▁perdo": 3844,
      "Mexico": 3845,
      "▁visitar": 3846,
      "▁círculo": 3847,
      "▁miga": 3848,
      "▁afilados": 3849,
      "▁ruidoso": 3850,
      "▁conse": 3851,
      "▁persi": 3852,
      "▁lame": 3853,
      "▁cafes": 3854,
      "▁escribió": 3855,
      "▁bailaba": 3856,
      "ieran": 3857,
      "▁viejas": 3858,
      "amas": 3859,
      "▁saber": 3860,
      "ensa": 3861,
      "▁tal": 3862,
      "▁fabuloso": 3863,
      "▁español": 3864,
      "▁montañas": 3865,
      "ísi": 3866,
      "uelo": 3867,
      "▁llenó": 3868,
      "▁quedaron": 3869,
      "▁entre": 3870,
      "idas": 3871,
      "▁espejos": 3872,
      "▁morder": 3873,
      "▁horrible": 3874,
      "temá": 3875,
      "▁podero": 3876,
      "▁pál": 3877,
      "▁mujeres": 3878,
      "▁muer": 3879,
      "▁alumno": 3880,
      "▁redondo": 3881,
      "▁tare": 3882,
      "Vuela": 3883,
      "▁vive": 3884,
      "▁siendo": 3885,
      "▁Pip": 3886,
      "Debemos": 3887,
      "▁frotó": 3888,
      "▁tonta": 3889,
      "▁peligrosos": 3890,
      "▁tira": 3891,
      "▁bas": 3892,
      "▁dicen": 3893,
      "▁atascado": 3894,
      "▁sentirse": 3895,
      "▁funcion": 3896,
      "▁ayudaba": 3897,
      "▁cualquier": 3898,
      "▁pensando": 3899,
      "▁ramas": 3900,
      "temáticas": 3901,
      "▁Tim": 3902,
      "▁peligrosa": 3903,
      "Puede": 3904,
      "Comieron": 3905,
      "oces": 3906,
      "▁sano": 3907,
      "▁sintiera": 3908,
      "▁verla": 3909,
      "▁asom": 3910,
      "▁sentada": 3911,
      "▁confundida": 3912,
      "Uy": 3913,
      "▁aburrido": 3914,
      "▁debería": 3915,
      "tones": 3916,
      "▁útil": 3917,
      "uele": 3918,
      "excla": 3919,
      "▁ensu": 3920,
      "▁arti": 3921,
      "quita": 3922,
      "▁malvado": 3923,
      "▁probar": 3924,
      "▁asomó": 3925,
      "▁agrada": 3926,
      "osp": 3927,
      "Llueve": 3928,
      "▁subieron": 3929,
      "ospital": 3930,
      "▁interes": 3931,
      "Papito": 3932,
      "▁hospital": 3933,
      "▁trepó": 3934,
      "▁prac": 3935,
      "▁dese": 3936,
      "tedes": 3937,
      "querida": 3938,
      "▁cari": 3939,
      "▁libres": 3940,
      "▁pun": 3941,
      "▁atrapada": 3942,
      "rr": 3943,
      "vera": 3944,
      "▁matemáticas": 3945,
      "▁línea": 3946,
      "Po": 3947,
      "▁soñ": 3948,
      "▁natura": 3949,
      "▁cálida": 3950,
      "edor": 3951,
      "▁atención": 3952,
      "▁sentarse": 3953,
      "gote": 3954,
      "▁super": 3955,
      "Dá": 3956,
      "melas": 3957,
      "▁tuyo": 3958,
      "▁volviera": 3959,
      "▁callado": 3960,
      "exclamó": 3961,
      "▁rugió": 3962,
      "▁probó": 3963,
      "▁bigote": 3964,
      "▁conductor": 3965,
      "▁celeb": 3966,
      "▁lenta": 3967,
      "▁comerlas": 3968,
      "▁rápidos": 3969,
      "▁pollitos": 3970,
      "▁acor": 3971,
      "ocado": 3972,
      "▁colmena": 3973,
      "▁enseñar": 3974,
      "▁seca": 3975,
      "Cada": 3976,
      "soy": 3977,
      "udo": 3978,
      "▁picante": 3979,
      "▁haría": 3980,
      "viendo": 3981,
      "quila": 3982,
      "niño": 3983,
      "▁compartimos": 3984,
      "▁sonó": 3985,
      "▁segundo": 3986,
      "▁luchó": 3987,
      "▁nadando": 3988,
      "▁alegro": 3989,
      "▁mue": 3990,
      "vimos": 3991,
      "siempre": 3992,
      "▁acuerdo": 3993,
      "▁preocupado": 3994,
      "▁fresco": 3995,
      "▁Ted": 3996,
      "▁chistes": 3997,
      "▁silen": 3998,
      "▁fer": 3999,
      "▁\n¡": 4000,
      "▁volaron": 4001,
      "mento": 4002,
      "▁encendió": 4003,
      "verdad": 4004,
      "moto": 4005,
      "rilla": 4006,
      "▁raspó": 4007,
      "Niño": 4008,
      "cómo": 4009,
      "▁fras": 4010,
      "▁pobre": 4011,
      "▁feria": 4012,
      "vios": 4013,
      "▁ayudas": 4014,
      "▁garras": 4015,
      "Aprendieron": 4016,
      "▁fueran": 4017,
      "▁resba": 4018,
      "▁perfecta": 4019,
      "pón": 4020,
      "▁ustedes": 4021,
      "▁sobrina": 4022,
      "▁mama": 4023,
      "Ar": 4024,
      "pelotas": 4025,
      "▁trabaja": 4026,
      "gio": 4027,
      "zás": 4028,
      "gritaron": 4029,
      "▁terre": 4030,
      "guió": 4031,
      "▁baile": 4032,
      "▁frasco": 4033,
      "Sa": 4034,
      "▁movieron": 4035,
      "▁novios": 4036,
      "▁cuel": 4037,
      "cip": 4038,
      "▁gros": 4039,
      "▁saca": 4040,
      "▁voces": 4041,
      "▁convir": 4042,
      "▁vecinos": 4043,
      "Bueno": 4044,
      "▁tantos": 4045,
      "▁asqueroso": 4046,
      "▁ladrar": 4047,
      "▁pantalón": 4048,
      "▁años": 4049,
      "Perro": 4050,
      "▁ago": 4051,
      "▁Gato": 4052,
      "▁cabello": 4053,
      "▁posó": 4054,
      "orpresa": 4055,
      "▁esperando": 4056,
      "teros": 4057,
      "xi": 4058,
      "▁compartió": 4059,
      "bloques": 4060,
      "▁apre": 4061,
      "amente": 4062,
      "Boom": 4063,
      "rig": 4064,
      "▁esponjosa": 4065,
      "▁cubiertos": 4066,
      "▁mascota": 4067,
      "▁contra": 4068,
      "▁sabían": 4069,
      "unes": 4070,
      "▁tími": 4071,
      "▁disfra": 4072,
      "▁cole": 4073,
      "▁respiró": 4074,
      "▁deseo": 4075,
      "▁decirle": 4076,
      "Fin": 4077,
      "▁invitó": 4078,
      "▁televisión": 4079,
      "Para": 4080,
      "ceta": 4081,
      "Inten": 4082,
      "▁gana": 4083,
      "▁olvidar": 4084,
      "▁venda": 4085,
      "aban": 4086,
      "▁flo": 4087,
      "▁suya": 4088,
      "▁hablan": 4089,
      "usto": 4090,
      "▁viaje": 4091,
      "▁instrumentos": 4092,
      "ciendo": 4093,
      "▁alimentos": 4094,
      "Pepe": 4095,
      "▁calmó": 4096,
      "▁ganas": 4097,
      "▁Tarzán": 4098,
      "▁golosinas": 4099,
      "▁medico": 4100,
      "pí": 4101,
      "cera": 4102,
      "▁mora": 4103,
      "▁banana": 4104,
      "▁grita": 4105,
      "▁tarea": 4106,
      "▁leones": 4107,
      "▁postre": 4108,
      "bas": 4109,
      "▁cuidaría": 4110,
      "!\".\n": 4111,
      "ncip": 4112,
      "▁ele": 4113,
      "▁Batman": 4114,
      "▁huele": 4115,
      "tando": 4116,
      "▁nació": 4117,
      "Tan": 4118,
      "▁princip": 4119,
      "Pobre": 4120,
      "Maria": 4121,
      "▁for": 4122,
      "licó": 4123,
      "Comp": 4124,
      "▁volverá": 4125,
      "amarillas": 4126,
      "▁balcón": 4127,
      "▁calen": 4128,
      "▁migajas": 4129,
      "▁papito": 4130,
      "▁terremoto": 4131,
      "▁famos": 4132,
      "taban": 4133,
      "▁cuello": 4134,
      "hu": 4135,
      "Vas": 4136,
      "▁cuidare": 4137,
      "▁tiburón": 4138,
      "Creo": 4139,
      "▁serio": 4140,
      "▁sacu": 4141,
      "▁guay": 4142,
      "vuel": 4143,
      "▁quieta": 4144,
      "▁compartieron": 4145,
      "▁cayeron": 4146,
      "▁mesas": 4147,
      "Duer": 4148,
      "▁comidas": 4149,
      ".\n\"¡": 4150,
      "▁rub": 4151,
      "▁colegio": 4152,
      "gran": 4153,
      "▁veter": 4154,
      "▁maestros": 4155,
      "▁Lola": 4156,
      "Gan": 4157,
      "aunque": 4158,
      "▁grandi": 4159,
      "▁forma": 4160,
      "Lleva": 4161,
      "▁gracias": 4162,
      "▁falsa": 4163,
      "tanos": 4164,
      "▁raros": 4165,
      "▁apagar": 4166,
      "▁quedarse": 4167,
      "▁ocupada": 4168,
      "▁agradable": 4169,
      "illoso": 4170,
      "▁raspón": 4171,
      "▁uñas": 4172,
      "▁pregun": 4173,
      "▁simple": 4174,
      "▁veterinario": 4175,
      "▁vom": 4176,
      "▁Mexico": 4177,
      "▁irme": 4178,
      "▁gruñ": 4179,
      "▁receta": 4180,
      "Ap": 4181,
      "mado": 4182,
      "▁carrera": 4183,
      "▁hamburguesa": 4184,
      "▁sonre": 4185,
      "gamos": 4186,
      "▁gritaron": 4187,
      "▁maravilloso": 4188,
      "▁lila": 4189,
      "Bam": 4190,
      "▁vela": 4191,
      "▁invierno": 4192,
      "▁jo": 4193,
      "▁baba": 4194,
      "▁estudi": 4195,
      "tiene": 4196,
      "▁tur": 4197,
      "Meow": 4198,
      "gla": 4199,
      "▁orden": 4200,
      "▁mostrar": 4201,
      "▁compren": 4202,
      "▁convirtió": 4203,
      "▁rodar": 4204,
      "▁delgado": 4205,
      "cir": 4206,
      "▁senc": 4207,
      "▁lágri": 4208,
      "amarillo": 4209,
      "▁precioso": 4210,
      "▁rompen": 4211,
      "Joh": 4212,
      "▁geniales": 4213,
      "John": 4214,
      "Fuimos": 4215,
      "▁entero": 4216,
      "▁cerra": 4217,
      "▁mascotas": 4218,
      "▁parece": 4219,
      "▁estú": 4220,
      "▁asombroso": 4221,
      "Dibu": 4222,
      "Necesitamos": 4223,
      "▁ocur": 4224,
      "▁traje": 4225,
      "▁sido": 4226,
      "cida": 4227,
      "unar": 4228,
      "▁mariquita": 4229,
      "▁viendo": 4230,
      "▁repi": 4231,
      "▁encontrado": 4232,
      "▁comere": 4233,
      "dose": 4234,
      "▁verano": 4235,
      "▁enfa": 4236,
      "jugaba": 4237,
      "▁próxima": 4238,
      "Mientras": 4239,
      "Estamos": 4240,
      "▁tomaron": 4241,
      "▁sábado": 4242,
      "▁sueña": 4243,
      "riente": 4244,
      "rade": 4245,
      "quería": 4246,
      "▁compartía": 4247,
      "▁maletas": 4248,
      "▁ros": 4249,
      "▁ade": 4250,
      "▁lágrimas": 4251,
      "▁llores": 4252,
      "▁agrade": 4253,
      "▁nino": 4254,
      "▁despi": 4255,
      "Rojo": 4256,
      "▁simpático": 4257,
      "beb": 4258,
      "▁ayudarla": 4259,
      "claro": 4260,
      "▁darte": 4261,
      "▁juegues": 4262,
      "Desde": 4263,
      "▁cuerpo": 4264,
      "ee": 4265,
      "▁rompieron": 4266,
      "cidad": 4267,
      "▁celebrar": 4268,
      "▁veían": 4269,
      "▁hiciste": 4270,
      "Maya": 4271,
      "▁harina": 4272,
      "▁único": 4273,
      "goí": 4274,
      "▁egoí": 4275,
      "▁caía": 4276,
      "▁movían": 4277,
      "Quizás": 4278,
      "Zuum": 4279,
      "▁domingo": 4280,
      "▁hoyo": 4281,
      "▁jungla": 4282,
      "▁clases": 4283,
      "▁mojar": 4284,
      "▁cine": 4285,
      "▁techo": 4286,
      "▁deslizó": 4287,
      "▁trompa": 4288,
      "gada": 4289,
      "▁acordó": 4290,
      "▁vin": 4291,
      "▁helicópteros": 4292,
      "▁recordar": 4293,
      "▁fresca": 4294,
      "▁oler": 4295,
      "▁diez": 4296,
      "▁estes": 4297,
      "riosa": 4298,
      "▁repitió": 4299,
      "▁ce": 4300,
      "caba": 4301,
      "▁divierte": 4302,
      "Vol": 4303,
      "▁cambió": 4304,
      "Perdo": 4305,
      "▁fantástico": 4306,
      "▁excelente": 4307,
      "▁vago": 4308,
      "daron": 4309,
      "uch": 4310,
      "▁arrastró": 4311,
      "tis": 4312,
      "▁artificial": 4313,
      "▁disfraces": 4314,
      "▁conducir": 4315,
      "▁campe": 4316,
      "rate": 4317,
      "▁iguales": 4318,
      "▁leyendo": 4319,
      "▁adelan": 4320,
      "▁gustaron": 4321,
      "▁creer": 4322,
      "▁brillando": 4323,
      "▁blancos": 4324,
      "añ": 4325,
      "lando": 4326,
      "▁Pablo": 4327,
      "▁abrirla": 4328,
      "señ": 4329,
      "abuela": 4330,
      "▁aburrida": 4331,
      "▁egoísta": 4332,
      "▁nave": 4333,
      "▁hablando": 4334,
      "▁inf": 4335,
      "▁rec": 4336,
      "▁pic": 4337,
      "ray": 4338,
      "▁piel": 4339,
      "osau": 4340,
      "Hoy": 4341,
      "▁grando": 4342,
      "▁robó": 4343,
      "▁montó": 4344,
      "▁ocupado": 4345,
      "▁palabra": 4346,
      "eano": 4347,
      "▁pegamento": 4348,
      "▁cereal": 4349,
      "gún": 4350,
      "▁Pe": 4351,
      "▁plaza": 4352,
      "▁botones": 4353,
      "▁lata": 4354,
      "▁oceano": 4355,
      "Encontró": 4356,
      "▁grosero": 4357,
      "▁sana": 4358,
      "Tran": 4359,
      "gando": 4360,
      "▁atraparla": 4361,
      "Vroom": 4362,
      "▁A": 4363,
      "▁adiv": 4364,
      "▁ríen": 4365,
      "▁molesto": 4366,
      "▁sólo": 4367,
      "tados": 4368,
      "▁dinosau": 4369,
      "▁compañ": 4370,
      "▁caña": 4371,
      "dita": 4372,
      "▁cierto": 4373,
      "▁traer": 4374,
      "▁esponjoso": 4375,
      "▁cray": 4376,
      "▁caras": 4377,
      "▁sacudió": 4378,
      "dora": 4379,
      "▁tímido": 4380,
      "▁esos": 4381,
      "▁fero": 4382,
      "dillas": 4383,
      "▁cosita": 4384,
      "ayu": 4385,
      "está": 4386,
      "▁comparten": 4387,
      "▁ridículo": 4388,
      "Toca": 4389,
      "▁pregunta": 4390,
      "▁sup": 4391,
      "▁divierten": 4392,
      "Esas": 4393,
      "▁gemelas": 4394,
      "▁felicidad": 4395,
      "▁ponen": 4396,
      "▁rata": 4397,
      "▁tocarlas": 4398,
      "nu": 4399,
      "▁divertía": 4400,
      "▁arrojó": 4401,
      "▁calvo": 4402,
      "nic": 4403,
      "tillos": 4404,
      "▁realmente": 4405,
      "▁picnic": 4406,
      "▁electrico": 4407,
      "iebre": 4408,
      "▁vuelve": 4409,
      "bum": 4410,
      "▁hacían": 4411,
      "▁naranjas": 4412,
      "▁saltando": 4413,
      "Ouch": 4414,
      "hubo": 4415,
      "rios": 4416,
      "Llev": 4417,
      "▁ayudara": 4418,
      "▁orilla": 4419,
      "▁oí": 4420,
      "▁gustaría": 4421,
      "▁persiguió": 4422,
      "▁fiebre": 4423,
      "▁tantas": 4424,
      "Habla": 4425,
      "▁asustados": 4426,
      "▁enfadó": 4427,
      "pu": 4428,
      "▁llevaron": 4429,
      "▁difíciles": 4430,
      "▁viejos": 4431,
      "▁robar": 4432,
      "Tocó": 4433,
      "puede": 4434,
      "Perdón": 4435,
      "encontraron": 4436,
      "Pájaro": 4437,
      "▁apar": 4438,
      "▁paredes": 4439,
      "▁¡\"": 4440,
      "▁limpios": 4441,
      "▁musi": 4442,
      "▁equivocado": 4443,
      "▁volaba": 4444,
      "▁aven": 4445,
      "▁lloviendo": 4446,
      "▁canasta": 4447,
      "▁costa": 4448,
      "▁nueces": 4449,
      "Pueden": 4450,
      "paró": 4451,
      "gen": 4452,
      "Us": 4453,
      "▁tía": 4454,
      "▁pipí": 4455,
      "ugares": 4456,
      "▁encontrarla": 4457,
      "▁camas": 4458,
      "▁Emma": 4459,
      "▁lugares": 4460,
      "Arriba": 4461,
      "▁gen": 4462,
      "▁patea": 4463,
      "▁encer": 4464,
      "▁practi": 4465,
      "▁darles": 4466,
      "▁necesa": 4467,
      "▁acercaron": 4468,
      "▁furioso": 4469,
      "▁primavera": 4470,
      "▁loca": 4471,
      "▁viera": 4472,
      "▁favoritos": 4473,
      "Otros": 4474,
      "▁buscarlo": 4475,
      "▁crea": 4476,
      "▁gratis": 4477,
      "▁heroes": 4478,
      "▁bruto": 4479,
      "Plop": 4480,
      "Usa": 4481,
      "▁parada": 4482,
      "neces": 4483,
      "▁tuvieron": 4484,
      "▁dig": 4485,
      "▁honesta": 4486,
      "▁grandote": 4487,
      "▁casi": 4488,
      "▁peludas": 4489,
      "mela": 4490,
      "▁descu": 4491,
      "▁gorda": 4492,
      "timiento": 4493,
      "▁redondas": 4494,
      "▁verlos": 4495,
      "▁maravillos": 4496,
      "▁acera": 4497,
      "▁plátanos": 4498,
      "Bob": 4499,
      "▁seguros": 4500,
      "▁levanta": 4501,
      "▁encontrarlo": 4502,
      "Caminó": 4503,
      "egres": 4504,
      "grande": 4505,
      "diera": 4506,
      "▁ponerse": 4507,
      "Regres": 4508,
      "▁atrás": 4509,
      "podía": 4510,
      "Gatito": 4511,
      "emp": 4512,
      "Abuela": 4513,
      "▁pariente": 4514,
      "▁perder": 4515,
      "▁salón": 4516,
      "pelota": 4517,
      "▁problemas": 4518,
      "▁menú": 4519,
      "▁castillos": 4520,
      "▁pelos": 4521,
      "ps": 4522,
      "▁supo": 4523,
      "▁ponía": 4524,
      "▁guste": 4525,
      "▁hagas": 4526,
      "rope": 4527,
      "inar": 4528,
      "▁Pup": 4529,
      "itó": 4530,
      "▁feroz": 4531,
      "▁cansaron": 4532,
      "ille": 4533,
      "▁contaba": 4534,
      "camos": 4535,
      "Dis": 4536,
      "mbó": 4537,
      "ómico": 4538,
      "Cal": 4539,
      "▁dinosaurio": 4540,
      "▁carrito": 4541,
      "▁preparó": 4542,
      "rojo": 4543,
      "▁cierra": 4544,
      "miau": 4545,
      "▁gargan": 4546,
      "▁aplaudió": 4547,
      "▁estrope": 4548,
      "▁presen": 4549,
      "culos": 4550,
      "▁campeón": 4551,
      "▁garganta": 4552,
      "Sá": 4553,
      "▁alegraron": 4554,
      "▁obser": 4555,
      "▁empujaron": 4556,
      "▁ocurrió": 4557,
      "▁duras": 4558,
      "▁tranquila": 4559,
      "▁vueltas": 4560,
      "▁grave": 4561,
      "Ver": 4562,
      "damos": 4563,
      "▁tocarlos": 4564,
      "▁sorprendida": 4565,
      "▁dorado": 4566,
      "sus": 4567,
      "Pan": 4568,
      "riste": 4569,
      "Vuelve": 4570,
      "▁asquerosa": 4571,
      "íste": 4572,
      "▁tramposo": 4573,
      "▁sintieron": 4574,
      "▁pañales": 4575,
      "▁panal": 4576,
      "▁rompe": 4577,
      "▁esti": 4578,
      "▁exa": 4579,
      "▁comprarlo": 4580,
      "▁resbala": 4581,
      "veni": 4582,
      "▁pondre": 4583,
      "iló": 4584,
      "Dale": 4585,
      "alo": 4586,
      "▁vayas": 4587,
      "Re": 4588,
      "▁Luis": 4589,
      "muñe": 4590,
      "▁verdadero": 4591,
      "▁termina": 4592,
      "cep": 4593,
      "▁metido": 4594,
      "▁inoc": 4595,
      "danos": 4596,
      "▁curita": 4597,
      "▁bella": 4598,
      "▁pagar": 4599,
      "▁sombreros": 4600,
      "▁pudieron": 4601,
      "Ponte": 4602,
      "▁solos": 4603,
      "▁tendría": 4604,
      "▁chulo": 4605,
      "▁empujaba": 4606,
      "▁tuviera": 4607,
      "Boo": 4608,
      "▁pusiera": 4609,
      "▁der": 4610,
      "mon": 4611,
      "▁medio": 4612,
      "▁guapo": 4613,
      "▁riendo": 4614,
      "rin": 4615,
      "rosas": 4616,
      "▁peor": 4617,
      "▁saludable": 4618,
      "▁peludos": 4619,
      "jugando": 4620,
      "▁amista": 4621,
      "ff": 4622,
      "fri": 4623,
      "▁esas": 4624,
      "▁R": 4625,
      "bota": 4626,
      "▁dejaron": 4627,
      "▁ayudará": 4628,
      "▁guardó": 4629,
      "▁Sofía": 4630,
      "▁cómodo": 4631,
      "▁encogió": 4632,
      "▁explicó": 4633,
      "ellos": 4634,
      "▁ayudaría": 4635,
      "▁algún": 4636,
      "▁viven": 4637,
      "▁anillo": 4638,
      "▁gras": 4639,
      "encontró": 4640,
      "Cayó": 4641,
      "▁oscuras": 4642,
      "Espero": 4643,
      "▁curioso": 4644,
      "▁hiciera": 4645,
      "▁amistad": 4646,
      "pes": 4647,
      "arse": 4648,
      "▁positivo": 4649,
      "▁toallas": 4650,
      "pido": 4651,
      "▁min": 4652,
      "▁picó": 4653,
      "diendo": 4654,
      "▁sel": 4655,
      "▁sentar": 4656,
      "▁decep": 4657,
      "▁selva": 4658,
      "▁contarle": 4659,
      "▁tristeza": 4660,
      "▁acaricia": 4661,
      "▁torres": 4662,
      "▁cortas": 4663,
      "▁mer": 4664,
      "▁decepcion": 4665,
      "tendió": 4666,
      "▁manera": 4667,
      "▁resfri": 4668,
      "estoso": 4669,
      "▁salvajes": 4670,
      "sos": 4671,
      "▁Pel": 4672,
      "Dormi": 4673,
      "▁malva": 4674,
      "▁increíbles": 4675,
      "▁radi": 4676,
      "▁temp": 4677,
      "▁respirar": 4678,
      "▁parar": 4679,
      "damente": 4680,
      "Co": 4681,
      "ing": 4682,
      "▁electró": 4683,
      "pequeña": 4684,
      "▁despertar": 4685,
      "▁corta": 4686,
      "▁falsas": 4687,
      "▁barata": 4688,
      "terri": 4689,
      "▁S": 4690,
      "brió": 4691,
      "▁unidos": 4692,
      "▁mantener": 4693,
      "Algo": 4694,
      "▁regresaron": 4695,
      "tamb": 4696,
      "▁compañero": 4697,
      "▁besa": 4698,
      "▁deseaba": 4699,
      "Cantaba": 4700,
      "▁pasos": 4701,
      "úho": 4702,
      "mágen": 4703,
      "mágenes": 4704,
      "▁jarrón": 4705,
      "▁inter": 4706,
      "▁imágenes": 4707,
      "▁resfriado": 4708,
      "▁papi": 4709,
      "▁rotas": 4710,
      "▁comprare": 4711,
      "ág": 4712,
      "BUM": 4713,
      "feliz": 4714,
      "▁paciente": 4715,
      "▁hice": 4716,
      "▁confi": 4717,
      "diste": 4718,
      "▁imagen": 4719,
      "▁dan": 4720,
      "tiendo": 4721,
      "▁suavemente": 4722,
      "▁darme": 4723,
      "▁última": 4724,
      "▁rebota": 4725,
      "▁estudiar": 4726,
      "desp": 4727,
      "▁distintos": 4728,
      "bam": 4729,
      "▁sigue": 4730,
      "Aunque": 4731,
      "▁aterri": 4732,
      "▁dorada": 4733,
      "▁narices": 4734,
      "gía": 4735,
      "ieza": 4736,
      "?\"\n": 4737,
      "▁escapó": 4738,
      "▁soplaba": 4739,
      "▁familias": 4740,
      "▁digital": 4741,
      "▁lab": 4742,
      "▁sientas": 4743,
      "▁elegan": 4744,
      "▁sag": 4745,
      "Lu": 4746,
      "Podría": 4747,
      "triste": 4748,
      "Dice": 4749,
      "bebe": 4750,
      "ezaron": 4751,
      "▁llenas": 4752,
      "perrito": 4753,
      "▁barato": 4754,
      "▁soñar": 4755,
      "▁confiab": 4756,
      "Comida": 4757,
      "Llegaron": 4758,
      "▁minu": 4759,
      "▁grandioso": 4760,
      "Rec": 4761,
      "woof": 4762,
      "iencia": 4763,
      "▁leía": 4764,
      "dura": 4765,
      "▁temprano": 4766,
      "▁Pelusa": 4767,
      "▁largos": 4768,
      "Dime": 4769,
      "▁apestoso": 4770,
      "▁mientras": 4771,
      "▁honrado": 4772,
      "Canta": 4773,
      "▁vali": 4774,
      "Vale": 4775,
      "▁hermosos": 4776,
      "▁musical": 4777,
      "▁creía": 4778,
      "▁equivoca": 4779,
      "▁celoso": 4780,
      "Sólo": 4781,
      "▁grasa": 4782,
      "▁quemar": 4783,
      "Comparte": 4784,
      "▁corto": 4785,
      "Ahí": 4786,
      "Hici": 4787,
      "▁ideal": 4788,
      "▁llevare": 4789,
      "Pens": 4790,
      "▁sangre": 4791,
      "Esperó": 4792,
      "▁escamas": 4793,
      "▁amar": 4794,
      "▁estufa": 4795,
      "Ayúdanos": 4796,
      "▁atre": 4797,
      "torio": 4798,
      "Pío": 4799,
      "corrió": 4800,
      "▁mej": 4801,
      "Moo": 4802,
      "Sofia": 4803,
      "▁tron": 4804,
      "▁perdida": 4805,
      "tambien": 4806,
      "estaban": 4807,
      "▁pocos": 4808,
      "▁coloridos": 4809,
      "▁hacerte": 4810,
      "igo": 4811,
      "▁comiera": 4812,
      "▁listos": 4813,
      "Tienen": 4814,
      "Encontra": 4815,
      "fuimos": 4816,
      "▁vinieron": 4817,
      "▁labios": 4818,
      "▁encantada": 4819,
      "▁Dios": 4820,
      "▁entraron": 4821,
      "▁tocando": 4822,
      "▁extendió": 4823,
      "▁emocionante": 4824,
      "▁limpi": 4825,
      "▁necesito": 4826,
      "▁semana": 4827,
      "mis": 4828,
      "llo": 4829,
      "▁pateaba": 4830,
      "▁necesitamos": 4831,
      "Cla": 4832,
      "▁búho": 4833,
      "▁joven": 4834,
      "ímos": 4835,
      "▁misterioso": 4836,
      "▁último": 4837,
      "muchos": 4838,
      "▁pegajosa": 4839,
      "▁hombros": 4840,
      "▁edu": 4841,
      "▁Pepe": 4842,
      "▁encantó": 4843,
      "▁atento": 4844,
      "▁silencioso": 4845,
      "ort": 4846,
      "▁círculos": 4847,
      "Mírame": 4848,
      "▁murió": 4849,
      "▁granero": 4850,
      "▁propia": 4851,
      "Llegó": 4852,
      "▁paso": 4853,
      "ines": 4854,
      "Pelusa": 4855,
      "▁cespe": 4856,
      "▁despierto": 4857,
      "▁cesped": 4858,
      "▁soñado": 4859,
      "Escuch": 4860,
      "▁deportes": 4861,
      "▁rostro": 4862,
      "▁frías": 4863,
      "ny": 4864,
      "▁viva": 4865,
      "mendo": 4866,
      "Fui": 4867,
      "verde": 4868,
      "▁partir": 4869,
      "▁continu": 4870,
      "▁poder": 4871,
      "▁recuerda": 4872,
      "mien": 4873,
      "rip": 4874,
      "▁fantás": 4875,
      "▁torpe": 4876,
      "▁paciencia": 4877,
      "▁columpiarse": 4878,
      "juegan": 4879,
      "muchas": 4880,
      "▁regaló": 4881,
      "▁baños": 4882,
      "▁comedor": 4883,
      "ados": 4884,
      "▁leal": 4885,
      "▁durmieron": 4886,
      "▁cómoda": 4887,
      "▁escondernos": 4888,
      "▁estiró": 4889,
      "▁op": 4890,
      "ayú": 4891,
      "bamos": 4892,
      "ortuna": 4893,
      "▁comple": 4894,
      "▁ató": 4895,
      "▁creyó": 4896,
      "Olvi": 4897,
      "Dibujó": 4898,
      "deras": 4899,
      "▁dormitorio": 4900,
      "Hasta": 4901,
      "▁vacaciones": 4902,
      "ion": 4903,
      "▁extraños": 4904,
      "▁cl": 4905,
      "▁enfadado": 4906,
      "Ah": 4907,
      "▁Santa": 4908,
      "inaba": 4909,
      "▁pegado": 4910,
      "▁pocas": 4911,
      "Escuchó": 4912,
      "▁comparte": 4913,
      "Sen": 4914,
      "Tito": 4915,
      "▁fáciles": 4916,
      "▁bravo": 4917,
      "mes": 4918,
      "▁zu": 4919,
      "▁pela": 4920,
      "▁genero": 4921,
      "▁buenísi": 4922,
      "ior": 4923,
      "▁Hugo": 4924,
      "tenemos": 4925,
      "▁Lina": 4926,
      "▁Carlos": 4927,
      "▁mudo": 4928,
      "▁respetar": 4929,
      "▁tronco": 4930,
      "▁velo": 4931,
      "▁abrazaba": 4932,
      "▁encantador": 4933,
      "ándo": 4934,
      "tís": 4935,
      "▁adora": 4936,
      "▁aterrizó": 4937,
      "▁ben": 4938,
      "▁bellas": 4939,
      "▁cubos": 4940,
      "▁alegres": 4941,
      "▁gritar": 4942,
      "▁santo": 4943,
      "▁pelaje": 4944,
      "\"!": 4945,
      "▁rotos": 4946,
      "▁Santiago": 4947,
      "erró": 4948,
      "▁artís": 4949,
      "vido": 4950,
      "cientes": 4951,
      "▁afortuna": 4952,
      "▁andando": 4953,
      "▁caen": 4954,
      "vieran": 4955,
      "▁patearon": 4956,
      "▁secar": 4957,
      "▁elegante": 4958,
      "▁compartirlo": 4959,
      "ulces": 4960,
      "▁jugoso": 4961,
      "omen": 4962,
      "▁pati": 4963,
      "▁construyeron": 4964,
      "enomen": 4965,
      "▁adiós": 4966,
      "ífi": 4967,
      "Paco": 4968,
      "▁hub": 4969,
      "▁fui": 4970,
      "▁acurrucaron": 4971,
      "xil": 4972,
      "▁aho": 4973,
      "piró": 4974,
      "Llovía": 4975,
      "▁seria": 4976,
      "▁sientan": 4977,
      "▁cruj": 4978,
      "▁Enrique": 4979,
      "▁arregla": 4980,
      "urante": 4981,
      "▁nadaba": 4982,
      "▁sabio": 4983,
      "Listo": 4984,
      "conejo": 4985,
      "Li": 4986,
      "▁ligero": 4987,
      "blos": 4988,
      "▁David": 4989,
      "▁tremendo": 4990,
      "▁gordos": 4991,
      "▁Charlie": 4992,
      "▁tormentas": 4993,
      "▁asustes": 4994,
      "▁encerrado": 4995,
      "▁alejó": 4996,
      "wn": 4997,
      "fui": 4998,
      "▁confiable": 4999,
      "xilio": 5000,
      "rown": 5001,
      "▁Ricardo": 5002,
      "▁puesto": 5003,
      "ramos": 5004,
      "▁tenerlo": 5005,
      "▁resta": 5006,
      "▁ayudando": 5007,
      "▁peleaban": 5008,
      "Jun": 5009,
      "▁resto": 5010,
      "riginal": 5011,
      "Esos": 5012,
      "niña": 5013,
      "▁pongas": 5014,
      "▁leon": 5015,
      "davía": 5016,
      "▁incómo": 5017,
      "▁fina": 5018,
      "ásame": 5019,
      "▁cris": 5020,
      "▁descubrió": 5021,
      "▁esponjos": 5022,
      "▁enseñ": 5023,
      "▁aventura": 5024,
      "▁pueblos": 5025,
      "▁amaban": 5026,
      "▁burbuja": 5027,
      "▁estupendo": 5028,
      "drá": 5029,
      "árbol": 5030,
      "jate": 5031,
      "▁alem": 5032,
      "▁Laura": 5033,
      "▁Diego": 5034,
      "▁original": 5035,
      "▁suficientes": 5036,
      "pen": 5037,
      "uu": 5038,
      "▁gata": 5039,
      "quito": 5040,
      "▁restaurante": 5041,
      "ratón": 5042,
      "▁preciosa": 5043,
      "▁horas": 5044,
      "▁pura": 5045,
      "▁D": 5046,
      "▁bastante": 5047,
      "riposa": 5048,
      "▁radical": 5049,
      "▁lavarse": 5050,
      "▁soplar": 5051,
      "▁significaba": 5052,
      "▁\"¡¿": 5053,
      "▁celosa": 5054,
      "Bailaron": 5055,
      "▁querido": 5056,
      "▁estamos": 5057,
      "▁fenomen": 5058,
      "▁volaban": 5059,
      "▁colocó": 5060,
      "cie": 5061,
      "Trae": 5062,
      "▁tapó": 5063,
      "▁nadaron": 5064,
      "▁premon": 5065,
      "▁maldita": 5066,
      "▁maldito": 5067,
      "▁premoni": 5068,
      "▁rubio": 5069,
      "!\"\n\n\"¡": 5070,
      "▁Mimi": 5071,
      "▁enfadada": 5072,
      "▁acurruca": 5073,
      "▁electróni": 5074,
      "mba": 5075,
      "▁admira": 5076,
      "▁presion": 5077,
      "▁veloz": 5078,
      "▁mensa": 5079,
      "▁comerlos": 5080,
      "▁falsos": 5081,
      "▁comercial": 5082,
      "▁puntos": 5083,
      "lio": 5084,
      "▁lucha": 5085,
      "chemos": 5086,
      "xican": 5087,
      "toso": 5088,
      "▁pide": 5089,
      "▁cambia": 5090,
      "▁suspiró": 5091,
      "▁turno": 5092,
      "guen": 5093,
      "▁mexican": 5094,
      "▁pañal": 5095,
      "Ups": 5096,
      "íjate": 5097,
      "▁pelusa": 5098,
      "▁reci": 5099,
      "úrate": 5100,
      "▁agotada": 5101,
      "▁unió": 5102,
      "▁doble": 5103,
      "▁mod": 5104,
      "ilos": 5105,
      "otó": 5106,
      "▁dicho": 5107,
      "Term": 5108,
      "▁amigables": 5109,
      "▁masticar": 5110,
      "▁limpiando": 5111,
      "▁comes": 5112,
      "▁formas": 5113,
      "▁callada": 5114,
      "▁pasado": 5115,
      "algun": 5116,
      "▁poderoso": 5117,
      "▁Fernando": 5118,
      "var": 5119,
      "▁jugaría": 5120,
      "Pásame": 5121,
      "▁susto": 5122,
      "▁comprendió": 5123,
      "Golpe": 5124,
      "▁única": 5125,
      "Deja": 5126,
      "▁cie": 5127,
      "▁rayas": 5128,
      "▁observó": 5129,
      "▁calles": 5130,
      "tame": 5131,
      "▁cosquille": 5132,
      "▁fino": 5133,
      "▁llamar": 5134,
      "▁atascada": 5135,
      "▁golpea": 5136,
      "anda": 5137,
      "yos": 5138,
      "jarito": 5139,
      "para": 5140,
      "verdes": 5141,
      "▁suelto": 5142,
      "▁reun": 5143,
      "esos": 5144,
      "▁premonición": 5145,
      "▁pág": 5146,
      "▁dire": 5147,
      "▁posible": 5148,
      "▁estante": 5149,
      "Conejo": 5150,
      "geni": 5151,
      "▁ingeni": 5152,
      "Auxilio": 5153,
      "ídate": 5154,
      "turas": 5155,
      "▁misteriosa": 5156,
      "Cuen": 5157,
      "▁envuel": 5158,
      "▁hombro": 5159,
      "▁lee": 5160,
      "▁cerrado": 5161,
      "▁colgando": 5162,
      "▁entrada": 5163,
      "Duerme": 5164,
      "▁sincera": 5165,
      "▁cosquilleo": 5166,
      "▁optimi": 5167,
      "▁deporte": 5168,
      "ord": 5169,
      "▁ló": 5170,
      "▁popu": 5171,
      "Fíjate": 5172,
      "▁famosa": 5173,
      "osible": 5174,
      "▁pasaba": 5175,
      "▁quedarte": 5176,
      "▁nota": 5177,
      "▁ricos": 5178,
      "daste": 5179,
      "Habíamos": 5180,
      "didos": 5181,
      "Venga": 5182,
      "▁osa": 5183,
      "Verás": 5184,
      "▁brillo": 5185,
      "▁Sandra": 5186,
      "▁mez": 5187,
      "▁oreja": 5188,
      "▁limones": 5189,
      "▁lanzar": 5190,
      "▁mamás": 5191,
      "▁juguetón": 5192,
      "▁cojo": 5193,
      "▁hecha": 5194,
      "▁chino": 5195,
      "▁cuidados": 5196,
      "▁hubiera": 5197,
      "▁vomitó": 5198,
      "Empezó": 5199,
      "▁pálido": 5200,
      "▁frun": 5201,
      "Dámelo": 5202,
      "▁lucía": 5203,
      "gus": 5204,
      "▁pegajoso": 5205,
      "úl": 5206,
      "▁fenomenal": 5207,
      "▁bañar": 5208,
      "▁risa": 5209,
      "oyó": 5210,
      "▁aren": 5211,
      "▁bebieron": 5212,
      "▁presentimiento": 5213,
      "▁extraord": 5214,
      "▁pesadas": 5215,
      "Lla": 5216,
      "▁obtener": 5217,
      "▁meti": 5218,
      "▁apagaron": 5219,
      "compar": 5220,
      "▁lloras": 5221,
      "▁chupó": 5222,
      "Encontre": 5223,
      "▁buenísimo": 5224,
      "▁jugado": 5225,
      "▁bombero": 5226,
      "▁esco": 5227,
      "▁regresar": 5228,
      "▁ceño": 5229,
      "▁tocaron": 5230,
      "▁míos": 5231,
      "▁tontos": 5232,
      "▁naturales": 5233,
      "▁chistoso": 5234,
      "Intentalo": 5235,
      "Sonrió": 5236,
      "▁arenero": 5237,
      "▁alf": 5238,
      "▁vier": 5239,
      "▁aguas": 5240,
      "íos": 5241,
      "salió": 5242,
      "▁escogió": 5243,
      "▁equivocada": 5244,
      "▁saludó": 5245,
      "▁suena": 5246,
      "▁clás": 5247,
      "▁vue": 5248,
      "Pre": 5249,
      "▁frunció": 5250,
      "▁poderosa": 5251,
      "risas": 5252,
      "tate": 5253,
      "▁viernes": 5254,
      "ahora": 5255,
      "Sonaba": 5256,
      "▁ensució": 5257,
      "▁cristi": 5258,
      "▁hacerla": 5259,
      "Serás": 5260,
      "Sacó": 5261,
      "Pronto": 5262,
      "Echemos": 5263,
      "▁hare": 5264,
      "▁terminado": 5265,
      "voy": 5266,
      "▁empieza": 5267,
      "erías": 5268,
      "▁profun": 5269,
      "▁recordó": 5270,
      "▁apun": 5271,
      "▁optimista": 5272,
      "▁bello": 5273,
      "jan": 5274,
      "Habían": 5275,
      "▁pelearon": 5276,
      "▁antigua": 5277,
      "▁caros": 5278,
      "▁mensaje": 5279,
      "▁locas": 5280,
      "cero": 5281,
      "▁mostrador": 5282,
      "▁cien": 5283,
      "▁lógico": 5284,
      "orden": 5285,
      "▁minutos": 5286,
      "▁peligro": 5287,
      "▁chispas": 5288,
      "▁desayunar": 5289,
      "▁bobo": 5290,
      "Abrió": 5291,
      "gueme": 5292,
      "Empu": 5293,
      "▁ayude": 5294,
      "plop": 5295,
      "▁auten": 5296,
      "▁apuesto": 5297,
      "ecto": 5298,
      "▁adorable": 5299,
      "▁supuesto": 5300,
      "mariposa": 5301,
      "▁fabulosa": 5302,
      "▁esten": 5303,
      "▁ov": 5304,
      "▁alfombra": 5305,
      "▁encuentro": 5306,
      "▁ne": 5307,
      "ífico": 5308,
      "ayúdame": 5309,
      "luego": 5310,
      "▁demasiadas": 5311,
      "▁log": 5312,
      "▁desorden": 5313,
      "▁cono": 5314,
      "▁Anita": 5315,
      "coches": 5316,
      "▁temer": 5317,
      "dente": 5318,
      "▁adultos": 5319,
      "venido": 5320,
      "Juntas": 5321,
      "Basta": 5322,
      "ile": 5323,
      "▁mías": 5324,
      "Llevame": 5325,
      "▁fiestas": 5326,
      "▁vista": 5327,
      "▁distintas": 5328,
      "hizo": 5329,
      "olar": 5330,
      "teo": 5331,
      "umba": 5332,
      "▁bajaron": 5333,
      "▁electrónico": 5334,
      "▁ovillo": 5335,
      "▁colorida": 5336,
      "▁ruidosos": 5337,
      "▁rode": 5338,
      "llate": 5339,
      "▁suspen": 5340,
      "Hace": 5341,
      "Enseñ": 5342,
      "állate": 5343,
      "coles": 5344,
      "▁iglesias": 5345,
      "inta": 5346,
      "Dejen": 5347,
      "▁coraz": 5348,
      "▁preparado": 5349,
      "▁consejos": 5350,
      "pajarito": 5351,
      "▁común": 5352,
      "Enseñame": 5353,
      "▁quis": 5354,
      "▁olvides": 5355,
      "▁somb": 5356,
      "▁verlas": 5357,
      "Encontraron": 5358,
      "▁barrio": 5359,
      "▁llenos": 5360,
      "▁jardines": 5361,
      "▁lentamente": 5362,
      "jera": 5363,
      "▁menos": 5364,
      "▁enamorada": 5365,
      "▁calmado": 5366,
      "ercoles": 5367,
      "Tranquilo": 5368,
      "rra": 5369,
      "guera": 5370,
      "ínti": 5371,
      "Sorpresa": 5372,
      "▁ciego": 5373,
      "elef": 5374,
      "▁destro": 5375,
      "▁cocinó": 5376,
      "▁revol": 5377,
      "ye": 5378,
      "▁tio": 5379,
      "▁lunes": 5380,
      "▁entera": 5381,
      "▁capaz": 5382,
      "▁imposible": 5383,
      "Sonó": 5384,
      "Hurra": 5385,
      "▁corazones": 5386,
      "▁ínti": 5387,
      "▁teniendo": 5388,
      "▁lava": 5389,
      "Aprendí": 5390,
      "Clara": 5391,
      "hasta": 5392,
      "▁harán": 5393,
      "Podían": 5394,
      "Dámela": 5395,
      "▁divertí": 5396,
      "▁confiado": 5397,
      "hh": 5398,
      "▁alemán": 5399,
      "▁deportivo": 5400,
      "▁atrevido": 5401,
      "▁santa": 5402,
      "ncito": 5403,
      "▁atado": 5404,
      "Am": 5405,
      "▁fatal": 5406,
      "pobre": 5407,
      "▁inventado": 5408,
      "▁simples": 5409,
      "Hazlo": 5410,
      "▁modos": 5411,
      "▁acerques": 5412,
      "▁española": 5413,
      "▁menor": 5414,
      "▁rodillas": 5415,
      "▁hablaron": 5416,
      "▁preparada": 5417,
      "▁pudiera": 5418,
      "▁miercoles": 5419,
      "▁conocer": 5420,
      "pod": 5421,
      "▁admirable": 5422,
      "▁puro": 5423,
      "▁maleta": 5424,
      "▁gr": 5425,
      "▁carreras": 5426,
      "▁cortes": 5427,
      "bang": 5428,
      "▁parecían": 5429,
      "Bebió": 5430,
      "▁rezar": 5431,
      "▁asiento": 5432,
      "▁verte": 5433,
      "sorpresa": 5434,
      "▁recordaba": 5435,
      "▁dará": 5436,
      "▁peli": 5437,
      "tamos": 5438,
      "▁empezaron": 5439,
      "Ayudó": 5440,
      "sito": 5441,
      "▁divertían": 5442,
      "Fuera": 5443,
      "▁encantadora": 5444,
      "Como": 5445,
      "▁harto": 5446,
      "▁tesoros": 5447,
      "▁tercer": 5448,
      "▁descanso": 5449,
      "▁aunque": 5450,
      "▁propio": 5451,
      "▁permi": 5452,
      "▁flotaba": 5453,
      "▁quemado": 5454,
      "▁Brown": 5455,
      "▁fantástica": 5456,
      "▁delicado": 5457,
      "▁vaya": 5458,
      "▁inventó": 5459,
      "▁muerde": 5460,
      "jugue": 5461,
      "mbres": 5462,
      "▁ayudarnos": 5463,
      "▁estúpido": 5464,
      "Busca": 5465,
      "corre": 5466,
      "▁preciosas": 5467,
      "▁extrañas": 5468,
      "▁apareció": 5469,
      "Huele": 5470,
      "▁grues": 5471,
      "!,": 5472,
      "Calla": 5473,
      "Flu": 5474,
      "▁pálida": 5475,
      "▁quieras": 5476,
      "Cuidar": 5477,
      "bable": 5478,
      "ffy": 5479,
      "char": 5480,
      "▁poca": 5481,
      "▁abrieron": 5482,
      "▁educado": 5483,
      "Hazme": 5484,
      "Apúrate": 5485,
      "▁martes": 5486,
      "cúl": 5487,
      "Veo": 5488,
      "Deli": 5489,
      "tac": 5490,
      "hero": 5491,
      "▁comerse": 5492,
      "Fluffy": 5493,
      "▁estuvieran": 5494,
      "▁popular": 5495,
      "▁sencillo": 5496,
      "▁tanta": 5497,
      "tare": 5498,
      "tantes": 5499,
      "▁navegar": 5500,
      "Desp": 5501,
      "Fuego": 5502,
      "▁año": 5503,
      "▁ganador": 5504,
      "▁presentes": 5505,
      "▁usado": 5506,
      "hicieron": 5507,
      "▁quedara": 5508,
      "Cállate": 5509,
      "Hicimos": 5510,
      "▁colorado": 5511,
      "▁segunda": 5512,
      "uestra": 5513,
      "▁animados": 5514,
      "tomó": 5515,
      "▁autobus": 5516,
      "ápido": 5517,
      "▁moda": 5518,
      "▁cabezas": 5519,
      "ís": 5520,
      "▁corren": 5521,
      "▁escapar": 5522,
      "tará": 5523,
      "▁brutal": 5524,
      "▁traía": 5525,
      "▁prome": 5526,
      "▁pensaron": 5527,
      "▁mente": 5528,
      "▁masa": 5529,
      "▁autobuses": 5530,
      "iertas": 5531,
      "▁horribles": 5532,
      "idamente": 5533,
      "▁rápidamente": 5534,
      "▁paseando": 5535,
      "▁despidió": 5536,
      "▁comiste": 5537,
      "▁escondía": 5538,
      "▁llevarla": 5539,
      "inado": 5540,
      "▁doña": 5541,
      "Ra": 5542,
      "Cuídate": 5543,
      "▁herida": 5544,
      "▁esponjosas": 5545,
      "▁alimen": 5546,
      "Quedate": 5547,
      "Justo": 5548,
      "Ves": 5549,
      "▁meter": 5550,
      "▁ligera": 5551,
      "▁Juana": 5552,
      "▁resbaladilla": 5553,
      "Míralo": 5554,
      "▁afiladas": 5555,
      "▁sonaba": 5556,
      "Apa": 5557,
      "Buscamos": 5558,
      "vivía": 5559,
      "▁querida": 5560,
      "▁jugamos": 5561,
      "ví": 5562,
      "peme": 5563,
      "Bailó": 5564,
      "▁exacta": 5565,
      "▁listas": 5566,
      "▁estos": 5567,
      "▁ridícula": 5568,
      "▁debiles": 5569,
      "Gri": 5570,
      "▁inocente": 5571,
      "espera": 5572,
      "▁quedaba": 5573,
      "▁simi": 5574,
      "▁interesa": 5575,
      "▁principal": 5576,
      "cúlpeme": 5577,
      "▁brillaban": 5578,
      "▁comían": 5579,
      "▁lavarte": 5580,
      "▁colas": 5581,
      "▁duros": 5582,
      "▁Maya": 5583,
      "▁bocadillos": 5584,
      "▁vestida": 5585,
      "▁enojar": 5586,
      "▁electrica": 5587,
      "▁reina": 5588,
      "menda": 5589,
      "▁suelta": 5590,
      "▁sordo": 5591,
      "▁cariño": 5592,
      "▁decepcionado": 5593,
      "▁herra": 5594,
      "Sube": 5595,
      "▁nombres": 5596,
      "▁masticó": 5597,
      "▁herramien": 5598,
      "Cuentame": 5599,
      "▁intens": 5600,
      "cri": 5601,
      "risto": 5602,
      "▁tuyas": 5603,
      "▁respon": 5604,
      "▁sonreír": 5605,
      "algo": 5606,
      "▁cómico": 5607,
      "▁familiar": 5608,
      "▁olían": 5609,
      "ucristo": 5610,
      "Jesucristo": 5611,
      "▁loro": 5612,
      "▁caminaban": 5613,
      "jugar": 5614,
      "▁sentí": 5615,
      "▁econ": 5616,
      "▁normales": 5617,
      "▁cortos": 5618,
      "puso": 5619,
      "▁dec": 5620,
      "ly": 5621,
      "▁valioso": 5622,
      "▁finalmente": 5623,
      "▁diciendo": 5624,
      "ciembre": 5625,
      "▁suyas": 5626,
      "ack": 5627,
      "zada": 5628,
      "▁podrás": 5629,
      "erican": 5630,
      "Dulces": 5631,
      "cua": 5632,
      "Brrr": 5633,
      "▁escoba": 5634,
      "▁cuad": 5635,
      "▁american": 5636,
      "\".\n\n\"¡": 5637,
      "Juegan": 5638,
      "ince": 5639,
      "Sígueme": 5640,
      "Olía": 5641,
      "▁enojaron": 5642,
      "▁tuya": 5643,
      "▁dibuja": 5644,
      "▁generoso": 5645,
      "oña": 5646,
      "▁salvaje": 5647,
      "rí": 5648,
      "Cogió": 5649,
      "▁duermen": 5650,
      "▁agujeros": 5651,
      "▁enojados": 5652,
      "mpoco": 5653,
      "▁pelirro": 5654,
      "▁temblaba": 5655,
      "ticaba": 5656,
      "▁Gus": 5657,
      "▁pasaron": 5658,
      "▁decente": 5659,
      "▁afecto": 5660,
      "▁acariciarlo": 5661,
      "▁ratoncito": 5662,
      "▁tampoco": 5663,
      "mucho": 5664,
      "Zzz": 5665,
      "▁diciembre": 5666,
      "empezó": 5667,
      "▁presionó": 5668,
      "▁escuchaba": 5669,
      "▁vuelan": 5670,
      "▁abrazos": 5671,
      "tiagu": 5672,
      "▁jueves": 5673,
      "▁puntiagu": 5674,
      "▁gusto": 5675,
      "▁apretado": 5676,
      "▁creativo": 5677,
      "▁valientes": 5678,
      "Suel": 5679,
      "odó": 5680,
      "▁girar": 5681,
      "▁senti": 5682,
      "▁incómodo": 5683,
      "▁interesada": 5684,
      "▁lanzaba": 5685,
      "▁brin": 5686,
      "denme": 5687,
      "▁desespe": 5688,
      "Perdon": 5689,
      "▁bastantes": 5690,
      "Pu": 5691,
      "▁mane": 5692,
      "▁usando": 5693,
      "▁comunes": 5694,
      "▁ríos": 5695,
      "▁rug": 5696,
      "▁entriste": 5697,
      "▁pijamas": 5698,
      "▁olvidado": 5699,
      "▁on": 5700,
      "▁lej": 5701,
      "otro": 5702,
      "Dijeron": 5703,
      "Espe": 5704,
      "▁erro": 5705,
      "▁devolver": 5706,
      "▁delgada": 5707,
      "▁curiosa": 5708,
      "▁crayones": 5709,
      "mami": 5710,
      "▁oídos": 5711,
      "▁intentar": 5712,
      "quenlo": 5713,
      "▁pier": 5714,
      "▁importaba": 5715,
      "▁necesitaban": 5716,
      "otal": 5717,
      "Cara": 5718,
      "Finn": 5719,
      "▁sostuvo": 5720,
      "drás": 5721,
      "▁informa": 5722,
      "▁duen": 5723,
      "▁ja": 5724,
      "voló": 5725,
      "Juanita": 5726,
      "▁continuó": 5727,
      "Queremos": 5728,
      "▁cuidarlo": 5729,
      "▁practicar": 5730,
      "▁cuadro": 5731,
      "lán": 5732,
      "▁bailaban": 5733,
      "▁miran": 5734,
      "▁apuntó": 5735,
      "▁escond": 5736,
      "▁apro": 5737,
      "tara": 5738,
      "▁picoteó": 5739,
      "▁estas": 5740,
      "▁ponerlo": 5741,
      "ído": 5742,
      "▁sincero": 5743,
      "▁suce": 5744,
      "Despierta": 5745,
      "Discúlpeme": 5746,
      "▁femen": 5747,
      "▁furiosa": 5748,
      "▁eleg": 5749,
      "▁irá": 5750,
      "▁interesante": 5751,
      "▁bendito": 5752,
      "▁oh": 5753,
      "▁cantan": 5754,
      "▁das": 5755,
      "elices": 5756,
      "▁mejillas": 5757,
      "pueden": 5758,
      "Bienveni": 5759,
      "monos": 5760,
      "Nosotros": 5761,
      "▁antigu": 5762,
      "▁sagrada": 5763,
      "▁quince": 5764,
      "▁trabajando": 5765,
      "Hice": 5766,
      "▁saben": 5767,
      "▁estropeado": 5768,
      "▁preguntar": 5769,
      "▁adelante": 5770,
      "lántico": 5771,
      "▁entien": 5772,
      "ísimas": 5773,
      "▁recordaría": 5774,
      "▁llevarte": 5775,
      "▁enfermó": 5776,
      "▁interesado": 5777,
      "▁metida": 5778,
      "▁delicada": 5779,
      "▁lengua": 5780,
      "luck": 5781,
      "Ayudo": 5782,
      "Perdona": 5783,
      "Rom": 5784,
      "Uh": 5785,
      "▁distinto": 5786,
      "▁enero": 5787,
      "▁asombró": 5788,
      "▁tiraba": 5789,
      "icía": 5790,
      "▁desaparecido": 5791,
      "▁pajaritos": 5792,
      "ctoria": 5793,
      "▁tierno": 5794,
      "▁manguera": 5795,
      "▁policía": 5796,
      "▁feos": 5797,
      "Auch": 5798,
      "▁afortunado": 5799,
      "▁abierto": 5800,
      "brela": 5801,
      "▁sombras": 5802,
      "todo": 5803,
      "Sarah": 5804,
      "pol": 5805,
      "sonó": 5806,
      "▁apaga": 5807,
      "pez": 5808,
      "▁natural": 5809,
      "dis": 5810,
      "▁conseguir": 5811,
      "▁comenzaron": 5812,
      "▁juegas": 5813,
      "▁perdono": 5814,
      "▁corras": 5815,
      "▁flotando": 5816,
      "▁abrirlo": 5817,
      "▁moverla": 5818,
      "▁mantas": 5819,
      "zquier": 5820,
      "▁llueve": 5821,
      "cuche": 5822,
      "Baja": 5823,
      "▁superhero": 5824,
      "▁derri": 5825,
      "▁enamorado": 5826,
      "▁sentados": 5827,
      "▁meses": 5828,
      "▁elegir": 5829,
      "Mueve": 5830,
      "▁estado": 5831,
      "▁nerviosa": 5832,
      "▁evi": 5833,
      "▁compraron": 5834,
      "▁puños": 5835,
      "▁gramos": 5836,
      "Debo": 5837,
      "▁agradecida": 5838,
      "tubre": 5839,
      "▁izquier": 5840,
      "▁comí": 5841,
      "Hue": 5842,
      "Necesitaba": 5843,
      "▁Rex": 5844,
      "▁lastimar": 5845,
      "▁sutil": 5846,
      "▁patadas": 5847,
      "▁espec": 5848,
      "▁pesados": 5849,
      "sla": 5850,
      "Bu": 5851,
      "▁cochecito": 5852,
      "▁pelirroja": 5853,
      "dría": 5854,
      "▁mojarse": 5855,
      "▁vivo": 5856,
      "gual": 5857,
      "Bailamos": 5858,
      "Feli": 5859,
      "▁letras": 5860,
      "▁mel": 5861,
      "gel": 5862,
      "▁disfrutar": 5863,
      "▁lastima": 5864,
      "▁poderos": 5865,
      "▁comprarte": 5866,
      "▁vienen": 5867,
      "▁woof": 5868,
      "▁hun": 5869,
      "▁propi": 5870,
      "▁buf": 5871,
      "ximo": 5872,
      "▁bolso": 5873,
      "▁lami": 5874,
      "Limp": 5875,
      "felices": 5876,
      "▁At": 5877,
      "ayuda": 5878,
      "Ayudare": 5879,
      "Damos": 5880,
      "ove": 5881,
      "Olví": 5882,
      "▁lápices": 5883,
      "▁caricia": 5884,
      "Rodó": 5885,
      "▁varios": 5886,
      "▁regazo": 5887,
      "eme": 5888,
      "▁ponerla": 5889,
      "▁J": 5890,
      "Lad": 5891,
      "▁bajas": 5892,
      "Vola": 5893,
      "▁vimos": 5894,
      "▁isla": 5895,
      "▁moral": 5896,
      "talla": 5897,
      "▁muerto": 5898,
      "gusano": 5899,
      "▁lastimado": 5900,
      "irp": 5901,
      "▁pantalla": 5902,
      "Perdonen": 5903,
      "▁ladrando": 5904,
      "ístete": 5905,
      "▁entristeció": 5906,
      "Pi": 5907,
      "Usare": 5908,
      "▁necesario": 5909,
      "ierra": 5910,
      "ak": 5911,
      "▁salen": 5912,
      "▁pueda": 5913,
      "▁detiene": 5914,
      "Lee": 5915,
      "▁sacarlo": 5916,
      "▁obvio": 5917,
      "aquí": 5918,
      "usieron": 5919,
      "Lluvia": 5920,
      "▁agotado": 5921,
      "▁expl": 5922,
      "▁mete": 5923,
      "Sop": 5924,
      "fas": 5925,
      "Sáquenlo": 5926,
      "▁zumbó": 5927,
      "▁Atlántico": 5928,
      "▁haya": 5929,
      "▁vivían": 5930,
      "▁cerradas": 5931,
      "ár": 5932,
      "gra": 5933,
      "▁brillar": 5934,
      "He": 5935,
      "abeja": 5936,
      "queak": 5937,
      "▁tembló": 5938,
      "rosos": 5939,
      "▁sencilla": 5940,
      "▁abril": 5941,
      "Otra": 5942,
      "▁ayudamos": 5943,
      "▁mismos": 5944,
      "▁ancho": 5945,
      "▁sostenía": 5946,
      "gol": 5947,
      "▁olvidaron": 5948,
      "▁salvado": 5949,
      "ede": 5950,
      "ulio": 5951,
      "▁once": 5952,
      "esto": 5953,
      "▁ayudaste": 5954,
      "▁reunidos": 5955,
      "quina": 5956,
      "ditos": 5957,
      "▁olvida": 5958,
      "Ok": 5959,
      "Ayúdenme": 5960,
      "▁banca": 5961,
      "comió": 5962,
      "come": 5963,
      "▁tremenda": 5964,
      "gosto": 5965,
      "▁diec": 5966,
      "rigera": 5967,
      "▁refrigera": 5968,
      "iocho": 5969,
      "▁dieciocho": 5970,
      "▁refrigerador": 5971,
      "▁correcta": 5972,
      "▁bufanda": 5973,
      "▁juegue": 5974,
      "▁picar": 5975,
      "▁completo": 5976,
      "▁sabes": 5977,
      "▁mezc": 5978,
      "▁adivina": 5979,
      "▁cayendo": 5980,
      "▁salvó": 5981,
      "Tomaron": 5982,
      "Nada": 5983,
      "baila": 5984,
      "▁peleados": 5985,
      "▁juz": 5986,
      "▁cuatro": 5987,
      "▁contes": 5988,
      "▁crayón": 5989,
      "▁agosto": 5990,
      "tad": 5991,
      "▁preparar": 5992,
      "▁punto": 5993,
      "▁diera": 5994,
      "▁vivos": 5995,
      "▁sabrosas": 5996,
      "▁bromas": 5997,
      "Gru": 5998,
      "Dormir": 5999,
      "▁envuelto": 6000,
      "▁caían": 6001,
      "▁octubre": 6002,
      "▁emba": 6003,
      "▁cinco": 6004,
      "tadas": 6005,
      "▁balones": 6006,
      "▁aplaudieron": 6007,
      "▁directo": 6008,
      "▁marzo": 6009,
      "cantó": 6010,
      "▁junio": 6011,
      "Comemos": 6012,
      "vuela": 6013,
      "▁sentirás": 6014,
      "Imag": 6015,
      "Sueltalo": 6016,
      "▁sensa": 6017,
      "▁seguían": 6018,
      "▁treinta": 6019,
      "Pin": 6020,
      "▁sabrosa": 6021,
      "rápido": 6022,
      "▁recibió": 6023,
      "▁clara": 6024,
      "▁cubrió": 6025,
      "▁últimas": 6026,
      "▁perdona": 6027,
      "▁total": 6028,
      "▁duende": 6029,
      "▁rezó": 6030,
      "▁tomado": 6031,
      "▁acostado": 6032,
      "▁alcanzarlas": 6033,
      "▁juzgar": 6034,
      "▁John": 6035,
      "Mirá": 6036,
      "Sentía": 6037,
      "▁sensación": 6038,
      "▁parado": 6039,
      "▁pegarle": 6040,
      "entos": 6041,
      "Delicioso": 6042,
      "▁protegería": 6043,
      "▁malvados": 6044,
      "▁mediodía": 6045,
      "▁pasan": 6046,
      "Llevaba": 6047,
      "▁hacerlos": 6048,
      "▁soñando": 6049,
      "▁lunar": 6050,
      "▁encontramos": 6051,
      "solu": 6052,
      "▁vacías": 6053,
      "▁contaron": 6054,
      "▁querer": 6055,
      "▁dada": 6056,
      "▁esconderme": 6057,
      "▁Pan": 6058,
      "▁fríos": 6059,
      "viste": 6060,
      "Zas": 6061,
      "aremos": 6062,
      "▁conver": 6063,
      "quilos": 6064,
      "▁enseña": 6065,
      "▁quietos": 6066,
      "▁ener": 6067,
      "▁enseñare": 6068,
      "▁abiertas": 6069,
      "▁embaraz": 6070,
      "abajo": 6071,
      "▁corra": 6072,
      "▁fin": 6073,
      "▁usarla": 6074,
      "Mateo": 6075,
      "▁poquito": 6076,
      "▁locos": 6077,
      "▁Papá": 6078,
      "flores": 6079,
      "▁frito": 6080,
      "▁mexicano": 6081,
      "▁solar": 6082,
      "raña": 6083,
      "▁concur": 6084,
      "ván": 6085,
      "▁típi": 6086,
      "Ayuden": 6087,
      "bla": 6088,
      "▁escolar": 6089,
      "▁revolo": 6090,
      "Doña": 6091,
      "▁energía": 6092,
      "▁lunares": 6093,
      "▁muchísimas": 6094,
      "delo": 6095,
      "lá": 6096,
      "Sigue": 6097,
      "Vaya": 6098,
      "▁daría": 6099,
      "▁superheroe": 6100,
      "▁entiende": 6101,
      "ezamos": 6102,
      "▁tires": 6103,
      "▁gustado": 6104,
      "pío": 6105,
      "Comer": 6106,
      "▁concurso": 6107,
      "Compramos": 6108,
      "▁vere": 6109,
      "vántate": 6110,
      "Tomamos": 6111,
      "▁verda": 6112,
      "▁escuchando": 6113,
      "Miraron": 6114,
      "muñecas": 6115,
      "Benny": 6116,
      "▁absolu": 6117,
      "▁peleas": 6118,
      "▁caerse": 6119,
      "Ding": 6120,
      "▁demasiada": 6121,
      "Man": 6122,
      "▁hola": 6123,
      "▁dando": 6124,
      "▁tontas": 6125,
      "▁lejano": 6126,
      "▁evidente": 6127,
      "pan": 6128,
      "▁llamados": 6129,
      "lante": 6130,
      "fer": 6131,
      "▁hú": 6132,
      "Pega": 6133,
      "▁asusto": 6134,
      "▁mayores": 6135,
      "capa": 6136,
      "▁atenta": 6137,
      "▁vid": 6138,
      "mbido": 6139,
      "volvió": 6140,
      "▁similar": 6141,
      "▁cuidadosa": 6142,
      "▁ahogado": 6143,
      "▁rompiera": 6144,
      "▁páginas": 6145,
      "▁frijol": 6146,
      "▁traído": 6147,
      "zan": 6148,
      "▁bás": 6149,
      "Hablare": 6150,
      "▁asombrosa": 6151,
      "▁mitad": 6152,
      "▁claras": 6153,
      "Ambas": 6154,
      "pato": 6155,
      "Pudo": 6156,
      "iba": 6157,
      "ini": 6158,
      "teras": 6159,
      "▁artístico": 6160,
      "camión": 6161,
      "▁perrita": 6162,
      "aste": 6163,
      "▁divertimos": 6164,
      "▁grito": 6165,
      "▁cambi": 6166,
      "Día": 6167,
      "▁embarazoso": 6168,
      "▁saludo": 6169,
      "▁polvo": 6170,
      "▁vería": 6171,
      "▁perdón": 6172,
      "▁jugaran": 6173,
      "▁llamas": 6174,
      "ine": 6175,
      "▁pegada": 6176,
      "abó": 6177,
      "▁cangrejos": 6178,
      "sin": 6179,
      "▁tercera": 6180,
      "Cuidare": 6181,
      "▁distinta": 6182,
      "fini": 6183,
      "▁cielos": 6184,
      "▁calma": 6185,
      "talos": 6186,
      "▁julio": 6187,
      "aloma": 6188,
      "▁clásico": 6189,
      "▁tocara": 6190,
      "▁vendaje": 6191,
      "tanta": 6192,
      "▁progra": 6193,
      "▁sándwiches": 6194,
      "Sabías": 6195,
      "▁revis": 6196,
      "▁soltera": 6197,
      "▁delica": 6198,
      "presas": 6199,
      "▁privado": 6200,
      "▁respeto": 6201,
      "▁prometió": 6202,
      "Ponlo": 6203,
      "▁hombres": 6204,
      "▁sacarla": 6205,
      "▁mayo": 6206,
      "▁verdaderos": 6207,
      "ardilla": 6208,
      "▁presente": 6209,
      "▁balde": 6210,
      "▁zumba": 6211,
      "▁irte": 6212,
      "▁mere": 6213,
      "▁vivieron": 6214,
      "▁golpeaba": 6215,
      "▁rubia": 6216,
      "▁sorpresas": 6217,
      "▁desesperado": 6218,
      "▁moderno": 6219,
      "▁sir": 6220,
      "Regresare": 6221,
      "Sueña": 6222,
      "▁sorbo": 6223,
      "▁futu": 6224,
      "▁petalos": 6225,
      "?\"\n\n\"¡": 6226,
      "▁futuro": 6227,
      "▁redondos": 6228,
      "▁corral": 6229,
      "lobo": 6230,
      "▁ingenioso": 6231,
      "▁enamorados": 6232,
      "▁hueco": 6233,
      "Timmy": 6234,
      "▁sonreía": 6235,
      "Lucas": 6236,
      "▁ayudaban": 6237,
      "▁adelantado": 6238,
      "▁perdí": 6239,
      "▁guarda": 6240,
      "▁creerlo": 6241,
      "compartir": 6242,
      "Olvídelo": 6243,
      "▁rasgu": 6244,
      "▁Clara": 6245,
      "▁saltaban": 6246,
      "▁columpiarme": 6247,
      "rados": 6248,
      "▁maravillosas": 6249,
      "▁ciega": 6250,
      "▁pegues": 6251,
      "despues": 6252,
      "▁trampa": 6253,
      "▁Sarah": 6254,
      "▁herramientas": 6255,
      "didas": 6256,
      "Sabían": 6257,
      "▁encendida": 6258,
      "pregun": 6259,
      "▁simpática": 6260,
      "▁debo": 6261,
      "haz": 6262,
      "▁No": 6263,
      "Gane": 6264,
      "▁oído": 6265,
      "▁busco": 6266,
      "▁despidieron": 6267,
      "▁imaginado": 6268,
      "Pensamos": 6269,
      "▁permiso": 6270,
      "▁suspendido": 6271,
      "▁Noel": 6272,
      "vino": 6273,
      "ink": 6274,
      "▁funciona": 6275,
      "▁ordenado": 6276,
      "creo": 6277,
      "despierta": 6278,
      "hacía": 6279,
      "▁moño": 6280,
      "▁esperaron": 6281,
      "▁foga": 6282,
      "Hora": 6283,
      "Ábrela": 6284,
      "ábla": 6285,
      "Uf": 6286,
      "áblame": 6287,
      "▁aferró": 6288,
      "▁confiar": 6289,
      "Puf": 6290,
      "▁Mama": 6291,
      "▁enteras": 6292,
      "Caminaba": 6293,
      "▁manejar": 6294,
      "▁prefer": 6295,
      "bi": 6296,
      "▁haremos": 6297,
      "▁baratos": 6298,
      "▁pañuelo": 6299,
      "▁bananas": 6300,
      "Tiró": 6301,
      "▁revisó": 6302,
      "▁pacífico": 6303,
      "▁varias": 6304,
      "▁moverlo": 6305,
      "Compraron": 6306,
      "▁programa": 6307,
      "▁fogata": 6308,
      "▁tanque": 6309,
      "▁deberías": 6310,
      "▁sabroso": 6311,
      "▁plana": 6312,
      "▁incapa": 6313,
      "▁puros": 6314,
      "Iba": 6315,
      "iendose": 6316,
      "▁cuernos": 6317,
      "PUM": 6318,
      "▁migas": 6319,
      "▁ayudarles": 6320,
      "▁sonar": 6321,
      "▁cruzar": 6322,
      "▁cuidando": 6323,
      "▁maullaba": 6324,
      "▁cuido": 6325,
      "dero": 6326,
      "naran": 6327,
      "▁mercado": 6328,
      "tán": 6329,
      "▁entender": 6330,
      "▁tiraron": 6331,
      "▁terminar": 6332,
      "▁arb": 6333,
      "▁mantuvo": 6334,
      "▁salidas": 6335,
      "Perdóneme": 6336,
      "▁mismas": 6337,
      "▁vidrio": 6338,
      "Parece": 6339,
      "tran": 6340,
      "Estu": 6341,
      "▁rápidas": 6342,
      "▁risas": 6343,
      "▁decidido": 6344,
      "▁mojados": 6345,
      "cui": 6346,
      "Papa": 6347,
      "▁echa": 6348,
      "venil": 6349,
      "▁pedirle": 6350,
      "▁llegando": 6351,
      "▁gastado": 6352,
      "▁saco": 6353,
      "▁dejaba": 6354,
      "▁rebotar": 6355,
      "ki": 6356,
      "Recuerda": 6357,
      "▁giró": 6358,
      "▁Rosa": 6359,
      "Escucha": 6360,
      "Escri": 6361,
      "▁juvenil": 6362,
      "▁divirtiendo": 6363,
      "ctos": 6364,
      "▁justa": 6365,
      "Cierra": 6366,
      "▁caderas": 6367,
      "▁defini": 6368,
      "▁cortado": 6369,
      "rir": 6370,
      "▁incapaz": 6371,
      "▁sienten": 6372,
      "▁íntimo": 6373,
      "▁cep": 6374,
      "Levántate": 6375,
      "▁intenso": 6376,
      "▁alumnos": 6377,
      "▁imaginar": 6378,
      "Ganare": 6379,
      "▁encontraría": 6380,
      "▁luchar": 6381,
      "ganes": 6382,
      "▁obede": 6383,
      "Empezamos": 6384,
      "tete": 6385,
      "▁típico": 6386,
      "▁logrado": 6387,
      "▁sostener": 6388,
      "escuch": 6389,
      "▁puen": 6390,
      "golpe": 6391,
      "▁leyeron": 6392,
      "▁madres": 6393,
      "cayó": 6394,
      "dimos": 6395,
      "Mírate": 6396,
      "▁tranquilos": 6397,
      "zanas": 6398,
      "▁perdon": 6399,
      "▁errores": 6400,
      "toma": 6401,
      "caste": 6402,
      "tic": 6403,
      "▁dormidos": 6404,
      "boom": 6405,
      "▁antiguo": 6406,
      "Mo": 6407,
      "Má": 6408,
      "▁crujientes": 6409,
      "Todavía": 6410,
      "Entra": 6411,
      "pitán": 6412,
      "▁famosos": 6413,
      "otras": 6414,
      "▁dó": 6415,
      "▁lloraron": 6416,
      "▁terminaron": 6417,
      "▁cai": 6418,
      "▁limpiaron": 6419,
      "ose": 6420,
      "▁golpes": 6421,
      "▁rin": 6422,
      "▁guapa": 6423,
      "Muevete": 6424,
      "calo": 6425,
      "▁melena": 6426,
      "Gal": 6427,
      "▁perfectos": 6428,
      "▁tama": 6429,
      "▁regresa": 6430,
      "▁perdidos": 6431,
      "Duele": 6432,
      "Preguntó": 6433,
      "Debería": 6434,
      "▁cerrados": 6435,
      "león": 6436,
      "Dile": 6437,
      "Mar": 6438,
      "▁recu": 6439,
      "▁arru": 6440,
      "Perdiste": 6441,
      "▁varita": 6442,
      "▁telaraña": 6443,
      "▁puente": 6444,
      "▁parados": 6445,
      "lash": 6446,
      "Traba": 6447,
      "▁acercaba": 6448,
      "▁refle": 6449,
      "▁charcos": 6450,
      "Tres": 6451,
      "▁tomas": 6452,
      "▁arreglada": 6453,
      "▁enfermos": 6454,
      "ráelo": 6455,
      "▁artificiales": 6456,
      "limp": 6457,
      "regres": 6458,
      "bajó": 6459,
      "▁sex": 6460,
      "hijo": 6461,
      "▁contestó": 6462,
      "ciera": 6463,
      "▁lamer": 6464,
      "inco": 6465,
      "Jack": 6466,
      "▁serás": 6467,
      "omas": 6468,
      "▁encontraste": 6469,
      "▁panqueque": 6470,
      "▁jirafas": 6471,
      "▁capitán": 6472,
      "▁graciosa": 6473,
      "▁avi": 6474,
      "dia": 6475,
      "▁empujón": 6476,
      "pájaros": 6477,
      "▁llan": 6478,
      "▁golpeando": 6479,
      "▁conocía": 6480,
      "Mucho": 6481,
      "▁victoria": 6482,
      "Bobo": 6483,
      "▁cristiano": 6484,
      "▁hayas": 6485,
      "ll": 6486,
      "▁reímos": 6487,
      "▁preocupó": 6488,
      "▁hablaban": 6489,
      "▁preocupara": 6490,
      "▁sentían": 6491,
      "lares": 6492,
      "bres": 6493,
      "clui": 6494,
      "Busquen": 6495,
      "▁encantaron": 6496,
      ".\"\n\n\"¡": 6497,
      "▁principio": 6498,
      "▁activa": 6499,
      "▁aviones": 6500,
      "▁pagó": 6501,
      "▁siren": 6502,
      "▁sentirte": 6503,
      "▁gemelo": 6504,
      "▁bib": 6505,
      "▁excelentes": 6506,
      "▁guardado": 6507,
      "yera": 6508,
      "Sería": 6509,
      "Anda": 6510,
      "Osito": 6511,
      "▁estuvieron": 6512,
      "▁saludables": 6513,
      "▁amado": 6514,
      "▁patata": 6515,
      "▁novio": 6516,
      "▁margaritas": 6517,
      "▁apagada": 6518,
      "▁encender": 6519,
      "▁usaron": 6520,
      "Buena": 6521,
      "▁fuente": 6522,
      "▁quemada": 6523,
      "▁rayos": 6524,
      "▁cambiado": 6525,
      "▁madura": 6526,
      "▁parecido": 6527,
      "▁arrastra": 6528,
      "sab": 6529,
      "▁segui": 6530,
      "Podre": 6531,
      "ectar": 6532,
      "Bailaba": 6533,
      "▁seis": 6534,
      "▁olvidaría": 6535,
      "▁aman": 6536,
      "ñanas": 6537,
      "▁menudo": 6538,
      "Pat": 6539,
      "care": 6540,
      "!\"!": 6541,
      "Siento": 6542,
      "▁Bob": 6543,
      "▁bienveni": 6544,
      "▁mordis": 6545,
      "tiendose": 6546,
      "▁metal": 6547,
      "Sintió": 6548,
      "▁morado": 6549,
      "Estábamos": 6550,
      "Jugarían": 6551,
      "▁enojadas": 6552,
      "▁ardillas": 6553,
      "encia": 6554,
      "▁ayud": 6555,
      "▁papeles": 6556,
      "▁pintado": 6557,
      "apar": 6558,
      "Bienvenido": 6559,
      "Pido": 6560,
      "bana": 6561,
      "Será": 6562,
      "▁quisiera": 6563,
      "Háblame": 6564,
      "Dorm": 6565,
      "▁terminada": 6566,
      "▁sentimos": 6567,
      "▁claro": 6568,
      "culpa": 6569,
      "hab": 6570,
      "estos": 6571,
      "▁víboras": 6572,
      "Pasaron": 6573,
      "Empujó": 6574,
      "já": 6575,
      "▁superior": 6576,
      "Vemos": 6577,
      "Unos": 6578,
      "▁reflejo": 6579,
      "▁grupo": 6580,
      "▁conoció": 6581,
      "Comí": 6582,
      "▁jugosa": 6583,
      "▁uva": 6584,
      "▁creciendo": 6585,
      "▁soña": 6586,
      "▁trabajaron": 6587,
      "Volver": 6588,
      "Vístete": 6589,
      "Dejó": 6590,
      "algunos": 6591,
      "▁moviendo": 6592,
      "tili": 6593,
      "▁salud": 6594,
      "▁útiles": 6595,
      "▁salpi": 6596,
      "▁cavó": 6597,
      "▁balanceaba": 6598,
      "▁digas": 6599,
      "▁económico": 6600,
      "jiste": 6601,
      "▁serían": 6602,
      "▁arañó": 6603,
      "▁adivinar": 6604,
      "▁gira": 6605,
      "Ayúda": 6606,
      "▁ciertas": 6607,
      "▁destrozado": 6608,
      "▁espinas": 6609,
      "tus": 6610,
      "tín": 6611,
      "corrieron": 6612,
      "▁T": 6613,
      "dicen": 6614,
      "▁demasiados": 6615,
      "▁mañanas": 6616,
      "▁ponerte": 6617,
      "▁hundió": 6618,
      "vemos": 6619,
      "▁disfrutaba": 6620,
      "▁ranas": 6621,
      "gall": 6622,
      "▁cuerdas": 6623,
      "Ajá": 6624,
      "▁amist": 6625,
      "▁amistoso": 6626,
      "otes": 6627,
      "▁habitaciones": 6628,
      "Recor": 6629,
      "Dí": 6630,
      "illy": 6631,
      "Ex": 6632,
      "▁peleen": 6633,
      "Abra": 6634,
      "Pro": 6635,
      "▁verdadera": 6636,
      "▁sexto": 6637,
      "▁estare": 6638,
      "▁estupido": 6639,
      "struyeron": 6640,
      "▁reí": 6641,
      "▁bañarse": 6642,
      "▁vomitar": 6643,
      "▁estúpi": 6644,
      "don": 6645,
      "▁perfectas": 6646,
      "gotes": 6647,
      "trás": 6648,
      "Dales": 6649,
      "▁americana": 6650,
      "naron": 6651,
      "mono": 6652,
      "Julio": 6653,
      "▁nectar": 6654,
      "buscó": 6655,
      "Atra": 6656,
      "▁extraordina": 6657,
      "▁puse": 6658,
      "▁besar": 6659,
      "▁aprobado": 6660,
      "▁infan": 6661,
      "carse": 6662,
      "▁debido": 6663,
      "▁intenta": 6664,
      "bes": 6665,
      "selo": 6666,
      "eno": 6667,
      "Resp": 6668,
      "▁marcado": 6669,
      "Tranquila": 6670,
      "Oíste": 6671,
      "▁pica": 6672,
      "ap": 6673,
      "▁traves": 6674,
      "▁escuchado": 6675,
      "▁entregó": 6676,
      "▁favoritas": 6677,
      "otra": 6678,
      "Jugaremos": 6679,
      "árboles": 6680,
      "Tó": 6681,
      "▁salía": 6682,
      "▁gritando": 6683,
      "mirando": 6684,
      "Llegamos": 6685,
      "▁seguras": 6686,
      "todavía": 6687,
      "Pien": 6688,
      "▁disfrutó": 6689,
      "▁preferido": 6690,
      "Quack": 6691,
      "toño": 6692,
      "▁máximo": 6693,
      "▁balancearse": 6694,
      "Nadó": 6695,
      "▁deslizar": 6696,
      "▁utili": 6697,
      "▁encontraba": 6698,
      "▁apare": 6699,
      "▁nadaban": 6700,
      "bido": 6701,
      "▁tardes": 6702,
      "▁tenedor": 6703,
      "▁bebía": 6704,
      "gieron": 6705,
      "▁apagado": 6706,
      "▁otoño": 6707,
      "algunas": 6708,
      "▁mostrarle": 6709,
      "ientos": 6710,
      ".\n\"¿": 6711,
      "Cerró": 6712,
      "Tóma": 6713,
      "▁quitarle": 6714,
      "▁llevo": 6715,
      "▁traviesos": 6716,
      "Dio": 6717,
      "úlla": 6718,
      "▁ronronea": 6719,
      "amarillos": 6720,
      "▁serán": 6721,
      "▁profunda": 6722,
      "▁jugosas": 6723,
      "eep": 6724,
      "Ki": 6725,
      "▁peleado": 6726,
      "▁truenos": 6727,
      "▁media": 6728,
      "ave": 6729,
      "▁pasas": 6730,
      "Has": 6731,
      "Comía": 6732,
      "▁hago": 6733,
      "how": 6734,
      "▁llegamos": 6735,
      "rimos": 6736,
      "▁show": 6737,
      "ovejas": 6738,
      "▁maúlla": 6739,
      "▁saludar": 6740,
      "Lloraba": 6741,
      "▁subía": 6742,
      "▁infantil": 6743,
      "▁sopla": 6744,
      "▁pusimos": 6745,
      "▁temblar": 6746,
      "▁crecía": 6747,
      "▁inocentes": 6748,
      "vivíamos": 6749,
      "▁gracia": 6750,
      "Pongo": 6751,
      "▁antiguas": 6752,
      "▁atada": 6753,
      "▁cuidarse": 6754,
      "▁comieras": 6755,
      "Azul": 6756,
      "Teníamos": 6757,
      "hace": 6758,
      "necesito": 6759,
      "▁casera": 6760,
      "▁calaba": 6761,
      "▁españoles": 6762,
      "lena": 6763,
      "Pasamos": 6764,
      "▁ciu": 6765,
      "▁caerá": 6766,
      "▁detener": 6767,
      "justo": 6768,
      "tita": 6769,
      "▁calentó": 6770,
      "▁orgullosos": 6771,
      "abra": 6772,
      "Deci": 6773,
      "▁tendrás": 6774,
      "▁calcetín": 6775,
      "▁practicó": 6776,
      "▁serios": 6777,
      "elefantes": 6778,
      "▁tenerla": 6779,
      "cabal": 6780,
      "Recordó": 6781,
      "▁volara": 6782,
      "▁bigotes": 6783,
      "Duermes": 6784,
      "río": 6785,
      "▁llamo": 6786,
      "▁toque": 6787,
      "Dímelo": 6788,
      "rán": 6789,
      "vuelve": 6790,
      "cerdos": 6791,
      "▁enseñarte": 6792,
      "▁superficial": 6793,
      "Usó": 6794,
      "▁oruga": 6795,
      "▁morir": 6796,
      "▁cerraron": 6797,
      "▁país": 6798,
      "▁cuesta": 6799,
      "▁húme": 6800,
      "▁chistos": 6801,
      "aún": 6802,
      "▁hablas": 6803,
      "▁llanto": 6804,
      "▁ciudad": 6805,
      "Hazle": 6806,
      "Bienvenidos": 6807,
      "Llevó": 6808,
      "▁derra": 6809,
      "▁forzado": 6810,
      "▁buscan": 6811,
      "rack": 6812,
      "▁pincel": 6813,
      "▁bajando": 6814,
      "Miren": 6815,
      "▁vestir": 6816,
      "▁eli": 6817,
      "▁Jesucristo": 6818,
      "▁gavio": 6819,
      "cuatro": 6820,
      "**.": 6821,
      "▁atrapaba": 6822,
      "▁quedarme": 6823,
      "amigos": 6824,
      "▁pasará": 6825,
      "▁aprendiendo": 6826,
      "▁ayudante": 6827,
      "▁máxima": 6828,
      "▁agi": 6829,
      "▁desaparecer": 6830,
      "▁abrazarlo": 6831,
      "▁estabas": 6832,
      "▁dejara": 6833,
      "▁informado": 6834,
      "Sácalo": 6835,
      "necesitas": 6836,
      "▁cabía": 6837,
      "▁extraordinario": 6838,
      "Vivía": 6839,
      "▁saliera": 6840,
      "▁perdonado": 6841,
      "▁picote": 6842,
      "Ama": 6843,
      "▁podrían": 6844,
      "▁gasol": 6845,
      "pens": 6846,
      "▁vistió": 6847,
      "▁boc": 6848,
      "Carro": 6849,
      "▁dijera": 6850,
      "Hago": 6851,
      "▁cerezas": 6852,
      "▁tamaño": 6853,
      "▁cuidarte": 6854,
      "▁decían": 6855,
      "▁resbaladi": 6856,
      "debemos": 6857,
      "igual": 6858,
      "autos": 6859,
      "osito": 6860,
      "deja": 6861,
      "Llevalo": 6862,
      "media": 6863,
      "Mmmm": 6864,
      "▁rosado": 6865,
      "▁patita": 6866,
      "▁cuadra": 6867,
      "Mucha": 6868,
      "Cantó": 6869,
      "▁puedas": 6870,
      "▁preparando": 6871,
      "▁jarra": 6872,
      "hola": 6873,
      "fru": 6874,
      "bablemente": 6875,
      "▁moviendose": 6876,
      "▁abiertos": 6877,
      "▁morena": 6878,
      "▁avis": 6879,
      "▁silbido": 6880,
      "pere": 6881,
      "▁pobres": 6882,
      "amarilla": 6883,
      "Abre": 6884,
      "ke": 6885,
      "▁acabó": 6886,
      "▁estarían": 6887,
      "rueno": 6888,
      "amás": 6889,
      "juguemos": 6890,
      "▁izquierda": 6891,
      "▁aterra": 6892,
      "▁explotó": 6893,
      "▁máquina": 6894,
      "Pate": 6895,
      "▁crecen": 6896,
      "▁propios": 6897,
      "▁mezcló": 6898,
      "▁jamás": 6899,
      "inilla": 6900,
      "Vuelvo": 6901,
      "Woo": 6902,
      "baja": 6903,
      "Pastel": 6904,
      "▁elevó": 6905,
      "Comeremos": 6906,
      "▁tenga": 6907,
      "Apaguen": 6908,
      "▁ando": 6909,
      "▁local": 6910,
      "▁pinturas": 6911,
      "blan": 6912,
      "▁jugarían": 6913,
      "▁plantar": 6914,
      "▁graves": 6915,
      "▁bajaba": 6916,
      "corría": 6917,
      "▁escapa": 6918,
      "▁chocó": 6919,
      "▁escondidos": 6920,
      "▁discu": 6921,
      "Tuve": 6922,
      "▁llevarme": 6923,
      "Dormiste": 6924,
      "▁insectos": 6925,
      "▁graciosos": 6926,
      "▁ganado": 6927,
      "▁poderosos": 6928,
      "▁clavo": 6929,
      "cone": 6930,
      "▁domingos": 6931,
      "▁mordisco": 6932,
      "Disculpa": 6933,
      "▁vuelven": 6934,
      "▁claros": 6935,
      "Chirp": 6936,
      "▁gane": 6937,
      "Apestas": 6938,
      "▁coman": 6939,
      "▁honestos": 6940,
      "▁dejado": 6941,
      "▁enga": 6942,
      "Quites": 6943,
      "▁ayudaremos": 6944,
      "Dilo": 6945,
      "rojas": 6946,
      "▁gordas": 6947,
      "Soñaba": 6948,
      "▁turnaron": 6949,
      "▁cambian": 6950,
      "▁enseñarme": 6951,
      "be": 6952,
      "▁hacerme": 6953,
      "▁ninguno": 6954,
      "Segu": 6955,
      "▁cenaron": 6956,
      "Iremos": 6957,
      "▁amorosa": 6958,
      "▁gritaba": 6959,
      "Lana": 6960,
      "▁posibles": 6961,
      "▁gruesos": 6962,
      "▁positiva": 6963,
      "gón": 6964,
      "patos": 6965,
      "busca": 6966,
      "urró": 6967,
      "Traigo": 6968,
      "▁agitó": 6969,
      "ticos": 6970,
      "▁conocido": 6971,
      "roja": 6972,
      "▁doradas": 6973,
      "▁funcionó": 6974,
      "Hacen": 6975,
      "▁giraban": 6976,
      "vaca": 6977,
      "▁asientos": 6978,
      "▁construyendo": 6979,
      "Aprender": 6980,
      "dades": 6981,
      "azúcar": 6982,
      "Gritaron": 6983,
      "▁cuenco": 6984,
      "▁hechas": 6985,
      "▁casado": 6986,
      "wee": 6987,
      "▁quitarse": 6988,
      "fo": 6989,
      "▁deseado": 6990,
      "▁sonrí": 6991,
      "▁codi": 6992,
      "▁secas": 6993,
      "▁unido": 6994,
      "▁toboganes": 6995,
      "Parecían": 6996,
      "Olvidó": 6997,
      "▁creativa": 6998,
      "ernos": 6999,
      "Ton": 7000,
      "▁sentarnos": 7001,
      "Viste": 7002,
      "▁compartido": 7003,
      "▁colorido": 7004,
      "▁seña": 7005,
      "▁cerrar": 7006,
      "▁incen": 7007,
      "▁cambio": 7008,
      "caminaba": 7009,
      "▁puch": 7010,
      "▁volverían": 7011,
      "Bajó": 7012,
      "encontre": 7013,
      "Subieron": 7014,
      "▁caracoles": 7015,
      "vier": 7016,
      "▁definitiva": 7017,
      "▁arbusto": 7018,
      "▁fijo": 7019,
      "bados": 7020,
      "▁estudió": 7021,
      "Mon": 7022,
      "▁H": 7023,
      "muñeca": 7024,
      "▁delicadas": 7025,
      "ctor": 7026,
      "clo": 7027,
      "▁pila": 7028,
      "▁crecieron": 7029,
      "▁caíste": 7030,
      "▁primeras": 7031,
      "comp": 7032,
      "▁grano": 7033,
      "citaciones": 7034,
      "Flores": 7035,
      "▁venían": 7036,
      "abre": 7037,
      "Pico": 7038,
      "zt": 7039,
      "▁fieles": 7040,
      "▁costará": 7041,
      "Tráelo": 7042,
      "cog": 7043,
      "jugamos": 7044,
      "▁aplauso": 7045,
      "▁extrañe": 7046,
      "▁caída": 7047,
      "leó": 7048,
      "Golpeó": 7049,
      "Cas": 7050,
      "Pusieron": 7051,
      "bril": 7052,
      "Mátalo": 7053,
      "▁be": 7054,
      "▁mordía": 7055,
      "▁ronrone": 7056,
      "weet": 7057,
      "▁llevarse": 7058,
      "pió": 7059,
      "▁compro": 7060,
      "▁reg": 7061,
      "Debajo": 7062,
      "▁sentimiento": 7063,
      "▁mejilla": 7064,
      "▁cebollas": 7065,
      "▁autentico": 7066,
      "Pegale": 7067,
      "▁gritos": 7068,
      "▁precisa": 7069,
      "▁autentica": 7070,
      "▁apretada": 7071,
      "▁mín": 7072,
      "Yum": 7073,
      "saltó": 7074,
      "uelas": 7075,
      "▁patada": 7076,
      "jame": 7077,
      "▁extraordinaria": 7078,
      "galle": 7079,
      "Ayudarás": 7080,
      "▁deslizaron": 7081,
      "▁compartirla": 7082,
      "▁asustarse": 7083,
      "▁secretos": 7084,
      "ciosa": 7085,
      "necesita": 7086,
      "Salta": 7087,
      "▁agarra": 7088,
      "Hablas": 7089,
      "Encontramos": 7090,
      "▁revoloteó": 7091,
      "Splash": 7092,
      "▁sentarme": 7093,
      "Hueles": 7094,
      "▁ciertos": 7095,
      "▁necesaria": 7096,
      "Veían": 7097,
      "▁Conejo": 7098,
      "▁bocado": 7099,
      "▁anun": 7100,
      "▁usan": 7101,
      "▁esconderte": 7102,
      "▁molesta": 7103,
      "▁muestra": 7104,
      "▁coloca": 7105,
      "▁delga": 7106,
      "▁anz": 7107,
      "▁enojara": 7108,
      "pecto": 7109,
      "▁aspecto": 7110,
      "▁tomes": 7111,
      "cales": 7112,
      "▁rasguño": 7113,
      "?\".\n\n\"": 7114,
      "▁angel": 7115,
      "▁vainilla": 7116,
      "mosca": 7117,
      "▁vendía": 7118,
      "▁acaba": 7119,
      "Vien": 7120,
      "Ladró": 7121,
      "▁cortada": 7122,
      "▁diamantes": 7123,
      "▁decepcionada": 7124,
      "Fuiste": 7125,
      "ridos": 7126,
      "▁coge": 7127,
      "▁guan": 7128,
      "Saltaron": 7129,
      "duer": 7130,
      "mando": 7131,
      "▁hacemos": 7132,
      "▁lina": 7133,
      "apareció": 7134,
      "paloma": 7135,
      "▁contare": 7136,
      "liote": 7137,
      "▁anzuelo": 7138,
      "▁bibliote": 7139,
      "▁inmedia": 7140,
      "hijita": 7141,
      "lido": 7142,
      "pum": 7143,
      "esas": 7144,
      "▁fla": 7145,
      "Alguien": 7146,
      "dibu": 7147,
      "?!\"": 7148,
      "▁iría": 7149,
      "▁cocos": 7150,
      "▁calentar": 7151,
      "grejo": 7152,
      "▁maravillosa": 7153,
      "▁piezas": 7154,
      "jimos": 7155,
      "▁pobrecito": 7156,
      "▁flotar": 7157,
      "Probablemente": 7158,
      "▁nevera": 7159,
      "▁cuidador": 7160,
      "▁pregunte": 7161,
      "▁tosió": 7162,
      "▁invitar": 7163,
      "▁plantó": 7164,
      "Bril": 7165,
      "▁conocerlo": 7166,
      "▁escu": 7167,
      "▁colore": 7168,
      "▁derramó": 7169,
      "astre": 7170,
      "▁blando": 7171,
      "▁hablara": 7172,
      "▁haga": 7173,
      "Podías": 7174,
      "▁patearla": 7175,
      "elefante": 7176,
      "▁cerditos": 7177,
      "▁delf": 7178,
      "limpia": 7179,
      "▁hechi": 7180,
      "▁joyas": 7181,
      "Nues": 7182,
      "Comere": 7183,
      "podría": 7184,
      "Salieron": 7185,
      "▁reglas": 7186,
      "▁desastre": 7187,
      "▁anuncio": 7188,
      "Vió": 7189,
      "Corrimos": 7190,
      "pal": 7191,
      "gon": 7192,
      "Decía": 7193,
      "▁salpicó": 7194,
      "▁preparados": 7195,
      "▁sabia": 7196,
      "▁frita": 7197,
      "taste": 7198,
      "▁encontraremos": 7199,
      "señor": 7200,
      "▁acercarse": 7201,
      "▁escondes": 7202,
      "ibles": 7203,
      "comieron": 7204,
      "Sabe": 7205,
      "▁conoce": 7206,
      "▁estupen": 7207,
      "▁apestaba": 7208,
      "▁mueven": 7209,
      "▁esconden": 7210,
      "▁peleando": 7211,
      "Hagamos": 7212,
      "Shh": 7213,
      "ambos": 7214,
      "▁rebana": 7215,
      "▁masticaba": 7216,
      "aa": 7217,
      "▁dolían": 7218,
      "exp": 7219,
      "▁tarro": 7220,
      "divina": 7221,
      "gemelas": 7222,
      "▁seguido": 7223,
      "▁besaba": 7224,
      "▁cuidará": 7225,
      "▁metas": 7226,
      "llegaron": 7227,
      "Abe": 7228,
      "jen": 7229,
      "galletas": 7230,
      "Intenta": 7231,
      "Crack": 7232,
      "▁importó": 7233,
      "▁Paco": 7234,
      "▁cuidaron": 7235,
      "▁atentos": 7236,
      "▁crez": 7237,
      "▁derritió": 7238,
      "Cuán": 7239,
      "▁acci": 7240,
      "▁cereza": 7241,
      "Dan": 7242,
      "sube": 7243,
      "Caba": 7244,
      "▁gasolina": 7245,
      "▁estropeada": 7246,
      "▁merecido": 7247,
      "cangrejo": 7248,
      "▁dejarlo": 7249,
      "▁conducía": 7250,
      "▁baya": 7251,
      "icos": 7252,
      "▁probable": 7253,
      "▁bienvenido": 7254,
      "▁cubierto": 7255,
      "▁Squeak": 7256,
      "▁sonríen": 7257,
      "▁extrañaba": 7258,
      "Hacer": 7259,
      "Levan": 7260,
      "▁sábados": 7261,
      "▁lanzaron": 7262,
      "▁perdonar": 7263,
      "▁curar": 7264,
      "ayudar": 7265,
      "cias": 7266,
      "apa": 7267,
      "▁rodeados": 7268,
      "▁paño": 7269,
      "Jugarón": 7270,
      "▁aver": 7271,
      "▁banderas": 7272,
      "Llevamos": 7273,
      "▁guantes": 7274,
      "▁tomada": 7275,
      "dragón": 7276,
      "Decidió": 7277,
      "▁arreglarlas": 7278,
      "caracol": 7279,
      "▁oscuros": 7280,
      "Soñe": 7281,
      "resas": 7282,
      "▁metieron": 7283,
      "▁avergon": 7284,
      "▁cargó": 7285,
      "▁hechizo": 7286,
      "▁zumbido": 7287,
      "▁lucharon": 7288,
      "Ka": 7289,
      "▁eligió": 7290,
      "▁sonaban": 7291,
      "▁latía": 7292,
      "▁ensuciar": 7293,
      "araña": 7294,
      "ómica": 7295,
      "Jaja": 7296,
      "▁picaron": 7297,
      "▁tocas": 7298,
      "▁usarlo": 7299,
      "▁asuste": 7300,
      "▁cayera": 7301,
      "cluido": 7302,
      "▁baratas": 7303,
      "Pagamos": 7304,
      "▁caparazón": 7305,
      "▁maravillosos": 7306,
      "▁salida": 7307,
      "Zzzzt": 7308,
      "▁estarán": 7309,
      "▁fuiste": 7310,
      "▁pues": 7311,
      "▁tún": 7312,
      "Gruñ": 7313,
      "Cortó": 7314,
      "OO": 7315,
      "▁debían": 7316,
      "▁hacerle": 7317,
      "▁interesantes": 7318,
      "Volaron": 7319,
      "Cluck": 7320,
      "Podrás": 7321,
      "▁pinzas": 7322,
      "▁ladió": 7323,
      "▁Fluffy": 7324,
      "▁llegan": 7325,
      "▁vuelva": 7326,
      "▁moviera": 7327,
      "Vengan": 7328,
      "▁comprara": 7329,
      "▁gusten": 7330,
      "Sacare": 7331,
      "▁llovía": 7332,
      "▁dólar": 7333,
      "Agar": 7334,
      "▁comeremos": 7335,
      "▁escribe": 7336,
      "▁flotó": 7337,
      "▁salvar": 7338,
      "▁exacto": 7339,
      "▁ruidosas": 7340,
      "Olvide": 7341,
      "▁Tito": 7342,
      "ueba": 7343,
      "▁granos": 7344,
      "romp": 7345,
      "Rico": 7346,
      "▁completa": 7347,
      "▁escuelas": 7348,
      "▁traería": 7349,
      "▁primeros": 7350,
      "vete": 7351,
      "▁calabaza": 7352,
      "▁signo": 7353,
      "tren": 7354,
      "▁enfermar": 7355,
      "Iban": 7356,
      "Sabrás": 7357,
      "Escon": 7358,
      "▁celebrarlo": 7359,
      "eas": 7360,
      "Coc": 7361,
      "Cuida": 7362,
      "▁glas": 7363,
      "Ac": 7364,
      "▁divertirte": 7365,
      "▁artista": 7366,
      "▁compartían": 7367,
      "cidades": 7368,
      "Nie": 7369,
      "llueve": 7370,
      "▁gustara": 7371,
      "▁principales": 7372,
      "▁escrito": 7373,
      "▁apesta": 7374,
      "Felicitaciones": 7375,
      "haciendo": 7376,
      "▁rodaron": 7377,
      "▁aventuras": 7378,
      "caminaron": 7379,
      "buscando": 7380,
      "luvi": 7381,
      "▁escucharlo": 7382,
      "▁Dan": 7383,
      "Felicidades": 7384,
      "▁página": 7385,
      "ríe": 7386,
      "▁lluvi": 7387,
      "▁bajos": 7388,
      "▁golpees": 7389,
      "▁entraba": 7390,
      "▁glaseado": 7391,
      "hue": 7392,
      "▁tirón": 7393,
      "▁alimentar": 7394,
      "▁gemela": 7395,
      "▁flojo": 7396,
      "Haremos": 7397,
      "imo": 7398,
      "Encontraremos": 7399,
      "cach": 7400,
      "▁gritaban": 7401,
      "▁dormían": 7402,
      "▁estúpidas": 7403,
      "▁cantas": 7404,
      "▁alejar": 7405,
      "▁curó": 7406,
      "▁húmeda": 7407,
      "▁guau": 7408,
      "abrió": 7409,
      "coc": 7410,
      "laron": 7411,
      "▁cump": 7412,
      "chuga": 7413,
      "Kate": 7414,
      "▁arreglarla": 7415,
      "▁persigue": 7416,
      "Amigo": 7417,
      "Daban": 7418,
      "▁sonrisas": 7419,
      "▁balancearon": 7420,
      "gaste": 7421,
      "▁subirme": 7422,
      "▁codicioso": 7423,
      "▁subiendo": 7424,
      "Abri": 7425,
      "Bar": 7426,
      "▁comerme": 7427,
      "▁exactamente": 7428,
      "▁acog": 7429,
      "▁Maria": 7430,
      "cerdo": 7431,
      "▁sediento": 7432,
      "sino": 7433,
      "tío": 7434,
      "miró": 7435,
      "ormes": 7436,
      "ormigas": 7437,
      "▁pones": 7438,
      "Sammy": 7439,
      "Miauuu": 7440,
      "explicó": 7441,
      "▁equivoc": 7442,
      "▁atraparlos": 7443,
      "Llevala": 7444,
      "apren": 7445,
      "▁comería": 7446,
      "▁patitos": 7447,
      "rana": 7448,
      "▁dejas": 7449,
      "▁femenino": 7450,
      "Pá": 7451,
      "frío": 7452,
      "▁llevado": 7453,
      "Zo": 7454,
      "▁ladó": 7455,
      "Contó": 7456,
      "Veía": 7457,
      "▁dejaría": 7458,
      "rco": 7459,
      "soñe": 7460,
      "▁vendrá": 7461,
      "▁practicaba": 7462,
      "▁arrastraba": 7463,
      "▁F": 7464,
      "▁suje": 7465,
      "▁ordenada": 7466,
      "pollo": 7467,
      "▁jugare": 7468,
      "▁ofre": 7469,
      "▁pondrás": 7470,
      "Imaginó": 7471,
      "▁ins": 7472,
      "Tocaba": 7473,
      "by": 7474,
      "▁estan": 7475,
      "▁enfri": 7476,
      "?\"\n\"": 7477,
      "Pintó": 7478,
      "▁fuerzas": 7479,
      "▁escalar": 7480,
      "▁confia": 7481,
      "▁sorprendieron": 7482,
      "▁salto": 7483,
      "coche": 7484,
      "▁femenina": 7485,
      "jaba": 7486,
      "▁tazas": 7487,
      "carro": 7488,
      "Ponemos": 7489,
      "Ganó": 7490,
      "▁quita": 7491,
      "debajo": 7492,
      "▁encendido": 7493,
      "Señ": 7494,
      "Ayudaste": 7495,
      "Busco": 7496,
      "▁vendedor": 7497,
      "piente": 7498,
      "▁usarlos": 7499,
      "cluck": 7500,
      "▁atraparlas": 7501,
      "▁corte": 7502,
      "cierna": 7503,
      "▁doler": 7504,
      "mamos": 7505,
      "▁tromb": 7506,
      "Debía": 7507,
      "▁sintiendose": 7508,
      "tería": 7509,
      "▁maneras": 7510,
      "▁mojadas": 7511,
      "▁brincó": 7512,
      "tazo": 7513,
      "Creció": 7514,
      "Kiki": 7515,
      "▁ay": 7516,
      "▁bienvenida": 7517,
      "pin": 7518,
      "terías": 7519,
      "▁propó": 7520,
      "caminó": 7521,
      "▁propósito": 7522,
      "▁chimen": 7523,
      "▁cerdito": 7524,
      "eren": 7525,
      "tina": 7526,
      "▁sabemos": 7527,
      "▁tri": 7528,
      "▁aro": 7529,
      "▁cuidan": 7530,
      "▁preciosos": 7531,
      "▁menores": 7532,
      "▁columpia": 7533,
      "▁regresaría": 7534,
      "▁olfate": 7535,
      "pica": 7536,
      "▁docto": 7537,
      "▁escondiendo": 7538,
      "▁chimenea": 7539,
      "▁envolvió": 7540,
      "difi": 7541,
      "▁amamos": 7542,
      "▁enseñarle": 7543,
      "▁edifi": 7544,
      "Tome": 7545,
      "▁tomarla": 7546,
      "▁ambas": 7547,
      "▁hicimos": 7548,
      "▁agradeció": 7549,
      "▁sere": 7550,
      "▁ciegos": 7551,
      "▁cogerlo": 7552,
      "▁tocaras": 7553,
      "▁lucierna": 7554,
      "▁raspa": 7555,
      "maes": 7556,
      "llamó": 7557,
      "yen": 7558,
      "▁cuidarlos": 7559,
      "▁protegió": 7560,
      "empu": 7561,
      "naranjas": 7562,
      "▁preocuparse": 7563,
      "▁traigo": 7564,
      "▁molestar": 7565,
      "rrr": 7566,
      "▁susurró": 7567,
      "▁aguja": 7568,
      "quemos": 7569,
      "eada": 7570,
      "▁quede": 7571,
      "▁sandía": 7572,
      "▁escrita": 7573,
      "▁dibujando": 7574,
      "volvieron": 7575,
      "▁cuidaban": 7576,
      "▁dong": 7577,
      "▁protegere": 7578,
      "Nuestra": 7579,
      "▁abrigos": 7580,
      "▁vieran": 7581,
      "▁pondrá": 7582,
      "gnifica": 7583,
      "▁trombón": 7584,
      "clas": 7585,
      "Zoom": 7586,
      "▁hambrientos": 7587,
      "▁locales": 7588,
      "▁maullido": 7589,
      "▁enormes": 7590,
      "carros": 7591,
      "▁chula": 7592,
      "ondo": 7593,
      "▁cuidara": 7594,
      "▁cogerla": 7595,
      "Quieren": 7596,
      "Metete": 7597,
      "herman": 7598,
      "▁contentas": 7599,
      "▁mínimo": 7600,
      "Rosa": 7601,
      "▁comemos": 7602,
      "▁levantarla": 7603,
      "▁supiera": 7604,
      "gü": 7605,
      "▁específico": 7606,
      "Tor": 7607,
      "Tira": 7608,
      "▁tina": 7609,
      "rojos": 7610,
      "Hiciste": 7611,
      "▁mueca": 7612,
      "Ayudan": 7613,
      "cinco": 7614,
      "conten": 7615,
      "▁lametazo": 7616,
      "▁alguna": 7617,
      "▁discutieron": 7618,
      "globo": 7619,
      "▁absoluta": 7620,
      "▁sar": 7621,
      "▁priva": 7622,
      "▁coma": 7623,
      "▁traere": 7624,
      "▁morderlo": 7625,
      "▁probado": 7626,
      "▁túnel": 7627,
      "temos": 7628,
      "▁traen": 7629,
      "illó": 7630,
      "▁vivas": 7631,
      "▁perse": 7632,
      "Corrí": 7633,
      "jamos": 7634,
      "inamos": 7635,
      "todas": 7636,
      "trae": 7637,
      "▁gruñe": 7638,
      "▁saltan": 7639,
      "▁sentarte": 7640,
      "▁sarten": 7641,
      "▁fondo": 7642,
      "▁soltar": 7643,
      "\".\n\"": 7644,
      "▁Navidades": 7645,
      "▁secarse": 7646,
      "Billy": 7647,
      "▁enseño": 7648,
      "▁Mateo": 7649,
      "▁trabajan": 7650,
      "Encuen": 7651,
      "▁emocionados": 7652,
      "Ru": 7653,
      "lluvia": 7654,
      "▁cavar": 7655,
      "perdón": 7656,
      "▁golosina": 7657,
      "▁nieto": 7658,
      "▁lluvioso": 7659,
      "quien": 7660,
      "zu": 7661,
      "rum": 7662,
      "barco": 7663,
      "▁encontrara": 7664,
      "▁despertaron": 7665,
      "▁cuidarlas": 7666,
      "▁huelen": 7667,
      "▁colgó": 7668,
      "Oímos": 7669,
      "▁puchero": 7670,
      "▁cenó": 7671,
      "detrás": 7672,
      "▁ayudarle": 7673,
      "Pobrecita": 7674,
      "!\"\n\"": 7675,
      "Dormía": 7676,
      "respon": 7677,
      "▁ingeniosa": 7678,
      "▁cuarta": 7679,
      "▁comimos": 7680,
      "Cuál": 7681,
      "pat": 7682,
      "Toco": 7683,
      "sen": 7684,
      "seña": 7685,
      "▁lastimada": 7686,
      "▁oía": 7687,
      "▁desaparecieron": 7688,
      "Squeak": 7689,
      "▁uses": 7690,
      "▁oírlo": 7691,
      "▁atrape": 7692,
      "▁jugada": 7693,
      "▁creo": 7694,
      "▁ren": 7695,
      "zaba": 7696,
      "▁lechuga": 7697,
      "▁funcionar": 7698,
      "▁estarás": 7699,
      "necesitamos": 7700,
      "sabía": 7701,
      "▁moderna": 7702,
      "Apaga": 7703,
      "Sopla": 7704,
      "▁volvere": 7705,
      "▁termine": 7706,
      "gatos": 7707,
      "▁mental": 7708,
      "tornu": 7709,
      "juguetes": 7710,
      "▁ayudarlos": 7711,
      "▁cuidarla": 7712,
      "▁perten": 7713,
      "ueso": 7714,
      "iezan": 7715,
      "▁quiera": 7716,
      "caballo": 7717,
      "ocolate": 7718,
      "▁vivió": 7719,
      "▁veremos": 7720,
      "papas": 7721,
      "hacia": 7722,
      "▁sentaba": 7723,
      "▁contarte": 7724,
      "dire": 7725,
      "tente": 7726,
      ".\"\n\"": 7727,
      "Tantos": 7728,
      "▁pecho": 7729,
      "BR": 7730,
      "gred": 7731,
      "▁convertir": 7732,
      "▁flotador": 7733,
      "iban": 7734,
      "▁ingred": 7735,
      "iva": 7736,
      "▁subas": 7737,
      "Caracol": 7738,
      "adas": 7739,
      "erían": 7740,
      "▁toquen": 7741,
      "paña": 7742,
      "▁pude": 7743,
      "▁viste": 7744,
      "▁llevaría": 7745,
      "gh": 7746,
      "▁asiente": 7747,
      "herm": 7748,
      "▁limpiarlo": 7749,
      "▁quitarte": 7750,
      "▁chupa": 7751,
      "▁asustan": 7752,
      "▁cabras": 7753,
      "▁rugido": 7754,
      "op": 7755,
      "ridas": 7756,
      "▁asquerosas": 7757,
      "▁obedeció": 7758,
      "Bi": 7759,
      "▁sanos": 7760,
      "Mírala": 7761,
      "Fi": 7762,
      "▁divertirnos": 7763,
      "▁vender": 7764,
      "▁has": 7765,
      "▁atascó": 7766,
      "ieras": 7767,
      "Pobrecito": 7768,
      "lloró": 7769,
      "▁pasando": 7770,
      "▁últimos": 7771,
      "▁duermes": 7772,
      "Vuelvas": 7773,
      "▁grandiosa": 7774,
      "▁ponerme": 7775,
      "▁trozos": 7776,
      "Hacían": 7777,
      "Llamó": 7778,
      "Toby": 7779,
      "▁deseó": 7780,
      "▁absoluto": 7781,
      "plá": 7782,
      "▁puesta": 7783,
      "llev": 7784,
      "enta": 7785,
      "Abuelo": 7786,
      "preguntaron": 7787,
      "Gran": 7788,
      "▁crujiente": 7789,
      "▁cansadas": 7790,
      "▁rodeado": 7791,
      "zame": 7792,
      "ína": 7793,
      "tivas": 7794,
      "tá": 7795,
      "▁sentido": 7796,
      "▁teclas": 7797,
      "▁sentamos": 7798,
      "▁conge": 7799,
      "pudo": 7800,
      "▁amaron": 7801,
      "▁enfrió": 7802,
      "Volvió": 7803,
      "quack": 7804,
      "▁abría": 7805,
      "rázame": 7806,
      "▁interior": 7807,
      "▁boste": 7808,
      "comer": 7809,
      "rilos": 7810,
      "▁deslizarse": 7811,
      "▁dijiste": 7812,
      "Buzz": 7813,
      "▁pasaría": 7814,
      "▁profundamente": 7815,
      "Respira": 7816,
      "▁poniendo": 7817,
      "▁levantado": 7818,
      "señalando": 7819,
      "tarás": 7820,
      "▁moradas": 7821,
      "▁gruñón": 7822,
      "▁dejes": 7823,
      "▁tales": 7824,
      "pavo": 7825,
      "▁llevará": 7826,
      "pastel": 7827,
      "sabes": 7828,
      "▁resp": 7829,
      "▁bich": 7830,
      "▁cocodrilos": 7831,
      "▁silencio": 7832,
      "somos": 7833,
      "lib": 7834,
      "▁disfrazado": 7835,
      "▁generosa": 7836,
      "▁trabajaba": 7837,
      "Brillaba": 7838,
      "Oink": 7839,
      "ballena": 7840,
      "▁probarlo": 7841,
      "▁ofreció": 7842,
      "▁llevaban": 7843,
      "gemelos": 7844,
      "flor": 7845,
      "ky": 7846,
      "▁inteligentes": 7847,
      "BOO": 7848,
      "▁sagrado": 7849,
      "▁invisibles": 7850,
      "▁sanas": 7851,
      "tivos": 7852,
      "Bal": 7853,
      "▁salada": 7854,
      "dejame": 7855,
      "▁limpiarla": 7856,
      "Terminas": 7857,
      "▁bocina": 7858,
      "▁bor": 7859,
      "Pelig": 7860,
      "Genial": 7861,
      "caras": 7862,
      "▁mostraba": 7863,
      "▁afilado": 7864,
      "▁suficientemente": 7865,
      "▁ingredientes": 7866,
      "hadas": 7867,
      "palomas": 7868,
      "rus": 7869,
      "▁cargar": 7870,
      "▁aparecer": 7871,
      "▁básico": 7872,
      "▁secos": 7873,
      "▁ladrido": 7874,
      "▁cuadrado": 7875,
      "Párate": 7876,
      "Luca": 7877,
      "▁llevara": 7878,
      "▁expli": 7879,
      "▁ladril": 7880,
      "brillante": 7881,
      "ladillas": 7882,
      "Venía": 7883,
      "▁construye": 7884,
      "▁edificio": 7885,
      "leche": 7886,
      "▁insis": 7887,
      "Tuviste": 7888,
      "ciste": 7889,
      "▁lavado": 7890,
      "▁ensucia": 7891,
      "▁divertiste": 7892,
      "▁cercan": 7893,
      "pusieron": 7894,
      "ozco": 7895,
      "▁encontrarlos": 7896,
      "Manzanas": 7897,
      "▁pasadas": 7898,
      "Juguetes": 7899,
      "▁activo": 7900,
      "▁soleada": 7901,
      "th": 7902,
      "▁disfruta": 7903,
      "▁partió": 7904,
      "Sere": 7905,
      "▁funcionaba": 7906,
      "▁inmediato": 7907,
      "yes": 7908,
      "ísima": 7909,
      "▁vistazo": 7910,
      "▁colorear": 7911,
      "Toquen": 7912,
      "abuelo": 7913,
      "▁bur": 7914,
      "▁quisieron": 7915,
      ":**": 7916,
      "Pes": 7917,
      "cerca": 7918,
      "raste": 7919,
      "bip": 7920,
      "▁horne": 7921,
      "▁pareció": 7922,
      "mañana": 7923,
      "▁matar": 7924,
      "entonces": 7925,
      "Gruñó": 7926,
      "Bienvenida": 7927,
      "'!\"": 7928,
      "▁amargo": 7929,
      "'\".": 7930,
      "hes": 7931,
      "▁romperse": 7932,
      "Mos": 7933,
      "ers": 7934,
      "▁adhes": 7935,
      "▁vea": 7936,
      "▁perdidas": 7937,
      "▁carretera": 7938,
      "▁atrapare": 7939,
      "Encontraste": 7940,
      "▁adhesiva": 7941,
      "dieran": 7942,
      "▁responde": 7943,
      "Wh": 7944,
      "▁mereces": 7945,
      "▁ayer": 7946,
      "Abrieron": 7947,
      "ilemos": 7948,
      "▁sirenas": 7949,
      "▁gaviota": 7950,
      "▁sacare": 7951,
      "▁alcanzó": 7952,
      "▁quedarnos": 7953,
      "▁apiló": 7954,
      "▁vroom": 7955,
      "▁andu": 7956,
      "▁biblioteca": 7957,
      "rodó": 7958,
      "jor": 7959,
      "!\".\n\n\"": 7960,
      "▁llenaron": 7961,
      "▁leerlo": 7962,
      "repi": 7963,
      "▁hacerlas": 7964,
      "▁estanque": 7965,
      "Pito": 7966,
      "▁cocinaba": 7967,
      "niños": 7968,
      "Comimos": 7969,
      "▁llegara": 7970,
      "▁pintaron": 7971,
      "▁guiño": 7972,
      "plátanos": 7973,
      "gallina": 7974,
      "radas": 7975,
      "pás": 7976,
      "Corren": 7977,
      "hoy": 7978,
      "esperando": 7979,
      "Limpia": 7980,
      "rusel": 7981,
      "▁cuidarme": 7982,
      "pade": 7983,
      "▁hacerles": 7984,
      "Siguió": 7985,
      "▁cepillo": 7986,
      "▁carrusel": 7987,
      "▁despe": 7988,
      "▁malvada": 7989,
      "Escuche": 7990,
      "▁rapido": 7991,
      "▁pintando": 7992,
      "▁quemaba": 7993,
      "ops": 7994,
      "▁ás": 7995,
      "▁vías": 7996,
      "vola": 7997,
      "▁enre": 7998,
      "▁peores": 7999,
      "▁cintas": 8000,
      "▁cuidas": 8001,
      "▁saludos": 8002,
      "▁mezcla": 8003,
      "mith": 8004,
      "▁pesar": 8005,
      "▁empujarlo": 8006,
      "Van": 8007,
      "▁asustarte": 8008,
      "ífica": 8009,
      "▁parpade": 8010,
      "burro": 8011,
      "▁poderosas": 8012,
      "Lan": 8013,
      "Caliente": 8014,
      "Whis": 8015,
      "Termine": 8016,
      "▁izquierdo": 8017,
      "Amaba": 8018,
      "▁puedan": 8019,
      "perdí": 8020,
      "Whisk": 8021,
      "Pienso": 8022,
      "▁dices": 8023,
      "▁subí": 8024,
      "rándo": 8025,
      "Whiskers": 8026,
      "Entró": 8027,
      "ores": 8028,
      "▁esperas": 8029,
      "▁trajeron": 8030,
      "cialmente": 8031,
      "▁calien": 8032,
      "▁atrapes": 8033,
      "▁recog": 8034,
      "conejos": 8035,
      "brir": 8036,
      "▁pelean": 8037,
      "Juegas": 8038,
      "▁aterrador": 8039,
      "▁verás": 8040,
      "rodando": 8041,
      "ditas": 8042,
      "edora": 8043,
      "▁esperamos": 8044,
      "▁escuche": 8045,
      "▁tamba": 8046,
      "▁artística": 8047,
      "Significa": 8048,
      "toca": 8049,
      "▁tomando": 8050,
      "▁sacaron": 8051,
      "Tocaron": 8052,
      "▁compre": 8053,
      "blanca": 8054,
      "terior": 8055,
      "Vaca": 8056,
      "mama": 8057,
      "lobos": 8058,
      "podrás": 8059,
      "▁lamiendo": 8060,
      "▁gustos": 8061,
      "▁respuesta": 8062,
      "▁cuándo": 8063,
      "▁despertarse": 8064,
      "▁heroína": 8065,
      "Otras": 8066,
      "Leía": 8067,
      "▁avergonzado": 8068,
      "Mary": 8069,
      "Cortes": 8070,
      "▁puntiagudo": 8071,
      "▁miro": 8072,
      "▁propias": 8073,
      "▁deberían": 8074,
      "▁gorilas": 8075,
      "antas": 8076,
      "▁usarlas": 8077,
      "Don": 8078,
      "manzanas": 8079,
      "▁tosía": 8080,
      "▁sacaste": 8081,
      "▁rugir": 8082,
      "pare": 8083,
      "▁alcanzarlos": 8084,
      "▁olvide": 8085,
      "Coche": 8086,
      "clu": 8087,
      "▁tenías": 8088,
      "▁marcas": 8089,
      "▁apari": 8090,
      "▁pobrecita": 8091,
      "Be": 8092,
      "gaba": 8093,
      "lanta": 8094,
      "mía": 8095,
      "▁recuperó": 8096,
      "▁beberla": 8097,
      "Entraron": 8098,
      "dulces": 8099,
      "▁acogedora": 8100,
      "▁tumbó": 8101,
      "▁protegía": 8102,
      "Igual": 8103,
      "▁graciosas": 8104,
      "Zumba": 8105,
      "▁¡\"¡": 8106,
      "Vengo": 8107,
      "▁Cortes": 8108,
      "▁grieta": 8109,
      "▁Smith": 8110,
      "▁respondieron": 8111,
      "Agua": 8112,
      "▁miraban": 8113,
      "▁valiosa": 8114,
      "▁cerradura": 8115,
      "árselo": 8116,
      "▁cartel": 8117,
      "▁destrozada": 8118,
      "Trueno": 8119,
      "uzz": 8120,
      "Adivina": 8121,
      "veía": 8122,
      "▁aprenden": 8123,
      "pida": 8124,
      "▁Benny": 8125,
      "▁incómoda": 8126,
      "▁muñecos": 8127,
      "▁traviesa": 8128,
      "guimos": 8129,
      "▁parche": 8130,
      "▁jugará": 8131,
      "▁quites": 8132,
      "▁ponerle": 8133,
      "▁deseos": 8134,
      "▁pierde": 8135,
      "▁muevas": 8136,
      "▁Ra": 8137,
      "▁pasados": 8138,
      "▁plano": 8139,
      "Rompí": 8140,
      "Vivan": 8141,
      "▁picantes": 8142,
      "bicho": 8143,
      "▁vestirse": 8144,
      "Grande": 8145,
      "rócol": 8146,
      "Demas": 8147,
      "▁rami": 8148,
      "▁estrel": 8149,
      "▁insistió": 8150,
      "cantaba": 8151,
      "▁buenísima": 8152,
      "▁terminas": 8153,
      "Col": 8154,
      "▁aca": 8155,
      "▁princesas": 8156,
      "▁máscaras": 8157,
      "▁hubo": 8158,
      "use": 8159,
      "icas": 8160,
      "carrones": 8161,
      "Rompere": 8162,
      "▁cumpl": 8163,
      "▁viol": 8164,
      "▁fija": 8165,
      "cuidado": 8166,
      "Abrimos": 8167,
      "▁carita": 8168,
      "Trajo": 8169,
      "▁hilos": 8170,
      "construyeron": 8171,
      "Dije": 8172,
      "volver": 8173,
      "▁obje": 8174,
      "▁detuvieron": 8175,
      "rócoli": 8176,
      "▁rompí": 8177,
      "▁resca": 8178,
      "▁empujes": 8179,
      "Miauu": 8180,
      "Camina": 8181,
      "▁señales": 8182,
      "Tic": 8183,
      "Movió": 8184,
      "canta": 8185,
      "Jugaran": 8186,
      "Cena": 8187,
      "▁heridos": 8188,
      "▁pesca": 8189,
      "▁flotaban": 8190,
      "▁ancha": 8191,
      "▁ordenar": 8192,
      "Ugh": 8193,
      "Tío": 8194,
      "▁andan": 8195,
      "▁regó": 8196,
      "Tre": 8197,
      "▁estúpida": 8198,
      "donde": 8199,
      "perros": 8200,
      "▁confuso": 8201,
      "▁trabajó": 8202,
      "▁moría": 8203,
      "▁atrapados": 8204,
      "▁decirme": 8205,
      "▁agrio": 8206,
      "▁sabores": 8207,
      "▁minuto": 8208,
      "▁americano": 8209,
      "▁intentarlo": 8210,
      "dibujó": 8211,
      "▁escupió": 8212,
      "▁balancea": 8213,
      "▁metía": 8214,
      "mucha": 8215,
      "saltaron": 8216,
      "zando": 8217,
      "Sopló": 8218,
      "▁cuidadosos": 8219,
      "▁rascó": 8220,
      "▁ll": 8221,
      "▁cria": 8222,
      "▁sintieran": 8223,
      "for": 8224,
      "Debe": 8225,
      "▁violín": 8226,
      "▁equipo": 8227,
      "▁patitas": 8228,
      "▁anduvo": 8229,
      "▁paz": 8230,
      "▁rincón": 8231,
      "▁bille": 8232,
      "▁atraparon": 8233,
      "▁amarga": 8234,
      "▁secarte": 8235,
      "▁moreno": 8236,
      "▁cucharas": 8237,
      "▁ganaste": 8238,
      "vacas": 8239,
      "pos": 8240,
      "▁fabulosas": 8241,
      "▁trase": 8242,
      "▁gastada": 8243,
      "▁gruñía": 8244,
      "cuac": 8245,
      "▁siguen": 8246,
      "hormigas": 8247,
      "▁delante": 8248,
      "llen": 8249,
      "querían": 8250,
      "▁quedan": 8251,
      "▁entiendo": 8252,
      "Adentro": 8253,
      "Puerco": 8254,
      "▁aplas": 8255,
      "▁inventada": 8256,
      "ahí": 8257,
      "▁jueguen": 8258,
      ".\n¡": 8259,
      "están": 8260,
      "▁tomara": 8261,
      "▁robes": 8262,
      "▁asustadas": 8263,
      "weety": 8264,
      "España": 8265,
      "ube": 8266,
      "▁espada": 8267,
      "cachorro": 8268,
      "▁rompiste": 8269,
      "comida": 8270,
      "helado": 8271,
      "inando": 8272,
      "▁cable": 8273,
      "Bebes": 8274,
      "▁usada": 8275,
      "▁adver": 8276,
      "▁afortunada": 8277,
      "Intentó": 8278,
      "Tantas": 8279,
      "▁apagadas": 8280,
      "Agarró": 8281,
      "▁anterior": 8282,
      "...\"": 8283,
      "▁brome": 8284,
      "▁empe": 8285,
      "▁meterse": 8286,
      "▁explicar": 8287,
      "▁pierden": 8288,
      "Lul": 8289,
      "Tuvo": 8290,
      "▁privada": 8291,
      "▁piña": 8292,
      "▁disfrutaron": 8293,
      "▁tenerlos": 8294,
      "▁empujando": 8295,
      "Lulu": 8296,
      "ángel": 8297,
      "▁atentamente": 8298,
      "▁sueter": 8299,
      "struo": 8300,
      "▁pelees": 8301,
      "abuelita": 8302,
      "▁roba": 8303,
      "▁dueña": 8304,
      "grandes": 8305,
      "▁mexicana": 8306,
      "▁llueva": 8307,
      "pronto": 8308,
      "▁Finn": 8309,
      "Queríamos": 8310,
      "▁incendio": 8311,
      "▁caiga": 8312,
      "cien": 8313,
      "vaba": 8314,
      "odrilo": 8315,
      "▁pasada": 8316,
      "▁damos": 8317,
      "mientras": 8318,
      "naranja": 8319,
      "Donde": 8320,
      "▁chistosa": 8321,
      "egu": 8322,
      "▁ropas": 8323,
      "▁conducirlo": 8324,
      "▁sirenita": 8325,
      "Cierto": 8326,
      "Jue": 8327,
      "recor": 8328,
      "olvi": 8329,
      "▁comerás": 8330,
      "▁regresan": 8331,
      "▁brócoli": 8332,
      "▁asegu": 8333,
      "Nuestro": 8334,
      "▁nu": 8335,
      "tenían": 8336,
      "Empezaron": 8337,
      "▁llegado": 8338,
      "▁esquina": 8339,
      "▁escondas": 8340,
      "▁quemarse": 8341,
      "▁crece": 8342,
      "▁temblando": 8343,
      "▁soñaron": 8344,
      "cerró": 8345,
      "▁marcada": 8346,
      "▁rebanada": 8347,
      "vando": 8348,
      "leza": 8349,
      "▁buscamos": 8350,
      "▁pondría": 8351,
      "Oyes": 8352,
      "▁saldrá": 8353,
      "▁bailan": 8354,
      "podían": 8355,
      "Aprendes": 8356,
      "Caca": 8357,
      "Yummy": 8358,
      "▁tomarlo": 8359,
      "BRUM": 8360,
      "▁tuyos": 8361,
      "▁torn": 8362,
      "▁Cla": 8363,
      "soñó": 8364,
      "▁Claus": 8365,
      "▁paque": 8366,
      "▁podíamos": 8367,
      "▁tocarte": 8368,
      "▁vientre": 8369,
      "Caballo": 8370,
      "responde": 8371,
      "▁revolote": 8372,
      "Par": 8373,
      "▁resbaló": 8374,
      "▁escalo": 8375,
      "▁bañarte": 8376,
      "▁asquerosos": 8377,
      "▁gustar": 8378,
      "▁hambrienta": 8379,
      "▁derru": 8380,
      "pensando": 8381,
      "▁trapo": 8382,
      "Camión": 8383,
      "buscaron": 8384,
      "▁vuelto": 8385,
      "▁Timmy": 8386,
      "Galle": 8387,
      "Tos": 8388,
      "rico": 8389,
      "▁mantiene": 8390,
      "▁daban": 8391,
      "▁vencido": 8392,
      "umm": 8393,
      "encontra": 8394,
      "▁conozco": 8395,
      "sonrió": 8396,
      "tendrás": 8397,
      "▁luch": 8398,
      "dormi": 8399,
      "peces": 8400,
      "▁uni": 8401,
      "Tómala": 8402,
      "pri": 8403,
      "varon": 8404,
      "▁digo": 8405,
      "▁llevando": 8406,
      "Seguimos": 8407,
      "▁llamaban": 8408,
      "tortuga": 8409,
      "pregunte": 8410,
      "▁recupe": 8411,
      "casi": 8412,
      "Comiste": 8413,
      "▁invito": 8414,
      "Cos": 8415,
      "▁abrazara": 8416,
      "▁Mami": 8417,
      "Corrían": 8418,
      "▁regresara": 8419,
      "▁instrumento": 8420,
      "▁Lucas": 8421,
      "▁casero": 8422,
      "▁acabaron": 8423,
      "▁escalofrío": 8424,
      "▁cometemos": 8425,
      "▁comerá": 8426,
      "▁trompas": 8427,
      "▁probarla": 8428,
      "▁w": 8429,
      "cansa": 8430,
      "▁dibujaron": 8431,
      "▁vuelvas": 8432,
      "▁solas": 8433,
      "rientes": 8434,
      "▁conocida": 8435,
      "▁sabrosos": 8436,
      "▁gruñir": 8437,
      "▁có": 8438,
      "cieran": 8439,
      "Abuelita": 8440,
      "▁contando": 8441,
      "▁ayudarán": 8442,
      "muñeco": 8443,
      "Construyeron": 8444,
      "▁electricas": 8445,
      "bia": 8446,
      "trepó": 8447,
      "▁sang": 8448,
      "▁esperado": 8449,
      "▁cositas": 8450,
      "jugo": 8451,
      "▁suceder": 8452,
      "▁suspendida": 8453,
      "▁espectá": 8454,
      "As": 8455,
      "▁grites": 8456,
      "▁enseñaron": 8457,
      "sela": 8458,
      "▁quedaban": 8459,
      "▁líneas": 8460,
      "oveja": 8461,
      "▁caigas": 8462,
      "▁menti": 8463,
      "gones": 8464,
      "▁vendría": 8465,
      "▁preocupados": 8466,
      "▁estupenda": 8467,
      "Coman": 8468,
      "Levantó": 8469,
      "Nieve": 8470,
      "Encuentra": 8471,
      "▁coja": 8472,
      "▁amoroso": 8473,
      "acto": 8474,
      "duerme": 8475,
      "Ave": 8476,
      "▁cosió": 8477,
      "▁tic": 8478,
      "▁ganare": 8479,
      "Ratón": 8480,
      "▁estrelló": 8481,
      "▁traerme": 8482,
      "▁arran": 8483,
      "▁apariencia": 8484,
      "▁dejarme": 8485,
      "timientos": 8486,
      "▁viajar": 8487,
      "guía": 8488,
      "▁espina": 8489,
      "▁mirada": 8490,
      "▁preguntaron": 8491,
      "▁España": 8492,
      "úper": 8493,
      "▁pidieron": 8494,
      "▁paquete": 8495,
      "▁esperan": 8496,
      "cabra": 8497,
      "ler": 8498,
      "eaban": 8499,
      "Cuándo": 8500,
      "▁lavadora": 8501,
      "yan": 8502,
      "▁musicales": 8503,
      "\".\n\n\"¿": 8504,
      "▁flotaron": 8505,
      "▁cóm": 8506,
      "▁pacientemente": 8507,
      "▁limpiarse": 8508,
      "Subía": 8509,
      "cidos": 8510,
      "salieron": 8511,
      "▁sirve": 8512,
      "▁espectáculo": 8513,
      "▁podre": 8514,
      "'¡": 8515,
      "▁reírse": 8516,
      "vien": 8517,
      "Helado": 8518,
      "▁numero": 8519,
      "▁habría": 8520,
      "▁hechos": 8521,
      "▁usas": 8522,
      "Herm": 8523,
      "Arreg": 8524,
      "Mejor": 8525,
      "comía": 8526,
      "Saltaba": 8527,
      "▁cordero": 8528,
      "Perrito": 8529,
      "▁tortugas": 8530,
      "▁dejare": 8531,
      "▁visitarlo": 8532,
      "Correr": 8533,
      "▁taller": 8534,
      "▁ande": 8535,
      "▁mostrare": 8536,
      "Traía": 8537,
      "▁agradecido": 8538,
      "Amy": 8539,
      "▁ponerlos": 8540,
      "▁Pico": 8541,
      "▁contarme": 8542,
      "▁hornear": 8543,
      "rueba": 8544,
      "▁diste": 8545,
      "cles": 8546,
      "Llama": 8547,
      "▁tendió": 8548,
      "▁trici": 8549,
      "Oye": 8550,
      "▁merien": 8551,
      "uelos": 8552,
      "▁tendrá": 8553,
      "▁Rose": 8554,
      "BOOM": 8555,
      "tencia": 8556,
      "▁pieza": 8557,
      "▁honrada": 8558,
      "▁gruñido": 8559,
      "▁mezclar": 8560,
      "▁golpearon": 8561,
      "Respe": 8562,
      "BA": 8563,
      "▁frág": 8564,
      "▁clásica": 8565,
      "▁guardada": 8566,
      "▁frágil": 8567,
      "▁cometas": 8568,
      "▁sorprendidos": 8569,
      "▁calmada": 8570,
      "mara": 8571,
      "▁escucho": 8572,
      "▁pegajos": 8573,
      "grite": 8574,
      "Pasó": 8575,
      "▁borde": 8576,
      "▁comieran": 8577,
      "Caminamos": 8578,
      "Nadaron": 8579,
      "▁súper": 8580,
      "alta": 8581,
      "▁rompas": 8582,
      "▁utilizado": 8583,
      "▁cap": 8584,
      "alguien": 8585,
      "Mez": 8586,
      "Cantaban": 8587,
      "▁agradables": 8588,
      "▁acariciaron": 8589,
      "▁dejarlos": 8590,
      "▁merienda": 8591,
      "▁tortas": 8592,
      "▁curios": 8593,
      "▁desordenado": 8594,
      "▁curiosidad": 8595,
      "Llevaban": 8596,
      "▁extrañó": 8597,
      "▁\n\n¡\"": 8598,
      "▁lavando": 8599,
      "▁escondí": 8600,
      "▁cá": 8601,
      "Hablamos": 8602,
      "▁chicles": 8603,
      "▁llevarlas": 8604,
      "▁proteg": 8605,
      "▁traseras": 8606,
      "Adónde": 8607,
      "vión": 8608,
      "▁pintada": 8609,
      "▁cubierta": 8610,
      "Tómalo": 8611,
      "cier": 8612,
      "Tener": 8613,
      "▁encendidas": 8614,
      "▁informada": 8615,
      "gallinas": 8616,
      "querido": 8617,
      "▁creciera": 8618,
      "Limpió": 8619,
      "▁caminan": 8620,
      "libros": 8621,
      "▁hacerse": 8622,
      "!\n\"": 8623,
      "▁encuentran": 8624,
      "▁echaba": 8625,
      "▁billete": 8626,
      "Blo": 8627,
      "▁divirti": 8628,
      "▁novia": 8629,
      "▁comprarla": 8630,
      "▁clavos": 8631,
      "huyen": 8632,
      "▁enter": 8633,
      "▁secaron": 8634,
      "Venías": 8635,
      "piensa": 8636,
      "gatita": 8637,
      "ará": 8638,
      "Quita": 8639,
      "Salu": 8640,
      "▁rompía": 8641,
      "tuvieron": 8642,
      "▁cuán": 8643,
      "Vivían": 8644,
      "ravo": 8645,
      "▁pusiste": 8646,
      "▁apestos": 8647,
      "rías": 8648,
      "▁habrá": 8649,
      "▁pescó": 8650,
      "Cone": 8651,
      "▁triciclo": 8652,
      "Oyó": 8653,
      "papi": 8654,
      "▁tacos": 8655,
      "abejas": 8656,
      "Detente": 8657,
      "▁orin": 8658,
      "haces": 8659,
      "oímos": 8660,
      "ándose": 8661,
      "Saltar": 8662,
      "▁dob": 8663,
      "▁luciernaga": 8664,
      "Fru": 8665,
      "Tren": 8666,
      "▁solu": 8667,
      "▁bailarina": 8668,
      "▁giraba": 8669,
      "▁pedacito": 8670,
      "▁trans": 8671,
      "▁misteriosas": 8672,
      "▁arreglaremos": 8673,
      "▁recib": 8674,
      "▁Ma": 8675,
      "arme": 8676,
      "▁toros": 8677,
      "imales": 8678,
      "▁llevan": 8679,
      "Deseo": 8680,
      "Repi": 8681,
      "▁crecían": 8682,
      "▁cámara": 8683,
      "toro": 8684,
      "Pizza": 8685,
      "▁comenzado": 8686,
      "Toda": 8687,
      "▁crecerá": 8688,
      "fresas": 8689,
      "pobrecito": 8690,
      "▁derrumbó": 8691,
      "▁quise": 8692,
      "Esperaron": 8693,
      "▁pien": 8694,
      "Tenías": 8695,
      "Cinco": 8696,
      "payas": 8697,
      "rellas": 8698,
      "▁cartón": 8699,
      "▁cambias": 8700,
      "uerdas": 8701,
      "▁hicieran": 8702,
      "jorro": 8703,
      "Vienes": 8704,
      "ponte": 8705,
      "im": 8706,
      "▁lío": 8707,
      "▁explo": 8708,
      "▁esponjosos": 8709,
      "Gall": 8710,
      "▁toser": 8711,
      "▁il": 8712,
      "Pensaron": 8713,
      "▁establo": 8714,
      "Bravo": 8715,
      "ueda": 8716,
      "▁bromeando": 8717,
      "▁sonriente": 8718,
      "jun": 8719,
      "▁amiguitos": 8720,
      "▁apretó": 8721,
      "Compró": 8722,
      "▁obedecer": 8723,
      "iosos": 8724,
      "▁ensuci": 8725,
      "Esperaba": 8726,
      "▁chupo": 8727,
      "ill": 8728,
      "▁tengan": 8729,
      "Perdió": 8730,
      "▁delgados": 8731,
      "▁saliendo": 8732,
      "▁delfín": 8733,
      "▁estornu": 8734,
      "ele": 8735,
      "leones": 8736,
      "▁sirvió": 8737,
      "Peligro": 8738,
      "▁alejes": 8739,
      "Parar": 8740,
      "▁pingü": 8741,
      "▁tareas": 8742,
      "hel": 8743,
      "▁traido": 8744,
      "▁suyos": 8745,
      "▁convertido": 8746,
      "▁Papi": 8747,
      "dong": 8748,
      "▁bum": 8749,
      "▁envuelta": 8750,
      "Pata": 8751,
      "nica": 8752,
      "▁tierna": 8753,
      "Zumb": 8754,
      "Hueso": 8755,
      "▁queriendo": 8756,
      "Piensas": 8757,
      "▁quietas": 8758,
      "▁derre": 8759,
      "▁cristiana": 8760,
      "▁resbaladizo": 8761,
      "▁herramienta": 8762,
      "▁llorara": 8763,
      "▁electrónica": 8764,
      "bra": 8765,
      "▁tiernos": 8766,
      "▁bendita": 8767,
      "llevame": 8768,
      "▁escuchan": 8769,
      "▁moverme": 8770,
      "▁arruinó": 8771,
      "Prueba": 8772,
      "chirp": 8773,
      "Papas": 8774,
      "▁durmiera": 8775,
      "Demasia": 8776,
      "▁toman": 8777,
      "▁bicicletas": 8778,
      "▁acariciaba": 8779,
      "Llamamos": 8780,
      "▁Kate": 8781,
      "escon": 8782,
      "▁error": 8783,
      "▁silenciosa": 8784,
      "▁usaban": 8785,
      "amaba": 8786,
      "▁macarrones": 8787,
      "▁molde": 8788,
      "▁callados": 8789,
      "▁señala": 8790,
      "BAM": 8791,
      "viado": 8792,
      "Abeja": 8793,
      "▁ahuyen": 8794,
      "Diver": 8795,
      "pollos": 8796,
      "!'": 8797,
      "ac": 8798,
      "▁encantan": 8799,
      "▁decirte": 8800,
      "▁march": 8801,
      "▁patearlo": 8802,
      "▁manten": 8803,
      "▁mutu": 8804,
      "▁meció": 8805,
      "▁puntiagudas": 8806,
      "▁frescas": 8807,
      "▁preciso": 8808,
      "▁aleja": 8809,
      "▁accidente": 8810,
      "▁toco": 8811,
      "omberos": 8812,
      "▁mutuamente": 8813,
      "▁incl": 8814,
      "▁fabulosos": 8815,
      "▁puntiagudos": 8816,
      "lee": 8817,
      "queremos": 8818,
      "▁quedas": 8819,
      "▁abejorro": 8820,
      "▁abriera": 8821,
      "▁dejarla": 8822,
      "▁costaba": 8823,
      "▁pongo": 8824,
      "nunca": 8825,
      "▁pasara": 8826,
      "▁podamos": 8827,
      "pidió": 8828,
      "▁recuperar": 8829,
      "llas": 8830,
      "trá": 8831,
      "▁mirándo": 8832,
      "Pedire": 8833,
      "Tomás": 8834,
      "bee": 8835,
      "▁asustas": 8836,
      "▁ríes": 8837,
      "▁ronroneaba": 8838,
      "▁crezcan": 8839,
      "▁encerrada": 8840,
      "Bes": 8841,
      "▁lavo": 8842,
      "hazme": 8843,
      "Rayo": 8844,
      "▁sentirlo": 8845,
      "▁gomas": 8846,
      "▁despertara": 8847,
      "▁mene": 8848,
      "▁ruidosa": 8849,
      "zorro": 8850,
      "▁deje": 8851,
      "Miramos": 8852,
      "▁compartirlos": 8853,
      "▁alimentó": 8854,
      "repitió": 8855,
      "iloto": 8856,
      "Nave": 8857,
      "▁gentil": 8858,
      "!\"\n\n\"¿": 8859,
      "▁visitarla": 8860,
      "Pense": 8861,
      "▁tambaleó": 8862,
      "▁finas": 8863,
      "rega": 8864,
      "▁estatu": 8865,
      "▁veas": 8866,
      "▁mojaron": 8867,
      "Papás": 8868,
      "▁quemaron": 8869,
      "Pón": 8870,
      "glu": 8871,
      "▁salga": 8872,
      "▁ideas": 8873,
      "poteo": 8874,
      "▁paseos": 8875,
      "Desa": 8876,
      "Estarás": 8877,
      "▁alejarse": 8878,
      "▁comprado": 8879,
      "▁conoces": 8880,
      "gallo": 8881,
      "▁volvieran": 8882,
      "quedate": 8883,
      "▁piloto": 8884,
      "▁mojarme": 8885,
      "▁arreglo": 8886,
      "Música": 8887,
      "▁maullar": 8888,
      "▁grifo": 8889,
      "corriendo": 8890,
      "escri": 8891,
      "▁palas": 8892,
      "serpiente": 8893,
      "íes": 8894,
      "ós": 8895,
      "▁caería": 8896,
      "▁teníamos": 8897,
      "▁hacernos": 8898,
      "▁terminara": 8899,
      "▁escucharte": 8900,
      "▁encantadores": 8901,
      "▁vacíos": 8902,
      "oró": 8903,
      "?\".\n": 8904,
      "▁jugador": 8905,
      "Sacaste": 8906,
      "Bon": 8907,
      "▁rosados": 8908,
      "▁sorprende": 8909,
      "lanzó": 8910,
      "▁agarrarlo": 8911,
      "rete": 8912,
      "▁asco": 8913,
      "Regresamos": 8914,
      "▁lamieron": 8915,
      "huevos": 8916,
      "Cer": 8917,
      "Pol": 8918,
      "▁unida": 8919,
      "▁barrió": 8920,
      "miento": 8921,
      "gritaba": 8922,
      "▁cob": 8923,
      "Empuja": 8924,
      "▁delicados": 8925,
      "Volvere": 8926,
      "Cen": 8927,
      "Miel": 8928,
      "sobre": 8929,
      "nifi": 8930,
      "▁próximo": 8931,
      "▁dere": 8932,
      "Niña": 8933,
      "▁convier": 8934,
      "andaba": 8935,
      "dios": 8936,
      "Deberíamos": 8937,
      "▁sentimientos": 8938,
      "burete": 8939,
      "timos": 8940,
      "dremos": 8941,
      "isbol": 8942,
      "▁mojaba": 8943,
      "tales": 8944,
      "Cari": 8945,
      "ss": 8946,
      "Spar": 8947,
      "▁rever": 8948,
      "▁tiendas": 8949,
      "▁malaba": 8950,
      "Victoria": 8951,
      "▁ocupados": 8952,
      "term": 8953,
      "▁subirte": 8954,
      "viertete": 8955,
      "carabajo": 8956,
      "ximos": 8957,
      "▁lagar": 8958,
      "▁cortina": 8959,
      "▁taburete": 8960,
      "▁vagones": 8961,
      "▁cómica": 8962,
      "▁bebiendo": 8963,
      "▁rugía": 8964,
      "juntos": 8965,
      "tilla": 8966,
      "▁navegó": 8967,
      "Rose": 8968,
      "▁coj": 8969,
      "▁rodaba": 8970,
      "olas": 8971,
      "Toot": 8972,
      "▁refrescos": 8973,
      "▁espadas": 8974,
      "lito": 8975,
      "deo": 8976,
      "▁felizmente": 8977,
      "dentes": 8978,
      "▁colmillos": 8979,
      "▁atrevi": 8980,
      "Cariño": 8981,
      "digo": 8982,
      "Herman": 8983,
      "Ayude": 8984,
      "▁dólares": 8985,
      "▁contarlo": 8986,
      "Pepito": 8987,
      "▁tibia": 8988,
      "▁caídas": 8989,
      "▁acordaba": 8990,
      "▁tocado": 8991,
      "▁Papito": 8992,
      "▁contado": 8993,
      "▁encontrará": 8994,
      "▁chupón": 8995,
      "▁piñas": 8996,
      "ubes": 8997,
      "▁pegaba": 8998,
[...]
