{
  "version": "1.0",
  "truncation": null,
  "padding": null,
  "added_tokens": [
    {
      "id": 0,
      "content": "<|PAD|>",
      "single_word": false,
      "lstrip": false,
      "rstrip": false,
      "normalized": false,
      "special": true
    },
    {
      "id": 1,
      "content": "<|BOS|>",
      "single_word": false,
      "lstrip": false,
      "rstrip": false,
      "normalized": false,
      "special": true
    },
    {
      "id": 2,
      "content": "<|EOS|>",
      "single_word": false,
      "lstrip": false,
      "rstrip": false,
      "normalized": false,
      "special": true
    },
    {
      "id": 3,
      "content": "<|UNK|>",
      "single_word": false,
      "lstrip": false,
      "rstrip": false,
      "normalized": false,
      "special": true
    }
  ],
  "normalizer": {
    "type": "NFKC"
  },
  "pre_tokenizer": {
    "type": "Sequence",
    "pretokenizers": [
      {
        "type": "UnicodeScripts"
      },
      {
        "type": "Digits",
        "individual_digits": true
      },
      {
        "type": "Metaspace",
        "replacement": "▁",
        "prepend_scheme": "never",
        "split": true
      }
    ]
  },
  "post_processor": {
    "type": "TemplateProcessing",
    "single": [
      {
        "SpecialToken": {
          "id": "<|BOS|>",
          "type_id": 0
        }
      },
      {
        "Sequence": {
          "id": "A",
          "type_id": 0
        }
      },
      {
        "SpecialToken": {
          "id": "<|EOS|>",
          "type_id": 0
        }
      }
    ],
    "pair": [
      {
        "SpecialToken": {
          "id": "<|BOS|>",
          "type_id": 0
        }
      },
      {
        "Sequence": {
          "id": "A",
          "type_id": 0
        }
      },
      {
        "SpecialToken": {
          "id": "<|EOS|>",
          "type_id": 0
        }
      },
      {
        "SpecialToken": {
          "id": "<|BOS|>",
          "type_id": 1
        }
      },
      {
        "Sequence": {
          "id": "B",
          "type_id": 1
        }
      },
      {
        "SpecialToken": {
          "id": "<|EOS|>",
          "type_id": 1
        }
      }
    ],
    "special_tokens": {
      "<|BOS|>": {
        "id": "<|BOS|>",
        "ids": [
          1
        ],
        "tokens": [
          "<|BOS|>"
        ]
      },
      "<|EOS|>": {
        "id": "<|EOS|>",
        "ids": [
          2
        ],
        "tokens": [
          "<|EOS|>"
        ]
      }
    }
  },
  "decoder": {
    "type": "Metaspace",
    "replacement": "▁",
    "prepend_scheme": "never",
    "split": true
  },
  "model": {
    "type": "BPE",
    "dropout": null,
    "unk_token": "<|UNK|>",
    "continuing_subword_prefix": null,
    "end_of_word_suffix": null,
    "fuse_unk": false,
    "byte_fallback": false,
    "ignore_merges": false,
    "vocab": {
      "<|PAD|>": 0,
      "<|BOS|>": 1,
      "<|EOS|>": 2,
      "<|UNK|>": 3,
      "\n": 4,
      "!": 5,
      "\"": 6,
      "$": 7,
      "%": 8,
      "&": 9,
      "'": 10,
      "(": 11,
      ")": 12,
      "*": 13,
      "+": 14,
      ",": 15,
      "-": 16,
      ".": 17,
      "/": 18,
      "0": 19,
      "1": 20,
      "2": 21,
      "3": 22,
      "4": 23,
      "5": 24,
      "6": 25,
      "7": 26,
      "8": 27,
      "9": 28,
      ":": 29,
      ";": 30,
      "=": 31,
      "?": 32,
      "A": 33,
      "B": 34,
      "C": 35,
      "D": 36,
      "E": 37,
      "F": 38,
      "G": 39,
      "H": 40,
      "I": 41,
      "J": 42,
      "K": 43,
      "L": 44,
      "M": 45,
      "N": 46,
      "O": 47,
      "P": 48,
      "Q": 49,
      "R": 50,
      "S": 51,
      "T": 52,
      "U": 53,
      "V": 54,
      "W": 55,
      "X": 56,
      "Y": 57,
      "Z": 58,
      "\\": 59,
      "_": 60,
      "a": 61,
      "b": 62,
      "c": 63,
      "d": 64,
      "e": 65,
      "f": 66,
      "g": 67,
      "h": 68,
      "i": 69,
      "j": 70,
      "k": 71,
      "l": 72,
      "m": 73,
      "n": 74,
      "o": 75,
      "p": 76,
      "q": 77,
      "r": 78,
      "s": 79,
      "t": 80,
      "u": 81,
      "v": 82,
      "w": 83,
      "x": 84,
      "y": 85,
      "z": 86,
      "¦": 87,
      "Â": 88,
      "Ã": 89,
      "Ç": 90,
      "Ö": 91,
      "Ü": 92,
      "ç": 93,
      "ö": 94,
      "ü": 95,
      "ğ": 96,
      "İ": 97,
      "ı": 98,
      "œ": 99,
      "Ş": 100,
      "ş": 101,
      "Ə": 102,
      "ə": 103,
      "̃": 104,
      "‖": 105,
      "€": 106,
      "▁": 107,
      "di": 108,
      "ar": 109,
      "▁b": 110,
      "lə": 111,
      "▁v": 112,
      "ir": 113,
      "an": 114,
      "▁g": 115,
      "▁o": 116,
      "▁və": 117,
      "▁i": 118,
      "lar": 119,
      "dı": 120,
      "də": 121,
      "in": 122,
      "▁q": 123,
      "ın": 124,
      "ma": 125,
      "▁s": 126,
      "▁d": 127,
      "mə": 128,
      "la": 129,
      "lər": 130,
      "ün": 131,
      "▁\n": 132,
      "▁y": 133,
      "li": 134,
      "un": 135,
      "▁ç": 136,
      "▁k": 137,
      "▁e": 138,
      "ən": 139,
      "▁a": 140,
      "▁bir": 141,
      "ər": 142,
      "▁t": 143,
      "▁gö": 144,
      "▁h": 145,
      "▁idi": 146,
      "st": 147,
      "na": 148,
      "ox": 149,
      "da": 150,
      "ax": 151,
      "du": 152,
      "əy": 153,
      "ır": 154,
      "ey": 155,
      "▁\"": 156,
      "aq": 157,
      "lı": 158,
      "▁ol": 159,
      "ək": 160,
      "il": 161,
      "əl": 162,
      "▁ki": 163,
      "▁çox": 164,
      "tdi": 165,
      "dü": 166,
      "Bir": 167,
      "ay": 168,
      "▁gör": 169,
      "aş": 170,
      "edi": 171,
      "▁ü": 172,
      "nlar": 173,
      "ət": 174,
      "mək": 175,
      "ini": 176,
      "ür": 177,
      "ını": 178,
      "irdi": 179,
      "mi": 180,
      "er": 181,
      "ağ": 182,
      "mağ": 183,
      "▁oy": 184,
      "am": 185,
      "ik": 186,
      "▁p": 187,
      "▁gün": 188,
      "▁x": 189,
      "en": 190,
      "dən": 191,
      "öy": 192,
      "əs": 193,
      "as": 194,
      "▁ist": 195,
      "ük": 196,
      "ra": 197,
      "dir": 198,
      "im": 199,
      "▁qa": 200,
      "çün": 201,
      "▁var": 202,
      "on": 203,
      "ev": 204,
      "Li": 205,
      "maq": 206,
      "məy": 207,
      "lən": 208,
      "▁üçün": 209,
      "▁ş": 210,
      "or": 211,
      "Onlar": 212,
      "dan": 213,
      "Lili": 214,
      "▁da": 215,
      "▁on": 216,
      "dər": 217,
      "▁sev": 218,
      "▁dedi": 219,
      "ına": 220,
      "ur": 221,
      "▁n": 222,
      "əm": 223,
      "unu": 224,
      "▁oyna": 225,
      "uş": 226,
      "at": 227,
      "caq": 228,
      "▁etdi": 229,
      "oş": 230,
      "lan": 231,
      "▁oldu": 232,
      "ız": 233,
      "▁bi": 234,
      "şı": 235,
      "ül": 236,
      "▁m": 237,
      "is": 238,
      "dılar": 239,
      "▁də": 240,
      "▁baş": 241,
      "bə": 242,
      "▁ge": 243,
      "iz": 244,
      "dır": 245,
      "▁et": 246,
      "▁do": 247,
      "▁an": 248,
      "▁xoş": 249,
      "ədər": 250,
      "ları": 251,
      "axt": 252,
      "öyük": 253,
      "ış": 254,
      "▁ilə": 255,
      "▁gördü": 256,
      "ədi": 257,
      "mağa": 258,
      "▁vaxt": 259,
      "ladı": 260,
      "ya": 261,
      "üş": 262,
      "öz": 263,
      "▁bil": 264,
      "lik": 265,
      "ca": 266,
      "Tim": 267,
      "ib": 268,
      "al": 269,
      "!\"": 270,
      "xt": 271,
      "▁gül": 272,
      "om": 273,
      "▁ver": 274,
      "ap": 275,
      "eç": 276,
      "▁tə": 277,
      "ara": 278,
      "üm": 279,
      "▁böyük": 280,
      "ha": 281,
      "cə": 282,
      "çik": 283,
      "mağı": 284,
      "axşı": 285,
      "▁olduğ": 286,
      "inə": 287,
      "ırdı": 288,
      "lay": 289,
      "məyə": 290,
      "▁u": 291,
      "▁istəy": 292,
      "▁dey": 293,
      "ası": 294,
      "▁dost": 295,
      "Tom": 296,
      "▁şey": 297,
      "▁qu": 298,
      "Ben": 299,
      "onra": 300,
      "dlı": 301,
      "▁qız": 302,
      "Ana": 303,
      "əz": 304,
      "▁bilər": 305,
      "lu": 306,
      "▁bax": 307,
      "▁kö": 308,
      "ında": 309,
      "ıb": 310,
      "sən": 311,
      "▁göz": 312,
      "▁onu": 313,
      "▁f": 314,
      "▁edir": 315,
      "▁xoşbə": 316,
      "▁qədər": 317,
      "Bu": 318,
      "▁kiçik": 319,
      "ala": 320,
      "▁par": 321,
      "ıx": 322,
      "▁gəl": 323,
      "▁ağ": 324,
      "▁olduğunu": 325,
      "▁qaç": 326,
      "üms": 327,
      "si": 328,
      "▁tap": 329,
      "▁xoşbəxt": 330,
      "ac": 331,
      "ləri": 332,
      "dilər": 333,
      "▁ma": 334,
      "On": 335,
      "▁his": 336,
      "oy": 337,
      "eni": 338,
      "▁onun": 339,
      "▁onlar": 340,
      "▁adlı": 341,
      "▁nə": 342,
      "▁mə": 343,
      "▁hiss": 344,
      "Mən": 345,
      "▁yaxşı": 346,
      "əc": 347,
      "ak": 348,
      "▁daha": 349,
      "▁vaxtlar": 350,
      "▁gülüms": 351,
      "sı": 352,
      "▁al": 353,
      "ab": 354,
      "▁getdi": 355,
      "▁düş": 356,
      "\".": 357,
      "▁ye": 358,
      "amma": 359,
      "iy": 360,
      "▁z": 361,
      "▁Lili": 362,
      "▁di": 363,
      "ah": 364,
      "▁öz": 365,
      "ıl": 366,
      "?\"": 367,
      "laş": 368,
      "məyi": 369,
      "▁ona": 370,
      "larını": 371,
      "alı": 372,
      "▁oyun": 373,
      "▁yer": 374,
      "əh": 375,
      "▁at": 376,
      "An": 377,
      "lərini": 378,
      "▁kömək": 379,
      "ana": 380,
      "▁hər": 381,
      "ünü": 382,
      "▁ev": 383,
      "əş": 384,
      "▁sonra": 385,
      "▁yeni": 386,
      "▁çıx": 387,
      "ki": 388,
      "anı": 389,
      "▁qay": 390,
      "oruş": 391,
      "▁əy": 392,
      "▁gözəl": 393,
      "▁anası": 394,
      "▁soruş": 395,
      "bir": 396,
      "üb": 397,
      "diy": 398,
      "dedi": 399,
      "ının": 400,
      "şi": 401,
      "ol": 402,
      "əli": 403,
      "miş": 404,
      "▁əylən": 405,
      "▁sevirdi": 406,
      "▁bu": 407,
      "rən": 408,
      "likdə": 409,
      "▁sevin": 410,
      "▁edə": 411,
      "Lil": 412,
      "san": 413,
      "az": 414,
      "▁ar": 415,
      "ğlan": 416,
      "ub": 417,
      "orx": 418,
      "ut": 419,
      "inin": 420,
      "ıq": 421,
      "▁istədi": 422,
      "op": 423,
      "▁həy": 424,
      "▁S": 425,
      "▁gülümsədi": 426,
      "ində": 427,
      "▁tər": 428,
      "▁c": 429,
      "laq": 430,
      "lədi": 431,
      "▁başladı": 432,
      "▁qər": 433,
      "dığ": 434,
      "▁ot": 435,
      "▁istəyirdi": 436,
      "▁hə": 437,
      "▁sür": 438,
      "▁soruşdu": 439,
      "▁səs": 440,
      "▁gəldi": 441,
      "▁verdi": 442,
      "ətli": 443,
      "▁qal": 444,
      "▁olma": 445,
      "aya": 446,
      "ul": 447,
      "▁etmək": 448,
      "iş": 449,
      "tür": 450,
      "Am": 451,
      "alaca": 452,
      "it": 453,
      "su": 454,
      "Timmi": 455,
      "dur": 456,
      "▁qar": 457,
      "▁qorx": 458,
      "ek": 459,
      "irlər": 460,
      "araq": 461,
      "liklə": 462,
      "üt": 463,
      "▁götür": 464,
      "elə": 465,
      "▁üz": 466,
      "əcan": 467,
      "anda": 468,
      "▁ə": 469,
      "ob": 470,
      "▁görə": 471,
      "▁oyuncaq": 472,
      "Onun": 473,
      "▁Ben": 474,
      "əb": 475,
      "▁oynay": 476,
      "▁yu": 477,
      "▁oğlan": 478,
      "▁yaş": 479,
      "▁həyəcan": 480,
      "▁it": 481,
      "▁kədər": 482,
      "▁qucaq": 483,
      "▁deyil": 484,
      "▁M": 485,
      "▁qərar": 486,
      "Amma": 487,
      "et": 488,
      "ləndi": 489,
      "▁oynamağı": 490,
      "▁yan": 491,
      "cəy": 492,
      "məli": 493,
      "▁qoy": 494,
      "▁maş": 495,
      "▁birlikdə": 496,
      "ləy": 497,
      "ından": 498,
      "ağı": 499,
      "mədi": 500,
      "çox": 501,
      "▁deyir": 502,
      "layır": 503,
      "▁çalı": 504,
      "adə": 505,
      "əri": 506,
      "▁quş": 507,
      "▁in": 508,
      "irəm": 509,
      "ütün": 510,
      "öl": 511,
      "kən": 512,
      "▁düşün": 513,
      "üz": 514,
      "▁uz": 515,
      "▁iç": 516,
      "raf": 517,
      "▁park": 518,
      "anın": 519,
      ".\"": 520,
      "▁çalış": 521,
      "əf": 522,
      "▁me": 523,
      "▁çək": 524,
      "unun": 525,
      "▁get": 526,
      "▁ay": 527,
      "ez": 528,
      "▁hey": 529,
      "iç": 530,
      "▁tut": 531,
      "ığ": 532,
      "una": 533,
      "▁uç": 534,
      "▁sən": 535,
      "qa": 536,
      "stər": 537,
      "▁göstər": 538,
      "kür": 539,
      "anlar": 540,
      "Lily": 541,
      "▁əl": 542,
      "Anası": 543,
      "▁qaçdı": 544,
      "▁eşi": 545,
      "▁baxdı": 546,
      "▁söy": 547,
      "▁az": 548,
      "▁C": 549,
      "aks": 550,
      "landı": 551,
      "▁keç": 552,
      "mişə": 553,
      "▁aç": 554,
      "▁kimi": 555,
      "▁öy": 556,
      "amı": 557,
      "mən": 558,
      "Sən": 559,
      "ör": 560,
      "xu": 561,
      "əkkür": 562,
      "▁edirdi": 563,
      "▁sevindi": 564,
      "kin": 565,
      "cək": 566,
      "Anna": 567,
      "▁r": 568,
      "▁oynamaq": 569,
      "▁mən": 570,
      "av": 571,
      "▁mü": 572,
      "arı": 573,
      "sini": 574,
      "ilə": 575,
      "sını": 576,
      "ətraf": 577,
      "üsu": 578,
      "hr": 579,
      "el": 580,
      "Çox": 581,
      "indən": 582,
      "▁özünü": 583,
      "sa": 584,
      "▁qayı": 585,
      "▁Tom": 586,
      "miz": 587,
      "üsusi": 588,
      "ona": 589,
      "Onu": 590,
      "ərək": 591,
      "hat": 592,
      "▁isti": 593,
      "▁bağ": 594,
      "▁anas": 595,
      "▁yük": 596,
      "par": 597,
      "▁təş": 598,
      "iyə": 599,
      "▁zam": 600,
      "▁iş": 601,
      "▁öyrən": 602,
      "tu": 603,
      "ürdü": 604,
      "urdu": 605,
      "▁heç": 606,
      "▁evə": 607,
      "dey": 608,
      "ayan": 609,
      "▁ətraf": 610,
      "▁çat": 611,
      "▁söylədi": 612,
      "▁dav": 613,
      "ırlar": 614,
      "▁ola": 615,
      "dığını": 616,
      "sə": 617,
      "fə": 618,
      "▁su": 619,
      "bu": 620,
      "irdilər": 621,
      "lıq": 622,
      "▁təşəkkür": 623,
      "pə": 624,
      "lakin": 625,
      "▁ağac": 626,
      "qq": 627,
      "▁görün": 628,
      "ışq": 629,
      "▁xüsusi": 630,
      "diyini": 631,
      "yə": 632,
      "Hər": 633,
      "lü": 634,
      "▁yel": 635,
      "ırdılar": 636,
      "zı": 637,
      "Belə": 638,
      "alt": 639,
      "vş": 640,
      "Sonra": 641,
      "Birdən": 642,
      "▁balaca": 643,
      "▁ən": 644,
      "azır": 645,
      "my": 646,
      "▁tapdı": 647,
      "▁sə": 648,
      "cağ": 649,
      "▁yenidən": 650,
      "em": 651,
      "▁olan": 652,
      "▁həmişə": 653,
      "▁top": 654,
      "əng": 655,
      "▁düz": 656,
      "▁dəfə": 657,
      "▁bütün": 658,
      "anış": 659,
      "▁Tim": 660,
      "cəyini": 661,
      "▁yar": 662,
      "mız": 663,
      "▁yox": 664,
      "▁ra": 665,
      "vv": 666,
      "▁yax": 667,
      "▁gəz": 668,
      "lük": 669,
      "▁hazır": 670,
      "▁bilə": 671,
      "▁idilər": 672,
      "ədə": 673,
      "üc": 674,
      "yini": 675,
      "Sara": 676,
      "layırdı": 677,
      "▁çoxlu": 678,
      "▁bilirdi": 679,
      "sək": 680,
      "ların": 681,
      "Beləliklə": 682,
      "ni": 683,
      "laşdı": 684,
      "ot": 685,
      "əyə": 686,
      "eri": 687,
      "▁ana": 688,
      "▁dayan": 689,
      "um": 690,
      "▁üst": 691,
      "cəli": 692,
      "▁tərəf": 693,
      "malı": 694,
      "▁diqq": 695,
      "▁qərarına": 696,
      "ia": 697,
      "dam": 698,
      "▁yemək": 699,
      "ayət": 700,
      "cər": 701,
      "rada": 702,
      "yi": 703,
      "ost": 704,
      "kə": 705,
      "▁həyəcanlandı": 706,
      "dür": 707,
      "▁bilərik": 708,
      "▁yerə": 709,
      "əsi": 710,
      "▁gülümsəy": 711,
      "▁davam": 712,
      "Ki": 713,
      "▁üstün": 714,
      "hrib": 715,
      "və": 716,
      "hriban": 717,
      "larına": 718,
      "Ancaq": 719,
      "▁olmaq": 720,
      "▁apar": 721,
      "▁parlaq": 722,
      "▁eşitdi": 723,
      "▁oxu": 724,
      "▁istəyir": 725,
      "▁bilm": 726,
      "▁fik": 727,
      "Yaxşı": 728,
      "vvəl": 729,
      "uşaq": 730,
      "Biz": 731,
      "ağa": 732,
      "▁kədərləndi": 733,
      "Bəli": 734,
      "▁ca": 735,
      "ta": 736,
      "mış": 737,
      "uq": 738,
      "▁Timmi": 739,
      "▁onları": 740,
      "üy": 741,
      "iq": 742,
      "▁təh": 743,
      "▁yanına": 744,
      "diyi": 745,
      "▁yaxın": 746,
      "Gəl": 747,
      "var": 748,
      "▁təhlük": 749,
      "▁etdilər": 750,
      "▁etməyə": 751,
      "▁heyv": 752,
      "▁tez": 753,
      "əx": 754,
      "ecə": 755,
      "▁düzəl": 756,
      "▁qayıt": 757,
      "▁gördülər": 758,
      "▁qışq": 759,
      "▁zamanlar": 760,
      "▁qucaqladı": 761,
      "ələ": 762,
      "dın": 763,
      "▁qorxdu": 764,
      "rəng": 765,
      "▁danış": 766,
      "lara": 767,
      "▁yüksək": 768,
      "▁gedi": 769,
      "onu": 770,
      "ok": 771,
      "▁başını": 772,
      "▁axt": 773,
      "arahat": 774,
      "lərinə": 775,
      "nə": 776,
      "▁dostları": 777,
      "ğı": 778,
      "▁görür": 779,
      "▁qoydu": 780,
      "mızı": 781,
      "ətlə": 782,
      "▁çıxar": 783,
      "ladılar": 784,
      "▁mehriban": 785,
      "▁axtar": 786,
      "öv": 787,
      "▁düşündü": 788,
      "▁düşdü": 789,
      "gər": 790,
      "▁qur": 791,
      "▁edirəm": 792,
      "▁rəng": 793,
      "▁etməyi": 794,
      "▁şək": 795,
      "isi": 796,
      "ağış": 797,
      "▁qutu": 798,
      "▁bilərəm": 799,
      "▁dər": 800,
      "▁gündən": 801,
      "Maks": 802,
      "əsiz": 803,
      "vab": 804,
      "alam": 805,
      "▁bunu": 806,
      "tə": 807,
      "▁maşın": 808,
      "▁əyləncəli": 809,
      "fadə": 810,
      "▁başqa": 811,
      "cı": 812,
      "Onların": 813,
      "vşan": 814,
      "kı": 815,
      "ht": 816,
      "▁B": 817,
      "akin": 818,
      "əyi": 819,
      "Lakin": 820,
      "▁necə": 821,
      "aqq": 822,
      "əq": 823,
      "onun": 824,
      "yan": 825,
      "▁ya": 826,
      "▁uşaq": 827,
      "▁bilmədi": 828,
      "▁istifadə": 829,
      "▁xoşlayır": 830,
      "▁getdilər": 831,
      "işik": 832,
      "▁qır": 833,
      "▁parkda": 834,
      "əndə": 835,
      "▁tərpə": 836,
      "▁sah": 837,
      "▁neç": 838,
      "▁tərpətdi": 839,
      "ələn": 840,
      "onlar": 841,
      "▁cavab": 842,
      "▁içəri": 843,
      "▁pis": 844,
      "öldə": 845,
      "əmin": 846,
      "dək": 847,
      "▁bilərsən": 848,
      "▁arx": 849,
      "şaq": 850,
      "içək": 851,
      "tab": 852,
      "uk": 853,
      "madı": 854,
      "ənin": 855,
      "▁as": 856,
      "Da": 857,
      "dığı": 858,
      "▁istəm": 859,
      "ri": 860,
      "▁bunun": 861,
      "uz": 862,
      "▁tək": 863,
      "lərə": 864,
      "▁palt": 865,
      "▁əs": 866,
      "▁neçə": 867,
      "İn": 868,
      "əni": 869,
      "▁parka": 870,
      "▁otağ": 871,
      "▁çalışdı": 872,
      "▁götürüb": 873,
      "siniz": 874,
      "▁cəs": 875,
      "▁güc": 876,
      "▁sax": 877,
      "▁xoşlayırdı": 878,
      "ayı": 879,
      "▁yerdə": 880,
      "larla": 881,
      "▁la": 882,
      "siz": 883,
      "▁maşını": 884,
      "▁fəx": 885,
      "▁Maks": 886,
      "▁fəxr": 887,
      "▁ik": 888,
      "▁maraq": 889,
      "▁görüb": 890,
      "▁heyr": 891,
      "▁onunla": 892,
      "▁gey": 893,
      "əyən": 894,
      "Kiçik": 895,
      "▁geri": 896,
      "▁götürdü": 897,
      "▁hamı": 898,
      "ddə": 899,
      "▁yum": 900,
      "zə": 901,
      "▁ayı": 902,
      "sına": 903,
      "▁edi": 904,
      "▁belə": 905,
      "▁uzaq": 906,
      "mət": 907,
      "undan": 908,
      "ru": 909,
      "▁bac": 910,
      "lamağa": 911,
      "▁həyəcanlı": 912,
      "▁çıxdı": 913,
      "▁dostu": 914,
      "▁təhlükəsiz": 915,
      "▁adam": 916,
      "▁kəs": 917,
      "▁görmək": 918,
      "▁bilmə": 919,
      "bət": 920,
      "Balaca": 921,
      "asına": 922,
      "eş": 923,
      "▁əvvəl": 924,
      "▁sağ": 925,
      "adəcə": 926,
      "Və": 927,
      "▁uçdu": 928,
      "əzəb": 929,
      "▁qaz": 930,
      "▁güldü": 931,
      "▁günü": 932,
      "▁-": 933,
      "▁təmiz": 934,
      "▁onlara": 935,
      "▁mənim": 936,
      "Cek": 937,
      "Gəlin": 938,
      "vi": 939,
      "nin": 940,
      "ça": 941,
      "Əl": 942,
      "çünki": 943,
      "Lilinin": 944,
      "▁din": 945,
      "əşf": 946,
      "▁qalx": 947,
      "▁tor": 948,
      "ön": 949,
      "ləş": 950,
      "▁meş": 951,
      "ibar": 952,
      "arkən": 953,
      "▁oynamağa": 954,
      "Son": 955,
      "uncaq": 956,
      "▁başa": 957,
      "eyr": 958,
      "▁kitab": 959,
      "▁tox": 960,
      "ölə": 961,
      "▁oynayırdılar": 962,
      "▁qo": 963,
      "ed": 964,
      "atır": 965,
      "Gün": 966,
      "▁yaşay": 967,
      "▁diqqətli": 968,
      "▁atası": 969,
      "▁bəyən": 970,
      "▁gülümsəyərək": 971,
      "▁giz": 972,
      "▁istəyirəm": 973,
      "▁yol": 974,
      "▁etibar": 975,
      "ddət": 976,
      "▁səh": 977,
      "▁deyildi": 978,
      "dırdı": 979,
      "▁şeylər": 980,
      "▁edər": 981,
      "▁günəş": 982,
      "dar": 983,
      "▁biləcəyini": 984,
      "Hamı": 985,
      "şağı": 986,
      "ly": 987,
      "ark": 988,
      "lamaq": 989,
      "▁yat": 990,
      "▁şir": 991,
      "ılda": 992,
      "Quş": 993,
      "▁söz": 994,
      "▁ikisi": 995,
      "iya": 996,
      "▁gedir": 997,
      "pən": 998,
      "▁dadlı": 999,
      "İndi": 1000,
      "▁onların": 1001,
      "▁güclü": 1002,
      "laya": 1003,
      "▁göstərdi": 1004,
      "▁gələn": 1005,
      "▁aldı": 1006,
      "▁çiçək": 1007,
      "▁bilmirdi": 1008,
      "▁macər": 1009,
      "aylaş": 1010,
      "▁xatır": 1011,
      "hər": 1012,
      "ıç": 1013,
      "əhayət": 1014,
      "▁yığ": 1015,
      "▁qışqırdı": 1016,
      "əlkə": 1017,
      "▁na": 1018,
      "▁qəzəb": 1019,
      "ekay": 1020,
      "▁qap": 1021,
      "▁çöldə": 1022,
      "▁ətrafında": 1023,
      "Lü": 1024,
      "▁qab": 1025,
      "▁arxas": 1026,
      "Salam": 1027,
      "acib": 1028,
      "▁kədərli": 1029,
      "▁oynaya": 1030,
      "▁bit": 1031,
      "aç": 1032,
      "mişdi": 1033,
      "▁iz": 1034,
      "▁eht": 1035,
      "▁unu": 1036,
      "asını": 1037,
      "▁şeyi": 1038,
      "ci": 1039,
      "Nə": 1040,
      "▁kəşf": 1041,
      "imli": 1042,
      "Böyük": 1043,
      "▁göl": 1044,
      "tdir": 1045,
      "alıq": 1046,
      "▁Lily": 1047,
      "böyük": 1048,
      "ök": 1049,
      "▁fikir": 1050,
      "şıq": 1051,
      "əss": 1052,
      "Mia": 1053,
      "▁müddət": 1054,
      "Bax": 1055,
      "▁iki": 1056,
      "▁qulaq": 1057,
      "▁narahat": 1058,
      "▁vacib": 1059,
      "məsini": 1060,
      "▁geyin": 1061,
      "▁səni": 1062,
      "▁ala": 1063,
      "▁şəkil": 1064,
      "▁yor": 1065,
      "za": 1066,
      "▁oyuncaqları": 1067,
      "▁çatanda": 1068,
      "andı": 1069,
      "tıq": 1070,
      "ünə": 1071,
      "▁kim": 1072,
      "layıb": 1073,
      "ue": 1074,
      "Onları": 1075,
      "▁ondan": 1076,
      "▁min": 1077,
      "▁böl": 1078,
      "▁Cek": 1079,
      "Timmy": 1080,
      "ukla": 1081,
      "lim": 1082,
      "iyy": 1083,
      "▁vaxtı": 1084,
      "Oy": 1085,
      "▁siz": 1086,
      "▁lazı": 1087,
      "ıldı": 1088,
      "ğun": 1089,
      "▁insan": 1090,
      "▁tutdu": 1091,
      "məç": 1092,
      "▁qırmızı": 1093,
      "pot": 1094,
      "Ona": 1095,
      "▁çölə": 1096,
      "▁yaşayırdı": 1097,
      "maş": 1098,
      "əsini": 1099,
      "Lüsi": 1100,
      "▁lazım": 1101,
      "▁sənin": 1102,
      "us": 1103,
      "▁sahib": 1104,
      "Sem": 1105,
      "Bil": 1106,
      "Sam": 1107,
      "ürur": 1108,
      "Nəhayət": 1109,
      "Con": 1110,
      "mışdı": 1111,
      "▁lə": 1112,
      "▁ailə": 1113,
      "▁alt": 1114,
      "dırmaq": 1115,
      "hn": 1116,
      "Dedi": 1117,
      "▁paltar": 1118,
      "▁bay": 1119,
      "▁öyrəndi": 1120,
      "▁qarşı": 1121,
      "▁anasına": 1122,
      "öp": 1123,
      "larının": 1124,
      "▁etibarən": 1125,
      "Tez": 1126,
      "▁haqq": 1127,
      "▁cəsar": 1128,
      "▁təs": 1129,
      "ulu": 1130,
      "tar": 1131,
      "asından": 1132,
      "ərk": 1133,
      "▁haqqında": 1134,
      "▁dovşan": 1135,
      "▁maraqlı": 1136,
      "əcc": 1137,
      "əccüb": 1138,
      "quş": 1139,
      "▁getmək": 1140,
      "Ay": 1141,
      "▁otur": 1142,
      "şıb": 1143,
      "əzz": 1144,
      "ye": 1145,
      "▁üzər": 1146,
      "▁qürur": 1147,
      "əşya": 1148,
      "cağını": 1149,
      "Dost": 1150,
      "▁sevimli": 1151,
      "▁sevir": 1152,
      "▁tezliklə": 1153,
      "af": 1154,
      "▁tapa": 1155,
      "ğunu": 1156,
      "gül": 1157,
      "hə": 1158,
      "▁sevən": 1159,
      "▁sürüş": 1160,
      "anım": 1161,
      "▁istə": 1162,
      "man": 1163,
      "▁olduğu": 1164,
      "▁uzun": 1165,
      "Bəlkə": 1166,
      "▁edib": 1167,
      "▁rahat": 1168,
      "daha": 1169,
      "lok": 1170,
      "ehr": 1171,
      "enə": 1172,
      "▁aşağı": 1173,
      "▁gət": 1174,
      "▁həzz": 1175,
      "bəx": 1176,
      "ali": 1177,
      "▁oldular": 1178,
      "▁toxun": 1179,
      "▁diş": 1180,
      "▁pişik": 1181,
      "▁sər": 1182,
      "mid": 1183,
      "▁rəq": 1184,
      "ərkən": 1185,
      "sinə": 1186,
      "ğa": 1187,
      "Qız": 1188,
      "▁cə": 1189,
      "yu": 1190,
      "▁bölüş": 1191,
      "Vay": 1192,
      "▁fır": 1193,
      "ətin": 1194,
      "oz": 1195,
      "Bağış": 1196,
      "lək": 1197,
      "▁yey": 1198,
      "▁razı": 1199,
      "xarı": 1200,
      "▁dəy": 1201,
      "▁heyvanlar": 1202,
      "▁hələ": 1203,
      "ənə": 1204,
      "▁Mia": 1205,
      "▁bur": 1206,
      "▁qala": 1207,
      "▁görünürdü": 1208,
      "▁ax": 1209,
      "At": 1210,
      "mı": 1211,
      "▁yedi": 1212,
      "▁tul": 1213,
      "▁gölməç": 1214,
      "▁əşya": 1215,
      "ahiş": 1216,
      "▁sürətli": 1217,
      "Ağ": 1218,
      "zz": 1219,
      "▁təəccüb": 1220,
      "Yox": 1221,
      "Lila": 1222,
      "dıq": 1223,
      "▁yanında": 1224,
      "▁üç": 1225,
      "masını": 1226,
      "▁daş": 1227,
      "▁kədərlən": 1228,
      "Mənim": 1229,
      "▁etdiyini": 1230,
      "Bob": 1231,
      "Dey": 1232,
      "▁üstünə": 1233,
      "▁kən": 1234,
      "▁mey": 1235,
      "arə": 1236,
      "▁məş": 1237,
      "▁paylaş": 1238,
      "▁yellən": 1239,
      "▁olub": 1240,
      "paq": 1241,
      "▁araş": 1242,
      "▁sevirəm": 1243,
      "▁üstündə": 1244,
      "▁bacar": 1245,
      "qiq": 1246,
      "▁yumşaq": 1247,
      "əhr": 1248,
      "ürlər": 1249,
      "▁yaz": 1250,
      "▁səma": 1251,
      "▁olar": 1252,
      "əcək": 1253,
      "ad": 1254,
      "▁ətrafa": 1255,
      "bəttə": 1256,
      "ıllı": 1257,
      "əlib": 1258,
      "oyuq": 1259,
      "▁mağa": 1260,
      "asının": 1261,
      "alidey": 1262,
      "▁bəz": 1263,
      "▁T": 1264,
      "▁olduq": 1265,
      "akit": 1266,
      "▁nəh": 1267,
      "öh": 1268,
      "▁əyləndilər": 1269,
      "▁st": 1270,
      "▁təb": 1271,
      "▁görürlər": 1272,
      "▁av": 1273,
      "▁yara": 1274,
      "ədən": 1275,
      "hnı": 1276,
      "▁sal": 1277,
      "ti": 1278,
      "▁səbir": 1279,
      "alideyn": 1280,
      "klərini": 1281,
      "ğını": 1282,
      "▁anasının": 1283,
      "Bütün": 1284,
      "id": 1285,
      "▁dolu": 1286,
      "▁başladılar": 1287,
      "dakı": 1288,
      "▁əsəb": 1289,
      "ündür": 1290,
      "ila": 1291,
      "▁balıq": 1292,
      "rı": 1293,
      "iyat": 1294,
      "özəl": 1295,
      "opp": 1296,
      "eçen": 1297,
      "deyə": 1298,
      "lərlə": 1299,
      "Do": 1300,
      "▁yelləy": 1301,
      "dirlər": 1302,
      "▁J": 1303,
      "luq": 1304,
      "küy": 1305,
      "lərin": 1306,
      "▁əla": 1307,
      "rə": 1308,
      "▁kü": 1309,
      "uy": 1310,
      "zi": 1311,
      "sin": 1312,
      "ldu": 1313,
      "▁dar": 1314,
      "▁gir": 1315,
      "▁qarda": 1316,
      "▁çub": 1317,
      "▁qaldı": 1318,
      "▁tapmaq": 1319,
      "▁istəyirsən": 1320,
      "▁orada": 1321,
      "▁isə": 1322,
      "rik": 1323,
      "ağız": 1324,
      "yeni": 1325,
      "▁gəlib": 1326,
      "▁ata": 1327,
      "▁yıx": 1328,
      "▁kukla": 1329,
      "urlar": 1330,
      "kdən": 1331,
      "▁ör": 1332,
      "▁çəkdi": 1333,
      "▁etmə": 1334,
      "▁qayıtdı": 1335,
      "Əlbəttə": 1336,
      "ləmək": 1337,
      "özünü": 1338,
      "rt": 1339,
      "▁hərək": 1340,
      "▁almaq": 1341,
      "kar": 1342,
      "Günəş": 1343,
      "▁mavi": 1344,
      "▁digər": 1345,
      "Baş": 1346,
      "▁l": 1347,
      "▁hav": 1348,
      "ağını": 1349,
      "mağın": 1350,
      "▁hərəkət": 1351,
      "▁sıç": 1352,
      "▁heyrət": 1353,
      "▁cəsarətli": 1354,
      "pr": 1355,
      "▁meşədə": 1356,
      "▁sehr": 1357,
      "▁olmalı": 1358,
      "ığı": 1359,
      "▁sənə": 1360,
      "məlisən": 1361,
      "muş": 1362,
      "▁kar": 1363,
      "▁yuxu": 1364,
      "▁heyvan": 1365,
      "düy": 1366,
      "▁istəmirdi": 1367,
      "▁verdilər": 1368,
      "▁Lilinin": 1369,
      "▁qaçdılar": 1370,
      "▁çal": 1371,
      "eçenye": 1372,
      "lıb": 1373,
      "Birlikdə": 1374,
      "es": 1375,
      "▁ağıllı": 1376,
      "Oğlan": 1377,
      "uc": 1378,
      "▁E": 1379,
      "▁sürətlə": 1380,
      "▁xoşlayırdılar": 1381,
      "▁blok": 1382,
      "▁unut": 1383,
      "▁Sam": 1384,
      "Tezliklə": 1385,
      "▁qəzəbli": 1386,
      "maz": 1387,
      "▁edəcəyini": 1388,
      "▁sevinc": 1389,
      "anası": 1390,
      "qab": 1391,
      "▁topu": 1392,
      "▁edirlər": 1393,
      "▁avt": 1394,
      "▁bar": 1395,
      "əpən": 1396,
      "▁edərək": 1397,
      "▁Sara": 1398,
      "▁olduğuna": 1399,
      "▁Sem": 1400,
      "▁oynayırdı": 1401,
      "▁qoyub": 1402,
      "▁altında": 1403,
      "os": 1404,
      "oyuncaq": 1405,
      "▁mahnı": 1406,
      "▁Anna": 1407,
      "baş": 1408,
      "Öz": 1409,
      "▁rəqs": 1410,
      "cağı": 1411,
      "▁oynadılar": 1412,
      "▁dır": 1413,
      "▁xoşbəx": 1414,
      "▁xoşbəxtdir": 1415,
      "Evə": 1416,
      "▁sakit": 1417,
      "▁qaçıb": 1418,
      "▁sın": 1419,
      "▁gizlən": 1420,
      "▁olacaq": 1421,
      "məl": 1422,
      "Sağ": 1423,
      "asında": 1424,
      "ınca": 1425,
      "avaş": 1426,
      "cazə": 1427,
      "inc": 1428,
      "▁bilərsiniz": 1429,
      "▁Timmy": 1430,
      "▁tullan": 1431,
      "şir": 1432,
      "▁dün": 1433,
      "Daha": 1434,
      "Dais": 1435,
      "▁əmin": 1436,
      "▁pap": 1437,
      "ola": 1438,
      "▁düşünürdü": 1439,
      "biz": 1440,
      "▁tik": 1441,
      "▁parılda": 1442,
      "bağa": 1443,
      "▁görəndə": 1444,
      "zu": 1445,
      "▁böy": 1446,
      "əncər": 1447,
      "ədiy": 1448,
      "ətta": 1449,
      "▁növ": 1450,
      "İç": 1451,
      "▁açıb": 1452,
      "▁apardı": 1453,
      "nun": 1454,
      "▁yeməyi": 1455,
      "▁özü": 1456,
      "laşıb": 1457,
      "▁baxdılar": 1458,
      "▁zaman": 1459,
      "məyin": 1460,
      "▁getməyə": 1461,
      "ondur": 1462,
      "omob": 1463,
      "▁qarış": 1464,
      "eyn": 1465,
      "▁çətin": 1466,
      "Park": 1467,
      "▁bala": 1468,
      "gün": 1469,
      "lardan": 1470,
      "kcə": 1471,
      "▁istəyirdilər": 1472,
      "dost": 1473,
      "ist": 1474,
      "▁ləzz": 1475,
      "▁edirdilər": 1476,
      "əssüm": 1477,
      "▁göy": 1478,
      "▁gecə": 1479,
      "Daisy": 1480,
      "▁şirin": 1481,
      "hd": 1482,
      "emək": 1483,
      "əti": 1484,
      "əcəy": 1485,
      "kü": 1486,
      "▁ad": 1487,
      "▁tax": 1488,
      "mir": 1489,
      "ətən": 1490,
      "maya": 1491,
      "priz": 1492,
      "▁arxasınca": 1493,
      "Maş": 1494,
      "▁mət": 1495,
      "ğın": 1496,
      "▁təbəssüm": 1497,
      "▁ağacın": 1498,
      "▁mətbəx": 1499,
      "▁bildi": 1500,
      "ğu": 1501,
      "osi": 1502,
      "▁hündür": 1503,
      "▁üzr": 1504,
      "▁mağaz": 1505,
      "▁olmağı": 1506,
      "▁çar": 1507,
      "▁otağına": 1508,
      "ündə": 1509,
      "ama": 1510,
      "dırıb": 1511,
      "▁biri": 1512,
      "▁çev": 1513,
      "▁hekay": 1514,
      "Siz": 1515,
      "▁göstərmək": 1516,
      "▁kişi": 1517,
      "▁baxıb": 1518,
      "dülər": 1519,
      "▁hopp": 1520,
      "▁tapdılar": 1521,
      "çək": 1522,
      "Qar": 1523,
      "masına": 1524,
      "lədilər": 1525,
      "ərdi": 1526,
      "ill": 1527,
      "ibə": 1528,
      "▁Bob": 1529,
      "ov": 1530,
      "usi": 1531,
      "▁bərk": 1532,
      "elosi": 1533,
      "elosip": 1534,
      "ərq": 1535,
      "▁dedilər": 1536,
      "Üz": 1537,
      "▁düzəlt": 1538,
      "yav": 1539,
      "▁artıq": 1540,
      "▁yuxarı": 1541,
      "▁seç": 1542,
      "cəl": 1543,
      "dım": 1544,
      "nət": 1545,
      "▁nədir": 1546,
      "▁sağol": 1547,
      "dırlar": 1548,
      "məliy": 1549,
      "▁peçenye": 1550,
      "əyin": 1551,
      "▁ehtiya": 1552,
      "▁mük": 1553,
      "▁dərs": 1554,
      "həmişə": 1555,
      "▁səbirsiz": 1556,
      "▁məm": 1557,
      "cəyi": 1558,
      "mənim": 1559,
      "əhv": 1560,
      "nətdar": 1561,
      "▁yenə": 1562,
      "▁öl": 1563,
      "içan": 1564,
      "erm": 1565,
      "əhrayı": 1566,
      "▁çubuq": 1567,
      "durlar": 1568,
      "▁parça": 1569,
      "▁kağız": 1570,
      "əhər": 1571,
      "eşman": 1572,
      "▁ək": 1573,
      "▁gedib": 1574,
      "▁heyran": 1575,
      "sının": 1576,
      "▁iti": 1577,
      "▁axmaq": 1578,
      "int": 1579,
      "zadə": 1580,
      "ahzadə": 1581,
      "▁minnətdar": 1582,
      "▁hədiy": 1583,
      "Gül": 1584,
      "▁açdı": 1585,
      "imə": 1586,
      "▁boy": 1587,
      "yinə": 1588,
      "▁girdi": 1589,
      "▁tort": 1590,
      "▁keçir": 1591,
      "anavar": 1592,
      "olli": 1593,
      "Hamısı": 1594,
      "larından": 1595,
      "▁qucaqlayıb": 1596,
      "ada": 1597,
      "aşıq": 1598,
      "▁qəribə": 1599,
      "dirdi": 1600,
      "▁sına": 1601,
      "deyir": 1602,
      "▁avtomob": 1603,
      "▁hamısı": 1604,
      "▁çan": 1605,
      "▁yavaş": 1606,
      "▁ağladı": 1607,
      "▁döy": 1608,
      "əyy": 1609,
      "mirdi": 1610,
      "aca": 1611,
      "▁gülməli": 1612,
      "▁çu": 1613,
      "▁məmnun": 1614,
      "Oyuncaq": 1615,
      "vəz": 1616,
      "▁kəpən": 1617,
      "▁mənə": 1618,
      "▁etdiyi": 1619,
      "may": 1620,
      "▁itə": 1621,
      "əsə": 1622,
      "oru": 1623,
      "tı": 1624,
      "əris": 1625,
      "▁dırmaş": 1626,
      "laşdılar": 1627,
      "▁sadəcə": 1628,
      "▁cəhd": 1629,
      "Xeyr": 1630,
      "Dovşan": 1631,
      "▁P": 1632,
      "lət": 1633,
      "ahət": 1634,
      "▁keçirdi": 1635,
      "üd": 1636,
      "▁bilməz": 1637,
      "birlərinə": 1638,
      "ally": 1639,
      "ləməyə": 1640,
      "▁üzərində": 1641,
      "▁sürpriz": 1642,
      "▁yarpaq": 1643,
      "if": 1644,
      "▁gəlir": 1645,
      "▁dol": 1646,
      "Bundan": 1647,
      "Hey": 1648,
      "ləşdi": 1649,
      "▁sehrli": 1650,
      "balaca": 1651,
      "▁niyə": 1652,
      "▁biz": 1653,
      "▁ac": 1654,
      "▁səhər": 1655,
      "▁qazan": 1656,
      "iyyat": 1657,
      "sonra": 1658,
      "▁ümid": 1659,
      "▁qaçır": 1660,
      "▁zər": 1661,
      "ina": 1662,
      "ud": 1663,
      "▁tük": 1664,
      "▁qapı": 1665,
      "▁icazə": 1666,
      "ıra": 1667,
      "▁oxuy": 1668,
      "Bunun": 1669,
      "▁gəldilər": 1670,
      "▁xoşlayırlar": 1671,
      "Spot": 1672,
      "▁indi": 1673,
      "yavaş": 1674,
      "▁edən": 1675,
      "irə": 1676,
      "arət": 1677,
      "Sue": 1678,
      "sınız": 1679,
      "▁pul": 1680,
      "▁anasından": 1681,
      "▁qucaqlayır": 1682,
      "▁evinə": 1683,
      "ğru": 1684,
      "kləri": 1685,
      "▁vardı": 1686,
      "ran": 1687,
      "▁çıxıb": 1688,
      "▁ut": 1689,
      "▁hara": 1690,
      "▁sarı": 1691,
      "Onlara": 1692,
      "məsinə": 1693,
      "ildi": 1694,
      "yıq": 1695,
      "▁yoxdur": 1696,
      "anlıq": 1697,
      "▁alma": 1698,
      "▁ağaca": 1699,
      "əhmət": 1700,
      "▁gözəldir": 1701,
      "ancaq": 1702,
      "▁qışqır": 1703,
      "çı": 1704,
      "ırp": 1705,
      "▁yarat": 1706,
      "▁istəyirlər": 1707,
      "əşəkkür": 1708,
      "▁çağ": 1709,
      "rtəsi": 1710,
      "lduz": 1711,
      "▁edəcək": 1712,
      "yaş": 1713,
      "▁görmə": 1714,
      "▁düny": 1715,
      "▁təəccübləndi": 1716,
      "Ət": 1717,
      "▁evdə": 1718,
      "daq": 1719,
      "▁L": 1720,
      "Mənə": 1721,
      "▁saç": 1722,
      "har": 1723,
      "ənc": 1724,
      "əmməl": 1725,
      "▁bal": 1726,
      "▁aldılar": 1727,
      "Ayı": 1728,
      "▁gözləy": 1729,
      "▁tutub": 1730,
      "bəxt": 1731,
      "Kaş": 1732,
      "▁mək": 1733,
      "▁rəngli": 1734,
      "▁lazımdır": 1735,
      "Heç": 1736,
      "▁gedə": 1737,
      "əlif": 1738,
      "▁çir": 1739,
      "amiz": 1740,
      "lib": 1741,
      "ğul": 1742,
      "iləş": 1743,
      "▁əlindən": 1744,
      "xtəlif": 1745,
      "əst": 1746,
      "Narahat": 1747,
      "▁yaşıl": 1748,
      "Ətraf": 1749,
      "ırmızı": 1750,
      "▁çırp": 1751,
      "▁yuvar": 1752,
      "abı": 1753,
      "▁F": 1754,
      "▁Lüsi": 1755,
      "Pişik": 1756,
      "▁po": 1757,
      "Ge": 1758,
      "lam": 1759,
      "öcək": 1760,
      "fet": 1761,
      "Köp": 1762,
      "▁fərq": 1763,
      "▁zəng": 1764,
      "çi": 1765,
      "▁macəra": 1766,
      "▁düy": 1767,
      "lərdə": 1768,
      "Kişi": 1769,
      "▁soyuq": 1770,
      "orma": 1771,
      "Niyə": 1772,
      "▁bat": 1773,
      "qış": 1774,
      "▁qorxurdu": 1775,
      "▁vur": 1776,
      "iyatlı": 1777,
      "▁piş": 1778,
      "hnə": 1779,
      "▁köhnə": 1780,
      "iri": 1781,
      "▁kör": 1782,
      "bütün": 1783,
      "▁vermək": 1784,
      "▁darıx": 1785,
      "əsm": 1786,
      "ka": 1787,
      "▁peşman": 1788,
      "Xoş": 1789,
      "▁içində": 1790,
      "Ann": 1791,
      "usiq": 1792,
      "▁düşünür": 1793,
      "▁qarı": 1794,
      "Di": 1795,
      "▁qoş": 1796,
      "üf": 1797,
      "▁araşdırmaq": 1798,
      "▁deyirlər": 1799,
      "▁olmadığını": 1800,
      "qaç": 1801,
      "düyünü": 1802,
      "▁qaytar": 1803,
      "▁yağış": 1804,
      "xlaq": 1805,
      "▁olduqlarını": 1806,
      "▁soruşur": 1807,
      "lamağı": 1808,
      "anasından": 1809,
      "▁Sue": 1810,
      "arın": 1811,
      "cağına": 1812,
      "▁burax": 1813,
      "▁olun": 1814,
      "▁həyət": 1815,
      "yox": 1816,
      "▁arzu": 1817,
      "▁gec": 1818,
      "▁ey": 1819,
      "dıb": 1820,
      "▁otağında": 1821,
      "▁bilərikmi": 1822,
      "Bağışla": 1823,
      "▁xoşbəxtdirlər": 1824,
      "▁dayandı": 1825,
      "əmi": 1826,
      "▁oyuncaqlarını": 1827,
      "▁atdı": 1828,
      "▁səmada": 1829,
      "▁valideyn": 1830,
      "▁uçur": 1831,
      "▁həqiq": 1832,
      "gi": 1833,
      "malısan": 1834,
      "▁içəris": 1835,
      "İçəri": 1836,
      "▁əxlaq": 1837,
      "ane": 1838,
      "adi": 1839,
      "▁dondur": 1840,
      "Anam": 1841,
      "▁bağda": 1842,
      "Köpək": 1843,
      "onaq": 1844,
      "Ertəsi": 1845,
      "▁tən": 1846,
      "▁kənar": 1847,
      "▁fikri": 1848,
      "▁bacı": 1849,
      "▁özlərini": 1850,
      "▁Spot": 1851,
      "▁görünür": 1852,
      "▁duy": 1853,
      "sın": 1854,
      "yaxşı": 1855,
      "▁cəsur": 1856,
      "ülkü": 1857,
      "Ot": 1858,
      "▁anladı": 1859,
      "▁keçirdilər": 1860,
      "▁müxtəlif": 1861,
      "▁əxlaqı": 1862,
      "▁baxmaq": 1863,
      "nız": 1864,
      "▁pəncər": 1865,
      "alç": 1866,
      "▁boş": 1867,
      "▁olmasa": 1868,
      "▁ağlamağa": 1869,
      "Hekay": 1870,
      "▁hör": 1871,
      "dv": 1872,
      "▁oyuncağı": 1873,
      "altı": 1874,
      "▁edirsən": 1875,
      "ilas": 1876,
      "▁rəf": 1877,
      "▁avtomobil": 1878,
      "▁qey": 1879,
      "▁mağazaya": 1880,
      "▁işıq": 1881,
      "▁doldur": 1882,
      "▁nəhayət": 1883,
      "dəniz": 1884,
      "həm": 1885,
      "gözəl": 1886,
      "▁alqış": 1887,
      "▁yaxınlaş": 1888,
      "Təşəkkür": 1889,
      "▁R": 1890,
      "arab": 1891,
      "▁yaxşıdır": 1892,
      "▁çıxarıb": 1893,
      "▁sevinclə": 1894,
      "lərdən": 1895,
      "▁velosip": 1896,
      "▁qara": 1897,
      "ğında": 1898,
      "▁biləcək": 1899,
      "lənirdi": 1900,
      "▁danışdı": 1901,
      "▁səhv": 1902,
      "▁yelləncək": 1903,
      "dırı": 1904,
      "layın": 1905,
      "▁qol": 1906,
      "▁yap": 1907,
      "Həmin": 1908,
      "▁inci": 1909,
      "▁heyrətamiz": 1910,
      "▁diqqətlə": 1911,
      "▁en": 1912,
      "▁düzəltdi": 1913,
      "Yeni": 1914,
      "Ağac": 1915,
      "lərindən": 1916,
      "▁bən": 1917,
      "▁çalışsa": 1918,
      "xur": 1919,
      "▁yellədi": 1920,
      "▁əsəbiləş": 1921,
      "oya": 1922,
      "▁K": 1923,
      "▁yaşı": 1924,
      "▁oturdu": 1925,
      "oe": 1926,
      "▁dostdurlar": 1927,
      "lərinin": 1928,
      "▁bişir": 1929,
      "ff": 1930,
      "▁qoca": 1931,
      "▁xilas": 1932,
      "▁sk": 1933,
      "▁xanım": 1934,
      "məni": 1935,
      "▁qutus": 1936,
      "▁qaya": 1937,
      "▁əlini": 1938,
      "payı": 1939,
      "▁verir": 1940,
      "▁ulduz": 1941,
      "▁keçdi": 1942,
      "▁xahiş": 1943,
      "▁yay": 1944,
      "▁səslə": 1945,
      "tez": 1946,
      "Cim": 1947,
      "van": 1948,
      "bi": 1949,
      "▁gülümsəyir": 1950,
      "birlərini": 1951,
      "▁burada": 1952,
      "▁şən": 1953,
      "▁vacibdir": 1954,
      "▁gətir": 1955,
      "əlyan": 1956,
      "diyinə": 1957,
      "ğur": 1958,
      "Uşaq": 1959,
      "▁quy": 1960,
      "▁fil": 1961,
      "▁qum": 1962,
      "▁oxudu": 1963,
      "▁xatırladı": 1964,
      "Bunu": 1965,
      "▁seyr": 1966,
      "▁ağrı": 1967,
      "▁gələndə": 1968,
      "▁mükəmməl": 1969,
      "fən": 1970,
      "▁yaşa": 1971,
      "▁bas": 1972,
      "lud": 1973,
      "▁öp": 1974,
      "▁ləzzətli": 1975,
      "▁izah": 1976,
      "▁Con": 1977,
      "▁çay": 1978,
      "əlyanaltı": 1979,
      "▁möh": 1980,
      "▁verə": 1981,
      "irdikdən": 1982,
      "▁başına": 1983,
      "ömək": 1984,
      "▁çəhrayı": 1985,
      "▁qarışıq": 1986,
      "▁ip": 1987,
      "Par": 1988,
      "irsən": 1989,
      "ərə": 1990,
      "▁qorxulu": 1991,
      "▁ördək": 1992,
      "əyahət": 1993,
      "▁nəf": 1994,
      "cağam": 1995,
      "Hekayənin": 1996,
      "Ev": 1997,
      "▁qayıq": 1998,
      "▁bayıra": 1999,
      "▁hekayə": 2000,
      "▁bilərəmmi": 2001,
      "Orada": 2002,
      "heç": 2003,
      "▁şəkildə": 2004,
      "▁tel": 2005,
      "aqqabı": 2006,
      "▁dostlarına": 2007,
      "▁oturub": 2008,
      "▁plan": 2009,
      "▁şeyləri": 2010,
      "▁hədiyyə": 2011,
      "▁kol": 2012,
      "▁etməli": 2013,
      "▁mi": 2014,
      "Qap": 2015,
      "yer": 2016,
      "▁ağır": 2017,
      "intiyə": 2018,
      "▁baxır": 2019,
      "▁edək": 2020,
      "▁təp": 2021,
      "Deyir": 2022,
      "▁say": 2023,
      "▁yarış": 2024,
      "anad": 2025,
      "▁bağış": 2026,
      "▁oynayarkən": 2027,
      "ata": 2028,
      "dığına": 2029,
      "▁iy": 2030,
      "Bəz": 2031,
      "▁yağ": 2032,
      "▁dəniz": 2033,
      "▁sevirlər": 2034,
      "bunun": 2035,
      "rar": 2036,
      "▁yaşlı": 2037,
      "muşdu": 2038,
      "yəm": 2039,
      "▁öyrənmək": 2040,
      "onfet": 2041,
      "ort": 2042,
      "▁sir": 2043,
      "gülüms": 2044,
      "iyi": 2045,
      "Parkda": 2046,
      "olu": 2047,
      "▁Liliyə": 2048,
      "▁sığ": 2049,
      "Sənin": 2050,
      "ucy": 2051,
      "lərində": 2052,
      "▁rəsm": 2053,
      "▁quyru": 2054,
      "▁ailəsi": 2055,
      "▁xəz": 2056,
      "▁əkiz": 2057,
      "▁gedək": 2058,
      "▁olaraq": 2059,
      "▁sizin": 2060,
      "▁hoppan": 2061,
      "▁demək": 2062,
      "▁razılaşdı": 2063,
      "▁uzan": 2064,
      "of": 2065,
      "▁can": 2066,
      "Su": 2067,
      "▁öyrəndilər": 2068,
      "bağ": 2069,
      "inib": 2070,
      "▁kəpənək": 2071,
      "▁yorğun": 2072,
      "rob": 2073,
      "lif": 2074,
      "▁gözlərini": 2075,
      "ərç": 2076,
      "lına": 2077,
      "▁xoşuna": 2078,
      "▁zərər": 2079,
      "Sadəcə": 2080,
      "eti": 2081,
      "ip": 2082,
      "üllə": 2083,
      "▁olmağa": 2084,
      "bunu": 2085,
      "▁əylənirdilər": 2086,
      "▁qardaş": 2087,
      "▁böyü": 2088,
      "ləyə": 2089,
      "əsinə": 2090,
      "ray": 2091,
      "▁həqiqətən": 2092,
      "axta": 2093,
      "▁qapını": 2094,
      "▁qut": 2095,
      "▁xəst": 2096,
      "▁fırlan": 2097,
      "▁olanda": 2098,
      "dy": 2099,
      "▁təhlükəli": 2100,
      "▁gü": 2101,
      "vaz": 2102,
      "▁çirk": 2103,
      "▁siçan": 2104,
      "▁atam": 2105,
      "din": 2106,
      "▁qoşul": 2107,
      "Al": 2108,
      "▁ayaq": 2109,
      "▁uy": 2110,
      "Göz": 2111,
      "▁anasını": 2112,
      "▁ban": 2113,
      "▁getdikcə": 2114,
      "▁etdin": 2115,
      "üst": 2116,
      "məliyik": 2117,
      "▁gəzintiyə": 2118,
      "▁quşu": 2119,
      "Gör": 2120,
      "▁bəzi": 2121,
      "▁təbəssümlə": 2122,
      "acağ": 2123,
      "▁uzaqlaş": 2124,
      "▁musiq": 2125,
      "ge": 2126,
      "obud": 2127,
      "▁eşit": 2128,
      "İt": 2129,
      "ermer": 2130,
      "▁istəmədi": 2131,
      "liyə": 2132,
      "▁məşğul": 2133,
      "əhvəyi": 2134,
      "dını": 2135,
      "▁yeri": 2136,
      "▁qaçmağı": 2137,
      "▁nahar": 2138,
      "Ar": 2139,
      "sadəcə": 2140,
      "▁ehtiyacı": 2141,
      "opu": 2142,
      "▁il": 2143,
      "Bağışlayın": 2144,
      "sev": 2145,
      "▁qəlyanaltı": 2146,
      "kaf": 2147,
      "▁fərqli": 2148,
      "lığı": 2149,
      "▁başlarını": 2150,
      "liş": 2151,
      "ması": 2152,
      "▁təyy": 2153,
      "Atası": 2154,
      "▁is": 2155,
      "ləyir": 2156,
      "orb": 2157,
      "▁şahzadə": 2158,
      "▁sıx": 2159,
      "lənir": 2160,
      "▁canavar": 2161,
      "▁Lilyin": 2162,
      "▁olacağını": 2163,
      "▁ağlına": 2164,
      "qorx": 2165,
      "▁işı": 2166,
      "ent": 2167,
      "mır": 2168,
      "ora": 2169,
      "sında": 2170,
      "▁tüklü": 2171,
      "▁sil": 2172,
      "bəti": 2173,
      "▁qaş": 2174,
      "▁etdir": 2175,
      "▁çant": 2176,
      "dalı": 2177,
      "layırlar": 2178,
      "▁qonaq": 2179,
      "▁otaq": 2180,
      "▁qürurlu": 2181,
      "▁verdiyini": 2182,
      "▁gəldin": 2183,
      "yum": 2184,
      "ida": 2185,
      "əyal": 2186,
      "▁davran": 2187,
      "▁yaxınlaşdı": 2188,
      "▁arxasında": 2189,
      "İst": 2190,
      "▁gəzməyə": 2191,
      "indi": 2192,
      "Qut": 2193,
      "qar": 2194,
      "gəl": 2195,
      "ardı": 2196,
      "▁nən": 2197,
      "▁qaçmağa": 2198,
      "kəm": 2199,
      "▁sıçra": 2200,
      "aşıqlı": 2201,
      "▁əyləndi": 2202,
      "▁nəhəng": 2203,
      "▁son": 2204,
      "▁tök": 2205,
      "mun": 2206,
      "▁konfet": 2207,
      "▁əylənirlər": 2208,
      "▁im": 2209,
      "▁gördüy": 2210,
      "▁yal": 2211,
      "Əy": 2212,
      "▁gəldiyini": 2213,
      "robl": 2214,
      "▁forma": 2215,
      "▁bəyəndi": 2216,
      "▁qox": 2217,
      "▁səyahət": 2218,
      "▁qı": 2219,
      "eyir": 2220,
      "Özünü": 2221,
      "▁çuxur": 2222,
      "Dostları": 2223,
      "▁inan": 2224,
      "udu": 2225,
      "▁gətirdi": 2226,
      "ləncəli": 2227,
      "▁yuxuya": 2228,
      "▁nəsə": 2229,
      "▁əlində": 2230,
      "▁eşitdilər": 2231,
      "▁böcək": 2232,
      "▁doğru": 2233,
      "▁bölüşmək": 2234,
      "sun": 2235,
      "▁səbirsizlənirdi": 2236,
      "▁çarpayı": 2237,
      "dırmağa": 2238,
      "▁istədiyini": 2239,
      "aat": 2240,
      "▁dön": 2241,
      "andaş": 2242,
      "Göy": 2243,
      "ef": 2244,
      "▁şeyin": 2245,
      "onş": 2246,
      "▁qat": 2247,
      "▁uşaqlar": 2248,
      "larında": 2249,
      "▁müb": 2250,
      "▁yorğ": 2251,
      "Benni": 2252,
      "sür": 2253,
      "maqdan": 2254,
      "▁oynayırlar": 2255,
      "▁saxlamaq": 2256,
      "lini": 2257,
      "▁axtarırdı": 2258,
      "▁içərisində": 2259,
      "▁qalxdı": 2260,
      "▁oynayaq": 2261,
      "▁şəhər": 2262,
      "▁məx": 2263,
      "▁məh": 2264,
      "▁dünyanı": 2265,
      "▁çıxardı": 2266,
      "▁qaldırıb": 2267,
      "örək": 2268,
      "Molli": 2269,
      "▁gedirlər": 2270,
      "▁ölç": 2271,
      "mma": 2272,
      "▁olsa": 2273,
      "▁məkt": 2274,
      "▁güldülər": 2275,
      "▁qayıtdılar": 2276,
      "əliq": 2277,
      "yam": 2278,
      "▁dondurma": 2279,
      "sənin": 2280,
      "▁getməyi": 2281,
      "luff": 2282,
      "əmə": 2283,
      "aranın": 2284,
      "Amy": 2285,
      "pa": 2286,
      "▁dal": 2287,
      "övş": 2288,
      "▁təklif": 2289,
      "Gözəl": 2290,
      "mirəm": 2291,
      "jdaha": 2292,
      "▁istəyirik": 2293,
      "əziz": 2294,
      "Tə": 2295,
      "▁suya": 2296,
      "▁bilməyə": 2297,
      "▁xəb": 2298,
      "enni": 2299,
      "▁yet": 2300,
      "▁döyüş": 2301,
      "▁bağç": 2302,
      "▁sonun": 2303,
      "▁xəyal": 2304,
      "▁diqqət": 2305,
      "▁möhkəm": 2306,
      "▁tanış": 2307,
      "qışq": 2308,
      "aba": 2309,
      "məz": 2310,
      "▁üzərinə": 2311,
      "▁yuv": 2312,
      "dərkən": 2313,
      "▁sevdiyi": 2314,
      "▁sizə": 2315,
      "▁saxlaya": 2316,
      "əssüf": 2317,
      "▁mər": 2318,
      "▁şa": 2319,
      "▁asmadı": 2320,
      "▁bulud": 2321,
      "▁qurbağa": 2322,
      "övşəyi": 2323,
      "▁əllərini": 2324,
      "▁səsi": 2325,
      "iyyət": 2326,
      "▁onlarla": 2327,
      "emi": 2328,
      "minin": 2329,
      "▁birini": 2330,
      "▁sar": 2331,
      "▁sıçray": 2332,
      "▁əvvəlcə": 2333,
      "▁hazırladı": 2334,
      "▁uyğun": 2335,
      "oca": 2336,
      "▁kür": 2337,
      "▁yaraşıqlı": 2338,
      "▁almağa": 2339,
      "▁ov": 2340,
      "▁sərin": 2341,
      "▁qaranlıq": 2342,
      "▁yıxıldı": 2343,
      "▁qov": 2344,
      "dib": 2345,
      "▁papaq": 2346,
      "▁növbə": 2347,
      "Sally": 2348,
      "bərk": 2349,
      "▁qoydular": 2350,
      "mat": 2351,
      "ərif": 2352,
      "▁əlavə": 2353,
      "▁adı": 2354,
      "Jane": 2355,
      "▁vaxtdan": 2356,
      "yy": 2357,
      "Kit": 2358,
      "▁qızı": 2359,
      "iniz": 2360,
      "▁kimin": 2361,
      "Uz": 2362,
      "▁istədilər": 2363,
      "▁sınamaq": 2364,
      "cəm": 2365,
      "▁tənha": 2366,
      "yük": 2367,
      "Tomun": 2368,
      "▁əsəbiləşdi": 2369,
      "dəki": 2370,
      "▁probl": 2371,
      "▁yeməyə": 2372,
      "▁külək": 2373,
      "▁tutmağa": 2374,
      "unda": 2375,
      "▁itir": 2376,
      "Maşın": 2377,
      "vəs": 2378,
      "adan": 2379,
      "▁gözləri": 2380,
      "birinə": 2381,
      "ağın": 2382,
      "Adam": 2383,
      "▁sevirdilər": 2384,
      "▁maşının": 2385,
      "▁dəyiş": 2386,
      "anasının": 2387,
      "layd": 2388,
      "ırt": 2389,
      "▁div": 2390,
      "▁daşı": 2391,
      "▁sahibi": 2392,
      "▁Ceyn": 2393,
      "▁səliq": 2394,
      "isə": 2395,
      "▁qoru": 2396,
      "▁çatdı": 2397,
      "▁bundan": 2398,
      "▁gedən": 2399,
      "əmir": 2400,
      "me": 2401,
      "▁cib": 2402,
      "əryəm": 2403,
      "dirmək": 2404,
      "Qırmızı": 2405,
      "we": 2406,
      "ənab": 2407,
      "▁çalışdılar": 2408,
      "▁qaçaraq": 2409,
      "▁hal": 2410,
      "▁macəraya": 2411,
      "fayət": 2412,
      "▁şam": 2413,
      "bəz": 2414,
      "▁sağollaşdı": 2415,
      "▁dostum": 2416,
      "lo": 2417,
      "diyə": 2418,
      "▁diz": 2419,
      "▁əvəz": 2420,
      "imər": 2421,
      "▁dəqiq": 2422,
      "xoş": 2423,
      "▁Tomun": 2424,
      "mey": 2425,
      "▁nəfəs": 2426,
      "▁bilərdi": 2427,
      "▁dayandır": 2428,
      "▁sonunda": 2429,
      "müş": 2430,
      "▁həyəcanlan": 2431,
      "xah": 2432,
      "▁eyni": 2433,
      "▁buna": 2434,
      "lis": 2435,
      "▁xəbər": 2436,
      "▁səninlə": 2437,
      "▁ür": 2438,
      "▁bildiyi": 2439,
      "ıram": 2440,
      "▁etməkdən": 2441,
      "endir": 2442,
      "ağac": 2443,
      "əkim": 2444,
      "▁işarə": 2445,
      "▁sat": 2446,
      "buna": 2447,
      "malıyıq": 2448,
      "tma": 2449,
      "▁ayaqqabı": 2450,
      "bəzən": 2451,
      "▁qalib": 2452,
      "▁bilirdilər": 2453,
      "▁vurdu": 2454,
      "▁maşınları": 2455,
      "▁insanlar": 2456,
      "▁xarab": 2457,
      "▁ardın": 2458,
      "▁otların": 2459,
      "ləməyi": 2460,
      "\",": 2461,
      "▁qızın": 2462,
      "▁qüllə": 2463,
      "▁gəzərkən": 2464,
      "Atam": 2465,
      "eyirxah": 2466,
      "▁bizim": 2467,
      "Məni": 2468,
      "▁biləcəyi": 2469,
      "əngəl": 2470,
      "▁çəkməyə": 2471,
      "▁kr": 2472,
      "▁baxmağı": 2473,
      "luffy": 2474,
      "ücü": 2475,
      "çt": 2476,
      "▁şan": 2477,
      "məyus": 2478,
      "▁kobud": 2479,
      "gülümsədi": 2480,
      "əbul": 2481,
      "▁qardaşı": 2482,
      "▁qayğı": 2483,
      "▁şok": 2484,
      "ləndilər": 2485,
      "əmən": 2486,
      "▁yüksəklərə": 2487,
      "oyna": 2488,
      "▁heyvanları": 2489,
      "▁əşyaları": 2490,
      "▁tələ": 2491,
      "bur": 2492,
      "Co": 2493,
      "öş": 2494,
      "▁tutmaq": 2495,
      "hətta": 2496,
      "▁baxırlar": 2497,
      "▁gedirdi": 2498,
      "▁lim": 2499,
      "onları": 2500,
      "əsən": 2501,
      "▁ardınca": 2502,
      "birini": 2503,
      "əvvəl": 2504,
      "sah": 2505,
      "ic": 2506,
      "▁çirkli": 2507,
      "▁təq": 2508,
      "▁görməyə": 2509,
      "axın": 2510,
      "▁oxumağı": 2511,
      "Qorx": 2512,
      "iblər": 2513,
      "▁ham": 2514,
      "gə": 2515,
      "▁səb": 2516,
      "məkdən": 2517,
      "Oyna": 2518,
      "səni": 2519,
      "▁gedərkən": 2520,
      "▁Daisy": 2521,
      "▁üzündə": 2522,
      "▁barədə": 2523,
      "kök": 2524,
      "▁qəbul": 2525,
      "▁gəlirdi": 2526,
      "▁vida": 2527,
      "▁əylənirdi": 2528,
      "▁çəkməyi": 2529,
      "▁düzəldə": 2530,
      "▁bilərsənmi": 2531,
      "▁arasında": 2532,
      "ellən": 2533,
      "▁olur": 2534,
      "ili": 2535,
      "iyarət": 2536,
      "▁inc": 2537,
      "▁dovş": 2538,
      "▁şüş": 2539,
      "▁saat": 2540,
      "▁j": 2541,
      "Tommi": 2542,
      "▁söylədilər": 2543,
      "▁iliş": 2544,
      "▁səslər": 2545,
      "▁çağırdı": 2546,
      "ro": 2547,
      "Qur": 2548,
      "lat": 2549,
      "anasına": 2550,
      "▁məni": 2551,
      "Elə": 2552,
      "çaq": 2553,
      "əqiq": 2554,
      "▁ətrafda": 2555,
      "▁qorxdular": 2556,
      "▁id": 2557,
      "▁sevirik": 2558,
      "▁kart": 2559,
      "▁əsəbi": 2560,
      "▁uzaqlaşdı": 2561,
      "get": 2562,
      "▁karandaş": 2563,
      "Tommy": 2564,
      "▁quşun": 2565,
      "adü": 2566,
      "▁dərin": 2567,
      "Əvvəl": 2568,
      "▁salam": 2569,
      "əcəyini": 2570,
      "oyun": 2571,
      "▁dələ": 2572,
      "ələm": 2573,
      "acaq": 2574,
      "▁sevindilər": 2575,
      "adüfən": 2576,
      "▁qaçırlar": 2577,
      "başqa": 2578,
      "▁baxırdı": 2579,
      "▁qeyd": 2580,
      "məsi": 2581,
      "▁qul": 2582,
      "mü": 2583,
      "sağ": 2584,
      "▁tapmağa": 2585,
      "▁budaq": 2586,
      "▁dayandırdı": 2587,
      "▁getməli": 2588,
      "lığında": 2589,
      "▁vaxtıdır": 2590,
      "▁tit": 2591,
      "▁qutunu": 2592,
      "▁nəz": 2593,
      "▁mətbəxə": 2594,
      "▁bilməzsən": 2595,
      "▁sərt": 2596,
      "Parlaq": 2597,
      "olun": 2598,
      "Ailə": 2599,
      "▁yeməy": 2600,
      "larda": 2601,
      "▁gözlədi": 2602,
      "▁balı": 2603,
      "Dedilər": 2604,
      "dular": 2605,
      "▁şkaf": 2606,
      "itt": 2607,
      "kiçik": 2608,
      "▁məyus": 2609,
      "▁ziyarət": 2610,
      "▁meyvə": 2611,
      "▁yapış": 2612,
      "▁qucaqladılar": 2613,
      "Qu": 2614,
      "sənə": 2615,
      "edə": 2616,
      "▁kifayət": 2617,
      "Emi": 2618,
      "▁içəridə": 2619,
      "▁şar": 2620,
      "▁həvəs": 2621,
      "Qoca": 2622,
      "▁etdiyinə": 2623,
      "▁istədiyi": 2624,
      "vanlar": 2625,
      "▁quşa": 2626,
      "əllim": 2627,
      "▁bilsin": 2628,
      "▁tar": 2629,
      "cəyinə": 2630,
      "ura": 2631,
      "ağına": 2632,
      "drik": 2633,
      "▁müdrik": 2634,
      "▁tərpən": 2635,
      "▁şadam": 2636,
      "▁ved": 2637,
      "▁qadın": 2638,
      "Hə": 2639,
      "▁qalxıb": 2640,
      "Lilini": 2641,
      "▁xəzinə": 2642,
      "öndü": 2643,
      "▁yaxınlığında": 2644,
      "▁birdən": 2645,
      "Çoxlu": 2646,
      "onlara": 2647,
      "dviç": 2648,
      "Mü": 2649,
      "▁uzat": 2650,
      "Yaş": 2651,
      "▁yaşayan": 2652,
      "▁dəli": 2653,
      "▁gözlə": 2654,
      "▁sürün": 2655,
      "▁yalnız": 2656,
      "Oh": 2657,
      "Onunla": 2658,
      "orc": 2659,
      "▁körp": 2660,
      "▁əh": 2661,
      "niyə": 2662,
      "üç": 2663,
      "çu": 2664,
      "▁atıb": 2665,
      "▁biləcəklərini": 2666,
      "▁qəf": 2667,
      "▁üstündən": 2668,
      "▁fay": 2669,
      "onların": 2670,
      "▁sığal": 2671,
      "lanı": 2672,
      "hal": 2673,
      "▁zərif": 2674,
      "▁fikirləşdi": 2675,
      "▁təslim": 2676,
      "illi": 2677,
      "▁dostlar": 2678,
      "lanın": 2679,
      "▁hətta": 2680,
      "▁Benni": 2681,
      "▁ehtiyatlı": 2682,
      "İçəridə": 2683,
      "▁dişlədi": 2684,
      "kil": 2685,
      "▁gizli": 2686,
      "tək": 2687,
      "▁parç": 2688,
      "Sür": 2689,
      "▁fit": 2690,
      "▁qayıda": 2691,
      "▁alçaq": 2692,
      "▁gənc": 2693,
      "▁havada": 2694,
      "əzizim": 2695,
      "▁ağacı": 2696,
      "▁qanad": 2697,
      "▁meydan": 2698,
      "▁verən": 2699,
      "Deyirlər": 2700,
      "▁iri": 2701,
      "do": 2702,
      "parlaq": 2703,
      "▁sahilə": 2704,
      "▁bə": 2705,
      "▁dincəl": 2706,
      "▁sağlam": 2707,
      "▁geyindi": 2708,
      "▁atladı": 2709,
      "▁kom": 2710,
      "▁mas": 2711,
      "irv": 2712,
      "oop": 2713,
      "▁adamı": 2714,
      "fat": 2715,
      "ümçək": 2716,
      "▁sevinirdi": 2717,
      "▁löv": 2718,
      "qo": 2719,
      "▁soy": 2720,
      "Lucy": 2721,
      "▁yolu": 2722,
      "▁işə": 2723,
      "▁çıxdılar": 2724,
      "eviz": 2725,
      "▁qəhvəyi": 2726,
      "illə": 2727,
      "▁istəyib": 2728,
      "İki": 2729,
      "sinin": 2730,
      "Cimmi": 2731,
      "▁məc": 2732,
      "endviç": 2733,
      "iyatla": 2734,
      "▁gələ": 2735,
      "yada": 2736,
      "▁Li": 2737,
      "▁tapdım": 2738,
      "bəli": 2739,
      "▁ib": 2740,
      "▁düşür": 2741,
      "▁axtardı": 2742,
      "▁qoyur": 2743,
      "əsinin": 2744,
      "▁şorb": 2745,
      "▁kənarında": 2746,
      "▁has": 2747,
      "▁eşidib": 2748,
      "uya": 2749,
      "Düş": 2750,
      "▁inana": 2751,
      "▁olmaqdan": 2752,
      "▁bilmirdilər": 2753,
      "▁itirdi": 2754,
      "dıcı": 2755,
      "▁skam": 2756,
      "▁D": 2757,
      "dına": 2758,
      "üclü": 2759,
      "əqiqətən": 2760,
      "Mənimlə": 2761,
      "ovuz": 2762,
      "xüsusi": 2763,
      "əvv": 2764,
      "▁yerinə": 2765,
      "▁sob": 2766,
      "Annanın": 2767,
      "▁yelləyir": 2768,
      "▁bitirdikdən": 2769,
      "▁olmasını": 2770,
      "▁parıldayan": 2771,
      "▁divar": 2772,
      "▁tapıb": 2773,
      "arafat": 2774,
      "▁özünə": 2775,
      "▁gülümsədilər": 2776,
      "▁dayanıb": 2777,
      "▁çəkmək": 2778,
      "itten": 2779,
      "izə": 2780,
      "▁köməyə": 2781,
      "▁bitir": 2782,
      "baq": 2783,
      "ləyib": 2784,
      "göz": 2785,
      "▁evi": 2786,
      "vət": 2787,
      "anaya": 2788,
      "lıqla": 2789,
      "irəli": 2790,
      "▁ora": 2791,
      "▁istəyən": 2792,
      "▁çıxmaq": 2793,
      "▁Benə": 2794,
      "▁tülkü": 2795,
      "uşaqlar": 2796,
      "▁məşq": 2797,
      "▁qatar": 2798,
      "ket": 2799,
      "▁maşına": 2800,
      "▁pişiyi": 2801,
      "park": 2802,
      "▁incit": 2803,
      "▁arı": 2804,
      "yırdı": 2805,
      "▁vermədi": 2806,
      "▁yola": 2807,
      "arəng": 2808,
      "▁oynadı": 2809,
      "ke": 2810,
      "▁finc": 2811,
      "▁araşdır": 2812,
      "bədi": 2813,
      "tor": 2814,
      "▁çiçəklər": 2815,
      "▁yaxından": 2816,
      "sından": 2817,
      "lana": 2818,
      "▁valideynləri": 2819,
      "▁sevmirdi": 2820,
      "▁çalışır": 2821,
      "▁təpə": 2822,
      "▁etməsini": 2823,
      "▁itələdi": 2824,
      "Sənə": 2825,
      "▁şeyə": 2826,
      "abah": 2827,
      "Billy": 2828,
      "▁götürməyə": 2829,
      "▁uş": 2830,
      "uduc": 2831,
      "▁hörmət": 2832,
      "▁yedilər": 2833,
      "kökü": 2834,
      "▁cəl": 2835,
      "▁küç": 2836,
      "▁qorxut": 2837,
      "lərək": 2838,
      "daş": 2839,
      "kitab": 2840,
      "qın": 2841,
      "▁yeyə": 2842,
      "▁şans": 2843,
      "Xanım": 2844,
      "▁edərkən": 2845,
      "▁velosiped": 2846,
      "▁çiç": 2847,
      "▁paltarı": 2848,
      "ünün": 2849,
      "▁bənövşəyi": 2850,
      "Jill": 2851,
      "▁götürmək": 2852,
      "isini": 2853,
      "ılıb": 2854,
      "▁çevr": 2855,
      "mədilər": 2856,
      "əyini": 2857,
      "Get": 2858,
      "▁düzgün": 2859,
      "oyuncaqları": 2860,
      "▁gündə": 2861,
      "▁ö": 2862,
      "▁fikr": 2863,
      "bol": 2864,
      "▁bilərlər": 2865,
      "htiyatlı": 2866,
      "▁unudu": 2867,
      "▁çaş": 2868,
      "▁ap": 2869,
      "hur": 2870,
      "mür": 2871,
      "▁şəklini": 2872,
      "ım": 2873,
      "▁asan": 2874,
      "▁tapdığı": 2875,
      "▁san": 2876,
      "▁ağz": 2877,
      "tul": 2878,
      "▁sik": 2879,
      "manı": 2880,
      "bil": 2881,
      "▁olmadı": 2882,
      "▁olmalısan": 2883,
      "Bit": 2884,
      "ibil": 2885,
      "oopark": 2886,
      "▁ayağa": 2887,
      "▁burn": 2888,
      "madılar": 2889,
      "▁çörək": 2890,
      "▁görüş": 2891,
      "▁qalmaq": 2892,
      "▁quyruğunu": 2893,
      "Yer": 2894,
      "Bəzən": 2895,
      "▁qayıdıb": 2896,
      "raya": 2897,
      "dırıcı": 2898,
      "▁Co": 2899,
      "▁hava": 2900,
      "▁dəvət": 2901,
      "ğıns": 2902,
      "▁yaxınlıq": 2903,
      "▁üçündür": 2904,
      "iyin": 2905,
      "hələ": 2906,
      "bər": 2907,
      "▁Benin": 2908,
      "həy": 2909,
      "iqəsi": 2910,
      "▁gölməçəyə": 2911,
      "▁utan": 2912,
      "Uzun": 2913,
      "Zəhmət": 2914,
      "əlli": 2915,
      "▁ehtiyac": 2916,
      "mizi": 2917,
      "▁göründüyünü": 2918,
      "▁gülüb": 2919,
      "qay": 2920,
      "▁kiş": 2921,
      "▁mağ": 2922,
      "günəş": 2923,
      "ndər": 2924,
      "▁göndər": 2925,
      "stıq": 2926,
      "▁sendviç": 2927,
      "▁fer": 2928,
      "▁axtarmağa": 2929,
      "Nənə": 2930,
      "xahiş": 2931,
      "▁işi": 2932,
      "▁düzəltməyə": 2933,
      "▁palç": 2934,
      "▁sön": 2935,
      "▁Sally": 2936,
      "Yenidən": 2937,
      "▁getdiyini": 2938,
      "▁düşdülər": 2939,
      "Mağ": 2940,
      "Əvvəlcə": 2941,
      "Ətrafına": 2942,
      "▁dostlarını": 2943,
      "aqlı": 2944,
      "öyn": 2945,
      "▁istəmirəm": 2946,
      "Kömək": 2947,
      "eddi": 2948,
      "▁bilmədilər": 2949,
      "▁atasına": 2950,
      "▁çimər": 2951,
      "▁qaldırdı": 2952,
      "▁körpə": 2953,
      "imi": 2954,
      "▁qoxu": 2955,
      "aşağı": 2956,
      "▁gəmi": 2957,
      "hamı": 2958,
      "▁toxunmaq": 2959,
      "Valideyn": 2960,
      "▁harada": 2961,
      "yyət": 2962,
      "nik": 2963,
      "▁maraqlan": 2964,
      "▁bağladı": 2965,
      "▁ba": 2966,
      "▁içinə": 2967,
      "▁həl": 2968,
      "▁oyuncaqlar": 2969,
      "▁xeyirxah": 2970,
      "▁boyun": 2971,
      "▁dəst": 2972,
      "▁qorxur": 2973,
      "min": 2974,
      "▁ört": 2975,
      "Bağ": 2976,
      "öndürən": 2977,
      "▁dinlə": 2978,
      "▁geyinib": 2979,
      "eşədə": 2980,
      "Benin": 2981,
      "▁unudub": 2982,
      "ləyirdi": 2983,
      "▁cəmi": 2984,
      "▁əşyalar": 2985,
      "▁əvəzinə": 2986,
      "▁poçt": 2987,
      "▁əvvəllər": 2988,
      "▁paltarını": 2989,
      "▁bəzən": 2990,
      "▁eşidir": 2991,
      "amam": 2992,
      "▁edəcəm": 2993,
      "yun": 2994,
      "▁toxundu": 2995,
      "Kör": 2996,
      "ğınsöndürən": 2997,
      "▁alıb": 2998,
      "▁tur": 2999,
      "rup": 3000,
      "▁təsadüfən": 3001,
      "▁çəmən": 3002,
      "▁qayıdan": 3003,
      "▁pendir": 3004,
      "Top": 3005,
      "kr": 3006,
      "layaraq": 3007,
      "▁kədərləndilər": 3008,
      "▁həll": 3009,
      "▁kitabı": 3010,
      "Həmişə": 3011,
      "▁gördüyü": 3012,
      "▁gölməçə": 3013,
      "▁qorxm": 3014,
      "▁yaradıcı": 3015,
      "▁çatana": 3016,
      "Başqa": 3017,
      "▁yerindən": 3018,
      "arıncı": 3019,
      "▁hoppandı": 3020,
      "▁yazığı": 3021,
      "bəb": 3022,
      "▁de": 3023,
      "▁olsun": 3024,
      "Yük": 3025,
      "Yan": 3026,
      "Yum": 3027,
      "▁musiqi": 3028,
      "özünə": 3029,
      "▁irəli": 3030,
      "▁məktub": 3031,
      "▁oynamaqdan": 3032,
      "▁qonş": 3033,
      "kədər": 3034,
      "▁çağır": 3035,
      "▁cür": 3036,
      "▁görməmişdi": 3037,
      "▁istəmir": 3038,
      "ansı": 3039,
      "▁buz": 3040,
      "dostları": 3041,
      "▁ilişib": 3042,
      "▁alırdı": 3043,
      "bəzi": 3044,
      "layan": 3045,
      "▁aparıb": 3046,
      "▁bilir": 3047,
      "▁saxladı": 3048,
      "ləndir": 3049,
      "▁edin": 3050,
      "▁təəssüf": 3051,
      "▁səliqəli": 3052,
      "▁olmayan": 3053,
      "▁bayquş": 3054,
      "ürdülər": 3055,
      "▁nəyin": 3056,
      "▁olmağın": 3057,
      "biri": 3058,
      "▁yorğan": 3059,
      "inci": 3060,
      "▁çalışırdı": 3061,
      "əhlük": 3062,
      "Günün": 3063,
      "eter": 3064,
      "yenidən": 3065,
      "▁oynayaraq": 3066,
      "dim": 3067,
      "eniş": 3068,
      "göy": 3069,
      "▁qutuya": 3070,
      "▁bitdi": 3071,
      "▁itin": 3072,
      "ğına": 3073,
      "▁telef": 3074,
      "urta": 3075,
      "▁üzünü": 3076,
      "▁dəyər": 3077,
      "Qapını": 3078,
      "qışqırdı": 3079,
      "▁təzə": 3080,
      "Joe": 3081,
      "meyvə": 3082,
      "▁oyuncağını": 3083,
      "▁qarışıqlıq": 3084,
      "onuz": 3085,
      "eo": 3086,
      "ləyin": 3087,
      "qur": 3088,
      "ünc": 3089,
      "bağı": 3090,
      "▁olana": 3091,
      "elləncək": 3092,
      "Digər": 3093,
      "cəyəm": 3094,
      "üdr": 3095,
      "qları": 3096,
      "acar": 3097,
      "▁anlıq": 3098,
      "atı": 3099,
      "▁mətbəxdə": 3100,
      "▁uza": 3101,
      "Ata": 3102,
      "▁uzatdı": 3103,
      "anbaq": 3104,
      "▁əylənmək": 3105,
      "eks": 3106,
      "▁kök": 3107,
      "▁bük": 3108,
      "▁yaşadılar": 3109,
      "▁aid": 3110,
      "▁canlı": 3111,
      "Günəşli": 3112,
      "Ceyn": 3113,
      "▁siç": 3114,
      "say": 3115,
      "▁öyrə": 3116,
      "ittens": 3117,
      "▁bilən": 3118,
      "Paylaş": 3119,
      "▁qalan": 3120,
      "Siçan": 3121,
      "iknik": 3122,
      "▁çanta": 3123,
      "qoist": 3124,
      "As": 3125,
      "Səni": 3126,
      "▁zarafat": 3127,
      "balı": 3128,
      "ləşdir": 3129,
      "▁bacısı": 3130,
      "ıltı": 3131,
      "▁tərk": 3132,
      "sus": 3133,
      "layim": 3134,
      "▁silkə": 3135,
      "Yu": 3136,
      "▁uc": 3137,
      "həqiqətən": 3138,
      "▁görmədi": 3139,
      "çöldə": 3140,
      "ny": 3141,
      "weet": 3142,
      "▁Cim": 3143,
      "▁uçurtma": 3144,
      "▁hazırlamaq": 3145,
      "▁şanslı": 3146,
      "liyi": 3147,
      "▁ça": 3148,
      "mazdan": 3149,
      "çoxlu": 3150,
      "▁tortu": 3151,
      "▁problem": 3152,
      "▁məşhur": 3153,
      "layanda": 3154,
      "Jo": 3155,
      "▁baxmağa": 3156,
      "iymət": 3157,
      "▁səbəb": 3158,
      "▁açıq": 3159,
      "▁atasının": 3160,
      "linin": 3161,
      "▁qurşağı": 3162,
      "▁blokları": 3163,
      "Qa": 3164,
      "▁deyib": 3165,
      "ərində": 3166,
      "▁tərə": 3167,
      "Maşını": 3168,
      "Anasının": 3169,
      "▁uçurdu": 3170,
      "▁uğur": 3171,
      "iti": 3172,
      "▁bitki": 3173,
      "Lilyin": 3174,
      "▁qayıtmaq": 3175,
      "▁kab": 3176,
      "▁bizə": 3177,
      "▁meşəyə": 3178,
      "▁yorul": 3179,
      "anna": 3180,
      "təbə": 3181,
      "▁tapırlar": 3182,
      "qırmızı": 3183,
      ",\"": 3184,
      "urna": 3185,
      "▁mənz": 3186,
      "▁gur": 3187,
      "məyib": 3188,
      "yüksək": 3189,
      "▁quru": 3190,
      "iki": 3191,
      "▁verib": 3192,
      "▁faydalı": 3193,
      "▁əjdaha": 3194,
      "▁oynayır": 3195,
      "▁oğlanın": 3196,
      "▁heyrətləndi": 3197,
      "▁sizi": 3198,
      "▁ah": 3199,
      "▁oynayan": 3200,
      "▁altına": 3201,
      "yuxarı": 3202,
      "yat": 3203,
      "▁oyunu": 3204,
      "▁uça": 3205,
      "▁gəzirdi": 3206,
      "Bilmirəm": 3207,
      "▁topla": 3208,
      "▁həyəcanla": 3209,
      "yaşlı": 3210,
      "tən": 3211,
      "şam": 3212,
      "▁oynayıb": 3213,
      "əhrəm": 3214,
      "Məryəm": 3215,
      "▁açmağa": 3216,
      "▁bayr": 3217,
      "▁yatmaq": 3218,
      "dalət": 3219,
      "▁bildir": 3220,
      "kukla": 3221,
      "▁bilmək": 3222,
      "▁boşqab": 3223,
      "▁düşünürlər": 3224,
      "əvvəllər": 3225,
      "est": 3226,
      "▁köyn": 3227,
      "Gedək": 3228,
      "▁bənz": 3229,
      "çinin": 3230,
      "▁budur": 3231,
      "▁velosipedi": 3232,
      "Düşün": 3233,
      "▁imt": 3234,
      "▁məcbur": 3235,
      "zəhmət": 3236,
      "▁şəkli": 3237,
      "ırda": 3238,
      "kömək": 3239,
      "▁yaşında": 3240,
      "▁düzəltmək": 3241,
      "▁qıza": 3242,
      "Ali": 3243,
      "Mey": 3244,
      "▁Emi": 3245,
      "▁etmədi": 3246,
      "eda": 3247,
      "ışqan": 3248,
      "mənə": 3249,
      "▁sarğı": 3250,
      "▁göstərir": 3251,
      "▁etibarlı": 3252,
      "▁slayd": 3253,
      "Pəncər": 3254,
      "ətə": 3255,
      "Əyləncəli": 3256,
      "▁əbədi": 3257,
      "▁oyan": 3258,
      "▁suyu": 3259,
      "▁süd": 3260,
      "Ör": 3261,
      "Artıq": 3262,
      "əniz": 3263,
      "▁günün": 3264,
      "▁tapma": 3265,
      "lli": 3266,
      "İş": 3267,
      "ətbəx": 3268,
      "▁uzaqda": 3269,
      "▁Mi": 3270,
      "▁əyləncəlidir": 3271,
      "▁ağlayır": 3272,
      "▁yolunu": 3273,
      "Mətbəx": 3274,
      "topu": 3275,
      "Uşaqlar": 3276,
      "▁girib": 3277,
      "mada": 3278,
      "mehriban": 3279,
      "▁həyətdə": 3280,
      "qan": 3281,
      "▁ehtiyatla": 3282,
      "▁öyr": 3283,
      "▁duyurdu": 3284,
      "▁qutusuna": 3285,
      "ləni": 3286,
      "▁ort": 3287,
      "▁qəzəbləndi": 3288,
      "yar": 3289,
      "artıq": 3290,
      "Mağaz": 3291,
      "çada": 3292,
      "▁kra": 3293,
      "▁sürüşmə": 3294,
      "cağıq": 3295,
      "▁elə": 3296,
      "▁yanından": 3297,
      "▁qarşılaşdı": 3298,
      "po": 3299,
      "ınız": 3300,
      "▁suda": 3301,
      "Heyvanlar": 3302,
      "▁tərpətdilər": 3303,
      "▁kili": 3304,
      "dviyyat": 3305,
      "▁maşınına": 3306,
      "▁bağçaya": 3307,
      "kdə": 3308,
      "ahisə": 3309,
      "şah": 3310,
      "▁dalğa": 3311,
      "əsində": 3312,
      "sürüş": 3313,
      "ıldadı": 3314,
      "▁gülərək": 3315,
      "▁xəbərdar": 3316,
      "▁addım": 3317,
      "▁stolun": 3318,
      "xoşbəxt": 3319,
      "▁əsl": 3320,
      "▁təyyarə": 3321,
      "▁apara": 3322,
      "ətini": 3323,
      "▁getmə": 3324,
      "aət": 3325,
      "dalətli": 3326,
      "▁meymun": 3327,
      "ft": 3328,
      "▁çaşqın": 3329,
      "▁otağa": 3330,
      "▁həm": 3331,
      "ant": 3332,
      "▁mağaza": 3333,
      "▁qiymət": 3334,
      "▁qaldılar": 3335,
      "avətli": 3336,
      "▁sevdiyini": 3337,
      "▁bilmədiyi": 3338,
      "▁başqalarına": 3339,
      "bax": 3340,
      "▁yerkökü": 3341,
      "▁oxumağa": 3342,
      "lanır": 3343,
      "sala": 3344,
      "Xahiş": 3345,
      "Qaç": 3346,
      "gör": 3347,
      "qu": 3348,
      "▁istərdi": 3349,
      "▁qazandı": 3350,
      "▁quşlar": 3351,
      "içəri": 3352,
      "üldü": 3353,
      "tdiyi": 3354,
      "Sev": 3355,
      "▁anam": 3356,
      "çiçək": 3357,
      "▁işlə": 3358,
      "▁qayıdanda": 3359,
      "acağını": 3360,
      "▁H": 3361,
      "▁qaşıq": 3362,
      "▁bilmir": 3363,
      "▁uzadıb": 3364,
      "▁səsini": 3365,
      "Yenə": 3366,
      "Üzr": 3367,
      "Şir": 3368,
      "irvəyə": 3369,
      "▁yaxınlaşıb": 3370,
      "▁təsir": 3371,
      "geri": 3372,
      "▁zibil": 3373,
      "▁televiz": 3374,
      "▁Maksın": 3375,
      "▁qrup": 3376,
      "Bay": 3377,
      "▁nağ": 3378,
      "▁bilmirəm": 3379,
      "digər": 3380,
      "▁mülayim": 3381,
      "▁papağı": 3382,
      "▁evin": 3383,
      "gəlin": 3384,
      "▁dad": 3385,
      "yin": 3386,
      "ilah": 3387,
      "▁qalıb": 3388,
      "Anaları": 3389,
      "▁ağacdan": 3390,
      "▁sual": 3391,
      "▁indiyə": 3392,
      "ildə": 3393,
      "▁çubu": 3394,
      "▁sürücü": 3395,
      "ərçəng": 3396,
      "Qurbağa": 3397,
      "madan": 3398,
      "Emma": 3399,
      "məzdən": 3400,
      "▁tutur": 3401,
      "▁qutusu": 3402,
      "ostyum": 3403,
      "Buna": 3404,
      "mal": 3405,
      "▁boz": 3406,
      "▁olmay": 3407,
      "▁baxanda": 3408,
      "uh": 3409,
      "ky": 3410,
      "Budur": 3411,
      "Başını": 3412,
      "▁cır": 3413,
      "▁oke": 3414,
      "İk": 3415,
      "evə": 3416,
      "madığını": 3417,
      "▁pər": 3418,
      "▁növbəti": 3419,
      "Yemək": 3420,
      "aral": 3421,
      "Çöldə": 3422,
      "umi": 3423,
      "iləmeyvə": 3424,
      "Tülkü": 3425,
      "▁boya": 3426,
      "avi": 3427,
      "vazök": 3428,
      "▁yelləyib": 3429,
      "▁itələ": 3430,
      "vazökar": 3431,
      "▁yataq": 3432,
      "▁Beni": 3433,
      "obus": 3434,
      "akətli": 3435,
      "Balıq": 3436,
      "üzr": 3437,
      "▁duydu": 3438,
      "per": 3439,
      "mayacaq": 3440,
      "▁oynadığını": 3441,
      "inq": 3442,
      "olad": 3443,
      "lənin": 3444,
      "▁darıxdırıcı": 3445,
      "qca": 3446,
      "▁azad": 3447,
      "mayın": 3448,
      "mədiyini": 3449,
      "▁sikkə": 3450,
      "cəs": 3451,
      "▁palçıq": 3452,
      "əyir": 3453,
      "▁ağacda": 3454,
      "▁meydanç": 3455,
      "▁vəh": 3456,
      "gü": 3457,
      "Ümid": 3458,
      "narahat": 3459,
      "▁təyyar": 3460,
      "Ördək": 3461,
      "övbəti": 3462,
      "▁qulluq": 3463,
      "▁vəhşi": 3464,
      "▁pıç": 3465,
      "mər": 3466,
      "▁buda": 3467,
      "Sonda": 3468,
      "ılın": 3469,
      "ığını": 3470,
      "▁gülür": 3471,
      "Yağış": 3472,
      "▁incitdi": 3473,
      "▁hürdü": 3474,
      "eyt": 3475,
      "laraq": 3476,
      "▁alət": 3477,
      "Bəzi": 3478,
      "Oyuncaqları": 3479,
      "adşah": 3480,
      "▁həyat": 3481,
      "əcəm": 3482,
      "Xoşbəxt": 3483,
      "▁pəri": 3484,
      "Zanbaq": 3485,
      "▁halda": 3486,
      "▁gələnə": 3487,
      "▁kam": 3488,
      "oma": 3489,
      "Yaxın": 3490,
      "dün": 3491,
      "▁kəsə": 3492,
      "▁iddi": 3493,
      "▁aslan": 3494,
      "▁mür": 3495,
      "dviyyatlı": 3496,
      "▁fermer": 3497,
      "▁rast": 3498,
      "küylü": 3499,
      "▁maraqlandı": 3500,
      "▁künc": 3501,
      "▁dur": 3502,
      "▁köl": 3503,
      "jda": 3504,
      "▁un": 3505,
      "▁təmizləməyə": 3506,
      "ozav": 3507,
      "klərinə": 3508,
      "pis": 3509,
      "ığa": 3510,
      "▁kər": 3511,
      "ağında": 3512,
      "▁təkrar": 3513,
      "▁böyüy": 3514,
      "▁etməlisən": 3515,
      "likdən": 3516,
      "salamat": 3517,
      "▁danışdılar": 3518,
      "Bitirdikdən": 3519,
      "araya": 3520,
      "▁hür": 3521,
      "▁hamar": 3522,
      "▁olması": 3523,
      "lama": 3524,
      "▁hissəsini": 3525,
      "▁yarı": 3526,
      "▁geniş": 3527,
      "usu": 3528,
      "müşdü": 3529,
      "▁çata": 3530,
      "unlar": 3531,
      "▁öpdü": 3532,
      "▁hazırlaş": 3533,
      "▁rəngləri": 3534,
      "Gözlərini": 3535,
      "▁insanlara": 3536,
      "Şahzadə": 3537,
      "Kim": 3538,
      "Ehtiyatlı": 3539,
      "▁tarla": 3540,
      "▁baba": 3541,
      "▁otağı": 3542,
      "▁səslənir": 3543,
      "araqlı": 3544,
      "▁olmasına": 3545,
      "arətdir": 3546,
      "niz": 3547,
      "▁döş": 3548,
      "▁mükaf": 3549,
      "▁çıxarır": 3550,
      "Qay": 3551,
      "▁Cey": 3552,
      "▁doldurdu": 3553,
      "cəyik": 3554,
      "▁Tommi": 3555,
      "Çiçək": 3556,
      "▁gəlmədi": 3557,
      "▁adını": 3558,
      "▁çəkə": 3559,
      "▁yıxıl": 3560,
      "▁ibarətdir": 3561,
      "▁uca": 3562,
      "▁ətrafına": 3563,
      "▁zoopark": 3564,
      "▁ər": 3565,
      "▁mübar": 3566,
      "top": 3567,
      "ılmaz": 3568,
      "landır": 3569,
      "Körpə": 3570,
      "▁çəkir": 3571,
      "ələri": 3572,
      "▁etdiklərini": 3573,
      "▁yeməklər": 3574,
      "▁götürür": 3575,
      "yn": 3576,
      "▁etdim": 3577,
      "▁təsəvv": 3578,
      "▁cibinə": 3579,
      "mədiyi": 3580,
      "▁so": 3581,
      "▁nənə": 3582,
      "▁əkizlər": 3583,
      "▁parkın": 3584,
      "▁hovuz": 3585,
      "ümü": 3586,
      "▁təsəvvür": 3587,
      "▁Timminin": 3588,
      "▁bacardığı": 3589,
      "▁xəstə": 3590,
      "dun": 3591,
      "▁ağladığını": 3592,
      "▁soyuduc": 3593,
      "dıqdan": 3594,
      "▁danışmaq": 3595,
      "mağını": 3596,
      "ərçin": 3597,
      "Aslan": 3598,
      "▁çap": 3599,
      "▁silah": 3600,
      "▁atıldı": 3601,
      "▁gələni": 3602,
      "▁həmin": 3603,
      "əsindən": 3604,
      "▁qarışdır": 3605,
      "▁kub": 3606,
      "acağam": 3607,
      "▁yaxşılaş": 3608,
      "▁sevindir": 3609,
      "▁nö": 3610,
      "▁yetir": 3611,
      "▁çaldı": 3612,
      "▁doldu": 3613,
      "xavətli": 3614,
      "▁dostuna": 3615,
      "▁bər": 3616,
      "▁olacağına": 3617,
      "Dayan": 3618,
      "▁gölməçədə": 3619,
      "uzun": 3620,
      "uşdur": 3621,
      "▁piknik": 3622,
      "▁titr": 3623,
      "tap": 3624,
      "andan": 3625,
      "▁təqib": 3626,
      "▁saldı": 3627,
      "▁gedəndə": 3628,
      "altar": 3629,
      "Kədər": 3630,
      "▁hörümçək": 3631,
      "Əgər": 3632,
      "ətrafa": 3633,
      "illəkən": 3634,
      "▁Lilini": 3635,
      "▁verirlər": 3636,
      "▁səmaya": 3637,
      "▁hansı": 3638,
      "Canavar": 3639,
      "şək": 3640,
      "▁stul": 3641,
      "eb": 3642,
      "pik": 3643,
      "▁eqoist": 3644,
      "Qadın": 3645,
      "▁çim": 3646,
      "▁çıxanda": 3647,
      "tdı": 3648,
      "acı": 3649,
      "Fermer": 3650,
      "göl": 3651,
      "İnsan": 3652,
      "▁maşınını": 3653,
      "▁olduğundan": 3654,
      "▁pey": 3655,
      "oli": 3656,
      "əla": 3657,
      "▁görünən": 3658,
      "əzəbli": 3659,
      "▁söndür": 3660,
      "▁qarşısında": 3661,
      "▁günəşin": 3662,
      "▁təkər": 3663,
      "▁gözləyirdi": 3664,
      "▁borc": 3665,
      "▁oyandı": 3666,
      "Hara": 3667,
      "▁peyda": 3668,
      "yır": 3669,
      "▁yapışqan": 3670,
      "illy": 3671,
      "mırdı": 3672,
      "Həy": 3673,
      "▁verənləri": 3674,
      "▁məhəl": 3675,
      "▁asdı": 3676,
      "▁gizlənqaç": 3677,
      "▁otura": 3678,
      "▁yolda": 3679,
      "▁çəkib": 3680,
      "ıcı": 3681,
      "▁tullandı": 3682,
      "belə": 3683,
      "Yat": 3684,
      "▁ada": 3685,
      "▁tərəvəz": 3686,
      "▁əməl": 3687,
      "▁eşidən": 3688,
      "▁rə": 3689,
      "Kü": 3690,
      "rəq": 3691,
      "▁təmizlə": 3692,
      "üklü": 3693,
      "▁if": 3694,
      "mavi": 3695,
      "▁yarpaqları": 3696,
      "▁çiçəkləri": 3697,
      "▁sıçradı": 3698,
      "▁maşınının": 3699,
      "▁kostyum": 3700,
      "▁pəncərədən": 3701,
      "obot": 3702,
      "endi": 3703,
      "▁qızıl": 3704,
      "▁giləmeyvə": 3705,
      "▁boyunbağı": 3706,
      "▁cəld": 3707,
      "▁əldə": 3708,
      "▁töv": 3709,
      "ack": 3710,
      "▁qəhrəm": 3711,
      "əngav": 3712,
      "▁toxunma": 3713,
      "▁evinin": 3714,
      "▁etməyin": 3715,
      "▁mübahisə": 3716,
      "tezliklə": 3717,
      "▁əyləncə": 3718,
      "▁hədiyy": 3719,
      "iker": 3720,
      "ləyi": 3721,
      "▁qorxmurdu": 3722,
      "▁düymə": 3723,
      "▁ovuşdur": 3724,
      "mürdü": 3725,
      "▁sala": 3726,
      "ərdivan": 3727,
      "▁getdiyi": 3728,
      "əyləncəli": 3729,
      "▁göyə": 3730,
      "▁yelləyərək": 3731,
      "▁oxuya": 3732,
      "▁böyüdü": 3733,
      "ortağ": 3734,
      "Səs": 3735,
      "▁utancaq": 3736,
      "▁tu": 3737,
      "▁qucaqlayırlar": 3738,
      "▁qoşulmaq": 3739,
      "Ya": 3740,
      "▁həvəsli": 3741,
      "▁Jill": 3742,
      "▁ası": 3743,
      "▁lent": 3744,
      "▁cəngəl": 3745,
      "▁edəndə": 3746,
      "əif": 3747,
      "dıra": 3748,
      "Valideynləri": 3749,
      "▁bəli": 3750,
      "ağlamağa": 3751,
      "▁edərdi": 3752,
      "▁narıncı": 3753,
      "▁çevir": 3754,
      "▁itaət": 3755,
      "▁məxsus": 3756,
      "gedək": 3757,
      "▁oxumaq": 3758,
      "▁fincan": 3759,
      "ake": 3760,
      "▁təx": 3761,
      "▁dinc": 3762,
      "itə": 3763,
      "ozavr": 3764,
      "ynuz": 3765,
      "dırım": 3766,
      "▁açar": 3767,
      "iyyətində": 3768,
      "▁oxuyur": 3769,
      "▁tərəfə": 3770,
      "▁qoz": 3771,
      "▁günəşdə": 3772,
      "Bal": 3773,
      "ıs": 3774,
      "▁baha": 3775,
      "▁nəzakətli": 3776,
      "▁səxavətli": 3777,
      "▁ləzzət": 3778,
      "Ağacın": 3779,
      "▁Amy": 3780,
      "▁məktəbə": 3781,
      "▁haqlı": 3782,
      "▁balqab": 3783,
      "▁barmaq": 3784,
      "yerdə": 3785,
      "▁dəs": 3786,
      "▁çevrildi": 3787,
      "qır": 3788,
      "dıqları": 3789,
      "▁anaya": 3790,
      "▁təpəyə": 3791,
      "▁arasından": 3792,
      "▁Joe": 3793,
      "bəl": 3794,
      "▁adi": 3795,
      "▁onlardan": 3796,
      "▁bağlı": 3797,
      "suz": 3798,
      "öhnə": 3799,
      "▁unutdu": 3800,
      "▁eşidirlər": 3801,
      "▁utandı": 3802,
      "▁vanna": 3803,
      "▁şorba": 3804,
      "maşın": 3805,
      "▁pir": 3806,
      "▁süm": 3807,
      "▁ina": 3808,
      "▁qələm": 3809,
      "ftə": 3810,
      "▁mənimlə": 3811,
      "▁əhəmi": 3812,
      "▁yumdu": 3813,
      "?\".": 3814,
      "▁minib": 3815,
      "ərin": 3816,
      "urun": 3817,
      "anasını": 3818,
      "▁Emma": 3819,
      "▁üzdü": 3820,
      "▁otağını": 3821,
      "▁oxuyurdu": 3822,
      "▁uzandı": 3823,
      "▁rəngarəng": 3824,
      "▁dairə": 3825,
      "▁ananın": 3826,
      "▁həyəcanlandılar": 3827,
      "▁seçdi": 3828,
      "Fluffy": 3829,
      "layaq": 3830,
      "▁mənimdir": 3831,
      "▁uçan": 3832,
      "▁səbirli": 3833,
      "▁üzüm": 3834,
      "aksı": 3835,
      "▁N": 3836,
      "▁baxa": 3837,
      "▁şeylərə": 3838,
      "iyaf": 3839,
      "əhlükəsiz": 3840,
      "▁açanda": 3841,
      "▁işığında": 3842,
      "ürüst": 3843,
      "ailə": 3844,
      "red": 3845,
      "▁başlayırlar": 3846,
      "▁güldür": 3847,
      "▁soruşdular": 3848,
      "▁film": 3849,
      "▁dərhal": 3850,
      "asa": 3851,
      "Bilirəm": 3852,
      "▁şirə": 3853,
      "emə": 3854,
      "əhəng": 3855,
      "▁havaya": 3856,
      "▁hekayələr": 3857,
      "▁istəmirdilər": 3858,
      "▁ox": 3859,
      "lum": 3860,
      "Saranın": 3861,
      "▁qışqırır": 3862,
      "▁sözlər": 3863,
      "mişdilər": 3864,
      "Cenni": 3865,
      "▁pulu": 3866,
      "Ananın": 3867,
      "Kitab": 3868,
      "▁poz": 3869,
      "ündən": 3870,
      "▁Lucy": 3871,
      "▁ət": 3872,
      "▁apardılar": 3873,
      "▁adamın": 3874,
      "▁sındır": 3875,
      "▁əşyalarını": 3876,
      "▁səyahətə": 3877,
      "uç": 3878,
      "yal": 3879,
      "ahar": 3880,
      "▁təpik": 3881,
      "Güclü": 3882,
      "▁tutaraq": 3883,
      "parkda": 3884,
      "▁köp": 3885,
      "▁qürurla": 3886,
      "▁Fluffy": 3887,
      "▁bilirəm": 3888,
      "▁zəif": 3889,
      "by": 3890,
      "fin": 3891,
      "▁təvazökar": 3892,
      "▁tuta": 3893,
      "▁Molli": 3894,
      "▁dostlarının": 3895,
      "▁sevgi": 3896,
      "Mavi": 3897,
      "▁aparmaq": 3898,
      "▁rahatladı": 3899,
      "ella": 3900,
      "▁dax": 3901,
      "▁yumurta": 3902,
      "▁toz": 3903,
      "▁iddia": 3904,
      "▁toxum": 3905,
      "üyü": 3906,
      "▁ətrafındakı": 3907,
      "əcəyəm": 3908,
      "▁qeyri": 3909,
      "qız": 3910,
      "laşaraq": 3911,
      "bacar": 3912,
      "▁heyvanı": 3913,
      "dıqca": 3914,
      "▁yaxınlıqdakı": 3915,
      "▁xoşlayıram": 3916,
      "eşik": 3917,
      "arətli": 3918,
      "hey": 3919,
      "▁dəqiqə": 3920,
      "▁göstərməyi": 3921,
      "Pis": 3922,
      "▁kəsdi": 3923,
      "▁qaldır": 3924,
      "eys": 3925,
      "▁göründü": 3926,
      "▁təmizləmək": 3927,
      "dayan": 3928,
      "▁təşkil": 3929,
      "inti": 3930,
      "▁nü": 3931,
      "əngavər": 3932,
      "▁dostsan": 3933,
      "mirlər": 3934,
      "▁ədviyyatlı": 3935,
      "▁part": 3936,
      "▁verməyə": 3937,
      "▁istir": 3938,
      "▁yığıb": 3939,
      "▁oğur": 3940,
      "val": 3941,
      "▁suyun": 3942,
      "▁xəstəx": 3943,
      "▁səp": 3944,
      "Yar": 3945,
      "sarı": 3946,
      "▁qaytardı": 3947,
      "▁olmalıyıq": 3948,
      "ula": 3949,
      "kindən": 3950,
      "Oyuncaqlarını": 3951,
      "adiq": 3952,
      "Liliyə": 3953,
      "▁yeriməyə": 3954,
      "açı": 3955,
      "▁məxluq": 3956,
      "▁günah": 3957,
      "lərim": 3958,
      "▁Sal": 3959,
      "▁şüşə": 3960,
      "avt": 3961,
      "▁ger": 3962,
      "mədən": 3963,
      "▁tələs": 3964,
      "▁qarışqa": 3965,
      "Üzərində": 3966,
      "▁quyruğu": 3967,
      "▁deyilsən": 3968,
      "▁parladı": 3969,
      "▁sevdi": 3970,
      "isti": 3971,
      "nəhayət": 3972,
      "▁ödə": 3973,
      "orada": 3974,
      "▁sirli": 3975,
      "▁evlərinə": 3976,
      "▁geyinməyi": 3977,
      "▁tapana": 3978,
      "▁yaladı": 3979,
      "Çar": 3980,
      "onunla": 3981,
      "▁olurdu": 3982,
      "▁həftə": 3983,
      "▁əz": 3984,
      "▁şəhərdə": 3985,
      "▁danışmağa": 3986,
      "ləyirlər": 3987,
      "▁xər": 3988,
      "öhbət": 3989,
      "dedilər": 3990,
      "▁uçmağı": 3991,
      "Qucaq": 3992,
      "vr": 3993,
      "▁çırpdı": 3994,
      "▁yoluna": 3995,
      "▁Saranın": 3996,
      "▁qayda": 3997,
      "▁Semin": 3998,
      "▁gurul": 3999,
      "▁qaral": 4000,
      "▁turş": 4001,
      "Kəpən": 4002,
      "kim": 4003,
      "▁saxlamağa": 4004,
      "▁qorxu": 4005,
      "▁inək": 4006,
      "▁kis": 4007,
      "▁qışqırdılar": 4008,
      "▁uçmaq": 4009,
      "birlikdə": 4010,
      "▁raket": 4011,
      "başa": 4012,
      "Arı": 4013,
      "▁qəzəblən": 4014,
      "▁düyməni": 4015,
      "▁əhəmiyyət": 4016,
      "▁uçduğunu": 4017,
      "səs": 4018,
      "olly": 4019,
      "dbəxt": 4020,
      "▁balası": 4021,
      "▁üzməyi": 4022,
      "Yaşlı": 4023,
      "güz": 4024,
      "▁Billi": 4025,
      "▁tapmaqda": 4026,
      "▁həkim": 4027,
      "aqda": 4028,
      "Yol": 4029,
      "quşu": 4030,
      "Burada": 4031,
      "▁hamısını": 4032,
      "Ən": 4033,
      "ırsan": 4034,
      "▁taxdı": 4035,
      "çar": 4036,
      "osunu": 4037,
      "▁qayığı": 4038,
      "▁təmir": 4039,
      "▁met": 4040,
      "ortağal": 4041,
      "Topu": 4042,
      "enin": 4043,
      "▁heyvanlara": 4044,
      "▁bilməyəcək": 4045,
      "ert": 4046,
      "Qutunu": 4047,
      "▁açmaq": 4048,
      "▁skamyada": 4049,
      "▁sam": 4050,
      "▁stək": 4051,
      "▁ölçü": 4052,
      "qorxdu": 4053,
      "▁dostluq": 4054,
      "▁xatırlat": 4055,
      "▁sab": 4056,
      "Hələ": 4057,
      "xura": 4058,
      "▁olduqları": 4059,
      "Sah": 4060,
      "Maksın": 4061,
      "ırtıl": 4062,
      "▁baz": 4063,
      "▁yuvarlan": 4064,
      "▁qaçırdı": 4065,
      "Əla": 4066,
      "▁sağollaşıb": 4067,
      "▁qoc": 4068,
      "Po": 4069,
      "oni": 4070,
      "İkisi": 4071,
      "▁lam": 4072,
      "▁stiker": 4073,
      "ütfən": 4074,
      "mayiş": 4075,
      "▁yerdən": 4076,
      "▁cəsarət": 4077,
      "örd": 4078,
      "▁verin": 4079,
      "umiya": 4080,
      "ikir": 4081,
      "Tor": 4082,
      "▁tapş": 4083,
      "gölməç": 4084,
      "oo": 4085,
      "▁bağçada": 4086,
      "ədim": 4087,
      "▁səsləndi": 4088,
      "▁başlayanda": 4089,
      "▁nümayiş": 4090,
      "əyib": 4091,
      "▁məs": 4092,
      "▁vedrə": 4093,
      "▁ayısını": 4094,
      "▁düzəltdilər": 4095,
      "▁taxta": 4096,
      "ver": 4097,
      "▁sif": 4098,
      "▁kuklası": 4099,
      "qut": 4100,
      "▁inanılmaz": 4101,
      "Bizim": 4102,
      "▁düşüb": 4103,
      "lidir": 4104,
      "istəmə": 4105,
      "vida": 4106,
      "▁mükafat": 4107,
      "▁ruh": 4108,
      "ıldayan": 4109,
      "▁içərisinə": 4110,
      "bizim": 4111,
      "mdır": 4112,
      "əyirdi": 4113,
      "uldu": 4114,
      "▁həyətində": 4115,
      "▁anaları": 4116,
      "▁xatırlayırdı": 4117,
      "▁kres": 4118,
      "▁rəfiqəsi": 4119,
      "▁du": 4120,
      "Mi": 4121,
      "Həkim": 4122,
      "▁kak": 4123,
      "araz": 4124,
      "▁birinə": 4125,
      "liyini": 4126,
      "kor": 4127,
      "▁hazırlamağa": 4128,
      "Parka": 4129,
      "ındakı": 4130,
      "sevinc": 4131,
      "weety": 4132,
      "▁qoyurlar": 4133,
      "umuz": 4134,
      "▁oğ": 4135,
      "yaşıl": 4136,
      "▁dam": 4137,
      "▁qalxmağa": 4138,
      "▁sadiq": 4139,
      "▁analarının": 4140,
      "▁bədbəxt": 4141,
      "Emili": 4142,
      "▁piz": 4143,
      "▁ferm": 4144,
      "Me": 4145,
      "iddət": 4146,
      "Semin": 4147,
      "▁baxaraq": 4148,
      "irs": 4149,
      "yünü": 4150,
      "lanmış": 4151,
      "üp": 4152,
      "▁heyvanların": 4153,
      "▁xət": 4154,
      "Oyun": 4155,
      "lığını": 4156,
      "▁ilk": 4157,
      "istəmədiyini": 4158,
      "▁qabı": 4159,
      "▁alqışladı": 4160,
      "▁kədərlidir": 4161,
      "▁tikmək": 4162,
      "laşdır": 4163,
      "▁deyə": 4164,
      "▁öyrətdi": 4165,
      "əncə": 4166,
      "▁kor": 4167,
      "Annanı": 4168,
      "bəlkə": 4169,
      "yor": 4170,
      "lla": 4171,
      "▁parçası": 4172,
      "əgər": 4173,
      "imsah": 4174,
      "▁insanların": 4175,
      "▁məhv": 4176,
      "dəm": 4177,
      "▁evini": 4178,
      "orab": 4179,
      "meşədə": 4180,
      "Ondan": 4181,
      "▁uçmağa": 4182,
      "ucky": 4183,
      "layırdılar": 4184,
      "▁yaramaz": 4185,
      "▁haradan": 4186,
      "cığ": 4187,
      "əkimə": 4188,
      "Gələn": 4189,
      "qlarını": 4190,
      "▁tərəfinə": 4191,
      "manın": 4192,
      "▁yelləncəklərdə": 4193,
      "▁çalıb": 4194,
      "cam": 4195,
      "▁dadlıdır": 4196,
      "▁dəqiqədən": 4197,
      "▁ayr": 4198,
      "▁ədalətli": 4199,
      "niyyat": 4200,
      "▁yığdı": 4201,
      "▁göstərərək": 4202,
      "▁düşünürdülər": 4203,
      "▁kuk": 4204,
      "▁xala": 4205,
      "Cey": 4206,
      "kan": 4207,
      "▁çirkin": 4208,
      "▁parlayırdı": 4209,
      "pap": 4210,
      "▁xərçəng": 4211,
      "▁yanğınsöndürən": 4212,
      "lanq": 4213,
      "▁qurd": 4214,
      "▁oturan": 4215,
      "ehrli": 4216,
      "atar": 4217,
      "▁imtina": 4218,
      "▁göstərə": 4219,
      "Yumşaq": 4220,
      "▁gölməçənin": 4221,
      "▁oyuncaqlarla": 4222,
      "▁Lila": 4223,
      "ondan": 4224,
      "əbək": 4225,
      "Oraya": 4226,
      "▁müəllim": 4227,
      "▁itdi": 4228,
      "▁hes": 4229,
      "ələng": 4230,
      "incik": 4231,
      "▁fırlandı": 4232,
      "▁yast": 4233,
      "▁səf": 4234,
      "Növbəti": 4235,
      "▁qurdu": 4236,
      "məliyəm": 4237,
      "▁şokolad": 4238,
      "▁qə": 4239,
      "▁qop": 4240,
      "özü": 4241,
      "▁donuz": 4242,
      "▁fən": 4243,
      "▁yatmağa": 4244,
      "cənab": 4245,
      "▁uzanıb": 4246,
      "qaş": 4247,
      "▁insanları": 4248,
      "mam": 4249,
      "üzgü": 4250,
      "siy": 4251,
      "▁istəmirlər": 4252,
      "▁doğ": 4253,
      "şətli": 4254,
      "▁göydə": 4255,
      "nı": 4256,
      "▁axşam": 4257,
      "▁bilməyəcəyini": 4258,
      "övq": 4259,
      "Qr": 4260,
      "▁lövh": 4261,
      "▁dürüst": 4262,
      "▁açıldı": 4263,
      "▁qazana": 4264,
      "tullan": 4265,
      "▁tanı": 4266,
      "sız": 4267,
      "Uç": 4268,
      "▁dəh": 4269,
      "▁bildiyinə": 4270,
      "güzəş": 4271,
      "Peter": 4272,
      "▁keçib": 4273,
      "sevimli": 4274,
      "▁dəsmal": 4275,
      "▁torpaq": 4276,
      "▁yuvarlandı": 4277,
      "▁edirik": 4278,
      "▁istəyəndə": 4279,
      "Qapı": 4280,
      "▁tənbəl": 4281,
      "▁vaz": 4282,
      "▁köməy": 4283,
      "▁dincəlmək": 4284,
      "ibb": 4285,
      "▁bitirdi": 4286,
      "deyirlər": 4287,
      "▁dırmaşmaq": 4288,
      "Yaxşıdır": 4289,
      "Mama": 4290,
      "▁toyuq": 4291,
      "Rəng": 4292,
      "▁parkı": 4293,
      "liça": 4294,
      "güzəşt": 4295,
      "va": 4296,
      "▁güv": 4297,
      "▁yelləyirlər": 4298,
      "▁düzəldirlər": 4299,
      "mizə": 4300,
      "▁gizləndi": 4301,
      "▁qərarlı": 4302,
      "▁dediklərini": 4303,
      "▁gəzdi": 4304,
      "▁deyirdi": 4305,
      "▁bəyəndilər": 4306,
      "Yay": 4307,
      "idə": 4308,
      "ninin": 4309,
      "▁fut": 4310,
      "ava": 4311,
      "▁ilan": 4312,
      "▁qor": 4313,
      "▁qorxurlar": 4314,
      "ləh": 4315,
      "Çant": 4316,
      "ayk": 4317,
      "▁yağmağa": 4318,
      "▁şəkillər": 4319,
      "▁basdı": 4320,
      "saj": 4321,
      "▁çəmənlikdə": 4322,
      "▁verirdi": 4323,
      "▁bab": 4324,
      "▁aş": 4325,
      "xana": 4326,
      "▁topunu": 4327,
      "▁hesab": 4328,
      "▁jurna": 4329,
      "▁deməkdir": 4330,
      "eyrət": 4331,
      "ildən": 4332,
      "▁dostunu": 4333,
      "▁çəkdilər": 4334,
      "▁ayaqqabılarını": 4335,
      "▁tullanır": 4336,
      "▁açır": 4337,
      "Nahar": 4338,
      "▁məktəb": 4339,
      "▁sizinlə": 4340,
      "▁kəşfiyyat": 4341,
      "▁gölə": 4342,
      "San": 4343,
      "▁qalın": 4344,
      "▁hirs": 4345,
      "etə": 4346,
      "▁qurbağ": 4347,
      "▁dua": 4348,
      "düz": 4349,
      "▁sevindirdi": 4350,
      "▁qayğısına": 4351,
      "▁nadir": 4352,
      "▁qoymağa": 4353,
      "Əs": 4354,
      "oğlan": 4355,
      "▁yuy": 4356,
      "▁tökdü": 4357,
      "▁banan": 4358,
      "▁quşları": 4359,
      "asıb": 4360,
      "▁yardım": 4361,
      "Əlini": 4362,
      "▁olmaya": 4363,
      "▁alqışladılar": 4364,
      "▁yuxulu": 4365,
      "▁itaətkar": 4366,
      "▁re": 4367,
      "Qutu": 4368,
      "▁sevmir": 4369,
      "dkar": 4370,
      "pişik": 4371,
      "zik": 4372,
      "▁incitmək": 4373,
      "▁nöm": 4374,
      "lənmək": 4375,
      "▁dava": 4376,
      "▁qəz": 4377,
      "▁taraz": 4378,
      "ce": 4379,
      "▁kir": 4380,
      "▁boyu": 4381,
      "Dələ": 4382,
      "▁açarı": 4383,
      "▁isteda": 4384,
      "▁edirsiniz": 4385,
      "▁yeməyini": 4386,
      "▁balığı": 4387,
      "▁dinləmək": 4388,
      "▁qayçı": 4389,
      "nie": 4390,
      "Ah": 4391,
      "ılınc": 4392,
      "mamaq": 4393,
      "▁dırmaşmağa": 4394,
      "qda": 4395,
      "▁qoyun": 4396,
      "▁işini": 4397,
      "▁bö": 4398,
      "▁A": 4399,
      "Fikir": 4400,
      "▁atasını": 4401,
      "▁biş": 4402,
      "▁uçub": 4403,
      "▁qabıq": 4404,
      "Qum": 4405,
      "uquş": 4406,
      "▁istədim": 4407,
      "▁sürüşməyə": 4408,
      "▁verdiyi": 4409,
      "emo": 4410,
      "▁bədən": 4411,
      "▁sirr": 4412,
      "▁gurultu": 4413,
      "Güldülər": 4414,
      "▁dinozavr": 4415,
      "Səninlə": 4416,
      "▁Annanın": 4417,
      "getdi": 4418,
      "Kəpənək": 4419,
      "▁qəhrəman": 4420,
      "ban": 4421,
      "▁yığın": 4422,
      "▁qurş": 4423,
      "▁düşmədi": 4424,
      "Fil": 4425,
      "▁məsləh": 4426,
      "▁şah": 4427,
      "rənc": 4428,
      "▁parçaları": 4429,
      "aranı": 4430,
      "ətdə": 4431,
      "▁əlləri": 4432,
      "Külək": 4433,
      "Rəf": 4434,
      "▁çalışıb": 4435,
      "▁təhlükəlidir": 4436,
      "▁mənzər": 4437,
      "Hətta": 4438,
      "▁uzağa": 4439,
      "œBu": 4440,
      "▁gedirdilər": 4441,
      "ılmış": 4442,
      "▁mağara": 4443,
      "Sammy": 4444,
      "malıdır": 4445,
      "▁sərgüzəşt": 4446,
      "▁dəcəl": 4447,
      "▁mis": 4448,
      "▁Maksı": 4449,
      "hara": 4450,
      "▁görməkdən": 4451,
      "od": 4452,
      "ubuq": 4453,
      "▁şeydir": 4454,
      "əbax": 4455,
      "iddi": 4456,
      "həyəcan": 4457,
      "▁etməsinə": 4458,
      "alıb": 4459,
      "▁yağı": 4460,
      "təs": 4461,
      "mələrini": 4462,
      "▁şeylə": 4463,
      "▁üf": 4464,
      "▁deşik": 4465,
      "yaz": 4466,
      "▁bizi": 4467,
      "▁yön": 4468,
      "Bağda": 4469,
      "▁arab": 4470,
      "▁kişiyə": 4471,
      "▁kəndir": 4472,
      "▁ağaclar": 4473,
      "yenə": 4474,
      "▁oyunlar": 4475,
      "▁palto": 4476,
      "▁qarışıqlığı": 4477,
      "▁parlaqdır": 4478,
      "düyü": 4479,
      "əcəyik": 4480,
      "▁şiddət": 4481,
      "▁danışa": 4482,
      "dik": 4483,
      "daşı": 4484,
      "▁qorxutdu": 4485,
      "diqq": 4486,
      "yemək": 4487,
      "üstü": 4488,
      "▁çalmağı": 4489,
      "▁razılaşdılar": 4490,
      "▁saxta": 4491,
      "Nən": 4492,
      "Tel": 4493,
      "▁kimə": 4494,
      "▁kitabları": 4495,
      "▁aparır": 4496,
      "▁bıç": 4497,
      "yelləncək": 4498,
      "▁çatmaq": 4499,
      "▁çalışırlar": 4500,
      "▁varlı": 4501,
      "▁idim": 4502,
      "▁tərəfində": 4503,
      "▁çalmağa": 4504,
      "▁nəyinsə": 4505,
      "mahnı": 4506,
      "onc": 4507,
      "▁ayır": 4508,
      "▁inadkar": 4509,
      "▁çıxa": 4510,
      "▁alır": 4511,
      "▁fikrində": 4512,
      "▁dostunun": 4513,
      "▁ortasında": 4514,
      "Mark": 4515,
      "▁xal": 4516,
      "▁maral": 4517,
      "▁gülüş": 4518,
      "▁bura": 4519,
      "layacaq": 4520,
      "!\".": 4521,
      "fır": 4522,
      "mini": 4523,
      "▁sürt": 4524,
      "▁hissəsi": 4525,
      "▁pilləkən": 4526,
      "▁kuklaları": 4527,
      "▁qutusunu": 4528,
      "▁titrə": 4529,
      "▁edəcəklərini": 4530,
      "▁ifa": 4531,
      "▁sürməyi": 4532,
      "təkrar": 4533,
      "tiv": 4534,
      "Dostlar": 4535,
      "yumşaq": 4536,
      "Billi": 4537,
      "▁atasından": 4538,
      "▁bloklarla": 4539,
      "▁görməyi": 4540,
      "▁gülümsə": 4541,
      "Bununla": 4542,
      "▁maşınla": 4543,
      "▁sağollaşdılar": 4544,
      "Səhv": 4545,
      "pağı": 4546,
      "opkor": 4547,
      "yurun": 4548,
      "əqil": 4549,
      "Sabah": 4550,
      "▁bəyənir": 4551,
      "▁şər": 4552,
      "▁cila": 4553,
      "Yavaş": 4554,
      "çölə": 4555,
      "▁Cimmi": 4556,
      "Kar": 4557,
      "▁arxasına": 4558,
      "▁dəb": 4559,
      "lamışdı": 4560,
      "usunu": 4561,
      "▁Bu": 4562,
      "▁köməyi": 4563,
      "▁yad": 4564,
      "ürü": 4565,
      "▁yarada": 4566,
      "sü": 4567,
      "cığaz": 4568,
      "▁buraxdı": 4569,
      "elfin": 4570,
      "▁ağacların": 4571,
      "▁pax": 4572,
      "▁söhbət": 4573,
      "ığın": 4574,
      "▁baxaq": 4575,
      "▁üzməyə": 4576,
      "▁polis": 4577,
      "səy": 4578,
      "ağınıq": 4579,
      "▁pay": 4580,
      "iyələk": 4581,
      "Qaz": 4582,
      "alamut": 4583,
      "▁göstərdilər": 4584,
      "▁dırmaşdı": 4585,
      "qorxulu": 4586,
      "küyü": 4587,
      "▁qucaqlaşıb": 4588,
      "▁dostumsan": 4589,
      "▁xoşu": 4590,
      "▁bişirmək": 4591,
      "▁xəmir": 4592,
      "kam": 4593,
      "▁qızcığaz": 4594,
      "▁oxudular": 4595,
      "Jack": 4596,
      "▁paylaşmağı": 4597,
      "macər": 4598,
      "▁macəralara": 4599,
      "▁bildirib": 4600,
      "▁eşidəndə": 4601,
      "▁qırıldı": 4602,
      "Xüsusi": 4603,
      "Dav": 4604,
      "ılan": 4605,
      "layıram": 4606,
      "oncuk": 4607,
      "Həm": 4608,
      "▁telefon": 4609,
      "▁Məryəm": 4610,
      "▁acı": 4611,
      "▁yaxınlığındakı": 4612,
      "▁zamanda": 4613,
      "▁xəstəxanaya": 4614,
      "▁çuxura": 4615,
      "Alisa": 4616,
      "▁dişləri": 4617,
      "▁qucaqlayaraq": 4618,
      "▁qızla": 4619,
      "▁aparmağa": 4620,
      "Geri": 4621,
      "▁oturdular": 4622,
      "▁saçları": 4623,
      "Ətrafa": 4624,
      "cəyə": 4625,
      "ubu": 4626,
      "həmçinin": 4627,
      "hərrik": 4628,
      "lənirlər": 4629,
      "Şirin": 4630,
      "▁dağınıq": 4631,
      "▁robot": 4632,
      "▁si": 4633,
      "▁qırp": 4634,
      "▁saqq": 4635,
      "▁vəz": 4636,
      "▁çök": 4637,
      "▁timsah": 4638,
      "▁qanadlarını": 4639,
      "▁çıxış": 4640,
      "Dər": 4641,
      "Qara": 4642,
      "jdah": 4643,
      "▁qan": 4644,
      "▁əli": 4645,
      "▁unutmadı": 4646,
      "▁sevincdən": 4647,
      "irdir": 4648,
      "insan": 4649,
      "▁kimsə": 4650,
      "▁mot": 4651,
      "qun": 4652,
      "▁otaqda": 4653,
      "▁izlədi": 4654,
      "Maraqlı": 4655,
      "▁çıxartdı": 4656,
      "Bura": 4657,
      "▁adım": 4658,
      "▁gəlmək": 4659,
      "▁maşınlarını": 4660,
      "Başa": 4661,
      "▁oğlana": 4662,
      "qal": 4663,
      "▁dağ": 4664,
      "▁komanda": 4665,
      "▁səm": 4666,
      "olğun": 4667,
      "▁yoxa": 4668,
      "Mittens": 4669,
      "ünüz": 4670,
      "▁parıldayırdı": 4671,
      "Sal": 4672,
      "▁ipi": 4673,
      "yaxın": 4674,
      "paget": 4675,
      "ılır": 4676,
      "▁girdilər": 4677,
      "arışıq": 4678,
      "▁gülürlər": 4679,
      "▁vidalaşdı": 4680,
      "▁yumub": 4681,
      "yalnız": 4682,
      "▁tapdığına": 4683,
      "anıma": 4684,
      "▁tapaq": 4685,
      "asir": 4686,
      "▁qutunun": 4687,
      "▁qıs": 4688,
      "▁Al": 4689,
      "▁görürdü": 4690,
      "▁hoppanıb": 4691,
      "▁düzəltməyi": 4692,
      "dəmsiz": 4693,
      "▁atır": 4694,
      "Baba": 4695,
      "▁bildilər": 4696,
      "nənə": 4697,
      "Müəllim": 4698,
      "▁arxasından": 4699,
      "Gəz": 4700,
      "şən": 4701,
      "▁toxuna": 4702,
      "▁şeylərlə": 4703,
      "ec": 4704,
      "▁etdiyiniz": 4705,
      "Onlardan": 4706,
      "▁dadına": 4707,
      "redi": 4708,
      "jin": 4709,
      "▁bilmirlər": 4710,
      "mil": 4711,
      "▁gi": 4712,
      "▁ziyaf": 4713,
      "İsti": 4714,
      "▁həkimə": 4715,
      "▁birinci": 4716,
      "▁pəncə": 4717,
      "▁Toma": 4718,
      "▁axtardılar": 4719,
      "▁çəkirlər": 4720,
      "▁Semi": 4721,
      "Dondur": 4722,
      "▁kamer": 4723,
      "olmadığını": 4724,
      "mişəm": 4725,
      "▁zəhmət": 4726,
      "▁yatağa": 4727,
      "üsusən": 4728,
      "▁evdən": 4729,
      "▁nərdivan": 4730,
      "▁günahkar": 4731,
      "ınq": 4732,
      "▁səbət": 4733,
      "▁qələ": 4734,
      "aqdan": 4735,
      "▁ürək": 4736,
      "rət": 4737,
      "▁qarışdırdı": 4738,
      "▁qana": 4739,
      "▁padşah": 4740,
      "bar": 4741,
      "opkorn": 4742,
      "▁gülməyə": 4743,
      "▁gicəl": 4744,
      "▁dəydi": 4745,
      "▁üzərək": 4746,
      "Şək": 4747,
      "bilq": 4748,
      "cəsarətli": 4749,
      "▁düzəldir": 4750,
      "▁arzulayırdı": 4751,
      "güclü": 4752,
      "xüsusən": 4753,
      "aft": 4754,
      "darə": 4755,
      "▁dim": 4756,
      "▁yaşayırdılar": 4757,
      "▁yerləri": 4758,
      "▁başlayır": 4759,
      "▁körpü": 4760,
      "jinal": 4761,
      "▁gəlmir": 4762,
      "▁xəzin": 4763,
      "▁günəşli": 4764,
      "mla": 4765,
      "edib": 4766,
      "▁israr": 4767,
      "▁dovşanı": 4768,
      "ümüz": 4769,
      "▁Timmiyə": 4770,
      "tüklü": 4771,
      "ğıdalı": 4772,
      "Əjdaha": 4773,
      "▁bank": 4774,
      "▁kədərləndiyini": 4775,
      "▁işləy": 4776,
      "▁verirəm": 4777,
      "ulub": 4778,
      "xan": 4779,
      "Buyurun": 4780,
      "Blok": 4781,
      "▁arz": 4782,
      "alış": 4783,
      "▁mikr": 4784,
      "lığa": 4785,
      "▁bilməyib": 4786,
      "Conni": 4787,
      "▁qumda": 4788,
      "▁çiçəyi": 4789,
      "▁siq": 4790,
      "▁saxla": 4791,
      "Pəri": 4792,
      "atası": 4793,
      "▁öyrənməyə": 4794,
      "yanı": 4795,
      "▁deyildilər": 4796,
      "▁ayaqlarını": 4797,
      "▁etmişdi": 4798,
      "üngül": 4799,
      "Gülürlər": 4800,
      "ormal": 4801,
      "▁yaratdı": 4802,
      "saydı": 4803,
      "▁tr": 4804,
      "▁güvən": 4805,
      "▁razılaş": 4806,
      "▁slaydda": 4807,
      "▁görək": 4808,
      "▁qayıdırlar": 4809,
      "▁sözləri": 4810,
      "▁gözlədilər": 4811,
      "▁portağal": 4812,
      "▁öyrənməyi": 4813,
      "▁etik": 4814,
      "▁heyvanlarla": 4815,
      "▁sobaya": 4816,
      "▁şəkilləri": 4817,
      "▁süf": 4818,
      "▁köməyinə": 4819,
      "▁qorumaq": 4820,
      "əyinə": 4821,
      "Ye": 4822,
      "Söz": 4823,
      "▁geyinmək": 4824,
      "Yaxşısan": 4825,
      "▁analarına": 4826,
      "əcəksən": 4827,
      "ısbağa": 4828,
      "▁üzmək": 4829,
      "▁Mittens": 4830,
      "▁topa": 4831,
      "▁kuklasını": 4832,
      "eynə": 4833,
      "▁qucaqlaş": 4834,
      "Yerdə": 4835,
      "önkür": 4836,
      "▁hasarın": 4837,
      "▁görmədiyi": 4838,
      "▁oynaq": 4839,
      "▁gülümsəyib": 4840,
      "▁banka": 4841,
      "Bizə": 4842,
      "ümüş": 4843,
      "▁bitdikdən": 4844,
      "▁büdr": 4845,
      "vit": 4846,
      "məlidir": 4847,
      "anə": 4848,
      "▁işığı": 4849,
      "▁gəzməyi": 4850,
      "▁divara": 4851,
      "▁bilərsinizmi": 4852,
      "▁nəti": 4853,
      "▁baxırdılar": 4854,
      "arri": 4855,
      "Yaşıl": 4856,
      "▁qəzəblidir": 4857,
      "sindən": 4858,
      "▁dönüb": 4859,
      "▁batmağa": 4860,
      "dini": 4861,
      "▁təxmin": 4862,
      "ağının": 4863,
      "▁don": 4864,
      "▁qoya": 4865,
      "▁corab": 4866,
      "inqv": 4867,
      "əbi": 4868,
      "▁çıxarmağa": 4869,
      "uru": 4870,
      "eyrə": 4871,
      "▁idarə": 4872,
      "tənkə": 4873,
      "Təəssüf": 4874,
      "Qayıq": 4875,
      "elik": 4876,
      "▁qapıya": 4877,
      "▁arzuladı": 4878,
      "▁avtomobilini": 4879,
      "▁git": 4880,
      "Qaranlıq": 4881,
      "▁sevinir": 4882,
      "▁pisdir": 4883,
      "▁zirvəyə": 4884,
      "▁yaratmaq": 4885,
      "▁iyrənc": 4886,
      "▁əlcək": 4887,
      "Fikirləşdi": 4888,
      "Cəs": 4889,
      "malısınız": 4890,
      "▁quşların": 4891,
      "▁şo": 4892,
      "▁təmin": 4893,
      "▁çayın": 4894,
      "▁mübarizə": 4895,
      "aftalı": 4896,
      "ıstıq": 4897,
      "valideyn": 4898,
      "midor": 4899,
      "ınqıl": 4900,
      "mənimdir": 4901,
      "eli": 4902,
      "▁dart": 4903,
      "acağına": 4904,
      "sıx": 4905,
      "▁dəyərli": 4906,
      "Diqq": 4907,
      "▁yığını": 4908,
      "▁gələcək": 4909,
      "Əlvida": 4910,
      "▁axtarmaq": 4911,
      "▁böyükdür": 4912,
      "Bayquş": 4913,
      "Mək": 4914,
      "fi": 4915,
      "hündür": 4916,
      "▁qoymaq": 4917,
      "olip": 4918,
      "▁evində": 4919,
      "▁Cen": 4920,
      "▁yaşlarını": 4921,
      "▁dir": 4922,
      "▁asıl": 4923,
      "▁salıb": 4924,
      "zibə": 4925,
      "▁dediyini": 4926,
      "▁davr": 4927,
      "▁qaçmaq": 4928,
      "▁köç": 4929,
      "Yelləncək": 4930,
      "▁çaya": 4931,
      "▁yerində": 4932,
      "püt": 4933,
      "Doğru": 4934,
      "Jake": 4935,
      "acağıq": 4936,
      "ışqa": 4937,
      "amaş": 4938,
      "Düz": 4939,
      "▁uşaqların": 4940,
      "ast": 4941,
      "▁aparırdı": 4942,
      "▁bacarmadı": 4943,
      "▁dərman": 4944,
      "anta": 4945,
      "▁edim": 4946,
      "▁zooparka": 4947,
      "▁görmədilər": 4948,
      "ser": 4949,
      "Hazır": 4950,
      "ian": 4951,
      "▁yeyib": 4952,
      "▁futbol": 4953,
      "▁ciddi": 4954,
      "bəziləri": 4955,
      "uyru": 4956,
      "▁böyüt": 4957,
      "▁ağacları": 4958,
      "əkə": 4959,
      "vay": 4960,
      "▁cəngavər": 4961,
      "aket": 4962,
      "▁təbi": 4963,
      "uzi": 4964,
      "▁gəlincik": 4965,
      "▁parıldadı": 4966,
      "▁yuvarlaq": 4967,
      "edici": 4968,
      "▁kövr": 4969,
      "Mətbəxə": 4970,
      "▁rənglər": 4971,
      "▁hissi": 4972,
      "▁aça": 4973,
      "▁yetiş": 4974,
      "Heyvan": 4975,
      "▁çatdılar": 4976,
      "gg": 4977,
      "▁Bill": 4978,
      "▁dünyanın": 4979,
      "▁arxadan": 4980,
      "əkk": 4981,
      "bay": 4982,
      "▁uşaqları": 4983,
      "▁kövrək": 4984,
      "▁vaq": 4985,
      "▁kəsin": 4986,
      "zibədar": 4987,
      "▁cəngəllikdə": 4988,
      "▁qollarını": 4989,
      "▁sıçrayıb": 4990,
      "▁götürə": 4991,
      "▁bəyənmədi": 4992,
      "▁çuval": 4993,
      "▁təsəlli": 4994,
      "▁gününü": 4995,
      "▁lələk": 4996,
      "▁taxıb": 4997,
      "uquşu": 4998,
      "▁bəyənirəm": 4999,
      "▁şad": 5000,
      "▁yastıq": 5001,
      "yoxsa": 5002,
      "▁bağışladı": 5003,
      "▁bilmərik": 5004,
      "▁deyillər": 5005,
      "əhəri": 5006,
      "Onlarla": 5007,
      "İcazə": 5008,
      "təhlükəsiz": 5009,
      "dostu": 5010,
      "Böcək": 5011,
      "▁çubuğu": 5012,
      "əllimi": 5013,
      "itin": 5014,
      "▁getməyin": 5015,
      "▁ayaqları": 5016,
      "▁sürüşdü": 5017,
      "lub": 5018,
      "▁ildırım": 5019,
      "ürəm": 5020,
      "▁olmayın": 5021,
      "▁bel": 5022,
      "mışdılar": 5023,
      "▁sin": 5024,
      "▁yelləndi": 5025,
      "▁kölg": 5026,
      "▁içdi": 5027,
      "▁tost": 5028,
      "▁baxmay": 5029,
      "▁olacağam": 5030,
      "▁yığmağa": 5031,
      "Velosip": 5032,
      "▁qədim": 5033,
      "▁təpədən": 5034,
      "▁pıçıldadı": 5035,
      "▁bağı": 5036,
      "Mar": 5037,
      "▁barmağını": 5038,
      "▁burnunu": 5039,
      "▁çıxara": 5040,
      "▁dizay": 5041,
      "Meşədə": 5042,
      "mənin": 5043,
      "dovşan": 5044,
      "ayının": 5045,
      "▁islan": 5046,
      "eşi": 5047,
      "Anasından": 5048,
      "▁əylənə": 5049,
      "▁gəzinti": 5050,
      "▁darvaz": 5051,
      "▁sildi": 5052,
      "inizi": 5053,
      "▁qapının": 5054,
      "başına": 5055,
      "▁çət": 5056,
      "▁alın": 5057,
      "▁etməliyik": 5058,
      "▁Semə": 5059,
      "▁çər": 5060,
      "▁əmi": 5061,
      "ırıq": 5062,
      "▁mil": 5063,
      "Ad": 5064,
      "ğan": 5065,
      "▁yeməkləri": 5066,
      "kəpən": 5067,
      "izgi": 5068,
      "Meymun": 5069,
      "əlx": 5070,
      "▁idman": 5071,
      "▁kolun": 5072,
      "▁qayanın": 5073,
      "▁rəngdə": 5074,
      "▁qanadları": 5075,
      "▁pulunu": 5076,
      "Getdiyi": 5077,
      "▁istedadlı": 5078,
      "məlum": 5079,
      "▁küçədə": 5080,
      "▁çeynə": 5081,
      "▁idin": 5082,
      "urt": 5083,
      "Bilirdi": 5084,
      "▁alov": 5085,
      "▁Z": 5086,
      "birindən": 5087,
      "▁papağını": 5088,
      "əyisə": 5089,
      "▁otağın": 5090,
      "kişi": 5091,
      "▁cənab": 5092,
      "▁gəzirdilər": 5093,
      "▁izləmək": 5094,
      "əzə": 5095,
      "▁pənc": 5096,
      "Yolda": 5097,
      "Lisa": 5098,
      "▁baxın": 5099,
      "▁vedr": 5100,
      "liyinə": 5101,
      "ter": 5102,
      "▁şirəli": 5103,
      "▁Cekin": 5104,
      "▁dinlədi": 5105,
      "örümçək": 5106,
      "▁yöndəmsiz": 5107,
      "Üç": 5108,
      "▁istədiklərini": 5109,
      "▁pizza": 5110,
      "▁deyilirdi": 5111,
      "üpür": 5112,
      "umu": 5113,
      "▁sürdü": 5114,
      "ükan": 5115,
      "indəki": 5116,
      "qabı": 5117,
      "▁sevinərək": 5118,
      "▁beş": 5119,
      "▁lolip": 5120,
      "▁formalar": 5121,
      "Pəncərədən": 5122,
      "▁tuf": 5123,
      "▁ön": 5124,
      "məmək": 5125,
      "▁bölüşdü": 5126,
      "▁əkizdir": 5127,
      "▁etdirdi": 5128,
      "Ətrafda": 5129,
      "▁günəşi": 5130,
      "▁dib": 5131,
      "ilən": 5132,
      "▁gerçək": 5133,
      "Mas": 5134,
      "▁Emili": 5135,
      "ovul": 5136,
      "iss": 5137,
      "▁kərə": 5138,
      "mirdilər": 5139,
      "▁qaça": 5140,
      "▁müt": 5141,
      "▁kağızı": 5142,
      "üdrik": 5143,
      "▁göyərçin": 5144,
      "▁saatlarla": 5145,
      "qəzəbli": 5146,
      "▁tapmaca": 5147,
      "quru": 5148,
      "▁buynuz": 5149,
      "ürüş": 5150,
      "▁idey": 5151,
      "qap": 5152,
      "unc": 5153,
      "ifrət": 5154,
      "▁ördə": 5155,
      "▁dəhşətli": 5156,
      "rok": 5157,
      "qdan": 5158,
      "▁xat": 5159,
      "▁sevdiklərini": 5160,
      "zaq": 5161,
      "▁nağara": 5162,
      "duş": 5163,
      "▁sim": 5164,
      "▁olardı": 5165,
      "▁qon": 5166,
      "▁istirahət": 5167,
      "▁bilməzdi": 5168,
      "oyuncaqlarını": 5169,
      "▁or": 5170,
      "▁qucaqlaşdılar": 5171,
      "Dostu": 5172,
      "erj": 5173,
      "Jen": 5174,
      "le": 5175,
      "▁əylənməyi": 5176,
      "▁başı": 5177,
      "tamam": 5178,
      "▁müst": 5179,
      "▁paltarları": 5180,
      "Çölə": 5181,
      "Aç": 5182,
      "▁olmadan": 5183,
      "▁qaba": 5184,
      "▁palamut": 5185,
      "▁getməsinə": 5186,
      "dəbəli": 5187,
      "▁sox": 5188,
      "▁ayağını": 5189,
      "▁qısqan": 5190,
      "xanaya": 5191,
      "▁üzüldü": 5192,
      "Yuxu": 5193,
      "kəl": 5194,
      "▁boru": 5195,
      "Gülməli": 5196,
      "▁sıçrayış": 5197,
      "▁şəkillərini": 5198,
      "▁siqna": 5199,
      "iləm": 5200,
      "▁Peter": 5201,
      "indiyə": 5202,
      "▁ağlamağı": 5203,
      "ag": 5204,
      "▁xatırla": 5205,
      "▁dadı": 5206,
      "▁qayaya": 5207,
      "▁deyirsən": 5208,
      "Bəs": 5209,
      "blok": 5210,
      "▁fırt": 5211,
      "▁iyi": 5212,
      "▁problemi": 5213,
      "▁qazanmaq": 5214,
      "▁nifrət": 5215,
      "▁gəzdir": 5216,
      "▁mehribansan": 5217,
      "▁məsləhət": 5218,
      "▁tutdular": 5219,
      "▁kəpənəyi": 5220,
      "ofi": 5221,
      "ənövşəyi": 5222,
      "▁zövq": 5223,
      "▁etsə": 5224,
      "▁şlanq": 5225,
      "aul": 5226,
      "▁yuva": 5227,
      "▁girmək": 5228,
      "▁dum": 5229,
      "▁müş": 5230,
      "▁unutma": 5231,
      "Ola": 5232,
      "▁cazibədar": 5233,
      "▁boyn": 5234,
      "mısan": 5235,
      "▁dostlarından": 5236,
      "▁Maksa": 5237,
      "▁kəsi": 5238,
      "▁tullanmağı": 5239,
      "▁yelkən": 5240,
      "▁görənə": 5241,
      "▁mürəb": 5242,
      "▁tamam": 5243,
      "▁dəbilq": 5244,
      "▁oyuncağ": 5245,
      "obi": 5246,
      "▁işar": 5247,
      "▁cığ": 5248,
      "rip": 5249,
      "ici": 5250,
      "▁dəyir": 5251,
      "erri": 5252,
      "ikal": 5253,
      "weeti": 5254,
      "yaya": 5255,
      "rit": 5256,
      "▁olurlar": 5257,
      "▁gölün": 5258,
      "Oynamaq": 5259,
      "▁kədərlidirlər": 5260,
      "örəyi": 5261,
      "Ax": 5262,
      "əmiri": 5263,
      "Av": 5264,
      "▁yaxşısı": 5265,
      "▁yavaşca": 5266,
      "əribə": 5267,
      "rediy": 5268,
      "rijinal": 5269,
      "Qorxma": 5270,
      "▁qalsın": 5271,
      "▁pişiyin": 5272,
      "▁paylaşdılar": 5273,
      "sıxıcı": 5274,
      "John": 5275,
      "▁fırç": 5276,
      "▁çevirdi": 5277,
      "Keç": 5278,
      "əlxək": 5279,
      "paylaş": 5280,
      "▁çiyələk": 5281,
      "mur": 5282,
      "usie": 5283,
      "▁fikirdir": 5284,
      "kağız": 5285,
      "▁ailəsinə": 5286,
      "▁niyyətində": 5287,
      "Anasına": 5288,
      "▁gülümsəyirdi": 5289,
      "▁çıxır": 5290,
      "▁stəkan": 5291,
      "▁səsləri": 5292,
      "yon": 5293,
      "▁güzgü": 5294,
      "ty": 5295,
      "ükəmməl": 5296,
      "yazı": 5297,
      "▁balasını": 5298,
      "Təyy": 5299,
      "paltar": 5300,
      "▁fırça": 5301,
      "▁qışqırmağa": 5302,
      "▁hamam": 5303,
      "▁bişirməyi": 5304,
      "rediyent": 5305,
      "▁tac": 5306,
      "▁ayrıl": 5307,
      "▁tav": 5308,
      "▁şirniyyat": 5309,
      "Qutunun": 5310,
      "▁nəğ": 5311,
      "ex": 5312,
      "eyə": 5313,
      "ow": 5314,
      "▁bəri": 5315,
      "Köhnə": 5316,
      "▁təmizləy": 5317,
      "▁tüstü": 5318,
      "baz": 5319,
      "▁öpüş": 5320,
      "stik": 5321,
      "▁dərindən": 5322,
      "Cen": 5323,
      "▁xətt": 5324,
      "▁atəş": 5325,
      "▁xəbərdarlıq": 5326,
      "▁təpənin": 5327,
      "Dadlı": 5328,
      "▁tikməyə": 5329,
      "çəhrayı": 5330,
      "▁oynayanda": 5331,
      "ariş": 5332,
      "▁uşağa": 5333,
      "▁birinin": 5334,
      "▁fermada": 5335,
      "weetie": 5336,
      "▁tapmışdı": 5337,
      "eg": 5338,
      "row": 5339,
      "▁sevimlisi": 5340,
      "zdən": 5341,
      "sunu": 5342,
      "Saç": 5343,
      "▁zədə": 5344,
      "▁tərpənmədi": 5345,
      "▁bilirsən": 5346,
      "▁müstəqil": 5347,
      "orta": 5348,
      "Bəyən": 5349,
      "▁götürdülər": 5350,
      "▁qoruya": 5351,
      "kəşf": 5352,
      "öyüş": 5353,
      "▁çıxmağa": 5354,
      "▁bölün": 5355,
      "estor": 5356,
      "▁dünya": 5357,
      "isinə": 5358,
      "▁kartof": 5359,
      "Qonş": 5360,
      "▁avtomobili": 5361,
      "ağaca": 5362,
      "üdrətli": 5363,
      "Ulduz": 5364,
      "▁hazırlaya": 5365,
      "▁ara": 5366,
      "▁atdılar": 5367,
      "▁etdikləri": 5368,
      "▁vəziyyət": 5369,
      "maqn": 5370,
      "▁müha": 5371,
      "▁əvvəlkindən": 5372,
      "▁zəngin": 5373,
      "▁batana": 5374,
      "▁kəmə": 5375,
      "əyində": 5376,
      "rəm": 5377,
      "▁qaçarkən": 5378,
      "Benə": 5379,
      "▁deyiləm": 5380,
      "▁çarp": 5381,
      "alvar": 5382,
      "▁Cenni": 5383,
      "▁balqabaq": 5384,
      "unel": 5385,
      "dal": 5386,
      "▁quşla": 5387,
      "▁valideynlərinə": 5388,
      "inqvin": 5389,
      "bura": 5390,
      "lıqda": 5391,
      "▁qılınc": 5392,
      "▁köpək": 5393,
      "▁yüngül": 5394,
      "▁olmalıdır": 5395,
      "▁mağazasına": 5396,
      "Onda": 5397,
      "▁oynama": 5398,
      "▁Billy": 5399,
      "qara": 5400,
      "▁üzən": 5401,
      "▁ucuz": 5402,
      "▁kənarına": 5403,
      "qışqır": 5404,
      "lığına": 5405,
      "isinin": 5406,
      "▁olanı": 5407,
      "▁çıxarmaq": 5408,
      "▁eşitmədi": 5409,
      "▁şiddətli": 5410,
      "▁edəcəyik": 5411,
      "▁kiminsə": 5412,
      "qol": 5413,
      "▁qapısını": 5414,
      "▁meşənin": 5415,
      "▁lövhə": 5416,
      "▁xeyrə": 5417,
      "▁paltarlarını": 5418,
      "▁incə": 5419,
      "Mumiya": 5420,
      "▁macəraçı": 5421,
      "rist": 5422,
      "▁sındırdı": 5423,
      "▁paxıl": 5424,
      "▁açdılar": 5425,
      "Mendi": 5426,
      "▁şəkər": 5427,
      "▁spaget": 5428,
      "▁tikə": 5429,
      "Mianın": 5430,
      "▁əsgər": 5431,
      "ilot": 5432,
      "▁üzünə": 5433,
      "▁dişlə": 5434,
      "▁ləkə": 5435,
      "▁axtarırdılar": 5436,
      "▁paylaşa": 5437,
      "▁kitablar": 5438,
      "induş": 5439,
      "ağladı": 5440,
      "▁dənizdə": 5441,
      "▁göv": 5442,
      "▁əyildi": 5443,
      "ərər": 5444,
      "ğından": 5445,
      "parka": 5446,
      "dadlı": 5447,
      "▁səbirsizliklə": 5448,
      "▁eyn": 5449,
      "▁mənzərə": 5450,
      "anacaq": 5451,
      "aj": 5452,
      "▁kabin": 5453,
      "▁metal": 5454,
      "anışıb": 5455,
      "▁öyrədə": 5456,
      "▁biləcəyinə": 5457,
      "Qonaq": 5458,
      "▁keçəl": 5459,
      "Tort": 5460,
      "▁nəticə": 5461,
      "Kağız": 5462,
      "salam": 5463,
      "Düşündü": 5464,
      "▁bununla": 5465,
      "▁istəmək": 5466,
      "ley": 5467,
      "imdir": 5468,
      "▁uşağı": 5469,
      "▁burnu": 5470,
      "▁üzü": 5471,
      "ədiyini": 5472,
      "▁fermu": 5473,
      "▁mik": 5474,
      "ebra": 5475,
      "▁şeydən": 5476,
      "▁nəm": 5477,
      "potu": 5478,
      "▁gəlin": 5479,
      "▁normal": 5480,
      "▁kənara": 5481,
      "▁gəliblər": 5482,
      "nən": 5483,
      "▁alırdılar": 5484,
      "axmaq": 5485,
      "▁unikal": 5486,
      "məlisiniz": 5487,
      "▁güclüdür": 5488,
      "▁sabun": 5489,
      "▁cız": 5490,
      "▁axtarmağı": 5491,
      "meş": 5492,
      "▁yaxınlıqda": 5493,
      "▁çınqıl": 5494,
      "Sahib": 5495,
      "ərəkət": 5496,
      "▁geyinmişdi": 5497,
      "▁cəlb": 5498,
      "▁çırpıb": 5499,
      "iyyətlə": 5500,
      "▁etiket": 5501,
      "▁haradadır": 5502,
      "▁kiç": 5503,
      "Gec": 5504,
      "Çəhrayı": 5505,
      "ulmuş": 5506,
      "▁tullanmaq": 5507,
      "İnsanlar": 5508,
      "▁popkorn": 5509,
      "rəni": 5510,
      "▁enerj": 5511,
      "▁uşaqlara": 5512,
      "▁daxil": 5513,
      "Nəhəng": 5514,
      "ikayət": 5515,
      "▁çantasını": 5516,
      "▁araşdırmağı": 5517,
      "ümk": 5518,
      "bel": 5519,
      "tara": 5520,
      "ğuna": 5521,
      "birinin": 5522,
      "▁vaxtsa": 5523,
      "Daş": 5524,
      "▁dayandırıb": 5525,
      "dığınız": 5526,
      "▁unutmayın": 5527,
      "kədərləndi": 5528,
      "▁olmaz": 5529,
      "fın": 5530,
      "▁çəkildi": 5531,
      "▁saçlarını": 5532,
      "Bunlar": 5533,
      "əşfəş": 5534,
      "çisi": 5535,
      "▁edəcəyəm": 5536,
      "nahar": 5537,
      "▁saqqız": 5538,
      "▁getməsini": 5539,
      "Cənab": 5540,
      "▁ucadan": 5541,
      "▁divanda": 5542,
      "▁çadır": 5543,
      "▁liman": 5544,
      "▁Mar": 5545,
      "danı": 5546,
      "▁xatırlatdı": 5547,
      "bal": 5548,
      "▁inq": 5549,
      "▁başq": 5550,
      "▁dörd": 5551,
      "▁yığmağı": 5552,
      "ham": 5553,
      "▁edil": 5554,
      "kör": 5555,
      "▁sürməyə": 5556,
      "▁baloncuk": 5557,
      "▁qayığa": 5558,
      "▁çevik": 5559,
      "ba": 5560,
      "Bun": 5561,
      "▁gülürdülər": 5562,
      "▁buzlu": 5563,
      "▁axtarış": 5564,
      "oq": 5565,
      "▁buradayam": 5566,
      "▁sifariş": 5567,
      "eat": 5568,
      "▁ibarət": 5569,
      "▁mühərrik": 5570,
      "▁bacardı": 5571,
      "ele": 5572,
      "▁axtarır": 5573,
      "▁kasıb": 5574,
      "▁qayıdacaq": 5575,
      "▁meşəni": 5576,
      "▁əsdi": 5577,
      "Teddi": 5578,
      "▁avtobus": 5579,
      "Leo": 5580,
      "▁qalmalı": 5581,
      "Anasını": 5582,
      "▁qolunu": 5583,
      "yuvar": 5584,
      "▁bəlkə": 5585,
      "Sə": 5586,
      "▁yeməkdən": 5587,
      "▁aldığı": 5588,
      "▁içmək": 5589,
      "▁for": 5590,
      "▁keçdilər": 5591,
      "▁qaşlarını": 5592,
      "uzaq": 5593,
      "der": 5594,
      "▁öyrət": 5595,
      "kö": 5596,
      "Gülüms": 5597,
      "otu": 5598,
      "▁uşaqlarla": 5599,
      "▁əjdah": 5600,
      "▁inqrediyent": 5601,
      "▁dan": 5602,
      "eyni": 5603,
      "▁iyini": 5604,
      "Gördü": 5605,
      "Ey": 5606,
      "htap": 5607,
      "irk": 5608,
      "▁olmadığı": 5609,
      "▁tərəz": 5610,
      "▁dostun": 5611,
      "▁sanki": 5612,
      "▁ayrı": 5613,
      "▁başqaları": 5614,
      "▁uçdular": 5615,
      "▁cansıxıcı": 5616,
      "▁səndən": 5617,
      "▁cizgi": 5618,
      "▁birində": 5619,
      "landa": 5620,
      "Peçenye": 5621,
      "▁oğlanla": 5622,
      "uyruğunu": 5623,
      "▁keçirdiyi": 5624,
      "gəz": 5625,
      "▁fiq": 5626,
      "▁gövdə": 5627,
      "Otun": 5628,
      "yaşı": 5629,
      "səniz": 5630,
      "▁istəyirsiniz": 5631,
      "lış": 5632,
      "onlarla": 5633,
      "▁kənarda": 5634,
      "▁tələb": 5635,
      "▁nəzər": 5636,
      "▁sınmış": 5637,
      "▁qula": 5638,
      "▁ziyarətə": 5639,
      "▁küləyin": 5640,
      "les": 5641,
      "afli": 5642,
      "▁mərmi": 5643,
      "▁kubok": 5644,
      "zü": 5645,
      "Aşağı": 5646,
      "inizə": 5647,
      "St": 5648,
      "lənmə": 5649,
      "▁heyrətlə": 5650,
      "oynamaq": 5651,
      "▁etmirdi": 5652,
      "▁sürətlidir": 5653,
      "cəhd": 5654,
      "iylə": 5655,
      "▁orijinal": 5656,
      "ailəsi": 5657,
      "▁alırlar": 5658,
      "▁qorxmuşdu": 5659,
      "▁sümük": 5660,
      "▁qarğıdalı": 5661,
      "▁uzaqlara": 5662,
      "▁işlər": 5663,
      "▁öyrənirlər": 5664,
      "▁qayıtmağa": 5665,
      "Diz": 5666,
      "▁lolipop": 5667,
      "▁qutusunda": 5668,
      "Kra": 5669,
      "▁bağında": 5670,
      "▁danışır": 5671,
      "▁ağzına": 5672,
      "Sürücü": 5673,
      "inif": 5674,
      "ayaq": 5675,
      "▁vurmağa": 5676,
      "laf": 5677,
      "▁öyrənə": 5678,
      "▁silkələdi": 5679,
      "birləri": 5680,
      "▁qovdu": 5681,
      "Cekin": 5682,
      "▁varmış": 5683,
      "▁yellənməyi": 5684,
      "omet": 5685,
      "ladığı": 5686,
      "▁şəx": 5687,
      "▁qonşu": 5688,
      "mirsən": 5689,
      "▁yeyir": 5690,
      "Səhər": 5691,
      "▁tullanmağa": 5692,
      "▁salfet": 5693,
      "balıq": 5694,
      "▁qaçdığını": 5695,
      "▁Tommy": 5696,
      "▁imkan": 5697,
      "▁yaxşısan": 5698,
      "Tut": 5699,
      "▁neçəsini": 5700,
      "▁gizlə": 5701,
      "▁rəis": 5702,
      "▁taxt": 5703,
      "▁oturacaq": 5704,
      "dıqlarını": 5705,
      "▁alaq": 5706,
      "enri": 5707,
      "▁sürmək": 5708,
      "▁rəqab": 5709,
      "kimsə": 5710,
      "▁ürəyi": 5711,
      "İçində": 5712,
      "▁Bun": 5713,
      "fizə": 5714,
      "▁aydın": 5715,
      "▁istərdiniz": 5716,
      "room": 5717,
      "▁xalç": 5718,
      "qqas": 5719,
      "▁paylaşmaq": 5720,
      "▁tutqun": 5721,
      "ırğa": 5722,
      "osik": 5723,
      "▁yanğın": 5724,
      "▁bəzə": 5725,
      "▁döydü": 5726,
      "ığıl": 5727,
      "Qatar": 5728,
      "▁birləş": 5729,
      "▁çıxmağı": 5730,
      "▁dovşanın": 5731,
      "▁solğun": 5732,
      "Soyuq": 5733,
      "okad": 5734,
      "ose": 5735,
      "▁yürüş": 5736,
      "▁etdik": 5737,
      "Düy": 5738,
      "eht": 5739,
      "əssam": 5740,
      "suza": 5741,
      "mışam": 5742,
      "▁təəccübləndilər": 5743,
      "▁çiyin": 5744,
      "▁bina": 5745,
      "▁sahildə": 5746,
      "Qarışqa": 5747,
      "ığılcı": 5748,
      "▁əlinə": 5749,
      "▁bəzək": 5750,
      "▁sakitcə": 5751,
      "▁müasir": 5752,
      "▁başında": 5753,
      "▁tərp": 5754,
      "▁tapmac": 5755,
      "balığı": 5756,
      "Lüsinin": 5757,
      "sınlar": 5758,
      "▁fikirləş": 5759,
      "▁kölgə": 5760,
      "▁asmaq": 5761,
      "Polis": 5762,
      "landırdı": 5763,
      "təb": 5764,
      "▁danışmağı": 5765,
      "rownie": 5766,
      "əcəyinə": 5767,
      "▁bahalı": 5768,
      "eşid": 5769,
      "giz": 5770,
      "▁Mianın": 5771,
      "▁yandır": 5772,
      "lah": 5773,
      "▁Jen": 5774,
      "ələr": 5775,
      "lanmışdı": 5776,
      "Mik": 5777,
      "essi": 5778,
      "lıqdakı": 5779,
      "▁dəstək": 5780,
      "onda": 5781,
      "iyaz": 5782,
      "Elli": 5783,
      "getdikcə": 5784,
      "imç": 5785,
      "Ayaq": 5786,
      "▁xanıma": 5787,
      "▁sürprizi": 5788,
      "Kukla": 5789,
      "▁danışırlar": 5790,
      "▁suallar": 5791,
      "▁tırtıl": 5792,
      "▁Annaya": 5793,
      "osikl": 5794,
      "yağış": 5795,
      "Piş": 5796,
      "▁kədərləndirdi": 5797,
      "▁verməlisən": 5798,
      "iyaziyyat": 5799,
      "Arx": 5800,
      "yanın": 5801,
      "▁nənəsi": 5802,
      "▁Jane": 5803,
      "▁oxş": 5804,
      "▁ayının": 5805,
      "▁titrəməyə": 5806,
      "▁Saraya": 5807,
      "Ayaqqabı": 5808,
      "Yal": 5809,
      "▁getmişdi": 5810,
      "mayacağına": 5811,
      "▁mün": 5812,
      "▁nax": 5813,
      "viz": 5814,
      "Deyəsən": 5815,
      "Fred": 5816,
      "▁paltosunu": 5817,
      "▁pişiyə": 5818,
      "Rəq": 5819,
      "Conun": 5820,
      "eki": 5821,
      "Div": 5822,
      "▁Su": 5823,
      "ləndirdi": 5824,
      "▁Teddi": 5825,
      "püter": 5826,
      "▁quşlara": 5827,
      "▁gücü": 5828,
      "▁dizayn": 5829,
      "▁yorğanı": 5830,
      "▁qəpik": 5831,
      "ıldığını": 5832,
      "Gecə": 5833,
      "tənkələ": 5834,
      "▁hekayənin": 5835,
      "▁qaşığı": 5836,
      "▁tutmağı": 5837,
      "Döş": 5838,
      "mırlar": 5839,
      "▁vurub": 5840,
      "▁yaxşılaşdı": 5841,
      "▁minmək": 5842,
      "▁maqn": 5843,
      "▁planı": 5844,
      "▁vidalaş": 5845,
      "▁hasar": 5846,
      "▁sataş": 5847,
      "▁kaka": 5848,
      "güldü": 5849,
      "mıza": 5850,
      "Sizin": 5851,
      "▁çalışsalar": 5852,
      "▁uçarkən": 5853,
      "Yalnız": 5854,
      "▁albalı": 5855,
      "▁qatarı": 5856,
      "▁duz": 5857,
      "▁qalaya": 5858,
      "lənməyə": 5859,
      "uter": 5860,
      "▁çağırdığını": 5861,
      "▁Leo": 5862,
      "Slayd": 5863,
      "▁pələng": 5864,
      "Çay": 5865,
      "▁çimdik": 5866,
      "▁sudan": 5867,
      "▁tufan": 5868,
      "ollinin": 5869,
      "▁çəkirdi": 5870,
      "▁uzaqdan": 5871,
      "▁əylənməyə": 5872,
      "▁yadına": 5873,
      "▁çimərlikdə": 5874,
      "yuyan": 5875,
      "▁ayağı": 5876,
      "▁göstərməyə": 5877,
      "illa": 5878,
      "▁ediblər": 5879,
      "▁sız": 5880,
      "tullanmağı": 5881,
      "Dəniz": 5882,
      "asan": 5883,
      "▁sonsuza": 5884,
      "mar": 5885,
      "ahidə": 5886,
      "▁əri": 5887,
      "Pit": 5888,
      "▁fıstıq": 5889,
      "əbaxan": 5890,
      "▁olublar": 5891,
      "bizə": 5892,
      "▁şaftalı": 5893,
      "Rəfiqəsi": 5894,
      "▁xatirə": 5895,
      "▁gördüm": 5896,
      "Paltar": 5897,
      "▁Annanı": 5898,
      "▁sap": 5899,
      "▁hönkür": 5900,
      "lastik": 5901,
      "▁dəbdəbəli": 5902,
      "▁sağal": 5903,
      "omobil": 5904,
      "Dovş": 5905,
      "▁qoşuldu": 5906,
      "▁paxıllıq": 5907,
      "Zəng": 5908,
      "Üzündə": 5909,
      "▁göstərirlər": 5910,
      "▁gəzir": 5911,
      "▁oyananda": 5912,
      "▁bilirlər": 5913,
      "heyvanlar": 5914,
      "▁zamanı": 5915,
      "▁alacaq": 5916,
      "Ted": 5917,
      "osk": 5918,
      "ərg": 5919,
      "oğ": 5920,
      "Pap": 5921,
      "Kitabı": 5922,
      "..": 5923,
      "Molly": 5924,
      "▁edəcəyinə": 5925,
      "▁bilməy": 5926,
      "▁gizlənmək": 5927,
      "▁mərmər": 5928,
      "diyiniz": 5929,
      "▁görmü": 5930,
      "aqaj": 5931,
      "ie": 5932,
      "▁gitara": 5933,
      "▁maraqlanırdı": 5934,
      "▁itlə": 5935,
      "▁səmanı": 5936,
      "xanım": 5937,
      "▁yerdir": 5938,
      "▁ikiniz": 5939,
      "▁arm": 5940,
      "▁həvəslə": 5941,
      "▁içindən": 5942,
      "▁pirat": 5943,
      "aksi": 5944,
      "▁çətinlik": 5945,
      "səhv": 5946,
      "▁tapan": 5947,
      "▁səsin": 5948,
      "▁istidir": 5949,
      "Palt": 5950,
      "▁Timə": 5951,
      "iliş": 5952,
      "▁Lil": 5953,
      "▁saçını": 5954,
      "▁qəfəs": 5955,
      "laydı": 5956,
      "▁sıxdı": 5957,
      "Üst": 5958,
      "▁zərərsiz": 5959,
      "▁makar": 5960,
      "▁köynək": 5961,
      "▁adın": 5962,
      "▁keçən": 5963,
      "təmiz": 5964,
      "çubuq": 5965,
      "▁düşə": 5966,
      "arsan": 5967,
      "kanı": 5968,
      "▁qabar": 5969,
      "▁olunurdu": 5970,
      "▁lamp": 5971,
      "htapot": 5972,
      "vad": 5973,
      "▁girəndə": 5974,
      "ümç": 5975,
      "▁keçirmək": 5976,
      "▁göbə": 5977,
      "▁sürünərək": 5978,
      "Quşlar": 5979,
      "▁həb": 5980,
      "▁danışıb": 5981,
      "yü": 5982,
      "▁sabah": 5983,
      "mayıb": 5984,
      "qavi": 5985,
      "▁istəmədiyi": 5986,
      "▁hörmətli": 5987,
      "icarət": 5988,
      "▁kişinin": 5989,
      "▁müşahidə": 5990,
      "▁kilid": 5991,
      "▁ai": 5992,
      "▁malik": 5993,
      "▁dərsini": 5994,
      "Ella": 5995,
      "Qreys": 5996,
      "enquru": 5997,
      "▁quldur": 5998,
      "▁televizora": 5999,
      "▁atanın": 6000,
      "▁Mark": 6001,
      "əşək": 6002,
      "▁dediyi": 6003,
      "▁dərslərini": 6004,
      "œBəli": 6005,
      "▁düşündülər": 6006,
      "has": 6007,
      "ıla": 6008,
      "▁istəsə": 6009,
      "▁asmır": 6010,
      "▁pomidor": 6011,
      "saydılar": 6012,
      "▁qül": 6013,
      "▁gözəlsən": 6014,
      "▁arxa": 6015,
      "▁görünüş": 6016,
      "əşəkkil": 6017,
      "▁sus": 6018,
      "İnək": 6019,
      "oom": 6020,
      "▁ağıllısan": 6021,
      "Çarli": 6022,
      "ünüb": 6023,
      "vəquşu": 6024,
      "qavimət": 6025,
      "ulduz": 6026,
      "▁tərəfindən": 6027,
      "mətli": 6028,
      "▁masaya": 6029,
      "▁təc": 6030,
      "▁görünürsən": 6031,
      "Çıx": 6032,
      "▁kürək": 6033,
      "anlı": 6034,
      "▁işdən": 6035,
      "▁okeanda": 6036,
      "sinlər": 6037,
      "Bella": 6038,
      "piş": 6039,
      "▁naməlum": 6040,
      "Küç": 6041,
      "ep": 6042,
      "təşəkkür": 6043,
      "▁parıldadığını": 6044,
      "afə": 6045,
      "▁dizini": 6046,
      "bucaq": 6047,
      "başını": 6048,
      "Dan": 6049,
      "▁səpə": 6050,
      "ürafə": 6051,
      "Musiq": 6052,
      "▁yatmağı": 6053,
      "çaya": 6054,
      "▁çeşid": 6055,
      "▁analarını": 6056,
      "▁növb": 6057,
      "▁itələməyə": 6058,
      "▁bağışla": 6059,
      "▁kraliça": 6060,
      "heyrət": 6061,
      "▁xoşbəxtliklə": 6062,
      "sehrli": 6063,
      "zaya": 6064,
      "əcəklərini": 6065,
      "ddy": 6066,
      "▁görən": 6067,
      "burada": 6068,
      "▁çeyn": 6069,
      "▁ayıya": 6070,
      "▁ayıq": 6071,
      "▁naxış": 6072,
      "tort": 6073,
      "Mayk": 6074,
      "əcəklər": 6075,
      "▁işləri": 6076,
      "▁hamıya": 6077,
      "▁uğul": 6078,
      "pic": 6079,
      "uff": 6080,
      "▁imtah": 6081,
      "▁sürücüsü": 6082,
      "Çək": 6083,
      "Yarış": 6084,
      "Paylaşmaq": 6085,
      "Quşun": 6086,
      "ing": 6087,
      "▁past": 6088,
      "▁vid": 6089,
      "Reks": 6090,
      "▁gəlməsini": 6091,
      "▁gil": 6092,
      "quşlar": 6093,
      "▁olmayacaq": 6094,
      "▁sınamağa": 6095,
      "▁hiylə": 6096,
      "▁kül": 6097,
      "▁yeyək": 6098,
      "Ləkə": 6099,
      "▁içki": 6100,
      "▁diqqətsiz": 6101,
      "▁dayandırmaq": 6102,
      "riket": 6103,
      "Yaz": 6104,
      "▁svit": 6105,
      "▁tərpət": 6106,
      "uli": 6107,
      "şirin": 6108,
      "▁çıxarırdı": 6109,
      "▁qayanı": 6110,
      "▁Smi": 6111,
      "Ananı": 6112,
      "Məncə": 6113,
      "Təmiz": 6114,
      "▁ölk": 6115,
      "sevinclə": 6116,
      "▁vərəq": 6117,
      "▁vurur": 6118,
      "gözlərini": 6119,
      "yıx": 6120,
      "obya": 6121,
      "▁istərdinizmi": 6122,
      "çarpayı": 6123,
      "▁tapmağı": 6124,
      "mətbəx": 6125,
      "▁şikayət": 6126,
      "▁rəfiq": 6127,
      "▁nağıl": 6128,
      "sir": 6129,
      "ümkün": 6130,
      "▁kənddə": 6131,
      "malıyam": 6132,
      "▁kuklanı": 6133,
      "avalı": 6134,
      "Divar": 6135,
      "▁yeyirdi": 6136,
      "▁diqqətini": 6137,
      "▁olacağıq": 6138,
      "ilib": 6139,
      "yarpaq": 6140,
      "▁çatmağa": 6141,
      "▁dovşana": 6142,
      "▁saxlayırdı": 6143,
      "iyn": 6144,
      "▁bin": 6145,
      "▁yandırdı": 6146,
      "ördək": 6147,
      "asilə": 6148,
      "ıntı": 6149,
      "bala": 6150,
      "Bet": 6151,
      "▁televizor": 6152,
      "▁lavab": 6153,
      "Andy": 6154,
      "sələr": 6155,
      "▁ulduzlar": 6156,
      "▁sevmirəm": 6157,
      "▁dinləy": 6158,
      "oda": 6159,
      "▁kürk": 6160,
      "▁yalvar": 6161,
      "Avt": 6162,
      "▁tət": 6163,
      "mm": 6164,
      "▁odun": 6165,
      "▁olarkən": 6166,
      "▁des": 6167,
      "Timin": 6168,
      "▁göstərib": 6169,
      "▁çəngəl": 6170,
      "▁qorxduğunu": 6171,
      "▁qutuda": 6172,
      "▁tapır": 6173,
      "▁soyuducu": 6174,
      "ezin": 6175,
      "▁mindi": 6176,
      "▁seçmək": 6177,
      "▁israrlı": 6178,
      "▁hazırlamağı": 6179,
      "ləndiyini": 6180,
      "▁nənəsinin": 6181,
      "▁dil": 6182,
      "örf": 6183,
      "▁gözləyir": 6184,
      "qaz": 6185,
      "▁meym": 6186,
      "ırtına": 6187,
      "▁unudurlar": 6188,
      "dil": 6189,
      "▁ağaclara": 6190,
      "egem": 6191,
      "Mağazaya": 6192,
      "▁cığır": 6193,
      "racaq": 6194,
      "Göydə": 6195,
      "oyuduc": 6196,
      "sizə": 6197,
      "▁dayandığını": 6198,
      "egemot": 6199,
      "▁bayraq": 6200,
      "xaş": 6201,
      "▁bərpa": 6202,
      "▁seçim": 6203,
      "▁nəyisə": 6204,
      "▁çəkmə": 6205,
      "Qol": 6206,
      "▁başlayıb": 6207,
      "Hava": 6208,
      "▁süfr": 6209,
      "Qəzəbli": 6210,
      "▁jele": 6211,
      "▁cəlbedici": 6212,
      "▁verməyi": 6213,
      "▁mesaj": 6214,
      "ağından": 6215,
      "ləzz": 6216,
      "▁sevirsən": 6217,
      "▁rəqəm": 6218,
      "çay": 6219,
      "▁kos": 6220,
      "▁Conni": 6221,
      "Rəngarəng": 6222,
      "AM": 6223,
      "▁deyilmi": 6224,
      "▁yalan": 6225,
      "▁görünürdülər": 6226,
      "urtma": 6227,
      "▁mö": 6228,
      "▁masa": 6229,
      "▁taxıl": 6230,
      "▁bacardıqca": 6231,
      "əyərək": 6232,
      "▁gətirə": 6233,
      "▁böcəyi": 6234,
      "▁tapacaq": 6235,
      "rəqs": 6236,
      "▁Bendən": 6237,
      "Xoşbəxtlikdən": 6238,
      "▁paltarlar": 6239,
      "▁mane": 6240,
      "œGəlin": 6241,
      "▁həyəcanlanırdı": 6242,
      "Tweety": 6243,
      "▁qorxmuş": 6244,
      "▁kədərlə": 6245,
      "▁super": 6246,
      "▁asqır": 6247,
      "▁zal": 6248,
      "Yanğınsöndürən": 6249,
      "key": 6250,
      "▁qızsan": 6251,
      "▁yoxlamaq": 6252,
      "▁yazdı": 6253,
      "Şəhər": 6254,
      "▁unudublar": 6255,
      "▁möhür": 6256,
      "▁sığına": 6257,
      "▁ağrıyır": 6258,
      "▁verəcəm": 6259,
      "▁jurnal": 6260,
      "saq": 6261,
      "▁sirri": 6262,
      "Əş": 6263,
      "▁dadmaq": 6264,
      "▁tamaş": 6265,
      "sanız": 6266,
      "Bacar": 6267,
      "taxt": 6268,
      "▁delfin": 6269,
      "▁almağı": 6270,
      "▁nazik": 6271,
      "▁bölüşdülər": 6272,
      "Dar": 6273,
      "dugər": 6274,
      "▁od": 6275,
      "▁bağışlayıram": 6276,
      "▁tarlada": 6277,
      "▁turp": 6278,
      "▁pian": 6279,
      "diyin": 6280,
      "ünki": 6281,
      "▁uldu": 6282,
      "▁ətrafdakı": 6283,
      "▁restor": 6284,
      "▁adama": 6285,
      "Çünki": 6286,
      "mayacağam": 6287,
      "Bar": 6288,
      "▁itələyir": 6289,
      "▁of": 6290,
      "atasının": 6291,
      "▁cəza": 6292,
      "cəyin": 6293,
      "Əşya": 6294,
      "qaçdı": 6295,
      "▁çəkic": 6296,
      "▁spagetti": 6297,
      "Evdə": 6298,
      "▁gözdən": 6299,
      "Kən": 6300,
      "Gülümsəyib": 6301,
      "▁xoşbəxtlik": 6302,
      "▁Salli": 6303,
      "▁nömrə": 6304,
      "lütfən": 6305,
      "stəbək": 6306,
      "başqalarına": 6307,
      "Hörümçək": 6308,
      "pi": 6309,
      "lanan": 6310,
      "Evin": 6311,
      "▁çevril": 6312,
      "▁müəllimi": 6313,
      "Kö": 6314,
      "▁ayını": 6315,
      "söz": 6316,
      "En": 6317,
      "basa": 6318,
      "▁istərdim": 6319,
      "▁oğlanı": 6320,
      "duza": 6321,
      "enti": 6322,
      "məyəcək": 6323,
      "▁ağrıyırdı": 6324,
      "ərgə": 6325,
      "iyir": 6326,
      "▁jil": 6327,
      "▁kəpənəyin": 6328,
      "▁həqiqəti": 6329,
      "Meş": 6330,
      "▁çarəsiz": 6331,
      "▁olduqlarına": 6332,
      "▁mərk": 6333,
      "▁yelləncəkdə": 6334,
      "sit": 6335,
      "▁uğurlu": 6336,
      "Sarı": 6337,
      "Bobo": 6338,
      "stuk": 6339,
      "ehtiyatlı": 6340,
      "▁ağzında": 6341,
      "▁bölündü": 6342,
      "▁uçmasını": 6343,
      "▁yaradır": 6344,
      "▁təqdim": 6345,
      "Dur": 6346,
      "lek": 6347,
      "▁etməkdə": 6348,
      "▁rəngi": 6349,
      "▁gözət": 6350,
      "▁telefonu": 6351,
      "▁samuru": 6352,
      "Dondurma": 6353,
      "ərqli": 6354,
      "▁nimç": 6355,
      "▁qısa": 6356,
      "▁götürmə": 6357,
      "Qucaqlaşıb": 6358,
      "▁getməliyik": 6359,
      "Beni": 6360,
      "▁kreslo": 6361,
      "▁çiçəklərlə": 6362,
      "Çalış": 6363,
      "ərinə": 6364,
      "▁hissə": 6365,
      "Sevinc": 6366,
      "sakit": 6367,
      "▁fırlanmağa": 6368,
      "▁təcr": 6369,
      "Çətin": 6370,
      "▁yeyirlər": 6371,
      "▁çubuqla": 6372,
      "▁qiymətli": 6373,
      "Bizi": 6374,
      "▁həyətə": 6375,
      "ecinə": 6376,
      "Toma": 6377,
      "▁qucaqlamaq": 6378,
      "birdən": 6379,
      "▁oxuyub": 6380,
      "▁gözləyə": 6381,
      "▁kib": 6382,
      "▁Ted": 6383,
      "▁tısbağa": 6384,
      "▁gördükləri": 6385,
      "oqa": 6386,
      "misən": 6387,
      "aşir": 6388,
      "▁gözləmək": 6389,
      "layana": 6390,
      "▁üzg": 6391,
      "▁məndən": 6392,
      "▁kil": 6393,
      "▁təmizlədi": 6394,
      "səydi": 6395,
      "▁mütəşəkkil": 6396,
      "▁meydançasına": 6397,
      "lamırdı": 6398,
      "▁xərit": 6399,
      "anız": 6400,
      "▁lay": 6401,
      "▁çiyinlərini": 6402,
      "eytun": 6403,
      "elikop": 6404,
      "əkkəb": 6405,
      "güc": 6406,
      "▁meşə": 6407,
      "▁Miaya": 6408,
      "mürlər": 6409,
      "ipi": 6410,
      "edal": 6411,
      "▁mərkəz": 6412,
      "Ailəsi": 6413,
      "▁ulduzları": 6414,
      "oynay": 6415,
      "▁gedəcək": 6416,
      "asp": 6417,
      "▁çimərliyə": 6418,
      "▁çətindir": 6419,
      "Otaq": 6420,
      "▁meşədəki": 6421,
      "▁kəmər": 6422,
      "quyruğunu": 6423,
      "önə": 6424,
      "▁gəlmirdi": 6425,
      "▁üzə": 6426,
      "▁etməsi": 6427,
      "▁sığalladı": 6428,
      "Telef": 6429,
      "Şəkil": 6430,
      "üdü": 6431,
      "▁para": 6432,
      "▁bilərdin": 6433,
      "▁Elli": 6434,
      "Çu": 6435,
      "Alice": 6436,
      "▁atəşfəş": 6437,
      "velosip": 6438,
      "▁radi": 6439,
      "▁kresl": 6440,
      "▁istədiyinə": 6441,
      "▁qüdrətli": 6442,
      "▁çıxdığını": 6443,
      "mənimlə": 6444,
      "induşka": 6445,
      "Qorxdu": 6446,
      "▁rənglərlə": 6447,
      "Zərər": 6448,
      "▁brok": 6449,
      "▁qurut": 6450,
      "▁arxaya": 6451,
      "Sakit": 6452,
      "tut": 6453,
      "▁qida": 6454,
      "▁ovuşdurdu": 6455,
      "▁uşağın": 6456,
      "dərhal": 6457,
      "yerə": 6458,
      "▁tapşır": 6459,
      "▁gördüyünü": 6460,
      "▁şe": 6461,
      "▁ağzını": 6462,
      "Gələndə": 6463,
      "▁ağladılar": 6464,
      "▁fər": 6465,
      "▁girə": 6466,
      "oruşdu": 6467,
      "▁buğ": 6468,
      "▁zirv": 6469,
      "Fin": 6470,
      "ürsən": 6471,
      "▁günə": 6472,
      "▁qarışdırmağa": 6473,
      "yaşında": 6474,
      "▁uyğunlaş": 6475,
      "▁qabını": 6476,
      "ığılcım": 6477,
      "▁çətir": 6478,
      "▁kilidini": 6479,
      "▁Lilyi": 6480,
      "▁pət": 6481,
      "▁kisəsini": 6482,
      "▁fırtına": 6483,
      "▁tunel": 6484,
      "▁Fred": 6485,
      "karandaş": 6486,
      "gö": 6487,
      "ladığını": 6488,
      "dinc": 6489,
      "gen": 6490,
      "▁belədir": 6491,
      "Adın": 6492,
      "▁çəl": 6493,
      "▁yaxınlaşanda": 6494,
      "▁hasara": 6495,
      "vanı": 6496,
      "▁qalmağa": 6497,
      "▁işıqlandı": 6498,
      "▁üzlərini": 6499,
      "Bur": 6500,
      "▁şalvar": 6501,
      "▁yen": 6502,
      "▁ticarət": 6503,
      "caqanad": 6504,
      "▁görmüşdü": 6505,
      "▁uçaraq": 6506,
      "▁vecinə": 6507,
      "okkey": 6508,
      "▁skrip": 6509,
      "▁ayısı": 6510,
      "ch": 6511,
      "▁getməzdən": 6512,
      "ardılar": 6513,
      "qaya": 6514,
      "əylən": 6515,
      "landığını": 6516,
      "▁insanlarla": 6517,
      "məx": 6518,
      "kəni": 6519,
      "▁çıxan": 6520,
      "▁yeyərkən": 6521,
      "▁məcburiyyətində": 6522,
      "▁təsirləndi": 6523,
      "Çubu": 6524,
      "▁balina": 6525,
      "▁otağının": 6526,
      "▁vafli": 6527,
      "▁topları": 6528,
      "ena": 6529,
      "ifə": 6530,
      "▁bayram": 6531,
      "▁günorta": 6532,
      "▁təkbaşına": 6533,
      "skür": 6534,
      "əlbəttə": 6535,
      "Analarının": 6536,
      "▁keçi": 6537,
      "köhnə": 6538,
      "▁avtomobilləri": 6539,
      "xanik": 6540,
      "çətin": 6541,
      "əril": 6542,
      "▁yazmağı": 6543,
      "▁sonu": 6544,
      "▁şarı": 6545,
      "▁sürüşüb": 6546,
      "▁istəyirdim": 6547,
      "▁qazandığı": 6548,
      "▁atılıb": 6549,
      "▁yediz": 6550,
      "œMən": 6551,
      "Əylən": 6552,
      "▁itdən": 6553,
      "ggy": 6554,
      "▁baxdığını": 6555,
      "▁gözləməli": 6556,
      "▁şeylərin": 6557,
      "əllərini": 6558,
      "▁itdir": 6559,
      "maqda": 6560,
      "hil": 6561,
      "▁veril": 6562,
      "▁vız": 6563,
      "▁Tweety": 6564,
      "▁təbəssümü": 6565,
      "mırsan": 6566,
      "▁zənc": 6567,
      "▁bitk": 6568,
      "pü": 6569,
      "▁toplamaq": 6570,
      "ərisində": 6571,
      "▁yaratmağa": 6572,
      "tum": 6573,
      "düyünə": 6574,
      "ank": 6575,
      "▁tibb": 6576,
      "▁qayıtmadı": 6577,
      "rəsm": 6578,
      "▁göstərirdi": 6579,
      "üzak": 6580,
      "▁Tomdan": 6581,
      "sizin": 6582,
      "çanı": 6583,
      "▁keçdiyini": 6584,
      "Döyüş": 6585,
      "əsl": 6586,
      "▁Jo": 6587,
      "▁mürəbbə": 6588,
      "▁yuvasına": 6589,
      "isən": 6590,
      "▁bazara": 6591,
      "▁görmür": 6592,
      "▁bibər": 6593,
      "▁kəskin": 6594,
      "iyərkən": 6595,
      "▁hadi": 6596,
      "liyin": 6597,
      "▁G": 6598,
      "▁En": 6599,
      "▁qalmışdı": 6600,
      "▁şeylərdən": 6601,
      "▁sevg": 6602,
      "larınız": 6603,
      "Lola": 6604,
      "▁fərya": 6605,
      "▁iynə": 6606,
      "Yuxarı": 6607,
      "▁işləyirdi": 6608,
      "▁qalxa": 6609,
      "bağış": 6610,
      "yol": 6611,
      "əzizlərim": 6612,
      "▁səy": 6613,
      "rat": 6614,
      "ətində": 6615,
      "▁toru": 6616,
      "▁yıxılıb": 6617,
      "gie": 6618,
      "▁baqaj": 6619,
      "▁Cekə": 6620,
      "▁fəvv": 6621,
      "varı": 6622,
      "▁əti": 6623,
      "▁art": 6624,
      "▁sürüşməyi": 6625,
      "▁Bet": 6626,
      "▁yorulmuşdu": 6627,
      "▁bağın": 6628,
      "▁kələm": 6629,
      "maraqlı": 6630,
      "▁bağçasında": 6631,
      "kədərli": 6632,
      "▁Smit": 6633,
      "sanki": 6634,
      "▁O": 6635,
      "▁gözlərinə": 6636,
      "Nemo": 6637,
      "Rob": 6638,
      "▁vermə": 6639,
      "▁yerlərə": 6640,
      "orba": 6641,
      "▁limon": 6642,
      "▁üstündəki": 6643,
      "▁qarşısını": 6644,
      "liy": 6645,
      "▁bıçaq": 6646,
      "öküz": 6647,
      "heyrətamiz": 6648,
      "▁baxmayaraq": 6649,
      "▁ağlayırdı": 6650,
      "▁qıdıq": 6651,
      "▁istəmirik": 6652,
      "▁tual": 6653,
      "sıç": 6654,
      "▁incidi": 6655,
      "▁oturmuşdu": 6656,
      "▁yorulub": 6657,
      "▁qalacaq": 6658,
      "▁qocaya": 6659,
      "ster": 6660,
      "▁budağa": 6661,
      "▁salat": 6662,
      "olaq": 6663,
      "alçaq": 6664,
      "boy": 6665,
      "▁olacaqsan": 6666,
      "▁çi": 6667,
      "Getdi": 6668,
      "Düşünürəm": 6669,
      "apit": 6670,
      "▁qoymağı": 6671,
      "Kr": 6672,
      "esti": 6673,
      "▁üzdüyünü": 6674,
      "▁Kim": 6675,
      "▁macərasını": 6676,
      "▁endi": 6677,
      "ərt": 6678,
      "▁dəft": 6679,
      "▁sinif": 6680,
      "▁çiçəyin": 6681,
      "▁dayandılar": 6682,
      "▁yaşadı": 6683,
      "▁şoka": 6684,
      "▁demədi": 6685,
      "▁arzus": 6686,
      "maşını": 6687,
      "mişək": 6688,
      "▁sınadı": 6689,
      "ilmiş": 6690,
      "▁bazar": 6691,
      "üzakirə": 6692,
      "Tortu": 6693,
      "▁səbəti": 6694,
      "▁gecik": 6695,
      "▁qocanın": 6696,
      "Dal": 6697,
      "Əllərini": 6698,
      "ləşdirməyə": 6699,
      "▁kibrit": 6700,
      "▁qalmağı": 6701,
      "▁lampa": 6702,
      "▁heykəl": 6703,
      "dəni": 6704,
      "▁kağıza": 6705,
      "irat": 6706,
      "dığın": 6707,
      "Qüllə": 6708,
      "▁qapıdan": 6709,
      "Qəhvəyi": 6710,
      "▁kimsən": 6711,
      "▁krist": 6712,
      "▁saydı": 6713,
      "▁sevmirlər": 6714,
      "Yanğın": 6715,
      "Lim": 6716,
      "▁yulaf": 6717,
      "▁tərif": 6718,
      "▁özləri": 6719,
      "luğu": 6720,
      "▁parıltı": 6721,
      "alıd": 6722,
      "▁həmişəlik": 6723,
      "Dün": 6724,
      "▁pinqvin": 6725,
      "çıx": 6726,
      "▁çantasına": 6727,
      "▁fermaya": 6728,
      "▁süründü": 6729,
      "▁Sammy": 6730,
      "▁Spotun": 6731,
      "atasından": 6732,
      "▁atmaq": 6733,
      "▁kitabını": 6734,
      "dondur": 6735,
      "▁bişirdi": 6736,
      "▁qurtar": 6737,
      "▁incidə": 6738,
      "ketbol": 6739,
      "fındıq": 6740,
      "Mətbəxdə": 6741,
      "▁topladı": 6742,
      "▁dəyişdi": 6743,
      "▁başlamaq": 6744,
      "▁işin": 6745,
      "▁çatdır": 6746,
      "▁çax": 6747,
      "▁atmağa": 6748,
      "▁örtül": 6749,
      "▁Pit": 6750,
      "▁yağışda": 6751,
      "▁karandaşları": 6752,
      "rahat": 6753,
      "▁otda": 6754,
      "Kədərli": 6755,
      "▁barmağ": 6756,
      "ləyərək": 6757,
      "▁söylə": 6758,
      "▁əkizdirlər": 6759,
      "▁inanmadı": 6760,
      "ayak": 6761,
      "milə": 6762,
      "İl": 6763,
      "▁sürüşkən": 6764,
      "▁sındırmaq": 6765,
      "▁həmçinin": 6766,
      "Güldü": 6767,
      "Təyyarə": 6768,
      "▁ağırdır": 6769,
      "Joey": 6770,
      "yaj": 6771,
      "idmət": 6772,
      "▁mağazadan": 6773,
      "ədiyi": 6774,
      "böcək": 6775,
      "▁axtarırlar": 6776,
      "▁tövlə": 6777,
      "▁səhn": 6778,
      "▁salmağa": 6779,
      "Göl": 6780,
      "▁işlədi": 6781,
      "▁real": 6782,
      "▁yalayır": 6783,
      "əriyə": 6784,
      "▁baxarkən": 6785,
      "▁qoşula": 6786,
      "▁mərhə": 6787,
      "▁motosikl": 6788,
      "muz": 6789,
      "▁rəqqas": 6790,
      "▁oraya": 6791,
      "ışı": 6792,
      "kol": 6793,
      "lanırdı": 6794,
      "▁mağazada": 6795,
      "▁kədərlənir": 6796,
      "▁sığallamaq": 6797,
      "▁hazırladılar": 6798,
      "▁rəfə": 6799,
      "▁dənizə": 6800,
      "▁dair": 6801,
      "pənin": 6802,
      "▁gəldiniz": 6803,
      "▁müzakirə": 6804,
      "▁müqavimət": 6805,
      "▁bayırda": 6806,
      "▁yıxılır": 6807,
      "qanad": 6808,
      "kiyaj": 6809,
      "▁xəstələn": 6810,
      "▁döndü": 6811,
      "leyta": 6812,
      "Siç": 6813,
      "▁yıxdı": 6814,
      "▁əsn": 6815,
      "tel": 6816,
      "▁xoşum": 6817,
      "▁əylənir": 6818,
      "▁yapışdı": 6819,
      "▁altından": 6820,
      "böy": 6821,
      "ağacın": 6822,
      "Çanta": 6823,
      "▁sözlərini": 6824,
      "▁şəf": 6825,
      "məsə": 6826,
      "▁bilet": 6827,
      "▁kakao": 6828,
      "▁dərsi": 6829,
      "▁eşitmək": 6830,
      "Qala": 6831,
      "▁tam": 6832,
      "▁bağlayıb": 6833,
      "laydın": 6834,
      "▁danışırdı": 6835,
      "▁olduğunuz": 6836,
      "▁köməkçi": 6837,
      "obu": 6838,
      "▁etməzdən": 6839,
      "▁inqrediyentləri": 6840,
      "▁qələmi": 6841,
      "▁qurmaq": 6842,
      "larımızı": 6843,
      "▁planet": 6844,
      "▁dişlərini": 6845,
      "şənbə": 6846,
      "Günəşdə": 6847,
      "qəhvəyi": 6848,
      "inət": 6849,
      "▁düşüncəli": 6850,
      "▁keçmək": 6851,
      "Qardaşı": 6852,
      "dələ": 6853,
      "larınızı": 6854,
      "▁qışqırıb": 6855,
      "▁ertəsi": 6856,
      "▁düyü": 6857,
      "Özünə": 6858,
      "oppy": 6859,
      "▁məktubu": 6860,
      "▁tay": 6861,
      "▁qalada": 6862,
      "▁çalışaraq": 6863,
      "▁yarışa": 6864,
      "▁soyuqdur": 6865,
      "aralı": 6866,
      "▁itirmək": 6867,
      "içi": 6868,
      "▁olursa": 6869,
      "Bobbi": 6870,
      "▁kənd": 6871,
      "▁çiçəklərin": 6872,
      "▁içindəki": 6873,
      "▁hədiyyəsi": 6874,
      "▁oynayacaq": 6875,
      "onus": 6876,
      "▁cəsarətlə": 6877,
      "▁avokad": 6878,
      "▁düzəldib": 6879,
      "▁qışqırırlar": 6880,
      "▁gətirmək": 6881,
      "▁düşürsən": 6882,
      "▁əhəng": 6883,
      "▁almanı": 6884,
      "▁pıçılda": 6885,
      "▁istəməyə": 6886,
      "▁söyləmək": 6887,
      "▁təlxək": 6888,
      "illie": 6889,
      "▁əyləndiyini": 6890,
      "ləzzətli": 6891,
      "▁yaşayır": 6892,
      "▁qaraj": 6893,
      "▁yaxınlaşmaq": 6894,
      "deyən": 6895,
      "▁küncündə": 6896,
      "▁ancaq": 6897,
      "▁qaşın": 6898,
      "qulaq": 6899,
      "▁danışdığını": 6900,
      "Rəqs": 6901,
      "orator": 6902,
      "▁çökdü": 6903,
      "meymun": 6904,
      "▁simv": 6905,
      "sün": 6906,
      "▁Spotu": 6907,
      "Masanın": 6908,
      "▁sərf": 6909,
      "▁incidir": 6910,
      "ucu": 6911,
      "sabah": 6912,
      "▁istəmədilər": 6913,
      "▁yüksəkdir": 6914,
      "▁dimdiyi": 6915,
      "▁riyaziyyat": 6916,
      "Əlində": 6917,
      "▁yellədilər": 6918,
      "Bəziləri": 6919,
      "Ducky": 6920,
      "Tap": 6921,
      "mu": 6922,
      "▁qaşı": 6923,
      "▁yarışı": 6924,
      "▁alaraq": 6925,
      "▁dilim": 6926,
      "laşmağa": 6927,
      "▁qalalar": 6928,
      "danış": 6929,
      "Necə": 6930,
      "Göyərçin": 6931,
      "▁üzdülər": 6932,
      "▁atanı": 6933,
      "Özlərini": 6934,
      "ədalətli": 6935,
      "▁ləçək": 6936,
      "Əmin": 6937,
      "▁çiçəklərə": 6938,
      "▁armud": 6939,
      "gedib": 6940,
      "▁siçanı": 6941,
      "▁gümüş": 6942,
      "nəhəng": 6943,
      "▁çörəyi": 6944,
      "▁mindilər": 6945,
      "Mağazada": 6946,
      "▁sous": 6947,
      "▁dayandırdılar": 6948,
      "▁bun": 6949,
      "▁lobya": 6950,
      "rəf": 6951,
      "ığına": 6952,
      "▁mehribandır": 6953,
      "Şam": 6954,
      "hamısı": 6955,
      "▁çarpayının": 6956,
      "▁kiçil": 6957,
      "▁Timin": 6958,
      "▁təşv": 6959,
      "▁qucağına": 6960,
      "gülməli": 6961,
      "avtobus": 6962,
      "▁yazmaq": 6963,
      "iyaya": 6964,
      "▁qaldırmağa": 6965,
      "yuxu": 6966,
      "▁pan": 6967,
      "▁W": 6968,
      "▁meşədən": 6969,
      "boş": 6970,
      "dəy": 6971,
      "palt": 6972,
      "▁mümkün": 6973,
      "▁verəcək": 6974,
      "▁xəmiri": 6975,
      "▁mahnılar": 6976,
      "▁topun": 6977,
      "▁asıb": 6978,
      "quşa": 6979,
      "▁qayıdır": 6980,
      "▁gavalı": 6981,
      "▁çiyn": 6982,
      "▁etməklə": 6983,
      "▁yığış": 6984,
      "Hovuz": 6985,
      "▁ağacına": 6986,
      "▁çırpıldı": 6987,
      "▁çantası": 6988,
      "▁vermir": 6989,
      "▁oxuyurlar": 6990,
      "qayı": 6991,
      "▁mark": 6992,
      "▁uğultu": 6993,
      "▁zəngi": 6994,
      "▁verməsini": 6995,
      "▁planlaşdır": 6996,
      "▁geyinə": 6997,
      "▁skuter": 6998,
      "▁xatırlaya": 6999,
      "oxu": 7000,
      "dadır": 7001,
      "Qonşu": 7002,
      "▁fiqur": 7003,
      "▁xatırlayır": 7004,
      "▁muz": 7005,
      "▁dedim": 7006,
      "madığı": 7007,
      "▁hamının": 7008,
      "▁lü": 7009,
      "dünyanı": 7010,
      "▁tutuquşu": 7011,
      "keş": 7012,
      "qat": 7013,
      "ms": 7014,
      "paz": 7015,
      "▁düşmək": 7016,
      "pul": 7017,
      "irkli": 7018,
      "▁əyləş": 7019,
      "▁atırdı": 7020,
      "pağa": 7021,
      "▁yazı": 7022,
      "▁düymələri": 7023,
      "duğunu": 7024,
      "▁bildiyini": 7025,
      "siç": 7026,
      "ekme": 7027,
      "▁etdiyin": 7028,
      "▁bənzəyirdi": 7029,
      "▁çiçəyə": 7030,
      "▁çantanı": 7031,
      "▁kərpic": 7032,
      "▁tapdıq": 7033,
      "Şkaf": 7034,
      "kəpənək": 7035,
      "cili": 7036,
      "▁mikrof": 7037,
      "Anaya": 7038,
      "▁sörf": 7039,
      "Semi": 7040,
      "▁qolf": 7041,
      "▁təcili": 7042,
      "▁ziyafət": 7043,
      "Tobi": 7044,
      "fizəçi": 7045,
      "▁yolun": 7046,
      "▁yarıya": 7047,
      "▁rəngdədir": 7048,
      "Diqqətlə": 7049,
      "▁istəmirdim": 7050,
      "▁kaktu": 7051,
      "übə": 7052,
      "▁düşünüb": 7053,
      "▁çirklidir": 7054,
      "ğının": 7055,
      "▁yığmaq": 7056,
      "▁əhat": 7057,
      "Paul": 7058,
      "▁gizlət": 7059,
      "▁dinləməyi": 7060,
      "Otağına": 7061,
      "haz": 7062,
      "▁tərəfdə": 7063,
      "▁göldə": 7064,
      "▁qiymətləndir": 7065,
      "tapa": 7066,
      "▁görmüsən": 7067,
      "▁yemə": 7068,
      "▁tama": 7069,
      "siyə": 7070,
      "byek": 7071,
      "▁yoxladı": 7072,
      "▁hürür": 7073,
      "əvvəlcə": 7074,
      "▁sa": 7075,
      "güldülər": 7076,
      "▁kompüter": 7077,
      "▁rezin": 7078,
      "▁qurmağa": 7079,
      "▁izlə": 7080,
      "▁skamyaya": 7081,
      "▁etmədilər": 7082,
      "Qardaş": 7083,
      "qardaş": 7084,
      "yellən": 7085,
      "▁küçə": 7086,
      "▁küncdə": 7087,
      "▁ataya": 7088,
      "▁xokkey": 7089,
      "▁makaron": 7090,
      "▁basdır": 7091,
      "▁göbələk": 7092,
      "▁uzaqlaşdılar": 7093,
      "▁bəs": 7094,
      "▁xoşuma": 7095,
      "▁olaq": 7096,
      "▁çalışdığını": 7097,
      "▁beys": 7098,
      "▁maqnit": 7099,
      "arey": 7100,
      "▁vul": 7101,
      "papaq": 7102,
      "elikopter": 7103,
      "▁çıxarırlar": 7104,
      "▁stan": 7105,
      "▁miyav": 7106,
      "misiniz": 7107,
      "şığı": 7108,
      "▁təd": 7109,
      "hopp": 7110,
      "ğanı": 7111,
      "▁Timmini": 7112,
      "▁büdrədi": 7113,
      "▁təkəri": 7114,
      "balam": 7115,
      "vadrat": 7116,
      "▁keçirirdi": 7117,
      "▁döşə": 7118,
      "▁salmaq": 7119,
      "▁çarpayısının": 7120,
      "▁qopdu": 7121,
      "təsadüfən": 7122,
      "▁qatıq": 7123,
      "▁oynadıqdan": 7124,
      "▁qutudan": 7125,
      "anıb": 7126,
      "yaxşısan": 7127,
      "Peşman": 7128,
      "▁boylu": 7129,
      "dıqda": 7130,
      "gilə": 7131,
      "gəri": 7132,
      "əllə": 7133,
      "mik": 7134,
      "▁xidmət": 7135,
      "▁desert": 7136,
      "▁təbaşir": 7137,
      "▁peçenyeləri": 7138,
      "Maşına": 7139,
      "▁sonda": 7140,
      "▁tikməyi": 7141,
      "▁qurtum": 7142,
      "▁saymağa": 7143,
      "▁əziyyət": 7144,
      "Maraq": 7145,
      "fil": 7146,
      "çiçəklər": 7147,
      "▁gəlirlər": 7148,
      "▁fasilə": 7149,
      "▁hoppanmağı": 7150,
      "▁bilsinlər": 7151,
      "skam": 7152,
      "▁təşviq": 7153,
      "▁nəyi": 7154,
      "▁silahı": 7155,
      "▁qaşqab": 7156,
      "▁qorxutmaq": 7157,
      "landırmaq": 7158,
      "▁bulayır": 7159,
      "▁doldurulmuş": 7160,
      "▁gündür": 7161,
      "▁itləri": 7162,
      "▁şəkl": 7163,
      "▁cəsarətlisən": 7164,
      "amış": 7165,
      "▁minə": 7166,
      "▁gətirdilər": 7167,
      "kuklaları": 7168,
      "üzərində": 7169,
      "▁yapışdır": 7170,
      "əhvə": 7171,
      "▁gülümsəyirlər": 7172,
      "Padşah": 7173,
      "▁makiyaj": 7174,
      "bizi": 7175,
      "Henri": 7176,
      "▁olacaqlar": 7177,
      "▁pen": 7178,
      "Qal": 7179,
      "▁maşınlar": 7180,
      "▁zolaq": 7181,
      "▁kərəviz": 7182,
      "▁valideynlərinin": 7183,
      "▁nəfəsini": 7184,
      "larım": 7185,
      "larınla": 7186,
      "sanın": 7187,
      "▁hoppanaraq": 7188,
      "▁bloklar": 7189,
      "▁tapmalı": 7190,
      "▁xeyir": 7191,
      "acağı": 7192,
      "bənövşəyi": 7193,
      "▁atalarının": 7194,
      "cəld": 7195,
      "▁məmnuniyyətlə": 7196,
      "gid": 7197,
      "▁kolbasa": 7198,
      "▁gəzdilər": 7199,
      "oskop": 7200,
      "▁səfər": 7201,
      "arışıqlıq": 7202,
      "məlidirlər": 7203,
      "anlara": 7204,
      "qoca": 7205,
      "▁xoşlayan": 7206,
      "▁day": 7207,
      "eyin": 7208,
      "▁rəngə": 7209,
      "▁səbətə": 7210,
      "▁şəhəri": 7211,
      "iyada": 7212,
      "▁qalxmaq": 7213,
      "▁paylaşmağın": 7214,
      "dirə": 7215,
      "▁araşdırdı": 7216,
      "▁batarey": 7217,
      "Bill": 7218,
      "Gənc": 7219,
      "▁çıxırdı": 7220,
      "▁halqa": 7221,
      "Çiç": 7222,
      "Şap": 7223,
      "▁tapdığını": 7224,
      "▁pəncərəyə": 7225,
      "▁özümüz": 7226,
      "▁deyildim": 7227,
      "▁trub": 7228,
      "htəş": 7229,
      "yuvarlaq": 7230,
      "▁göydən": 7231,
      "Saat": 7232,
      "diş": 7233,
      "▁ailəsini": 7234,
      "ülük": 7235,
      "▁sayəsində": 7236,
      "htəşəm": 7237,
      "▁siçovul": 7238,
      "İlan": 7239,
      "elet": 7240,
      "▁varmı": 7241,
      "py": 7242,
      "▁mat": 7243,
      "▁tuturlar": 7244,
      "Pat": 7245,
      "▁qədərki": 7246,
      "▁şəxs": 7247,
      "▁vura": 7248,
      "Fırtına": 7249,
      "▁niz": 7250,
      "dostlarına": 7251,
      "mükəmməl": 7252,
      "▁dırmaşmağı": 7253,
      "▁düyün": 7254,
      "ətrafda": 7255,
      "aşxaş": 7256,
      "▁çaldılar": 7257,
      "Çuxur": 7258,
      "▁söykən": 7259,
      "▁əm": 7260,
      "▁jilet": 7261,
      "▁ferma": 7262,
      "▁saxlamağı": 7263,
      "▁öyrənmişdi": 7264,
      "▁dükan": 7265,
      "dınız": 7266,
      "Təhlükəsiz": 7267,
      "birinizə": 7268,
      "cıq": 7269,
      "▁qərara": 7270,
      "▁çalırdı": 7271,
      "▁hazırladığı": 7272,
      "▁Jake": 7273,
      "▁yeməyinə": 7274,
      "▁qalxır": 7275,
      "▁los": 7276,
      "Ham": 7277,
      "▁pəncələri": 7278,
      "göyə": 7279,
      "▁xoşbəxtəm": 7280,
      "▁nahara": 7281,
      "▁pilot": 7282,
      "▁araya": 7283,
      "mazdı": 7284,
      "Yeməyi": 7285,
      "Ada": 7286,
      "lanıb": 7287,
      "▁tükləri": 7288,
      "▁fərqinə": 7289,
      "▁uydur": 7290,
      "▁pərdə": 7291,
      "▁keçirməyi": 7292,
      "▁rel": 7293,
      "Velosipedi": 7294,
      "Suzi": 7295,
      "▁fəryadını": 7296,
      "▁kömür": 7297,
      "▁sürə": 7298,
      "▁bağlamaq": 7299,
      "▁dünyada": 7300,
      "▁yığdılar": 7301,
      "▁atalarını": 7302,
      "▁bloku": 7303,
      "▁əvvəlki": 7304,
      "növbəti": 7305,
      "reddi": 7306,
      "Sehrli": 7307,
      "qaranlıq": 7308,
      "Sofi": 7309,
      "Diş": 7310,
      "▁nənənin": 7311,
      "▁qüllələr": 7312,
      "▁oğlu": 7313,
      "ayağa": 7314,
      "pəncər": 7315,
      "▁toplayıb": 7316,
      "alma": 7317,
      "Et": 7318,
      "biyə": 7319,
      "Hamısını": 7320,
      "▁macəraları": 7321,
      "▁biləndə": 7322,
      "andy": 7323,
      "sahib": 7324,
      "İşini": 7325,
      "ındır": 7326,
      "▁maşından": 7327,
      "Gəzərkən": 7328,
      "Cəsur": 7329,
      "▁qurudu": 7330,
      "▁obyek": 7331,
      "▁iyli": 7332,
      "əlini": 7333,
      "Xəst": 7334,
      "▁maşınım": 7335,
      "dənin": 7336,
      "Tək": 7337,
      "▁ağzı": 7338,
      "derob": 7339,
      "▁pedal": 7340,
      "▁dayandıra": 7341,
      "▁Lüsinin": 7342,
      "▁utanırdı": 7343,
      "▁şəhərə": 7344,
      "vəni": 7345,
      "▁xəzinəni": 7346,
      "Dalğa": 7347,
      "▁baxan": 7348,
      "hel": 7349,
      "obusa": 7350,
      "▁ananı": 7351,
      "Timminin": 7352,
      "zanı": 7353,
      "ix": 7354,
      "▁üs": 7355,
      "▁əkin": 7356,
      "▁paket": 7357,
      "▁vəd": 7358,
      "▁mələk": 7359,
      "▁xalat": 7360,
      "Qəribə": 7361,
      "▁kran": 7362,
      "▁parçalara": 7363,
      "▁bölüşməyi": 7364,
      "təyy": 7365,
      "▁gördüyünə": 7366,
      "▁sonuna": 7367,
      "▁şahmat": 7368,
      "dərsini": 7369,
      "mayacağını": 7370,
      "▁qısqanc": 7371,
      "Bər": 7372,
      "Ayaqqabılarını": 7373,
      "▁gizlicə": 7374,
      "▁laz": 7375,
      "▁sahibinə": 7376,
      "Bizimlə": 7377,
      "▁Saranı": 7378,
      "düş": 7379,
      "▁bilərmi": 7380,
      "▁hovuza": 7381,
      "pağın": 7382,
      "▁yem": 7383,
      "▁qarmaq": 7384,
      "cu": 7385,
      "▁teat": 7386,
      "▁etdirmək": 7387,
      "Bulud": 7388,
      "▁öpür": 7389,
      "diyindən": 7390,
      "▁əllərindən": 7391,
      "▁izləyirdi": 7392,
      "sk": 7393,
      "▁öküz": 7394,
      "▁fermuar": 7395,
      "▁dişləməyə": 7396,
      "▁mal": 7397,
      "Hərəkət": 7398,
      "idyə": 7399,
      "▁kisəsi": 7400,
      "▁səsli": 7401,
      "luğa": 7402,
      "▁Bra": 7403,
      "▁parkdakı": 7404,
      "▁kolların": 7405,
      "▁avar": 7406,
      "▁iq": 7407,
      "▁labir": 7408,
      "▁gətirir": 7409,
      "▁isin": 7410,
      "▁izləyir": 7411,
      "▁getdiklərini": 7412,
      "▁yoru": 7413,
      "caz": 7414,
      "cəyindən": 7415,
      "▁Em": 7416,
      "▁nərdivanla": 7417,
      "▁gəzdirdi": 7418,
      "▁Ayı": 7419,
      "▁qalstuk": 7420,
      "▁cahil": 7421,
      "avtomobil": 7422,
      "▁hazırlanmış": 7423,
      "▁xatırlayacaq": 7424,
      "▁oradan": 7425,
      "▁meyvələri": 7426,
      "Heyvanları": 7427,
      "▁unutmayacaq": 7428,
      "Danış": 7429,
      "▁filmə": 7430,
      "▁yazmağa": 7431,
      "▁etsin": 7432,
      "▁salır": 7433,
      "▁sır": 7434,
      "▁nadinc": 7435,
      "Səb": 7436,
      "Oyan": 7437,
      "▁darıxırdı": 7438,
      "▁gözləyirlər": 7439,
      "▁hörümç": 7440,
      "▁etmir": 7441,
      "Anamı": 7442,
      "▁qabığı": 7443,
      "məyinizə": 7444,
      "▁fırlanırdı": 7445,
      "ğanın": 7446,
      "▁sima": 7447,
      "▁davrandı": 7448,
      "enz": 7449,
      "prey": 7450,
      "iktor": 7451,
      "▁atırlar": 7452,
      "▁boynuna": 7453,
      "▁yanğını": 7454,
      "▁ikisinin": 7455,
      "aları": 7456,
      "▁qalxdılar": 7457,
      "necə": 7458,
      "▁qoymadı": 7459,
      "▁bəyəndiyi": 7460,
      "▁almaz": 7461,
      "▁qarn": 7462,
      "▁oyuncaqla": 7463,
      "dəkç": 7464,
      "▁qaytarmaq": 7465,
      "▁itirdim": 7466,
      "▁oturmaq": 7467,
      "▁kəşfiyyata": 7468,
      "▁qaraldı": 7469,
      "Ch": 7470,
      "diyim": 7471,
      "▁Fin": 7472,
      "alçıq": 7473,
      "▁çağırıb": 7474,
      "▁dadını": 7475,
      "▁çalır": 7476,
      "▁gedirik": 7477,
      "▁oyununu": 7478,
      "oqq": 7479,
      "▁götürək": 7480,
      "▁kartı": 7481,
      "araş": 7482,
      "uffin": 7483,
      "▁zərbə": 7484,
      "ıv": 7485,
      "▁sürüşərək": 7486,
      "▁məktəbdə": 7487,
      "canavar": 7488,
      "Mmm": 7489,
      "Sandy": 7490,
      "mamalı": 7491,
      "▁ağrıdı": 7492,
      "▁edəcəyi": 7493,
      "▁Mayk": 7494,
      "▁başqalarının": 7495,
      "ınızı": 7496,
      "▁panda": 7497,
      "▁aldığını": 7498,
      "▁mübarək": 7499,
      "▁yoruldu": 7500,
      "Suda": 7501,
      "qum": 7502,
      "səl": 7503,
      "▁maraqlıdır": 7504,
      "▁asanlıqla": 7505,
      "▁başla": 7506,
      "çiçəkləri": 7507,
      "rak": 7508,
      "▁düşünməyə": 7509,
      "nam": 7510,
      "▁fırlanır": 7511,
      "ılaraq": 7512,
      "▁fırladı": 7513,
      "məş": 7514,
      "▁meh": 7515,
      "▁etməyəcək": 7516,
      "▁ehtiyacım": 7517,
      "▁hadisə": 7518,
      "▁düşürəm": 7519,
      "▁yaratmağı": 7520,
      "▁kədərlənsə": 7521,
      "▁miner": 7522,
      "▁qığılcım": 7523,
      "əfəs": 7524,
      "diqqətli": 7525,
      "▁oynadığı": 7526,
      "▁çayda": 7527,
      "▁dayandırır": 7528,
      "▁bağlamağa": 7529,
      "▁təəccüblə": 7530,
      "▁heyrətamizdir": 7531,
      "Kitti": 7532,
      "▁doludur": 7533,
      "Qarşı": 7534,
      "sab": 7535,
      "▁seçə": 7536,
      "▁atmağı": 7537,
      "▁mürəkkəb": 7538,
      "Müb": 7539,
      "vah": 7540,
      "▁rəqabətli": 7541,
      "amçı": 7542,
      "▁çayı": 7543,
      "üçülük": 7544,
      "▁plastik": 7545,
      "▁bilmədiyini": 7546,
      "Corc": 7547,
      "abrik": 7548,
      "▁bizimlə": 7549,
      "▁fikrini": 7550,
      "▁görürəm": 7551,
      "▁saymağı": 7552,
      "▁çərçi": 7553,
      "▁şou": 7554,
      "mamağa": 7555,
      "▁təəssüfləndi": 7556,
      "əbiləş": 7557,
      "▁uzaqlaşmağa": 7558,
      "əyinin": 7559,
      "▁dünyaya": 7560,
      "▁zinət": 7561,
      "▁cip": 7562,
      "alar": 7563,
      "bilirdi": 7564,
      "Dayanıb": 7565,
      "yap": 7566,
      "tər": 7567,
      "▁Ella": 7568,
      "▁balt": 7569,
      "▁burun": 7570,
      "məyən": 7571,
      "▁dənizçi": 7572,
      "▁ovçu": 7573,
      "▁yuyub": 7574,
      "▁fikrim": 7575,
      "▁dırm": 7576,
      "bulud": 7577,
      "qala": 7578,
      "▁oyunçu": 7579,
      "vanda": 7580,
      "təəccüb": 7581,
      "otların": 7582,
      "övbə": 7583,
      "▁gecəni": 7584,
      "▁mərhəmətli": 7585,
      "▁göstərməkdən": 7586,
      "Zirvəyə": 7587,
      "▁pasp": 7588,
      "▁kədərlənirsən": 7589,
      "▁ikisini": 7590,
      "ozi": 7591,
      "▁əşyalarla": 7592,
      "▁saldılar": 7593,
      "▁krem": 7594,
      "▁yumurt": 7595,
      "Spotun": 7596,
      "kuk": 7597,
      "▁yoqa": 7598,
      "Müdrik": 7599,
      "▁ailəsinin": 7600,
      "təzə": 7601,
      "▁olmalısınız": 7602,
      "▁basketbol": 7603,
      "▁ahtapot": 7604,
      "Günlərin": 7605,
      "Heyrət": 7606,
      "bundan": 7607,
      "▁dişləyə": 7608,
      "▁çıxardılar": 7609,
      "▁rom": 7610,
      "əyyül": 7611,
      "səninlə": 7612,
      "▁istəyirdik": 7613,
      "▁alınmadı": 7614,
      "▁ulduzlara": 7615,
      "xar": 7616,
      "▁bənzəyir": 7617,
      "▁kədərlənirdi": 7618,
      "▁sün": 7619,
      "▁tacı": 7620,
      "Ağz": 7621,
      "mamağı": 7622,
      "▁həmişək": 7623,
      "œSən": 7624,
      "▁itələdilər": 7625,
      "▁çala": 7626,
      "▁qazmağı": 7627,
      "▁ölçmək": 7628,
      "Sahibi": 7629,
      "▁evindən": 7630,
      "Qızın": 7631,
      "▁ekr": 7632,
      "▁sevindirmək": 7633,
      "versit": 7634,
      "▁rek": 7635,
      "▁damcı": 7636,
      "Cama": 7637,
      "▁Lola": 7638,
      "▁balıqlar": 7639,
      "göydə": 7640,
      "▁salmağı": 7641,
      "soyuq": 7642,
      "Donuz": 7643,
      "▁yatmazdan": 7644,
      "▁çuxurdan": 7645,
      "▁karton": 7646,
      "▁soyuducuya": 7647,
      "▁üfür": 7648,
      "Un": 7649,
      "Yaxınlaşdı": 7650,
      "Robot": 7651,
      "▁günəşə": 7652,
      "▁çimmək": 7653,
      "salar": 7654,
      "▁yaylıq": 7655,
      "▁havanı": 7656,
      "qayıq": 7657,
      "▁getmədi": 7658,
      "▁gülürdü": 7659,
      "götür": 7660,
      "Hündür": 7661,
      "▁qaçış": 7662,
      "▁tapdıqları": 7663,
      "Təəccüb": 7664,
      "Mah": 7665,
      "▁otları": 7666,
      "əhşi": 7667,
      "▁geyinməyə": 7668,
      "▁üçbucaq": 7669,
      "▁tapmacanı": 7670,
      "▁velosipedini": 7671,
      "▁yastığı": 7672,
      "▁alçaqsan": 7673,
      "▁kəsib": 7674,
      "dirməyi": 7675,
      "şahzadə": 7676,
      "▁böyüməyə": 7677,
      "▁geriyə": 7678,
      "mağazaya": 7679,
      "liyy": 7680,
      "Adamın": 7681,
      "Kab": 7682,
      "▁toxunmağa": 7683,
      "▁vurmaq": 7684,
      "Nahardan": 7685,
      "▁ətrafı": 7686,
      "▁sürərkən": 7687,
      "dovş": 7688,
      "ılmadı": 7689,
      "Tox": 7690,
      "yuya": 7691,
      "▁təcrübə": 7692,
      "əcəkdi": 7693,
      "▁begemot": 7694,
      "kinci": 7695,
      "▁Mianı": 7696,
      "ümid": 7697,
      "lıdır": 7698,
      "▁bilmərəm": 7699,
      "ddü": 7700,
      "ddüd": 7701,
      "nunda": 7702,
      "uşunu": 7703,
      "▁bəx": 7704,
      "▁görünsə": 7705,
      "▁qazmağa": 7706,
      "yıb": 7707,
      "▁xoşladığı": 7708,
      "▁böcəklər": 7709,
      "▁tamamilə": 7710,
      "saç": 7711,
      "▁yudu": 7712,
      "▁Liza": 7713,
      "yay": 7714,
      "▁bəxş": 7715,
      "akim": 7716,
      "▁yeməklərini": 7717,
      "▁heyranlıqla": 7718,
      "▁oturur": 7719,
      "▁Corc": 7720,
      "▁itirdiyini": 7721,
      "▁geyinirdi": 7722,
      "▁mismar": 7723,
      "▁miş": 7724,
      "cağın": 7725,
      "▁batım": 7726,
      "▁Nemo": 7727,
      "▁qalası": 7728,
      "Gecəniz": 7729,
      "▁konus": 7730,
      "▁bəzəmək": 7731,
      "▁olmasın": 7732,
      "laşanda": 7733,
      "Çubuğu": 7734,
      "▁hazırlayaq": 7735,
      "▁səhifə": 7736,
      "▁əylənc": 7737,
      "▁mebel": 7738,
      "▁tövsiyə": 7739,
      "məmişdi": 7740,
      "▁süz": 7741,
      "▁arzusunda": 7742,
      "Camaat": 7743,
      "▁yerin": 7744,
      "dığından": 7745,
      "▁mağaraya": 7746,
      "hav": 7747,
      "Analarını": 7748,
      "▁cüt": 7749,
      "tullanır": 7750,
      "liz": 7751,
      "▁komet": 7752,
      "▁üzürdü": 7753,
      "▁səbirsizlən": 7754,
      "▁iplə": 7755,
      "▁Bella": 7756,
      "▁küləkdə": 7757,
      "▁rəssam": 7758,
      "Salli": 7759,
      "▁qorxunc": 7760,
      "maşır": 7761,
      "▁kitablarını": 7762,
      "Gedib": 7763,
      "Evi": 7764,
      "▁Maksla": 7765,
      "Qaya": 7766,
      "ükür": 7767,
      "▁bacarıq": 7768,
      "Susie": 7769,
      "▁hüc": 7770,
      "▁maska": 7771,
      "▁dağın": 7772,
      "▁atalarına": 7773,
      "ermomet": 7774,
      "▁almasını": 7775,
      "▁quşdan": 7776,
      "▁yeməyindən": 7777,
      "▁qoşulmağa": 7778,
      "odel": 7779,
      "▁işinə": 7780,
      "▁oğl": 7781,
      "▁kərtənkələ": 7782,
      "saat": 7783,
      "▁maralı": 7784,
      "Eybi": 7785,
      "▁sviter": 7786,
      "▁əyləniblər": 7787,
      "▁işləmək": 7788,
      "Bacardığı": 7789,
      "kiş": 7790,
      "▁şkafı": 7791,
      "▁nöq": 7792,
      "▁parçanı": 7793,
      "▁ətir": 7794,
      "Qapıya": 7795,
      "Deyv": 7796,
      "▁qırıq": 7797,
      "Biri": 7798,
      "Soyuduc": 7799,
      "uyun": 7800,
      "▁Bobo": 7801,
      "sağol": 7802,
      "aketi": 7803,
      "Lilyi": 7804,
      "▁qaldıra": 7805,
      "məxsus": 7806,
      "qaçıb": 7807,
      "▁sığınacaq": 7808,
      "▁qarnı": 7809,
      "▁qurmağı": 7810,
      "Birinci": 7811,
      "▁cana": 7812,
      "ləndirmək": 7813,
      "▁başqalarını": 7814,
      "peçenye": 7815,
      "▁cama": 7816,
      "▁qondu": 7817,
      "▁buludların": 7818,
      "mark": 7819,
      "▁məz": 7820,
      "▁qaydasında": 7821,
      "▁beysbol": 7822,
      "Harri": 7823,
      "▁barmaqlarını": 7824,
      "nado": 7825,
      "Alma": 7826,
      "▁etdirə": 7827,
      "▁divanın": 7828,
      "▁tezdən": 7829,
      "▁rit": 7830,
      "▁keçə": 7831,
      "anam": 7832,
      "▁atladılar": 7833,
      "▁nail": 7834,
      "ləyən": 7835,
      "▁edənə": 7836,
      "▁fənd": 7837,
      "▁buraxmaq": 7838,
      "ee": 7839,
      "▁qanadı": 7840,
      "▁fincanı": 7841,
      "ərdilər": 7842,
      "ırtıldayan": 7843,
      "▁içdilər": 7844,
      "şəkil": 7845,
      "▁gəlməyə": 7846,
      "▁siqnal": 7847,
      "Çər": 7848,
      "bb": 7849,
      "▁parkdan": 7850,
      "▁imza": 7851,
      "▁dağa": 7852,
      "▁günəbaxan": 7853,
      "əşər": 7854,
      "▁hekayəni": 7855,
      "▁fleyta": 7856,
      "▁xüsusidir": 7857,
      "▁sanc": 7858,
      "cağında": 7859,
      "▁yatdı": 7860,
      "▁əyilib": 7861,
      "▁getdiyinə": 7862,
      "▁tullanıb": 7863,
      "ardan": 7864,
      "▁təyin": 7865,
      "əlində": 7866,
      "▁soruşmadan": 7867,
      "Pələng": 7868,
      "▁ərzaq": 7869,
      "Mər": 7870,
      "▁şəbək": 7871,
      "▁çəkdiyi": 7872,
      "▁gələnləri": 7873,
      "▁hədiyyəni": 7874,
      "səmada": 7875,
      "Hədiy": 7876,
      "▁anamı": 7877,
      "▁saxlayır": 7878,
      "▁üzük": 7879,
      "Ban": 7880,
      "larımı": 7881,
      "Kat": 7882,
      "döş": 7883,
      "buynuz": 7884,
      "▁mır": 7885,
      "▁içə": 7886,
      "əhlükəli": 7887,
      "▁yoldan": 7888,
      "lanmağa": 7889,
      "Şüş": 7890,
      "diqqətlə": 7891,
      "▁mahn": 7892,
      "▁yaşamaq": 7893,
      "▁zebra": 7894,
      "▁balıqları": 7895,
      "masın": 7896,
      "▁çubuğunu": 7897,
      "▁olacam": 7898,
      "▁qayğıkeş": 7899,
      "Maral": 7900,
      "▁vidalaşaraq": 7901,
      "son": 7902,
      "▁balıqçı": 7903,
      "▁buludları": 7904,
      "▁töküldü": 7905,
      "▁döyüşmək": 7906,
      "▁səbirlə": 7907,
      "▁şamp": 7908,
      "Başlarını": 7909,
      "▁veriliş": 7910,
      "Yarpaq": 7911,
      "▁avadan": 7912,
      "Din": 7913,
      "▁tö": 7914,
      "▁bilməzsiniz": 7915,
      "Suya": 7916,
      "▁titrədi": 7917,
      "▁əhatə": 7918,
      "▁dayanmışdı": 7919,
      "▁ümi": 7920,
      "▁döv": 7921,
      "▁pəncərə": 7922,
      "▁qaytara": 7923,
      "Giz": 7924,
      "▁görüblər": 7925,
      "oyunlar": 7926,
      "lgüc": 7927,
      "▁çəmənliyə": 7928,
      "▁təyyarəyə": 7929,
      "▁yanacaq": 7930,
      "lərinizi": 7931,
      "aggie": 7932,
      "rəngli": 7933,
      "Oyuncaqlar": 7934,
      "▁bilmədən": 7935,
      "sy": 7936,
      "▁düşürlər": 7937,
      "▁axmaqlıq": 7938,
      "▁qışqırıq": 7939,
      "▁poçtla": 7940,
      "▁aşpaz": 7941,
      "▁sıçrayaraq": 7942,
      "▁təsirli": 7943,
      "▁peçen": 7944,
      "▁qarğa": 7945,
      "yast": 7946,
      "laşır": 7947,
      "kobud": 7948,
      "▁olduqca": 7949,
      "Qapının": 7950,
      "▁sevinirdilər": 7951,
      "Özü": 7952,
      "▁sürtdü": 7953,
      "dərindən": 7954,
      "▁lif": 7955,
      "ızı": 7956,
      "▁El": 7957,
      "adır": 7958,
      "atya": 7959,
      "▁etdiniz": 7960,
      "Otağında": 7961,
      "ker": 7962,
      "əcəyi": 7963,
      "▁kimidir": 7964,
      "bbi": 7965,
      "keç": 7966,
      "vana": 7967,
      "Səyahət": 7968,
      "▁qarajda": 7969,
      "maca": 7970,
      "▁köynəyini": 7971,
      "▁geridə": 7972,
      "unuz": 7973,
      "yara": 7974,
      "▁uzanan": 7975,
      "Liza": 7976,
      "▁bəyəndiyini": 7977,
      "quşun": 7978,
      "▁özümü": 7979,
      "▁palıd": 7980,
      "▁hamını": 7981,
      "▁biləy": 7982,
      "diniz": 7983,
      "▁qolu": 7984,
      "▁yalvardı": 7985,
      "yim": 7986,
      "▁taksi": 7987,
      "▁satıcı": 7988,
      "▁izləməyi": 7989,
      "▁dostumuz": 7990,
      "▁qalaq": 7991,
      "▁bişirməyə": 7992,
      "▁budaqları": 7993,
      "duz": 7994,
      "▁qəlyanaltılar": 7995,
      "▁paylaşdı": 7996,
      "amama": 7997,
      "Öy": 7998,
      "Tweetie": 7999,
      "▁kriket": 8000,
      "▁saxlayıb": 8001,
      "▁cibində": 8002,
      "▁yazıq": 8003,
      "kart": 8004,
      "▁yazır": 8005,
      "▁alda": 8006,
      "▁bağladılar": 8007,
      "▁qaytarmağa": 8008,
      "▁soruşurlar": 8009,
      "qutunu": 8010,
      "İstir": 8011,
      "Fərqli": 8012,
      "ibarlı": 8013,
      "▁qış": 8014,
      "ərini": 8015,
      "▁saçlı": 8016,
      "▁danışırdılar": 8017,
      "▁kəsmək": 8018,
      "▁dəstə": 8019,
      "▁macərasına": 8020,
      "▁xalça": 8021,
      "▁qardaşının": 8022,
      "▁bilmirik": 8023,
      "▁üzlərində": 8024,
      "▁palçıqda": 8025,
      "Sürətlə": 8026,
      "Pul": 8027,
      "▁Mendi": 8028,
      "▁melo": 8029,
      "Getmək": 8030,
      "▁kitabxanaya": 8031,
      "▁Dav": 8032,
      "Qayı": 8033,
      "mamışdı": 8034,
      "rayan": 8035,
      "Ayağa": 8036,
      "▁qızılgül": 8037,
      "▁sürüşür": 8038,
      "▁girməyə": 8039,
      "Yax": 8040,
      "ağıllı": 8041,
      "ərəvəz": 8042,
      "▁qalmadı": 8043,
      "▁avokado": 8044,
      "▁işlədiyini": 8045,
      "▁çöl": 8046,
      "▁yelləncəklərə": 8047,
      "▁sıra": 8048,
      "▁keçirməyə": 8049,
      "Oyuncaqlarla": 8050,
      "▁keçdikcə": 8051,
      "▁sürprizim": 8052,
      "▁yarandı": 8053,
      "▁yumşaqdır": 8054,
      "▁məxsusdur": 8055,
      "▁bacarırdı": 8056,
      "▁düşdüyünü": 8057,
      "▁çəkdiyini": 8058,
      "▁əllərində": 8059,
      "▁qatır": 8060,
      "▁poni": 8061,
      "▁kərgə": 8062,
      "▁balığın": 8063,
      "Öyrən": 8064,
      "şar": 8065,
      "azı": 8066,
      "Mil": 8067,
      "▁süpür": 8068,
      "bül": 8069,
      "▁barmağı": 8070,
      "▁qarışdırıb": 8071,
      "▁möv": 8072,
      "▁reak": 8073,
      "▁çuxurda": 8074,
      "▁axtarıram": 8075,
      "▁gülümsəməyə": 8076,
      "▁dırma": 8077,
      "▁danladı": 8078,
      "▁Kit": 8079,
      "▁budağı": 8080,
      "peşman": 8081,
      "▁anama": 8082,
      "lisə": 8083,
      "zzy": 8084,
      "ərəm": 8085,
      "Eht": 8086,
      "▁istəmədiyini": 8087,
      "Tur": 8088,
      "▁sehrbaz": 8089,
      "▁kristal": 8090,
      "▁bankaya": 8091,
      "▁dolğun": 8092,
      "pendir": 8093,
      "▁Ann": 8094,
      "▁gizlənən": 8095,
      "▁sümüyü": 8096,
      "▁qışqıraraq": 8097,
      "▁gedənə": 8098,
      "▁şükür": 8099,
      "▁Ceyk": 8100,
      "Yerə": 8101,
      "▁gizlətdi": 8102,
      "larımız": 8103,
      "▁uzanmış": 8104,
      "▁qumdan": 8105,
      "▁çimərlik": 8106,
      "Həqiqətən": 8107,
      "▁yetirdi": 8108,
      "Qər": 8109,
      "Qır": 8110,
      "mələri": 8111,
      "üzə": 8112,
      "▁tərəddüd": 8113,
      "Sanki": 8114,
      "Birini": 8115,
      "Dave": 8116,
      "▁istəməlisən": 8117,
      "▁ak": 8118,
      "Əminəm": 8119,
      "▁görmürlər": 8120,
      "Ağıllı": 8121,
      "▁əş": 8122,
      "▁yerlər": 8123,
      "▁ins": 8124,
      "▁ayağına": 8125,
      "bacı": 8126,
      "▁hazırla": 8127,
      "▁şüşəni": 8128,
      "Bacı": 8129,
      "▁qəm": 8130,
      "▁görünmürdü": 8131,
      "▁kenquru": 8132,
      "▁bağışlaya": 8133,
      "macəraya": 8134,
      "▁vidalaşdılar": 8135,
      "Mağaza": 8136,
      "nu": 8137,
      "▁olmasından": 8138,
      "Semmi": 8139,
      "▁götürərək": 8140,
      "▁ulduzu": 8141,
      "▁çantaya": 8142,
      "▁qonşusu": 8143,
      "işə": 8144,
      "▁Ceki": 8145,
      "▁çilə": 8146,
      "▁masanın": 8147,
      "▁susuz": 8148,
      "qurbağa": 8149,
      "sünüz": 8150,
      "▁evlən": 8151,
      "▁göndərmək": 8152,
      "▁sənət": 8153,
      "▁limanına": 8154,
      "▁enerji": 8155,
      "Oxu": 8156,
      "Budaq": 8157,
      "Sürpriz": 8158,
      "apitan": 8159,
      "Əsl": 8160,
      "bit": 8161,
      "stul": 8162,
      "▁güldürdü": 8163,
      "Mimi": 8164,
      "aram": 8165,
      "▁öyrənməlisən": 8166,
      "▁qabyuyan": 8167,
      "▁paylaşıb": 8168,
      "▁üş": 8169,
      "▁bloklardan": 8170,
      "▁dinləməli": 8171,
      "▁çarpayıya": 8172,
      "arx": 8173,
      "Qumda": 8174,
      "▁özəl": 8175,
      "Anladı": 8176,
      "dasan": 8177,
      "▁dibində": 8178,
      "qutu": 8179,
      "▁gözləyirdilər": 8180,
      "Kres": 8181,
      "▁işçi": 8182,
      "▁alqışlayır": 8183,
      "▁dağı": 8184,
      "▁piştaxt": 8185,
      "▁bükül": 8186,
      "▁labirint": 8187,
      "▁qorxaraq": 8188,
      "yazılmış": 8189,
      "▁yüksəl": 8190,
      "Bərbər": 8191,
      "Sizi": 8192,
      "gülümsəyərək": 8193,
      "Təzə": 8194,
      "Tüklü": 8195,
      "▁bitirib": 8196,
      "▁pəncərəni": 8197,
      "▁xırda": 8198,
      "▁zir": 8199,
      "▁yaratdılar": 8200,
      "▁zürafə": 8201,
      "▁Timi": 8202,
      "▁kayak": 8203,
      "acam": 8204,
      "səm": 8205,
      "işi": 8206,
      "▁kəsməyə": 8207,
      "▁gerçəkləş": 8208,
      "borator": 8209,
      "▁məft": 8210,
      "▁kollek": 8211,
      "▁izləməyə": 8212,
      "▁kabus": 8213,
      "Çörək": 8214,
      "▁hinduşka": 8215,
      "▁verməli": 8216,
      "▁dəbilqə": 8217,
      "təslim": 8218,
      "ga": 8219,
      "▁anbar": 8220,
      "▁döyüşdüyünü": 8221,
      "ou": 8222,
      "ənilən": 8223,
      "▁xəritə": 8224,
      "ülh": 8225,
      "birlərinin": 8226,
      "Lütfən": 8227,
      "▁altındakı": 8228,
      "▁saray": 8229,
      "▁məq": 8230,
      "▁şəhərin": 8231,
      "Məktəb": 8232,
      "Evinin": 8233,
      "▁Ducky": 8234,
      "▁sprey": 8235,
      "▁asdılar": 8236,
      "▁etdikdən": 8237,
      "birimizə": 8238,
      "▁dişləyir": 8239,
      "▁gölməçədən": 8240,
      "▁bağlaya": 8241,
      "▁geyinir": 8242,
      "musiq": 8243,
      "▁eşidə": 8244,
      "▁çəkərək": 8245,
      "▁hekayələri": 8246,
      "yatmaq": 8247,
      "müdrik": 8248,
      "▁tab": 8249,
      "▁təxəyyül": 8250,
      "▁evlərinin": 8251,
      "malıdırlar": 8252,
      "▁buludlar": 8253,
      "darkən": 8254,
      "ananın": 8255,
      "▁işləməyə": 8256,
      "▁bilmirdim": 8257,
      "▁qazanmışdı": 8258,
      "▁səpdi": 8259,
      "ərilti": 8260,
      "zələ": 8261,
      "▁bilərdilər": 8262,
      "Oynamağı": 8263,
      "▁düşmürdü": 8264,
      "▁aparacaq": 8265,
      "usunun": 8266,
      "İşi": 8267,
      "▁Tweetie": 8268,
      "▁qaçırdılar": 8269,
      "▁böcəkləri": 8270,
      "▁sərgüzəştlər": 8271,
      "▁saatı": 8272,
      "▁buğda": 8273,
      "▁hisslərini": 8274,
      "▁xanımın": 8275,
      "Annaya": 8276,
      "▁göndərdi": 8277,
      "▁bağla": 8278,
      "▁təəssüflənirlər": 8279,
      "▁qatara": 8280,
      "▁tərəzi": 8281,
      "▁hovuzda": 8282,
      "onad": 8283,
      "▁bəbir": 8284,
      "▁deyilir": 8285,
      "▁otururlar": 8286,
      "gin": 8287,
      "▁Susie": 8288,
      "Kədərləndi": 8289,
      "▁dara": 8290,
      "evinin": 8291,
      "▁edici": 8292,
      "▁Bobun": 8293,
      "tadi": 8294,
      "▁hərəkətə": 8295,
      "▁hazırlaşırdı": 8296,
      "atam": 8297,
      "▁tullanırdı": 8298,
      "▁işlərini": 8299,
      "əşərat": 8300,
      "▁aparırlar": 8301,
      "▁gölməçəni": 8302,
      "▁kürəyinə": 8303,
      "▁başlayana": 8304,
      "▁sığallaya": 8305,
      "▁aşdı": 8306,
      "Parça": 8307,
      "▁enib": 8308,
      "▁hamımız": 8309,
      "▁oyuna": 8310,
      "▁sahəyə": 8311,
      "ganə": 8312,
      "▁məzəli": 8313,
      "▁qət": 8314,
      "▁şirindir": 8315,
      "plan": 8316,
      "uğur": 8317,
      "▁yata": 8318,
      "▁səbəbini": 8319,
      "həmin": 8320,
      "▁toplarını": 8321,
      "ayaqqabı": 8322,
      "▁çarpayısına": 8323,
      "▁qurşağının": 8324,
      "▁bığ": 8325,
      "masının": 8326,
      "▁yağışın": 8327,
      "Slay": 8328,
      "▁qarışdırmaq": 8329,
      "▁qayaları": 8330,
      "▁zeytun": 8331,
      "məsin": 8332,
      "şkaf": 8333,
      "▁sevmirdilər": 8334,
      "▁məsu": 8335,
      "▁qəzəblidirlər": 8336,
      "▁tanın": 8337,
      "▁hekayələrini": 8338,
      "▁formaları": 8339,
      "▁əmr": 8340,
      "▁sıçramağı": 8341,
      "▁keçərkən": 8342,
      "▁qorxuram": 8343,
      "ülməsini": 8344,
      "yəmin": 8345,
      "bağda": 8346,
      "▁oturduğunu": 8347,
      "qırdı": 8348,
      "yeri": 8349,
      "▁cığırla": 8350,
      "▁təmizləyək": 8351,
      "ved": 8352,
      "▁qızına": 8353,
      "▁Bobbi": 8354,
      "oke": 8355,
      "Tırtıl": 8356,
      "Ür": 8357,
      "▁fəvvarə": 8358,
      "▁yaxşılaşdırmaq": 8359,
      "ain": 8360,
      "Baytar": 8361,
      "▁küləyi": 8362,
      "▁bükdü": 8363,
      "▁qorilla": 8364,
      "▁etir": 8365,
      "▁ud": 8366,
      "Çubuq": 8367,
      "▁silkələməyə": 8368,
      "achel": 8369,
      "umuzu": 8370,
      "İşıq": 8371,
      "▁bağlamağı": 8372,
      "asib": 8373,
      "▁hazırdır": 8374,
      "▁bitirəndə": 8375,
      "ink": 8376,
      "Kart": 8377,
      "▁oyuncaqlarına": 8378,
      "▁dərə": 8379,
      "uram": 8380,
      "▁cadugər": 8381,
      "▁qapağı": 8382,
      "▁həd": 8383,
      "▁qalxan": 8384,
      "▁rəfdə": 8385,
      "çimər": 8386,
      "ess": 8387,
      "▁fırlanmağı": 8388,
      "bolu": 8389,
      "▁balqabağı": 8390,
      "▁konfeti": 8391,
      "▁meduza": 8392,
      "▁rels": 8393,
      "▁dəmir": 8394,
      "▁çəkil": 8395,
      "▁barış": 8396,
      "▁oxuduğunu": 8397,
      "▁sındırdın": 8398,
      "ətrafındakı": 8399,
      "▁düşərg": 8400,
      "alyon": 8401,
      "▁motosiklet": 8402,
      "▁lüğ": 8403,
      "qonş": 8404,
      "larkən": 8405,
      "elədir": 8406,
      "▁gödəkç": 8407,
      "▁gəlincikləri": 8408,
      "▁milçək": 8409,
      "oc": 8410,
      "▁dən": 8411,
      "▁Kitti": 8412,
      "ükaf": 8413,
      "▁anb": 8414,
      "▁sürprizlə": 8415,
      "▁nəfər": 8416,
      "çuxur": 8417,
      "qürur": 8418,
      "edc": 8419,
      "▁keçmədən": 8420,
      "Ov": 8421,
      "▁medal": 8422,
      "▁yarpaqlar": 8423,
      "▁hönkürdü": 8424,
      "pəyə": 8425,
      "▁öyrəndiyi": 8426,
      "▁olduqdan": 8427,
      "▁ölü": 8428,
      "qapı": 8429,
      "adam": 8430,
      "▁sadə": 8431,
      "Məx": 8432,
      "▁tapşırdı": 8433,
      "▁birə": 8434,
      "▁yuxudan": 8435,
      "▁baytar": 8436,
      "▁itirmişdi": 8437,
      "▁qışqırdığını": 8438,
      "▁Conun": 8439,
      "▁nanə": 8440,
      "ülk": 8441,
      "▁otaqdan": 8442,
      "edcinq": 8443,
      "üzündə": 8444,
      "▁bacısının": 8445,
      "loun": 8446,
      "Yazıq": 8447,
      "kran": 8448,
      "▁yellənir": 8449,
      "▁kiməsə": 8450,
      "heyvan": 8451,
      "Timsah": 8452,
      "parıldayan": 8453,
      "şirəli": 8454,
      "konfet": 8455,
      "▁üzür": 8456,
      "▁qardaşına": 8457,
      "▁mahnını": 8458,
      "Avtobus": 8459,
      "▁Lilydən": 8460,
      "oladı": 8461,
      "▁qəhvə": 8462,
      "▁birləşdir": 8463,
      "urub": 8464,
      "Ca": 8465,
      "öm": 8466,
      "▁qazanı": 8467,
      "divar": 8468,
      "▁olmuşdu": 8469,
      "▁vaxtının": 8470,
      "▁adamının": 8471,
      "▁bilməyəcəyi": 8472,
      "▁tərpəndi": 8473,
      "▁daşlar": 8474,
      "▁münasib": 8475,
      "Sk": 8476,
      "qucaq": 8477,
      "▁pendiri": 8478,
      "▁duş": 8479,
      "▁taxmağı": 8480,
      "▁dük": 8481,
      "bəri": 8482,
      "paylaşmaq": 8483,
      "▁şeir": 8484,
      "▁davranırdı": 8485,
      "▁divarda": 8486,
      "▁çıxana": 8487,
      "▁adlarını": 8488,
      "▁qayıdarkən": 8489,
      "▁təmizlik": 8490,
      "▁mətbəxdən": 8491,
      "sunuz": 8492,
      "▁tortun": 8493,
      "▁oynamağın": 8494,
      "▁qoruy": 8495,
      "▁məsləhətinə": 8496,
      "Qab": 8497,
      "▁səliqəyə": 8498,
      "slayd": 8499,
      "▁qırıl": 8500,
      "▁filmi": 8501,
      "▁vaqon": 8502,
      "tü": 8503,
      "▁kranı": 8504,
      "yünə": 8505,
      "▁Rob": 8506,
      "▁şorbanı": 8507,
      "Hamam": 8508,
      "▁siçana": 8509,
      "▁ağcaqanad": 8510,
      "pike": 8511,
      "▁verək": 8512,
      "▁kvadrat": 8513,
      "▁niş": 8514,
      "Çalışdı": 8515,
      "▁maşınımı": 8516,
      "▁cıv": 8517,
      "▁ördəyi": 8518,
      "icazə": 8519,
      "▁şü": 8520,
      "Mahnı": 8521,
      "▁qopar": 8522,
      "Onlarda": 8523,
      "▁yeməyin": 8524,
      "▁qarderob": 8525,
      "▁anda": 8526,
      "▁zəncir": 8527,
      "▁lazer": 8528,
      "▁verəcəyini": 8529,
      "Kimsə": 8530,
      "▁vermədilər": 8531,
      "▁özünəməxsus": 8532,
      "▁ötür": 8533,
      "qanadlarını": 8534,
      "Dostlarının": 8535,
      "▁başladığını": 8536,
      "▁sonluq": 8537,
      "▁yarpağı": 8538,
      "▁daşıya": 8539,
      "Ha": 8540,
      "urdular": 8541,
      "▁çıxarmağı": 8542,
      "eh": 8543,
      "▁asılı": 8544,
      "▁piroq": 8545,
      "▁sakitləşdi": 8546,
      "▁günlər": 8547,
      "▁bloklarını": 8548,
      "Həyətdə": 8549,
      "▁gözünü": 8550,
      "▁dəri": 8551,
      "arıq": 8552,
      "▁kon": 8553,
      "▁çarpayısında": 8554,
      "▁keçəndə": 8555,
      "loe": 8556,
      "▁çalışırdılar": 8557,
      "Bobby": 8558,
      "▁yağırdı": 8559,
      "▁həbs": 8560,
      "▁yarışmaq": 8561,
      "Xeyirxah": 8562,
      "▁razılaşaraq": 8563,
      "▁siqnalı": 8564,
      "▁götürürlər": 8565,
      "▁mehribansınız": 8566,
      "Bilirsən": 8567,
      "▁kral": 8568,
      "▁yorulana": 8569,
      "▁cing": 8570,
      "▁buraxıb": 8571,
      "Oyuncağı": 8572,
      "▁ölkədə": 8573,
      "▁aldığına": 8574,
      "▁hazırlanmışdı": 8575,
      "layarkən": 8576,
      "▁uzaqlaşdırdı": 8577,
      "birli": 8578,
      "sürüşməyi": 8579,
      "▁çekme": 8580,
      "iniş": 8581,
      "Zoopark": 8582,
      "▁görünmədi": 8583,
      "▁soruşmaq": 8584,
      "▁edəcəksən": 8585,
      "▁düzəltdim": 8586,
      "▁bərbər": 8587,
      "Televiz": 8588,
      "xəst": 8589,
      "▁qaçan": 8590,
      "▁axtaran": 8591,
      "▁vaza": 8592,
      "Çantanı": 8593,
      "əyləndilər": 8594,
      "▁qazdı": 8595,
      "▁Pat": 8596,
      "tal": 8597,
      "▁dincə": 8598,
      "▁dartıb": 8599,
      "▁lampanı": 8600,
      "▁tuna": 8601,
      "sıl": 8602,
      "▁Meri": 8603,
      "usuna": 8604,
      "▁döyüşməyə": 8605,
      "▁duman": 8606,
      "▁asmağı": 8607,
      "Tweet": 8608,
      "cəsur": 8609,
      "▁nərə": 8610,
      "▁sınaqdan": 8611,
      "dirməyə": 8612,
      "▁formalı": 8613,
      "▁imtahan": 8614,
      "▁mahnısını": 8615,
      "▁vəziyyətdə": 8616,
      "▁anladılar": 8617,
      "▁skripka": 8618,
      "▁olanları": 8619,
      "Parkın": 8620,
      "▁geyindilər": 8621,
      "▁çalışmaq": 8622,
      "▁dostuq": 8623,
      "▁nənəsini": 8624,
      "Sağol": 8625,
      "▁çardaq": 8626,
      "▁gücünü": 8627,
      "afar": 8628,
      "İçərisində": 8629,
      "▁bəla": 8630,
      "▁bez": 8631,
      "▁yanındakı": 8632,
      "Yataq": 8633,
      "Rose": 8634,
      "▁dövrə": 8635,
      "mələr": 8636,
      "Lilly": 8637,
      "▁ayrılmaq": 8638,
      "▁yeganə": 8639,
      "▁fabrik": 8640,
      "▁siçanın": 8641,
      "▁düşündüyü": 8642,
      "atasına": 8643,
      "▁tikiş": 8644,
      "▁gülümsədiyini": 8645,
      "El": 8646,
      "▁qurbağanın": 8647,
      "▁döşəmə": 8648,
      "▁vaxtında": 8649,
      "quşları": 8650,
      "▁saxladığı": 8651,
      "Boş": 8652,
      "▁oğlandan": 8653,
      "kırda": 8654,
      "arda": 8655,
      "▁qayalar": 8656,
      "▁günortadan": 8657,
      "blokları": 8658,
      "▁yaza": 8659,
      "Mollinin": 8660,
      "▁ülgüc": 8661,
      "ləng": 8662,
      "▁qəfildən": 8663,
      "diya": 8664,
      "▁xaşxaş": 8665,
      "Qaş": 8666,
      "▁bilmirsən": 8667,
      "Brownie": 8668,
      "Anadan": 8669,
      "evdə": 8670,
      "▁köpəkbalığı": 8671,
      "▁toqq": 8672,
      "▁qaydalara": 8673,
      "▁dibinə": 8674,
      "ehtiyatla": 8675,
      "▁uzaqlaşarkən": 8676,
      "Miss": 8677,
      "Saraya": 8678,
      "gölməçəyə": 8679,
      "elin": 8680,
      "▁bölüşməkdən": 8681,
      "▁gəm": 8682,
      "▁gəlmisiniz": 8683,
      "əcili": 8684,
      "▁andan": 8685,
      "▁dondurmanı": 8686,
      "ağacların": 8687,
      "▁uçurt": 8688,
      "▁laborator": 8689,
      "▁gözlədiyini": 8690,
      "▁yun": 8691,
      "▁yanaş": 8692,
      "əsəbiləş": 8693,
      "▁gördüklərini": 8694,
      "▁verəndə": 8695,
      "▁sürüşmək": 8696,
      "yaxşıdır": 8697,
      "tamammı": 8698,
      "▁haqda": 8699,
      "▁Sofi": 8700,
      "▁təkərləri": 8701,
      "canım": 8702,
      "pər": 8703,
      "▁masaj": 8704,
      "▁yaxşısını": 8705,
      "▁olundu": 8706,
      "▁örtdü": 8707,
      "Kral": 8708,
      "▁qamçı": 8709,
      "▁qarşıladı": 8710,
      "▁Cil": 8711,
      "▁ayırdı": 8712,
      "Cəsarətli": 8713,
      "▁analarından": 8714,
      "▁papaqlı": 8715,
      "qollarını": 8716,
      "Bığ": 8717,
      "▁yerləş": 8718,
      "▁kürəyini": 8719,
      "▁mağarada": 8720,
      "▁paylaşmalısan": 8721,
      "▁toxunu": 8722,
      "▁hərəkətsiz": 8723,
      "▁qoxusunu": 8724,
      "Suyun": 8725,
      "▁Brownie": 8726,
      "▁küp": 8727,
      "▁hazırlayırdı": 8728,
      "▁islandı": 8729,
      "Kimin": 8730,
      "Çimər": 8731,
      "▁çiyninə": 8732,
      "▁qulaqları": 8733,
      "vəzində": 8734,
      "▁helikopter": 8735,
      "▁qaragilə": 8736,
      "▁mineral": 8737,
      "▁dovşanla": 8738,
      "▁əşyalarına": 8739,
      "Cerri": 8740,
      "▁kof": 8741,
      "▁göstərdiyi": 8742,
      "▁dodaq": 8743,
      "▁köynəyi": 8744,
      "▁qabda": 8745,
      "▁ortaya": 8746,
      "▁yenisini": 8747,
      "▁qapısı": 8748,
      "Meri": 8749,
      "▁avtobusa": 8750,
      "ağır": 8751,
      "asırğa": 8752,
      "külək": 8753,
      "▁bayrağı": 8754,
      "zanın": 8755,
      "İp": 8756,
      "▁verdiyinə": 8757,
      "▁olduğun": 8758,
      "ürüdü": 8759,
      "▁almaları": 8760,
      "oyuncağı": 8761,
      "▁soyu": 8762,
      "Musiqi": 8763,
      "▁arıq": 8764,
      "Cib": 8765,
      "Qələm": 8766,
      "ələk": 8767,
      "vara": 8768,
      "qəribə": 8769,
      "▁bost": 8770,
      "▁etməyəcəyəm": 8771,
      "▁əmisi": 8772,
      "▁pastel": 8773,
      "Slayda": 8774,
      "▁oğlansan": 8775,
      "parça": 8776,
      "▁siyir": 8777,
      "▁soğan": 8778,
      "Balina": 8779,
      "▁düşdüm": 8780,
      "iqzaq": 8781,
      "sevgi": 8782,
      "▁oper": 8783,
      "▁sobadan": 8784,
      "▁mənzərəni": 8785,
      "ərik": 8786,
      "▁üzüb": 8787,
      "Görürsən": 8788,
      "▁nəğməsini": 8789,
      "▁vaxtını": 8790,
      "▁qorudu": 8791,
      "▁video": 8792,
      "▁nərdi": 8793,
      "▁təyyarəni": 8794,
      "sob": 8795,
      "▁ha": 8796,
      "▁çoxdan": 8797,
      "iversit": 8798,
      "▁unutdular": 8799,
      "▁dayandırmağa": 8800,
      "▁etdiklərinə": 8801,
      "Dostlarına": 8802,
      "▁sakitləş": 8803,
      "▁qabarcıq": 8804,
      "▁brokoli": 8805,
      "▁musiqini": 8806,
      "suya": 8807,
      "Keçəl": 8808,
      "kuklasını": 8809,
      "▁çıxaq": 8810,
      "▁etmələrini": 8811,
      "▁yumaq": 8812,
      "▁sözü": 8813,
      "▁səfərə": 8814,
      "▁gəldiyi": 8815,
      "▁mehribanlıqla": 8816,
      "▁qabları": 8817,
      "dondurma": 8818,
      "▁Reks": 8819,
      "Sürüş": 8820,
      "müəllim": 8821,
      "▁valideynlərini": 8822,
      "▁miyavladı": 8823,
      "▁təəccüblənir": 8824,
      "sərt": 8825,
      "▁çubuqdan": 8826,
      "eyri": 8827,
      "Sürətli": 8828,
      "zirvəyə": 8829,
      "roavtobus": 8830,
      "▁kəllə": 8831,
      "▁gizləndiyini": 8832,
      "▁bitəndə": 8833,
      "▁sındırıb": 8834,
      "▁bitirmək": 8835,
      "həyat": 8836,
      "▁vedrəni": 8837,
      "Axt": 8838,
      "▁sevinirlər": 8839,
      "▁işdə": 8840,
      "Günlər": 8841,
      "▁pişiy": 8842,
      "▁davranmağı": 8843,
      "▁arzusu": 8844,
      "gözəldir": 8845,
      "irkin": 8846,
      "▁torpaqda": 8847,
      "▁kabinet": 8848,
      "▁əldən": 8849,
      "▁düşünərək": 8850,
      "▁ağacının": 8851,
      "▁stansiy": 8852,
      "▁kərgədan": 8853,
      "edin": 8854,
      "▁istəyirsənsə": 8855,
      "Velosiped": 8856,
      "▁dırmaşıb": 8857,
      "▁doldurdular": 8858,
      "kimi": 8859,
      "cavab": 8860,
      "▁salırdı": 8861,
      "Qarğa": 8862,
      "Həyəcan": 8863,
      "▁oxşay": 8864,
      "▁alış": 8865,
      "▁tutduğunu": 8866,
      "landılar": 8867,
      "Abi": 8868,
      "▁dəvəquşu": 8869,
      "Probl": 8870,
      "Lam": 8871,
      "aki": 8872,
      "▁bildiriblər": 8873,
      "▁zirvəsinə": 8874,
      "▁slaydın": 8875,
      "Səh": 8876,
      "▁qəlyanaltılarını": 8877,
      "▁qoxusu": 8878,
      "▁bağlayır": 8879,
      "▁etməliyəm": 8880,
      "▁görünüşlü": 8881,
      "▁maşında": 8882,
      "Bə": 8883,
      "▁qalır": 8884,
      "▁yerdəki": 8885,
      "▁yollarını": 8886,
      "▁zip": 8887,
      "▁işlədilər": 8888,
      "hekay": 8889,
      "Lilanın": 8890,
      "ağz": 8891,
      "▁oğru": 8892,
      "▁anı": 8893,
      "küç": 8894,
      "▁yaxınlaşdıqca": 8895,
      "▁biləcəkləri": 8896,
      "▁keçməyə": 8897,
      "▁kosm": 8898,
      "▁dayanır": 8899,
      "▁töküb": 8900,
      "▁hərf": 8901,
      "Əyləndilər": 8902,
      "▁məbə": 8903,
      "oh": 8904,
      "şal": 8905,
      "Də": 8906,
      "▁apardığını": 8907,
      "▁edərdilər": 8908,
      "▁yediyini": 8909,
      "▁yellənməyə": 8910,
      "Qulaq": 8911,
      "Tibb": 8912,
      "▁nəyə": 8913,
      "▁istiqa": 8914,
      "oladlı": 8915,
      "▁işıqlar": 8916,
      "▁çantalarını": 8917,
      "iktorina": 8918,
      "ağacları": 8919,
      "▁satmaq": 8920,
      "▁üstə": 8921,
      "▁yaxınlaşırdı": 8922,
      "▁tarix": 8923,
      "▁igid": 8924,
      "Kuk": 8925,
      "zində": 8926,
      "▁hədiyyədir": 8927,
      "▁nömr": 8928,
      "▁qorxurdular": 8929,
      "sürpriz": 8930,
      "yerindən": 8931,
      "uby": 8932,
      "bərə": 8933,
      "▁kas": 8934,
      "əlzələ": 8935,
      "▁böyüdüyünü": 8936,
      "laşmaq": 8937,
      "▁krali": 8938,
      "▁meydançasında": 8939,
      "öyrən": 8940,
      "▁torb": 8941,
      "ulie": 8942,
      "▁ümidi": 8943,
      "▁bilməsi": 8944,
      "▁sahil": 8945,
      "▁ziyafətə": 8946,
      "şaf": 8947,
      "siya": 8948,
      "▁sınay": 8949,
      "▁ornam": 8950,
      "▁hazırlamışdı": 8951,
      "▁axmaqsan": 8952,
      "Cəngavər": 8953,
      "şok": 8954,
      "▁klub": 8955,
      "▁yetirmək": 8956,
      "Yor": 8957,
      "▁ördəklərə": 8958,
      "▁deyildik": 8959,
      "maşınlar": 8960,
      "tah": 8961,
      "ləyərkən": 8962,
      "▁qabığını": 8963,
      "▁ölçülərdə": 8964,
      "▁güzgüyə": 8965,
      "▁qalmasını": 8966,
      "▁adamını": 8967,
      "▁sıçramağa": 8968,
      "▁külqabı": 8969,
      "donuz": 8970,
      "▁vermişdi": 8971,
      "▁torpağı": 8972,
      "▁qoyaq": 8973,
      "əhrəman": 8974,
      "▁Ş": 8975,
      "Yumurta": 8976,
      "▁oyuncağın": 8977,
      "dığım": 8978,
      "Kraliça": 8979,
      "içində": 8980,
      "Poçt": 8981,
      "▁parlayır": 8982,
      "▁balığa": 8983,
      "kimin": 8984,
      "▁çatır": 8985,
      "kitablar": 8986,
      "▁xəstələndi": 8987,
      "tit": 8988,
      "uma": 8989,
      "▁qızdan": 8990,
      "keti": 8991,
      "▁əkinçi": 8992,
      "▁ürəyində": 8993,
      "mağaza": 8994,
      "▁əyil": 8995,
      "entgen": 8996,
      "Məxluq": 8997,
      "▁günlərini": 8998,
      "Toyuq": 8999,
      "süm": 9000,
      "sizi": 9001,
      "▁sözünə": 9002,
      "▁görüşmək": 9003,
      "Razı": 9004,
      "▁yoldaş": 9005,
      "▁istədikləri": 9006,
      "məliydim": 9007,
      "laşa": 9008,
      "Bənövşəyi": 9009,
      "ılmağa": 9010,
      "İstəy": 9011,
      "xanada": 9012,
      "ləmə": 9013,
      "▁restorana": 9014,
      "qaçmağa": 9015,
      "Af": 9016,
      "Piknik": 9017,
      "Qat": 9018,
      "vaxt": 9019,
      "Kobud": 9020,
      "▁dırmıq": 9021,
      "▁model": 9022,
      "▁macəralı": 9023,
      "▁həyəcanlıdırlar": 9024,
      "▁canavarın": 9025,
      "▁ucal": 9026,
      "▁bölüşməyə": 9027,
      "▁yağdı": 9028,
      "▁içməyə": 9029,
      "layış": 9030,
      "▁atamla": 9031,
      "bö": 9032,
      "▁sürdülər": 9033,
      "sürətlə": 9034,
      "▁işləyir": 9035,
      "▁qorxduğu": 9036,
      "▁üzgüçülük": 9037,
[...]
