{
  "version": "1.0",
  "truncation": null,
  "padding": null,
  "added_tokens": [
    {
      "id": 0,
      "content": "<|PAD|>",
      "single_word": false,
      "lstrip": false,
      "rstrip": false,
      "normalized": false,
      "special": true
    },
    {
      "id": 1,
      "content": "<|BOS|>",
      "single_word": false,
      "lstrip": false,
      "rstrip": false,
      "normalized": false,
      "special": true
    },
    {
      "id": 2,
      "content": "<|EOS|>",
      "single_word": false,
      "lstrip": false,
      "rstrip": false,
      "normalized": false,
      "special": true
    },
    {
      "id": 3,
      "content": "<|UNK|>",
      "single_word": false,
      "lstrip": false,
      "rstrip": false,
      "normalized": false,
      "special": true
    }
  ],
  "normalizer": {
    "type": "NFKC"
  },
  "pre_tokenizer": {
    "type": "Sequence",
    "pretokenizers": [
      {
        "type": "UnicodeScripts"
      },
      {
        "type": "Digits",
        "individual_digits": true
      },
      {
        "type": "Metaspace",
        "replacement": "▁",
        "prepend_scheme": "never",
        "split": true
      }
    ]
  },
  "post_processor": {
    "type": "TemplateProcessing",
    "single": [
      {
        "SpecialToken": {
          "id": "<|BOS|>",
          "type_id": 0
        }
      },
      {
        "Sequence": {
          "id": "A",
          "type_id": 0
        }
      },
      {
        "SpecialToken": {
          "id": "<|EOS|>",
          "type_id": 0
        }
      }
    ],
    "pair": [
      {
        "SpecialToken": {
          "id": "<|BOS|>",
          "type_id": 0
        }
      },
      {
        "Sequence": {
          "id": "A",
          "type_id": 0
        }
      },
      {
        "SpecialToken": {
          "id": "<|EOS|>",
          "type_id": 0
        }
      },
      {
        "SpecialToken": {
          "id": "<|BOS|>",
          "type_id": 1
        }
      },
      {
        "Sequence": {
          "id": "B",
          "type_id": 1
        }
      },
      {
        "SpecialToken": {
          "id": "<|EOS|>",
          "type_id": 1
        }
      }
    ],
    "special_tokens": {
      "<|BOS|>": {
        "id": "<|BOS|>",
        "ids": [
          1
        ],
        "tokens": [
          "<|BOS|>"
        ]
      },
      "<|EOS|>": {
        "id": "<|EOS|>",
        "ids": [
          2
        ],
        "tokens": [
          "<|EOS|>"
        ]
      }
    }
  },
  "decoder": {
    "type": "Metaspace",
    "replacement": "▁",
    "prepend_scheme": "never",
    "split": true
  },
  "model": {
    "type": "BPE",
    "dropout": null,
    "unk_token": "<|UNK|>",
    "continuing_subword_prefix": null,
    "end_of_word_suffix": null,
    "fuse_unk": false,
    "byte_fallback": false,
    "ignore_merges": false,
    "vocab": {
      "<|PAD|>": 0,
      "<|BOS|>": 1,
      "<|EOS|>": 2,
      "<|UNK|>": 3,
      "\n": 4,
      "!": 5,
      "\"": 6,
      "$": 7,
      "%": 8,
      "&": 9,
      "'": 10,
      "(": 11,
      ")": 12,
      "*": 13,
      "+": 14,
      ",": 15,
      "-": 16,
      ".": 17,
      "/": 18,
      "0": 19,
      "1": 20,
      "2": 21,
      "3": 22,
      "4": 23,
      "5": 24,
      "6": 25,
      "7": 26,
      "8": 27,
      "9": 28,
      ":": 29,
      ";": 30,
      "=": 31,
      "?": 32,
      "A": 33,
      "B": 34,
      "C": 35,
      "D": 36,
      "E": 37,
      "F": 38,
      "G": 39,
      "H": 40,
      "I": 41,
      "J": 42,
      "K": 43,
      "L": 44,
      "M": 45,
      "N": 46,
      "O": 47,
      "P": 48,
      "Q": 49,
      "R": 50,
      "S": 51,
      "T": 52,
      "U": 53,
      "V": 54,
      "W": 55,
      "X": 56,
      "Y": 57,
      "Z": 58,
      "a": 59,
      "b": 60,
      "c": 61,
      "d": 62,
      "e": 63,
      "f": 64,
      "g": 65,
      "h": 66,
      "i": 67,
      "j": 68,
      "k": 69,
      "l": 70,
      "m": 71,
      "n": 72,
      "o": 73,
      "p": 74,
      "q": 75,
      "r": 76,
      "s": 77,
      "t": 78,
      "u": 79,
      "v": 80,
      "w": 81,
      "x": 82,
      "y": 83,
      "z": 84,
      "·": 85,
      "▁": 86,
      "、": 87,
      "。": 88,
      "《": 89,
      "》": 90,
      "「": 91,
      "」": 92,
      "一": 93,
      "丁": 94,
      "七": 95,
      "万": 96,
      "丈": 97,
      "三": 98,
      "上": 99,
      "下": 100,
      "不": 101,
      "与": 102,
      "丑": 103,
      "专": 104,
      "且": 105,
      "世": 106,
      "丘": 107,
      "业": 108,
      "丛": 109,
      "东": 110,
      "丝": 111,
      "丢": 112,
      "两": 113,
      "严": 114,
      "丧": 115,
      "个": 116,
      "丫": 117,
      "中": 118,
      "丰": 119,
      "串": 120,
      "临": 121,
      "丸": 122,
      "丹": 123,
      "为": 124,
      "主": 125,
      "丽": 126,
      "举": 127,
      "乃": 128,
      "久": 129,
      "么": 130,
      "义": 131,
      "之": 132,
      "乌": 133,
      "乎": 134,
      "乏": 135,
      "乐": 136,
      "乔": 137,
      "乖": 138,
      "乘": 139,
      "九": 140,
      "乞": 141,
      "也": 142,
      "习": 143,
      "乡": 144,
      "书": 145,
      "买": 146,
      "乱": 147,
      "乳": 148,
      "了": 149,
      "予": 150,
      "争": 151,
      "事": 152,
      "二": 153,
      "于": 154,
      "亏": 155,
      "云": 156,
      "互": 157,
      "五": 158,
      "井": 159,
      "亚": 160,
      "些": 161,
      "亡": 162,
      "亢": 163,
      "交": 164,
      "亦": 165,
      "产": 166,
      "亨": 167,
      "享": 168,
      "亭": 169,
      "亮": 170,
      "亲": 171,
      "人": 172,
      "什": 173,
      "仁": 174,
      "仅": 175,
      "仆": 176,
      "仇": 177,
      "今": 178,
      "介": 179,
      "仍": 180,
      "从": 181,
      "仓": 182,
      "仔": 183,
      "他": 184,
      "仗": 185,
      "付": 186,
      "仙": 187,
      "代": 188,
      "令": 189,
      "以": 190,
      "仪": 191,
      "们": 192,
      "仰": 193,
      "件": 194,
      "价": 195,
      "任": 196,
      "份": 197,
      "仿": 198,
      "企": 199,
      "伊": 200,
      "伍": 201,
      "伎": 202,
      "伏": 203,
      "伐": 204,
      "休": 205,
      "众": 206,
      "优": 207,
      "伙": 208,
      "会": 209,
      "伞": 210,
      "伟": 211,
      "传": 212,
      "伤": 213,
      "伦": 214,
      "伪": 215,
      "伯": 216,
      "估": 217,
      "伴": 218,
      "伸": 219,
      "似": 220,
      "伽": 221,
      "但": 222,
      "位": 223,
      "低": 224,
      "住": 225,
      "佐": 226,
      "佑": 227,
      "体": 228,
      "何": 229,
      "余": 230,
      "佛": 231,
      "作": 232,
      "你": 233,
      "佩": 234,
      "佬": 235,
      "佳": 236,
      "使": 237,
      "侃": 238,
      "侄": 239,
      "侈": 240,
      "例": 241,
      "侍": 242,
      "侏": 243,
      "供": 244,
      "依": 245,
      "侠": 246,
      "侣": 247,
      "侦": 248,
      "侧": 249,
      "侵": 250,
      "便": 251,
      "促": 252,
      "俊": 253,
      "俏": 254,
      "俗": 255,
      "保": 256,
      "信": 257,
      "俩": 258,
      "修": 259,
      "俯": 260,
      "俱": 261,
      "倍": 262,
      "倒": 263,
      "候": 264,
      "借": 265,
      "倦": 266,
      "值": 267,
      "倾": 268,
      "假": 269,
      "偌": 270,
      "偎": 271,
      "偏": 272,
      "做": 273,
      "停": 274,
      "健": 275,
      "偶": 276,
      "偷": 277,
      "偿": 278,
      "傀": 279,
      "傅": 280,
      "傍": 281,
      "储": 282,
      "催": 283,
      "傲": 284,
      "傻": 285,
      "像": 286,
      "僵": 287,
      "僻": 288,
      "儒": 289,
      "儡": 290,
      "儿": 291,
      "允": 292,
      "元": 293,
      "兄": 294,
      "充": 295,
      "兆": 296,
      "先": 297,
      "光": 298,
      "克": 299,
      "免": 300,
      "兑": 301,
      "兔": 302,
      "党": 303,
      "兜": 304,
      "入": 305,
      "全": 306,
      "八": 307,
      "公": 308,
      "六": 309,
      "兮": 310,
      "兰": 311,
      "共": 312,
      "关": 313,
      "兴": 314,
      "兵": 315,
      "其": 316,
      "具": 317,
      "典": 318,
      "兹": 319,
      "养": 320,
      "兼": 321,
      "兽": 322,
      "内": 323,
      "冉": 324,
      "册": 325,
      "再": 326,
      "冒": 327,
      "写": 328,
      "军": 329,
      "农": 330,
      "冠": 331,
      "冥": 332,
      "冬": 333,
      "冰": 334,
      "冲": 335,
      "决": 336,
      "况": 337,
      "冷": 338,
      "冻": 339,
      "冽": 340,
      "净": 341,
      "准": 342,
      "凉": 343,
      "凌": 344,
      "减": 345,
      "凑": 346,
      "凛": 347,
      "凝": 348,
      "几": 349,
      "凡": 350,
      "凭": 351,
      "凯": 352,
      "凳": 353,
      "凶": 354,
      "凸": 355,
      "凹": 356,
      "出": 357,
      "击": 358,
      "函": 359,
      "刀": 360,
      "分": 361,
      "切": 362,
      "划": 363,
      "列": 364,
      "刘": 365,
      "则": 366,
      "刚": 367,
      "创": 368,
      "初": 369,
      "删": 370,
      "判": 371,
      "利": 372,
      "别": 373,
      "刮": 374,
      "到": 375,
      "制": 376,
      "刷": 377,
      "券": 378,
      "刹": 379,
      "刺": 380,
      "刻": 381,
      "剂": 382,
      "剃": 383,
      "削": 384,
      "前": 385,
      "剑": 386,
      "剔": 387,
      "剥": 388,
      "剧": 389,
      "剩": 390,
      "剪": 391,
      "副": 392,
      "割": 393,
      "劈": 394,
      "力": 395,
      "劝": 396,
      "办": 397,
      "功": 398,
      "加": 399,
      "务": 400,
      "劣": 401,
      "动": 402,
      "助": 403,
      "努": 404,
      "劫": 405,
      "励": 406,
      "劲": 407,
      "劳": 408,
      "势": 409,
      "勃": 410,
      "勇": 411,
      "勉": 412,
      "勋": 413,
      "勒": 414,
      "勤": 415,
      "勺": 416,
      "勾": 417,
      "勿": 418,
      "匀": 419,
      "包": 420,
      "匆": 421,
      "化": 422,
      "北": 423,
      "匙": 424,
      "匠": 425,
      "匣": 426,
      "匪": 427,
      "匹": 428,
      "区": 429,
      "医": 430,
      "匿": 431,
      "十": 432,
      "千": 433,
      "升": 434,
      "午": 435,
      "卉": 436,
      "半": 437,
      "华": 438,
      "协": 439,
      "卑": 440,
      "单": 441,
      "卖": 442,
      "南": 443,
      "博": 444,
      "卜": 445,
      "占": 446,
      "卡": 447,
      "卢": 448,
      "卦": 449,
      "卧": 450,
      "卫": 451,
      "印": 452,
      "危": 453,
      "即": 454,
      "却": 455,
      "卵": 456,
      "卷": 457,
      "卸": 458,
      "厂": 459,
      "厄": 460,
      "厅": 461,
      "历": 462,
      "厉": 463,
      "压": 464,
      "厌": 465,
      "厕": 466,
      "厚": 467,
      "原": 468,
      "厢": 469,
      "厦": 470,
      "厨": 471,
      "厩": 472,
      "去": 473,
      "参": 474,
      "又": 475,
      "叉": 476,
      "及": 477,
      "友": 478,
      "双": 479,
      "反": 480,
      "发": 481,
      "叔": 482,
      "取": 483,
      "受": 484,
      "变": 485,
      "叛": 486,
      "叠": 487,
      "口": 488,
      "古": 489,
      "句": 490,
      "另": 491,
      "只": 492,
      "叫": 493,
      "召": 494,
      "叭": 495,
      "叮": 496,
      "可": 497,
      "台": 498,
      "史": 499,
      "右": 500,
      "叶": 501,
      "号": 502,
      "司": 503,
      "叹": 504,
      "叼": 505,
      "叽": 506,
      "吁": 507,
      "吃": 508,
      "各": 509,
      "合": 510,
      "吉": 511,
      "吊": 512,
      "同": 513,
      "名": 514,
      "后": 515,
      "吐": 516,
      "向": 517,
      "吓": 518,
      "吗": 519,
      "吝": 520,
      "吞": 521,
      "吟": 522,
      "吠": 523,
      "否": 524,
      "吧": 525,
      "吩": 526,
      "含": 527,
      "听": 528,
      "吮": 529,
      "启": 530,
      "吱": 531,
      "吵": 532,
      "吸": 533,
      "吹": 534,
      "吻": 535,
      "吼": 536,
      "呀": 537,
      "呃": 538,
      "呆": 539,
      "呈": 540,
      "告": 541,
      "呕": 542,
      "员": 543,
      "呜": 544,
      "呢": 545,
      "周": 546,
      "呱": 547,
      "味": 548,
      "呵": 549,
      "呸": 550,
      "呻": 551,
      "呼": 552,
      "命": 553,
      "咀": 554,
      "咄": 555,
      "咆": 556,
      "和": 557,
      "咐": 558,
      "咒": 559,
      "咔": 560,
      "咕": 561,
      "咖": 562,
      "咙": 563,
      "咚": 564,
      "咧": 565,
      "咩": 566,
      "咪": 567,
      "咬": 568,
      "咯": 569,
      "咱": 570,
      "咳": 571,
      "咸": 572,
      "咽": 573,
      "哀": 574,
      "品": 575,
      "哄": 576,
      "哇": 577,
      "哈": 578,
      "响": 579,
      "哎": 580,
      "哑": 581,
      "哒": 582,
      "哔": 583,
      "哗": 584,
      "哝": 585,
      "哞": 586,
      "哟": 587,
      "哥": 588,
      "哦": 589,
      "哨": 590,
      "哪": 591,
      "哭": 592,
      "哮": 593,
      "哼": 594,
      "唇": 595,
      "唐": 596,
      "唤": 597,
      "唬": 598,
      "售": 599,
      "唯": 600,
      "唱": 601,
      "唷": 602,
      "啃": 603,
      "啄": 604,
      "商": 605,
      "啊": 606,
      "啡": 607,
      "啤": 608,
      "啥": 609,
      "啦": 610,
      "啪": 611,
      "啬": 612,
      "啸": 613,
      "喂": 614,
      "善": 615,
      "喇": 616,
      "喉": 617,
      "喊": 618,
      "喋": 619,
      "喏": 620,
      "喘": 621,
      "喙": 622,
      "喜": 623,
      "喝": 624,
      "喧": 625,
      "喱": 626,
      "喳": 627,
      "喵": 628,
      "喷": 629,
      "喽": 630,
      "嗅": 631,
      "嗒": 632,
      "嗓": 633,
      "嗖": 634,
      "嗝": 635,
      "嗡": 636,
      "嗨": 637,
      "嗬": 638,
      "嗯": 639,
      "嗽": 640,
      "嘀": 641,
      "嘈": 642,
      "嘉": 643,
      "嘎": 644,
      "嘘": 645,
      "嘟": 646,
      "嘭": 647,
      "嘱": 648,
      "嘲": 649,
      "嘴": 650,
      "嘶": 651,
      "嘻": 652,
      "嘿": 653,
      "噎": 654,
      "噗": 655,
      "噜": 656,
      "噢": 657,
      "器": 658,
      "噩": 659,
      "噪": 660,
      "噬": 661,
      "噼": 662,
      "嚎": 663,
      "嚏": 664,
      "嚓": 665,
      "嚣": 666,
      "嚷": 667,
      "嚼": 668,
      "囊": 669,
      "囔": 670,
      "囚": 671,
      "四": 672,
      "回": 673,
      "因": 674,
      "团": 675,
      "园": 676,
      "困": 677,
      "囱": 678,
      "围": 679,
      "固": 680,
      "国": 681,
      "图": 682,
      "圆": 683,
      "圈": 684,
      "土": 685,
      "圣": 686,
      "在": 687,
      "地": 688,
      "场": 689,
      "圾": 690,
      "址": 691,
      "均": 692,
      "坊": 693,
      "坎": 694,
      "坏": 695,
      "坐": 696,
      "坑": 697,
      "块": 698,
      "坚": 699,
      "坛": 700,
      "坝": 701,
      "坟": 702,
      "坠": 703,
      "坡": 704,
      "坦": 705,
      "坪": 706,
      "坷": 707,
      "垂": 708,
      "垃": 709,
      "型": 710,
      "垒": 711,
      "垢": 712,
      "垫": 713,
      "垮": 714,
      "埃": 715,
      "埋": 716,
      "城": 717,
      "域": 718,
      "培": 719,
      "基": 720,
      "堂": 721,
      "堆": 722,
      "堡": 723,
      "堪": 724,
      "堵": 725,
      "塌": 726,
      "塑": 727,
      "塔": 728,
      "塘": 729,
      "塞": 730,
      "填": 731,
      "境": 732,
      "墅": 733,
      "墓": 734,
      "墙": 735,
      "增": 736,
      "墟": 737,
      "墨": 738,
      "壁": 739,
      "壤": 740,
      "士": 741,
      "壮": 742,
      "声": 743,
      "壳": 744,
      "壶": 745,
      "处": 746,
      "备": 747,
      "复": 748,
      "夏": 749,
      "夕": 750,
      "外": 751,
      "多": 752,
      "夜": 753,
      "够": 754,
      "大": 755,
      "天": 756,
      "太": 757,
      "夫": 758,
      "央": 759,
      "失": 760,
      "头": 761,
      "夷": 762,
      "夸": 763,
      "夹": 764,
      "夺": 765,
      "奇": 766,
      "奈": 767,
      "奉": 768,
      "奋": 769,
      "奎": 770,
      "奏": 771,
      "契": 772,
      "奔": 773,
      "奖": 774,
      "套": 775,
      "奢": 776,
      "奥": 777,
      "女": 778,
      "奶": 779,
      "奸": 780,
      "她": 781,
      "好": 782,
      "如": 783,
      "妆": 784,
      "妇": 785,
      "妈": 786,
      "妒": 787,
      "妖": 788,
      "妙": 789,
      "妞": 790,
      "妥": 791,
      "妨": 792,
      "妮": 793,
      "妹": 794,
      "妻": 795,
      "姆": 796,
      "始": 797,
      "姐": 798,
      "姑": 799,
      "姓": 800,
      "委": 801,
      "姜": 802,
      "姨": 803,
      "姬": 804,
      "姻": 805,
      "姿": 806,
      "威": 807,
      "娃": 808,
      "娅": 809,
      "娇": 810,
      "娘": 811,
      "娜": 812,
      "娩": 813,
      "娱": 814,
      "娶": 815,
      "婆": 816,
      "婚": 817,
      "婪": 818,
      "婴": 819,
      "婶": 820,
      "媚": 821,
      "嫁": 822,
      "嫉": 823,
      "嫩": 824,
      "嬉": 825,
      "子": 826,
      "孔": 827,
      "孕": 828,
      "字": 829,
      "存": 830,
      "孙": 831,
      "孚": 832,
      "季": 833,
      "孤": 834,
      "学": 835,
      "孩": 836,
      "孵": 837,
      "宁": 838,
      "它": 839,
      "宅": 840,
      "宇": 841,
      "守": 842,
      "安": 843,
      "完": 844,
      "宏": 845,
      "官": 846,
      "宙": 847,
      "定": 848,
      "宜": 849,
      "宝": 850,
      "实": 851,
      "宠": 852,
      "审": 853,
      "客": 854,
      "宣": 855,
      "室": 856,
      "宫": 857,
      "害": 858,
      "宴": 859,
      "家": 860,
      "容": 861,
      "宽": 862,
      "宾": 863,
      "宿": 864,
      "寂": 865,
      "寄": 866,
      "密": 867,
      "富": 868,
      "寐": 869,
      "寒": 870,
      "寓": 871,
      "寝": 872,
      "察": 873,
      "寸": 874,
      "对": 875,
      "寺": 876,
      "寻": 877,
      "导": 878,
      "寿": 879,
      "封": 880,
      "射": 881,
      "将": 882,
      "尊": 883,
      "小": 884,
      "少": 885,
      "尔": 886,
      "尖": 887,
      "尘": 888,
      "尚": 889,
      "尝": 890,
      "尤": 891,
      "尬": 892,
      "就": 893,
      "尴": 894,
      "尸": 895,
      "尺": 896,
      "尼": 897,
      "尽": 898,
      "尾": 899,
      "尿": 900,
      "局": 901,
      "屁": 902,
      "层": 903,
      "居": 904,
      "屈": 905,
      "屉": 906,
      "屋": 907,
      "屎": 908,
      "屏": 909,
      "屑": 910,
      "展": 911,
      "属": 912,
      "屠": 913,
      "履": 914,
      "山": 915,
      "屹": 916,
      "屿": 917,
      "岁": 918,
      "岔": 919,
      "岖": 920,
      "岗": 921,
      "岛": 922,
      "岩": 923,
      "岭": 924,
      "岸": 925,
      "峦": 926,
      "峭": 927,
      "峰": 928,
      "峻": 929,
      "崇": 930,
      "崎": 931,
      "崔": 932,
      "崖": 933,
      "崛": 934,
      "崩": 935,
      "崭": 936,
      "崽": 937,
      "嵌": 938,
      "巅": 939,
      "川": 940,
      "巡": 941,
      "巢": 942,
      "工": 943,
      "左": 944,
      "巧": 945,
      "巨": 946,
      "巫": 947,
      "差": 948,
      "己": 949,
      "已": 950,
      "巴": 951,
      "巷": 952,
      "巾": 953,
      "币": 954,
      "市": 955,
      "布": 956,
      "帅": 957,
      "帆": 958,
      "师": 959,
      "希": 960,
      "帐": 961,
      "帕": 962,
      "帖": 963,
      "帘": 964,
      "帚": 965,
      "帜": 966,
      "帝": 967,
      "带": 968,
      "席": 969,
      "帮": 970,
      "帷": 971,
      "常": 972,
      "帽": 973,
      "幅": 974,
      "幕": 975,
      "干": 976,
      "平": 977,
      "年": 978,
      "并": 979,
      "幸": 980,
      "幻": 981,
      "幼": 982,
      "幽": 983,
      "广": 984,
      "庄": 985,
      "庆": 986,
      "庇": 987,
      "床": 988,
      "序": 989,
      "库": 990,
      "应": 991,
      "底": 992,
      "店": 993,
      "庙": 994,
      "府": 995,
      "庞": 996,
      "废": 997,
      "度": 998,
      "座": 999,
      "庭": 1000,
      "康": 1001,
      "庸": 1002,
      "廉": 1003,
      "廊": 1004,
      "延": 1005,
      "建": 1006,
      "开": 1007,
      "异": 1008,
      "弃": 1009,
      "弄": 1010,
      "弊": 1011,
      "式": 1012,
      "弓": 1013,
      "引": 1014,
      "弗": 1015,
      "弟": 1016,
      "张": 1017,
      "弥": 1018,
      "弦": 1019,
      "弧": 1020,
      "弯": 1021,
      "弱": 1022,
      "弹": 1023,
      "强": 1024,
      "归": 1025,
      "当": 1026,
      "录": 1027,
      "彗": 1028,
      "形": 1029,
      "彩": 1030,
      "彬": 1031,
      "彰": 1032,
      "影": 1033,
      "役": 1034,
      "彻": 1035,
      "彼": 1036,
      "往": 1037,
      "征": 1038,
      "径": 1039,
      "待": 1040,
      "很": 1041,
      "徊": 1042,
      "律": 1043,
      "徐": 1044,
      "徒": 1045,
      "得": 1046,
      "徘": 1047,
      "御": 1048,
      "循": 1049,
      "微": 1050,
      "德": 1051,
      "徽": 1052,
      "心": 1053,
      "必": 1054,
      "忆": 1055,
      "忍": 1056,
      "志": 1057,
      "忘": 1058,
      "忙": 1059,
      "忠": 1060,
      "忡": 1061,
      "忧": 1062,
      "忪": 1063,
      "快": 1064,
      "念": 1065,
      "忽": 1066,
      "怀": 1067,
      "态": 1068,
      "怂": 1069,
      "怎": 1070,
      "怒": 1071,
      "怕": 1072,
      "怖": 1073,
      "怜": 1074,
      "思": 1075,
      "怡": 1076,
      "急": 1077,
      "性": 1078,
      "怨": 1079,
      "怪": 1080,
      "怯": 1081,
      "总": 1082,
      "恋": 1083,
      "恐": 1084,
      "恒": 1085,
      "恕": 1086,
      "恙": 1087,
      "恢": 1088,
      "恤": 1089,
      "恨": 1090,
      "恩": 1091,
      "恭": 1092,
      "息": 1093,
      "恰": 1094,
      "恳": 1095,
      "恶": 1096,
      "恼": 1097,
      "恿": 1098,
      "悄": 1099,
      "悉": 1100,
      "悍": 1101,
      "悔": 1102,
      "悚": 1103,
      "悟": 1104,
      "悠": 1105,
      "患": 1106,
      "悦": 1107,
      "您": 1108,
      "悬": 1109,
      "悯": 1110,
      "悲": 1111,
      "情": 1112,
      "惊": 1113,
      "惑": 1114,
      "惕": 1115,
      "惜": 1116,
      "惠": 1117,
      "惦": 1118,
      "惧": 1119,
      "惨": 1120,
      "惩": 1121,
      "惫": 1122,
      "惯": 1123,
      "惰": 1124,
      "想": 1125,
      "惹": 1126,
      "惺": 1127,
      "愁": 1128,
      "愈": 1129,
      "愉": 1130,
      "意": 1131,
      "愚": 1132,
      "感": 1133,
      "愣": 1134,
      "愤": 1135,
      "愧": 1136,
      "愿": 1137,
      "慈": 1138,
      "慌": 1139,
      "慎": 1140,
      "慕": 1141,
      "慢": 1142,
      "慧": 1143,
      "慨": 1144,
      "慰": 1145,
      "慵": 1146,
      "慷": 1147,
      "憎": 1148,
      "憩": 1149,
      "憾": 1150,
      "懂": 1151,
      "懈": 1152,
      "懒": 1153,
      "戈": 1154,
      "戏": 1155,
      "成": 1156,
      "我": 1157,
      "戒": 1158,
      "或": 1159,
      "战": 1160,
      "截": 1161,
      "戳": 1162,
      "戴": 1163,
      "户": 1164,
      "房": 1165,
      "所": 1166,
      "扁": 1167,
      "扇": 1168,
      "扉": 1169,
      "手": 1170,
      "才": 1171,
      "扎": 1172,
      "扑": 1173,
      "打": 1174,
      "扔": 1175,
      "托": 1176,
      "扛": 1177,
      "扣": 1178,
      "执": 1179,
      "扩": 1180,
      "扫": 1181,
      "扬": 1182,
      "扭": 1183,
      "扮": 1184,
      "扯": 1185,
      "扰": 1186,
      "扳": 1187,
      "扶": 1188,
      "批": 1189,
      "找": 1190,
      "承": 1191,
      "技": 1192,
      "抄": 1193,
      "把": 1194,
      "抑": 1195,
      "抓": 1196,
      "投": 1197,
      "抖": 1198,
      "抗": 1199,
      "折": 1200,
      "抚": 1201,
      "抛": 1202,
      "抢": 1203,
      "护": 1204,
      "报": 1205,
      "披": 1206,
      "抬": 1207,
      "抱": 1208,
      "抵": 1209,
      "抹": 1210,
      "押": 1211,
      "抽": 1212,
      "抿": 1213,
      "拂": 1214,
      "拄": 1215,
      "担": 1216,
      "拆": 1217,
      "拇": 1218,
      "拉": 1219,
      "拌": 1220,
      "拍": 1221,
      "拎": 1222,
      "拐": 1223,
      "拒": 1224,
      "拔": 1225,
      "拖": 1226,
      "拙": 1227,
      "招": 1228,
      "拜": 1229,
      "拢": 1230,
      "拣": 1231,
      "拥": 1232,
      "拦": 1233,
      "拧": 1234,
      "拨": 1235,
      "择": 1236,
      "括": 1237,
      "拭": 1238,
      "拯": 1239,
      "拳": 1240,
      "拴": 1241,
      "拼": 1242,
      "拽": 1243,
      "拾": 1244,
      "拿": 1245,
      "持": 1246,
      "挂": 1247,
      "指": 1248,
      "按": 1249,
      "挑": 1250,
      "挖": 1251,
      "挠": 1252,
      "挡": 1253,
      "挣": 1254,
      "挤": 1255,
      "挥": 1256,
      "挨": 1257,
      "挪": 1258,
      "挫": 1259,
      "振": 1260,
      "挺": 1261,
      "挽": 1262,
      "捂": 1263,
      "捆": 1264,
      "捉": 1265,
      "捍": 1266,
      "捏": 1267,
      "捐": 1268,
      "捕": 1269,
      "捞": 1270,
      "损": 1271,
      "捡": 1272,
      "换": 1273,
      "捣": 1274,
      "捧": 1275,
      "据": 1276,
      "捷": 1277,
      "捺": 1278,
      "捻": 1279,
      "掀": 1280,
      "掂": 1281,
      "授": 1282,
      "掉": 1283,
      "掌": 1284,
      "掏": 1285,
      "掐": 1286,
      "排": 1287,
      "掖": 1288,
      "掘": 1289,
      "掠": 1290,
      "探": 1291,
      "接": 1292,
      "控": 1293,
      "推": 1294,
      "掩": 1295,
      "措": 1296,
      "掰": 1297,
      "掷": 1298,
      "掸": 1299,
      "揉": 1300,
      "描": 1301,
      "提": 1302,
      "插": 1303,
      "握": 1304,
      "揣": 1305,
      "揪": 1306,
      "揭": 1307,
      "援": 1308,
      "搀": 1309,
      "搁": 1310,
      "搂": 1311,
      "搅": 1312,
      "搏": 1313,
      "搐": 1314,
      "搓": 1315,
      "搜": 1316,
      "搞": 1317,
      "搡": 1318,
      "搬": 1319,
      "搭": 1320,
      "携": 1321,
      "摄": 1322,
      "摆": 1323,
      "摇": 1324,
      "摊": 1325,
      "摔": 1326,
      "摘": 1327,
      "摞": 1328,
      "摧": 1329,
      "摩": 1330,
      "摸": 1331,
      "撅": 1332,
      "撑": 1333,
      "撒": 1334,
      "撕": 1335,
      "撞": 1336,
      "撤": 1337,
      "撬": 1338,
      "播": 1339,
      "撮": 1340,
      "撼": 1341,
      "擀": 1342,
      "擂": 1343,
      "擅": 1344,
      "操": 1345,
      "擎": 1346,
      "擞": 1347,
      "擤": 1348,
      "擦": 1349,
      "攀": 1350,
      "攒": 1351,
      "攘": 1352,
      "支": 1353,
      "收": 1354,
      "改": 1355,
      "攻": 1356,
      "放": 1357,
      "政": 1358,
      "故": 1359,
      "效": 1360,
      "敌": 1361,
      "敏": 1362,
      "救": 1363,
      "教": 1364,
      "敞": 1365,
      "敢": 1366,
      "散": 1367,
      "敦": 1368,
      "敬": 1369,
      "数": 1370,
      "敲": 1371,
      "整": 1372,
      "敷": 1373,
      "文": 1374,
      "斑": 1375,
      "斓": 1376,
      "斗": 1377,
      "料": 1378,
      "斜": 1379,
      "斤": 1380,
      "斥": 1381,
      "斧": 1382,
      "斩": 1383,
      "断": 1384,
      "斯": 1385,
      "新": 1386,
      "方": 1387,
      "施": 1388,
      "旁": 1389,
      "旅": 1390,
      "旋": 1391,
      "族": 1392,
      "旗": 1393,
      "无": 1394,
      "既": 1395,
      "日": 1396,
      "旦": 1397,
      "旧": 1398,
      "旨": 1399,
      "早": 1400,
      "旱": 1401,
      "时": 1402,
      "旷": 1403,
      "旺": 1404,
      "昂": 1405,
      "昆": 1406,
      "明": 1407,
      "昏": 1408,
      "易": 1409,
      "昔": 1410,
      "星": 1411,
      "映": 1412,
      "春": 1413,
      "昨": 1414,
      "是": 1415,
      "昼": 1416,
      "显": 1417,
      "晃": 1418,
      "晒": 1419,
      "晓": 1420,
      "晕": 1421,
      "晚": 1422,
      "晨": 1423,
      "普": 1424,
      "景": 1425,
      "晰": 1426,
      "晴": 1427,
      "晶": 1428,
      "智": 1429,
      "晾": 1430,
      "暂": 1431,
      "暇": 1432,
      "暑": 1433,
      "暖": 1434,
      "暗": 1435,
      "暴": 1436,
      "曙": 1437,
      "曲": 1438,
      "曳": 1439,
      "更": 1440,
      "曼": 1441,
      "曾": 1442,
      "替": 1443,
      "最": 1444,
      "月": 1445,
      "有": 1446,
      "朋": 1447,
      "服": 1448,
      "朗": 1449,
      "望": 1450,
      "朝": 1451,
      "期": 1452,
      "木": 1453,
      "未": 1454,
      "末": 1455,
      "本": 1456,
      "术": 1457,
      "朱": 1458,
      "朴": 1459,
      "朵": 1460,
      "机": 1461,
      "杀": 1462,
      "杂": 1463,
      "权": 1464,
      "杆": 1465,
      "李": 1466,
      "材": 1467,
      "村": 1468,
      "杖": 1469,
      "杜": 1470,
      "束": 1471,
      "杠": 1472,
      "条": 1473,
      "来": 1474,
      "杯": 1475,
      "杰": 1476,
      "松": 1477,
      "板": 1478,
      "极": 1479,
      "构": 1480,
      "析": 1481,
      "枕": 1482,
      "林": 1483,
      "枚": 1484,
      "果": 1485,
      "枝": 1486,
      "枪": 1487,
      "枫": 1488,
      "枯": 1489,
      "架": 1490,
      "柄": 1491,
      "某": 1492,
      "染": 1493,
      "柔": 1494,
      "柜": 1495,
      "柠": 1496,
      "查": 1497,
      "柬": 1498,
      "柱": 1499,
      "柳": 1500,
      "柴": 1501,
      "柿": 1502,
      "栅": 1503,
      "标": 1504,
      "栈": 1505,
      "栋": 1506,
      "栏": 1507,
      "树": 1508,
      "栓": 1509,
      "栖": 1510,
      "栗": 1511,
      "校": 1512,
      "栩": 1513,
      "株": 1514,
      "样": 1515,
      "核": 1516,
      "根": 1517,
      "格": 1518,
      "桂": 1519,
      "桃": 1520,
      "桅": 1521,
      "框": 1522,
      "案": 1523,
      "桌": 1524,
      "桑": 1525,
      "档": 1526,
      "桥": 1527,
      "桨": 1528,
      "桩": 1529,
      "桶": 1530,
      "梁": 1531,
      "梅": 1532,
      "梦": 1533,
      "梧": 1534,
      "梨": 1535,
      "梭": 1536,
      "梯": 1537,
      "械": 1538,
      "梳": 1539,
      "检": 1540,
      "棉": 1541,
      "棋": 1542,
      "棍": 1543,
      "棒": 1544,
      "棕": 1545,
      "棘": 1546,
      "棚": 1547,
      "森": 1548,
      "棵": 1549,
      "椅": 1550,
      "植": 1551,
      "椒": 1552,
      "椭": 1553,
      "椰": 1554,
      "椴": 1555,
      "楚": 1556,
      "楼": 1557,
      "概": 1558,
      "榄": 1559,
      "榈": 1560,
      "榜": 1561,
      "榨": 1562,
      "槌": 1563,
      "槽": 1564,
      "模": 1565,
      "横": 1566,
      "樱": 1567,
      "樵": 1568,
      "橄": 1569,
      "橇": 1570,
      "橘": 1571,
      "橙": 1572,
      "橡": 1573,
      "橱": 1574,
      "檬": 1575,
      "欠": 1576,
      "次": 1577,
      "欢": 1578,
      "欣": 1579,
      "欧": 1580,
      "欲": 1581,
      "欺": 1582,
      "款": 1583,
      "歇": 1584,
      "歉": 1585,
      "歌": 1586,
      "止": 1587,
      "正": 1588,
      "此": 1589,
      "步": 1590,
      "武": 1591,
      "歧": 1592,
      "歪": 1593,
      "死": 1594,
      "殊": 1595,
      "残": 1596,
      "殖": 1597,
      "殴": 1598,
      "段": 1599,
      "殿": 1600,
      "毁": 1601,
      "毅": 1602,
      "母": 1603,
      "每": 1604,
      "毒": 1605,
      "比": 1606,
      "毕": 1607,
      "毙": 1608,
      "毛": 1609,
      "毫": 1610,
      "毯": 1611,
      "民": 1612,
      "氓": 1613,
      "气": 1614,
      "氛": 1615,
      "氧": 1616,
      "水": 1617,
      "永": 1618,
      "汀": 1619,
      "汁": 1620,
      "求": 1621,
      "汇": 1622,
      "汉": 1623,
      "汐": 1624,
      "汗": 1625,
      "池": 1626,
      "污": 1627,
      "汤": 1628,
      "汪": 1629,
      "汹": 1630,
      "汽": 1631,
      "沃": 1632,
      "沉": 1633,
      "沐": 1634,
      "沙": 1635,
      "沛": 1636,
      "沟": 1637,
      "没": 1638,
      "沥": 1639,
      "沫": 1640,
      "沮": 1641,
      "河": 1642,
      "沸": 1643,
      "油": 1644,
      "治": 1645,
      "沼": 1646,
      "沾": 1647,
      "沿": 1648,
      "泄": 1649,
      "泉": 1650,
      "泊": 1651,
      "法": 1652,
      "泛": 1653,
      "泞": 1654,
      "泡": 1655,
      "波": 1656,
      "泣": 1657,
      "泥": 1658,
      "注": 1659,
      "泪": 1660,
      "泰": 1661,
      "泳": 1662,
      "泵": 1663,
      "泻": 1664,
      "泼": 1665,
      "泽": 1666,
      "洁": 1667,
      "洋": 1668,
      "洒": 1669,
      "洗": 1670,
      "洛": 1671,
      "洞": 1672,
      "津": 1673,
      "洪": 1674,
      "洲": 1675,
      "活": 1676,
      "洼": 1677,
      "洽": 1678,
      "派": 1679,
      "流": 1680,
      "浅": 1681,
      "浆": 1682,
      "浇": 1683,
      "浊": 1684,
      "测": 1685,
      "济": 1686,
      "浏": 1687,
      "浑": 1688,
      "浓": 1689,
      "浣": 1690,
      "浩": 1691,
      "浪": 1692,
      "浮": 1693,
      "浴": 1694,
      "海": 1695,
      "浸": 1696,
      "涂": 1697,
      "消": 1698,
      "涉": 1699,
      "涌": 1700,
      "涎": 1701,
      "涕": 1702,
      "涛": 1703,
      "涟": 1704,
      "涡": 1705,
      "涤": 1706,
      "润": 1707,
      "涨": 1708,
      "涩": 1709,
      "液": 1710,
      "涸": 1711,
      "淆": 1712,
      "淇": 1713,
      "淋": 1714,
      "淌": 1715,
      "淘": 1716,
      "淡": 1717,
      "深": 1718,
      "混": 1719,
      "淹": 1720,
      "添": 1721,
      "清": 1722,
      "渊": 1723,
      "渍": 1724,
      "渐": 1725,
      "渔": 1726,
      "渗": 1727,
      "渡": 1728,
      "渣": 1729,
      "温": 1730,
      "港": 1731,
      "渴": 1732,
      "游": 1733,
      "渺": 1734,
      "湍": 1735,
      "湖": 1736,
      "湾": 1737,
      "湿": 1738,
      "溃": 1739,
      "溅": 1740,
      "源": 1741,
      "溜": 1742,
      "溢": 1743,
      "溪": 1744,
      "溶": 1745,
      "溺": 1746,
      "滋": 1747,
      "滑": 1748,
      "滕": 1749,
      "滚": 1750,
      "滞": 1751,
      "满": 1752,
      "滥": 1753,
      "滨": 1754,
      "滩": 1755,
      "滴": 1756,
      "漂": 1757,
      "漆": 1758,
      "漉": 1759,
      "漏": 1760,
      "演": 1761,
      "漠": 1762,
      "漩": 1763,
      "漪": 1764,
      "漫": 1765,
      "漱": 1766,
      "潘": 1767,
      "潜": 1768,
      "潭": 1769,
      "潮": 1770,
      "潺": 1771,
      "澈": 1772,
      "澜": 1773,
      "澡": 1774,
      "激": 1775,
      "瀑": 1776,
      "瀚": 1777,
      "灌": 1778,
      "火": 1779,
      "灭": 1780,
      "灯": 1781,
      "灰": 1782,
      "灵": 1783,
      "灶": 1784,
      "灼": 1785,
      "灾": 1786,
      "灿": 1787,
      "炉": 1788,
      "炎": 1789,
      "炒": 1790,
      "炖": 1791,
      "炙": 1792,
      "炫": 1793,
      "炭": 1794,
      "炮": 1795,
      "炸": 1796,
      "点": 1797,
      "炼": 1798,
      "炽": 1799,
      "烁": 1800,
      "烂": 1801,
      "烈": 1802,
      "烘": 1803,
      "烛": 1804,
      "烟": 1805,
      "烤": 1806,
      "烦": 1807,
      "烧": 1808,
      "烫": 1809,
      "烬": 1810,
      "热": 1811,
      "烹": 1812,
      "焕": 1813,
      "焙": 1814,
      "焦": 1815,
      "焰": 1816,
      "然": 1817,
      "煌": 1818,
      "煎": 1819,
      "煤": 1820,
      "煦": 1821,
      "照": 1822,
      "煮": 1823,
      "熄": 1824,
      "熊": 1825,
      "熏": 1826,
      "熔": 1827,
      "熙": 1828,
      "熟": 1829,
      "熨": 1830,
      "熬": 1831,
      "燃": 1832,
      "燕": 1833,
      "燥": 1834,
      "爆": 1835,
      "爪": 1836,
      "爬": 1837,
      "爱": 1838,
      "爵": 1839,
      "父": 1840,
      "爷": 1841,
      "爸": 1842,
      "爹": 1843,
      "爽": 1844,
      "片": 1845,
      "版": 1846,
      "牌": 1847,
      "牙": 1848,
      "牛": 1849,
      "牡": 1850,
      "牢": 1851,
      "牧": 1852,
      "物": 1853,
      "牲": 1854,
      "牵": 1855,
      "特": 1856,
      "牺": 1857,
      "犀": 1858,
      "犁": 1859,
      "犊": 1860,
      "犬": 1861,
      "犯": 1862,
      "状": 1863,
      "犷": 1864,
      "犹": 1865,
      "狂": 1866,
      "狈": 1867,
      "狐": 1868,
      "狗": 1869,
      "狠": 1870,
      "狡": 1871,
      "狩": 1872,
      "独": 1873,
      "狭": 1874,
      "狮": 1875,
      "狱": 1876,
      "狸": 1877,
      "狼": 1878,
      "猎": 1879,
      "猕": 1880,
      "猛": 1881,
      "猜": 1882,
      "猩": 1883,
      "猪": 1884,
      "猫": 1885,
      "猬": 1886,
      "献": 1887,
      "猴": 1888,
      "猾": 1889,
      "獭": 1890,
      "獾": 1891,
      "玄": 1892,
      "率": 1893,
      "玉": 1894,
      "王": 1895,
      "玛": 1896,
      "玩": 1897,
      "玫": 1898,
      "环": 1899,
      "现": 1900,
      "玻": 1901,
      "珀": 1902,
      "珊": 1903,
      "珍": 1904,
      "珠": 1905,
      "班": 1906,
      "球": 1907,
      "理": 1908,
      "琪": 1909,
      "琳": 1910,
      "琴": 1911,
      "琼": 1912,
      "瑚": 1913,
      "瑜": 1914,
      "瑞": 1915,
      "瑟": 1916,
      "瑰": 1917,
      "璀": 1918,
      "璃": 1919,
      "璨": 1920,
      "瓜": 1921,
      "瓢": 1922,
      "瓣": 1923,
      "瓦": 1924,
      "瓶": 1925,
      "瓷": 1926,
      "甘": 1927,
      "甚": 1928,
      "甜": 1929,
      "生": 1930,
      "用": 1931,
      "甩": 1932,
      "田": 1933,
      "由": 1934,
      "甲": 1935,
      "申": 1936,
      "电": 1937,
      "男": 1938,
      "甸": 1939,
      "画": 1940,
      "畅": 1941,
      "界": 1942,
      "畏": 1943,
      "留": 1944,
      "畜": 1945,
      "略": 1946,
      "番": 1947,
      "疏": 1948,
      "疑": 1949,
      "疗": 1950,
      "疙": 1951,
      "疚": 1952,
      "疤": 1953,
      "疫": 1954,
      "疯": 1955,
      "疲": 1956,
      "疹": 1957,
      "疼": 1958,
      "疾": 1959,
      "病": 1960,
      "症": 1961,
      "痊": 1962,
      "痒": 1963,
      "痕": 1964,
      "痛": 1965,
      "痣": 1966,
      "瘀": 1967,
      "瘙": 1968,
      "瘦": 1969,
      "瘩": 1970,
      "瘪": 1971,
      "瘫": 1972,
      "瘸": 1973,
      "登": 1974,
      "白": 1975,
      "百": 1976,
      "皂": 1977,
      "的": 1978,
      "皆": 1979,
      "皇": 1980,
      "皑": 1981,
      "皙": 1982,
      "皮": 1983,
      "皱": 1984,
      "盆": 1985,
      "盈": 1986,
      "益": 1987,
      "盎": 1988,
      "盏": 1989,
      "盐": 1990,
      "监": 1991,
      "盒": 1992,
      "盔": 1993,
      "盖": 1994,
      "盗": 1995,
      "盘": 1996,
      "盛": 1997,
      "目": 1998,
      "盯": 1999,
      "直": 2000,
      "相": 2001,
      "盹": 2002,
      "盼": 2003,
      "盾": 2004,
      "省": 2005,
      "眉": 2006,
      "看": 2007,
      "真": 2008,
      "眠": 2009,
      "眨": 2010,
      "眩": 2011,
      "眯": 2012,
      "眶": 2013,
      "眺": 2014,
      "眼": 2015,
      "着": 2016,
      "睁": 2017,
      "睛": 2018,
      "睡": 2019,
      "督": 2020,
      "睦": 2021,
      "睬": 2022,
      "睹": 2023,
      "睿": 2024,
      "瞄": 2025,
      "瞌": 2026,
      "瞒": 2027,
      "瞥": 2028,
      "瞧": 2029,
      "瞪": 2030,
      "瞬": 2031,
      "瞰": 2032,
      "瞳": 2033,
      "矗": 2034,
      "矛": 2035,
      "矢": 2036,
      "知": 2037,
      "矩": 2038,
      "短": 2039,
      "矮": 2040,
      "石": 2041,
      "矿": 2042,
      "码": 2043,
      "砂": 2044,
      "砌": 2045,
      "砍": 2046,
      "研": 2047,
      "砖": 2048,
      "砰": 2049,
      "破": 2050,
      "砸": 2051,
      "础": 2052,
      "硕": 2053,
      "硬": 2054,
      "确": 2055,
      "碌": 2056,
      "碍": 2057,
      "碎": 2058,
      "碗": 2059,
      "碟": 2060,
      "碧": 2061,
      "碰": 2062,
      "碾": 2063,
      "磁": 2064,
      "磅": 2065,
      "磨": 2066,
      "礁": 2067,
      "示": 2068,
      "礼": 2069,
      "社": 2070,
      "祈": 2071,
      "祖": 2072,
      "祝": 2073,
      "神": 2074,
      "祟": 2075,
      "祥": 2076,
      "票": 2077,
      "祭": 2078,
      "祷": 2079,
      "祸": 2080,
      "禀": 2081,
      "禁": 2082,
      "福": 2083,
      "离": 2084,
      "秀": 2085,
      "私": 2086,
      "秃": 2087,
      "秆": 2088,
      "秋": 2089,
      "种": 2090,
      "科": 2091,
      "秒": 2092,
      "秘": 2093,
      "租": 2094,
      "秤": 2095,
      "秩": 2096,
      "积": 2097,
      "称": 2098,
      "移": 2099,
      "稀": 2100,
      "程": 2101,
      "稍": 2102,
      "稠": 2103,
      "稣": 2104,
      "稳": 2105,
      "稻": 2106,
      "稼": 2107,
      "稽": 2108,
      "穆": 2109,
      "穗": 2110,
      "穴": 2111,
      "究": 2112,
      "穷": 2113,
      "空": 2114,
      "穿": 2115,
      "突": 2116,
      "窃": 2117,
      "窄": 2118,
      "窍": 2119,
      "窒": 2120,
      "窗": 2121,
      "窜": 2122,
      "窝": 2123,
      "窣": 2124,
      "窥": 2125,
      "窸": 2126,
      "立": 2127,
      "竖": 2128,
      "站": 2129,
      "竞": 2130,
      "竟": 2131,
      "章": 2132,
      "竣": 2133,
      "童": 2134,
      "竭": 2135,
      "端": 2136,
      "竹": 2137,
      "竿": 2138,
      "笆": 2139,
      "笑": 2140,
      "笔": 2141,
      "笛": 2142,
      "符": 2143,
      "笨": 2144,
      "第": 2145,
      "笼": 2146,
      "等": 2147,
      "筋": 2148,
      "筏": 2149,
      "筐": 2150,
      "筑": 2151,
      "筒": 2152,
      "答": 2153,
      "策": 2154,
      "筝": 2155,
      "筵": 2156,
      "筹": 2157,
      "签": 2158,
      "简": 2159,
      "箍": 2160,
      "箔": 2161,
      "箕": 2162,
      "算": 2163,
      "管": 2164,
      "箭": 2165,
      "箱": 2166,
      "篇": 2167,
      "篝": 2168,
      "篮": 2169,
      "篱": 2170,
      "篷": 2171,
      "簧": 2172,
      "簸": 2173,
      "簿": 2174,
      "籍": 2175,
      "米": 2176,
      "类": 2177,
      "籽": 2178,
      "粉": 2179,
      "粒": 2180,
      "粗": 2181,
      "粘": 2182,
      "粟": 2183,
      "粥": 2184,
      "粪": 2185,
      "粮": 2186,
      "粼": 2187,
      "精": 2188,
      "糊": 2189,
      "糕": 2190,
      "糖": 2191,
      "糙": 2192,
      "糟": 2193,
      "系": 2194,
      "素": 2195,
      "索": 2196,
      "紧": 2197,
      "紫": 2198,
      "累": 2199,
      "繁": 2200,
      "纠": 2201,
      "红": 2202,
      "纤": 2203,
      "约": 2204,
      "级": 2205,
      "纪": 2206,
      "纫": 2207,
      "纬": 2208,
      "纯": 2209,
      "纱": 2210,
      "纳": 2211,
      "纵": 2212,
      "纷": 2213,
      "纸": 2214,
      "纹": 2215,
      "纺": 2216,
      "纽": 2217,
      "线": 2218,
      "练": 2219,
      "组": 2220,
      "绅": 2221,
      "细": 2222,
      "织": 2223,
      "终": 2224,
      "绊": 2225,
      "绍": 2226,
      "经": 2227,
      "绑": 2228,
      "绒": 2229,
      "结": 2230,
      "绕": 2231,
      "绘": 2232,
      "给": 2233,
      "绚": 2234,
      "络": 2235,
      "绝": 2236,
      "绞": 2237,
      "统": 2238,
      "继": 2239,
      "绩": 2240,
      "绪": 2241,
      "续": 2242,
      "绳": 2243,
      "维": 2244,
      "绵": 2245,
      "绷": 2246,
      "绸": 2247,
      "绽": 2248,
      "绿": 2249,
      "缆": 2250,
      "缓": 2251,
      "缕": 2252,
      "编": 2253,
      "缘": 2254,
      "缚": 2255,
      "缝": 2256,
      "缠": 2257,
      "缤": 2258,
      "缩": 2259,
      "缪": 2260,
      "缭": 2261,
      "缮": 2262,
      "缰": 2263,
      "缸": 2264,
      "缺": 2265,
      "罂": 2266,
      "罐": 2267,
      "网": 2268,
      "罕": 2269,
      "罗": 2270,
      "罚": 2271,
      "罢": 2272,
      "罩": 2273,
      "罪": 2274,
      "置": 2275,
      "署": 2276,
      "羊": 2277,
      "美": 2278,
      "羔": 2279,
      "羞": 2280,
      "羡": 2281,
      "群": 2282,
      "羹": 2283,
      "羽": 2284,
      "翁": 2285,
      "翅": 2286,
      "翔": 2287,
      "翠": 2288,
      "翩": 2289,
      "翰": 2290,
      "翱": 2291,
      "翻": 2292,
      "翼": 2293,
      "耀": 2294,
      "老": 2295,
      "考": 2296,
      "者": 2297,
      "而": 2298,
      "耍": 2299,
      "耐": 2300,
      "耕": 2301,
      "耗": 2302,
      "耙": 2303,
      "耳": 2304,
      "耶": 2305,
      "耷": 2306,
      "耸": 2307,
      "耻": 2308,
      "耽": 2309,
      "聆": 2310,
      "聊": 2311,
      "聋": 2312,
      "职": 2313,
      "联": 2314,
      "聘": 2315,
      "聚": 2316,
      "聪": 2317,
      "肃": 2318,
      "肆": 2319,
      "肉": 2320,
      "肌": 2321,
      "肖": 2322,
      "肘": 2323,
      "肚": 2324,
      "肠": 2325,
      "股": 2326,
      "肢": 2327,
      "肤": 2328,
      "肥": 2329,
      "肩": 2330,
      "肪": 2331,
      "肮": 2332,
      "肯": 2333,
      "育": 2334,
      "肴": 2335,
      "肺": 2336,
      "肿": 2337,
      "胀": 2338,
      "胁": 2339,
      "胃": 2340,
      "胆": 2341,
      "背": 2342,
      "胎": 2343,
      "胖": 2344,
      "胜": 2345,
      "胞": 2346,
      "胡": 2347,
      "胳": 2348,
      "胶": 2349,
      "胸": 2350,
      "能": 2351,
      "脂": 2352,
      "脆": 2353,
      "脉": 2354,
      "脊": 2355,
      "脏": 2356,
      "脑": 2357,
      "脖": 2358,
      "脚": 2359,
      "脱": 2360,
      "脸": 2361,
      "脾": 2362,
      "腋": 2363,
      "腐": 2364,
      "腔": 2365,
      "腕": 2366,
      "腥": 2367,
      "腮": 2368,
      "腰": 2369,
      "腹": 2370,
      "腻": 2371,
      "腾": 2372,
      "腿": 2373,
      "膀": 2374,
      "膊": 2375,
      "膏": 2376,
      "膛": 2377,
      "膜": 2378,
      "膝": 2379,
      "膨": 2380,
      "膳": 2381,
      "臀": 2382,
      "臂": 2383,
      "臣": 2384,
      "自": 2385,
      "臭": 2386,
      "至": 2387,
      "致": 2388,
      "舀": 2389,
      "舅": 2390,
      "舌": 2391,
      "舍": 2392,
      "舐": 2393,
      "舒": 2394,
      "舔": 2395,
      "舞": 2396,
      "舟": 2397,
      "航": 2398,
      "般": 2399,
      "舰": 2400,
      "舱": 2401,
      "舵": 2402,
      "船": 2403,
      "艇": 2404,
      "艘": 2405,
      "良": 2406,
      "艰": 2407,
      "色": 2408,
      "艳": 2409,
      "艺": 2410,
      "艾": 2411,
      "节": 2412,
      "芒": 2413,
      "芙": 2414,
      "芝": 2415,
      "芥": 2416,
      "芦": 2417,
      "芬": 2418,
      "芭": 2419,
      "芯": 2420,
      "花": 2421,
      "芳": 2422,
      "芹": 2423,
      "芽": 2424,
      "苇": 2425,
      "苍": 2426,
      "苏": 2427,
      "苔": 2428,
      "苗": 2429,
      "苛": 2430,
      "若": 2431,
      "苦": 2432,
      "英": 2433,
      "苹": 2434,
      "茁": 2435,
      "茂": 2436,
      "范": 2437,
      "茄": 2438,
      "茅": 2439,
      "茉": 2440,
      "茎": 2441,
      "茛": 2442,
      "茜": 2443,
      "茧": 2444,
      "茨": 2445,
      "茫": 2446,
      "茵": 2447,
      "茶": 2448,
      "茸": 2449,
      "荆": 2450,
      "草": 2451,
      "荐": 2452,
      "荒": 2453,
      "荚": 2454,
      "荡": 2455,
      "荣": 2456,
      "荧": 2457,
      "荫": 2458,
      "药": 2459,
      "荷": 2460,
      "莉": 2461,
      "莎": 2462,
      "莓": 2463,
      "莫": 2464,
      "莱": 2465,
      "莲": 2466,
      "获": 2467,
      "莹": 2468,
      "莽": 2469,
      "菇": 2470,
      "菊": 2471,
      "菌": 2472,
      "菜": 2473,
      "菠": 2474,
      "菲": 2475,
      "萄": 2476,
      "萌": 2477,
      "萍": 2478,
      "萎": 2479,
      "萝": 2480,
      "萤": 2481,
      "营": 2482,
      "萨": 2483,
      "落": 2484,
      "著": 2485,
      "葡": 2486,
      "董": 2487,
      "葬": 2488,
      "葱": 2489,
      "葵": 2490,
      "蒂": 2491,
      "蒙": 2492,
      "蒜": 2493,
      "蒲": 2494,
      "蒸": 2495,
      "蓄": 2496,
      "蓉": 2497,
      "蓝": 2498,
      "蓬": 2499,
      "蔓": 2500,
      "蔚": 2501,
      "蔬": 2502,
      "蔷": 2503,
      "蔼": 2504,
      "蔽": 2505,
      "蕉": 2506,
      "蕴": 2507,
      "蕾": 2508,
      "薄": 2509,
      "薇": 2510,
      "薯": 2511,
      "薰": 2512,
      "藉": 2513,
      "藏": 2514,
      "藓": 2515,
      "藤": 2516,
      "藻": 2517,
      "蘑": 2518,
      "蘸": 2519,
      "虎": 2520,
      "虐": 2521,
      "虑": 2522,
      "虚": 2523,
      "虞": 2524,
      "虫": 2525,
      "虹": 2526,
      "虽": 2527,
      "虾": 2528,
      "蚁": 2529,
      "蚂": 2530,
      "蚊": 2531,
      "蚤": 2532,
      "蚪": 2533,
      "蚱": 2534,
      "蛀": 2535,
      "蛇": 2536,
      "蛋": 2537,
      "蛎": 2538,
      "蛙": 2539,
      "蛛": 2540,
      "蛤": 2541,
      "蛮": 2542,
      "蛰": 2543,
      "蜂": 2544,
      "蜇": 2545,
      "蜊": 2546,
      "蜍": 2547,
      "蜒": 2548,
      "蜓": 2549,
      "蜗": 2550,
      "蜘": 2551,
      "蜜": 2552,
      "蜡": 2553,
      "蜢": 2554,
      "蜥": 2555,
      "蜴": 2556,
      "蜷": 2557,
      "蜻": 2558,
      "蜿": 2559,
      "蝇": 2560,
      "蝌": 2561,
      "蝙": 2562,
      "蝠": 2563,
      "蝴": 2564,
      "蝶": 2565,
      "螃": 2566,
      "融": 2567,
      "螺": 2568,
      "蟀": 2569,
      "蟋": 2570,
      "蟹": 2571,
      "蟾": 2572,
      "蠕": 2573,
      "蠖": 2574,
      "蠢": 2575,
      "血": 2576,
      "衅": 2577,
      "行": 2578,
      "衔": 2579,
      "街": 2580,
      "衡": 2581,
      "衣": 2582,
      "补": 2583,
      "表": 2584,
      "衫": 2585,
      "衬": 2586,
      "衷": 2587,
      "袋": 2588,
      "袍": 2589,
      "袖": 2590,
      "袜": 2591,
      "被": 2592,
      "袭": 2593,
      "裁": 2594,
      "裂": 2595,
      "装": 2596,
      "裕": 2597,
      "裙": 2598,
      "裤": 2599,
      "裹": 2600,
      "裾": 2601,
      "褂": 2602,
      "褐": 2603,
      "褪": 2604,
      "褶": 2605,
      "西": 2606,
      "要": 2607,
      "覆": 2608,
      "见": 2609,
      "观": 2610,
      "规": 2611,
      "视": 2612,
      "览": 2613,
      "觉": 2614,
      "觑": 2615,
      "角": 2616,
      "解": 2617,
      "触": 2618,
      "言": 2619,
      "詹": 2620,
      "誉": 2621,
      "誓": 2622,
      "警": 2623,
      "计": 2624,
      "订": 2625,
      "认": 2626,
      "讨": 2627,
      "让": 2628,
      "训": 2629,
      "议": 2630,
      "讯": 2631,
      "记": 2632,
      "讲": 2633,
      "讶": 2634,
      "许": 2635,
      "论": 2636,
      "设": 2637,
      "访": 2638,
      "诀": 2639,
      "证": 2640,
      "评": 2641,
      "诅": 2642,
      "识": 2643,
      "诉": 2644,
      "诊": 2645,
      "词": 2646,
      "试": 2647,
      "诗": 2648,
      "诚": 2649,
      "话": 2650,
      "诞": 2651,
      "诡": 2652,
      "询": 2653,
      "该": 2654,
      "详": 2655,
      "诫": 2656,
      "语": 2657,
      "误": 2658,
      "诱": 2659,
      "诲": 2660,
      "说": 2661,
      "诵": 2662,
      "请": 2663,
      "诸": 2664,
      "诺": 2665,
      "读": 2666,
      "课": 2667,
      "谁": 2668,
      "调": 2669,
      "谅": 2670,
      "谈": 2671,
      "谊": 2672,
      "谋": 2673,
      "谍": 2674,
      "谎": 2675,
      "谐": 2676,
      "谓": 2677,
      "谜": 2678,
      "谢": 2679,
      "谦": 2680,
      "谨": 2681,
      "谱": 2682,
      "谷": 2683,
      "豆": 2684,
      "豌": 2685,
      "豚": 2686,
      "象": 2687,
      "豪": 2688,
      "豫": 2689,
      "豹": 2690,
      "貌": 2691,
      "贝": 2692,
      "负": 2693,
      "贡": 2694,
      "财": 2695,
      "责": 2696,
      "败": 2697,
      "账": 2698,
      "货": 2699,
      "质": 2700,
      "贩": 2701,
      "贪": 2702,
      "贫": 2703,
      "购": 2704,
      "贯": 2705,
      "贴": 2706,
      "贵": 2707,
      "贷": 2708,
      "贸": 2709,
      "费": 2710,
      "贺": 2711,
      "贼": 2712,
      "贾": 2713,
      "资": 2714,
      "赋": 2715,
      "赌": 2716,
      "赏": 2717,
      "赐": 2718,
      "赔": 2719,
      "赖": 2720,
      "赚": 2721,
      "赛": 2722,
      "赞": 2723,
      "赠": 2724,
      "赢": 2725,
      "赤": 2726,
      "赫": 2727,
      "走": 2728,
      "赴": 2729,
      "赶": 2730,
      "起": 2731,
      "趁": 2732,
      "超": 2733,
      "越": 2734,
      "趟": 2735,
      "趣": 2736,
      "足": 2737,
      "趴": 2738,
      "趾": 2739,
      "跃": 2740,
      "跄": 2741,
      "跋": 2742,
      "跌": 2743,
      "跑": 2744,
      "跚": 2745,
      "距": 2746,
      "跟": 2747,
      "跤": 2748,
      "跨": 2749,
      "跪": 2750,
      "路": 2751,
      "跳": 2752,
      "践": 2753,
      "跷": 2754,
      "跺": 2755,
      "踉": 2756,
      "踏": 2757,
      "踝": 2758,
      "踢": 2759,
      "踩": 2760,
      "踪": 2761,
      "踮": 2762,
      "踱": 2763,
      "蹄": 2764,
      "蹈": 2765,
      "蹑": 2766,
      "蹒": 2767,
      "蹦": 2768,
      "蹬": 2769,
      "蹭": 2770,
      "蹲": 2771,
      "蹼": 2772,
      "蹿": 2773,
      "躁": 2774,
      "身": 2775,
      "躬": 2776,
      "躯": 2777,
      "躲": 2778,
      "躺": 2779,
      "车": 2780,
      "轨": 2781,
      "转": 2782,
      "轮": 2783,
      "软": 2784,
      "轰": 2785,
      "轴": 2786,
      "轻": 2787,
      "载": 2788,
      "轿": 2789,
      "较": 2790,
      "辅": 2791,
      "辆": 2792,
      "辈": 2793,
      "辉": 2794,
      "辑": 2795,
      "输": 2796,
      "辙": 2797,
      "辛": 2798,
      "辜": 2799,
      "辞": 2800,
      "辟": 2801,
      "辣": 2802,
      "辨": 2803,
      "辩": 2804,
      "辫": 2805,
      "辰": 2806,
      "辱": 2807,
      "边": 2808,
      "达": 2809,
      "迄": 2810,
      "迅": 2811,
      "过": 2812,
      "迈": 2813,
      "迎": 2814,
      "运": 2815,
      "近": 2816,
      "返": 2817,
      "还": 2818,
      "这": 2819,
      "进": 2820,
      "远": 2821,
      "违": 2822,
      "连": 2823,
      "迟": 2824,
      "迢": 2825,
      "迦": 2826,
      "迪": 2827,
      "迫": 2828,
      "迭": 2829,
      "述": 2830,
      "迷": 2831,
      "迹": 2832,
      "追": 2833,
      "退": 2834,
      "送": 2835,
      "适": 2836,
      "逃": 2837,
      "逆": 2838,
      "选": 2839,
      "逊": 2840,
      "透": 2841,
      "逐": 2842,
      "递": 2843,
      "途": 2844,
      "逗": 2845,
      "通": 2846,
      "逛": 2847,
      "逝": 2848,
      "逞": 2849,
      "速": 2850,
      "造": 2851,
      "逢": 2852,
      "逮": 2853,
      "逸": 2854,
      "逼": 2855,
      "遇": 2856,
      "遍": 2857,
      "道": 2858,
      "遗": 2859,
      "遛": 2860,
      "遢": 2861,
      "遥": 2862,
      "遭": 2863,
      "遮": 2864,
      "遵": 2865,
      "避": 2866,
      "邀": 2867,
      "邃": 2868,
      "邋": 2869,
      "那": 2870,
      "邦": 2871,
      "邪": 2872,
      "邮": 2873,
      "邻": 2874,
      "郁": 2875,
      "郊": 2876,
      "郎": 2877,
      "部": 2878,
      "都": 2879,
      "鄙": 2880,
      "配": 2881,
      "酒": 2882,
      "酝": 2883,
      "酥": 2884,
      "酪": 2885,
      "酬": 2886,
      "酱": 2887,
      "酵": 2888,
      "酷": 2889,
      "酸": 2890,
      "酿": 2891,
      "醋": 2892,
      "醒": 2893,
      "采": 2894,
      "释": 2895,
      "里": 2896,
      "重": 2897,
      "野": 2898,
      "量": 2899,
      "金": 2900,
      "鉴": 2901,
      "针": 2902,
      "钉": 2903,
      "钓": 2904,
      "钝": 2905,
      "钞": 2906,
      "钟": 2907,
      "钢": 2908,
      "钥": 2909,
      "钦": 2910,
      "钧": 2911,
      "钩": 2912,
      "钮": 2913,
      "钱": 2914,
      "钳": 2915,
      "钻": 2916,
      "铁": 2917,
      "铃": 2918,
      "铅": 2919,
      "铐": 2920,
      "铛": 2921,
      "铜": 2922,
      "铠": 2923,
      "铭": 2924,
      "铲": 2925,
      "银": 2926,
      "铺": 2927,
      "链": 2928,
      "销": 2929,
      "锁": 2930,
      "锃": 2931,
      "锅": 2932,
      "锈": 2933,
      "锉": 2934,
      "锋": 2935,
      "锐": 2936,
      "错": 2937,
      "锚": 2938,
      "锤": 2939,
      "锥": 2940,
      "锦": 2941,
      "键": 2942,
      "锯": 2943,
      "锹": 2944,
      "锻": 2945,
      "镇": 2946,
      "镐": 2947,
      "镖": 2948,
      "镜": 2949,
      "镯": 2950,
      "镳": 2951,
      "镶": 2952,
      "长": 2953,
      "门": 2954,
      "闩": 2955,
      "闪": 2956,
      "闭": 2957,
      "问": 2958,
      "闯": 2959,
      "闲": 2960,
      "间": 2961,
      "闷": 2962,
      "闸": 2963,
      "闹": 2964,
      "闻": 2965,
      "阁": 2966,
      "阅": 2967,
      "阔": 2968,
      "队": 2969,
      "阱": 2970,
      "防": 2971,
      "阳": 2972,
      "阴": 2973,
      "阵": 2974,
      "阶": 2975,
      "阻": 2976,
      "阿": 2977,
      "陀": 2978,
      "附": 2979,
      "际": 2980,
      "陆": 2981,
      "陈": 2982,
      "陋": 2983,
      "陌": 2984,
      "降": 2985,
      "限": 2986,
      "陛": 2987,
      "陡": 2988,
      "院": 2989,
      "除": 2990,
      "陨": 2991,
      "险": 2992,
      "陪": 2993,
      "陶": 2994,
      "陷": 2995,
      "隆": 2996,
      "随": 2997,
      "隐": 2998,
      "隔": 2999,
      "隙": 3000,
      "障": 3001,
      "隧": 3002,
      "难": 3003,
      "雀": 3004,
      "雁": 3005,
      "雄": 3006,
      "雅": 3007,
      "集": 3008,
      "雇": 3009,
      "雏": 3010,
      "雕": 3011,
      "雨": 3012,
      "雪": 3013,
      "零": 3014,
      "雷": 3015,
      "雾": 3016,
      "需": 3017,
      "霄": 3018,
      "霆": 3019,
      "震": 3020,
      "霉": 3021,
      "霍": 3022,
      "霜": 3023,
      "露": 3024,
      "霸": 3025,
      "青": 3026,
      "静": 3027,
      "非": 3028,
      "靠": 3029,
      "面": 3030,
      "革": 3031,
      "靴": 3032,
      "靶": 3033,
      "鞋": 3034,
      "鞍": 3035,
      "鞠": 3036,
      "鞭": 3037,
      "韦": 3038,
      "韧": 3039,
      "音": 3040,
      "韵": 3041,
      "页": 3042,
      "顶": 3043,
      "项": 3044,
      "顺": 3045,
      "须": 3046,
      "顽": 3047,
      "顾": 3048,
      "顿": 3049,
      "颁": 3050,
      "预": 3051,
      "颅": 3052,
      "领": 3053,
      "颈": 3054,
      "颊": 3055,
      "频": 3056,
      "颖": 3057,
      "颗": 3058,
      "题": 3059,
      "颜": 3060,
      "额": 3061,
      "颠": 3062,
      "颤": 3063,
      "风": 3064,
      "飓": 3065,
      "飘": 3066,
      "飞": 3067,
      "食": 3068,
      "餐": 3069,
      "饥": 3070,
      "饪": 3071,
      "饭": 3072,
      "饮": 3073,
      "饰": 3074,
      "饱": 3075,
      "饲": 3076,
      "饵": 3077,
      "饶": 3078,
      "饼": 3079,
      "饿": 3080,
      "馅": 3081,
      "馆": 3082,
      "馈": 3083,
      "首": 3084,
      "香": 3085,
      "馨": 3086,
      "马": 3087,
      "驭": 3088,
      "驮": 3089,
      "驯": 3090,
      "驰": 3091,
      "驱": 3092,
      "驳": 3093,
      "驴": 3094,
      "驶": 3095,
      "驹": 3096,
      "驻": 3097,
      "驼": 3098,
      "驾": 3099,
      "骂": 3100,
      "骄": 3101,
      "骆": 3102,
      "骋": 3103,
      "验": 3104,
      "骑": 3105,
      "骗": 3106,
      "骚": 3107,
      "骡": 3108,
      "骤": 3109,
      "骨": 3110,
      "骰": 3111,
      "骷": 3112,
      "骸": 3113,
      "骼": 3114,
      "髅": 3115,
      "高": 3116,
      "髦": 3117,
      "鬃": 3118,
      "鬣": 3119,
      "鬼": 3120,
      "魁": 3121,
      "魂": 3122,
      "魅": 3123,
      "魏": 3124,
      "魔": 3125,
      "鱼": 3126,
      "鲁": 3127,
      "鲍": 3128,
      "鲜": 3129,
      "鲨": 3130,
      "鲸": 3131,
      "鳄": 3132,
      "鳍": 3133,
      "鳞": 3134,
      "鸟": 3135,
      "鸡": 3136,
      "鸣": 3137,
      "鸥": 3138,
      "鸦": 3139,
      "鸭": 3140,
      "鸵": 3141,
      "鸽": 3142,
      "鹅": 3143,
      "鹉": 3144,
      "鹊": 3145,
      "鹤": 3146,
      "鹦": 3147,
      "鹰": 3148,
      "鹿": 3149,
      "麦": 3150,
      "麻": 3151,
      "黄": 3152,
      "黎": 3153,
      "黏": 3154,
      "黑": 3155,
      "默": 3156,
      "黛": 3157,
      "黝": 3158,
      "黯": 3159,
      "鼓": 3160,
      "鼠": 3161,
      "鼬": 3162,
      "鼹": 3163,
      "鼻": 3164,
      "鼾": 3165,
      "齐": 3166,
      "齿": 3167,
      "龄": 3168,
      "龈": 3169,
      "龙": 3170,
      "龟": 3171,
      "他们": 3172,
      "。\n": 3173,
      "有一": 3174,
      "莉莉": 3175,
      "妈妈": 3176,
      ":\"": 3177,
      "喜欢": 3178,
      "一个": 3179,
      "朋友": 3180,
      "看到": 3181,
      "有一天": 3182,
      "蒂姆": 3183,
      "名叫": 3184,
      "一起": 3185,
      "高兴": 3186,
      "从前": 3187,
      "。\"": 3188,
      "他的": 3189,
      "有一个": 3190,
      "蒂米": 3191,
      "了一": 3192,
      "!\"": 3193,
      "她的": 3194,
      "非常": 3195,
      "可以": 3196,
      "玩具": 3197,
      "我们": 3198,
      "女孩": 3199,
      "很高兴": 3200,
      "汤姆": 3201,
      "小女孩": 3202,
      "感到": 3203,
      "玩耍": 3204,
      "?\"": 3205,
      "知道": 3206,
      "。\"\n": 3207,
      "克斯": 3208,
      "男孩": 3209,
      "帮助": 3210,
      "开始": 3211,
      "一只": 3212,
      "▁\"": 3213,
      "到了": 3214,
      "什么": 3215,
      "自己": 3216,
      "发现": 3217,
      "公园": 3218,
      "小鸟": 3219,
      "麦克斯": 3220,
      "。\n\"": 3221,
      "起来": 3222,
      "得很": 3223,
      "名叫莉莉": 3224,
      "没有": 3225,
      "她妈妈": 3226,
      "开心": 3227,
      "东西": 3228,
      "那天": 3229,
      "有一个小女孩": 3230,
      "朋友们": 3231,
      "笑着": 3232,
      "因为": 3233,
      "的妈妈": 3234,
      "了一个": 3235,
      "一起玩": 3236,
      "这个": 3237,
      "害怕": 3238,
      "她喜欢": 3239,
      ",\"": 3240,
      "有一只": 3241,
      "从那天": 3242,
      "然后": 3243,
      "的朋友": 3244,
      "从那天起": 3245,
      "伤心": 3246,
      "得很开心": 3247,
      "事情": 3248,
      "把它": 3249,
      "告诉": 3250,
      "爸爸": 3251,
      "小男孩": 3252,
      "决定": 3253,
      "突然": 3254,
      "外面": 3255,
      "微笑着": 3256,
      "说道": 3257,
      "回家": 3258,
      "这是": 3259,
      "小心": 3260,
      "看到了": 3261,
      "!\"\n": 3262,
      "玩得很开心": 3263,
      "子里": 3264,
      "漂亮": 3265,
      "下来": 3266,
      "很多": 3267,
      "感觉": 3268,
      "于是": 3269,
      "很伤心": 3270,
      "我的": 3271,
      "有趣": 3272,
      "的事情": 3273,
      "找到": 3274,
      "色的": 3275,
      "一些": 3276,
      "看着": 3277,
      "试图": 3278,
      "你的": 3279,
      "发生": 3280,
      "每天": 3281,
      "不到": 3282,
      "她说": 3283,
      "时候": 3284,
      "正在": 3285,
      "和他的": 3286,
      "不知道": 3287,
      "分享": 3288,
      "莉莉和": 3289,
      "?\"\n": 3290,
      "所有": 3291,
      "但他": 3292,
      "需要": 3293,
      "总是": 3294,
      "兔子": 3295,
      "米娅": 3296,
      "动物": 3297,
      "给了": 3298,
      "大的": 3299,
      "这只": 3300,
      "成了": 3301,
      "房间": 3302,
      "它们": 3303,
      "当他们": 3304,
      "的东西": 3305,
      "兴奋": 3306,
      "谢谢": 3307,
      "整天": 3308,
      "他想": 3309,
      "不想": 3310,
      "萨姆": 3311,
      "拥抱": 3312,
      "公园里": 3313,
      "名叫蒂姆": 3314,
      "现在": 3315,
      "声音": 3316,
      "他们都": 3317,
      "自己的": 3318,
      "露西": 3319,
      "打开": 3320,
      "提米": 3321,
      "地上": 3322,
      "最好": 3323,
      "他妈妈": 3324,
      "所以": 3325,
      "想要": 3326,
      "的一": 3327,
      "走了": 3328,
      "惊讶": 3329,
      "了解": 3330,
      "寻找": 3331,
      "她看到": 3332,
      "快乐": 3333,
      "他看到": 3334,
      "去公园": 3335,
      "非常高兴": 3336,
      "那是": 3337,
      "喜欢在": 3338,
      "难过": 3339,
      "在一": 3340,
      "怎么": 3341,
      "必须": 3342,
      "是的": 3343,
      "发现了一": 3344,
      "的玩具": 3345,
      "里面": 3346,
      "看看": 3347,
      "他说": 3348,
      "安全": 3349,
      "谢谢你": 3350,
      "悲伤": 3351,
      "莉莉的妈妈": 3352,
      "回答": 3353,
      "感谢": 3354,
      "看起来": 3355,
      "听到": 3356,
      "他们一起": 3357,
      "发生了": 3358,
      "了解到": 3359,
      "有一个小男孩": 3360,
      "孩子": 3361,
      "那只": 3362,
      "结束": 3363,
      "她想": 3364,
      "杰克": 3365,
      "阳光": 3366,
      "又大": 3367,
      "的时候": 3368,
      "我可以": 3369,
      "又大又": 3370,
      "盒子": 3371,
      "重要": 3372,
      "食物": 3373,
      "的小": 3374,
      "名叫蒂米": 3375,
      "回到": 3376,
      "林里": 3377,
      "继续": 3378,
      "本尼": 3379,
      "很害怕": 3380,
      "去了": 3381,
      "的大": 3382,
      "很快": 3383,
      "他的朋友": 3384,
      "问道": 3385,
      "一个大": 3386,
      "树上": 3387,
      "那里": 3388,
      "每天都": 3389,
      "他们在": 3390,
      "不再": 3391,
      "找到了": 3392,
      "过来": 3393,
      "游戏": 3394,
      "地方": 3395,
      "艾米": 3396,
      "但她": 3397,
      "这样": 3398,
      "自豪": 3399,
      "他们的": 3400,
      "担心": 3401,
      "其他": 3402,
      "有很多": 3403,
      "的小女孩": 3404,
      "花园": 3405,
      "主意": 3406,
      "笑了": 3407,
      "马克斯": 3408,
      "莉莉说": 3409,
      "我们可以": 3410,
      "出来": 3411,
      "漂亮的": 3412,
      "鲍勃": 3413,
      "虫子": 3414,
      "微笑着说": 3415,
      "认为": 3416,
      "最喜欢": 3417,
      "随后": 3418,
      "蒂姆和": 3419,
      "希望": 3420,
      "妈妈说": 3421,
      "不是": 3422,
      "想不到": 3423,
      "意想不到": 3424,
      "故事": 3425,
      "散步": 3426,
      "蛋糕": 3427,
      "很好": 3428,
      "但随后": 3429,
      "了一些": 3430,
      "最好的朋友": 3431,
      "他喜欢": 3432,
      "斯波": 3433,
      "安娜": 3434,
      "汽车": 3435,
      "美丽": 3436,
      "成为": 3437,
      "美味": 3438,
      "家人": 3439,
      "他们看到": 3440,
      "但是": 3441,
      "莉莉很高兴": 3442,
      "在一起": 3443,
      "石头": 3444,
      "如何": 3445,
      "意想不到的事情": 3446,
      "为什么": 3447,
      "!\n": 3448,
      "走到": 3449,
      "变得": 3450,
      "衣服": 3451,
      "新朋友": 3452,
      "到达": 3453,
      "他的玩具": 3454,
      "她的朋友": 3455,
      "放在": 3456,
      "尝试": 3457,
      "老鼠": 3458,
      "蝴蝶": 3459,
      "天空": 3460,
      "是否": 3461,
      "在公园里": 3462,
      "幸福": 3463,
      "和他的朋友们": 3464,
      "莎拉": 3465,
      "直到": 3466,
      "再次": 3467,
      "会儿": 3468,
      "妈妈一起": 3469,
      "商店": 3470,
      "不能": 3471,
      "应该": 3472,
      "可能": 3473,
      "一样": 3474,
      "山姆": 3475,
      "上了": 3476,
      "冒险": 3477,
      "一下": 3478,
      "是一个": 3479,
      "名叫蒂姆的": 3480,
      "出去": 3481,
      "比利": 3482,
      "永远": 3483,
      "卡车": 3484,
      "当她": 3485,
      "在外面": 3486,
      "子上": 3487,
      "上面": 3488,
      "在这": 3489,
      "感觉好": 3490,
      "汤姆和": 3491,
      "娃娃": 3492,
      "度过": 3493,
      "了一只": 3494,
      "不喜欢": 3495,
      "她妈妈说": 3496,
      "森林里": 3497,
      "回来": 3498,
      "男人": 3499,
      "那个": 3500,
      "聪明": 3501,
      "展示": 3502,
      "附近": 3503,
      "不会": 3504,
      "喜欢玩": 3505,
      "该怎么": 3506,
      "不要": 3507,
      "我会": 3508,
      "人都": 3509,
      "莉莉的": 3510,
      "坐在": 3511,
      "青蛙": 3512,
      "识到": 3513,
      "的地方": 3514,
      "更多": 3515,
      "的一天": 3516,
      "意想不到的事情发生了": 3517,
      "棵大": 3518,
      "比赛": 3519,
      "松鼠": 3520,
      "帮忙": 3521,
      "意识到": 3522,
      "带着": 3523,
      "莎莉": 3524,
      "饼干": 3525,
      "勇敢": 3526,
      "友善": 3527,
      "抓住": 3528,
      "的话": 3529,
      "觉得": 3530,
      "泰迪": 3531,
      "花园里": 3532,
      "因为他": 3533,
      "每个": 3534,
      "房子里": 3535,
      "奶奶": 3536,
      "当他": 3537,
      "我想": 3538,
      "工作": 3539,
      "一只名叫": 3540,
      "已经": 3541,
      "好朋友": 3542,
      "有时": 3543,
      "让她": 3544,
      "闪亮": 3545,
      "一个名叫蒂姆的": 3546,
      "点头": 3547,
      "鸭子": 3548,
      "时间": 3549,
      "美味的": 3550,
      "小狗": 3551,
      "一位": 3552,
      "秋千": 3553,
      "告诉她": 3554,
      "房子": 3555,
      "进去": 3556,
      "这只鸟": 3557,
      "所有的": 3558,
      "善良": 3559,
      "特别": 3560,
      "她的玩具": 3561,
      "她问": 3562,
      "美丽的": 3563,
      "发现了一个": 3564,
      "跳舞": 3565,
      "该怎么办": 3566,
      "很重要": 3567,
      "准备": 3568,
      "太阳": 3569,
      "干净": 3570,
      "感到非常": 3571,
      "一起玩耍": 3572,
      "了一会儿": 3573,
      "互相": 3574,
      "生气": 3575,
      "你们": 3576,
      "她的朋友们": 3577,
      "她在": 3578,
      "好的": 3579,
      "再也": 3580,
      "无法": 3581,
      "的人": 3582,
      "一边": 3583,
      "的狗": 3584,
      "最喜欢的": 3585,
      "很有趣": 3586,
      "别担心": 3587,
      "任何": 3588,
      "最后": 3589,
      "努力": 3590,
      "的猫": 3591,
      "帽子": 3592,
      "而且": 3593,
      "多了": 3594,
      "不起": 3595,
      "想玩": 3596,
      "一直": 3597,
      "点点头": 3598,
      "只是": 3599,
      "生活": 3600,
      "苹果": 3601,
      "如果": 3602,
      "仍然": 3603,
      "棵大树": 3604,
      "发出": 3605,
      "探索": 3606,
      "不知道该怎么办": 3607,
      "看到一": 3608,
      "这个故事": 3609,
      "厨房": 3610,
      "在一个": 3611,
      "跑到": 3612,
      "斑点": 3613,
      "你能": 3614,
      "回家了": 3615,
      "眼睛": 3616,
      "睡觉": 3617,
      "身边": 3618,
      "一个名叫": 3619,
      "保持": 3620,
      "毛毛": 3621,
      "第二": 3622,
      "蒂米的妈妈": 3623,
      "受伤": 3624,
      "你可以": 3625,
      "起了": 3626,
      "都会": 3627,
      "别人": 3628,
      "和朋友们": 3629,
      "并不": 3630,
      "当然": 3631,
      "滑梯": 3632,
      "你好": 3633,
      "后来": 3634,
      "第二天": 3635,
      "红色": 3636,
      "一天": 3637,
      "很惊讶": 3638,
      "因为她": 3639,
      "离开": 3640,
      "说话": 3641,
      "对不起": 3642,
      "还是": 3643,
      "这个故事的": 3644,
      "房间里": 3645,
      "红色的": 3646,
      "从此": 3647,
      "唱歌": 3648,
      "寓意": 3649,
      "日子": 3650,
      "好了": 3651,
      "狮子": 3652,
      "注意": 3653,
      "他在": 3654,
      "池塘": 3655,
      "这个故事的寓意": 3656,
      "给她": 3657,
      "明媚": 3658,
      "的声音": 3659,
      "想和": 3660,
      "照片": 3661,
      "岩石": 3662,
      "感到难过": 3663,
      "遇到": 3664,
      "这个故事的寓意是": 3665,
      "感到很": 3666,
      "一次": 3667,
      "坏了": 3668,
      "很高兴能": 3669,
      "问题": 3670,
      "哪里": 3671,
      "他们就": 3672,
      "发光": 3673,
      "他把": 3674,
      "闪闪": 3675,
      "淇淋": 3676,
      "愉快": 3677,
      "冰淇淋": 3678,
      "阳光明媚": 3679,
      "这么": 3680,
      "了一整天": 3681,
      "更加": 3682,
      "可怕": 3683,
      "同意": 3684,
      "度过了": 3685,
      "看到一只": 3686,
      "先生": 3687,
      "很兴奋": 3688,
      "来到": 3689,
      "那只鸟": 3690,
      "哭泣": 3691,
      "每个人都": 3692,
      "爬上": 3693,
      "Sp": 3694,
      "不小心": 3695,
      "许多": 3696,
      "她把": 3697,
      "感觉好多了": 3698,
      "一点": 3699,
      "来了": 3700,
      "他的朋友们": 3701,
      "满了": 3702,
      "也许": 3703,
      "并且": 3704,
      "飞翔": 3705,
      "和爸爸": 3706,
      "让他": 3707,
      "忘记": 3708,
      "跑去": 3709,
      "有趣的": 3710,
      "他的妈妈": 3711,
      "回答说": 3712,
      "有一个大": 3713,
      "回答道": 3714,
      "是一只": 3715,
      "ot": 3716,
      "找不到": 3717,
      "为自己": 3718,
      "看了": 3719,
      "就在这": 3720,
      "要小心": 3721,
      "约翰": 3722,
      "告诉他": 3723,
      "可爱": 3724,
      "是一": 3725,
      "成了最好的朋友": 3726,
      "鸟儿": 3727,
      "但他们": 3728,
      "即使": 3729,
      "非常喜欢": 3730,
      "放进": 3731,
      "住着": 3732,
      "享受": 3733,
      "就在这时": 3734,
      "游泳": 3735,
      "Spot": 3736,
      "玩耍时": 3737,
      "棵树": 3738,
      "聚会": 3739,
      "给你": 3740,
      "做什么": 3741,
      "温暖": 3742,
      "的女孩": 3743,
      "那天晚": 3744,
      "所以他": 3745,
      "拿着": 3746,
      "关系": 3747,
      "学会": 3748,
      "我也": 3749,
      "树枝": 3750,
      "惊喜": 3751,
      "拿起": 3752,
      "终于": 3753,
      "他们玩": 3754,
      "孩子们": 3755,
      "它的": 3756,
      "住了": 3757,
      "没关系": 3758,
      "棍子": 3759,
      "不同": 3760,
      "是什么": 3761,
      "好吧": 3762,
      "一声": 3763,
      "汤姆说": 3764,
      "画画": 3765,
      "的日子": 3766,
      "抱歉": 3767,
      "非常兴奋": 3768,
      "哭了": 3769,
      "蒂姆说": 3770,
      "微笑": 3771,
      "上的": 3772,
      "泰迪熊": 3773,
      "回到家": 3774,
      "拥抱了": 3775,
      "头鹰": 3776,
      "但它": 3777,
      "尾巴": 3778,
      "走进": 3779,
      "玩玩具": 3780,
      "她很高兴": 3781,
      "清理": 3782,
      "感到自豪": 3783,
      "帮我": 3784,
      "来说": 3785,
      "答应": 3786,
      "出了": 3787,
      "名叫莉莉的小女孩": 3788,
      "如此": 3789,
      "倒了": 3790,
      "颜色": 3791,
      "去找": 3792,
      "大家": 3793,
      "就会": 3794,
      "莉莉想": 3795,
      "他会": 3796,
      "是否可以": 3797,
      "在那里": 3798,
      "的男孩": 3799,
      "主人": 3800,
      "自行": 3801,
      "给他": 3802,
      "萝卜": 3803,
      "也很": 3804,
      "到了一个": 3805,
      "你为什么": 3806,
      "他们喜欢": 3807,
      "小兔子": 3808,
      "住在一": 3809,
      "但后来": 3810,
      "有一个男孩": 3811,
      "汤米": 3812,
      "记得": 3813,
      "女士": 3814,
      "建造": 3815,
      "洋娃娃": 3816,
      "气球": 3817,
      "高兴了": 3818,
      "等待": 3819,
      "来越": 3820,
      "笑着说": 3821,
      "越来越": 3822,
      "一条": 3823,
      "给了她": 3824,
      "幸福的": 3825,
      "环顾": 3826,
      "极了": 3827,
      "再也没有": 3828,
      "自行车": 3829,
      "到处": 3830,
      "一块": 3831,
      "闪亮的": 3832,
      "做了": 3833,
      "世界": 3834,
      "这些": 3835,
      "地板": 3836,
      "跑了": 3837,
      "发现了": 3838,
      "他们玩得很开心": 3839,
      "和妈妈一起": 3840,
      "火车": 3841,
      "一个名叫蒂姆的小男孩": 3842,
      "他们说": 3843,
      "她很": 3844,
      "停止": 3845,
      "成了好朋友": 3846,
      "他们决定": 3847,
      "和本": 3848,
      "看起来很": 3849,
      "了想": 3850,
      "神奇": 3851,
      "她喜欢在": 3852,
      "帮助他": 3853,
      "他们把": 3854,
      "明白": 3855,
      "爸爸妈妈": 3856,
      "了下来": 3857,
      "父母": 3858,
      "休息": 3859,
      "他们一起玩": 3860,
      "这是一个": 3861,
      "糖果": 3862,
      "喊道": 3863,
      "跑向": 3864,
      "飞机": 3865,
      "学会了": 3866,
      "玩具车": 3867,
      "假装": 3868,
      "他们想": 3869,
      "我喜欢": 3870,
      "事物": 3871,
      "感激": 3872,
      "闪闪发光": 3873,
      "伤害": 3874,
      "四周": 3875,
      "更好": 3876,
      "住在": 3877,
      "他们俩": 3878,
      "吃了": 3879,
      "盒子里": 3880,
      "今天": 3881,
      "注意到": 3882,
      "礼物": 3883,
      "新的": 3884,
      "巨响": 3885,
      "制作": 3886,
      "很大的": 3887,
      "大狗": 3888,
      "阳光下": 3889,
      "他问": 3890,
      "莉莉看到": 3891,
      "奇怪": 3892,
      "特殊": 3893,
      "以前": 3894,
      "飞走了": 3895,
      "他很高兴": 3896,
      "大了": 3897,
      "感到悲伤": 3898,
      "消失": 3899,
      "帮你": 3900,
      "些时候": 3901,
      "翅膀": 3902,
      "它是": 3903,
      "学习": 3904,
      "周围": 3905,
      "什么事": 3906,
      "环顾四周": 3907,
      "天空中": 3908,
      "猫头鹰": 3909,
      "甚至": 3910,
      "就是": 3911,
      "蒂米喜欢": 3912,
      "把它们": 3913,
      "蒂米的": 3914,
      "地说": 3915,
      "了起来": 3916,
      "猴子": 3917,
      "人们": 3918,
      "走着": 3919,
      "蚂蚁": 3920,
      "老人": 3921,
      "他知道": 3922,
      "展示了": 3923,
      "提供": 3924,
      "一起去": 3925,
      "她知道": 3926,
      "就像": 3927,
      "更多的": 3928,
      "开始哭泣": 3929,
      "巨大的": 3930,
      "胡萝卜": 3931,
      "他很": 3932,
      "怪物": 3933,
      "不及": 3934,
      "后面": 3935,
      "一根": 3936,
      "糟糕": 3937,
      "度过了愉快": 3938,
      "一辆": 3939,
      "去公园玩": 3940,
      "凯蒂": 3941,
      "有了一个": 3942,
      "照顾": 3943,
      "完成": 3944,
      "真是": 3945,
      "面前": 3946,
      "镇上": 3947,
      "大声": 3948,
      "院子里": 3949,
      "参加": 3950,
      "出去玩": 3951,
      "幸福的生活": 3952,
      "阳光明媚的日子": 3953,
      "穿着": 3954,
      "想帮助": 3955,
      "见了": 3956,
      "叶子": 3957,
      "蓝色": 3958,
      "那么": 3959,
      "给我": 3960,
      "同意了": 3961,
      "医生": 3962,
      "去看": 3963,
      "穿上": 3964,
      "拥有": 3965,
      "上去": 3966,
      "解释": 3967,
      "柔软": 3968,
      "和莉莉": 3969,
      "危险": 3970,
      "不好": 3971,
      "很大": 3972,
      "小猫": 3973,
      "并感谢": 3974,
      "一声巨响": 3975,
      "高兴极了": 3976,
      "一场": 3977,
      "给了他": 3978,
      "乐趣": 3979,
      "过了一会儿": 3980,
      "音乐": 3981,
      "两个": 3982,
      "蒂姆的妈妈": 3983,
      "可能会": 3984,
      "电话": 3985,
      "有什么": 3986,
      "得太": 3987,
      "地板上": 3988,
      "里的": 3989,
      "一个阳光明媚的日子": 3990,
      "求帮助": 3991,
      "你是": 3992,
      "她的妈妈": 3993,
      "波波": 3994,
      "名叫麦克斯": 3995,
      "城堡": 3996,
      "相信": 3997,
      "那天晚些时候": 3998,
      "待地": 3999,
      "之前": 4000,
      "迫不及": 4001,
      "跑来": 4002,
      "跟着": 4003,
      "迫不及待地": 4004,
      "害怕了": 4005,
      "草地上": 4006,
      "一切": 4007,
      "本说": 4008,
      "海滩": 4009,
      "她决定": 4010,
      "放弃": 4011,
      "晚上": 4012,
      "确保": 4013,
      "的事": 4014,
      "使用": 4015,
      "看到了一": 4016,
      "让我们": 4017,
      "的小鸟": 4018,
      "水里": 4019,
      "见过": 4020,
      "的是": 4021,
      "当他们到达": 4022,
      "名字": 4023,
      "打扫": 4024,
      "感觉很": 4025,
      "过去": 4026,
      "绳子": 4027,
      "寻求帮助": 4028,
      "莉莉很伤心": 4029,
      "得不": 4030,
      "机器": 4031,
      "很好奇": 4032,
      "但没有": 4033,
      "但莉莉": 4034,
      "速度": 4035,
      "路上": 4036,
      "有一个主意": 4037,
      "蜜蜂": 4038,
      "我很": 4039,
      "就可以": 4040,
      "水果": 4041,
      "米滕": 4042,
      "有一条": 4043,
      "米滕斯": 4044,
      "停下来": 4045,
      "积木": 4046,
      "我们去": 4047,
      "才能": 4048,
      "一个大大的": 4049,
      "他们开始": 4050,
      "紧紧": 4051,
      "妈妈的话": 4052,
      "非常伤心": 4053,
      "度过了愉快的一天": 4054,
      "一张": 4055,
      "他妈妈说": 4056,
      "零食": 4057,
      "外面玩": 4058,
      "我们的": 4059,
      "成了朋友": 4060,
      "和他": 4061,
      "蜘蛛": 4062,
      "看到一个": 4063,
      "小房子里": 4064,
      "她最喜欢的": 4065,
      "蒂姆很高兴": 4066,
      "你必须": 4067,
      "感到非常自豪": 4068,
      "因为它": 4069,
      "出现": 4070,
      "和你": 4071,
      "狐狸": 4072,
      "解决": 4073,
      "那人": 4074,
      "味道": 4075,
      "奔跑": 4076,
      "下了": 4077,
      "?\"\n\"": 4078,
      "一阵": 4079,
      "座大": 4080,
      "开了": 4081,
      "在地上": 4082,
      "魔法": 4083,
      "蒂姆的": 4084,
      "告别": 4085,
      "忘记了": 4086,
      "一定": 4087,
      "感到高兴": 4088,
      "公主": 4089,
      "了一个大": 4090,
      "一个大大的拥抱": 4091,
      "从未": 4092,
      "你在": 4093,
      "他们会": 4094,
      "正在玩": 4095,
      "去散步": 4096,
      "愿意": 4097,
      "听到了": 4098,
      "他们很": 4099,
      "茸茸": 4100,
      "毛茸茸": 4101,
      "萨拉": 4102,
      "想了想": 4103,
      "在外面玩耍": 4104,
      "头发": 4105,
      "和她的": 4106,
      "他们很高兴": 4107,
      "新玩具": 4108,
      "莉莉和本": 4109,
      "去商店": 4110,
      "带来": 4111,
      "成功": 4112,
      "丢了": 4113,
      "受伤了": 4114,
      "有一辆": 4115,
      "最好的": 4116,
      "你看": 4117,
      "有点": 4118,
      "玩它": 4119,
      "他决定": 4120,
      "也很高兴": 4121,
      "听了": 4122,
      "有一只小": 4123,
      "我们来": 4124,
      "那是什么": 4125,
      "回家的": 4126,
      "名叫汤姆": 4127,
      "星星": 4128,
      "我是": 4129,
      "令人": 4130,
      "洞里": 4131,
      "不得不": 4132,
      "植物": 4133,
      "和汤姆": 4134,
      "迫不及待地想": 4135,
      "安静": 4136,
      "哥哥": 4137,
      "把球": 4138,
      "感到很难过": 4139,
      "醒来": 4140,
      "在一个小": 4141,
      "得到": 4142,
      "挥手": 4143,
      "进了": 4144,
      "树叶": 4145,
      "教训": 4146,
      "不见了": 4147,
      "舒服": 4148,
      "移动": 4149,
      "她把它": 4150,
      "你想": 4151,
      "爱的": 4152,
      "收拾": 4153,
      "掉了": 4154,
      "一件": 4155,
      "一只小鸟": 4156,
      "很快就": 4157,
      "钥匙": 4158,
      "打开了": 4159,
      "森林": 4160,
      "戴着": 4161,
      "色的大": 4162,
      "父亲": 4163,
      "时光": 4164,
      "问妈妈": 4165,
      "萨米": 4166,
      "蒂米很高兴": 4167,
      "农场": 4168,
      "在了": 4169,
      "发生了什么事": 4170,
      "灌木": 4171,
      "三明": 4172,
      "三明治": 4173,
      "口气": 4174,
      "保证": 4175,
      "红球": 4176,
      "高兴地": 4177,
      "关于": 4178,
      "手套": 4179,
      "捡起": 4180,
      "树下": 4181,
      "得更": 4182,
      "一个名叫莉莉的小女孩": 4183,
      "捉迷": 4184,
      "捉迷藏": 4185,
      "桌子上": 4186,
      "树林里": 4187,
      "从那": 4188,
      "莉拉": 4189,
      "在一起玩耍": 4190,
      "灌木丛": 4191,
      "笑容": 4192,
      "后院": 4193,
      "面包": 4194,
      "计划": 4195,
      "她会": 4196,
      "表示": 4197,
      "有一位": 4198,
      "旅行": 4199,
      "得很快": 4200,
      "玩了一整天": 4201,
      "他们每天都": 4202,
      "不听": 4203,
      "带回家": 4204,
      "并没有": 4205,
      "知道他": 4206,
      "小鸟说": 4207,
      "黛西": 4208,
      "莉莉很": 4209,
      "遇到了一只": 4210,
      "家里": 4211,
      "靠近": 4212,
      "蜡笔": 4213,
      "仙女": 4214,
      "荡秋千": 4215,
      "真是太": 4216,
      "捡起来": 4217,
      "吃完": 4218,
      "玩了": 4219,
      "跑来跑去": 4220,
      "一起在": 4221,
      "最喜欢的玩具": 4222,
      "风吹": 4223,
      "一个名叫蒂姆的男孩": 4224,
      "很长": 4225,
      "问她": 4226,
      "坐下来": 4227,
      "非常高兴和": 4228,
      "你能帮我": 4229,
      "让它": 4230,
      "大鸟": 4231,
      "螃蟹": 4232,
      "舒适": 4233,
      "--": 4234,
      "他们又": 4235,
      "里玩耍": 4236,
      "国王": 4237,
      "灿烂": 4238,
      "帮助她": 4239,
      "不高兴": 4240,
      "美好": 4241,
      "用它": 4242,
      "聪明的": 4243,
      "在公园里玩耍": 4244,
      "脸上": 4245,
      "有了一个主意": 4246,
      "有人": 4247,
      "最终": 4248,
      "子和": 4249,
      "能够": 4250,
      "时起": 4251,
      "和她妈妈": 4252,
      "答应了": 4253,
      "见到": 4254,
      "加入": 4255,
      "花朵": 4256,
      "孤独": 4257,
      "所以她": 4258,
      "从那时起": 4259,
      "更加小心": 4260,
      "妈妈的": 4261,
      "这时": 4262,
      "骄傲": 4263,
      "晚餐": 4264,
      "她问妈妈": 4265,
      "累了": 4266,
      "了出来": 4267,
      "亲爱的": 4268,
      "他非常": 4269,
      "男子": 4270,
      "帮助别人": 4271,
      "了一位": 4272,
      "玩着": 4273,
      "也想": 4274,
      "新事物": 4275,
      "旋转": 4276,
      "迷路": 4277,
      "我不知道": 4278,
      "莉莉喜欢": 4279,
      "都是": 4280,
      "梦想": 4281,
      "进行": 4282,
      "回到了": 4283,
      "翼翼": 4284,
      "跳去": 4285,
      "有些": 4286,
      "莉莉就": 4287,
      "健康": 4288,
      "艾玛": 4289,
      "保护": 4290,
      "真的": 4291,
      "她对": 4292,
      "他认为": 4293,
      "摔倒了": 4294,
      "水坑": 4295,
      "她喜欢玩": 4296,
      "小心翼翼": 4297,
      "他试图": 4298,
      "高高": 4299,
      "奶酪": 4300,
      "回到家时": 4301,
      "跳来": 4302,
      "一起玩得很开心": 4303,
      "鼓掌": 4304,
      "让我": 4305,
      "过上了": 4306,
      "如果你": 4307,
      "我们一起": 4308,
      "过上了幸福的生活": 4309,
      "向妈妈": 4310,
      "太大了": 4311,
      "蒂米说": 4312,
      "他就": 4313,
      "幸运": 4314,
      "跳来跳去": 4315,
      "蒂姆喜欢": 4316,
      "他对": 4317,
      "听到一声巨响": 4318,
      "提供帮助": 4319,
      "耐心": 4320,
      "衬衫": 4321,
      "坚果": 4322,
      "好吃": 4323,
      "特殊的": 4324,
      "跳跃": 4325,
      "下雨": 4326,
      "回了": 4327,
      "并将": 4328,
      "拿给": 4329,
      "有多": 4330,
      "他用": 4331,
      "要去": 4332,
      "看了看": 4333,
      "杯子": 4334,
      "不应该": 4335,
      "承诺": 4336,
      "他们知道": 4337,
      "和玩耍": 4338,
      "看上去": 4339,
      "猫和": 4340,
      "看到了一个": 4341,
      "一起玩吗": 4342,
      "被困": 4343,
      "汤姆的": 4344,
      "大象": 4345,
      "和她": 4346,
      "在玩": 4347,
      "真正": 4348,
      "宝藏": 4349,
      "神奇的": 4350,
      "树木": 4351,
      "修理": 4352,
      "喜欢玩他的玩具": 4353,
      "亮的": 4354,
      "怎么了": 4355,
      "解释说": 4356,
      "为他": 4357,
      "逃跑了": 4358,
      "一看": 4359,
      "毯子": 4360,
      "艾莉": 4361,
      "裙子": 4362,
      "赢得": 4363,
      "紧紧地": 4364,
      "天气": 4365,
      "爪子": 4366,
      "她感到": 4367,
      "去了公园": 4368,
      "其他动物": 4369,
      "向她": 4370,
      "经历": 4371,
      "的所有": 4372,
      "的歌": 4373,
      "变成": 4374,
      "弟弟": 4375,
      "邻居": 4376,
      "巴迪": 4377,
      "莉莉问道": 4378,
      "早上": 4379,
      "人的": 4380,
      "床上": 4381,
      "睡着": 4382,
      "消失了": 4383,
      "收集": 4384,
      "他开始": 4385,
      "需要帮助": 4386,
      "向他": 4387,
      "你想和": 4388,
      "回去": 4389,
      "找到了一": 4390,
      "和她的朋友们": 4391,
      "非常惊讶": 4392,
      "好事": 4393,
      "以前从未": 4394,
      "进来": 4395,
      "完美": 4396,
      "彼此": 4397,
      "色彩": 4398,
      "轮流": 4399,
      "他们可以": 4400,
      "厨房里": 4401,
      "一把": 4402,
      "传来": 4403,
      "问他": 4404,
      "生日": 4405,
      "她看到了": 4406,
      "并说": 4407,
      "好心": 4408,
      "但就在这时": 4409,
      "牛奶": 4410,
      "爱你": 4411,
      "感到悲伤和": 4412,
      "它很": 4413,
      "检查": 4414,
      "她发现": 4415,
      "一个小女孩": 4416,
      "这位": 4417,
      "弗雷": 4418,
      "他们看到了": 4419,
      "摇着": 4420,
      "口袋": 4421,
      "下次": 4422,
      "小心翼翼地": 4423,
      "和朋友们一起": 4424,
      "帮助你": 4425,
      "蒂姆想": 4426,
      "莉莉在": 4427,
      "她非常": 4428,
      "错误": 4429,
      "硬币": 4430,
      "尼莫": 4431,
      "了他": 4432,
      "尽管": 4433,
      "个好": 4434,
      "希望自己": 4435,
      "两人": 4436,
      "他看到了": 4437,
      "沮丧": 4438,
      "属于": 4439,
      "在树上": 4440,
      "跑步": 4441,
      "果汁": 4442,
      "的小狗": 4443,
      "他们是": 4444,
      "这很": 4445,
      "走过来": 4446,
      "成为朋友": 4447,
      "让你": 4448,
      "从此过上了幸福的生活": 4449,
      "老师": 4450,
      "愚蠢": 4451,
      "我们需要": 4452,
      "手臂": 4453,
      "喜欢吃": 4454,
      "并开始": 4455,
      "一棵大树": 4456,
      "蓝色的": 4457,
      "原谅": 4458,
      "鞋子": 4459,
      "\"。": 4460,
      "摇晃": 4461,
      "她就": 4462,
      "摇着尾巴": 4463,
      "电视": 4464,
      "司机": 4465,
      "并在": 4466,
      "麦克斯的": 4467,
      "农夫": 4468,
      "作为": 4469,
      "池塘里": 4470,
      "他们继续": 4471,
      "大笑": 4472,
      "箱里": 4473,
      "但有一天": 4474,
      "朵花": 4475,
      "强壮": 4476,
      "以来": 4477,
      "邀请": 4478,
      "他把它": 4479,
      "了又": 4480,
      "分享了": 4481,
      "洗澡": 4482,
      "来到了": 4483,
      "拒绝": 4484,
      "爸爸说": 4485,
      "风筝": 4486,
      "成为了": 4487,
      "无聊": 4488,
      "妹妹": 4489,
      "他可以": 4490,
      "晚饭": 4491,
      "我们会": 4492,
      "和家人": 4493,
      "长凳": 4494,
      "外套": 4495,
      "观察": 4496,
      "笑道": 4497,
      "鼻子": 4498,
      "柔软的": 4499,
      "睡着了": 4500,
      "不敢": 4501,
      "灿烂的": 4502,
      "有史": 4503,
      "那只狗": 4504,
      "形状": 4505,
      "有史以来": 4506,
      "他们了解到": 4507,
      "以及": 4508,
      "香蕉": 4509,
      "名叫苏": 4510,
      "一种": 4511,
      "拿出": 4512,
      "动物们": 4513,
      "蒂姆和苏": 4514,
      "布朗": 4515,
      "吃饭": 4516,
      "在这里": 4517,
      "修复": 4518,
      "她有一个": 4519,
      "轻轻": 4520,
      "秘密": 4521,
      "指着": 4522,
      "一座": 4523,
      "莉莉的朋友": 4524,
      "学校": 4525,
      "在一片": 4526,
      "我很高兴": 4527,
      "满意": 4528,
      "和他的朋友": 4529,
      "打开盒子": 4530,
      "在他的": 4531,
      "逃跑": 4532,
      "蒂米喜欢在": 4533,
      "混合": 4534,
      "得开心": 4535,
      "建议": 4536,
      "他们整天": 4537,
      "椅子": 4538,
      "始终": 4539,
      "你想和我": 4540,
      "坚强": 4541,
      "。\"\n\"": 4542,
      "感到害怕": 4543,
      "已晚": 4544,
      "客气": 4545,
      "为时": 4546,
      "向他们": 4547,
      "搅拌": 4548,
      "吸取": 4549,
      "了很多": 4550,
      "红色的大": 4551,
      "英雄": 4552,
      "垃圾": 4553,
      "结识": 4554,
      "空中": 4555,
      "他们一起玩耍": 4556,
      "了一大": 4557,
      "走去": 4558,
      "为时已晚": 4559,
      "外面玩耍": 4560,
      "表演": 4561,
      "抓住了": 4562,
      "所有的朋友": 4563,
      "按钮": 4564,
      "赶紧": 4565,
      "装饰": 4566,
      "蒂姆和萨姆": 4567,
      "这棵树": 4568,
      "种子": 4569,
      "的鸟": 4570,
      "在外面玩": 4571,
      "栅栏": 4572,
      "拿走了": 4573,
      "乐意": 4574,
      "她告诉": 4575,
      "高了": 4576,
      "很喜欢": 4577,
      "大利": 4578,
      "安娜和本": 4579,
      "好奇": 4580,
      "水中": 4581,
      "骨头": 4582,
      "开车": 4583,
      "一只小": 4584,
      "底下": 4585,
      "树枝上": 4586,
      "并与": 4587,
      "意大利": 4588,
      "膝盖": 4589,
      "不同的": 4590,
      "可以玩": 4591,
      "彩虹": 4592,
      "另一个": 4593,
      "有一只小鸟": 4594,
      "尝试一下": 4595,
      "让他们": 4596,
      "害羞": 4597,
      "我可以帮你": 4598,
      "飞来": 4599,
      "选择": 4600,
      "羽毛": 4601,
      "有一张": 4602,
      "莉莉和她妈妈": 4603,
      "大家都": 4604,
      "跳到": 4605,
      "意大利面": 4606,
      "ee": 4607,
      "沙发": 4608,
      "特别的": 4609,
      "但为时已晚": 4610,
      "那是一个": 4611,
      "打电话": 4612,
      "结束后": 4613,
      "找到了一个": 4614,
      "抬头": 4615,
      "莉莉和汤姆": 4616,
      "这只狗": 4617,
      "我知道": 4618,
      "完成后": 4619,
      "而感到自豪": 4620,
      "三岁": 4621,
      "感到骄傲": 4622,
      "他们互相": 4623,
      "无论": 4624,
      "他人": 4625,
      "旁边": 4626,
      "本书": 4627,
      "感到很高兴": 4628,
      "迷路了": 4629,
      "愤怒": 4630,
      "卑鄙": 4631,
      "碎片": 4632,
      "和他的妈妈": 4633,
      "写着": 4634,
      "有一个女孩": 4635,
      "莉莉微笑着": 4636,
      "名叫斑点": 4637,
      "不客气": 4638,
      "花园里玩耍": 4639,
      "在一个小镇上": 4640,
      "电影": 4641,
      "欢呼": 4642,
      "过来玩": 4643,
      "她试图": 4644,
      "身上": 4645,
      "罐子": 4646,
      "多么": 4647,
      "想吃": 4648,
      "箱子": 4649,
      "得很好": 4650,
      "医院": 4651,
      "手里": 4652,
      "的帮助": 4653,
      "野餐": 4654,
      "带她": 4655,
      "田野": 4656,
      "明天": 4657,
      "看到了一只": 4658,
      "发现了一个大": 4659,
      "一会儿": 4660,
      "克力": 4661,
      "巧克力": 4662,
      "公园里玩耍": 4663,
      "练习": 4664,
      "柠檬": 4665,
      "南瓜": 4666,
      "顽皮": 4667,
      "一大": 4668,
      "汤姆和莉莉": 4669,
      "粉红色的": 4670,
      "胡须": 4671,
      "小熊": 4672,
      "非常漂亮": 4673,
      "是朋友": 4674,
      "太太": 4675,
      "嘴里": 4676,
      "平静": 4677,
      "饿了": 4678,
      "她看到一只": 4679,
      "的小男孩": 4680,
      "贝壳": 4681,
      "温柔": 4682,
      "保留": 4683,
      "手中": 4684,
      "打开它": 4685,
      "和蒂姆": 4686,
      "快了": 4687,
      "帮她": 4688,
      "不舒服": 4689,
      "善待": 4690,
      "会说话": 4691,
      "抓住它": 4692,
      "窗户": 4693,
      "只要": 4694,
      "屋里": 4695,
      "创造": 4696,
      "比如": 4697,
      "四处": 4698,
      "灿烂的笑容": 4699,
      "要求": 4700,
      "丢失": 4701,
      "我不想": 4702,
      "动物园": 4703,
      "地上有一": 4704,
      "头上": 4705,
      "在里面": 4706,
      "下面": 4707,
      "和妈妈": 4708,
      "做饭": 4709,
      "基蒂": 4710,
      "莉莉和麦克斯": 4711,
      "机器人": 4712,
      "飞行": 4713,
      "把他": 4714,
      "表示感谢": 4715,
      "不明白": 4716,
      "他们的妈妈": 4717,
      "表现": 4718,
      "在她的": 4719,
      "她喜欢玩玩具": 4720,
      "正确": 4721,
      "来看": 4722,
      "绿色的": 4723,
      "绕着": 4724,
      "美味的食物": 4725,
      "把玩具": 4726,
      "大石头": 4727,
      "不过": 4728,
      "记住": 4729,
      "欢迎": 4730,
      "她非常喜欢": 4731,
      "善良的": 4732,
      "他发现": 4733,
      "以为": 4734,
      "帮助了": 4735,
      "奥利": 4736,
      "尖叫": 4737,
      "她开始": 4738,
      "小鱼": 4739,
      "她有一": 4740,
      "的球": 4741,
      "莉莉了解到": 4742,
      "走开": 4743,
      "泥土": 4744,
      "这里": 4745,
      "去拿": 4746,
      "仔细": 4747,
      "大鱼": 4748,
      "道歉": 4749,
      "但这": 4750,
      "方式": 4751,
      "和小鸟": 4752,
      "它会": 4753,
      "桌子": 4754,
      "吸取了": 4755,
      "花瓶": 4756,
      "一颗": 4757,
      "墙上": 4758,
      "戴上": 4759,
      "的家": 4760,
      "带他": 4761,
      "乐于": 4762,
      "可怕的": 4763,
      "蒂姆很伤心": 4764,
      "他们用": 4765,
      "的照片": 4766,
      "蜂蜜": 4767,
      "回来了": 4768,
      "我要": 4769,
      "抓起": 4770,
      "窗外": 4771,
      "他没有": 4772,
      "蔬菜": 4773,
      "走来": 4774,
      "一阵大": 4775,
      "她用": 4776,
      "鳄鱼": 4777,
      "脾气": 4778,
      "它又": 4779,
      "接球": 4780,
      "欣赏": 4781,
      "可靠": 4782,
      "好吗": 4783,
      "也想玩": 4784,
      "袋子": 4785,
      "放回": 4786,
      "富有": 4787,
      "味着": 4788,
      "走近": 4789,
      "黄色": 4790,
      "和爸爸妈妈一起": 4791,
      "在森林里": 4792,
      "掉下来": 4793,
      "拿走": 4794,
      "和一个": 4795,
      "意味着": 4796,
      "苏说": 4797,
      "走到外面": 4798,
      "他喜欢在": 4799,
      "你需要": 4800,
      "尤其": 4801,
      "也可以": 4802,
      "他的玩具车": 4803,
      "附近的": 4804,
      "去商店买": 4805,
      "小了": 4806,
      "这条": 4807,
      "美好的一天": 4808,
      "一个人": 4809,
      "慢慢": 4810,
      "了一段": 4811,
      "走着走着": 4812,
      "了一条": 4813,
      "你很": 4814,
      "来的": 4815,
      "会很有趣": 4816,
      "吸取了教训": 4817,
      "萨姆说": 4818,
      "尤其是": 4819,
      "自己的房间": 4820,
      "不太": 4821,
      "不知道如何": 4822,
      "不能再": 4823,
      "听妈妈的话": 4824,
      "询问": 4825,
      "飞到": 4826,
      "为她": 4827,
      "他们去": 4828,
      "他不想": 4829,
      "玩吧": 4830,
      "风雨": 4831,
      "和我": 4832,
      "了口气": 4833,
      "浆果": 4834,
      "Tw": 4835,
      "救了": 4836,
      "噪音": 4837,
      "鸽子": 4838,
      "闭上": 4839,
      "乐于助": 4840,
      "莉莉知道": 4841,
      "演奏": 4842,
      "鸡蛋": 4843,
      "以后": 4844,
      "海里": 4845,
      "送给": 4846,
      "太高兴了": 4847,
      "咪咪": 4848,
      "大喊": 4849,
      "她的洋娃娃": 4850,
      "轻轻地": 4851,
      "地面": 4852,
      "那里时": 4853,
      "女儿": 4854,
      "但她妈妈": 4855,
      "他向": 4856,
      "情况": 4857,
      "得好": 4858,
      "她可以": 4859,
      "温暖的": 4860,
      "一片": 4861,
      "勺子": 4862,
      "山顶": 4863,
      "一定要": 4864,
      "招呼": 4865,
      "我们必须": 4866,
      "婴儿": 4867,
      "她了解到": 4868,
      "想看看": 4869,
      "困惑": 4870,
      "很生气": 4871,
      "杰瑞": 4872,
      "口袋里": 4873,
      "闭上眼睛": 4874,
      "身体": 4875,
      "雪人": 4876,
      "衣柜": 4877,
      "但她知道": 4878,
      "但当": 4879,
      "暴风雨": 4880,
      "黑暗": 4881,
      "真正的": 4882,
      "一份": 4883,
      "的时光": 4884,
      "猫说": 4885,
      "他们没有": 4886,
      "适合": 4887,
      "这辆": 4888,
      "eet": 4889,
      "抱住": 4890,
      "感到惊讶": 4891,
      "Tweet": 4892,
      "贝拉": 4893,
      "老太太": 4894,
      "落山": 4895,
      "观看": 4896,
      "很好吃": 4897,
      "他最喜欢的": 4898,
      "落在": 4899,
      "了一场": 4900,
      "拒绝了": 4901,
      "从树上": 4902,
      "他们俩都": 4903,
      "客厅": 4904,
      "暴躁": 4905,
      "擅长": 4906,
      "很快就会": 4907,
      "对的": 4908,
      "给他们": 4909,
      "棵树上": 4910,
      "当然可以": 4911,
      "感觉很糟糕": 4912,
      "欢笑": 4913,
      "牙齿": 4914,
      "项链": 4915,
      "但当她": 4916,
      "他们喜欢在": 4917,
      "他总是": 4918,
      "他能": 4919,
      "住在一个": 4920,
      "绿色": 4921,
      "玩球": 4922,
      "想到了一个": 4923,
      "心里": 4924,
      "泡泡": 4925,
      "那天晚上": 4926,
      "感受": 4927,
      "长凳上": 4928,
      "翠蒂": 4929,
      "口哨": 4930,
      "穿过": 4931,
      "消防": 4932,
      "装满了": 4933,
      "得很高": 4934,
      "的男人": 4935,
      "她听到": 4936,
      "了一张": 4937,
      "而不是": 4938,
      "完后": 4939,
      "这是我的": 4940,
      "认识": 4941,
      "你不能": 4942,
      "所小房子里": 4943,
      "在哪里": 4944,
      "一个名叫苏": 4945,
      "冰箱": 4946,
      "了一件": 4947,
      "发现了一块": 4948,
      "飞去": 4949,
      "在一起玩": 4950,
      "警察": 4951,
      "到外面": 4952,
      "跑回": 4953,
      "里面有很多": 4954,
      "其中": 4955,
      "莉莉的妈妈说": 4956,
      "披萨": 4957,
      "莉莉和她的朋友们": 4958,
      "开着": 4959,
      "诚实": 4960,
      "独自": 4961,
      "的大狗": 4962,
      "也喜欢": 4963,
      "闪闪发光的": 4964,
      "她妈妈微笑着说": 4965,
      "床睡觉": 4966,
      "在公园": 4967,
      "以前从未见过": 4968,
      "这块": 4969,
      "她意识到": 4970,
      "不动": 4971,
      "打开门": 4972,
      "警告": 4973,
      "航行": 4974,
      "他们从此过上了幸福的生活": 4975,
      "对她": 4976,
      "了一口": 4977,
      "挂着": 4978,
      "爷爷": 4979,
      "他们必须": 4980,
      "失去了": 4981,
      "莫莉": 4982,
      "缤纷": 4983,
      "宠物": 4984,
      "蒂姆看到": 4985,
      "它并": 4986,
      "钱包": 4987,
      "胞胎": 4988,
      "双胞胎": 4989,
      "遇到了": 4990,
      "住着一只": 4991,
      "觉得这": 4992,
      "普通": 4993,
      "蒂米和": 4994,
      "之后": 4995,
      "锋利": 4996,
      "飞下来": 4997,
      "风吹来": 4998,
      "太高了": 4999,
      "告诉妈妈": 5000,
      "随着": 5001,
      "快乐的": 5002,
      "很难": 5003,
      "那只猫": 5004,
      "地毯": 5005,
      "爬上树": 5006,
      "听起来": 5007,
      "脾气暴躁": 5008,
      "的时间": 5009,
      "玩得开心": 5010,
      "高高的": 5011,
      "两个朋友": 5012,
      "乌龟": 5013,
      "发现了一只": 5014,
      "对他": 5015,
      "他们总是": 5016,
      "追赶": 5017,
      "吠叫": 5018,
      "色彩缤纷": 5019,
      "看到他": 5020,
      "很长时间": 5021,
      "ie": 5022,
      "整理": 5023,
      "做了一个": 5024,
      "你会": 5025,
      "学到了": 5026,
      "互相帮助": 5027,
      "一名": 5028,
      "这件": 5029,
      "打架": 5030,
      "意思": 5031,
      "手指": 5032,
      "自私": 5033,
      "的玩具车": 5034,
      "会发生": 5035,
      "周围的": 5036,
      "有一些": 5037,
      "足够": 5038,
      "那样": 5039,
      "但我": 5040,
      "走进了": 5041,
      "他是": 5042,
      "每天都会": 5043,
      "你的玩具": 5044,
      "恶心": 5045,
      "她必须": 5046,
      "他的球": 5047,
      "帮助他们": 5048,
      "不小心把": 5049,
      "愿望": 5050,
      "从来": 5051,
      "约翰尼": 5052,
      "那是一只": 5053,
      "咯咯": 5054,
      "交谈": 5055,
      "床底下": 5056,
      "天鹅": 5057,
      "为了": 5058,
      "斯波特": 5059,
      "宝石": 5060,
      "但当他": 5061,
      "抚摸": 5062,
      "他听到": 5063,
      "他又": 5064,
      "理发": 5065,
      "出来了": 5066,
      "其他孩子": 5067,
      "发生的事情": 5068,
      "整天都": 5069,
      "你喜欢": 5070,
      "他想要": 5071,
      "安全了": 5072,
      "他意识到": 5073,
      "感到高兴和": 5074,
      "做的": 5075,
      "那辆": 5076,
      "我的玩具": 5077,
      "兴奋了": 5078,
      "再见": 5079,
      "在天空中": 5080,
      "有一只大": 5081,
      "困难": 5082,
      "她不想": 5083,
      "了她": 5084,
      "没有找到": 5085,
      "快地": 5086,
      "你在做什么": 5087,
      "有一个小": 5088,
      "但蒂米": 5089,
      "当他们回到家时": 5090,
      "准备好": 5091,
      "骑自行车": 5092,
      "沿着": 5093,
      "她的新": 5094,
      "这种": 5095,
      "名叫本尼": 5096,
      "玛丽": 5097,
      "整洁": 5098,
      "紧张": 5099,
      "留在": 5100,
      "思考": 5101,
      "他感到": 5102,
      "就成了最好的朋友": 5103,
      "小睡": 5104,
      "尴尬": 5105,
      "他不知道": 5106,
      "爬上去": 5107,
      "梯子": 5108,
      "隐藏": 5109,
      "她认为": 5110,
      "拼图": 5111,
      "停止了": 5112,
      "艾米丽": 5113,
      "吃掉": 5114,
      "飞来飞去": 5115,
      "我们应该": 5116,
      "一个小": 5117,
      "用力": 5118,
      "喜欢整天": 5119,
      "自由": 5120,
      "枕头": 5121,
      "太小了": 5122,
      "她爸爸": 5123,
      "蒂米的朋友": 5124,
      "当蒂姆": 5125,
      "游行": 5126,
      "所有的动物": 5127,
      "把她": 5128,
      "真好": 5129,
      "太重": 5130,
      "非常难过": 5131,
      "乐于助人": 5132,
      "回家的路": 5133,
      "拉链": 5134,
      "充满了": 5135,
      "躲在": 5136,
      "慢跑": 5137,
      "每个人": 5138,
      "就能": 5139,
      "飞过": 5140,
      "闪闪发": 5141,
      "吃点": 5142,
      "明白了": 5143,
      "虽然": 5144,
      "吉尔": 5145,
      "天上": 5146,
      "地里": 5147,
      "玩的时候": 5148,
      "工具": 5149,
      "上床睡觉": 5150,
      "盘子": 5151,
      "出现了": 5152,
      "下去": 5153,
      "宝宝": 5154,
      "午餐": 5155,
      "恐龙": 5156,
      "面前说": 5157,
      "触摸": 5158,
      "他们很开心": 5159,
      "肚子": 5160,
      "图画": 5161,
      "雷米": 5162,
      "丽莎": 5163,
      "我只是": 5164,
      "痛苦": 5165,
      "烤箱": 5166,
      "毛茸茸的": 5167,
      "大卡车": 5168,
      "咆哮": 5169,
      "当莉莉": 5170,
      "的一切": 5171,
      "是啊": 5172,
      "没有人": 5173,
      "我的朋友": 5174,
      "莉莉又": 5175,
      "那些": 5176,
      "布朗尼": 5177,
      "一家人": 5178,
      "她很伤心": 5179,
      "喜欢和他的朋友们": 5180,
      "整个": 5181,
      "玩捉迷藏": 5182,
      "很抱歉": 5183,
      "跑得": 5184,
      "打印": 5185,
      "尽力": 5186,
      "神秘": 5187,
      "她向": 5188,
      "讲述": 5189,
      "倾听": 5190,
      "图片": 5191,
      "做一些": 5192,
      "修好了": 5193,
      "非常重要": 5194,
      "遇到了一位": 5195,
      "他们拥抱": 5196,
      "莉莉对": 5197,
      "他们非常高兴": 5198,
      "一个小男孩": 5199,
      "..": 5200,
      "玩耍和": 5201,
      "他们走": 5202,
      "她总是": 5203,
      "这个玩具": 5204,
      "姐姐": 5205,
      "她还": 5206,
      "是不": 5207,
      "经常": 5208,
      "太兴奋了": 5209,
      "行驶": 5210,
      "他们成了好朋友": 5211,
      "容易": 5212,
      "但没有找到": 5213,
      "离开了": 5214,
      "他们希望": 5215,
      "马克": 5216,
      "玩他的玩具": 5217,
      "帮妈妈": 5218,
      "在阳光下": 5219,
      "火箭": 5220,
      "为自己的": 5221,
      "但还是": 5222,
      "莉莉点点头": 5223,
      "玩具和": 5224,
      "嫉妒": 5225,
      "他的新": 5226,
      "做到了": 5227,
      "抬起": 5228,
      "看到她": 5229,
      "感谢了": 5230,
      "王子": 5231,
      "每次": 5232,
      "蒂米很伤心": 5233,
      "过着": 5234,
      "读书": 5235,
      "干燥": 5236,
      "在花园里": 5237,
      "他了解到": 5238,
      "平衡": 5239,
      "他们听到": 5240,
      "坚持": 5241,
      "这不是": 5242,
      "发现了一些": 5243,
      "回家的时候": 5244,
      "蒂米喜欢玩他的玩具": 5245,
      "聪明的老": 5246,
      "Tweetie": 5247,
      "他都会": 5248,
      "深刻": 5249,
      "橡皮": 5250,
      "粗鲁": 5251,
      "在一棵大树": 5252,
      "印象": 5253,
      "那位": 5254,
      "每天都在一起玩耍": 5255,
      "看着它": 5256,
      "动了": 5257,
      "想象": 5258,
      "文件": 5259,
      "弗雷德": 5260,
      "毛巾": 5261,
      "名叫露西": 5262,
      "下雨了": 5263,
      "她拿起": 5264,
      "浴缸": 5265,
      "太多": 5266,
      "麦克斯说": 5267,
      "麻烦": 5268,
      "兄弟": 5269,
      "很开心": 5270,
      "去了商店": 5271,
      "拍手": 5272,
      "不断": 5273,
      "了她的": 5274,
      "陌生": 5275,
      "的速度": 5276,
      "在外面的": 5277,
      "远离": 5278,
      "光滑": 5279,
      "她又": 5280,
      "微笑着说道": 5281,
      "握住": 5282,
      "和他的妈妈一起": 5283,
      "这只猫": 5284,
      "爬树": 5285,
      "享受乐趣": 5286,
      "她有一只": 5287,
      "就说": 5288,
      "感觉好一点": 5289,
      "对方": 5290,
      "我想要": 5291,
      "这次": 5292,
      "黄色的": 5293,
      "她喜欢在外面玩耍": 5294,
      "日记": 5295,
      "上面写着": 5296,
      "没有听": 5297,
      "醒来时": 5298,
      "我正在": 5299,
      "从此他们": 5300,
      "莉莉的妈妈让她": 5301,
      "有一只小狗": 5302,
      "一团": 5303,
      "知道他必须": 5304,
      "毛毛虫": 5305,
      "他也": 5306,
      "并向": 5307,
      "一天晚上": 5308,
      "太重了": 5309,
      "的食物": 5310,
      "发出很大的": 5311,
      "鲨鱼": 5312,
      "一阵大风吹来": 5313,
      "你还": 5314,
      "的好": 5315,
      "仍然可以": 5316,
      "我们一起玩": 5317,
      "河边": 5318,
      "找啊": 5319,
      "跑得很快": 5320,
      "和麦克斯": 5321,
      "到处寻找": 5322,
      "他有一": 5323,
      "在大": 5324,
      "座位": 5325,
      "馅饼": 5326,
      "帮助我": 5327,
      "一只鸟": 5328,
      "可爱的": 5329,
      "和悲伤": 5330,
      "变成了": 5331,
      "并将其": 5332,
      "莉莉很害怕": 5333,
      "袜子": 5334,
      "想念": 5335,
      "去玩": 5336,
      "很有": 5337,
      "享用": 5338,
      "举办": 5339,
      "上玩耍": 5340,
      "又大又红": 5341,
      "了他的": 5342,
      "她走到": 5343,
      "发现了一根": 5344,
      "最快": 5345,
      "我希望": 5346,
      "莉莉决定": 5347,
      "但他知道": 5348,
      "妈妈笑着说": 5349,
      "足球": 5350,
      "汽车和": 5351,
      "行李": 5352,
      "该男子": 5353,
      "莉莉很高兴能": 5354,
      "有一个名叫莉莉的小女孩": 5355,
      "生气了": 5356,
      "尽可能": 5357,
      "笑得很开心": 5358,
      "包裹": 5359,
      "方法": 5360,
      "一开始": 5361,
      "干得好": 5362,
      "不敢相信": 5363,
      "梦想着": 5364,
      "但她妈妈说": 5365,
      "午饭": 5366,
      "来玩": 5367,
      "谈论": 5368,
      "她都会": 5369,
      "他问妈妈": 5370,
      "礼貌": 5371,
      "这是一": 5372,
      "个好主意": 5373,
      "过着幸福的生活": 5374,
      "在她": 5375,
      "摇头": 5376,
      "水坑里": 5377,
      "看起来像": 5378,
      "莉莉不想": 5379,
      "来吧": 5380,
      "有趣的事情": 5381,
      "非常害怕": 5382,
      "永远不会": 5383,
      "他们也": 5384,
      "了一块": 5385,
      "并承诺": 5386,
      "特别的东西": 5387,
      "他们需要": 5388,
      "获得": 5389,
      "有很多朋友": 5390,
      "装满": 5391,
      "她的房间": 5392,
      "结束时": 5393,
      "舒适的": 5394,
      "请求": 5395,
      "首先": 5396,
      "感觉自己": 5397,
      "通过": 5398,
      "新东西": 5399,
      "这位女士": 5400,
      "这样做": 5401,
      "车子": 5402,
      "想法": 5403,
      "他们在一起玩得很开心": 5404,
      "本和": 5405,
      "这一次": 5406,
      "想到了一个主意": 5407,
      "但蒂姆": 5408,
      "毁了": 5409,
      "咬了一口": 5410,
      "的树": 5411,
      "巴兹": 5412,
      "给它": 5413,
      "肥皂": 5414,
      "故意": 5415,
      "她希望": 5416,
      "能找到": 5417,
      "你的朋友": 5418,
      "经过": 5419,
      "伸手": 5420,
      "并把它": 5421,
      "老虎": 5422,
      "她喜欢和朋友们一起": 5423,
      "关心": 5424,
      "拿出来": 5425,
      "兽医": 5426,
      "所有的玩具": 5427,
      "一切都": 5428,
      "很远": 5429,
      "蒂姆在": 5430,
      "带到": 5431,
      "鲸鱼": 5432,
      "赢得了": 5433,
      "你应该": 5434,
      "街上": 5435,
      "快乐和": 5436,
      "对于": 5437,
      "有一只小兔子": 5438,
      "小丑": 5439,
      "剩下": 5440,
      "摔倒": 5441,
      "山上": 5442,
      "改变": 5443,
      "告诉他们": 5444,
      "汤姆和苏": 5445,
      "笑话": 5446,
      "庆祝": 5447,
      "了一个新朋友": 5448,
      "假装自己": 5449,
      "两人都": 5450,
      "可可": 5451,
      "阻止": 5452,
      "生病": 5453,
      "迅速": 5454,
      "恢复": 5455,
      "不是故意": 5456,
      "她妈妈告诉她": 5457,
      "打破": 5458,
      "小虫子": 5459,
      "跳进": 5460,
      "想知道": 5461,
      "兴奋地": 5462,
      "她去": 5463,
      "给了他们": 5464,
      "跑过去": 5465,
      "这座": 5466,
      "沙堡": 5467,
      "瓶子": 5468,
      "一团糟": 5469,
      "还有": 5470,
      "弄得": 5471,
      "莉莉很兴奋": 5472,
      "小心点": 5473,
      "的主人": 5474,
      "蜡烛": 5475,
      "小老鼠": 5476,
      "那个男人": 5477,
      "我需要": 5478,
      "手机": 5479,
      "躺在": 5480,
      "围巾": 5481,
      "提醒": 5482,
      "她跑到": 5483,
      "断了": 5484,
      "妈妈微笑着说": 5485,
      "一只大狗": 5486,
      "这就是": 5487,
      "停了下来": 5488,
      "并试图": 5489,
      "它说": 5490,
      "走吧": 5491,
      "商店里": 5492,
      "高空": 5493,
      "寒冷": 5494,
      "展示了如何": 5495,
      "但是要小心": 5496,
      "远处": 5497,
      "慢慢地": 5498,
      "惊呼": 5499,
      "花生": 5500,
      "很高兴能够": 5501,
      "而感到难过": 5502,
      "我能": 5503,
      "很冷": 5504,
      "这意味着": 5505,
      "而是": 5506,
      "他们认为": 5507,
      "不行": 5508,
      "和猫": 5509,
      "争吵": 5510,
      "他拿起": 5511,
      "她正在": 5512,
      "上面有": 5513,
      "那是一": 5514,
      "莉莉的妈妈告诉她": 5515,
      "没事": 5516,
      "我在": 5517,
      "行走": 5518,
      "湿了": 5519,
      "举起": 5520,
      "和朋友": 5521,
      "共同": 5522,
      "她每天都": 5523,
      "葡萄": 5524,
      "拜访": 5525,
      "完成了": 5526,
      "着它": 5527,
      "他有一个": 5528,
      "头晕": 5529,
      "强大的": 5530,
      "的故事": 5531,
      "他们轮流": 5532,
      "莉莉把": 5533,
      "一只大": 5534,
      "很酷": 5535,
      "喷嚏": 5536,
      "很漂亮": 5537,
      "帮他": 5538,
      "放入": 5539,
      "印象深刻": 5540,
      "挥手告别": 5541,
      "母亲": 5542,
      "掉了下来": 5543,
      "月亮": 5544,
      "皮毛": 5545,
      "包里": 5546,
      "闻起来": 5547,
      "办法": 5548,
      "做到": 5549,
      "这太": 5550,
      "真漂亮": 5551,
      "不会再": 5552,
      "和朋友们一起玩": 5553,
      "几天": 5554,
      "紫色": 5555,
      "草莓": 5556,
      "地图": 5557,
      "不在": 5558,
      "这个问题": 5559,
      "他很伤心": 5560,
      "\"。\n": 5561,
      "他走到": 5562,
      "看上去很": 5563,
      "大森林里": 5564,
      "去公园散步": 5565,
      "这本书": 5566,
      "到处都是": 5567,
      "是时候": 5568,
      "惊呼道": 5569,
      "想帮忙": 5570,
      "距离": 5571,
      "他们试图": 5572,
      "接过": 5573,
      "重新": 5574,
      "失去": 5575,
      "在他": 5576,
      "它可以": 5577,
      "打招呼": 5578,
      "件好事": 5579,
      "清理干净": 5580,
      "一场大": 5581,
      "给妈妈": 5582,
      "她想要": 5583,
      "巨人": 5584,
      "大叫": 5585,
      "明亮": 5586,
      "走向": 5587,
      "滑梯上": 5588,
      "本和莉莉": 5589,
      "你是一个": 5590,
      "他们发现": 5591,
      "变得更": 5592,
      "从此他们过着幸福的生活": 5593,
      "坚固": 5594,
      "莉莉感到": 5595,
      "一只名叫麦克斯": 5596,
      "的小兔子": 5597,
      "摩托": 5598,
      "莉莉说道": 5599,
      "地上有一个": 5600,
      "用来": 5601,
      "又高兴": 5602,
      "美好的": 5603,
      "她和妈妈一起": 5604,
      "祈祷": 5605,
      "我现在": 5606,
      "莉莉想了想": 5607,
      "米娅说": 5608,
      "封信": 5609,
      "他非常喜欢": 5610,
      "小船": 5611,
      "摩托车": 5612,
      "专横": 5613,
      "心情": 5614,
      "友好": 5615,
      "她家": 5616,
      "度过了一段": 5617,
      "下山": 5618,
      "池塘边": 5619,
      "王冠": 5620,
      "麦片": 5621,
      "也能": 5622,
      "的小猫": 5623,
      "木头": 5624,
      "剪刀": 5625,
      "和他一起玩": 5626,
      "生物": 5627,
      "脆弱": 5628,
      "我爱你": 5629,
      "跳跳": 5630,
      "他必须": 5631,
      "橡子": 5632,
      "的最": 5633,
      "里面有": 5634,
      "抬起头": 5635,
      "的书": 5636,
      "任何人": 5637,
      "打球": 5638,
      "陌生人": 5639,
      "的味道": 5640,
      "做一个": 5641,
      "对待": 5642,
      "这一点": 5643,
      "马车": 5644,
      "架子上": 5645,
      "快乐地": 5646,
      "另一边": 5647,
      "实现": 5648,
      "走路": 5649,
      "在一座": 5650,
      "很危险": 5651,
      "刻薄": 5652,
      "继续玩": 5653,
      "独特": 5654,
      "她的泰迪熊": 5655,
      "散步时": 5656,
      "把它放在": 5657,
      "沙子": 5658,
      "和其他": 5659,
      "是对的": 5660,
      "他们有": 5661,
      "浑身": 5662,
      "吉他": 5663,
      "他们还": 5664,
      "安娜说": 5665,
      "寻常": 5666,
      "卫生": 5667,
      "结果": 5668,
      "感到非常难过": 5669,
      "得到了": 5670,
      "棒了": 5671,
      "清洁": 5672,
      "很乐意": 5673,
      "漂亮的衣服": 5674,
      "高大的": 5675,
      "接球游戏": 5676,
      "拿到": 5677,
      "我会帮你": 5678,
      "非常有": 5679,
      "帐篷": 5680,
      "拿回": 5681,
      "了一下": 5682,
      "看见": 5683,
      "胶水": 5684,
      "在上面": 5685,
      "他们不想": 5686,
      "试试": 5687,
      "莎拉和本": 5688,
      "莉莉开始": 5689,
      "鲍比": 5690,
      "嬉戏": 5691,
      "棕色的": 5692,
      "因此": 5693,
      "告别了": 5694,
      "站起来": 5695,
      "接受": 5696,
      "魔杖": 5697,
      "并探索": 5698,
      "一直在": 5699,
      "不属于": 5700,
      "慷慨": 5701,
      "不安": 5702,
      "他每天都": 5703,
      "不寻常": 5704,
      "他从": 5705,
      "家庭": 5706,
      "棵大树上": 5707,
      "名叫鲍勃": 5708,
      "铅笔": 5709,
      "脏了": 5710,
      "乌鸦": 5711,
      "很特别": 5712,
      "还给了": 5713,
      "来看望": 5714,
      "名字叫": 5715,
      "一个男孩": 5716,
      "它有": 5717,
      "这是个好主意": 5718,
      "快速": 5719,
      "那棵树": 5720,
      "面团": 5721,
      "那块": 5722,
      "海豚": 5723,
      "蹦蹦": 5724,
      "蹦蹦跳跳": 5725,
      "古老": 5726,
      "他们成了朋友": 5727,
      "早餐": 5728,
      "打了": 5729,
      "篮子": 5730,
      "和高兴": 5731,
      "莉莉问": 5732,
      "提米说": 5733,
      "风暴": 5734,
      "他们找到了": 5735,
      "吹口哨": 5736,
      "为你": 5737,
      "玩游戏": 5738,
      "雕像": 5739,
      "撞到了": 5740,
      "很热": 5741,
      "纸条": 5742,
      "买了": 5743,
      "男孩说": 5744,
      "惊讶地": 5745,
      "睡觉了": 5746,
      "他们不知道": 5747,
      "她没有": 5748,
      "给莉莉": 5749,
      "就这样": 5750,
      "简直": 5751,
      "吹走了": 5752,
      "意见": 5753,
      "狗说": 5754,
      "外面的": 5755,
      "麦克斯和": 5756,
      "棒糖": 5757,
      "一顶": 5758,
      "水龙": 5759,
      "里面有什么": 5760,
      "进入": 5761,
      "粉红色": 5762,
      "棒棒糖": 5763,
      "鲜花": 5764,
      "努力工作": 5765,
      "吵闹": 5766,
      "当你": 5767,
      "聪明的猫": 5768,
      "又跳": 5769,
      "充满": 5770,
      "蒂姆非常高兴": 5771,
      "你为什么悲伤": 5772,
      "他跳": 5773,
      "的动物": 5774,
      "越来越大": 5775,
      "知道自己": 5776,
      "协力": 5777,
      "齐心": 5778,
      "齐心协力": 5779,
      "她也": 5780,
      "去参加": 5781,
      "利奥": 5782,
      "了一口气": 5783,
      "这是什么": 5784,
      "周围的世界": 5785,
      "船上": 5786,
      "她的朋友汤姆": 5787,
      "农场里": 5788,
      "猫和狗": 5789,
      "谷仓": 5790,
      "这让": 5791,
      "很高兴看到": 5792,
      "耳朵": 5793,
      "一棵": 5794,
      "女巫": 5795,
      "和快乐": 5796,
      "简直不敢相信": 5797,
      "一个新": 5798,
      "他们对": 5799,
      "修好": 5800,
      "打扰": 5801,
      "他需要": 5802,
      "布鲁": 5803,
      "卡片": 5804,
      "!\"\n\"": 5805,
      "时刻": 5806,
      "他们成了最好的朋友": 5807,
      "米花": 5808,
      "什么也": 5809,
      "至于": 5810,
      "爆米花": 5811,
      "有时候": 5812,
      "的衣服": 5813,
      "有一种": 5814,
      "她能": 5815,
      "水龙头": 5816,
      "了一圈": 5817,
      "卢娜": 5818,
      "另一": 5819,
      "士兵": 5820,
      "你想和我一起玩吗": 5821,
      "长的": 5822,
      "他还": 5823,
      "摇摇头": 5824,
      "他不喜欢": 5825,
      "我们现在": 5826,
      "被困在": 5827,
      "结交": 5828,
      "和狗": 5829,
      "太快了": 5830,
      "那条": 5831,
      "留下": 5832,
      "带回": 5833,
      "图书": 5834,
      "分享和": 5835,
      "名叫米娅": 5836,
      "不需要": 5837,
      "他跑到": 5838,
      "以至于": 5839,
      "挑选": 5840,
      "她妈妈回答说": 5841,
      "发抖": 5842,
      "安迪": 5843,
      "收起来": 5844,
      "海盗": 5845,
      "该怎么做": 5846,
      "他希望": 5847,
      "他的车": 5848,
      "并想": 5849,
      "消防员": 5850,
      "吉米": 5851,
      "一个名叫苏的小女孩": 5852,
      "她最喜欢的玩具": 5853,
      "这对": 5854,
      "市场": 5855,
      "雨中": 5856,
      "电脑": 5857,
      "的妈妈说": 5858,
      "好心的": 5859,
      "这一天": 5860,
      "挂在": 5861,
      "叔叔": 5862,
      "的朋友们": 5863,
      "的新": 5864,
      "部分": 5865,
      "树林": 5866,
      "蒂米了解到": 5867,
      "而感到": 5868,
      "她喜欢用": 5869,
      "尊重": 5870,
      "她的父母": 5871,
      "我可以和你": 5872,
      "盛大的": 5873,
      "在水里": 5874,
      "这只虫子": 5875,
      "那位女士": 5876,
      "轮子": 5877,
      "测量": 5878,
      "推特": 5879,
      "你了": 5880,
      "秋千和": 5881,
      "聪明的老猫头鹰": 5882,
      "他的父亲": 5883,
      "椅子上": 5884,
      "蒂姆和他妈妈": 5885,
      "融化": 5886,
      "她看着": 5887,
      "完美的": 5888,
      "和一只": 5889,
      "村庄": 5890,
      "触碰": 5891,
      "一起吃": 5892,
      "小小": 5893,
      "正常": 5894,
      "友好的": 5895,
      "每天晚上": 5896,
      "有一座": 5897,
      "一起去公园": 5898,
      "看到一个大": 5899,
      "她拥抱": 5900,
      "一只大鸟": 5901,
      "她不知道": 5902,
      "这是有史以来": 5903,
      "弗雷迪": 5904,
      "尝尝": 5905,
      "安全的地方": 5906,
      "救命": 5907,
      "跟我": 5908,
      "望去": 5909,
      "呀走": 5910,
      "他们的玩具": 5911,
      "土豆": 5912,
      "水桶": 5913,
      "它们是": 5914,
      "拥抱了她": 5915,
      "哦不": 5916,
      "酷了": 5917,
      "闲事": 5918,
      "管闲事": 5919,
      "沙拉": 5920,
      "她的妈妈和爸爸": 5921,
      "名叫艾米": 5922,
      "有一块": 5923,
      "对他的": 5924,
      "感觉到": 5925,
      "我就": 5926,
      "妈妈身边": 5927,
      "这辆车": 5928,
      "她喜欢在阳光下": 5929,
      "他们向": 5930,
      "纸上": 5931,
      "很多东西": 5932,
      "按照": 5933,
      "收到": 5934,
      "找到它": 5935,
      "坐在长凳上": 5936,
      "油漆": 5937,
      "玉米": 5938,
      "他们看着": 5939,
      "用它来": 5940,
      "不用": 5941,
      "丛林里": 5942,
      "在地板上": 5943,
      "微笑道": 5944,
      "共同努力": 5945,
      "一个名叫露西": 5946,
      "朋友的": 5947,
      "一个玩具": 5948,
      "有笑": 5949,
      "这张": 5950,
      "可以让": 5951,
      "然后他们就": 5952,
      "公平": 5953,
      "办公": 5954,
      "任何东西": 5955,
      "别害怕": 5956,
      "友善的": 5957,
      "赢得了比赛": 5958,
      "我们可以一起": 5959,
      "是最好的朋友": 5960,
      "驾驶": 5961,
      "过了": 5962,
      "了一座": 5963,
      "紫色的": 5964,
      "莉莉总是": 5965,
      "门口": 5966,
      "棕色": 5967,
      "长大": 5968,
      "设计": 5969,
      "意外": 5970,
      "莫莫": 5971,
      "田野里": 5972,
      "做出": 5973,
      "从来没有": 5974,
      "咀嚼": 5975,
      "多汁": 5976,
      "滑稽": 5977,
      "山羊": 5978,
      "不再害怕了": 5979,
      "变得更好": 5980,
      "击中": 5981,
      "你还好吗": 5982,
      "靴子": 5983,
      "手里拿着": 5984,
      "干草": 5985,
      "解决这个问题": 5986,
      "的手": 5987,
      "那个人": 5988,
      "一段": 5989,
      "蜥蜴": 5990,
      "说有笑": 5991,
      "一个惊喜": 5992,
      "口香": 5993,
      "口香糖": 5994,
      "她很害怕": 5995,
      "感到高兴和自豪": 5996,
      "她喜欢吃": 5997,
      "有一个朋友": 5998,
      "非常满意": 5999,
      "果酱": 6000,
      "独立": 6001,
      "很小": 6002,
      "就在": 6003,
      "我给你": 6004,
      "到达了": 6005,
      "影子": 6006,
      "她从": 6007,
      "有点害怕": 6008,
      "丛林": 6009,
      "听了妈妈的话": 6010,
      "结局": 6011,
      "幸福地": 6012,
      "头盔": 6013,
      "玫瑰": 6014,
      "依偎": 6015,
      "一人": 6016,
      "安全地": 6017,
      "的事情发生了": 6018,
      "允许": 6019,
      "经历了": 6020,
      "哭着": 6021,
      "果冻": 6022,
      "他喜欢玩": 6023,
      "向日": 6024,
      "公园时": 6025,
      "去冒险": 6026,
      "但当他们": 6027,
      "提出": 6028,
      "真的很": 6029,
      "是一位": 6030,
      "站在": 6031,
      "疯狂": 6032,
      "不好了": 6033,
      "镜子": 6034,
      "小鸟很高兴": 6035,
      "向日葵": 6036,
      "汤姆和山姆": 6037,
      "这朵花": 6038,
      "小波": 6039,
      "名叫杰克": 6040,
      "是不好的": 6041,
      "也不": 6042,
      "他环顾四周": 6043,
      "莉莉为": 6044,
      "邮箱": 6045,
      "一朵": 6046,
      "足够的": 6047,
      "篮球": 6048,
      "飞走": 6049,
      "没能": 6050,
      "非常好": 6051,
      "沙发上": 6052,
      "回家的时间": 6053,
      "聚会上": 6054,
      "他们正在": 6055,
      "一首": 6056,
      "根本": 6057,
      "飞了": 6058,
      "当蒂米": 6059,
      "樱桃": 6060,
      "并不是": 6061,
      "到外面玩": 6062,
      "背上": 6063,
      "消息": 6064,
      "可以一起玩": 6065,
      "她的朋友蒂米": 6066,
      "失望": 6067,
      "蓝莓": 6068,
      "添加": 6069,
      "发现了一颗": 6070,
      "我不喜欢": 6071,
      "夹克": 6072,
      "明亮的": 6073,
      "全部": 6074,
      "喜欢玩她的玩具": 6075,
      "一个男人": 6076,
      "莉莉高兴极了": 6077,
      "分钟": 6078,
      "我们一起玩吧": 6079,
      "罗西": 6080,
      "各种": 6081,
      "吓坏了": 6082,
      "不停": 6083,
      "变得更加": 6084,
      "又高兴了": 6085,
      "是可以": 6086,
      "觉得很": 6087,
      "让妈妈": 6088,
      "惊讶的是": 6089,
      "莉莉的爸爸": 6090,
      "参观": 6091,
      "叹了口气": 6092,
      "她为": 6093,
      "美妙": 6094,
      "似乎": 6095,
      "波莉": 6096,
      "蒂姆了解到": 6097,
      "吃着": 6098,
      "擦干": 6099,
      "莉莉和她的": 6100,
      "好起来": 6101,
      "莉莉意识到": 6102,
      "他看到一只": 6103,
      "珠宝": 6104,
      "的孩子": 6105,
      "汤姆喜欢": 6106,
      "他家": 6107,
      "他们在公园里": 6108,
      "这么做": 6109,
      "一脸": 6110,
      "橙色": 6111,
      "猎人": 6112,
      "有一个新朋友": 6113,
      "树木和": 6114,
      "飞向": 6115,
      "和玩具": 6116,
      "他们都很高兴": 6117,
      "她觉得": 6118,
      "做不到": 6119,
      "棒的": 6120,
      "几个": 6121,
      "很安全": 6122,
      "袋子里": 6123,
      "大房子里": 6124,
      "洞穴": 6125,
      "力量": 6126,
      "吃晚饭": 6127,
      "了一次": 6128,
      "即使是": 6129,
      "oo": 6130,
      "遗憾": 6131,
      "介意": 6132,
      "随身": 6133,
      "到达那里时": 6134,
      "他们去了": 6135,
      "都很高兴": 6136,
      "很友善": 6137,
      "松饼": 6138,
      "美丽的花": 6139,
      "得越来越": 6140,
      "数字": 6141,
      "带到了": 6142,
      "的是什么": 6143,
      "你真": 6144,
      "他看着": 6145,
      "抱着": 6146,
      "厉害": 6147,
      "进来了": 6148,
      "羞愧": 6149,
      "做朋友": 6150,
      "蓬松": 6151,
      "感到非常高兴和": 6152,
      "说话了": 6153,
      "这个男人": 6154,
      "从此以后": 6155,
      "院子": 6156,
      "咯咯地": 6157,
      "听着": 6158,
      "室里": 6159,
      "长颈": 6160,
      "鼹鼠": 6161,
      "求助": 6162,
      "用他的": 6163,
      "把手": 6164,
      "大船": 6165,
      "奇怪的": 6166,
      "但妈妈": 6167,
      "爬到": 6168,
      "着手": 6169,
      "大树": 6170,
      "带来了": 6171,
      "用的": 6172,
      "了一声": 6173,
      "旗帜": 6174,
      "一天结束时": 6175,
      "蒂米的爸爸": 6176,
      "这个人": 6177,
      "安慰": 6178,
      "莉莉看着": 6179,
      "长颈鹿": 6180,
      "一只狗": 6181,
      "她妈妈回答道": 6182,
      "伤了": 6183,
      "ky": 6184,
      "海浪": 6185,
      "洗碗": 6186,
      "蒂姆和他的朋友们": 6187,
      "乘坐": 6188,
      "一座大": 6189,
      "桃子": 6190,
      "做好": 6191,
      "寻找食物": 6192,
      "巢里": 6193,
      "旅程": 6194,
      "伸出": 6195,
      "的游戏": 6196,
      "丑陋": 6197,
      "了吗": 6198,
      "的房间": 6199,
      "绷带": 6200,
      "骑着": 6201,
      "楼梯": 6202,
      "是我的": 6203,
      "鬼脸": 6204,
      "你太": 6205,
      "很高": 6206,
      "莉莉和妈妈": 6207,
      "接住": 6208,
      "感觉好点": 6209,
      "不安全": 6210,
      "玩她的玩具": 6211,
      "获胜": 6212,
      "跑步和玩耍": 6213,
      "不着": 6214,
      "又冷": 6215,
      "粉色": 6216,
      "装饰品": 6217,
      "py": 6218,
      "的人们": 6219,
      "漂亮了": 6220,
      "甲虫": 6221,
      "软管": 6222,
      "有两个朋友": 6223,
      "湖边": 6224,
      "中的": 6225,
      "锋利的": 6226,
      "他们将": 6227,
      "但也": 6228,
      "隧道": 6229,
      "很累": 6230,
      "好啊": 6231,
      "在院子里": 6232,
      "在一棵树": 6233,
      "打翻": 6234,
      "骑士": 6235,
      "电筒": 6236,
      "绿色的大": 6237,
      "样子": 6238,
      "蘑菇": 6239,
      "走进房间": 6240,
      "发出很大的声音": 6241,
      "汤姆很高兴": 6242,
      "一本": 6243,
      "一整天": 6244,
      "粘土": 6245,
      "了它": 6246,
      "灵活": 6247,
      "现代": 6248,
      "袭来": 6249,
      "帮助妈妈": 6250,
      "喷泉": 6251,
      "亲吻": 6252,
      "水和": 6253,
      "理解": 6254,
      "你知道": 6255,
      "再玩": 6256,
      "我们能": 6257,
      "看到一棵大树": 6258,
      "喜欢它": 6259,
      "听话": 6260,
      "莉莉感觉好多了": 6261,
      "错了": 6262,
      "陷阱": 6263,
      "直升": 6264,
      "附近玩耍": 6265,
      "车库": 6266,
      "只有": 6267,
      "鼓励": 6268,
      "他们要": 6269,
      "太阳开始": 6270,
      "你有": 6271,
      "但有时": 6272,
      "钢琴": 6273,
      "打电话给": 6274,
      "做了一": 6275,
      "光芒": 6276,
      "勇敢的": 6277,
      "优雅": 6278,
      "她的手": 6279,
      "去医院": 6280,
      "莉莉微笑着说": 6281,
      "直升机": 6282,
      "小鸟和": 6283,
      "出去玩了": 6284,
      "按下": 6285,
      "华夫": 6286,
      "抱住了": 6287,
      "贝特": 6288,
      "贝特西": 6289,
      "弄坏了": 6290,
      "和水": 6291,
      "磁铁": 6292,
      "她喜欢在外面的": 6293,
      "华夫饼": 6294,
      "做得很好": 6295,
      "图书馆": 6296,
      "黄油": 6297,
      "海边": 6298,
      "女王": 6299,
      "在草地上": 6300,
      "章鱼": 6301,
      "打扫卫生": 6302,
      "想去": 6303,
      "出发": 6304,
      "回来时": 6305,
      "舞台": 6306,
      "莉莉为自己": 6307,
      "它就": 6308,
      "不了": 6309,
      "有一把": 6310,
      "住在一栋": 6311,
      "分享他的": 6312,
      "玩了一会儿": 6313,
      "大喊大叫": 6314,
      "他和": 6315,
      "吃它": 6316,
      "考试": 6317,
      "超级": 6318,
      "秋千上": 6319,
      "小溪": 6320,
      "深吸": 6321,
      "贴纸": 6322,
      "来帮助": 6323,
      "又害怕": 6324,
      "没有看到": 6325,
      "一些食物": 6326,
      "爱管闲事": 6327,
      "走来走去": 6328,
      "回家时": 6329,
      "出了一个": 6330,
      "兰花": 6331,
      "享受着": 6332,
      "莉莉很惊讶": 6333,
      "西兰花": 6334,
      "她喜欢和妈妈一起": 6335,
      "敲门": 6336,
      "回到公园": 6337,
      "跳了起来": 6338,
      "相机": 6339,
      "鹦鹉": 6340,
      "生长": 6341,
      "一头": 6342,
      "却发现": 6343,
      "测试": 6344,
      "无害": 6345,
      "看到了发生的事情": 6346,
      "蒂米和他的朋友们": 6347,
      "的脸": 6348,
      "它非常": 6349,
      "吉普": 6350,
      "在家里": 6351,
      "忠诚": 6352,
      "我不会": 6353,
      "弄得一团糟": 6354,
      "她问妈妈是否可以": 6355,
      "吉普车": 6356,
      "是可以的": 6357,
      "摘花": 6358,
      "学到": 6359,
      "当他们玩耍时": 6360,
      "他的朋友萨姆": 6361,
      "讲述了": 6362,
      "永远不会忘记": 6363,
      "蒂姆问": 6364,
      "可怜": 6365,
      "水花": 6366,
      "彩色": 6367,
      "天使": 6368,
      "满足": 6369,
      "叫着": 6370,
      "他们笑着": 6371,
      "令人印象深刻": 6372,
      "屋顶": 6373,
      "撞到": 6374,
      "在一座小房子里": 6375,
      "闪闪发光的东西": 6376,
      "钻石": 6377,
      "他正在": 6378,
      "弹跳": 6379,
      "把它捡起来": 6380,
      "你可能会": 6381,
      "大海": 6382,
      "我叫": 6383,
      "不错": 6384,
      "书架": 6385,
      "喜欢看": 6386,
      "一个名叫米娅": 6387,
      "轮胎": 6388,
      "逃离": 6389,
      "是件好事": 6390,
      "热爱": 6391,
      "拥抱了他": 6392,
      "洋葱": 6393,
      "滚动": 6394,
      "他们喜欢玩": 6395,
      "有一根": 6396,
      "也会": 6397,
      "唱着": 6398,
      "他们跑到": 6399,
      "莉莉回答道": 6400,
      "吃的": 6401,
      "湿透": 6402,
      "比利说": 6403,
      "她把它捡起来": 6404,
      "名叫莉莉的女孩": 6405,
      "喝了": 6406,
      "夫人": 6407,
      "玩完后": 6408,
      "与朋友": 6409,
      "衣柜里": 6410,
      "豆子": 6411,
      "密斯": 6412,
      "并用": 6413,
      "的路": 6414,
      "西红": 6415,
      "史密斯": 6416,
      "西红柿": 6417,
      "皮带": 6418,
      "拯救": 6419,
      "有趣了": 6420,
      "莉莉问妈妈": 6421,
      "等待着": 6422,
      "就去": 6423,
      "珍妮": 6424,
      "内疚": 6425,
      "重的": 6426,
      "叽叽": 6427,
      "从哪里": 6428,
      "卡住了": 6429,
      "洗手": 6430,
      "莉莉觉得": 6431,
      "她环顾四周": 6432,
      "在一棵大树下": 6433,
      "打扫房间": 6434,
      "去看望": 6435,
      "他最喜欢的玩具": 6436,
      "尝试新事物": 6437,
      "受欢迎": 6438,
      "碗里": 6439,
      "做点": 6440,
      "视频": 6441,
      "的兔子": 6442,
      "冰冷": 6443,
      "试了又": 6444,
      "牌子": 6445,
      "的翅膀": 6446,
      "笔记": 6447,
      "悲伤和": 6448,
      "闪闪发亮": 6449,
      "叼着": 6450,
      "太难": 6451,
      "它在": 6452,
      "放松": 6453,
      "到了回家的时间": 6454,
      "一些东西": 6455,
      "正确的": 6456,
      "浇水": 6457,
      "毛衣": 6458,
      "很勇敢": 6459,
      "但没有人": 6460,
      "大猫": 6461,
      "试了又试": 6462,
      "立方": 6463,
      "莉莉试图": 6464,
      "呼救": 6465,
      "给了莉莉": 6466,
      "不太好": 6467,
      "同情": 6468,
      "做了什么": 6469,
      "喇叭": 6470,
      "手电筒": 6471,
      "展示给": 6472,
      "玻璃": 6473,
      "她妈妈给了她": 6474,
      "岩石上": 6475,
      "农民": 6476,
      "的虫子": 6477,
      "空气": 6478,
      "好处": 6479,
      "他们非常": 6480,
      "了很长时间": 6481,
      "装的是什么": 6482,
      "你想要": 6483,
      "掉进了": 6484,
      "叉子": 6485,
      "喳喳": 6486,
      "叽叽喳喳": 6487,
      "有一大": 6488,
      "清楚": 6489,
      "仙人": 6490,
      "和爸爸妈妈": 6491,
      "美丽的花朵": 6492,
      "他们听到一声巨响": 6493,
      "随时": 6494,
      "立方体": 6495,
      "我不是故意": 6496,
      "每当": 6497,
      "香肠": 6498,
      "拥抱着": 6499,
      "这会": 6500,
      "掉到了": 6501,
      "几天后": 6502,
      "了一大口": 6503,
      "一个名叫露西的小女孩": 6504,
      "创意": 6505,
      "躲起来": 6506,
      "吐司": 6507,
      "黑了": 6508,
      "服装": 6509,
      "所有的动物都": 6510,
      "仙人掌": 6511,
      "蝴蝶结": 6512,
      "和他的朋友们一起玩": 6513,
      "看了一": 6514,
      "身后": 6515,
      "他觉得": 6516,
      "建筑": 6517,
      "看起来很有趣": 6518,
      "他的主人": 6519,
      "爬行": 6520,
      "漂亮的花": 6521,
      "又大又圆": 6522,
      "看到一辆": 6523,
      "他感谢": 6524,
      "著名": 6525,
      "的冒险": 6526,
      "书籍": 6527,
      "出租": 6528,
      "在商店里": 6529,
      "上下": 6530,
      "卵石": 6531,
      "继续前": 6532,
      "的情况": 6533,
      "三角": 6534,
      "出租车": 6535,
      "松了口气": 6536,
      "护士": 6537,
      "我们来玩": 6538,
      "建造一座": 6539,
      "休息一下": 6540,
      "追逐": 6541,
      "学习新事物": 6542,
      "他看到了一个": 6543,
      "近了": 6544,
      "在一个大": 6545,
      "结识了一个新朋友": 6546,
      "水晶": 6547,
      "很脏": 6548,
      "对他来说": 6549,
      "干净的": 6550,
      "和他的家人": 6551,
      "因为他们": 6552,
      "奶奶家": 6553,
      "她和妈妈": 6554,
      "关上": 6555,
      "和他们一起玩": 6556,
      "踢球": 6557,
      "对她来说": 6558,
      "长着": 6559,
      "泥巴": 6560,
      "奇怪的声音": 6561,
      "in": 6562,
      "他走": 6563,
      "开始摇晃": 6564,
      "伟大的": 6565,
      "那不是": 6566,
      "他去": 6567,
      "请不要": 6568,
      "浴缸里": 6569,
      "他应该": 6570,
      "我们把": 6571,
      "彗星": 6572,
      "和一些": 6573,
      "幸福地生活": 6574,
      "草地": 6575,
      "秋千和滑梯": 6576,
      "忘了": 6577,
      "到处找": 6578,
      "其他人": 6579,
      "喜欢在外面玩": 6580,
      "苏很高兴": 6581,
      "这颗": 6582,
      "蒂姆把": 6583,
      "烟花": 6584,
      "达基": 6585,
      "酸奶": 6586,
      "他们都笑了": 6587,
      "放进去": 6588,
      "在一片大森林里": 6589,
      "甚至还": 6590,
      "她妈妈看": 6591,
      "太酷了": 6592,
      "他们一起玩了一整天": 6593,
      "公牛": 6594,
      "愚蠢的": 6595,
      "提琴": 6596,
      "跑回家": 6597,
      "裤子": 6598,
      "灌木丛中": 6599,
      "蔚蓝": 6600,
      "太棒了": 6601,
      "超级英雄": 6602,
      "她喜欢在外面玩": 6603,
      "车里": 6604,
      "的一课": 6605,
      "有趣的一天": 6606,
      "信封": 6607,
      "有一颗": 6608,
      "公园里玩": 6609,
      "跳了出来": 6610,
      "的感觉": 6611,
      "数数": 6612,
      "她的奶奶": 6613,
      "有时事情": 6614,
      "和她的朋友": 6615,
      "港口": 6616,
      "原来": 6617,
      "大熊": 6618,
      "停了": 6619,
      "说对不起": 6620,
      "糕点": 6621,
      "赢了": 6622,
      "莉莉的妈妈给了她": 6623,
      "小马": 6624,
      "保留它": 6625,
      "颜六": 6626,
      "五颜六": 6627,
      "你愿意": 6628,
      "甜点": 6629,
      "女人": 6630,
      "但现在": 6631,
      "小镇": 6632,
      "碎了": 6633,
      "比以前": 6634,
      "颜色和": 6635,
      "皮肤": 6636,
      "理发师": 6637,
      "去外面玩": 6638,
      "跳蚤": 6639,
      "演出": 6640,
      "火山": 6641,
      "看到的": 6642,
      "挥舞": 6643,
      "长得": 6644,
      "该回家了": 6645,
      "看到了一些": 6646,
      "你要": 6647,
      "工厂": 6648,
      "火鸡": 6649,
      "聪明的猫头鹰": 6650,
      "做任何": 6651,
      "面粉": 6652,
      "雷克斯": 6653,
      "真是太高兴了": 6654,
      "相反": 6655,
      "走过": 6656,
      "我来": 6657,
      "他们要去": 6658,
      "无助": 6659,
      "她穿上": 6660,
      "既惊讶": 6661,
      "节目": 6662,
      "海滩上": 6663,
      "岸边": 6664,
      "金枪": 6665,
      "白色的": 6666,
      "金枪鱼": 6667,
      "快点": 6668,
      "锤子": 6669,
      "她不喜欢": 6670,
      "笔记本": 6671,
      "是什么意思": 6672,
      "之处": 6673,
      "坐下": 6674,
      "就一直": 6675,
      "杰克说": 6676,
      "价值": 6677,
      "不一样": 6678,
      "喜欢这个": 6679,
      "表现得": 6680,
      "够不到": 6681,
      "友善和": 6682,
      "但首先": 6683,
      "有很多玩具": 6684,
      "去看医生": 6685,
      "任务": 6686,
      "那个大": 6687,
      "水面": 6688,
      "Ch": 6689,
      "不想分享": 6690,
      "又湿": 6691,
      "当他们到达那里时": 6692,
      "愉快的时光": 6693,
      "干净了": 6694,
      "太阳开始落山": 6695,
      "企鹅": 6696,
      "他只是": 6697,
      "他告诉": 6698,
      "皮特": 6699,
      "他们在一起": 6700,
      "大门": 6701,
      "粉笔": 6702,
      "醒了": 6703,
      "我们走吧": 6704,
      "公共": 6705,
      "车上": 6706,
      "管子": 6707,
      "找到的": 6708,
      "普通的": 6709,
      "那是我的": 6710,
      "吉姆": 6711,
      "为他们": 6712,
      "斑马": 6713,
      "她的球": 6714,
      "找到了一些": 6715,
      "她需要": 6716,
      "汤姆想": 6717,
      "在房间里": 6718,
      "她感谢": 6719,
      "绊倒了": 6720,
      "怎么样": 6721,
      "滑下来": 6722,
      "了他们": 6723,
      "也很感激": 6724,
      "即将": 6725,
      "个子": 6726,
      "凉爽": 6727,
      "他妈妈微笑着说": 6728,
      "战斗": 6729,
      "这让她": 6730,
      "里面装满了": 6731,
      "电池": 6732,
      "飞得很高": 6733,
      "太阳落山": 6734,
      "看到了很多": 6735,
      "他们玩了一整天": 6736,
      "豹子": 6737,
      "标志": 6738,
      "受到": 6739,
      "纱线": 6740,
      "我喜欢你的": 6741,
      "放心": 6742,
      "木筏": 6743,
      "四处寻找": 6744,
      "有一棵": 6745,
      "小时": 6746,
      "森林里散步": 6747,
      "但他没有": 6748,
      "他爸爸": 6749,
      "胶带": 6750,
      "玩笑": 6751,
      "不再害怕": 6752,
      "是个": 6753,
      "蒂姆很害怕": 6754,
      "追着": 6755,
      "感觉很好": 6756,
      "不停地": 6757,
      "山洞": 6758,
      "遍了": 6759,
      "在树林里": 6760,
      "叫声": 6761,
      "来回": 6762,
      "竞争": 6763,
      "一路": 6764,
      "好心人": 6765,
      "做的事情": 6766,
      "了一根": 6767,
      "查看": 6768,
      "和她一起玩": 6769,
      "太好了": 6770,
      "固定": 6771,
      "他们笑得很开心": 6772,
      "最快的速度": 6773,
      "好主意": 6774,
      "开始下雨了": 6775,
      "深吸了一口气": 6776,
      "世界上": 6777,
      "她微笑着": 6778,
      "海豹": 6779,
      "和它": 6780,
      "很好的": 6781,
      "救护": 6782,
      "了进去": 6783,
      "创作": 6784,
      "角落": 6785,
      "变得很": 6786,
      "有了": 6787,
      "用嘴": 6788,
      "汤姆和米娅": 6789,
      "接下来": 6790,
      "还给我": 6791,
      "多莉": 6792,
      "爬上了": 6793,
      "藤蔓": 6794,
      "这个男孩": 6795,
      "所有的朋友都": 6796,
      "马克斯说": 6797,
      "蒂米很": 6798,
      "成为了朋友": 6799,
      "谦虚": 6800,
      "一动": 6801,
      "不再那么": 6802,
      "买一些": 6803,
      "的花": 6804,
      "他们感到": 6805,
      "每天早上": 6806,
      "聊天": 6807,
      "起来了": 6808,
      "天色": 6809,
      "名叫提米": 6810,
      "莉莉去": 6811,
      "哈欠": 6812,
      "红色汽车": 6813,
      "蒂姆的朋友": 6814,
      "我很抱歉": 6815,
      "了上去": 6816,
      "蟋蟀": 6817,
      "游艇": 6818,
      "肮脏": 6819,
      "走到哪里": 6820,
      "吃午饭": 6821,
      "她的弟弟": 6822,
      "了一首": 6823,
      "拍打": 6824,
      "变得非常": 6825,
      "或者": 6826,
      "藏在": 6827,
      "红色的大球": 6828,
      "拉着": 6829,
      "道上": 6830,
      "以最快的速度": 6831,
      "住在一所": 6832,
      "蒂米喜欢和他的朋友们": 6833,
      "重要的": 6834,
      "自己做": 6835,
      "屏幕": 6836,
      "咬了一大口": 6837,
      "公共汽车": 6838,
      "决定去": 6839,
      "一群": 6840,
      "抽屉": 6841,
      "非常感激": 6842,
      "跑过来": 6843,
      "手镯": 6844,
      "粗糙": 6845,
      "水母": 6846,
      "我可以帮助你": 6847,
      "又漂亮": 6848,
      "却没有找到": 6849,
      "放进了": 6850,
      "蒂姆和他的妈妈": 6851,
      "眉头": 6852,
      "拜托": 6853,
      "艘船": 6854,
      "奖品": 6855,
      "那人说": 6856,
      "莉莉感到很难过": 6857,
      "他们坐在": 6858,
      "一起玩了一整天": 6859,
      "颤抖": 6860,
      "咖啡": 6861,
      "破坏": 6862,
      "猩猩": 6863,
      "文件夹": 6864,
      "五颜六色的": 6865,
      "管理": 6866,
      "他看到了一只": 6867,
      "有趣的游戏": 6868,
      "我不": 6869,
      "就问": 6870,
      "开始玩": 6871,
      "同样": 6872,
      "便宜": 6873,
      "疲倦": 6874,
      "酱汁": 6875,
      "星期": 6876,
      "过的": 6877,
      "蒂米看到": 6878,
      "是多么": 6879,
      "长长的": 6880,
      "和家人一起去": 6881,
      "饥饿": 6882,
      "阅读": 6883,
      "哈哈": 6884,
      "蒂米很害怕": 6885,
      "什么名字": 6886,
      "尽可能快地": 6887,
      "毛绒": 6888,
      "有一头": 6889,
      "耐烦": 6890,
      "她的房间里": 6891,
      "却找不到": 6892,
      "等着": 6893,
      "店主": 6894,
      "尔夫": 6895,
      "牛排": 6896,
      "看着她": 6897,
      "他们每天都在一起玩": 6898,
      "歌唱": 6899,
      "成为一名": 6900,
      "在厨房里": 6901,
      "低声": 6902,
      "帮手": 6903,
      "自然": 6904,
      "他不": 6905,
      "但汤姆": 6906,
      "对她的": 6907,
      "芹菜": 6908,
      "城堡里": 6909,
      "地里玩耍": 6910,
      "坏人": 6911,
      "抱怨": 6912,
      "看书": 6913,
      "运动": 6914,
      "它又大又": 6915,
      "折断": 6916,
      "我也是": 6917,
      "交给了": 6918,
      "也许我们可以": 6919,
      "一起跳舞": 6920,
      "莉莉也": 6921,
      "然后就": 6922,
      "去寻找": 6923,
      "动作": 6924,
      "结交新朋友": 6925,
      "道别": 6926,
      "强大": 6927,
      "都很伤心": 6928,
      "一个名叫米娅的小女孩": 6929,
      "火焰": 6930,
      "阔的": 6931,
      "蜘蛛网": 6932,
      "不喜欢这样": 6933,
      "上学": 6934,
      "一棵树": 6935,
      "几个小时": 6936,
      "但很快": 6937,
      "非常生气": 6938,
      "阿姨": 6939,
      "带有": 6940,
      "鹅卵石": 6941,
      "找到回家的路": 6942,
      "好好": 6943,
      "布娃娃": 6944,
      "几分钟": 6945,
      "善待他人": 6946,
      "破裂": 6947,
      "小偷": 6948,
      "看电视": 6949,
      "飞行员": 6950,
      "海洋": 6951,
      "救护车": 6952,
      "喜欢探索": 6953,
      "想起": 6954,
      "住在一个大": 6955,
      "胡子": 6956,
      "有趣的东西": 6957,
      "哎哟": 6958,
      "出了什么事": 6959,
      "邮票": 6960,
      "感觉好一些": 6961,
      "两只": 6962,
      "莉莉和妈妈一起": 6963,
      "不耐烦": 6964,
      "他的房间": 6965,
      "回了家": 6966,
      "一段时间": 6967,
      "了一辆": 6968,
      "竟然": 6969,
      "他看到一棵大树": 6970,
      "什么是": 6971,
      "蒂姆的妈妈说": 6972,
      "手中夺": 6973,
      "舞蹈": 6974,
      "发现了一张": 6975,
      "神秘的": 6976,
      "去海滩": 6977,
      "在路上": 6978,
      "哪儿": 6979,
      "音机": 6980,
      "在哭": 6981,
      "的另一边": 6982,
      "发现了一大": 6983,
      "吃一": 6984,
      "自己的房间里": 6985,
      "所有的孩子": 6986,
      "蒂米的妈妈告诉他": 6987,
      "你也": 6988,
      "巢穴": 6989,
      "蚊子": 6990,
      "麻袋": 6991,
      "放着": 6992,
      "但他妈妈说": 6993,
      "以免": 6994,
      "有趣的冒险": 6995,
      "非常感谢": 6996,
      "店里": 6997,
      "叫什么名字": 6998,
      "并没有放弃": 6999,
      "跳上": 7000,
      "艾拉": 7001,
      "他们每天都在一起玩耍": 7002,
      "他们走到": 7003,
      "并分享": 7004,
      "她为自己": 7005,
      "一起玩了": 7006,
      "她整天": 7007,
      "圆圈": 7008,
      "一圈": 7009,
      "轮到": 7010,
      "而且很": 7011,
      "餐巾": 7012,
      "闻起来很": 7013,
      "但意想不到的事情发生了": 7014,
      "她打开": 7015,
      "的苹果": 7016,
      "有一座大": 7017,
      "度过了一段愉快的时光": 7018,
      "留下来": 7019,
      "鸵鸟": 7020,
      "橙子": 7021,
      "薄荷": 7022,
      "他们感谢": 7023,
      "苍蝇": 7024,
      "小提琴": 7025,
      "我把": 7026,
      "不愿意": 7027,
      "水獭": 7028,
      "办公室": 7029,
      "我没有": 7030,
      "牡蛎": 7031,
      "的门": 7032,
      "抬头看着": 7033,
      "辣椒": 7034,
      "把球扔": 7035,
      "死了": 7036,
      "阁楼": 7037,
      "所以他决定": 7038,
      "戒指": 7039,
      "飞到了": 7040,
      "电梯": 7041,
      "嘴里叼着": 7042,
      "水槽": 7043,
      "机会": 7044,
      "他们为": 7045,
      "河里": 7046,
      "他们和": 7047,
      "小车": 7048,
      "棒球": 7049,
      "我的车": 7050,
      "保持平衡": 7051,
      "电线": 7052,
      "得更快": 7053,
      "不要担心": 7054,
      "犀牛": 7055,
      "让它们": 7056,
      "这样的": 7057,
      "戴在": 7058,
      "支持": 7059,
      "给了她一个大大的拥抱": 7060,
      "看起来很漂亮": 7061,
      "我们不能": 7062,
      "凶猛": 7063,
      "河马": 7064,
      "可以帮助": 7065,
      "沙子里": 7066,
      "它喜欢": 7067,
      "金属": 7068,
      "她喜欢玩她的玩具": 7069,
      "是双胞胎": 7070,
      "蒂米问道": 7071,
      "白色": 7072,
      "螺丝": 7073,
      "不见": 7074,
      "同情心": 7075,
      "炎热": 7076,
      "看着他们": 7077,
      "但它们": 7078,
      "他们回到": 7079,
      "固执": 7080,
      "什么问题": 7081,
      "走进了房间": 7082,
      "鲜艳": 7083,
      "我们要": 7084,
      "吃完了": 7085,
      "滑滑梯": 7086,
      "开始了": 7087,
      "窗帘": 7088,
      "的熊": 7089,
      "太难了": 7090,
      "落在了": 7091,
      "破损": 7092,
      "小女孩说": 7093,
      "装进": 7094,
      "村庄里": 7095,
      "莉莉的弟弟": 7096,
      "和唱歌": 7097,
      "携带": 7098,
      "他们的朋友": 7099,
      "有耐心": 7100,
      "钉子": 7101,
      "她迫不及待地想": 7102,
      "我有一个": 7103,
      "奖杯": 7104,
      "喝点": 7105,
      "住在一所小房子里": 7106,
      "瑜伽": 7107,
      "黑板": 7108,
      "吃掉了": 7109,
      "叫道": 7110,
      "她给了": 7111,
      "善良和": 7112,
      "把它带回家": 7113,
      "苍白": 7114,
      "难以": 7115,
      "有说有笑": 7116,
      "麦克": 7117,
      "准备好了": 7118,
      "回家的路上": 7119,
      "踏板": 7120,
      "友谊": 7121,
      "沙滩": 7122,
      "请吧": 7123,
      "这把": 7124,
      "跟前": 7125,
      "鸟巢": 7126,
      "她向妈妈": 7127,
      "又大又壮": 7128,
      "不断地": 7129,
      "鬼魂": 7130,
      "你不应该": 7131,
      "un": 7132,
      "谢谢你们": 7133,
      "欢乐": 7134,
      "报纸": 7135,
      "跳起来": 7136,
      "并决定": 7137,
      "汽车和卡车": 7138,
      "伤害你": 7139,
      "一个名叫蒂姆的小男孩和他的妈妈一起": 7140,
      "睁开": 7141,
      "再也不会": 7142,
      "三角形": 7143,
      "她很高兴能": 7144,
      "床单": 7145,
      "放下": 7146,
      "兔子说": 7147,
      "他希望自己": 7148,
      "保管": 7149,
      "确实": 7150,
      "保暖": 7151,
      "奇怪的事情": 7152,
      "海里游泳": 7153,
      "值得": 7154,
      "他很害怕": 7155,
      "水手": 7156,
      "我有": 7157,
      "她的哥哥": 7158,
      "她妈妈笑着说": 7159,
      "做了一些": 7160,
      "他不再": 7161,
      "分享她的": 7162,
      "美味的蛋糕": 7163,
      "乎乎": 7164,
      "踢足球": 7165,
      "找到了它": 7166,
      "尽全": 7167,
      "钓鱼": 7168,
      "拿了一些": 7169,
      "年轻": 7170,
      "发现了一个大盒子": 7171,
      "遥远": 7172,
      "收音机": 7173,
      "出了什么问题": 7174,
      "碰它": 7175,
      "博物": 7176,
      "博物馆": 7177,
      "里面是什么": 7178,
      "告诉了": 7179,
      "走开了": 7180,
      "这根": 7181,
      "创可": 7182,
      "创可贴": 7183,
      "莉莉看到一只": 7184,
      "勇敢地": 7185,
      "非常聪明": 7186,
      "优美": 7187,
      "跑得快": 7188,
      "有一只可爱": 7189,
      "上有一个": 7190,
      "并不害怕": 7191,
      "近距离": 7192,
      "附近的一": 7193,
      "给她买": 7194,
      "它开始": 7195,
      "它看起来": 7196,
      "想到": 7197,
      "正当他们": 7198,
      "他们一起在": 7199,
      "他有": 7200,
      "嘎嘎": 7201,
      "扶手": 7202,
      "他看到一个": 7203,
      "遇到了一个": 7204,
      "oom": 7205,
      "过来了": 7206,
      "想了一会儿": 7207,
      "高尔夫": 7208,
      "蒂姆想帮助": 7209,
      "带着它": 7210,
      "和兔子": 7211,
      "新家": 7212,
      "够不着": 7213,
      "篮子里": 7214,
      "扶手椅": 7215,
      "玩吗": 7216,
      "她看到一个": 7217,
      "让每个人都": 7218,
      "的大树": 7219,
      "不仅": 7220,
      "他们一边": 7221,
      "拿回来": 7222,
      "快乐地玩耍": 7223,
      "过来看看": 7224,
      "搭建": 7225,
      "的鱼": 7226,
      "麦克风": 7227,
      "汤姆看到": 7228,
      "掉进": 7229,
      "更重要": 7230,
      "一个声音": 7231,
      "吃一些": 7232,
      "和你一起玩": 7233,
      "罐子里": 7234,
      "但很高兴": 7235,
      "盾牌": 7236,
      "名叫萨姆": 7237,
      "蒂米不想": 7238,
      "发现了什么": 7239,
      "给了他一个大大的拥抱": 7240,
      "一家": 7241,
      "像你": 7242,
      "风吹过": 7243,
      "看不到": 7244,
      "莉莉正在": 7245,
      "管理员": 7246,
      "弹珠": 7247,
      "激光": 7248,
      "我也可以": 7249,
      "吃蛋糕": 7250,
      "彼得": 7251,
      "飞快地": 7252,
      "清洗": 7253,
      "奖励": 7254,
      "那根": 7255,
      "看看谁": 7256,
      "自己的家": 7257,
      "他的妹妹": 7258,
      "脸上挂着": 7259,
      "客厅里": 7260,
      "很远的地方": 7261,
      "来自": 7262,
      "和害怕": 7263,
      "但狗": 7264,
      "只能": 7265,
      "骡子": 7266,
      "是我": 7267,
      "被淋": 7268,
      "她注意到": 7269,
      "把它扔": 7270,
      "但他妈妈": 7271,
      "歌曲": 7272,
      "一只名叫汤姆的": 7273,
      "迷宫": 7274,
      "令人兴奋": 7275,
      "用爪子": 7276,
      "虚弱": 7277,
      "跑得太": 7278,
      "她告诉他": 7279,
      "在天空中飞翔": 7280,
      "和鸟": 7281,
      "呼吸": 7282,
      "她画": 7283,
      "但又": 7284,
      "拖把": 7285,
      "蒂姆喜欢在": 7286,
      "跳过": 7287,
      "拥有它": 7288,
      "我很高兴你": 7289,
      "ir": 7290,
      "蒂姆对": 7291,
      "捡了起来": 7292,
      "幅画": 7293,
      "驯鹿": 7294,
      "昂贵": 7295,
      "时钟": 7296,
      "滑倒了": 7297,
      "三岁了": 7298,
      "机场": 7299,
      "蒂米在": 7300,
      "打喷嚏": 7301,
      "宝箱": 7302,
      "一个拥抱": 7303,
      "爵士": 7304,
      "背心": 7305,
      "但麦克斯": 7306,
      "他整天": 7307,
      "的方式": 7308,
      "看到它": 7309,
      "骷髅": 7310,
      "太热": 7311,
      "闪闪发亮的": 7312,
      "就知道": 7313,
      "感到抱歉": 7314,
      "就不会": 7315,
      "我们得": 7316,
      "多少": 7317,
      "面具": 7318,
      "一起在公园里玩耍": 7319,
      "稍后": 7320,
      "她哥哥": 7321,
      "在空中": 7322,
      "她开始哭泣": 7323,
      "这块石头": 7324,
      "它是如此": 7325,
      "他们都喜欢": 7326,
      "为止": 7327,
      "盯着": 7328,
      "讨厌": 7329,
      "兜风": 7330,
      "动画": 7331,
      "灰尘": 7332,
      "的小老鼠": 7333,
      "他们跑": 7334,
      "带着灿烂的笑容": 7335,
      "她和爸爸妈妈一起": 7336,
      "图案": 7337,
      "转动": 7338,
      "结束了": 7339,
      "解决问题": 7340,
      "在街上": 7341,
      "组织": 7342,
      "舔了": 7343,
      "动画片": 7344,
      "单词": 7345,
      "当我们": 7346,
      "试图抓住": 7347,
      "来帮助他": 7348,
      "调皮": 7349,
      "巨大": 7350,
      "但他想": 7351,
      "不在乎": 7352,
      "惩罚": 7353,
      "并一起": 7354,
      "他捡起": 7355,
      "乔伊": 7356,
      "他们找": 7357,
      "操场": 7358,
      "划艇": 7359,
      "遵守": 7360,
      "一只小老鼠": 7361,
      "睁开眼睛": 7362,
      "在他们": 7363,
      "是一名": 7364,
      "笼子": 7365,
      "她想知道": 7366,
      "什么也没": 7367,
      "蒂姆是一个": 7368,
      "腐烂": 7369,
      "地下": 7370,
      "托盘": 7371,
      "椰菜": 7372,
      "她妈妈让她": 7373,
      "数学": 7374,
      "她很兴奋": 7375,
      "活动": 7376,
      "当时": 7377,
      "不想再": 7378,
      "翱翔": 7379,
      "想玩它": 7380,
      "他们看到了一": 7381,
      "她捡起": 7382,
      "混合在一起": 7383,
      "很高兴见到": 7384,
      "草丛": 7385,
      "干活": 7386,
      "Zoom": 7387,
      "他跑向": 7388,
      "藏身": 7389,
      "很不高兴": 7390,
      "试着": 7391,
      "分开": 7392,
      "莉莉微笑着说道": 7393,
      "山姆说": 7394,
      "笛子": 7395,
      "不想让": 7396,
      "羡慕": 7397,
      "别的东西": 7398,
      "忙着": 7399,
      "听到了一个": 7400,
      "别针": 7401,
      "教堂": 7402,
      "伸展": 7403,
      "她和": 7404,
      "疲惫": 7405,
      "一场比赛": 7406,
      "然而": 7407,
      "又开始": 7408,
      "就回家了": 7409,
      "他们是最好的朋友": 7410,
      "皮划艇": 7411,
      "魔术": 7412,
      "狂吠": 7413,
      "杂志": 7414,
      "发出声音": 7415,
      "风把": 7416,
      "蒂姆有一个": 7417,
      "确定": 7418,
      "有声音": 7419,
      "冰箱里": 7420,
      "乐队": 7421,
      "很担心": 7422,
      "感到安全": 7423,
      "打了个": 7424,
      "取笑": 7425,
      "同时": 7426,
      "好玩": 7427,
      "一个名叫艾米": 7428,
      "成为了好朋友": 7429,
      "那棵": 7430,
      "帮助他的朋友": 7431,
      "用手": 7432,
      "不知": 7433,
      "重复": 7434,
      "莉莉回答说": 7435,
      "墙壁": 7436,
      "远了": 7437,
      "非常高兴和兴奋": 7438,
      "低头": 7439,
      "称为": 7440,
      "这只小鸟": 7441,
      "堡垒": 7442,
      "茶会": 7443,
      "这首": 7444,
      "新的东西": 7445,
      "的汽车": 7446,
      "她们": 7447,
      "嘲笑": 7448,
      "结婚": 7449,
      "感到快乐和": 7450,
      "冲浪": 7451,
      "感到非常高兴": 7452,
      "但我们": 7453,
      "麦克斯的主人": 7454,
      "结识了": 7455,
      "破了": 7456,
      "一天天": 7457,
      "变成了一只": 7458,
      "轻松": 7459,
      "他们坐下来": 7460,
      "盛大的聚会": 7461,
      "帮助这只鸟": 7462,
      "一天早上": 7463,
      "够到": 7464,
      "走了出来": 7465,
      "宇宙": 7466,
      "她想起了": 7467,
      "奶油": 7468,
      "昆虫": 7469,
      "转了一圈": 7470,
      "崔弟": 7471,
      "又一次": 7472,
      "这让他": 7473,
      "看了一眼": 7474,
      "微镜": 7475,
      "显微镜": 7476,
      "闪电": 7477,
      "汤姆和麦克斯": 7478,
      "将其": 7479,
      "答案": 7480,
      "自己很": 7481,
      "树上的": 7482,
      "森林里玩耍": 7483,
      "床垫": 7484,
      "并探索周围的世界": 7485,
      "它想": 7486,
      "对着": 7487,
      "很难过": 7488,
      "创造力": 7489,
      "乌云": 7490,
      "来到公园": 7491,
      "非常小心": 7492,
      "领带": 7493,
      "既惊讶又高兴": 7494,
      "看起来很好吃": 7495,
      "要去哪里": 7496,
      "看去": 7497,
      "火柴": 7498,
      "野生": 7499,
      "标签": 7500,
      "正在公园里玩耍": 7501,
      "橙色的": 7502,
      "你不": 7503,
      "需要时": 7504,
      "坏掉": 7505,
      "斯派": 7506,
      "绊倒": 7507,
      "莉莉向": 7508,
      "滑行": 7509,
      "等到": 7510,
      "高尔夫球": 7511,
      "他的新朋友": 7512,
      "妈妈看": 7513,
      "斯派克": 7514,
      "的乐趣": 7515,
      "喝水": 7516,
      "妻子": 7517,
      "摘下": 7518,
      "得很大": 7519,
      "物体": 7520,
      "步行": 7521,
      "从前有一个": 7522,
      "假装自己是": 7523,
      "漉漉": 7524,
      "看看吧": 7525,
      "窗外望去": 7526,
      "都在": 7527,
      "但妈妈说": 7528,
      "发现了一把": 7529,
      "烘烤": 7530,
      "温和": 7531,
      "的歌曲": 7532,
      "小的": 7533,
      "被卡住了": 7534,
      "粗心": 7535,
      "猫很高兴": 7536,
      "小屋": 7537,
      "蒂米的朋友比利": 7538,
      "找啊找啊": 7539,
      "狼藉": 7540,
      "鱼儿": 7541,
      "你叫什么名字": 7542,
      "你为什么不": 7543,
      "锅里": 7544,
      "在一棵树上": 7545,
      "还给": 7546,
      "但他的": 7547,
      "是谁": 7548,
      "他的朋友苏": 7549,
      "叫做": 7550,
      "信任": 7551,
      "看上去很悲伤": 7552,
      "照顾好": 7553,
      "吃东西": 7554,
      "的结局": 7555,
      "袋鼠": 7556,
      "简单": 7557,
      "抱起来": 7558,
      "非常爱": 7559,
      "标记": 7560,
      "萨拉说": 7561,
      "教她": 7562,
      "青蛙说": 7563,
      "安全的": 7564,
      "当他们玩的时候": 7565,
      "炉子": 7566,
      "餐厅": 7567,
      "和小": 7568,
      "湿漉漉": 7569,
      "让莉莉": 7570,
      "方向": 7571,
      "到来": 7572,
      "过来帮忙": 7573,
      "置信": 7574,
      "帽子和": 7575,
      "难以置信": 7576,
      "他们把它": 7577,
      "他们想要": 7578,
      "双手": 7579,
      "看着他": 7580,
      "这很有趣": 7581,
      "这是她": 7582,
      "做了个": 7583,
      "导弹": 7584,
      "有一件": 7585,
      "包装": 7586,
      "住在一片": 7587,
      "城市": 7588,
      "但他还是": 7589,
      "一遍": 7590,
      "玩起了": 7591,
      "杂货": 7592,
      "乳液": 7593,
      "棍球": 7594,
      "装扮": 7595,
      "你现在": 7596,
      "曲棍球": 7597,
      "伸手去拿": 7598,
      "挣扎": 7599,
      "帮助你的": 7600,
      "阴沉": 7601,
      "教你": 7602,
      "了一家": 7603,
      "发现里面": 7604,
      "两半": 7605,
      "一块饼干": 7606,
      "舞者": 7607,
      "他的名字叫": 7608,
      "奇妙": 7609,
      "稀有": 7610,
      "她希望自己": 7611,
      "款待": 7612,
      "并不总是": 7613,
      "好心的女士": 7614,
      "烟囱": 7615,
      "赢得比赛": 7616,
      "很饿": 7617,
      "令人惊": 7618,
      "洗碗机": 7619,
      "衣架": 7620,
      "并不介意": 7621,
      "山顶时": 7622,
      "她妈妈解释说": 7623,
      "的家人": 7624,
      "雏菊": 7625,
      "美丽的蝴蝶": 7626,
      "富有同情心": 7627,
      "龙卷": 7628,
      "他已经": 7629,
      "但她还是": 7630,
      "她妈妈答应了": 7631,
      "认为这是个好主意": 7632,
      "坐着": 7633,
      "非常高兴和感激": 7634,
      "汤姆很伤心": 7635,
      "卧室": 7636,
      "蒂米的妈妈说": 7637,
      "蒂米的妈妈让他": 7638,
      "团队": 7639,
      "很高兴他": 7640,
      "在树下": 7641,
      "灯光": 7642,
      "按下按钮": 7643,
      "掉在地上": 7644,
      "富翁": 7645,
      "想把": 7646,
      "一次又一次": 7647,
      "笼子里": 7648,
      "都喜欢": 7649,
      "恐惧": 7650,
      "也没有": 7651,
      "的房子": 7652,
      "的安全": 7653,
      "他们互相拥抱": 7654,
      "谢谢你帮助我": 7655,
      "等等": 7656,
      "吃了一": 7657,
      "有了一个新朋友": 7658,
      "天赋": 7659,
      "脚趾": 7660,
      "他是一只": 7661,
      "太好": 7662,
      "和动物": 7663,
      "非常快": 7664,
      "找到一个": 7665,
      "即使事情": 7666,
      "壁炉": 7667,
      "无论走到哪里": 7668,
      "他的大": 7669,
      "说完": 7670,
      "就跑了": 7671,
      "马克斯喜欢": 7672,
      "游泳池": 7673,
      "再次见到": 7674,
      "蒂姆和斯波": 7675,
      "莉莉非常伤心": 7676,
      "有一个快乐": 7677,
      "\",": 7678,
      "抱起": 7679,
      "它的朋友们": 7680,
      "她和爸爸妈妈": 7681,
      "开始在": 7682,
      "制造": 7683,
      "你就可以": 7684,
      "又大又漂亮的": 7685,
      "龙卷风": 7686,
      "梳子": 7687,
      "打破了": 7688,
      "并将它们": 7689,
      "重要的是": 7690,
      "水边": 7691,
      "小家": 7692,
      "渔夫": 7693,
      "对你": 7694,
      "黑色": 7695,
      "因为他想": 7696,
      "成功了": 7697,
      "非常擅长": 7698,
      "你想玩": 7699,
      "决心": 7700,
      "和妈妈一起去公园": 7701,
      "他们不再": 7702,
      "也想要": 7703,
      "合适": 7704,
      "握着": 7705,
      "了又想": 7706,
      "渴望": 7707,
      "一根棍子": 7708,
      "麦克斯看到": 7709,
      "蒂姆向": 7710,
      "他们学会了": 7711,
      "高高地": 7712,
      "不像": 7713,
      "回头": 7714,
      "秃头": 7715,
      "度过了美好的一天": 7716,
      "我也喜欢": 7717,
      "真是太好了": 7718,
      "色彩缤纷的": 7719,
      "光滑的": 7720,
      "争论": 7721,
      "讨论": 7722,
      "莉莉发现": 7723,
      "剩下的时间": 7724,
      "我们就可以": 7725,
      "又脏": 7726,
      "灭了": 7727,
      "这个盒子": 7728,
      "莉莉走到": 7729,
      "智慧": 7730,
      "顶部": 7731,
      "医生说": 7732,
      "成为你的朋友": 7733,
      "拥抱了妈妈": 7734,
      "因为她想": 7735,
      "冷静": 7736,
      "的一样": 7737,
      "行为": 7738,
      "美味的饼干": 7739,
      "顺着": 7740,
      "王后": 7741,
      "位置": 7742,
      "开始说话了": 7743,
      "的车": 7744,
      "怎样": 7745,
      "音乐家": 7746,
      "不已": 7747,
      "这件事": 7748,
      "橄榄": 7749,
      "他们意识到": 7750,
      "磨坊": 7751,
      "传来一声巨响": 7752,
      "有一片": 7753,
      "不开": 7754,
      "并说道": 7755,
      "小姐": 7756,
      "舔了舔": 7757,
      "并帮助": 7758,
      "然后又": 7759,
      "听到了声音": 7760,
      "墨水": 7761,
      "她哭了": 7762,
      "他人分享": 7763,
      "邮件": 7764,
      "溅起": 7765,
      "但这一次": 7766,
      "又可以": 7767,
      "莉莉不喜欢": 7768,
      "苏西": 7769,
      "走动": 7770,
      "游来": 7771,
      "莉莉学会了": 7772,
      "大猩猩": 7773,
      "得到处都是": 7774,
      "熊先生": 7775,
      "羊毛": 7776,
      "她走": 7777,
      "绽放": 7778,
      "搅拌机": 7779,
      "手牵": 7780,
      "免受": 7781,
      "不明白为什么": 7782,
      "之旅": 7783,
      "胜利": 7784,
      "小鸭子": 7785,
      "有东西": 7786,
      "他注意到": 7787,
      "再试": 7788,
      "狗麦克斯": 7789,
      "他们希望自己": 7790,
      "喷气": 7791,
      "地铁": 7792,
      "护照": 7793,
      "仔细地": 7794,
      "成长": 7795,
      "不住": 7796,
      "正确的事": 7797,
      "我可以玩": 7798,
      "否则": 7799,
      "但他仍然": 7800,
      "一个游戏": 7801,
      "花椰菜": 7802,
      "走近时": 7803,
      "七八": 7804,
      "蠕虫": 7805,
      "买一个": 7806,
      "想出了一个": 7807,
      "玩他的": 7808,
      "高空飞翔": 7809,
      "想起了": 7810,
      "燕麦": 7811,
      "蒂姆试图": 7812,
      "浴袍": 7813,
      "蒂米意识到": 7814,
      "光了": 7815,
      "吃完饭": 7816,
      "他们跑向": 7817,
      "在一所小房子里": 7818,
      "发现了一条": 7819,
      "有需要": 7820,
      "杰克和": 7821,
      "住着一个": 7822,
      "乱七八": 7823,
      "无知": 7824,
      "乱七八糟": 7825,
      "在玩球": 7826,
      "本和米娅": 7827,
      "成为了最好的朋友": 7828,
      "在一个小村庄里": 7829,
      "一次又一次地": 7830,
      "他无法": 7831,
      "但他知道他必须": 7832,
      "我保证": 7833,
      "他们看到了一个": 7834,
      "到达时": 7835,
      "当他们到达时": 7836,
      "一支": 7837,
      "软的": 7838,
      "严肃": 7839,
      "升起": 7840,
      "开始感到": 7841,
      "得很远": 7842,
      "颜料": 7843,
      "把车": 7844,
      "感到非常兴奋": 7845,
      "在树": 7846,
      "小家伙": 7847,
      "好吃的": 7848,
      "进去了": 7849,
      "许多动物": 7850,
      "她身边": 7851,
      "的松鼠": 7852,
      "她喜欢玩她的洋娃娃": 7853,
      "一个名叫汤姆": 7854,
      "交给": 7855,
      "他为": 7856,
      "缓慢": 7857,
      "有一个人": 7858,
      "很痛": 7859,
      "蒂姆问道": 7860,
      "带她去": 7861,
      "自家": 7862,
      "我们就": 7863,
      "笑了笑": 7864,
      "响了": 7865,
      "洗完": 7866,
      "拿了": 7867,
      "烟灰": 7868,
      "一步": 7869,
      "他们齐心协力": 7870,
      "独自一人": 7871,
      "小块": 7872,
      "他们应该": 7873,
      "觉得这很有趣": 7874,
      "永远记得": 7875,
      "的一个": 7876,
      "一个名叫苏的女孩": 7877,
      "他们看到一只": 7878,
      "如果他": 7879,
      "也很重要": 7880,
      "解释道": 7881,
      "皮普": 7882,
      "转过": 7883,
      "分类": 7884,
      "地回家了": 7885,
      "令人难以置信": 7886,
      "不得不去医院": 7887,
      "苏和": 7888,
      "跑进": 7889,
      "并且总是": 7890,
      "带走了": 7891,
      "我们很抱歉": 7892,
      "去旅行": 7893,
      "做了个鬼脸": 7894,
      "尽全力": 7895,
      "大型": 7896,
      "于是他": 7897,
      "门廊": 7898,
      "气味": 7899,
      "古老的": 7900,
      "电缆": 7901,
      "震惊": 7902,
      "穿上了": 7903,
      "!\n\"": 7904,
      "她是": 7905,
      "被称为": 7906,
      "他的手": 7907,
      "小猪": 7908,
      "到处都": 7909,
      "那颗": 7910,
      "自己的玩具": 7911,
      "沼泽": 7912,
      "转身": 7913,
      "把所有的": 7914,
      "开玩笑": 7915,
      "米娅和": 7916,
      "一个大盒子": 7917,
      "拿给妈妈看": 7918,
      "角落里": 7919,
      "又高": 7920,
      "....": 7921,
      "这是我": 7922,
      "灰色的": 7923,
      "见过的最": 7924,
      "并保持": 7925,
      "会发生什么": 7926,
      "把你的": 7927,
      "商店时": 7928,
      "一下吗": 7929,
      "我不能": 7930,
      "莎拉和汤姆": 7931,
      "我们回家": 7932,
      "感到非常惊讶": 7933,
      "是为了": 7934,
      "小睡一会儿": 7935,
      "凌乱": 7936,
      "得很重": 7937,
      "垃圾桶": 7938,
      "钱买": 7939,
      "精致": 7940,
      "蒂姆和他的": 7941,
      "机械": 7942,
      "折叠": 7943,
      "修复它": 7944,
      "她的小": 7945,
      "有什么东西": 7946,
      "卡尔": 7947,
      "胖乎乎": 7948,
      "能给我": 7949,
      "烟灰缸": 7950,
      "对她说": 7951,
      "球和": 7952,
      "成一": 7953,
      "看到了他": 7954,
      "他们从": 7955,
      "了一份": 7956,
      "他的爸爸": 7957,
      "回到家后": 7958,
      "击中了": 7959,
      "会更加小心": 7960,
      "他的声音": 7961,
      "他的家人": 7962,
      "并告诉她": 7963,
      "天开始下雨了": 7964,
      "抱住她说": 7965,
      "提米很高兴": 7966,
      "出去了": 7967,
      "一天天过去": 7968,
      "画家": 7969,
      "有一只狗": 7970,
      "太阳下山": 7971,
      "几分钟后": 7972,
      "衣裙": 7973,
      "香水": 7974,
      "更好的": 7975,
      "货车": 7976,
      "的帽子": 7977,
      "Sa": 7978,
      "剧院": 7979,
      "的那": 7980,
      "她在地上": 7981,
      "小路": 7982,
      "丝带": 7983,
      "洗发": 7984,
      "莎拉说": 7985,
      "连衣裙": 7986,
      "脸上挂着灿烂的笑容": 7987,
      "她的新朋友": 7988,
      "鲍勃和": 7989,
      "经历了许多": 7990,
      "记号": 7991,
      "很糟糕": 7992,
      "太阳出来了": 7993,
      "碎的": 7994,
      "捕捉": 7995,
      "整天都在": 7996,
      "李子": 7997,
      "认真": 7998,
      "采摘": 7999,
      "名叫莎莉": 8000,
      "服务": 8001,
      "的漂亮": 8002,
      "吓到": 8003,
      "作用": 8004,
      "有两个": 8005,
      "规则": 8006,
      "我是一只": 8007,
      "冷了": 8008,
      "闻起来很香": 8009,
      "漂浮": 8010,
      "都可以": 8011,
      "发挥": 8012,
      "好狗": 8013,
      "他为自己": 8014,
      "闭上了": 8015,
      "处理": 8016,
      "不好的事情": 8017,
      "这个游戏": 8018,
      "叫他": 8019,
      "另一只": 8020,
      "勇敢和": 8021,
      "威尔": 8022,
      "抹布": 8023,
      "所以她决定": 8024,
      "又亮": 8025,
      "妈妈问": 8026,
      "的大熊": 8027,
      "把事情": 8028,
      "镇上的": 8029,
      "坦克": 8030,
      "机械师": 8031,
      "空间": 8032,
      "有关": 8033,
      "他的妈妈和爸爸": 8034,
      "牛肉": 8035,
      "藏身之处": 8036,
      "甜的": 8037,
      "天花": 8038,
      "放进口袋里": 8039,
      "冒险经历": 8040,
      "更有趣": 8041,
      "灯泡": 8042,
      "但球": 8043,
      "所拥有": 8044,
      "名叫凯蒂": 8045,
      "收拾好": 8046,
      "问她是否": 8047,
      "洗发水": 8048,
      "上了车": 8049,
      "天花板": 8050,
      "脖子": 8051,
      "吓人": 8052,
      "一起工作": 8053,
      "好多了": 8054,
      "雪地里玩耍": 8055,
      "膝盖受伤了": 8056,
      "有一艘": 8057,
      "后悔": 8058,
      "终于找到了": 8059,
      "他是一个": 8060,
      "感到非常高兴和自豪": 8061,
      "实验": 8062,
      "拿回了": 8063,
      "飞了起来": 8064,
      "他玩得很开心": 8065,
      "他非常兴奋": 8066,
      "他们发现了一个": 8067,
      "一边说": 8068,
      "我发现了什么": 8069,
      "看到了一个大": 8070,
      "走路时": 8071,
      "我也爱你": 8072,
      "露西说": 8073,
      "妈妈微笑着": 8074,
      "麦克斯和莉莉": 8075,
      "响动": 8076,
      "介绍": 8077,
      "游去": 8078,
      "懒惰": 8079,
      "谢谢你的": 8080,
      "星球": 8081,
      "头骨": 8082,
      "的图片": 8083,
      "起初": 8084,
      "厕所": 8085,
      "它太": 8086,
      "画了": 8087,
      "道谢": 8088,
      "有礼貌": 8089,
      "这么多": 8090,
      "布朗先生": 8091,
      "装着": 8092,
      "看看里面有什么": 8093,
      "一场大风暴": 8094,
      "对我": 8095,
      "脚下": 8096,
      "惊慌": 8097,
      "努力地": 8098,
      "幸运的是": 8099,
      "坏事": 8100,
      "广告": 8101,
      "美好的时光": 8102,
      "呀跑": 8103,
      "闭上了眼睛": 8104,
      "水果和": 8105,
      "他妈妈看": 8106,
      "朋友家": 8107,
      "了一段时间": 8108,
      "律师": 8109,
      "再试一次": 8110,
      "这一切": 8111,
      "浴室": 8112,
      "哈哈大笑": 8113,
      "他迫不及待地想": 8114,
      "有着": 8115,
      "那儿": 8116,
      "团结": 8117,
      "当汤姆": 8118,
      "日历": 8119,
      "时总是": 8120,
      "感觉不舒服": 8121,
      "是一种": 8122,
      "罂粟": 8123,
      "尽快": 8124,
      "莉莉听到": 8125,
      "但突然": 8126,
      "高兴得": 8127,
      "人员": 8128,
      "耸肩": 8129,
      "泥里": 8130,
      "最棒的": 8131,
      "莉莉喜欢在": 8132,
      "妈妈和": 8133,
      "挥舞着": 8134,
      "儿子": 8135,
      "然后他们": 8136,
      "他看到了一": 8137,
      "但你必须": 8138,
      "山洞里": 8139,
      "从前有一个小女孩": 8140,
      "是一条": 8141,
      "闪烁": 8142,
      "游走了": 8143,
      "蓝色的大": 8144,
      "没有朋友": 8145,
      "有一棵大树": 8146,
      "小鸟很伤心": 8147,
      "决定把": 8148,
      "她问他": 8149,
      "大吃一": 8150,
      "地对待": 8151,
      "紧紧地抱住了": 8152,
      "混乱": 8153,
      "座位上": 8154,
      "他喜欢整天": 8155,
      "点点头说": 8156,
      "拉啊": 8157,
      "度过了愉快的时光": 8158,
      "纷纷": 8159,
      "清理了": 8160,
      "内心": 8161,
      "带你": 8162,
      "酒店": 8163,
      "跑掉了": 8164,
      "送给了": 8165,
      "面纱": 8166,
      "加油": 8167,
      "名叫蒂米的小男孩": 8168,
      "的大猫": 8169,
      "自己能": 8170,
      "成的": 8171,
      "当他们走": 8172,
      "残局": 8173,
      "派对": 8174,
      "名叫芬": 8175,
      "他们都玩得很开心": 8176,
      "离开时": 8177,
      "大吃一惊": 8178,
      "蒂米就": 8179,
      "这是一只": 8180,
      "体育": 8181,
      "lu": 8182,
      "但他太": 8183,
      "抬头一看": 8184,
      "苏很伤心": 8185,
      "递给": 8186,
      "她很喜欢": 8187,
      "和吃": 8188,
      "收拾残局": 8189,
      "很困惑": 8190,
      "莉莉不知道": 8191,
      "矿物": 8192,
      "有一只又大又": 8193,
      "睡觉前": 8194,
      "街道": 8195,
      "绿洲": 8196,
      "她看到了一个": 8197,
      "节日": 8198,
      "莎莉说": 8199,
      "我可以和你一起玩吗": 8200,
      "晚安": 8201,
      "的路上": 8202,
      "一杯": 8203,
      "鲍勃说": 8204,
      "吱吱": 8205,
      "上有": 8206,
      "高兴地说": 8207,
      "还能": 8208,
      "广告牌": 8209,
      "蜂巢": 8210,
      "接住了": 8211,
      "一起唱歌": 8212,
      "他们喜欢在公园里玩": 8213,
      "归还": 8214,
      "块大石头": 8215,
      "高兴又": 8216,
      "寺庙": 8217,
      "热情": 8218,
      "Chir": 8219,
      "检查了": 8220,
      "一个名叫汤姆的男孩": 8221,
      "说什么": 8222,
      "然后他": 8223,
      "他身边": 8224,
      "她的声音": 8225,
      "摇尾巴": 8226,
      "但找不到": 8227,
      "围裙": 8228,
      "闪亮的东西": 8229,
      "放了": 8230,
      "高兴起来": 8231,
      "打个": 8232,
      "一动不动": 8233,
      "遇到了一只名叫": 8234,
      "的歌声": 8235,
      "这一": 8236,
      "发动": 8237,
      "心想": 8238,
      "米饭": 8239,
      "得太用力": 8240,
      "他们并": 8241,
      "一个名叫艾米的小女孩": 8242,
      "活泼": 8243,
      "小雪": 8244,
      "太阳开始落山时": 8245,
      "尖叫起来": 8246,
      "打不开": 8247,
      "柠檬水": 8248,
      "变得越来越大": 8249,
      "呀找": 8250,
      "语言": 8251,
      "他让": 8252,
      "听到了一个声音": 8253,
      "发现它": 8254,
      "又甜": 8255,
      "柜子": 8256,
      "帮助他人": 8257,
      "却没有": 8258,
      "鳄梨": 8259,
      "停在": 8260,
      "阳光下玩耍": 8261,
      "他们看到一个": 8262,
      "的腿": 8263,
      "有一条小鱼": 8264,
      "长棍子": 8265,
      "因为它们": 8266,
      "大车": 8267,
      "漂亮的东西": 8268,
      "非常友善": 8269,
      "饮料": 8270,
      "熊猫": 8271,
      "我也想": 8272,
      "的颜色": 8273,
      "罗丝": 8274,
      "每个人都喜欢": 8275,
      "烤箱里": 8276,
      "院子里玩耍": 8277,
      "腰带": 8278,
      "看到地上有一": 8279,
      "他们忘记了": 8280,
      "玩起来": 8281,
      "新衣服": 8282,
      "她跑向": 8283,
      "鼓掌欢呼": 8284,
      "铲子": 8285,
      "哎呀": 8286,
      "项圈": 8287,
      "第二天早上": 8288,
      "不小心打翻": 8289,
      "苏喜欢": 8290,
      "发生了一件": 8291,
      "找到了一根": 8292,
      "手笨": 8293,
      "笨手笨": 8294,
      "笨手笨脚": 8295,
      "她记得": 8296,
      "莉拉和本": 8297,
      "他的父母": 8298,
      "问他是否": 8299,
      "冰冷的": 8300,
      "也看到了": 8301,
      "蒂姆开始": 8302,
      "的方法": 8303,
      "并享受乐趣": 8304,
      "点了": 8305,
      "景色": 8306,
      "开关": 8307,
      "给她妈妈看": 8308,
      "自己的东西": 8309,
      "开心了": 8310,
      "记住了": 8311,
      "她喜欢穿": 8312,
      "和大": 8313,
      "他们喜欢一起玩": 8314,
      "走回家": 8315,
      "一只名叫麦克斯的": 8316,
      "向他的朋友们": 8317,
      "叫她": 8318,
      "让她的": 8319,
      "随身携带": 8320,
      "打开了盒子": 8321,
      "悬崖": 8322,
      "得快": 8323,
      "Sam": 8324,
      "他非常高兴": 8325,
      "在房子里": 8326,
      "直到它": 8327,
      "纸板": 8328,
      "艺术": 8329,
      "张开": 8330,
      "画一": 8331,
      "来临": 8332,
      "一个球": 8333,
      "他妈妈告诉他": 8334,
      "问妈妈是否可以": 8335,
      "她穿着": 8336,
      "见到了": 8337,
      "莉莉笑了": 8338,
      "阳光照": 8339,
      "呜呜": 8340,
      "大声呼救": 8341,
      "他如何": 8342,
      "像你一样": 8343,
      "蒂米很高兴能": 8344,
      "我想玩": 8345,
      "装扮游戏": 8346,
      "字典": 8347,
      "如果她": 8348,
      "我会帮助你的": 8349,
      "圆木": 8350,
      "立即": 8351,
      "善意": 8352,
      "这片": 8353,
      "乐部": 8354,
      "快乐又": 8355,
      "并为": 8356,
      "麦克斯是一只": 8357,
      "泳池": 8358,
      "他们看到了一只": 8359,
      "良好": 8360,
      "为什么不": 8361,
      "就不再": 8362,
      "在水中": 8363,
      "但她妈妈告诉她": 8364,
      "他们的声音": 8365,
      "用她的": 8366,
      "独特的": 8367,
      "拍了": 8368,
      "得更高": 8369,
      "真好玩": 8370,
      "又大又红的球": 8371,
      "你的车": 8372,
      "他想起了": 8373,
      "深处": 8374,
      "不适合": 8375,
      "有史以来最好的": 8376,
      "去那里": 8377,
      "黑色的": 8378,
      "辛苦": 8379,
      "但猫": 8380,
      "笨拙": 8381,
      "所有人": 8382,
      "你怎么": 8383,
      "炫耀": 8384,
      "可能很危险": 8385,
      "篮筐": 8386,
      "不可": 8387,
      "杯子里": 8388,
      "他想知道": 8389,
      "推着": 8390,
      "继续前行": 8391,
      "汤姆问道": 8392,
      "苏的": 8393,
      "很容易": 8394,
      "与朋友们": 8395,
      "她看到了一只": 8396,
      "结识了新朋友": 8397,
      "发现自己": 8398,
      "太热了": 8399,
      "并告诉": 8400,
      "一艘": 8401,
      "她喜欢和朋友们一起到外面玩": 8402,
      "信息": 8403,
      "你是一个好朋友": 8404,
      "一脸悲伤": 8405,
      "跑到外面": 8406,
      "她给": 8407,
      "俱乐部": 8408,
      "咒语": 8409,
      "忙碌": 8410,
      "倒塌": 8411,
      "视着": 8412,
      "有一只毛茸茸": 8413,
      "玩接球游戏": 8414,
      "跳得很高": 8415,
      "她喜欢在阳光下在外面玩耍": 8416,
      "放在桌子上": 8417,
      "他一直": 8418,
      "学习如何": 8419,
      "看电影": 8420,
      "发现的": 8421,
      "动物和": 8422,
      "主动": 8423,
      "但她想": 8424,
      "把我的": 8425,
      "告诉过": 8426,
      "与其他": 8427,
      "烤架": 8428,
      "很无聊": 8429,
      "想要它": 8430,
      "试图把": 8431,
      "一辆大卡车": 8432,
      "她和朋友们": 8433,
      "蒂姆认为": 8434,
      "雨伞": 8435,
      "那件": 8436,
      "梦中": 8437,
      "草坪": 8438,
      "不是玩具": 8439,
      "罕见": 8440,
      "多汁的": 8441,
      "实话": 8442,
      "永远不要": 8443,
      "去学校": 8444,
      "蒂姆看着": 8445,
      "这个故事的寓意是要": 8446,
      "狗的": 8447,
      "冰屋": 8448,
      "地上有一个大": 8449,
      "这是他": 8450,
      "耐心地": 8451,
      "尖叫着": 8452,
      "树顶": 8453,
      "你的东西": 8454,
      "他们一起玩得很开心": 8455,
      "打个招呼": 8456,
      "她微笑着说": 8457,
      "喜欢和": 8458,
      "风景": 8459,
      "不幸": 8460,
      "分享他的玩具": 8461,
      "因为她知道": 8462,
      "的那样": 8463,
      "它时": 8464,
      "在这个": 8465,
      "需要帮助时": 8466,
      "着火": 8467,
      "新鲜": 8468,
      "所有的玩具都": 8469,
      "他们走着走着": 8470,
      "方块": 8471,
      "加入他们": 8472,
      "萨姆和": 8473,
      "他打开": 8474,
      "她笑了": 8475,
      "新的地方": 8476,
      "让事情": 8477,
      "孤单": 8478,
      "吃到": 8479,
      "喷水": 8480,
      "的好地方": 8481,
      "我找到了": 8482,
      "姑娘": 8483,
      "有一只大狗": 8484,
      "你能帮我吗": 8485,
      "把他们": 8486,
      "这件衣服": 8487,
      "苏和汤姆": 8488,
      "越高": 8489,
      "度过的": 8490,
      "这只小狗": 8491,
      "没有注意到": 8492,
      "和她妈妈一起去公园": 8493,
      "弄脏": 8494,
      "拿到了": 8495,
      "伸出手": 8496,
      "Chirpy": 8497,
      "他很高兴能": 8498,
      "她非常兴奋": 8499,
      "留着": 8500,
      "他以前从未见过": 8501,
      "她发现了一": 8502,
      "住着一位": 8503,
      "发动机": 8504,
      "被毁了": 8505,
      "中央": 8506,
      "到底": 8507,
      "但是你必须": 8508,
      "整天都在玩": 8509,
      "日子一天天过去": 8510,
      "喜欢玩他的": 8511,
      "鸟笼": 8512,
      "玩具箱": 8513,
      "一开始很害怕": 8514,
      "响亮": 8515,
      "了声": 8516,
      "他们不": 8517,
      "她已经": 8518,
      "转来": 8519,
      "思议": 8520,
      "潘迪": 8521,
      "我为你": 8522,
      "辛辣": 8523,
      "雪球": 8524,
      "所有的孩子都": 8525,
      "长大了": 8526,
      "蒂米喜欢在外面玩耍": 8527,
      "土地上": 8528,
      "大棍子": 8529,
      "洗了": 8530,
      "看到一只小鸟": 8531,
      "他们假装": 8532,
      "游戏吧": 8533,
      "我很高兴你喜欢": 8534,
      "保持安静": 8535,
      "他们一直": 8536,
      "弄坏": 8537,
      "了一位新朋友": 8538,
      "这是一种": 8539,
      "很感激": 8540,
      "莉莉看到了": 8541,
      "我找不到": 8542,
      "把他的": 8543,
      "湖里": 8544,
      "湿透了": 8545,
      "得对": 8546,
      "转来转": 8547,
      "照顾它": 8548,
      "有一只鸟": 8549,
      "最美好的一天": 8550,
      "手枪": 8551,
      "刷子": 8552,
      "他们不知道该怎么办": 8553,
      "可靠的": 8554,
      "逃脱": 8555,
      "直到到达": 8556,
      "塔楼": 8557,
      "可以在": 8558,
      "他们走呀走": 8559,
      "你的房间": 8560,
      "有许多": 8561,
      "那张": 8562,
      "煎饼": 8563,
      "宝贵": 8564,
      "午睡": 8565,
      "做好了": 8566,
      "拥抱在一起": 8567,
      "这艘船": 8568,
      "蒂米决定": 8569,
      "他们都想": 8570,
      "几乎": 8571,
      "汤姆和安娜": 8572,
      "恢复了": 8573,
      "于是她": 8574,
      "别人的": 8575,
      "有一朵": 8576,
      "发生了什么": 8577,
      "发出了": 8578,
      "转来转去": 8579,
      "道路": 8580,
      "果实": 8581,
      "成为一个": 8582,
      "因为他喜欢": 8583,
      "但她也": 8584,
      "橡树": 8585,
      "找点": 8586,
      "吓跑了": 8587,
      "很满意": 8588,
      "地毯上": 8589,
      "吃太多": 8590,
      "第一个": 8591,
      "丽丝": 8592,
      "找个": 8593,
      "一只小狗": 8594,
      "蛋卷": 8595,
      "没有放弃": 8596,
      "他们仍然": 8597,
      "在聚会上": 8598,
      "并告诉他": 8599,
      "爬上梯子": 8600,
      "一只名叫麦克斯的狗": 8601,
      "土地": 8602,
      "走过来说": 8603,
      "有用": 8604,
      "嗡嗡": 8605,
      "再也没有见过": 8606,
      "宫殿": 8607,
      "她的衣服": 8608,
      "他们发现了": 8609,
      "他就可以": 8610,
      "友善的狗": 8611,
      "他不知道该怎么办": 8612,
      "果子": 8613,
      "粉末": 8614,
      "感到快乐": 8615,
      "直到找到": 8616,
      "她就可以": 8617,
      "帮帮我": 8618,
      "小号": 8619,
      "咯咯地笑": 8620,
      "她妈妈给她": 8621,
      "许魏": 8622,
      "莉莉就一直": 8623,
      "树篱": 8624,
      "许魏洲": 8625,
      "这只熊": 8626,
      "帮助小鸟": 8627,
      "这是有史以来最好的": 8628,
      "猫的": 8629,
      "知道如何": 8630,
      "他们在公园": 8631,
      "他微笑着": 8632,
      "它能": 8633,
      "敲了": 8634,
      "很久": 8635,
      "莉莉告诉她": 8636,
      "更快": 8637,
      "不可思议": 8638,
      "爸爸妈妈一起": 8639,
      "你说": 8640,
      "一些特别的东西": 8641,
      "湿漉漉的": 8642,
      "画画和": 8643,
      "但就是": 8644,
      "转过身": 8645,
      "听说": 8646,
      "飞不": 8647,
      "遇到了一位新朋友": 8648,
      "名叫毛毛": 8649,
      "拯救了": 8650,
      "茶匙": 8651,
      "米娅的妈妈": 8652,
      "很聪明": 8653,
      "树林里散步": 8654,
      "前面": 8655,
      "雪地里": 8656,
      "游来游去": 8657,
      "被宠": 8658,
      "给我们": 8659,
      "波比": 8660,
      "牧场": 8661,
      "并确保": 8662,
      "他想看看": 8663,
      "变得越来越": 8664,
      "和我一起玩": 8665,
      "游到": 8666,
      "他们回家": 8667,
      "跑又跳": 8668,
      "变化": 8669,
      "在玩耍": 8670,
      "晚些时候": 8671,
      "开始吃": 8672,
      "危险的": 8673,
      "是如此": 8674,
      "把东西": 8675,
      "收藏": 8676,
      "眼泪": 8677,
      "甜蜜": 8678,
      "把它们放在": 8679,
      "什么时候": 8680,
      "健身": 8681,
      "蒂米和他的妈妈": 8682,
      "体贴": 8683,
      "了一场大": 8684,
      "火花": 8685,
      "闪亮的大": 8686,
      "飓风": 8687,
      "马厩": 8688,
      "竞争力": 8689,
      "国家": 8690,
      "吃完饭后": 8691,
      "幸福和": 8692,
      "吸引": 8693,
      "大家都很高兴": 8694,
      "佳肴": 8695,
      "Bo": 8696,
      "去了厨房": 8697,
      "她和妈妈一起去公园": 8698,
      "枚硬币": 8699,
      "树后": 8700,
      "美味佳肴": 8701,
      "悲伤的": 8702,
      "小鸟飞走了": 8703,
      "他把它捡起来": 8704,
      "手表": 8705,
      "哨子": 8706,
      "的工作": 8707,
      "跟前说": 8708,
      "化妆": 8709,
      "更加小心了": 8710,
      "在外面玩耍时": 8711,
      "鞭子": 8712,
      "就把它": 8713,
      "赛跑": 8714,
      "声音很大": 8715,
      "笑了起来": 8716,
      "尝试了": 8717,
      "有时会发生": 8718,
      "又笑": 8719,
      "又软": 8720,
      "成了碎片": 8721,
      "弗洛": 8722,
      "上面有一个": 8723,
      "她有一件": 8724,
      "表情": 8725,
      "参加比赛": 8726,
      "写字": 8727,
      "听起来很有趣": 8728,
      "后院玩耍": 8729,
      "他喊道": 8730,
      "你真是": 8731,
      "到了回家的时候": 8732,
      "一起欢笑": 8733,
      "暖和": 8734,
      "你今天": 8735,
      "突然听到": 8736,
      "听不到": 8737,
      "小鸟非常高兴": 8738,
      "溅起水花": 8739,
      "冷却": 8740,
      "她让": 8741,
      "教我": 8742,
      "传来一阵": 8743,
      "鞋带": 8744,
      "小房子": 8745,
      "种植": 8746,
      "更大的": 8747,
      "莉莉每天都": 8748,
      "跑进去": 8749,
      "他们微笑着": 8750,
      "哭声": 8751,
      "不够": 8752,
      "留下了": 8753,
      "是她": 8754,
      "和朋友们一起玩耍": 8755,
      "立刻": 8756,
      "吼叫": 8757,
      "圆形": 8758,
      "看到一条": 8759,
      "喷气式": 8760,
      "蛋卷冰淇淋": 8761,
      "地球": 8762,
      "贝西": 8763,
      "使用它": 8764,
      "的所有动物": 8765,
      "并了解到": 8766,
      "缩小": 8767,
      "日落": 8768,
      "他们分享": 8769,
      "喷气式飞机": 8770,
      "奇怪的东西": 8771,
      "妈妈是对的": 8772,
      "有一个名叫蒂姆的": 8773,
      "的小镇上": 8774,
      "摇摆": 8775,
      "然后她": 8776,
      "蒂姆微笑着说": 8777,
      "帮你的": 8778,
      "饭菜": 8779,
      "底部": 8780,
      "引擎": 8781,
      "她的家人": 8782,
      "新的一样": 8783,
      "数到": 8784,
      "莉莉注意到": 8785,
      "行动": 8786,
      "他找到了": 8787,
      "木材": 8788,
      "本的": 8789,
      "兴奋地说": 8790,
      "吃冰淇淋": 8791,
      "玩具箱里": 8792,
      "不仅仅": 8793,
      "迷人": 8794,
      "洒在了": 8795,
      "匹配": 8796,
      "铁轨": 8797,
      "看到他们": 8798,
      "覆盖": 8799,
      "焦躁": 8800,
      "丑陋的": 8801,
      "玩弄": 8802,
      "画笔": 8803,
      "来帮忙": 8804,
      "目标": 8805,
      "其他的": 8806,
      "在一起玩得很开心": 8807,
      "梦见": 8808,
      "女孩说": 8809,
      "带他去": 8810,
      "自豪地": 8811,
      "球滚": 8812,
      "松鼠说": 8813,
      "喵喵": 8814,
      "在做什么": 8815,
      "以便": 8816,
      "回到屋里": 8817,
      "起重": 8818,
      "他们无法": 8819,
      "做点什么": 8820,
      "房屋": 8821,
      "笑着说道": 8822,
      "疼痛": 8823,
      "提米的": 8824,
      "他们玩捉迷藏": 8825,
      "不寻常的": 8826,
      "在墙上": 8827,
      "开始移动": 8828,
      "邮递": 8829,
      "看到了她": 8830,
      "叽叽喳喳地": 8831,
      "想着": 8832,
      "马克斯喜欢在": 8833,
      "噩梦": 8834,
      "露露": 8835,
      "爱她": 8836,
      "真好吃": 8837,
      "健身房": 8838,
      "蒂姆很惊讶": 8839,
      "摸摸": 8840,
      "长大后": 8841,
      "蒂娜": 8842,
      "共用": 8843,
      "有需要的人": 8844,
      "没想到": 8845,
      "台上": 8846,
      "对自己": 8847,
      "他们是否可以": 8848,
      "简直不敢相信自己的": 8849,
      "刚刚": 8850,
      "对他们": 8851,
      "生病了": 8852,
      "爱丽丝": 8853,
      "武器": 8854,
      "攀爬": 8855,
      "他穿上": 8856,
      "感到悲伤和害怕": 8857,
      "回应": 8858,
      "眨了": 8859,
      "速度很快": 8860,
      "戴着一顶": 8861,
      "感到悲伤和愤怒": 8862,
      "她喜欢和爸爸妈妈一起": 8863,
      "她应该": 8864,
      "让别人": 8865,
      "我的球": 8866,
      "他笑了": 8867,
      "哈利": 8868,
      "肩膀": 8869,
      "偷偷": 8870,
      "铃声": 8871,
      "邮递员": 8872,
      "的善良": 8873,
      "进屋": 8874,
      "大男孩": 8875,
      "一起做": 8876,
      "跟着他": 8877,
      "的惊喜": 8878,
      "给妈妈看": 8879,
      "陪伴": 8880,
      "上写着": 8881,
      "很重": 8882,
      "到处都找不到": 8883,
      "花儿": 8884,
      "他很兴奋": 8885,
      "制服": 8886,
      "更大": 8887,
      "塑料": 8888,
      "完了": 8889,
      "停止哭泣": 8890,
      "也笑了": 8891,
      "想把它": 8892,
      "地震": 8893,
      "和他的朋友们一起玩耍": 8894,
      "他带着": 8895,
      "勇气": 8896,
      "捉弄": 8897,
      "日出": 8898,
      "飞得": 8899,
      "他们看到一棵大树": 8900,
      "起重机": 8901,
      "有一个善良": 8902,
      "露西和": 8903,
      "有一个大盒子": 8904,
      "铃铛": 8905,
      "丢失的": 8906,
      "纸和": 8907,
      "你就会": 8908,
      "焦虑": 8909,
      "爱和": 8910,
      "水面上": 8911,
      "斯帕": 8912,
      "原谅了": 8913,
      "走进厨房": 8914,
      "把她的": 8915,
      "书柜": 8916,
      "绘画": 8917,
      "莉莉的妈妈给她": 8918,
      "乔治": 8919,
      "吉吉": 8920,
      "有大": 8921,
      "妈妈和爸爸": 8922,
      "这个故事的寓意是永远": 8923,
      "一道": 8924,
      "的大鸟": 8925,
      "和探索": 8926,
      "又高又": 8927,
      "云彩": 8928,
      "当他们完成后": 8929,
      "加入了": 8930,
      "奶奶说": 8931,
      "像个": 8932,
      "马路": 8933,
      "空的": 8934,
      "当他们到达公园时": 8935,
      "冬天": 8936,
      "这真好玩": 8937,
      "快乐的歌": 8938,
      "伤口": 8939,
      "高大": 8940,
      "导师": 8941,
      "大楼": 8942,
      "耙子": 8943,
      "向妈妈要": 8944,
      "他们吸取了教训": 8945,
      "宝贝": 8946,
      "不幸的是": 8947,
      "宁静": 8948,
      "春天": 8949,
      "和他的狗": 8950,
      "告诉你": 8951,
      "太好吃了": 8952,
      "架子": 8953,
      "住在一座": 8954,
      "扔到": 8955,
      "有一场": 8956,
      "画了一": 8957,
      "最大的": 8958,
      "是红色的": 8959,
      "它吗": 8960,
      "推开": 8961,
      "下起了": 8962,
      "坐在一起": 8963,
      "害羞了": 8964,
      "她玩得很开心": 8965,
      "眨眼": 8966,
      "蒂米想": 8967,
      "每人": 8968,
      "盒子里装的是什么": 8969,
      "他们环顾四周": 8970,
      "她爸爸说": 8971,
      "他太": 8972,
      "掉落": 8973,
      "你想和我一起": 8974,
      "她不高兴": 8975,
      "紧紧地拥抱着": 8976,
      "裂缝": 8977,
      "在雨中": 8978,
      "挖掘": 8979,
      "测验": 8980,
      "的帮助下": 8981,
      "都很": 8982,
      "烟雾": 8983,
      "的红色": 8984,
      "来拜访": 8985,
      "这个洞": 8986,
      "尽可能快地跑": 8987,
      "法官": 8988,
      "你为什么这么": 8989,
      "被困住了": 8990,
      "体育场": 8991,
      "我会给你": 8992,
      "跳得": 8993,
      "闲逛": 8994,
      "其他玩具": 8995,
      "摘一些": 8996,
      "非常有趣": 8997,
      "他们看到了很多": 8998,
      "买了一些": 8999,
      "双臂": 9000,
      "座大山": 9001,
      "警惕": 9002,
      "跟随": 9003,
      "有一只小老鼠": 9004,
      "但他也": 9005,
      "咕噜": 9006,
      "温度": 9007,
      "顶帽子": 9008,
      "你就": 9009,
      "名叫波波": 9010,
      "他们玩着": 9011,
      "山谷": 9012,
      "纽扣": 9013,
      "我也可以玩": 9014,
      "一只名叫蒂姆的": 9015,
      "解开": 9016,
      "去商店买一些": 9017,
      "他去找": 9018,
      "脖子上": 9019,
      "响亮的": 9020,
      "汤姆的妈妈": 9021,
      "给她看了": 9022,
      "向他的朋友": 9023,
      "小麦": 9024,
      "我应该": 9025,
      "有一只小猫": 9026,
      "干什么": 9027,
      "摸了": 9028,
      "感觉更好": 9029,
      "奖牌": 9030,
      "不小心把它": 9031,
      "我很乐意": 9032,
      "巴士": 9033,
      "蒂姆非常": 9034,
      "我们去找": 9035,
      "一口": 9036,
      "游乐": 9037,
      "没有回答": 9038,
      "和小女孩": 9039,
      "一定要小心": 9040,
      "弄丢了": 9041,
      "隐藏的": 9042,
      "她小心翼翼地": 9043,
      "所有人都": 9044,
      "而感到高兴": 9045,
      "然后把它": 9046,
      "给了他一个": 9047,
      "讲故事": 9048,
      "四处走动": 9049,
      "他以为": 9050,
      "喜欢用": 9051,
      "灰色": 9052,
      "她的猫": 9053,
      "改天": 9054,
      "贵了": 9055,
      "她去找": 9056,
      "橘子": 9057,
      "长又": 9058,
      "颜色的": 9059,
      "烤饼干": 9060,
      "一架": 9061,
      "她带着": 9062,
      "由于": 9063,
      "大自然": 9064,
      "这是你的": 9065,
      "留意": 9066,
      "跑去拿": 9067,
      "得越来越高": 9068,
      "那棵大树": 9069,
      "先问": 9070,
      "她喊道": 9071,
      "蒂姆走到": 9072,
      "im": 9073,
      "小说": 9074,
      "你得": 9075,
      "和松鼠": 9076,
      "去哪里": 9077,
      "她妈妈问": 9078,
      "有趣的声音": 9079,
      "冰块": 9080,
      "向莉莉": 9081,
      "飞上了": 9082,
      "的教训": 9083,
      "和小狗": 9084,
      "灌木丛后面": 9085,
      "主动提出": 9086,
      "再次尝试": 9087,
      "杆子": 9088,
      "追了上去": 9089,
      "感到温暖": 9090,
      "他太高兴了": 9091,
      "从洞里": 9092,
      "紧紧抓住": 9093,
      "在一棵树下": 9094,
      "很困难": 9095,
      "他把球": 9096,
      "肥猫": 9097,
      "名叫米滕斯": 9098,
      "伤心了": 9099,
      "他们玩游戏": 9100,
      "拇指": 9101,
      "扭动": 9102,
      "飞回": 9103,
      "蒂姆有一个主意": 9104,
      "成为我的朋友": 9105,
      "雾气": 9106,
      "他有一个主意": 9107,
      "吃了一些": 9108,
      "这不": 9109,
      "出现在": 9110,
      "他们都会": 9111,
      "记录": 9112,
      "可以吃": 9113,
      "他们都知道": 9114,
      "干了": 9115,
      "滑倒": 9116,
      "一笑": 9117,
      "莉莉和蒂米": 9118,
      "太大": 9119,
      "莉莉回答": 9120,
      "交朋友": 9121,
      "风中": 9122,
      "如果我们": 9123,
      "垫子": 9124,
      "很沮丧": 9125,
      "他们很伤心": 9126,
      "度假": 9127,
      "车站": 9128,
      "把水": 9129,
      "顽固": 9130,
      "更多的冒险": 9131,
      "她拥抱了": 9132,
      "做了一件": 9133,
      "街区": 9134,
      "莉莉哭了": 9135,
      "戴着它": 9136,
      "的水": 9137,
      "讲了一个": 9138,
      "妈妈在": 9139,
      "可怕了": 9140,
      "他遇到了一只": 9141,
      "他们喜欢一起玩耍": 9142,
      "为她的": 9143,
      "他记得": 9144,
      "在池塘里": 9145,
      "并开始哭泣": 9146,
      "熊说": 9147,
      "给你的": 9148,
      "未知": 9149,
      "洗完澡": 9150,
      "不知道该": 9151,
      "重要的一课": 9152,
      "摸了摸": 9153,
      "可是": 9154,
      "灯片": 9155,
      "幻灯片": 9156,
      "菜单": 9157,
      "作品": 9158,
      "消防车": 9159,
      "吓唬": 9160,
      "又哭": 9161,
      "的音乐": 9162,
      "地点": 9163,
      "吓得": 9164,
      "开得很快": 9165,
      "高处": 9166,
      "她感到很": 9167,
      "就开始": 9168,
      "紧紧地抱住": 9169,
      "建造了一座": 9170,
      "他并": 9171,
      "还要": 9172,
      "这封信": 9173,
      "一份礼物": 9174,
      "吃光了": 9175,
      "和树叶": 9176,
      "他想玩": 9177,
      "唱了一首": 9178,
      "高个子": 9179,
      "特鲁": 9180,
      "谢谢妈妈": 9181,
      "盘子里": 9182,
      "她非常喜欢的": 9183,
      "很快就会回来": 9184,
      "叼起": 9185,
      "的手臂": 9186,
      "走了过来": 9187,
      "手上": 9188,
      "马上": 9189,
      "梳理": 9190,
      "雨停了": 9191,
      "迷人的": 9192,
      "连忙": 9193,
      "回忆": 9194,
      "又大又软的": 9195,
      "独角": 9196,
      "骑着自行车": 9197,
      "蒂米非常高兴": 9198,
      "他请": 9199,
      "取出": 9200,
      "她家附近的": 9201,
      "潜入": 9202,
      "蔚蓝的大": 9203,
      "黑暗中": 9204,
      "开怀": 9205,
      "独角兽": 9206,
      "的老人": 9207,
      "取得": 9208,
      "莉莉因为": 9209,
      "汤米说": 9210,
      "烘焙": 9211,
      "开怀大笑": 9212,
      "和许多": 9213,
      "一扇": 9214,
      "和我一起": 9215,
      "但也很高兴": 9216,
      "随身带着": 9217,
      "商场": 9218,
      "在手里": 9219,
      "贝蒂": 9220,
      "上山": 9221,
      "跌倒": 9222,
      "上面有很多": 9223,
      "家具": 9224,
      "看到一大": 9225,
      "沉重的": 9226,
      "丢了玩具": 9227,
      "都很惊讶": 9228,
      "公交": 9229,
      "米奇": 9230,
      "他们问": 9231,
      "逃离了": 9232,
      "小蓝": 9233,
      "去兜风": 9234,
      "雷声": 9235,
      "藏着": 9236,
      "蒂姆和麦克斯": 9237,
      "从滑梯上": 9238,
      "感到不舒服": 9239,
      "道了": 9240,
      "放进烤箱": 9241,
      "给她的": 9242,
      "露出": 9243,
      "看到了他们": 9244,
      "莉莉很高兴她": 9245,
      "精神": 9246,
      "吵架": 9247,
      "探险": 9248,
      "也开始": 9249,
      "他们不得不": 9250,
      "谨慎": 9251,
      "的情况下": 9252,
      "小姑娘": 9253,
      "有条": 9254,
      "嘴唇": 9255,
      "叶子上": 9256,
      "以确保": 9257,
      "警报": 9258,
      "因为她喜欢": 9259,
      "制定": 9260,
      "按摩": 9261,
      "洗衣服": 9262,
      "为自己感到骄傲": 9263,
      "大眼睛": 9264,
      "她指着": 9265,
      "我们进去": 9266,
      "高高的天空": 9267,
      "作响": 9268,
      "飞船": 9269,
      "艰难": 9270,
      "关上了": 9271,
      "留在了": 9272,
      "三个": 9273,
      "他想玩它": 9274,
      "我告诉过": 9275,
      "所有东西": 9276,
      "正在吃": 9277,
      "她请": 9278,
      "莉莉想帮助": 9279,
      "完全": 9280,
      "去探索": 9281,
      "治愈": 9282,
      "整天玩着": 9283,
      "斧头": 9284,
      "松树": 9285,
      "有一个很大的": 9286,
      "陀螺": 9287,
      "干净整洁": 9288,
      "以为自己": 9289,
      "捉人": 9290,
      "她感到骄傲": 9291,
      "感到孤独": 9292,
      "着火了": 9293,
      "教她如何": 9294,
      "米娅很高兴": 9295,
      "明智": 9296,
      "阴凉": 9297,
      "黑暗的": 9298,
      "永远记住": 9299,
      "制作了": 9300,
      "作所": 9301,
      "盖子": 9302,
      "所作所": 9303,
      "知道该怎么做": 9304,
      "去看兽医": 9305,
      "但她的": 9306,
      "柜子里": 9307,
      "一起享用": 9308,
      "仰望": 9309,
      "尝了": 9310,
      "所有朋友": 9311,
      "睡觉时": 9312,
      "糟糕的结局": 9313,
      "橡皮擦": 9314,
      "每个人都很高兴": 9315,
      "ly": 9316,
      "快乐的狗": 9317,
      "听从": 9318,
      "蒂米为自己": 9319,
      "莉莉和她的妈妈": 9320,
      "研究": 9321,
      "我会帮你的": 9322,
      "他发现了一个": 9323,
      "监狱": 9324,
      "耸耸肩": 9325,
      "一封信": 9326,
      "在他的房间里": 9327,
      "喜悦": 9328,
      "利用": 9329,
      "的特殊": 9330,
      "他听到一声巨响": 9331,
      "住在一座大": 9332,
      "闻到": 9333,
      "告诉我": 9334,
      "前往": 9335,
      "病得很重": 9336,
      "绑在": 9337,
      "剃须": 9338,
      "了一个新": 9339,
      "他回到": 9340,
      "广阔的": 9341,
      "演奏音乐": 9342,
      "地看着": 9343,
      "风扇": 9344,
      "装备": 9345,
      "幸福了": 9346,
      "怎样才能": 9347,
      "种颜色": 9348,
      "她喜欢和朋友们": 9349,
      "模型": 9350,
      "从前有一只": 9351,
      "善良的女士": 9352,
      "皮平": 9353,
      "取暖": 9354,
      "放在一个": 9355,
      "毕竟": 9356,
      "跟着她": 9357,
      "我们再": 9358,
      "来找": 9359,
      "原来的": 9360,
      "在回家的路上": 9361,
      "丝不动": 9362,
      "纹丝不动": 9363,
      "继续走": 9364,
      "又饿": 9365,
      "屈服": 9366,
      "检查一下": 9367,
      "他很好奇": 9368,
      "她以前从未见过": 9369,
      "镇上的人们": 9370,
      "她在公园里": 9371,
      "莉莉的朋友蒂米": 9372,
      "将它们": 9373,
      "很多人": 9374,
      "莉莉的妈妈让她帮忙": 9375,
      "就成了好朋友": 9376,
      "她去公园": 9377,
      "外面很冷": 9378,
      "的小房子里": 9379,
      "蒂米对": 9380,
      "它们的": 9381,
      "饼干和": 9382,
      "哭啊": 9383,
      "它的朋友": 9384,
      "斯帕克": 9385,
      "老鼠说": 9386,
      "他们不喜欢": 9387,
      "蒂米和他妈妈": 9388,
      "跑得太快了": 9389,
      "他有一辆": 9390,
      "打开了门": 9391,
      "著名的": 9392,
      "草地上玩耍": 9393,
      "我原谅": 9394,
      "喜欢唱歌": 9395,
      "这很酷": 9396,
      "剃须刀": 9397,
      "它已经": 9398,
      "地面上": 9399,
      "队伍": 9400,
      "手牵着手": 9401,
      "购物": 9402,
      "还在": 9403,
      "和鱼": 9404,
      "希望能": 9405,
      "和青蛙": 9406,
      "大声吠叫": 9407,
      "岛上": 9408,
      "节奏": 9409,
      "住在一所大房子里": 9410,
      "dy": 9411,
      "符号": 9412,
      "看到了许多": 9413,
      "来看望她": 9414,
      "莉莉非常喜欢": 9415,
      "做蛋糕": 9416,
      "尽头": 9417,
      "送给她": 9418,
      "玩具店": 9419,
      "被困在树上": 9420,
      "口渴": 9421,
      "明星": 9422,
      "他们每天": 9423,
      "可怕的怪物": 9424,
      "好起来的": 9425,
      "想爬上去": 9426,
      "歌剧": 9427,
      "和他妈妈": 9428,
      "他有了一个主意": 9429,
      "其中一个": 9430,
      "她发现了一个": 9431,
      "有一只小熊": 9432,
      "下午": 9433,
      "看到莉莉": 9434,
      "她的玩具车": 9435,
      "住着一个小女孩": 9436,
      "陷入": 9437,
      "我愿意": 9438,
      "桑尼": 9439,
      "她不知道该怎么办": 9440,
      "一块大石头": 9441,
      "所作所为": 9442,
      "他们发现了一": 9443,
      "时要小心": 9444,
      "又黑": 9445,
      "小女孩很高兴": 9446,
      "工作人员": 9447,
      "他给了": 9448,
      "小鸡": 9449,
      "酸橙": 9450,
      "锻炼": 9451,
      "我们一起去": 9452,
      "捡起了": 9453,
      "给他买": 9454,
      "Tim": 9455,
      "看到天空中": 9456,
      "查理": 9457,
      "她有了一个主意": 9458,
      "扔进": 9459,
      "我太": 9460,
      "需要的时候": 9461,
      "的小吃": 9462,
      "它只是": 9463,
      "一个聚会": 9464,
      "约翰逊": 9465,
      "放心吧": 9466,
      "它非常漂亮": 9467,
      "幸福地生活着": 9468,
      "带走": 9469,
      "涂色": 9470,
      "用棍子": 9471,
      "在盒子里": 9472,
      "和他的主人": 9473,
      "有多么": 9474,
      "帮助他的妈妈": 9475,
      "速度太快了": 9476,
      "她看到一棵大树": 9477,
      "特别的事情": 9478,
      "停下": 9479,
      "着急": 9480,
      "依偎在": 9481,
      "金币": 9482,
      "不同意": 9483,
      "遇见": 9484,
      "她坐在": 9485,
      "变成了一个": 9486,
      "她喜欢看": 9487,
      "他被": 9488,
      "摘了一些": 9489,
      "树旁": 9490,
      "她看到了一": 9491,
      "他想到了一个": 9492,
      "为他的": 9493,
      "并发出": 9494,
      "来吃": 9495,
      "有趣的玩具": 9496,
      "很乐意帮忙": 9497,
      "手中夺走": 9498,
      "桶里": 9499,
      "之前总是": 9500,
      "说实话": 9501,
      "有一扇": 9502,
      "执着": 9503,
      "但他不想": 9504,
      "在她的房间里": 9505,
      "关掉": 9506,
      "喊叫": 9507,
      "知识": 9508,
      "帮助我们": 9509,
      "意识到自己": 9510,
      "西装": 9511,
      "我相信": 9512,
      "这个消息": 9513,
      "你在干什么": 9514,
      "它们会": 9515,
      "传来了": 9516,
      "困了": 9517,
      "太远了": 9518,
      "爱他": 9519,
      "他们都在": 9520,
      "露西的妈妈": 9521,
      "妈妈的手": 9522,
      "大帽子": 9523,
      "聚集": 9524,
      "肌肉": 9525,
      "拉上": 9526,
      "跑得更快": 9527,
      "的一部分": 9528,
      "我有一个主意": 9529,
      "扔掉": 9530,
      "解决了": 9531,
      "低头一看": 9532,
      "受了": 9533,
      "呀跳": 9534,
      "尽力而": 9535,
      "手杖": 9536,
      "晴朗": 9537,
      "温度计": 9538,
      "是一只非常": 9539,
      "鸟儿歌唱": 9540,
      "越来越近": 9541,
      "他们很高兴能": 9542,
      "去做": 9543,
      "球并": 9544,
      "和她的朋友们一起玩": 9545,
      "史密斯夫人": 9546,
      "发生什么事": 9547,
      "付钱": 9548,
      "是最好的": 9549,
      "闪亮的石头": 9550,
      "莉莉感到难过": 9551,
      "数着": 9552,
      "不知名": 9553,
      "和他最好的朋友": 9554,
      "不久": 9555,
      "往外": 9556,
      "为什么要": 9557,
      "很棒的": 9558,
      "与家人": 9559,
      "卡车司机": 9560,
      "标牌": 9561,
      "他们打开": 9562,
      "太贵了": 9563,
      "挥动": 9564,
      "托比": 9565,
      "购买": 9566,
      "卖掉": 9567,
      "包包": 9568,
      "地玩耍": 9569,
      "汤姆看着": 9570,
      "弹吉他": 9571,
      "继续努力": 9572,
      "ig": 9573,
      "他们有一个": 9574,
      "当他们离开": 9575,
      "洗衣": 9576,
      "诺言": 9577,
      "被淋湿": 9578,
      "能力": 9579,
      "她不": 9580,
      "迷失": 9581,
      "你是我": 9582,
      "所拥有的": 9583,
      "我们可以用": 9584,
      "向上": 9585,
      "珍惜": 9586,
      "所有其他": 9587,
      "和我的": 9588,
      "呆在": 9589,
      "船长": 9590,
      "成两半": 9591,
      "那是一辆": 9592,
      "擦亮": 9593,
      "提米的妈妈": 9594,
      "认为这是一个": 9595,
      "里玩": 9596,
      "见面": 9597,
      "你是个": 9598,
      "从她": 9599,
      "打滚": 9600,
      "动弹": 9601,
      "风刮": 9602,
      "准备了一个": 9603,
      "变焦": 9604,
      "我们把它": 9605,
      "一个名叫蒂姆的男孩和他的妈妈一起": 9606,
      "搬到": 9607,
      "给了他一些": 9608,
      "物品": 9609,
      "尽力而为": 9610,
      "一起努力": 9611,
      "产生": 9612,
      "不要碰": 9613,
      "得很厉害": 9614,
      "在公园里散步": 9615,
      "所说": 9616,
      "太阳镜": 9617,
      "终点": 9618,
      "蒂姆喜欢玩他的玩具": 9619,
      "圣诞": 9620,
      "即将来临": 9621,
      "体重": 9622,
      "莉莉跑到": 9623,
      "这个大": 9624,
      "的双胞胎": 9625,
      "他知道自己": 9626,
      "拉动": 9627,
      "一个名叫蒂姆的小男孩和他的妈妈一起去公园": 9628,
      "的房子里": 9629,
      "蒂姆想了想": 9630,
      "ty": 9631,
      "浪费": 9632,
      "妈妈会": 9633,
      "玩到": 9634,
      "睡在": 9635,
      "小心地": 9636,
      "举行": 9637,
      "做的事": 9638,
      "忠诚的狗": 9639,
      "想要帮忙": 9640,
      "可爱的小狗": 9641,
      "莉莉看到一个": 9642,
      "感觉良好": 9643,
      "之间": 9644,
      "她是一个": 9645,
      "名叫苏的女孩": 9646,
      "准备放弃": 9647,
      "注意到了": 9648,
      "她不再": 9649,
      "来帮助她": 9650,
      "他每天都会": 9651,
      "又回到了": 9652,
      "住着一只名叫": 9653,
      "蒸汽": 9654,
      "有创意": 9655,
      "Bun": 9656,
      "变质": 9657,
      "我们也": 9658,
      "我们明天": 9659,
      "只需要": 9660,
      "非常饿": 9661,
      "垃圾箱": 9662,
      "学到了重要的一课": 9663,
      "他跑": 9664,
      "入睡": 9665,
      "看起来就像": 9666,
      "一点也不": 9667,
      "ppy": 9668,
      "听取": 9669,
      "我们是": 9670,
      "一个名叫汤姆的": 9671,
      "十字": 9672,
      "实际": 9673,
      "巨龙": 9674,
      "他抓起": 9675,
      "名叫汤姆的": 9676,
      "她要": 9677,
      "他们寻找": 9678,
      "带着他的": 9679,
      "莉拉说": 9680,
      "玩她的": 9681,
      "这本": 9682,
      "分享很重要": 9683,
      "但他不知道": 9684,
      "是一对": 9685,
      "可能是": 9686,
      "是一辆": 9687,
      "我迷路了": 9688,
      "破损的": 9689,
      "莉莉就喜欢": 9690,
      "方形": 9691,
      "燃料": 9692,
      "因为他的": 9693,
      "她有": 9694,
      "脸色": 9695,
      "的蝴蝶": 9696,
      "当他到达": 9697,
      "一无": 9698,
      "就问她": 9699,
      "一起游泳": 9700,
      "莉莉非常兴奋": 9701,
      "我们在": 9702,
      "提米和": 9703,
      "你是我的": 9704,
      "莉莉又高兴了": 9705,
      "家务": 9706,
      "帮助人们": 9707,
      "肮脏的": 9708,
      "拍着手": 9709,
      "这一点很重要": 9710,
      "我了": 9711,
      "教室": 9712,
      "她很生气": 9713,
      "驶过": 9714,
      "实在": 9715,
      "拿不属于": 9716,
      "回报": 9717,
      "天鹅绒": 9718,
      "的礼物": 9719,
      "了一个洞": 9720,
      "我会帮你找到": 9721,
      "莉莉和她的家人": 9722,
      "找一个": 9723,
      "了一把": 9724,
      "知道它": 9725,
      "很多事情": 9726,
      "去看看": 9727,
      "又快": 9728,
      "和虫子": 9729,
      "了一种": 9730,
      "你把": 9731,
      "实验室": 9732,
      "炉子上": 9733,
      "她还了解到": 9734,
      "她感觉": 9735,
      "马克斯很高兴": 9736,
      "有一个名叫提米": 9737,
      "他哭了": 9738,
      "他们很害怕": 9739,
      "保持安全": 9740,
      "看看我的": 9741,
      "毁掉": 9742,
      "跳进去": 9743,
      "在天上": 9744,
      "烦恼": 9745,
      "痊愈": 9746,
      "黄色的大": 9747,
      "想吃掉": 9748,
      "她玩": 9749,
      "一起度过": 9750,
      "前提": 9751,
      "药草": 9752,
      "看到一个小女孩": 9753,
      "奥利弗": 9754,
      "正忙着": 9755,
      "卡在": 9756,
      "紧了": 9757,
      "你们两个": 9758,
      "伤害了": 9759,
      "谈谈": 9760,
      "他也想": 9761,
      "响起": 9762,
      "梦见了": 9763,
      "学会了如何": 9764,
      "人很好": 9765,
      "他们看到一个大": 9766,
      "他要": 9767,
      "蒂米的朋友比利过来玩": 9768,
      "大书": 9769,
      "路边": 9770,
      "实际上": 9771,
      "和你的": 9772,
      "在嘴里": 9773,
      "总是在": 9774,
      "很长一段时间": 9775,
      "但它太重了": 9776,
      "假期": 9777,
      "的岩石": 9778,
      "他和朋友们": 9779,
      "这首歌": 9780,
      "的女士": 9781,
      "你说得对": 9782,
      "住在一棵大树上": 9783,
      "闪亮的岩石": 9784,
      "看到蒂姆": 9785,
      "和他们的": 9786,
      "感到头晕": 9787,
      "与众": 9788,
      "蒂米问": 9789,
      "赛车": 9790,
      "漂亮的石头": 9791,
      "损坏": 9792,
      "破碎的": 9793,
      "而快乐": 9794,
      "高的": 9795,
      "一个名叫莉莉的女孩": 9796,
      "精灵": 9797,
      "很多次": 9798,
      "高大的树": 9799,
      "过去了": 9800,
      "姨妈": 9801,
      "既悲伤": 9802,
      "舔着": 9803,
      "很好玩": 9804,
      "一本书": 9805,
      "于是他们": 9806,
      "莉莉很高兴看到": 9807,
      "她甚至": 9808,
      "折断了": 9809,
      "我们用": 9810,
      "要做": 9811,
      "不放弃": 9812,
      "蒂米试图": 9813,
      "看到了他的朋友": 9814,
      "这个主意": 9815,
      "试试吧": 9816,
      "不肯": 9817,
      "威威": 9818,
      "鱼说": 9819,
      "这个球": 9820,
      "好大": 9821,
      "地上有一根": 9822,
      "给他的": 9823,
      "冰淇淋车": 9824,
      "坐在树下": 9825,
      "无害的": 9826,
      "坑里": 9827,
      "摩擦": 9828,
      "我们爱你": 9829,
      "甜美": 9830,
      "一个名叫蒂米的小男孩": 9831,
      "卡车上": 9832,
      "的盒子": 9833,
      "米莉": 9834,
      "森林里的": 9835,
      "谢谢你帮我": 9836,
      "面糊": 9837,
      "对自己的": 9838,
      "跑开了": 9839,
      "关闭": 9840,
      "本尼说": 9841,
      "高塔": 9842,
      "洗澡了": 9843,
      "拍照": 9844,
      "很乱": 9845,
      "保持干燥": 9846,
      "轻柔": 9847,
      "我可以用": 9848,
      "你真是太好了": 9849,
      "力气": 9850,
      "错过了": 9851,
      "汤姆在": 9852,
      "的石头": 9853,
      "掉下来了": 9854,
      "蒂姆非常兴奋": 9855,
      "参加聚会": 9856,
      "捉人游戏": 9857,
      "别伤心": 9858,
      "错误的": 9859,
      "打扮": 9860,
      "又小": 9861,
      "玩完": 9862,
      "打印机": 9863,
      "我们可以买": 9864,
      "从哪里来的": 9865,
      "那朵花": 9866,
      "inky": 9867,
      "有一个又大又": 9868,
      "戴上帽子": 9869,
      "当她到达": 9870,
      "喷雾": 9871,
      "漂亮的图画": 9872,
      "甜筒": 9873,
      "我很高兴你喜欢它": 9874,
      "的狮子": 9875,
      "跳出来": 9876,
      "历史": 9877,
      "火灾": 9878,
      "回到了家": 9879,
      "它很大": 9880,
      "技巧": 9881,
      "问他是否可以": 9882,
      "那天晚上晚些时候": 9883,
      "我只是想": 9884,
      "的样子": 9885,
      "给自己": 9886,
      "度过了一段美好的时光": 9887,
      "沙滩上": 9888,
      "踏上了": 9889,
      "自由了": 9890,
      "翻了": 9891,
      "但前提": 9892,
      "小汽车": 9893,
      "大学": 9894,
      "本尼喜欢在": 9895,
      "清理玩具": 9896,
      "焦躁不安": 9897,
      "我看到": 9898,
      "依靠": 9899,
      "尺寸": 9900,
      "抽屉里": 9901,
      "蒂姆非常惊讶": 9902,
      "她喜欢在后院": 9903,
      "与朋友分享": 9904,
      "可以带来": 9905,
      "并互相": 9906,
      "有一张大": 9907,
      "蒂姆感到很难过": 9908,
      "和她妈妈一起": 9909,
      "在公园度过了愉快的一天": 9910,
      "给蒂姆": 9911,
      "猫头鹰说": 9912,
      "把小鸟": 9913,
      "为他感到骄傲": 9914,
      "莉莉不明白": 9915,
      "帮妈妈干活": 9916,
      "蒂姆决定": 9917,
      "一朵花": 9918,
      "猫和一只狗": 9919,
      "安妮": 9920,
      "比以前更": 9921,
      "闻了": 9922,
      "发生什么事了": 9923,
      "这只是一个": 9924,
      "给了它": 9925,
      "莉莉的妈妈带她": 9926,
      "钩子": 9927,
      "艾米说": 9928,
      "蓝色和": 9929,
      "请问": 9930,
      "坐在上面": 9931,
      "负责": 9932,
      "天空中飞翔": 9933,
      "洗完澡后": 9934,
      "她的朋友蒂姆": 9935,
      "他们是朋友": 9936,
      "看到地上": 9937,
      "晚了": 9938,
      "卡在树上": 9939,
      "并继续": 9940,
      "她每天": 9941,
      "麦克斯很高兴": 9942,
      "相爱": 9943,
      "这场": 9944,
      "遇到的": 9945,
      "踩到": 9946,
      "他们来到": 9947,
      "开始发光": 9948,
      "那是一块": 9949,
      "今晚": 9950,
      "真是太有趣了": 9951,
      "她告诉妈妈": 9952,
      "想象力": 9953,
      "团结起来": 9954,
      "漂亮的裙子": 9955,
      "计划进行": 9956,
      "煤炭": 9957,
      "名叫本": 9958,
      "蒂米和比利": 9959,
      "生日聚会": 9960,
      "但没有成功": 9961,
      "让自己": 9962,
      "莉莉开始哭泣": 9963,
      "他想把它": 9964,
      "她拿出": 9965,
      "露西很高兴": 9966,
      "莉莉惊呼道": 9967,
      "她对妈妈说": 9968,
      "莉莉明白了": 9969,
      "更好地": 9970,
      "海上": 9971,
      "她把它们": 9972,
      "又大又凶": 9973,
      "他知道他": 9974,
      "灌木丛里": 9975,
      "她想起": 9976,
      "他们能": 9977,
      "点了点头": 9978,
      "匹马": 9979,
      "放了一些": 9980,
      "伸手去": 9981,
      "不要再": 9982,
      "海军": 9983,
      "太空": 9984,
      "肚子疼": 9985,
      "而已": 9986,
      "药丸": 9987,
      "部电影": 9988,
      "丛林中": 9989,
      "看看它": 9990,
      "父母的话": 9991,
      "她很好奇": 9992,
      "对他说": 9993,
      "和泰迪熊": 9994,
      "但在": 9995,
      "他们决定玩": 9996,
      "收拾干净": 9997,
      "眨眼睛": 9998,
      "爵士乐": 9999,
      "平底": 10000,
      "去参加聚会": 10001,
      "敲了敲门": 10002,
      "弯曲": 10003,
      "我今天": 10004,
      "她一直": 10005,
      "她回到": 10006,
      "为什么这么": 10007,
      "与众不同": 10008,
      "你的球": 10009,
      "记号笔": 10010,
      "发出很大的噪音": 10011,
      "她找到了": 10012,
      "看到了一条": 10013,
      "在纸上": 10014,
      "马戏": 10015,
      "他的妈妈说": 10016,
      "那里有很多": 10017,
      "两人一起": 10018,
      "画出": 10019,
      "呼唤": 10020,
      "和汽车": 10021,
      "乱了": 10022,
      "舞台上": 10023,
      "忍不住": 10024,
      "所以他们": 10025,
      "夜晚": 10026,
      "我们来玩吧": 10027,
      "妈妈把": 10028,
      "让他的": 10029,
      "家时": 10030,
      "他感觉": 10031,
      "救了出来": 10032,
      "但今天": 10033,
      "按计划进行": 10034,
      "这些玩具": 10035,
      "大人": 10036,
      "飞驰": 10037,
      "危险了": 10038,
      "掉到了地上": 10039,
      "非常好吃": 10040,
      "转过身来": 10041,
      "了一天": 10042,
      "发现了一件": 10043,
      "车库里": 10044,
      "露营": 10045,
      "这么好": 10046,
      "她喜欢探索": 10047,
      "总是确保": 10048,
      "和你一起": 10049,
      "所有的东西": 10050,
      "我们的朋友": 10051,
      "我告诉过你": 10052,
      "走进去": 10053,
      "蒂米和他的": 10054,
      "穿过森林": 10055,
      "他住在": 10056,
      "厨师": 10057,
      "锥体": 10058,
      "苏和蒂姆": 10059,
      "踏上": 10060,
      "她继续": 10061,
      "来看望他": 10062,
      "他有很多": 10063,
      "因为他知道": 10064,
      "小心一点": 10065,
      "国王和": 10066,
      "筑巢": 10067,
      "并成为了好朋友": 10068,
      "鸟类": 10069,
      "莉莉拿起": 10070,
      "公园里的": 10071,
      "她抓起": 10072,
      "莉莉非常高兴": 10073,
      "气泡": 10074,
      "魔力": 10075,
      "她的爸爸": 10076,
      "就成了": 10077,
      "狗和": 10078,
      "感到很尴尬": 10079,
      "在阳光下闪闪发光": 10080,
      "和饼干": 10081,
      "你们的": 10082,
      "和他一起": 10083,
      "我们不想": 10084,
      "小花": 10085,
      "旋钮": 10086,
      "和她妈妈一起去": 10087,
      "埋在": 10088,
      "它太大了": 10089,
      "十字架": 10090,
      "正要": 10091,
      "餐馆": 10092,
      "平底锅": 10093,
      "汤姆微笑着说": 10094,
      "活了": 10095,
      "把石头": 10096,
      "精美": 10097,
      "又大又亮的": 10098,
      "里的水": 10099,
      "下棋": 10100,
      "大大的": 10101,
      "无恙": 10102,
      "并保证": 10103,
      "搞得": 10104,
      "潜水": 10105,
      "他不小心": 10106,
      "正当她": 10107,
      "他们有很多": 10108,
      "有一架": 10109,
      "上班": 10110,
      "她拿": 10111,
      "它看起来像": 10112,
      "文字": 10113,
      "结满了": 10114,
      "黑猫": 10115,
      "许可": 10116,
      "非常开心": 10117,
      "新游戏": 10118,
      "带回了": 10119,
      "犯错误": 10120,
      "她喜欢在外面玩耍和": 10121,
      "热巧克力": 10122,
      "开始寻找": 10123,
      "爬到了": 10124,
      "与他人分享": 10125,
      "她妈妈微笑着": 10126,
      "永远消失了": 10127,
      "一个愿望": 10128,
      "蒂米感觉好多了": 10129,
      "小红": 10130,
      "但他做不到": 10131,
      "丢下": 10132,
      "惊讶地发现": 10133,
      "伸进": 10134,
      "成功地": 10135,
      "她有一个主意": 10136,
      "门铃": 10137,
      "有一道": 10138,
      "你做了什么": 10139,
      "番茄": 10140,
      "又叫": 10141,
      "当晚餐": 10142,
      "一条大鱼": 10143,
      "她喜欢在厨房里": 10144,
      "伤害你的": 10145,
      "也很伤心": 10146,
      "朵美丽的花": 10147,
      "跑得最快": 10148,
      "她的头发": 10149,
      "她听到一声巨响": 10150,
      "放开": 10151,
      "长发": 10152,
      "使其": 10153,
      "她的画": 10154,
      "他拿着": 10155,
      "摇动": 10156,
      "接住它": 10157,
      "他的朋友说": 10158,
      "我们可以再": 10159,
      "整天喜欢": 10160,
      "擦拭": 10161,
      "她在花园里": 10162,
      "苏的妈妈": 10163,
      "链子": 10164,
      "但她仍然": 10165,
      "我为你感到骄傲": 10166,
      "他看到一个大": 10167,
      "摔下来": 10168,
      "学生": 10169,
      "某人": 10170,
      "试图逃跑": 10171,
      "原谅了他": 10172,
      "的美丽": 10173,
      "被爱": 10174,
      "的小丑": 10175,
      "一定会": 10176,
      "途中": 10177,
      "错过": 10178,
      "不同的东西": 10179,
      "我会帮助你": 10180,
      "跳了进去": 10181,
      "向他们跑来": 10182,
      "又长又": 10183,
      "犯了一个": 10184,
      "爬下": 10185,
      "伤心地说": 10186,
      "安然": 10187,
      "我爱": 10188,
      "丰富": 10189,
      "感到内疚": 10190,
      "一只名叫汤姆": 10191,
      "看到一只大狗": 10192,
      "摇了": 10193,
      "我们一起去找": 10194,
      "好孩子": 10195,
      "紧紧握住": 10196,
      "掉在了": 10197,
      "感到满意": 10198,
      "外星": 10199,
      "只有三岁": 10200,
      "经历了许多冒险": 10201,
      "她以为": 10202,
      "开始动了": 10203,
      "警觉": 10204,
      "她的朋友说": 10205,
      "水果和蔬菜": 10206,
      "倒进": 10207,
      "喜欢一起玩": 10208,
      "挤压": 10209,
      "当天": 10210,
      "坐在树枝上": 10211,
      "球场": 10212,
      "颜色和形状": 10213,
      "今天是": 10214,
      "湿的": 10215,
      "风很大": 10216,
      "他们想知道": 10217,
      "扔球": 10218,
      "集市": 10219,
      "妈妈正在": 10220,
      "这是他们": 10221,
      "她太高兴了": 10222,
      "想尝试一下": 10223,
      "鸣叫": 10224,
      "会有": 10225,
      "她不小心": 10226,
      "你做得很好": 10227,
      "莉莉的朋友们": 10228,
      "他们与": 10229,
      "很棒": 10230,
      "考虑": 10231,
      "还没有": 10232,
      "交易": 10233,
      "弄脏了": 10234,
      "上升": 10235,
      "无论走到哪里都": 10236,
      "的房间里": 10237,
      "播放": 10238,
      "露出了": 10239,
      "而下": 10240,
      "啊走": 10241,
      "甜甜的": 10242,
      "这个女孩": 10243,
      "得更好": 10244,
      "喜欢在高空飞翔": 10245,
      "这样他就": 10246,
      "她无法": 10247,
      "挡住了": 10248,
      "激动": 10249,
      "并享受": 10250,
      "很高兴有一个新朋友": 10251,
      "你为什么要": 10252,
      "你看到": 10253,
      "在一张": 10254,
      "一只名叫萨姆": 10255,
      "会说话的": 10256,
      "住在一个农场里": 10257,
      "当它": 10258,
      "往上": 10259,
      "骑行": 10260,
      "莉莉看到一": 10261,
      "写下了": 10262,
      "假装成": 10263,
      "跳下": 10264,
      "走了进去": 10265,
      "也在": 10266,
      "了更多的": 10267,
      "他不能": 10268,
      "互相看了一眼": 10269,
      "外面有": 10270,
      "但它太高了": 10271,
      "一只聪明的老猫头鹰": 10272,
      "在学校": 10273,
      "并想提供帮助": 10274,
      "了一片": 10275,
      "导致": 10276,
      "她告诉莉莉": 10277,
      "便士": 10278,
      "牛油": 10279,
      "她的话": 10280,
      "去厨房": 10281,
      "一个朋友": 10282,
      "她感到很难过": 10283,
      "停止玩耍": 10284,
      "把盒子": 10285,
      "想和你": 10286,
      "去野餐": 10287,
      "去动物园": 10288,
      "他们一起寻找": 10289,
      "这意味着什么": 10290,
      "书架上": 10291,
      "和友善": 10292,
      "她和爸爸妈妈住在一栋": 10293,
      "全身": 10294,
      "红色和": 10295,
      "牛油果": 10296,
      "打曲棍球": 10297,
      "了一跤": 10298,
      "她喜欢在外面玩耍并探索周围的世界": 10299,
      "抓不到": 10300,
      "跳进了": 10301,
      "闻了闻": 10302,
      "田里": 10303,
      "男孩很高兴": 10304,
      "他尝试": 10305,
      "很疼": 10306,
      "是时候回家了": 10307,
      "霍普": 10308,
      "顿美味的": 10309,
      "宝贵的一课": 10310,
      "你在这里": 10311,
      "环视": 10312,
      "理石": 10313,
      "她非常高兴": 10314,
      "杂货店": 10315,
      "发痒": 10316,
      "鲍勃的": 10317,
      "简直不敢相信自己的眼睛": 10318,
      "足够的钱": 10319,
      "有一只顽皮": 10320,
      "这只鸟感到难过": 10321,
      "包括": 10322,
      "闻到了": 10323,
      "钓到": 10324,
      "比赛结束后": 10325,
      "他开始哭泣": 10326,
      "这将": 10327,
      "下水": 10328,
      "他喜欢和朋友们一起": 10329,
      "又大又圆的": 10330,
      "一枚": 10331,
      "了一杯": 10332,
      "了出去": 10333,
      "那把": 10334,
      "的老": 10335,
      "米娅和汤姆": 10336,
      "发现了一本": 10337,
      "更喜欢": 10338,
      "名叫莎拉": 10339,
      "莉莉和妈妈一起去公园": 10340,
      "口味": 10341,
      "好痛": 10342,
      "他们再也没有": 10343,
      "求你了": 10344,
      "修复了": 10345,
      "他甚至": 10346,
      "开始跳舞": 10347,
      "在森林里玩耍": 10348,
      "烤蛋糕": 10349,
      "氧气": 10350,
      "很可爱": 10351,
      "很酷的": 10352,
      "了一座大": 10353,
      "得太远": 10354,
      "令人惊奇": 10355,
      "安然无恙": 10356,
      "提醒她": 10357,
      "沾满了": 10358,
      "长成": 10359,
      "收拾行李": 10360,
      "满脸": 10361,
      "微笑着点点头": 10362,
      "莉莉有一个主意": 10363,
      "她惊呼道": 10364,
      "腿上": 10365,
      "没有任何": 10366,
      "滑落": 10367,
      "把你": 10368,
      "融化了": 10369,
      "不注意": 10370,
      "看着对方": 10371,
      "控制": 10372,
      "燃烧": 10373,
      "蜡笔画画": 10374,
      "怀里": 10375,
      "困境": 10376,
      "看到了一棵大树": 10377,
      "好人": 10378,
      "木棍": 10379,
      "芬恩": 10380,
      "贴在": 10381,
      "男孩和": 10382,
      "出发了": 10383,
      "可以看到": 10384,
      "美味的小吃": 10385,
      "爬上了树": 10386,
      "他问妈妈是否可以": 10387,
      "奶奶的": 10388,
      "感到非常惊讶和高兴": 10389,
      "搞得一团糟": 10390,
      "的爸爸": 10391,
      "并把它们": 10392,
      "迈克": 10393,
      "做好准备": 10394,
      "充实": 10395,
      "漆黑": 10396,
      "背着": 10397,
      "起床": 10398,
      "分享并": 10399,
      "一下吧": 10400,
      "闪闪发光的石头": 10401,
      "他继续": 10402,
      "爱他们": 10403,
      "告诉莉莉": 10404,
      "什么东西": 10405,
      "用喙": 10406,
      "借用": 10407,
      "打高尔夫球": 10408,
      "实现了": 10409,
      "拉开": 10410,
      "不到了": 10411,
      "兮兮": 10412,
      "因为她的": 10413,
      "发出一声巨响": 10414,
      "放风筝": 10415,
      "有好处": 10416,
      "莉莉很好奇": 10417,
      "其实": 10418,
      "嘟嘟": 10419,
      "投降": 10420,
      "去森林里散步": 10421,
      "哭了起来": 10422,
      "对我来说": 10423,
      "小鸟看到": 10424,
      "一个新玩具": 10425,
      "戴在头上": 10426,
      "查看了": 10427,
      "特德": 10428,
      "并微笑": 10429,
      "过马路": 10430,
      "又好吃": 10431,
      "设法": 10432,
      "触碰它": 10433,
      "走出": 10434,
      "石灰": 10435,
      "正在玩球": 10436,
      "与他": 10437,
      "有一只兔子": 10438,
      "有一只小鸭子": 10439,
      "假的": 10440,
      "不相信": 10441,
      "大火": 10442,
      "这样做了": 10443,
      "穿着一件": 10444,
      "桌边": 10445,
      "脏兮兮": 10446,
      "并向他": 10447,
      "声音说道": 10448,
      "她有很多": 10449,
      "我来帮你": 10450,
      "她的父亲": 10451,
      "蒂米回答道": 10452,
      "举办一场": 10453,
      "小球": 10454,
      "慢了": 10455,
      "战争": 10456,
      "也是": 10457,
      "水流": 10458,
      "住着一个名叫蒂姆的男孩": 10459,
      "坚硬": 10460,
      "真相": 10461,
      "瓢虫": 10462,
      "更多地": 10463,
      "做什么用的": 10464,
      "唱一首": 10465,
      "一块石头": 10466,
      "她的脸": 10467,
      "一起散步": 10468,
      "期待": 10469,
      "正在寻找": 10470,
      "不想离开": 10471,
      "一样飞翔": 10472,
      "可以找到": 10473,
      "夏天": 10474,
      "他们带着": 10475,
      "他们都成了朋友": 10476,
      "他们分享了": 10477,
      "问莉莉": 10478,
      "他们俩一起": 10479,
      "莉莉很乐意": 10480,
      "过程": 10481,
      "我饿了": 10482,
      "所以它": 10483,
      "放进盒子里": 10484,
      "咬了": 10485,
      "很受欢迎": 10486,
      "背包": 10487,
      "一起分享": 10488,
      "一大袋": 10489,
      "手术": 10490,
      "鞠躬": 10491,
      "到外面去": 10492,
      "皱着": 10493,
      "大叶子": 10494,
      "没问题": 10495,
      "抬起头来": 10496,
      "非常特别的": 10497,
      "在一棵树后面": 10498,
      "树上有一个": 10499,
      "这不公平": 10500,
      "但前提是": 10501,
      "跳到了": 10502,
      "那片": 10503,
      "他仍然": 10504,
      "去买": 10505,
      "身材": 10506,
      "你也可以": 10507,
      "猫想": 10508,
      "跳下来": 10509,
      "洪水": 10510,
      "这样她就可以": 10511,
      "外星人": 10512,
      "一条大": 10513,
      "了一点": 10514,
      "他所": 10515,
      "王国": 10516,
      "莉莉妈妈说": 10517,
      "光泽": 10518,
      "箱子里": 10519,
      "为她感到骄傲": 10520,
      "又大又红的": 10521,
      "但接下来": 10522,
      "和幸福": 10523,
      "上床睡觉了": 10524,
      "玩耍了": 10525,
      "发现了一枚": 10526,
      "非常适合": 10527,
      "法律": 10528,
      "不是一个": 10529,
      "想和它": 10530,
      "总是记得": 10531,
      "在花园里玩耍": 10532,
      "史密斯先生": 10533,
      "这条鱼": 10534,
      "cky": 10535,
      "踏板车": 10536,
      "不确定": 10537,
      "但她知道她必须": 10538,
      "跳跃和玩耍": 10539,
      "她到处找": 10540,
      "扭转": 10541,
      "工作了": 10542,
      "我们想": 10543,
      "木板": 10544,
      "每周": 10545,
      "虫子说": 10546,
      "蒂姆知道": 10547,
      "关上门": 10548,
      "许多碎片": 10549,
      "巨大而": 10550,
      "突然听到一声巨响": 10551,
      "凯特": 10552,
      "开朗": 10553,
      "价格": 10554,
      "藏起来": 10555,
      "又伤心": 10556,
      "撒谎": 10557,
      "但他很高兴": 10558,
      "午觉": 10559,
      "发型": 10560,
      "的快乐": 10561,
      "给他妈妈看": 10562,
      "漂亮啊": 10563,
      "城镇": 10564,
      "房间的": 10565,
      "扭曲": 10566,
      "现在可以": 10567,
      "它从": 10568,
      "看到了一片": 10569,
      "他玩": 10570,
      "绕着公园": 10571,
      "很乐意提供帮助": 10572,
      "吓到了": 10573,
      "把这个": 10574,
      "的建议": 10575,
      "红苹果": 10576,
      "了一颗": 10577,
      "但她没有": 10578,
      "带扣": 10579,
      "很脆弱": 10580,
      "长得又大又壮": 10581,
      "犯了一个错误": 10582,
      "她每天都会": 10583,
      "的重要": 10584,
      "拉扯": 10585,
      "不懂": 10586,
      "帮助它": 10587,
      "琪琪": 10588,
      "名叫艾莉": 10589,
      "平静下来": 10590,
      "我们喜欢": 10591,
      "回到外面": 10592,
      "你是最棒的": 10593,
      "去上学": 10594,
      "把戏": 10595,
      "都笑了": 10596,
      "我们可以分享": 10597,
      "准备了一个惊喜": 10598,
      "是否愿意": 10599,
      "擦干净": 10600,
      "莉莉微笑道": 10601,
      "大声喊道": 10602,
      "摘下来": 10603,
      "网络": 10604,
      "重伤": 10605,
      "一座大山": 10606,
      "但最终": 10607,
      "快看": 10608,
      "生活在": 10609,
      "跟着妈妈": 10610,
      "并拥抱": 10611,
      "当她回到家时": 10612,
      "狗和猫": 10613,
      "苏想": 10614,
      "中间": 10615,
      "也很兴奋": 10616,
      "人行": 10617,
      "不要害怕": 10618,
      "严重": 10619,
      "莉莉非常": 10620,
      "是空的": 10621,
      "追赶它": 10622,
      "海鸥": 10623,
      "那朵": 10624,
      "推动": 10625,
      "艾米的妈妈": 10626,
      "他说他": 10627,
      "哈喽": 10628,
      "推车": 10629,
      "里面有一个": 10630,
      "我可以给你": 10631,
      "又旧": 10632,
      "失踪": 10633,
      "发现了很多": 10634,
      "马戏团": 10635,
      "一位好心的女士": 10636,
      "我也可以玩吗": 10637,
      "去市场": 10638,
      "里面装着": 10639,
      "蒂米开始": 10640,
      "美丽的东西": 10641,
      "的想法": 10642,
      "蜗牛": 10643,
      "并寻找": 10644,
      "和它的朋友们": 10645,
      "相视": 10646,
      "躺在床上": 10647,
      "我们都": 10648,
      "my": 10649,
      "喜欢的": 10650,
      "她只是": 10651,
      "想帮助这只鸟": 10652,
      "膝盖上": 10653,
      "一位朋友": 10654,
      "也许有一天": 10655,
      "薄荷糖": 10656,
      "太多了": 10657,
      "她喜欢每天": 10658,
      "它很漂亮": 10659,
      "一切都会": 10660,
      "这样他就可以": 10661,
      "面前说道": 10662,
      "她喜欢在厨房里帮妈妈干活": 10663,
      "整齐": 10664,
      "婴儿床": 10665,
      "抚摸它": 10666,
      "丹尼": 10667,
[...]
