{
  "version": "1.0",
  "truncation": null,
  "padding": null,
  "added_tokens": [
    {
      "id": 0,
      "content": "<|PAD|>",
      "single_word": false,
      "lstrip": false,
      "rstrip": false,
      "normalized": false,
      "special": true
    },
    {
      "id": 1,
      "content": "<|BOS|>",
      "single_word": false,
      "lstrip": false,
      "rstrip": false,
      "normalized": false,
      "special": true
    },
    {
      "id": 2,
      "content": "<|EOS|>",
      "single_word": false,
      "lstrip": false,
      "rstrip": false,
      "normalized": false,
      "special": true
    },
    {
      "id": 3,
      "content": "<|UNK|>",
      "single_word": false,
      "lstrip": false,
      "rstrip": false,
      "normalized": false,
      "special": true
    }
  ],
  "normalizer": {
    "type": "NFKC"
  },
  "pre_tokenizer": {
    "type": "Sequence",
    "pretokenizers": [
      {
        "type": "UnicodeScripts"
      },
      {
        "type": "Digits",
        "individual_digits": true
      },
      {
        "type": "Metaspace",
        "replacement": "▁",
        "prepend_scheme": "never",
        "split": true
      }
    ]
  },
  "post_processor": {
    "type": "TemplateProcessing",
    "single": [
      {
        "SpecialToken": {
          "id": "<|BOS|>",
          "type_id": 0
        }
      },
      {
        "Sequence": {
          "id": "A",
          "type_id": 0
        }
      },
      {
        "SpecialToken": {
          "id": "<|EOS|>",
          "type_id": 0
        }
      }
    ],
    "pair": [
      {
        "SpecialToken": {
          "id": "<|BOS|>",
          "type_id": 0
        }
      },
      {
        "Sequence": {
          "id": "A",
          "type_id": 0
        }
      },
      {
        "SpecialToken": {
          "id": "<|EOS|>",
          "type_id": 0
        }
      },
      {
        "SpecialToken": {
          "id": "<|BOS|>",
          "type_id": 1
        }
      },
      {
        "Sequence": {
          "id": "B",
          "type_id": 1
        }
      },
      {
        "SpecialToken": {
          "id": "<|EOS|>",
          "type_id": 1
        }
      }
    ],
    "special_tokens": {
      "<|BOS|>": {
        "id": "<|BOS|>",
        "ids": [
          1
        ],
        "tokens": [
          "<|BOS|>"
        ]
      },
      "<|EOS|>": {
        "id": "<|EOS|>",
        "ids": [
          2
        ],
        "tokens": [
          "<|EOS|>"
        ]
      }
    }
  },
  "decoder": {
    "type": "Metaspace",
    "replacement": "▁",
    "prepend_scheme": "never",
    "split": true
  },
  "model": {
    "type": "BPE",
    "dropout": null,
    "unk_token": "<|UNK|>",
    "continuing_subword_prefix": null,
    "end_of_word_suffix": null,
    "fuse_unk": false,
    "byte_fallback": false,
    "ignore_merges": false,
    "vocab": {
      "<|PAD|>": 0,
      "<|BOS|>": 1,
      "<|EOS|>": 2,
      "<|UNK|>": 3,
      "!": 4,
      "\"": 5,
      "$": 6,
      "%": 7,
      "&": 8,
      "'": 9,
      "(": 10,
      ")": 11,
      "*": 12,
      "+": 13,
      ",": 14,
      "-": 15,
      ".": 16,
      "/": 17,
      "0": 18,
      "1": 19,
      "2": 20,
      "3": 21,
      "4": 22,
      "5": 23,
      "6": 24,
      "7": 25,
      "8": 26,
      "9": 27,
      ":": 28,
      ";": 29,
      "=": 30,
      "?": 31,
      "A": 32,
      "B": 33,
      "C": 34,
      "D": 35,
      "E": 36,
      "F": 37,
      "G": 38,
      "H": 39,
      "I": 40,
      "J": 41,
      "K": 42,
      "L": 43,
      "M": 44,
      "N": 45,
      "O": 46,
      "P": 47,
      "Q": 48,
      "R": 49,
      "S": 50,
      "T": 51,
      "U": 52,
      "V": 53,
      "W": 54,
      "X": 55,
      "Y": 56,
      "Z": 57,
      "a": 58,
      "b": 59,
      "c": 60,
      "d": 61,
      "e": 62,
      "f": 63,
      "g": 64,
      "h": 65,
      "i": 66,
      "j": 67,
      "k": 68,
      "l": 69,
      "m": 70,
      "n": 71,
      "o": 72,
      "p": 73,
      "q": 74,
      "r": 75,
      "s": 76,
      "t": 77,
      "u": 78,
      "v": 79,
      "w": 80,
      "x": 81,
      "y": 82,
      "z": 83,
      "،": 84,
      "؛": 85,
      "؟": 86,
      "ء": 87,
      "آ": 88,
      "أ": 89,
      "ؤ": 90,
      "إ": 91,
      "ئ": 92,
      "ا": 93,
      "ب": 94,
      "ة": 95,
      "ت": 96,
      "ث": 97,
      "ج": 98,
      "ح": 99,
      "خ": 100,
      "د": 101,
      "ذ": 102,
      "ر": 103,
      "ز": 104,
      "س": 105,
      "ش": 106,
      "ص": 107,
      "ض": 108,
      "ط": 109,
      "ظ": 110,
      "ع": 111,
      "غ": 112,
      "ـ": 113,
      "ف": 114,
      "ق": 115,
      "ك": 116,
      "ل": 117,
      "م": 118,
      "ن": 119,
      "ه": 120,
      "و": 121,
      "ى": 122,
      "ي": 123,
      "ً": 124,
      "ٌ": 125,
      "ٍ": 126,
      "َ": 127,
      "ُ": 128,
      "ِ": 129,
      "ّ": 130,
      "ْ": 131,
      "پ": 132,
      "€": 133,
      "▁": 134,
      "ال": 135,
      "▁ال": 136,
      "▁و": 137,
      "ان": 138,
      "▁م": 139,
      "▁أ": 140,
      "كان": 141,
      "▁ل": 142,
      "▁ي": 143,
      "ها": 144,
      "▁ت": 145,
      "▁ب": 146,
      "في": 147,
      "رة": 148,
      "لى": 149,
      "▁ع": 150,
      "▁أن": 151,
      "لي": 152,
      "نا": 153,
      "▁ج": 154,
      "▁من": 155,
      "▁إ": 156,
      "ما": 157,
      "▁في": 158,
      "وا": 159,
      "▁\"": 160,
      "دي": 161,
      "كن": 162,
      "را": 163,
      "دا": 164,
      "وم": 165,
      "كانت": 166,
      "▁س": 167,
      "مي": 168,
      "▁الأ": 169,
      "ون": 170,
      "يا": 171,
      "▁الم": 172,
      "▁ك": 173,
      "ول": 174,
      "▁إلى": 175,
      "بي": 176,
      "قال": 177,
      "▁ص": 178,
      "ذا": 179,
      "لع": 180,
      "ري": 181,
      "▁ح": 182,
      "▁لي": 183,
      "لا": 184,
      "هم": 185,
      "▁وال": 186,
      "اب": 187,
      "دة": 188,
      "▁ف": 189,
      "▁ه": 190,
      "ست": 191,
      "▁على": 192,
      "رت": 193,
      "▁ق": 194,
      "ير": 195,
      "حب": 196,
      "دت": 197,
      "▁ليلي": 198,
      "لم": 199,
      "لعب": 200,
      "▁كان": 201,
      "لك": 202,
      "▁مع": 203,
      "▁ش": 204,
      "ائ": 205,
      "ار": 206,
      "▁الح": 207,
      "ين": 208,
      "▁بال": 209,
      "عي": 210,
      "▁يوم": 211,
      "ية": 212,
      "سا": 213,
      "لق": 214,
      "رأ": 215,
      "▁مرة": 216,
      "سم": 217,
      "قالت": 218,
      "▁ن": 219,
      "▁هنا": 220,
      "تا": 221,
      "▁الص": 222,
      "لكن": 223,
      "▁الك": 224,
      "يام": 225,
      "ذه": 226,
      "\".": 227,
      "▁وأ": 228,
      "اء": 229,
      "مكن": 230,
      "▁هناك": 231,
      "عر": 232,
      "ذلك": 233,
      "رج": 234,
      "ديق": 235,
      "دع": 236,
      "تح": 237,
      "▁جدا": 238,
      "رك": 239,
      "عا": 240,
      "▁الأيام": 241,
      "▁الب": 242,
      "لة": 243,
      "يرة": 244,
      "!\"": 245,
      "عد": 246,
      "أن": 247,
      "ند": 248,
      "ذات": 249,
      "▁كبي": 250,
      "لت": 251,
      "▁ما": 252,
      "▁تي": 253,
      "▁الس": 254,
      "▁الع": 255,
      "وق": 256,
      "▁الط": 257,
      "▁صغ": 258,
      "▁خ": 259,
      "ور": 260,
      "▁الق": 261,
      "عض": 262,
      "عة": 263,
      "▁الش": 264,
      "▁أم": 265,
      "▁ط": 266,
      "ذهب": 267,
      "خر": 268,
      "▁الج": 269,
      "▁الف": 270,
      "▁سعي": 271,
      "تاة": 272,
      "▁ذلك": 273,
      "عت": 274,
      "▁لل": 275,
      "يف": 276,
      "رب": 277,
      "ابت": 278,
      "بد": 279,
      "اح": 280,
      "▁الت": 281,
      "مت": 282,
      "كون": 283,
      "صد": 284,
      "است": 285,
      "▁كانت": 286,
      "مس": 287,
      "لقد": 288,
      "ندما": 289,
      "▁وت": 290,
      "عل": 291,
      "؟\"": 292,
      "▁لم": 293,
      "▁الخ": 294,
      "زل": 295,
      "▁اللعب": 296,
      "يق": 297,
      "دعى": 298,
      "كل": 299,
      "بة": 300,
      "ام": 301,
      "تها": 302,
      "▁أنه": 303,
      "سأ": 304,
      "ديقة": 305,
      "▁يمكن": 306,
      "▁آ": 307,
      "مر": 308,
      "ظر": 309,
      "▁كل": 310,
      "▁جد": 311,
      "ته": 312,
      "▁شي": 313,
      "من": 314,
      "صدق": 315,
      "▁غ": 316,
      "▁لدي": 317,
      "ني": 318,
      "▁بعض": 319,
      "فة": 320,
      "▁أي": 321,
      "▁تيمي": 322,
      "قط": 323,
      "أخ": 324,
      "ريد": 325,
      "ابتسم": 326,
      "▁توم": 327,
      "وت": 328,
      "▁الحديقة": 329,
      "إن": 330,
      "ات": 331,
      "▁وج": 332,
      "شعر": 333,
      "▁كبيرة": 334,
      "▁صغيرة": 335,
      "▁أمي": 336,
      "عم": 337,
      "بح": 338,
      "خرى": 339,
      "▁والدت": 340,
      "▁عن": 341,
      "أرا": 342,
      "رق": 343,
      "▁الصغ": 344,
      "▁وي": 345,
      "▁جمي": 346,
      "▁لا": 347,
      "▁د": 348,
      "▁يحب": 349,
      "مة": 350,
      "وي": 351,
      "بدأ": 352,
      "▁فتاة": 353,
      "كس": 354,
      "وج": 355,
      "حا": 356,
      "رأت": 357,
      "يوم": 358,
      "وب": 359,
      "ولكن": 360,
      "▁أخرى": 361,
      "ليلي": 362,
      "شا": 363,
      "ساع": 364,
      "رأى": 365,
      "لب": 366,
      "▁ر": 367,
      "ركض": 368,
      "▁المن": 369,
      "لو": 370,
      "تى": 371,
      "▁تحب": 372,
      "هل": 373,
      "▁جي": 374,
      "شك": 375,
      "▁بن": 376,
      "▁الن": 377,
      "جا": 378,
      "▁كبير": 379,
      "ذي": 380,
      "ائر": 381,
      "زي": 382,
      "▁علي": 383,
      "خت": 384,
      "با": 385,
      "▁سعيدة": 386,
      "▁وق": 387,
      "▁اليوم": 388,
      "وض": 389,
      "عان": 390,
      "تي": 391,
      "▁الغ": 392,
      "▁أصدق": 393,
      "سي": 394,
      "▁المنزل": 395,
      "جب": 396,
      "اص": 397,
      "هما": 398,
      "عرف": 399,
      "▁سا": 400,
      "سر": 401,
      "عندما": 402,
      "▁تدعى": 403,
      "ماء": 404,
      "▁ا": 405,
      "▁أيض": 406,
      "خل": 407,
      "ثير": 408,
      "▁الر": 409,
      "أنا": 410,
      "▁شيء": 411,
      "فا": 412,
      "ضح": 413,
      "فض": 414,
      "▁وقالت": 415,
      "مل": 416,
      "▁دا": 417,
      "بن": 418,
      "علم": 419,
      "▁والدتها": 420,
      "راء": 421,
      "ديد": 422,
      "▁صغير": 423,
      "رجل": 424,
      "▁الد": 425,
      "جأ": 426,
      "لعاب": 427,
      "كة": 428,
      "ثم": 429,
      "مع": 430,
      "قول": 431,
      "غا": 432,
      "▁تيم": 433,
      "شيا": 434,
      "▁صديق": 435,
      "صل": 436,
      "▁الأر": 437,
      "وه": 438,
      "▁بأ": 439,
      "عط": 440,
      "▁الآ": 441,
      "فت": 442,
      "▁متح": 443,
      "جأة": 444,
      "حاول": 445,
      "▁أنها": 446,
      "أخذ": 447,
      "▁لأن": 448,
      "شياء": 449,
      "▁عندما": 450,
      "جرة": 451,
      "شع": 452,
      "كت": 453,
      "ابتسمت": 454,
      "فز": 455,
      "جدا": 456,
      "حة": 457,
      "▁يست": 458,
      "قد": 459,
      "▁لع": 460,
      "طف": 461,
      "يمكن": 462,
      "هر": 463,
      "▁أمها": 464,
      "يرا": 465,
      "زه": 466,
      "سف": 467,
      "وان": 468,
      "▁سعيد": 469,
      "▁است": 470,
      "يقول": 471,
      "رائ": 472,
      "▁الفتاة": 473,
      "نظر": 474,
      "بر": 475,
      "طيف": 476,
      "▁الكثير": 477,
      "طة": 478,
      "داء": 479,
      "حي": 480,
      "▁وقال": 481,
      "▁الصغيرة": 482,
      "أراد": 483,
      "جر": 484,
      "ده": 485,
      "▁جا": 486,
      "أنت": 487,
      "سأل": 488,
      "ود": 489,
      "▁يت": 490,
      "متع": 491,
      "▁خائ": 492,
      "دث": 493,
      "زين": 494,
      "نظ": 495,
      "▁دائ": 496,
      "لذلك": 497,
      "شعرت": 498,
      "▁حول": 499,
      "▁تح": 500,
      "فضل": 501,
      "▁يدعى": 502,
      "▁لو": 503,
      "طي": 504,
      "ئا": 505,
      "نب": 506,
      "فعل": 507,
      "بين": 508,
      "ثر": 509,
      "ساعدة": 510,
      "اد": 511,
      "غاية": 512,
      "▁وم": 513,
      "قر": 514,
      "▁حتى": 515,
      "▁ذات": 516,
      "فس": 517,
      "▁متحمس": 518,
      "▁أخ": 519,
      "▁إلي": 520,
      "▁سي": 521,
      "ارج": 522,
      "▁تت": 523,
      "▁أك": 524,
      "بل": 525,
      "ماذا": 526,
      "هذا": 527,
      "نع": 528,
      "▁معا": 529,
      "فجأة": 530,
      "▁بعد": 531,
      "يارة": 532,
      "كي": 533,
      "▁بعي": 534,
      "ابة": 535,
      "▁للغاية": 536,
      "بت": 537,
      "سن": 538,
      "إنه": 539,
      "لكنه": 540,
      "صر": 541,
      "على": 542,
      "ريق": 543,
      "سألت": 544,
      "ذها": 545,
      "▁لطيف": 546,
      "▁يلعب": 547,
      "▁الث": 548,
      "▁أصدقائ": 549,
      "▁الطائر": 550,
      "▁سارة": 551,
      "ندوق": 552,
      "جة": 553,
      "▁بها": 554,
      "▁قد": 555,
      "▁مت": 556,
      "▁ض": 557,
      "ذهبت": 558,
      "طع": 559,
      "▁يكون": 560,
      "طب": 561,
      "ضحك": 562,
      "قي": 563,
      "▁النا": 564,
      "نة": 565,
      "رات": 566,
      "▁لت": 567,
      "▁أمه": 568,
      "ديدة": 569,
      "ولي": 570,
      "▁حزين": 571,
      "قا": 572,
      "إنها": 573,
      "كانوا": 574,
      "لكنها": 575,
      "تقول": 576,
      "شار": 577,
      "▁آنا": 578,
      "عادة": 579,
      "أرادت": 580,
      "أمي": 581,
      "توم": 582,
      "▁بي": 583,
      "▁به": 584,
      "▁وبن": 585,
      "وز": 586,
      "▁يا": 587,
      "▁تست": 588,
      "▁أح": 589,
      "▁ماكس": 590,
      "▁جاك": 591,
      "▁أيضا": 592,
      "ذهاب": 593,
      "▁تكون": 594,
      "كر": 595,
      "▁صبي": 596,
      "▁الصغير": 597,
      "▁سام": 598,
      "وال": 599,
      "هاية": 600,
      "حظ": 601,
      "▁لديه": 602,
      "▁الأرض": 603,
      "▁منزل": 604,
      "رى": 605,
      "قت": 606,
      "▁يكن": 607,
      "▁الرجل": 608,
      "ورة": 609,
      "نعم": 610,
      "ميع": 611,
      "عداء": 612,
      "▁إن": 613,
      "رح": 614,
      "▁الخارج": 615,
      "▁الأشياء": 616,
      "شي": 617,
      "صبح": 618,
      "الي": 619,
      "يوان": 620,
      "صول": 621,
      "ناء": 622,
      "داخل": 623,
      "وف": 624,
      "▁وكان": 625,
      "دها": 626,
      "ونا": 627,
      "بدأت": 628,
      "▁مكان": 629,
      "▁شيئا": 630,
      "▁غر": 631,
      "بعد": 632,
      "شة": 633,
      "وس": 634,
      "▁وس": 635,
      "▁لديها": 636,
      "▁لد": 637,
      "▁الصبي": 638,
      "▁البعض": 639,
      "▁فض": 640,
      "طا": 641,
      "▁سعداء": 642,
      "يني": 643,
      "▁كث": 644,
      "▁له": 645,
      "▁هذا": 646,
      "بحث": 647,
      "جد": 648,
      "▁الوق": 649,
      "▁إذا": 650,
      "▁دائما": 651,
      "▁التي": 652,
      "▁أكثر": 653,
      "رجة": 654,
      "▁بعيدا": 655,
      "▁جميع": 656,
      "ثل": 657,
      "وقف": 658,
      "جعل": 659,
      "▁لعبة": 660,
      "▁لها": 661,
      "▁يعرف": 662,
      "لدي": 663,
      "▁ز": 664,
      "حبا": 665,
      "كرة": 666,
      "ساعد": 667,
      "ضع": 668,
      "ساعدت": 669,
      "\"،": 670,
      "سعادة": 671,
      "▁الشمس": 672,
      "▁عال": 673,
      "▁هو": 674,
      "بال": 675,
      "▁رائ": 676,
      "بدو": 677,
      "▁بد": 678,
      "▁أفضل": 679,
      "قة": 680,
      "▁رأ": 681,
      "فع": 682,
      "رين": 683,
      "▁تريد": 684,
      "▁الوقت": 685,
      "شاه": 686,
      "▁الماء": 687,
      "خرج": 688,
      "قفز": 689,
      "ذيذ": 690,
      "مها": 691,
      "شكرا": 692,
      "صنع": 693,
      "سب": 694,
      "صا": 695,
      "عتقد": 696,
      "▁ث": 697,
      "▁الغابة": 698,
      "يت": 699,
      "رس": 700,
      "نح": 701,
      "جي": 702,
      "ئة": 703,
      "▁الإ": 704,
      "▁تلعب": 705,
      "▁الكبي": 706,
      "▁السماء": 707,
      "▁الحيوان": 708,
      "▁خاص": 709,
      "جل": 710,
      "مام": 711,
      "▁أصدقاء": 712,
      "عانق": 713,
      "أكل": 714,
      "▁الآن": 715,
      "فر": 716,
      "▁حذ": 717,
      "▁أرا": 718,
      "فتح": 719,
      "▁الشجرة": 720,
      "▁كثيرا": 721,
      "▁الل": 722,
      "ظهر": 723,
      "رته": 724,
      "▁جميلة": 725,
      "▁عليه": 726,
      "▁متحمسة": 727,
      "▁فقط": 728,
      "▁يح": 729,
      "أت": 730,
      "ولة": 731,
      "▁جون": 732,
      "▁كانوا": 733,
      "طار": 734,
      "▁الكلب": 735,
      "عام": 736,
      "▁الذهاب": 737,
      "عب": 738,
      "دوا": 739,
      "▁آسف": 740,
      "سمع": 741,
      "رية": 742,
      "▁فخ": 743,
      "سام": 744,
      "بينما": 745,
      "شاف": 746,
      "طيع": 747,
      "▁يجب": 748,
      "زن": 749,
      "دم": 750,
      "▁ميا": 751,
      "▁المت": 752,
      "▁ير": 753,
      "▁تكن": 754,
      "▁طوي": 755,
      "ثور": 756,
      "▁للعب": 757,
      "انظر": 758,
      "طلب": 759,
      "فل": 760,
      "▁عليها": 761,
      "مرحبا": 762,
      "▁شجرة": 763,
      "جاب": 764,
      "▁بأن": 765,
      "▁ولم": 766,
      "دعونا": 767,
      "▁وقت": 768,
      "▁الدب": 769,
      "انت": 770,
      "نظرت": 771,
      "▁إي": 772,
      "لذا": 773,
      "▁الض": 774,
      "▁الز": 775,
      "جاء": 776,
      "ؤية": 777,
      "▁لوسي": 778,
      "فق": 779,
      "طير": 780,
      "زال": 781,
      "▁بالح": 782,
      "▁بش": 783,
      "كشاف": 784,
      "▁وأبي": 785,
      "ودة": 786,
      "طفال": 787,
      "▁لك": 788,
      "ذك": 789,
      "▁تق": 790,
      "وأ": 791,
      "▁واح": 792,
      "صرخ": 793,
      "ركضت": 794,
      "وع": 795,
      "اض": 796,
      "رتها": 797,
      "▁أو": 798,
      "سنا": 799,
      "▁والدته": 800,
      "▁وح": 801,
      "▁بق": 802,
      "بتسم": 803,
      "▁يمكننا": 804,
      "▁الحيوانات": 805,
      "بق": 806,
      "▁نا": 807,
      "▁مش": 808,
      "▁لديهم": 809,
      "▁بإ": 810,
      "▁الجميع": 811,
      "▁والأ": 812,
      "خص": 813,
      "سرعة": 814,
      "▁جيد": 815,
      "باح": 816,
      "▁جديدة": 817,
      "▁وليلي": 818,
      "▁سو": 819,
      "الت": 820,
      "غام": 821,
      "▁تس": 822,
      "حسنا": 823,
      "شب": 824,
      "▁يمكنك": 825,
      "لد": 826,
      "راق": 827,
      "وة": 828,
      "▁يشعر": 829,
      "يس": 830,
      "يمكنك": 831,
      "▁يمكنني": 832,
      "▁قبل": 833,
      "▁الداخل": 834,
      "▁الخاص": 835,
      "عمل": 836,
      "▁صوت": 837,
      "صة": 838,
      "عيش": 839,
      "قيق": 840,
      "أعط": 841,
      "▁الكت": 842,
      "رر": 843,
      "ركة": 844,
      "وضع": 845,
      "▁أصدقائه": 846,
      "أحب": 847,
      "وح": 848,
      "▁بسرعة": 849,
      "طر": 850,
      "مه": 851,
      "أر": 852,
      "▁بين": 853,
      "صلت": 854,
      "لاق": 855,
      "▁الكرة": 856,
      "▁أحد": 857,
      "▁مثل": 858,
      "▁وكانت": 859,
      "▁ان": 860,
      "▁اسم": 861,
      "قرر": 862,
      "ربما": 863,
      "▁حزينة": 864,
      "دية": 865,
      "▁وأخ": 866,
      "قرب": 867,
      "فلة": 868,
      "▁الذي": 869,
      "لام": 870,
      "ناول": 871,
      "نت": 872,
      "وات": 873,
      "▁وصل": 874,
      "▁الأرنب": 875,
      "غب": 876,
      "▁ست": 877,
      "هذه": 878,
      "ولا": 879,
      "درك": 880,
      "بط": 881,
      "▁اله": 882,
      "▁ألعاب": 883,
      "▁ممت": 884,
      "شكر": 885,
      "▁وا": 886,
      "▁الزه": 887,
      "▁غاض": 888,
      "▁العديد": 889,
      "نحن": 890,
      "▁ليس": 891,
      "▁صندوق": 892,
      "بدا": 893,
      "▁الصندوق": 894,
      "▁واست": 895,
      "عجب": 896,
      "تاج": 897,
      "تحدث": 898,
      "لاحظ": 899,
      "▁أحب": 900,
      "مسا": 901,
      "رأوا": 902,
      "الم": 903,
      "▁سعيدا": 904,
      "يحب": 905,
      "جوز": 906,
      "وكان": 907,
      "ماكس": 908,
      "▁وه": 909,
      "زا": 910,
      "سرعان": 911,
      "▁يريد": 912,
      "لن": 913,
      "▁لأنه": 914,
      "▁لأ": 915,
      "▁إليه": 916,
      "▁ور": 917,
      "▁السيارة": 918,
      "عكة": 919,
      "▁فكرة": 920,
      "▁تحت": 921,
      "أك": 922,
      "▁بوب": 923,
      "▁أص": 924,
      "▁بالأ": 925,
      "▁الألعاب": 926,
      "▁وع": 927,
      "▁لدرجة": 928,
      "▁البح": 929,
      "دتها": 930,
      "▁لذيذ": 931,
      "▁العثور": 932,
      "▁تعرف": 933,
      "وجد": 934,
      "▁طريق": 935,
      "هت": 936,
      "لف": 937,
      "▁هذه": 938,
      "▁خائفة": 939,
      "▁شجا": 940,
      "▁تعلم": 941,
      "شارك": 942,
      "خيف": 943,
      "▁الاست": 944,
      "تحسن": 945,
      "▁رجل": 946,
      "▁تفعل": 947,
      "▁نفس": 948,
      "زيد": 949,
      "وضعت": 950,
      "وء": 951,
      "رو": 952,
      "لأن": 953,
      "▁مساعدت": 954,
      "▁الا": 955,
      "تعلم": 956,
      "▁وبدأ": 957,
      "طبخ": 958,
      "وجدت": 959,
      "ضر": 960,
      "▁الباب": 961,
      "فك": 962,
      "▁المتجر": 963,
      "احت": 964,
      "يجب": 965,
      "ارب": 966,
      "▁نظ": 967,
      "ميا": 968,
      "▁تم": 969,
      "▁هي": 970,
      "▁كيف": 971,
      "▁أبي": 972,
      "▁وب": 973,
      "مكان": 974,
      "علت": 975,
      "▁طائر": 976,
      "يل": 977,
      "▁الور": 978,
      "صدقاء": 979,
      "▁تر": 980,
      "▁بالحزن": 981,
      "▁ورأت": 982,
      "▁جديد": 983,
      "▁الأس": 984,
      "▁الناس": 985,
      "▁ون": 986,
      "ذهبوا": 987,
      "▁الشا": 988,
      "رير": 989,
      "▁طوال": 990,
      "حت": 991,
      "▁جين": 992,
      "علي": 993,
      "▁رأس": 994,
      "حتى": 995,
      "▁بعضهم": 996,
      "يد": 997,
      "وية": 998,
      "نية": 999,
      "▁الحصول": 1000,
      "مسك": 1001,
      "آن": 1002,
      "▁كلب": 1003,
      "▁بإمكان": 1004,
      "▁يستطع": 1005,
      "ختب": 1006,
      "فين": 1007,
      "▁كت": 1008,
      "▁المساعدة": 1009,
      "▁بع": 1010,
      "▁لام": 1011,
      "▁حذرا": 1012,
      "▁بألعاب": 1013,
      "▁لعب": 1014,
      "كانا": 1015,
      "لاب": 1016,
      "▁أصدقائها": 1017,
      "احنة": 1018,
      "▁النهاية": 1019,
      "▁ذ": 1020,
      "أريد": 1021,
      "عود": 1022,
      "▁شخص": 1023,
      "▁ورأى": 1024,
      "▁جو": 1025,
      "▁وأرا": 1026,
      "▁كن": 1027,
      "سقط": 1028,
      "وما": 1029,
      "▁أر": 1030,
      "قل": 1031,
      "▁آخر": 1032,
      "▁فضولي": 1033,
      "وك": 1034,
      "تهم": 1035,
      "▁الأصدقاء": 1036,
      "▁وجه": 1037,
      "▁حولها": 1038,
      "مراء": 1039,
      "▁القطة": 1040,
      "▁حا": 1041,
      "▁فضلك": 1042,
      "▁بالسعادة": 1043,
      "اني": 1044,
      "آنا": 1045,
      "ومن": 1046,
      "▁لأنها": 1047,
      "خرة": 1048,
      "▁المزيد": 1049,
      "جار": 1050,
      "ساء": 1051,
      "▁بتحسن": 1052,
      "ظا": 1053,
      "زر": 1054,
      "ثة": 1055,
      "▁لر": 1056,
      "▁قري": 1057,
      "▁تن": 1058,
      "▁مغام": 1059,
      "▁شعر": 1060,
      "▁أنهم": 1061,
      "▁تشعر": 1062,
      "▁اللعبة": 1063,
      "بع": 1064,
      "مية": 1065,
      "شف": 1066,
      "▁الطعام": 1067,
      "▁الأم": 1068,
      "▁عائ": 1069,
      "▁سيا": 1070,
      "طئ": 1071,
      "▁إليها": 1072,
      "وها": 1073,
      "▁جميل": 1074,
      "بوت": 1075,
      "▁أشياء": 1076,
      "أوم": 1077,
      "ارع": 1078,
      "تحرك": 1079,
      "▁بح": 1080,
      "سل": 1081,
      "لماذا": 1082,
      "واء": 1083,
      "سارة": 1084,
      "رفة": 1085,
      "▁الأطفال": 1086,
      "ختل": 1087,
      "▁المطبخ": 1088,
      "يم": 1089,
      "أخب": 1090,
      "خرين": 1091,
      "▁الطريق": 1092,
      "▁طويلة": 1093,
      "▁وتوم": 1094,
      "ليلا": 1095,
      "▁رأى": 1096,
      "لاهما": 1097,
      "دى": 1098,
      "▁يم": 1099,
      "يمكننا": 1100,
      "▁سيارة": 1101,
      "▁الكبيرة": 1102,
      "▁دي": 1103,
      "ومنذ": 1104,
      "▁لاح": 1105,
      "ياح": 1106,
      "رقة": 1107,
      "لاح": 1108,
      "▁قط": 1109,
      "▁بالقرب": 1110,
      "▁ين": 1111,
      "أخذت": 1112,
      "رتدي": 1113,
      "▁واحدة": 1114,
      "ظه": 1115,
      "انتظ": 1116,
      "▁غرف": 1117,
      "▁قالت": 1118,
      "توقف": 1119,
      "▁أراد": 1120,
      "شت": 1121,
      "▁لن": 1122,
      "ونة": 1123,
      "▁عمر": 1124,
      "▁غرفة": 1125,
      "انب": 1126,
      "منذ": 1127,
      "▁اللي": 1128,
      "رقص": 1129,
      "▁تج": 1130,
      "حيان": 1131,
      "بك": 1132,
      "لعبوا": 1133,
      "الآن": 1134,
      "الن": 1135,
      "▁وبدأت": 1136,
      "▁الكبير": 1137,
      "قدت": 1138,
      "▁متحمسا": 1139,
      "هز": 1140,
      "▁بص": 1141,
      "▁الأخرى": 1142,
      "▁لطيفة": 1143,
      "▁السي": 1144,
      "▁المرح": 1145,
      "طبع": 1146,
      "حاولت": 1147,
      "▁رائع": 1148,
      "▁يفعل": 1149,
      "▁العشب": 1150,
      "أصبح": 1151,
      "▁بم": 1152,
      "شرة": 1153,
      "سرع": 1154,
      "يور": 1155,
      "▁مساعدة": 1156,
      "▁الفرا": 1157,
      "دين": 1158,
      "صدقائ": 1159,
      "▁جيدة": 1160,
      "▁،": 1161,
      "▁وك": 1162,
      "▁ماذا": 1163,
      "▁الزهور": 1164,
      "فذ": 1165,
      "جم": 1166,
      "▁قاد": 1167,
      "قررت": 1168,
      "▁أنت": 1169,
      "خدم": 1170,
      "سلق": 1171,
      "لوان": 1172,
      "زرق": 1173,
      "▁صنع": 1174,
      "فترة": 1175,
      "لابس": 1176,
      "▁الو": 1177,
      "▁خاصة": 1178,
      "قب": 1179,
      "▁مست": 1180,
      "▁العجوز": 1181,
      "واو": 1182,
      "▁الأمر": 1183,
      "طائر": 1184,
      "تيم": 1185,
      "ابتسا": 1186,
      "▁لإ": 1187,
      "ومة": 1188,
      "▁بك": 1189,
      "▁قال": 1190,
      "▁ثم": 1191,
      "▁إص": 1192,
      "وكانت": 1193,
      "▁دائم": 1194,
      "▁نح": 1195,
      "بالطبع": 1196,
      "▁قليلا": 1197,
      "▁للع": 1198,
      "▁الجمي": 1199,
      "شجار": 1200,
      "▁حان": 1201,
      "▁الآخرين": 1202,
      "▁بأس": 1203,
      "▁آمن": 1204,
      "▁ود": 1205,
      "اف": 1206,
      "غلق": 1207,
      "▁بالخ": 1208,
      "▁لفترة": 1209,
      "▁يس": 1210,
      "النهاية": 1211,
      "▁مي": 1212,
      "نظيف": 1213,
      "▁ليلى": 1214,
      "وخ": 1215,
      "راج": 1216,
      "صدر": 1217,
      "▁حدث": 1218,
      "لدرجة": 1219,
      "▁مر": 1220,
      "ذر": 1221,
      "▁أخذ": 1222,
      "▁بيني": 1223,
      "▁ملي": 1224,
      "أوه": 1225,
      "▁يوما": 1226,
      "▁ها": 1227,
      "ختلفة": 1228,
      "سمعت": 1229,
      "در": 1230,
      "لكنهم": 1231,
      "▁قر": 1232,
      "▁فتح": 1233,
      "▁معه": 1234,
      "ائرة": 1235,
      "▁كرة": 1236,
      "▁وش": 1237,
      "▁كري": 1238,
      "ليس": 1239,
      "▁يلعبون": 1240,
      "أرج": 1241,
      "▁رك": 1242,
      "▁وص": 1243,
      "▁الجديدة": 1244,
      "▁دب": 1245,
      "▁تقلق": 1246,
      "▁بط": 1247,
      "▁خائف": 1248,
      "زينا": 1249,
      "▁يحبون": 1250,
      "▁الخاصة": 1251,
      "وحة": 1252,
      "▁يق": 1253,
      "عك": 1254,
      "▁سم": 1255,
      "عاد": 1256,
      "خب": 1257,
      "▁العالم": 1258,
      "▁يعيش": 1259,
      "▁فخورة": 1260,
      "▁لدى": 1261,
      "▁الطيور": 1262,
      "▁جعل": 1263,
      "▁الشاطئ": 1264,
      "فهم": 1265,
      "يرون": 1266,
      "جلس": 1267,
      "طأ": 1268,
      "▁وأن": 1269,
      "دعنا": 1270,
      "▁يذهب": 1271,
      "التقط": 1272,
      "ظاهر": 1273,
      "▁البركة": 1274,
      "له": 1275,
      "▁والده": 1276,
      "▁الحين": 1277,
      "▁عيني": 1278,
      "ابتسامة": 1279,
      "يرك": 1280,
      "▁اسمه": 1281,
      "▁الطفل": 1282,
      "أدرك": 1283,
      "بكي": 1284,
      "ذكر": 1285,
      "▁قب": 1286,
      "▁لهم": 1287,
      "▁تستطع": 1288,
      "كه": 1289,
      "فية": 1290,
      "شاهد": 1291,
      "قترب": 1292,
      "▁يستطيع": 1293,
      "زح": 1294,
      "▁التالي": 1295,
      "▁انته": 1296,
      "كتب": 1297,
      "مان": 1298,
      "خدا": 1299,
      "▁تومي": 1300,
      "▁وجدت": 1301,
      "▁يزال": 1302,
      "غض": 1303,
      "فدع": 1304,
      "▁إنها": 1305,
      "بعض": 1306,
      "أتي": 1307,
      "▁رأت": 1308,
      "سك": 1309,
      "▁بت": 1310,
      "بيب": 1311,
      "عطي": 1312,
      "ناية": 1313,
      "ناق": 1314,
      "عال": 1315,
      "▁والدها": 1316,
      "▁بشكل": 1317,
      "فاح": 1318,
      "▁سن": 1319,
      "▁القيام": 1320,
      "▁حزينا": 1321,
      "▁فعل": 1322,
      "▁بقوة": 1323,
      "▁وصلوا": 1324,
      "▁كي": 1325,
      "▁الأرج": 1326,
      "يران": 1327,
      "▁ودا": 1328,
      "▁يد": 1329,
      "▁يعد": 1330,
      "▁واللعب": 1331,
      "▁الحلو": 1332,
      "لتها": 1333,
      "▁خائفا": 1334,
      "جابت": 1335,
      "انتظار": 1336,
      "ضا": 1337,
      "▁سالي": 1338,
      "▁ليست": 1339,
      "▁القر": 1340,
      "▁بسعادة": 1341,
      "▁ممتع": 1342,
      "▁والح": 1343,
      "ماع": 1344,
      "لمس": 1345,
      "▁منه": 1346,
      "▁السيدة": 1347,
      "▁منده": 1348,
      "سفل": 1349,
      "،\"": 1350,
      "▁فت": 1351,
      "▁البق": 1352,
      "▁عا": 1353,
      "فضلة": 1354,
      "ودا": 1355,
      "▁بعناية": 1356,
      "▁الثال": 1357,
      "▁صديقه": 1358,
      "لات": 1359,
      "▁مق": 1360,
      "عتقدت": 1361,
      "اولة": 1362,
      "▁الذ": 1363,
      "أجاب": 1364,
      "▁الغرفة": 1365,
      "▁وسام": 1366,
      "▁المرة": 1367,
      "▁بخ": 1368,
      "▁لكن": 1369,
      "▁إنه": 1370,
      "▁فترة": 1371,
      "▁لرؤية": 1372,
      "لاجة": 1373,
      "اه": 1374,
      "▁البي": 1375,
      "جاءت": 1376,
      "▁الثالثة": 1377,
      "زهرة": 1378,
      "جميع": 1379,
      "▁أس": 1380,
      "صرخت": 1381,
      "▁بدأ": 1382,
      "شاركة": 1383,
      "عدا": 1384,
      "▁سح": 1385,
      "لية": 1386,
      "▁اخت": 1387,
      "▁للت": 1388,
      "شاء": 1389,
      "ولم": 1390,
      "▁وراء": 1391,
      "ضة": 1392,
      "قالوا": 1393,
      "غني": 1394,
      "تيمي": 1395,
      "سيا": 1396,
      "▁ذهب": 1397,
      "▁طويل": 1398,
      "مات": 1399,
      "▁غير": 1400,
      "فظ": 1401,
      "▁تذهب": 1402,
      "▁بيلي": 1403,
      "حاء": 1404,
      "كم": 1405,
      "يركض": 1406,
      "▁والد": 1407,
      "طلبت": 1408,
      "زان": 1409,
      "فخر": 1410,
      "أح": 1411,
      "▁أنحاء": 1412,
      "▁بل": 1413,
      "▁الانتظار": 1414,
      "ارت": 1415,
      "▁فر": 1416,
      "أرجح": 1417,
      "▁أج": 1418,
      "▁يبدو": 1419,
      "▁وأعط": 1420,
      "سبوت": 1421,
      "حظة": 1422,
      "ريب": 1423,
      "هنا": 1424,
      "▁يدي": 1425,
      "كلب": 1426,
      "▁معها": 1427,
      "يريد": 1428,
      "فرة": 1429,
      "▁منها": 1430,
      "طلاق": 1431,
      "لج": 1432,
      "لتقط": 1433,
      "▁الكعكة": 1434,
      "▁فيه": 1435,
      "لته": 1436,
      "▁المفضلة": 1437,
      "▁لذيذة": 1438,
      "▁للا": 1439,
      "▁نذهب": 1440,
      "عليك": 1441,
      "▁يرغب": 1442,
      "▁صديقتها": 1443,
      "▁المهم": 1444,
      "وراق": 1445,
      "يات": 1446,
      "▁بينما": 1447,
      "غي": 1448,
      "أجابت": 1449,
      "▁للم": 1450,
      "▁كريم": 1451,
      "▁عليك": 1452,
      "▁أرادت": 1453,
      "▁ديزي": 1454,
      "ضاء": 1455,
      "فكر": 1456,
      "▁العودة": 1457,
      "▁السيا": 1458,
      "لل": 1459,
      "▁الجديد": 1460,
      "▁جميعا": 1461,
      "يفة": 1462,
      "▁للح": 1463,
      "وضاء": 1464,
      "▁وأخذ": 1465,
      "غط": 1466,
      "▁يحبان": 1467,
      "▁تتمكن": 1468,
      "▁والم": 1469,
      "▁قفز": 1470,
      "▁سبوت": 1471,
      "▁الثلج": 1472,
      "فذة": 1473,
      "ستان": 1474,
      "▁ضجي": 1475,
      "دته": 1476,
      "▁حمراء": 1477,
      "▁الآخر": 1478,
      "▁أرنب": 1479,
      "▁ارت": 1480,
      "▁أصبح": 1481,
      "▁أعلى": 1482,
      "ظهرت": 1483,
      "▁حديقة": 1484,
      "▁نعم": 1485,
      "يقظ": 1486,
      "فاجأة": 1487,
      "سة": 1488,
      "وط": 1489,
      "علب": 1490,
      "فاظ": 1491,
      "صي": 1492,
      "▁مص": 1493,
      "▁يتمكن": 1494,
      "▁رح": 1495,
      "مال": 1496,
      "حم": 1497,
      "خروج": 1498,
      "زة": 1499,
      "▁حق": 1500,
      "كاء": 1501,
      "▁استكشاف": 1502,
      "▁مث": 1503,
      "▁مل": 1504,
      "▁تد": 1505,
      "▁البكاء": 1506,
      "ضحكوا": 1507,
      "وسيق": 1508,
      "▁قرر": 1509,
      "متعوا": 1510,
      "▁سري": 1511,
      "▁رائعة": 1512,
      "وقالت": 1513,
      "الة": 1514,
      "▁يلعبان": 1515,
      "ثا": 1516,
      "وقفت": 1517,
      "▁بالأسف": 1518,
      "ائق": 1519,
      "▁ذي": 1520,
      "يقولون": 1521,
      "▁مغامرة": 1522,
      "▁إصلاح": 1523,
      "▁شيئ": 1524,
      "شاهدة": 1525,
      "نين": 1526,
      "به": 1527,
      "وضى": 1528,
      "ضحكت": 1529,
      "بطء": 1530,
      "▁بج": 1531,
      "▁الفأر": 1532,
      "بقى": 1533,
      "راحة": 1534,
      "▁بنفس": 1535,
      "▁زهرة": 1536,
      "▁الورق": 1537,
      "انية": 1538,
      "▁الأشجار": 1539,
      "▁تخ": 1540,
      "▁الجميلة": 1541,
      "▁أولا": 1542,
      "شكرت": 1543,
      "▁خط": 1544,
      "عانقت": 1545,
      "▁إيمي": 1546,
      "▁بالس": 1547,
      "▁مولي": 1548,
      "▁أق": 1549,
      "▁الطاولة": 1550,
      "▁وأمها": 1551,
      "يء": 1552,
      "كما": 1553,
      "▁نهاية": 1554,
      "▁المز": 1555,
      "رسة": 1556,
      "يحبون": 1557,
      "▁ذهبت": 1558,
      "▁استخدا": 1559,
      "▁بصوت": 1560,
      "عات": 1561,
      "▁اللذيذ": 1562,
      "كبي": 1563,
      "▁ترى": 1564,
      "▁لطيفا": 1565,
      "باق": 1566,
      "▁الشاحنة": 1567,
      "تمن": 1568,
      "رقاء": 1569,
      "▁الهواء": 1570,
      "▁عالية": 1571,
      "بها": 1572,
      "نز": 1573,
      "▁بار": 1574,
      "إلى": 1575,
      "▁القفز": 1576,
      "▁وأراد": 1577,
      "إي": 1578,
      "▁أغ": 1579,
      "▁السح": 1580,
      "▁الأرجوحة": 1581,
      "لقة": 1582,
      "▁سر": 1583,
      "هرب": 1584,
      "▁مح": 1585,
      "▁لامعة": 1586,
      "زهة": 1587,
      "صير": 1588,
      "▁عمرها": 1589,
      "▁الكعك": 1590,
      "▁تبدو": 1591,
      "خرجت": 1592,
      "راب": 1593,
      "▁جائ": 1594,
      "رار": 1595,
      "عيد": 1596,
      "▁أين": 1597,
      "▁الإطلاق": 1598,
      "ربة": 1599,
      "نان": 1600,
      "▁يركض": 1601,
      "▁الحب": 1602,
      "▁ترغب": 1603,
      "ملة": 1604,
      "▁أكبر": 1605,
      "▁البط": 1606,
      "▁بداخل": 1607,
      "▁خل": 1608,
      "فيفة": 1609,
      "غضب": 1610,
      "▁وحي": 1611,
      "ونها": 1612,
      "▁بحا": 1613,
      "▁المق": 1614,
      "▁حوله": 1615,
      "▁وضع": 1616,
      "▁يجد": 1617,
      "▁معي": 1618,
      "▁المر": 1619,
      "جرد": 1620,
      "▁جاء": 1621,
      "وبي": 1622,
      "▁صورة": 1623,
      "▁المطر": 1624,
      "وار": 1625,
      "▁بدأت": 1626,
      "▁غاضبة": 1627,
      "▁للذهاب": 1628,
      "▁المد": 1629,
      "لوح": 1630,
      "▁سيكون": 1631,
      "قام": 1632,
      "▁الفناء": 1633,
      "▁بحاجة": 1634,
      "▁وصلت": 1635,
      "▁يطير": 1636,
      "حيانا": 1637,
      "▁الطيران": 1638,
      "▁داخل": 1639,
      "▁كنت": 1640,
      "▁كلاهما": 1641,
      "▁لاحق": 1642,
      "▁الخطأ": 1643,
      "ريحة": 1644,
      "هي": 1645,
      "▁أبدا": 1646,
      "فكرت": 1647,
      "▁رأسه": 1648,
      "▁السا": 1649,
      "أي": 1650,
      "▁وسألت": 1651,
      "وقال": 1652,
      "▁الشديد": 1653,
      "▁منزله": 1654,
      "▁عناق": 1655,
      "▁يرى": 1656,
      "▁وجد": 1657,
      "يمكنني": 1658,
      "▁وعاء": 1659,
      "▁فوق": 1660,
      "▁مختلفة": 1661,
      "▁سمع": 1662,
      "لعة": 1663,
      "▁بعضهما": 1664,
      "▁وركض": 1665,
      "بز": 1666,
      "اعتقدت": 1667,
      "▁الشيء": 1668,
      "أكد": 1669,
      "غم": 1670,
      "▁أكل": 1671,
      "▁يستمع": 1672,
      "▁بجد": 1673,
      "▁صع": 1674,
      "فتحت": 1675,
      "أرادوا": 1676,
      "ابق": 1677,
      "▁غرفتها": 1678,
      "▁وميا": 1679,
      "▁النافذة": 1680,
      "▁تص": 1681,
      "▁بيت": 1682,
      "▁ببطء": 1683,
      "▁فعلت": 1684,
      "▁تلك": 1685,
      "▁بما": 1686,
      "▁بالم": 1687,
      "▁ول": 1688,
      "ديمة": 1689,
      "رتي": 1690,
      "▁عما": 1691,
      "لمع": 1692,
      "▁ولا": 1693,
      "▁تأخذ": 1694,
      "▁القارب": 1695,
      "مرت": 1696,
      "▁واحد": 1697,
      "▁يكونوا": 1698,
      "▁والت": 1699,
      "▁قطعة": 1700,
      "ورا": 1701,
      "▁ناعم": 1702,
      "هار": 1703,
      "يبدو": 1704,
      "صان": 1705,
      "الك": 1706,
      "▁ووضع": 1707,
      "▁عاليا": 1708,
      "▁نت": 1709,
      "▁أمهم": 1710,
      "هناك": 1711,
      "▁رؤية": 1712,
      "▁المفضل": 1713,
      "طفاء": 1714,
      "أنه": 1715,
      "▁بالت": 1716,
      "▁هاد": 1717,
      "▁التل": 1718,
      "▁شع": 1719,
      "وجدوا": 1720,
      "▁لوال": 1721,
      "▁بخير": 1722,
      "نس": 1723,
      "▁(": 1724,
      "اعتقد": 1725,
      "▁قطة": 1726,
      "▁البقاء": 1727,
      "جاجة": 1728,
      "▁كعكة": 1729,
      "▁تزال": 1730,
      "▁يأكل": 1731,
      "عن": 1732,
      "▁وداعا": 1733,
      "▁شجاع": 1734,
      "▁الحلوى": 1735,
      "▁وأصدقائ": 1736,
      "مين": 1737,
      "مثل": 1738,
      "▁للق": 1739,
      "▁يجعل": 1740,
      "▁تناول": 1741,
      "▁كيفية": 1742,
      "▁طي": 1743,
      "إنهم": 1744,
      "▁كتاب": 1745,
      "ماك": 1746,
      "▁قريبا": 1747,
      "ينظر": 1748,
      "▁بأنها": 1749,
      "▁تعيش": 1750,
      "تف": 1751,
      "لاحظت": 1752,
      "ذائ": 1753,
      "عته": 1754,
      "▁طلب": 1755,
      "▁منزلها": 1756,
      "يشعر": 1757,
      "▁صا": 1758,
      "عادت": 1759,
      "ديم": 1760,
      "▁المس": 1761,
      "▁قص": 1762,
      "أمل": 1763,
      "ستمتع": 1764,
      "▁يك": 1765,
      "▁مهم": 1766,
      "ثناء": 1767,
      "▁ثلا": 1768,
      "أومأ": 1769,
      "▁الطبيب": 1770,
      "▁والس": 1771,
      "▁حيوان": 1772,
      "إذا": 1773,
      "▁عبر": 1774,
      "▁ماري": 1775,
      "▁وعانق": 1776,
      "▁لماذا": 1777,
      "▁حلو": 1778,
      "▁قوي": 1779,
      "▁الفر": 1780,
      "▁ولكن": 1781,
      "زف": 1782,
      "▁عاد": 1783,
      "ضي": 1784,
      "▁الكر": 1785,
      "▁يساعد": 1786,
      "▁إنهم": 1787,
      "▁حي": 1788,
      "وفي": 1789,
      "▁المشي": 1790,
      "▁شجاعة": 1791,
      "فتا": 1792,
      "ابن": 1793,
      "▁الركض": 1794,
      "▁ويت": 1795,
      "شيء": 1796,
      "ؤي": 1797,
      "▁تطير": 1798,
      "▁يمشي": 1799,
      "▁الأوراق": 1800,
      "▁ذرا": 1801,
      "مو": 1802,
      "▁يأخذ": 1803,
      "زانة": 1804,
      "▁نلعب": 1805,
      "▁نزهة": 1806,
      "▁الآيس": 1807,
      "▁الضفدع": 1808,
      "قيبة": 1809,
      "▁مرت": 1810,
      "▁للحظة": 1811,
      "ستطيع": 1812,
      "▁المل": 1813,
      "▁الخل": 1814,
      "▁السم": 1815,
      "▁ووضعت": 1816,
      "أخيرا": 1817,
      "▁الجد": 1818,
      "يمة": 1819,
      "▁ري": 1820,
      "▁الكتل": 1821,
      "▁التفاح": 1822,
      "ضن": 1823,
      "تعلمت": 1824,
      "▁مس": 1825,
      "رف": 1826,
      "▁البحر": 1827,
      "حاولة": 1828,
      "▁ملابس": 1829,
      "عيدة": 1830,
      "▁يع": 1831,
      "▁الرياح": 1832,
      "▁النهر": 1833,
      "▁يدها": 1834,
      "▁معك": 1835,
      "▁عصا": 1836,
      "خي": 1837,
      "أس": 1838,
      "▁الطائرة": 1839,
      "وافق": 1840,
      "▁وأمه": 1841,
      "▁فيها": 1842,
      "▁تقول": 1843,
      "عتها": 1844,
      "▁مفاجأة": 1845,
      "▁والدا": 1846,
      "▁الأخ": 1847,
      "▁فستان": 1848,
      "فراء": 1849,
      "▁الفي": 1850,
      "وسيقى": 1851,
      "زع": 1852,
      "▁رأسها": 1853,
      "▁داف": 1854,
      "▁العشاء": 1855,
      "▁لامع": 1856,
      "▁دمي": 1857,
      "خلت": 1858,
      "أومأت": 1859,
      "▁فضولية": 1860,
      "خد": 1861,
      "راجة": 1862,
      "هد": 1863,
      "▁وشعرت": 1864,
      "أخبر": 1865,
      "▁خائفين": 1866,
      "الية": 1867,
      "لأنه": 1868,
      "▁تعد": 1869,
      "▁بالخوف": 1870,
      "ختباء": 1871,
      "▁الان": 1872,
      "▁جيمي": 1873,
      "▁البال": 1874,
      "▁نكون": 1875,
      "ربت": 1876,
      "▁قارب": 1877,
      "ائلة": 1878,
      "▁الاحت": 1879,
      "▁بألعابها": 1880,
      "▁تمشي": 1881,
      "▁صديقين": 1882,
      "▁شقيق": 1883,
      "فتاة": 1884,
      "▁تأكل": 1885,
      "لنذهب": 1886,
      "▁تجعل": 1887,
      "▁أعرف": 1888,
      "▁الصخرة": 1889,
      "بات": 1890,
      "▁عليهم": 1891,
      "▁بلطف": 1892,
      "▁الفراشة": 1893,
      "▁المكان": 1894,
      "▁عم": 1895,
      "▁الخروج": 1896,
      "▁بعيد": 1897,
      "▁سأ": 1898,
      "زهور": 1899,
      "▁لكون": 1900,
      "▁وشكر": 1901,
      "رتقال": 1902,
      "▁نفسه": 1903,
      "ؤذي": 1904,
      "▁حاول": 1905,
      "هو": 1906,
      "▁يقول": 1907,
      "▁الأسد": 1908,
      "مون": 1909,
      "▁القصة": 1910,
      "صاص": 1911,
      "▁الأبد": 1912,
      "▁ألا": 1913,
      "▁أعط": 1914,
      "▁أسفل": 1915,
      "▁والع": 1916,
      "▁وأرادت": 1917,
      "▁ترتدي": 1918,
      "متعة": 1919,
      "عيشة": 1920,
      "▁المعيشة": 1921,
      "▁لتناول": 1922,
      "نتظر": 1923,
      "وعة": 1924,
      "▁الظ": 1925,
      "طلق": 1926,
      "▁تنظيف": 1927,
      "▁وسأل": 1928,
      "▁قض": 1929,
      "▁يمكنه": 1930,
      "▁السن": 1931,
      "خور": 1932,
      "▁سرير": 1933,
      "يرى": 1934,
      "▁الرسم": 1935,
      "▁تستطيع": 1936,
      "نظروا": 1937,
      "▁قوس": 1938,
      "▁الكتب": 1939,
      "▁يده": 1940,
      "نسبة": 1941,
      "▁الزهرة": 1942,
      "عرض": 1943,
      "▁صباح": 1944,
      "▁أحمر": 1945,
      "كبيرا": 1946,
      "▁رق": 1947,
      "▁ابتسامة": 1948,
      "مش": 1949,
      "▁العمل": 1950,
      "▁فخور": 1951,
      "اس": 1952,
      "لديهم": 1953,
      "▁الألوان": 1954,
      "حيوان": 1955,
      "▁تش": 1956,
      "▁الوصول": 1957,
      "▁الأح": 1958,
      "خيفة": 1959,
      "ذكرت": 1960,
      "▁لمساعدت": 1961,
      "▁تسلق": 1962,
      "بو": 1963,
      "صن": 1964,
      "▁ولد": 1965,
      "▁باللعب": 1966,
      "▁قررت": 1967,
      "اها": 1968,
      "▁الخلفي": 1969,
      "▁المح": 1970,
      "▁در": 1971,
      "▁إليهم": 1972,
      "▁النار": 1973,
      "بقي": 1974,
      "▁والدي": 1975,
      "▁المست": 1976,
      "▁وشعر": 1977,
      "▁الخبز": 1978,
      "▁أريد": 1979,
      "لمة": 1980,
      "▁مليئة": 1981,
      "▁توأ": 1982,
      "▁ممي": 1983,
      "▁غاضب": 1984,
      "جول": 1985,
      "▁ورق": 1986,
      "دح": 1987,
      "باحة": 1988,
      "ضراء": 1989,
      "▁القاد": 1990,
      "▁وسرعان": 1991,
      "قطت": 1992,
      "بوب": 1993,
      "واصل": 1994,
      "▁النوم": 1995,
      "كشف": 1996,
      "▁ضجيجا": 1997,
      "▁جيل": 1998,
      "▁المزارع": 1999,
      "▁ممتعا": 2000,
      "▁وابتسم": 2001,
      "▁بذلك": 2002,
      "▁إيما": 2003,
      "لقي": 2004,
      "وني": 2005,
      "▁وقتا": 2006,
      "▁الثعلب": 2007,
      "▁فرا": 2008,
      "▁خلال": 2009,
      "▁ذا": 2010,
      "وص": 2011,
      "عه": 2012,
      "▁وأبيها": 2013,
      "▁وتح": 2014,
      "ذرة": 2015,
      "▁للحصول": 2016,
      "▁تع": 2017,
      "نظف": 2018,
      "لين": 2019,
      "▁استخدام": 2020,
      "▁صخرة": 2021,
      "▁شاحنة": 2022,
      "ضحكة": 2023,
      "انتظر": 2024,
      "فتاح": 2025,
      "▁الكتاب": 2026,
      "▁المدرسة": 2027,
      "جين": 2028,
      "ركضوا": 2029,
      "رأس": 2030,
      "انق": 2031,
      "▁القادمة": 2032,
      "عدت": 2033,
      "صق": 2034,
      "▁بر": 2035,
      "لاء": 2036,
      "▁السرير": 2037,
      "عرفة": 2038,
      "▁حذرة": 2039,
      "▁ينظر": 2040,
      "▁القط": 2041,
      "▁أش": 2042,
      "لس": 2043,
      "ترى": 2044,
      "▁البحيرة": 2045,
      "▁يج": 2046,
      "▁سيء": 2047,
      "▁بإمكانه": 2048,
      "هب": 2049,
      "ضحكون": 2050,
      "جوم": 2051,
      "عها": 2052,
      "▁الصوت": 2053,
      "لديه": 2054,
      "▁الرائ": 2055,
      "▁الأص": 2056,
      "▁قوية": 2057,
      "قاط": 2058,
      "▁حزينين": 2059,
      "▁وركضت": 2060,
      "▁وجعل": 2061,
      "▁الجرو": 2062,
      "▁والص": 2063,
      "▁لش": 2064,
      "ونه": 2065,
      "▁ممتعة": 2066,
      "رائح": 2067,
      "أو": 2068,
      "▁بشدة": 2069,
      "▁بعمل": 2070,
      "يك": 2071,
      "دف": 2072,
      "زرعة": 2073,
      "▁المال": 2074,
      "صف": 2075,
      "▁السباحة": 2076,
      "▁وماكس": 2077,
      "▁الرغم": 2078,
      "▁معهم": 2079,
      "يعتقد": 2080,
      "▁الأمي": 2081,
      "▁أنك": 2082,
      "واج": 2083,
      "▁فصا": 2084,
      "زيز": 2085,
      "▁مخ": 2086,
      "▁يعجب": 2087,
      "▁مدى": 2088,
      "▁دراج": 2089,
      "ريح": 2090,
      "▁الاحتفاظ": 2091,
      "رتك": 2092,
      "خول": 2093,
      "سالة": 2094,
      ").": 2095,
      "▁وأك": 2096,
      "▁بالع": 2097,
      "▁ركوب": 2098,
      "ريبا": 2099,
      "سحب": 2100,
      "ليب": 2101,
      "▁سيارته": 2102,
      "▁غريب": 2103,
      "▁بالر": 2104,
      "▁عجوز": 2105,
      "▁وذهبت": 2106,
      "▁دمية": 2107,
      "▁وأح": 2108,
      "▁مظ": 2109,
      "▁وبعض": 2110,
      "▁سنوات": 2111,
      "إيمي": 2112,
      "▁يستمتع": 2113,
      "▁فجأة": 2114,
      "▁ثلاث": 2115,
      "▁وابتسمت": 2116,
      "▁نحو": 2117,
      "▁السنجاب": 2118,
      "▁أسرع": 2119,
      "▁يرا": 2120,
      "زيزتي": 2121,
      "▁فتى": 2122,
      "▁تبكي": 2123,
      "شكال": 2124,
      "▁بركة": 2125,
      "ارك": 2126,
      "راقب": 2127,
      "▁طعام": 2128,
      "شر": 2129,
      "▁وحاول": 2130,
      "جاعة": 2131,
      "▁وذهب": 2132,
      "▁عينيها": 2133,
      "▁فصاعدا": 2134,
      "قاب": 2135,
      "راءة": 2136,
      "نام": 2137,
      "▁يحتاج": 2138,
      "▁حقا": 2139,
      "▁يقفز": 2140,
      "▁تصنع": 2141,
      "خبر": 2142,
      "▁الأزرق": 2143,
      "▁العائلة": 2144,
      "▁الحمراء": 2145,
      "وهو": 2146,
      "طارت": 2147,
      "سنان": 2148,
      "تك": 2149,
      "▁السياج": 2150,
      "▁النح": 2151,
      "▁بالفخر": 2152,
      "▁المي": 2153,
      "▁قطع": 2154,
      "▁العمر": 2155,
      "▁تساعد": 2156,
      "▁مض": 2157,
      "▁لكنه": 2158,
      "▁ذك": 2159,
      "متعا": 2160,
      "▁كانا": 2161,
      "يح": 2162,
      "حيوانات": 2163,
      "مامة": 2164,
      "▁نحب": 2165,
      "▁صب": 2166,
      "▁وجهها": 2167,
      "▁ميلا": 2168,
      "▁عمل": 2169,
      "▁الشارع": 2170,
      "قرروا": 2171,
      "حيح": 2172,
      "▁طفلة": 2173,
      "▁وخ": 2174,
      "▁ثقي": 2175,
      "▁كم": 2176,
      "▁يسير": 2177,
      "▁السمكة": 2178,
      "هتمام": 2179,
      "▁مضحك": 2180,
      "▁الحفرة": 2181,
      "▁الاستكشاف": 2182,
      "دحرج": 2183,
      "▁رج": 2184,
      "دار": 2185,
      "▁نفسها": 2186,
      "▁تستمع": 2187,
      "ربط": 2188,
      "▁عمره": 2189,
      "▁خلف": 2190,
      "▁جيدين": 2191,
      "▁الفرح": 2192,
      "▁نظرة": 2193,
      "▁بإمكانها": 2194,
      "كبوت": 2195,
      "▁العم": 2196,
      "طيرة": 2197,
      "▁باب": 2198,
      "أخبرت": 2199,
      "ارس": 2200,
      "فى": 2201,
      "▁قزح": 2202,
      "زلق": 2203,
      "▁نج": 2204,
      "▁وف": 2205,
      "▁القب": 2206,
      "لديها": 2207,
      "كلاهما": 2208,
      "▁زرقاء": 2209,
      "▁عظ": 2210,
      "▁طار": 2211,
      "ريكة": 2212,
      "▁علا": 2213,
      "▁عينيه": 2214,
      "▁تسير": 2215,
      "▁مقعد": 2216,
      "▁حديق": 2217,
      "▁آمنة": 2218,
      "▁تنظر": 2219,
      "ميل": 2220,
      "هيا": 2221,
      "أمسك": 2222,
      "تسلق": 2223,
      "▁وجبة": 2224,
      "ررت": 2225,
      "هتم": 2226,
      "▁سيئة": 2227,
      "تم": 2228,
      "عاش": 2229,
      "دخل": 2230,
      "لكة": 2231,
      "▁قام": 2232,
      "▁حيث": 2233,
      "استكشاف": 2234,
      "▁إح": 2235,
      "ساعدك": 2236,
      "▁الأغ": 2237,
      "ضمام": 2238,
      "وحش": 2239,
      "كسورة": 2240,
      "▁أطفال": 2241,
      "▁ولعبوا": 2242,
      "▁سامي": 2243,
      "▁الرمال": 2244,
      "ريك": 2245,
      "▁والق": 2246,
      "▁بجانب": 2247,
      "▁ضخ": 2248,
      "سلم": 2249,
      "▁لاحظ": 2250,
      "مسكت": 2251,
      "▁علم": 2252,
      "▁يبتسم": 2253,
      "معا": 2254,
      "▁عائلة": 2255,
      "غير": 2256,
      "▁الحظ": 2257,
      "▁يمكنها": 2258,
      "▁أستطيع": 2259,
      "▁يبحث": 2260,
      "▁توأم": 2261,
      "▁للعثور": 2262,
      "سقطت": 2263,
      "جاك": 2264,
      "از": 2265,
      "▁يحدث": 2266,
      "ثنان": 2267,
      "▁وض": 2268,
      "▁تمكن": 2269,
      "▁بالسوء": 2270,
      "كنت": 2271,
      "كانتا": 2272,
      "▁لمس": 2273,
      "بته": 2274,
      "▁وقرر": 2275,
      "▁الأسماك": 2276,
      "▁للأ": 2277,
      "شمس": 2278,
      "▁الحشرة": 2279,
      "▁شعرت": 2280,
      "▁الشع": 2281,
      "▁رحلة": 2282,
      "دائ": 2283,
      "احة": 2284,
      "▁الحا": 2285,
      "سمح": 2286,
      "▁يديها": 2287,
      "وث": 2288,
      "▁الكن": 2289,
      "صفق": 2290,
      "▁ابن": 2291,
      "▁جيني": 2292,
      "▁غرفته": 2293,
      "▁لئ": 2294,
      "يار": 2295,
      "وى": 2296,
      "▁والخ": 2297,
      "▁وقالوا": 2298,
      "▁أوم": 2299,
      "▁أخيرا": 2300,
      "▁بكل": 2301,
      "كرا": 2302,
      "▁لجعل": 2303,
      "رأيا": 2304,
      "لعقة": 2305,
      "وعندما": 2306,
      "▁وأصبح": 2307,
      "ريبة": 2308,
      "▁بدلا": 2309,
      "▁مشاهدة": 2310,
      "▁بأنهم": 2311,
      "▁البطة": 2312,
      "▁متحمسين": 2313,
      "▁ضوضاء": 2314,
      "تحب": 2315,
      "▁الموسيقى": 2316,
      "▁لليلي": 2317,
      "طم": 2318,
      "▁وهي": 2319,
      "مار": 2320,
      "▁مجرد": 2321,
      "▁يعود": 2322,
      "▁يحمل": 2323,
      "▁الطفلة": 2324,
      "أخبرتها": 2325,
      "▁وشك": 2326,
      "▁قبعة": 2327,
      "كسر": 2328,
      "▁وجهه": 2329,
      "▁مشغ": 2330,
      "▁الاختباء": 2331,
      "ونات": 2332,
      "▁هدية": 2333,
      "▁الأريكة": 2334,
      "▁ألعابها": 2335,
      "لأنها": 2336,
      "▁بالك": 2337,
      "▁ترك": 2338,
      "ساءل": 2339,
      "راخ": 2340,
      "▁يرتدي": 2341,
      "متا": 2342,
      "▁مشاركة": 2343,
      "▁جميلا": 2344,
      "▁العصا": 2345,
      "▁الفراش": 2346,
      "امت": 2347,
      "▁متعة": 2348,
      "▁المث": 2349,
      "طيور": 2350,
      "▁ذيله": 2351,
      "▁الجدة": 2352,
      "أدركت": 2353,
      "ويت": 2354,
      "▁الأعلى": 2355,
      "▁كذلك": 2356,
      "▁بشيء": 2357,
      "▁صو": 2358,
      "▁الجزر": 2359,
      "▁نسي": 2360,
      "أين": 2361,
      "أعجب": 2362,
      "▁أخب": 2363,
      "▁الظلام": 2364,
      "بية": 2365,
      "▁بأمان": 2366,
      "▁خفيفة": 2367,
      "▁والدتهم": 2368,
      "غر": 2369,
      "تسأل": 2370,
      "▁يحاول": 2371,
      "▁وإ": 2372,
      "فاز": 2373,
      "مرح": 2374,
      "▁ويق": 2375,
      "▁بهم": 2376,
      "▁بناء": 2377,
      "▁الطين": 2378,
      "▁الأفضل": 2379,
      "رأة": 2380,
      "▁كومة": 2381,
      "▁مساعدتك": 2382,
      "أنها": 2383,
      "▁الصور": 2384,
      "ؤلم": 2385,
      "▁الدمية": 2386,
      "▁بداخله": 2387,
      "▁بالق": 2388,
      "▁لأصدقائ": 2389,
      "صص": 2390,
      "استمر": 2391,
      "▁قريب": 2392,
      "▁جعلت": 2393,
      "▁منهم": 2394,
      "درة": 2395,
      "▁جمع": 2396,
      "▁تتحرك": 2397,
      "جموعة": 2398,
      "▁آسفون": 2399,
      "▁لز": 2400,
      "ضرب": 2401,
      "صديق": 2402,
      "▁والدة": 2403,
      "▁أغنية": 2404,
      "▁ليلة": 2405,
      "خلوق": 2406,
      "وجئ": 2407,
      "ريط": 2408,
      "▁القمة": 2409,
      "وظ": 2410,
      "ياس": 2411,
      "شعروا": 2412,
      "▁الجانب": 2413,
      "▁القطار": 2414,
      "▁بس": 2415,
      "جاد": 2416,
      "بتها": 2417,
      "تعال": 2418,
      "قفزت": 2419,
      "دتي": 2420,
      "شكلة": 2421,
      "متعت": 2422,
      "▁الأب": 2423,
      "▁اللذيذة": 2424,
      "مى": 2425,
      "توقفت": 2426,
      "سيارات": 2427,
      "فص": 2428,
      "▁مساعدته": 2429,
      "أظهر": 2430,
      "ظهار": 2431,
      "▁را": 2432,
      "يذهب": 2433,
      "▁مساعدتي": 2434,
      "متاع": 2435,
      "كيف": 2436,
      "▁سمكة": 2437,
      "▁يريدون": 2438,
      "دينة": 2439,
      "بم": 2440,
      "▁سلة": 2441,
      "عتني": 2442,
      "▁اللطيف": 2443,
      "▁لبعض": 2444,
      "▁درسا": 2445,
      "اندي": 2446,
      "يريدون": 2447,
      "▁تستمتع": 2448,
      "جاه": 2449,
      "▁الرقص": 2450,
      "هف": 2451,
      "▁وسا": 2452,
      "▁الضوضاء": 2453,
      "تت": 2454,
      "ماس": 2455,
      "▁ركض": 2456,
      "▁المع": 2457,
      "▁صن": 2458,
      "▁مج": 2459,
      "أصبحت": 2460,
      "فقط": 2461,
      "▁الفوضى": 2462,
      "▁اللا": 2463,
      "▁قلعة": 2464,
      "▁برأس": 2465,
      "يسأل": 2466,
      "اك": 2467,
      "عتذر": 2468,
      "▁يصنع": 2469,
      "غة": 2470,
      "▁للن": 2471,
      "▁بالنسبة": 2472,
      "غادر": 2473,
      "وقد": 2474,
      "جري": 2475,
      "▁للعودة": 2476,
      "▁حقيق": 2477,
      "▁فخورا": 2478,
      "▁تحمل": 2479,
      "▁وقب": 2480,
      "▁مز": 2481,
      "▁بألعابه": 2482,
      "ماما": 2483,
      "أعطت": 2484,
      "▁جائع": 2485,
      "▁كس": 2486,
      "▁ذكي": 2487,
      "ميزا": 2488,
      "▁لنفس": 2489,
      "شرات": 2490,
      "▁برج": 2491,
      "▁جز": 2492,
      "بار": 2493,
      "▁لمعرفة": 2494,
      "▁كما": 2495,
      "▁كثير": 2496,
      "▁البريد": 2497,
      "واف": 2498,
      "بكة": 2499,
      "▁تلمس": 2500,
      "فقد": 2501,
      "▁بنفسه": 2502,
      "ناس": 2503,
      "▁مندهشة": 2504,
      "▁عر": 2505,
      "▁الذين": 2506,
      "▁دون": 2507,
      "▁قيل": 2508,
      "لها": 2509,
      "أخرج": 2510,
      "زم": 2511,
      "▁نظر": 2512,
      "نه": 2513,
      "الكلب": 2514,
      "▁كر": 2515,
      "حدث": 2516,
      "▁فراشة": 2517,
      "▁رسم": 2518,
      "ماش": 2519,
      "▁ويمكن": 2520,
      "▁وتقول": 2521,
      "عبان": 2522,
      "▁لديك": 2523,
      "▁المختلفة": 2524,
      "حيط": 2525,
      "▁التوت": 2526,
      "سيكون": 2527,
      "رسم": 2528,
      "أم": 2529,
      "▁بعضها": 2530,
      "▁ناعمة": 2531,
      "ماكن": 2532,
      "دخلت": 2533,
      "▁تحتاج": 2534,
      "▁جدتها": 2535,
      "▁أمسك": 2536,
      "▁الوحش": 2537,
      "▁تقلقي": 2538,
      "▁مخيف": 2539,
      "▁شراء": 2540,
      "قبل": 2541,
      "▁السل": 2542,
      "▁مشرقة": 2543,
      "ناسب": 2544,
      "▁الغداء": 2545,
      "وارب": 2546,
      "▁التنين": 2547,
      "▁طريقة": 2548,
      "وصل": 2549,
      "▁أثناء": 2550,
      "▁والف": 2551,
      "خاص": 2552,
      "▁ونظر": 2553,
      "بحثت": 2554,
      "قطع": 2555,
      "▁اكت": 2556,
      "▁غاضبا": 2557,
      "▁التحدث": 2558,
      "▁عش": 2559,
      "انظروا": 2560,
      "لعبون": 2561,
      "▁الجوار": 2562,
      "▁السيارات": 2563,
      "▁العا": 2564,
      "نى": 2565,
      "▁حقيبة": 2566,
      "▁ووجدت": 2567,
      "▁ظهر": 2568,
      "▁يكفي": 2569,
      "▁حذرين": 2570,
      "▁انتهت": 2571,
      "▁قادم": 2572,
      "▁عانق": 2573,
      "▁المرآ": 2574,
      "▁الحساء": 2575,
      "▁قلق": 2576,
      "ديدا": 2577,
      "▁سحب": 2578,
      "▁الحمام": 2579,
      "▁قلب": 2580,
      "سنوات": 2581,
      "طعم": 2582,
      "▁لعبوا": 2583,
      "تات": 2584,
      "▁مرحبا": 2585,
      "▁ألعابهم": 2586,
      "ويا": 2587,
      "▁الليل": 2588,
      "▁لشراء": 2589,
      "مميزا": 2590,
      "تبتسم": 2591,
      "▁جيم": 2592,
      "يركضون": 2593,
      "رارة": 2594,
      "▁يتحرك": 2595,
      "▁لح": 2596,
      "▁خرج": 2597,
      "▁الأك": 2598,
      "▁وقررت": 2599,
      "▁دميتها": 2600,
      "▁الرصاص": 2601,
      "▁ونظرت": 2602,
      "▁انتهى": 2603,
      "▁الأحمر": 2604,
      "ثارة": 2605,
      "▁ويقول": 2606,
      "أظهرت": 2607,
      "أحبك": 2608,
      "▁طفل": 2609,
      "▁يسمع": 2610,
      "▁نف": 2611,
      "▁خارج": 2612,
      "داية": 2613,
      "حان": 2614,
      "▁الخي": 2615,
      "▁مضحكة": 2616,
      "▁متجر": 2617,
      "رخ": 2618,
      "▁اسمها": 2619,
      "أخبرته": 2620,
      "▁استمر": 2621,
      "▁سيدة": 2622,
      "ضغط": 2623,
      "▁وتت": 2624,
      "▁عائلتها": 2625,
      "رتهم": 2626,
      "▁البحث": 2627,
      "صعد": 2628,
      "وهج": 2629,
      "ذاء": 2630,
      "▁لأمها": 2631,
      "▁يتمكنوا": 2632,
      "وعد": 2633,
      "ذوق": 2634,
      "شاجر": 2635,
      "داف": 2636,
      "آسف": 2637,
      "اوية": 2638,
      "▁وكأنه": 2639,
      "▁يتحدث": 2640,
      "▁أقرب": 2641,
      "اليوم": 2642,
      "صاب": 2643,
      "بيع": 2644,
      "عادوا": 2645,
      "▁حذائ": 2646,
      "▁والزهور": 2647,
      "▁وسو": 2648,
      "▁والن": 2649,
      "ختار": 2650,
      "▁غرفت": 2651,
      "▁ولعب": 2652,
      "▁الملابس": 2653,
      "▁الجميل": 2654,
      "يحبان": 2655,
      "▁والش": 2656,
      "هرج": 2657,
      "▁الحبل": 2658,
      "▁أكون": 2659,
      "▁البطا": 2660,
      "▁للمساعدة": 2661,
      "▁الخزانة": 2662,
      "▁والب": 2663,
      "▁الحقل": 2664,
      "الس": 2665,
      "ئر": 2666,
      "▁وأصدقائه": 2667,
      "▁فوضى": 2668,
      "▁ورأوا": 2669,
      "ويتي": 2670,
      "▁تجرب": 2671,
      "▁العن": 2672,
      "عاليا": 2673,
      "▁ابتسم": 2674,
      "ليلى": 2675,
      "صرف": 2676,
      "شاهدت": 2677,
      "▁التوقف": 2678,
      "▁أحيانا": 2679,
      "▁لست": 2680,
      "▁يخرج": 2681,
      "▁تشارك": 2682,
      "▁رجلا": 2683,
      "▁بارد": 2684,
      "▁مندهش": 2685,
      "▁قديمة": 2686,
      "▁بف": 2687,
      "▁فعله": 2688,
      "▁سمعت": 2689,
      "ظن": 2690,
      "رحت": 2691,
      "يبتسم": 2692,
      "دهش": 2693,
      "▁الأحيان": 2694,
      "▁أنف": 2695,
      "▁القديمة": 2696,
      "▁وأخب": 2697,
      "لوس": 2698,
      "▁طائرة": 2699,
      "▁بابتسامة": 2700,
      "▁الغناء": 2701,
      "كهة": 2702,
      "▁ذكية": 2703,
      "▁وهرب": 2704,
      "▁يأتي": 2705,
      "▁أزرق": 2706,
      "جاج": 2707,
      "جلة": 2708,
      "▁يعني": 2709,
      "▁حيا": 2710,
      "▁سريع": 2711,
      "صلح": 2712,
      "▁لأنك": 2713,
      "وش": 2714,
      "▁أخذت": 2715,
      "▁عيد": 2716,
      "حمام": 2717,
      "تر": 2718,
      "قطة": 2719,
      "بحر": 2720,
      "خا": 2721,
      "▁بني": 2722,
      "▁أحبك": 2723,
      "▁مفت": 2724,
      "▁صور": 2725,
      "▁أجل": 2726,
      "قبض": 2727,
      "أبي": 2728,
      "▁بالكرة": 2729,
      "▁إحدى": 2730,
      "▁أع": 2731,
      "▁الملونة": 2732,
      "معت": 2733,
      "اع": 2734,
      "▁الثلاجة": 2735,
      "خنة": 2736,
      "▁لصنع": 2737,
      "يادة": 2738,
      "واع": 2739,
      "قات": 2740,
      "▁كيس": 2741,
      "كلما": 2742,
      "دعني": 2743,
      "طان": 2744,
      "▁متعب": 2745,
      "▁حري": 2746,
      "▁وذهبوا": 2747,
      "حك": 2748,
      "▁ببعض": 2749,
      "▁الجو": 2750,
      "وشعرت": 2751,
      "▁والك": 2752,
      "جيل": 2753,
      "▁ألعابه": 2754,
      "▁الليلة": 2755,
      "▁متع": 2756,
      "▁مال": 2757,
      "متعان": 2758,
      "▁مالك": 2759,
      "▁سحرية": 2760,
      "نزه": 2761,
      "▁أدرك": 2762,
      "اروخ": 2763,
      "▁تفهم": 2764,
      "اقترب": 2765,
      "▁عمي": 2766,
      "▁الفرن": 2767,
      "▁الجري": 2768,
      "لبة": 2769,
      "سى": 2770,
      "▁البداية": 2771,
      "▁مجموعة": 2772,
      "▁لنا": 2773,
      "كذا": 2774,
      "تال": 2775,
      "▁وغ": 2776,
      "ختبئ": 2777,
      "▁الدخول": 2778,
      "فوجئ": 2779,
      "▁الجنية": 2780,
      "زعج": 2781,
      "دفع": 2782,
      "عزيزتي": 2783,
      "حظوظ": 2784,
      "▁كا": 2785,
      "▁قصة": 2786,
      "▁حصلت": 2787,
      "▁سرعان": 2788,
      "ضعة": 2789,
      "ضرت": 2790,
      "▁نظيفة": 2791,
      "تحمس": 2792,
      "▁احت": 2793,
      "▁علينا": 2794,
      "رائعا": 2795,
      "بكاء": 2796,
      "▁المزرعة": 2797,
      "▁القرد": 2798,
      "▁قديم": 2799,
      "▁شا": 2800,
      "▁ورقة": 2801,
      "▁الاثنان": 2802,
      "لاك": 2803,
      "▁عي": 2804,
      "▁تك": 2805,
      "▁ات": 2806,
      "ويل": 2807,
      "▁للبحث": 2808,
      "شون": 2809,
      "ديهم": 2810,
      "جح": 2811,
      "أغلق": 2812,
      "برد": 2813,
      "▁الشريحة": 2814,
      "▁أنواع": 2815,
      "▁اختفى": 2816,
      "▁الجبن": 2817,
      "▁سوزي": 2818,
      "▁الدراجة": 2819,
      "▁أرج": 2820,
      "ميها": 2821,
      "دوء": 2822,
      "غز": 2823,
      "▁عائلته": 2824,
      "قق": 2825,
      "ناوب": 2826,
      "شفى": 2827,
      "▁الممتع": 2828,
      "أمسكت": 2829,
      "وسرعان": 2830,
      "▁تجد": 2831,
      "هة": 2832,
      "▁المحيط": 2833,
      "▁الفور": 2834,
      "▁وحاولت": 2835,
      "كيم": 2836,
      "ؤيتها": 2837,
      "▁قادمة": 2838,
      "منا": 2839,
      "▁النظر": 2840,
      "▁الصباح": 2841,
      "نتمي": 2842,
      "▁اختفت": 2843,
      "وثوق": 2844,
      "▁عادت": 2845,
      "▁جرو": 2846,
      "ممتعا": 2847,
      "▁لمساعدة": 2848,
      "خلط": 2849,
      "خبز": 2850,
      "علك": 2851,
      "واكه": 2852,
      "▁قيلولة": 2853,
      "▁وهو": 2854,
      "▁النجوم": 2855,
      "▁أصوا": 2856,
      "واني": 2857,
      "▁للاهتمام": 2858,
      "▁صفراء": 2859,
      "▁المغام": 2860,
      "▁صديقة": 2861,
      "وكي": 2862,
      "▁بضع": 2863,
      "تشعر": 2864,
      "▁درس": 2865,
      "عينا": 2866,
      "▁المرج": 2867,
      "ليل": 2868,
      "▁صديقي": 2869,
      "▁وأخذت": 2870,
      "▁يرت": 2871,
      "الأ": 2872,
      "قص": 2873,
      "تمكن": 2874,
      "▁يمسك": 2875,
      "▁الوا": 2876,
      "▁اقترب": 2877,
      "▁وجاء": 2878,
      "▁توقف": 2879,
      "▁هادئ": 2880,
      "▁المك": 2881,
      "▁الصخور": 2882,
      "▁بأي": 2883,
      "▁عنه": 2884,
      "▁ووجد": 2885,
      "▁الأميرة": 2886,
      "ذب": 2887,
      "وبوت": 2888,
      "▁لاستكشاف": 2889,
      "▁الخفيفة": 2890,
      "وبدأ": 2891,
      "أعد": 2892,
      "▁يعمل": 2893,
      "▁المفتاح": 2894,
      "▁هز": 2895,
      "▁بألعابهم": 2896,
      "▁إيميلي": 2897,
      "خدمت": 2898,
      "ؤيته": 2899,
      "▁وأكل": 2900,
      "▁أفعل": 2901,
      "ميص": 2902,
      "▁فا": 2903,
      "نات": 2904,
      "▁قلقة": 2905,
      "بلغ": 2906,
      "لفزي": 2907,
      "ختلف": 2908,
      "▁الفا": 2909,
      "▁الانضمام": 2910,
      "ورين": 2911,
      "ودع": 2912,
      "▁أيام": 2913,
      "▁والسعادة": 2914,
      "▁وير": 2915,
      "▁الفتى": 2916,
      "▁ركضت": 2917,
      "كسور": 2918,
      "▁أشعة": 2919,
      "▁جيك": 2920,
      "▁أصواتا": 2921,
      "دد": 2922,
      "▁الرف": 2923,
      "▁صاد": 2924,
      "▁الورقة": 2925,
      "▁المشاركة": 2926,
      "▁جاءت": 2927,
      "▁المدينة": 2928,
      "الح": 2929,
      "لوفي": 2930,
      "وهي": 2931,
      "فاج": 2932,
      "▁مشمس": 2933,
      "قيقة": 2934,
      "▁واستمتعوا": 2935,
      "▁لكونها": 2936,
      "▁حار": 2937,
      "▁رأوا": 2938,
      "▁ضجيج": 2939,
      "▁العصير": 2940,
      "حصل": 2941,
      "▁حل": 2942,
      "▁مشكلة": 2943,
      "▁يروا": 2944,
      "▁يصدق": 2945,
      "▁جوني": 2946,
      "زحف": 2947,
      "▁تحاول": 2948,
      "وعاء": 2949,
      "▁الزلاجة": 2950,
      "▁الشعور": 2951,
      "▁لس": 2952,
      "▁الها": 2953,
      "▁والز": 2954,
      "الب": 2955,
      "ائط": 2956,
      "▁ألعب": 2957,
      "▁با": 2958,
      "▁كوب": 2959,
      "▁تعجب": 2960,
      "ضعها": 2961,
      "▁للجميع": 2962,
      "▁لكنها": 2963,
      "نون": 2964,
      "صباح": 2965,
      "لكنني": 2966,
      "▁والداها": 2967,
      "آخر": 2968,
      "لر": 2969,
      "▁الداف": 2970,
      "▁الاستحمام": 2971,
      "شرب": 2972,
      "▁الرائعة": 2973,
      "▁الجيد": 2974,
      "▁أخضر": 2975,
      "ضروات": 2976,
      "▁واستمر": 2977,
      "أعتقد": 2978,
      "▁للاست": 2979,
      "▁متأك": 2980,
      "▁الزرقاء": 2981,
      "▁يديه": 2982,
      "يقة": 2983,
      "▁أمام": 2984,
      "ابع": 2985,
      "أعطتها": 2986,
      "لقى": 2987,
      "▁حفلة": 2988,
      "▁بالماء": 2989,
      "▁بالغ": 2990,
      "▁نوم": 2991,
      "واست": 2992,
      "▁أمر": 2993,
      "▁نفعل": 2994,
      "▁يرام": 2995,
      "▁للخ": 2996,
      "▁التأرجح": 2997,
      "لفزيون": 2998,
      "▁وردي": 2999,
      "يأخذ": 3000,
      "ذن": 3001,
      "▁خضراء": 3002,
      "▁الفيل": 3003,
      "ميلة": 3004,
      "علينا": 3005,
      "▁كثيرة": 3006,
      "منى": 3007,
      "▁نائ": 3008,
      "▁الكرسي": 3009,
      "وافقت": 3010,
      "▁وحيد": 3011,
      "▁غدا": 3012,
      "موع": 3013,
      "▁تبحث": 3014,
      "مم": 3015,
      "▁ميلاد": 3016,
      "أكي": 3017,
      "أكيد": 3018,
      "تومي": 3019,
      "التقطت": 3020,
      "▁بالبكاء": 3021,
      "ينظرون": 3022,
      "جو": 3023,
      "ضم": 3024,
      "▁وجي": 3025,
      "▁للنوم": 3026,
      "▁للتنزه": 3027,
      "طعام": 3028,
      "▁سمي": 3029,
      "▁حفرة": 3030,
      "▁القتال": 3031,
      "▁مري": 3032,
      "▁واستكشاف": 3033,
      "▁تتعلم": 3034,
      "▁المعلم": 3035,
      "▁قمة": 3036,
      "▁ألي": 3037,
      "▁تغ": 3038,
      "▁مميز": 3039,
      "▁السباق": 3040,
      "▁ضوء": 3041,
      "جمع": 3042,
      "ذى": 3043,
      "▁البرتقال": 3044,
      "وتر": 3045,
      "▁الجرة": 3046,
      "▁الصديق": 3047,
      "▁شديد": 3048,
      "▁صغيرا": 3049,
      "▁بالخجل": 3050,
      "▁المقعد": 3051,
      "▁ومت": 3052,
      "▁محظوظ": 3053,
      "مياه": 3054,
      "▁برا": 3055,
      "تهما": 3056,
      "فتة": 3057,
      "حص": 3058,
      "▁التقط": 3059,
      "▁ساعد": 3060,
      "استخدم": 3061,
      "▁بالف": 3062,
      "▁بأنه": 3063,
      "يجد": 3064,
      "▁وسحب": 3065,
      "▁وأدرك": 3066,
      "▁السر": 3067,
      "▁تعلموا": 3068,
      "لقت": 3069,
      "▁الممتعة": 3070,
      "تذكرت": 3071,
      "▁أسنان": 3072,
      "▁مليء": 3073,
      "غادرة": 3074,
      "حيث": 3075,
      "▁الشر": 3076,
      "▁يفهم": 3077,
      "▁معطف": 3078,
      "▁الدي": 3079,
      "انها": 3080,
      "ختبار": 3081,
      "▁تغني": 3082,
      "امض": 3083,
      "▁الكل": 3084,
      "▁دافئ": 3085,
      "وحدة": 3086,
      "شير": 3087,
      "▁كرسي": 3088,
      "▁رش": 3089,
      "زينة": 3090,
      "▁يسب": 3091,
      "كب": 3092,
      "▁يحت": 3093,
      "ئب": 3094,
      "غاض": 3095,
      "قائق": 3096,
      "▁المسا": 3097,
      "▁وأصدقائها": 3098,
      "▁تأتي": 3099,
      "▁وفتح": 3100,
      "لوسي": 3101,
      "ذنب": 3102,
      "▁بوبي": 3103,
      "دغ": 3104,
      "▁العنكبوت": 3105,
      "▁مهمة": 3106,
      "مساعدة": 3107,
      "ظل": 3108,
      "▁الكلمات": 3109,
      "استيقظ": 3110,
      "▁عدم": 3111,
      "▁القلعة": 3112,
      "▁أميرة": 3113,
      "▁لئيم": 3114,
      "نزير": 3115,
      "▁ترت": 3116,
      "▁تيدي": 3117,
      "▁الريا": 3118,
      "▁أصبحت": 3119,
      "▁وآنا": 3120,
      "▁تويتي": 3121,
      "▁مساعدتها": 3122,
      "▁تعلمت": 3123,
      "عداد": 3124,
      "▁ذهبوا": 3125,
      "▁نظيف": 3126,
      "▁السق": 3127,
      "أحيانا": 3128,
      "وضعوا": 3129,
      "▁يعرفون": 3130,
      "دور": 3131,
      "▁فأر": 3132,
      "جيج": 3133,
      "▁أعجب": 3134,
      "▁السلة": 3135,
      "▁المستشفى": 3136,
      "▁أصوات": 3137,
      "ضت": 3138,
      "أيها": 3139,
      "▁القصص": 3140,
      "وبدأت": 3141,
      "▁محب": 3142,
      "تمنى": 3143,
      "▁الملك": 3144,
      "احتضن": 3145,
      "▁شج": 3146,
      "مساح": 3147,
      "▁الورقية": 3148,
      "▁يلعبوا": 3149,
      "▁ودود": 3150,
      "▁وأخبر": 3151,
      "▁يمكنهم": 3152,
      "▁نظرت": 3153,
      "▁الضوء": 3154,
      "تعلموا": 3155,
      "مما": 3156,
      "▁الحليب": 3157,
      "▁وعد": 3158,
      "▁بطا": 3159,
      "▁فناء": 3160,
      "خبار": 3161,
      "ابل": 3162,
      "▁نق": 3163,
      "▁الشوك": 3164,
      "بب": 3165,
      "▁عند": 3166,
      "ائع": 3167,
      "ديل": 3168,
      "▁ورقية": 3169,
      "فينة": 3170,
      "بوطا": 3171,
      "▁خطة": 3172,
      "▁بيتر": 3173,
      "▁يعتقد": 3174,
      "تين": 3175,
      "علمت": 3176,
      "بقاء": 3177,
      "أعطى": 3178,
      "عرفت": 3179,
      "▁التح": 3180,
      "▁يتوقف": 3181,
      "▁ضفدع": 3182,
      "▁بدا": 3183,
      "▁طيبة": 3184,
      "سمعوا": 3185,
      "تع": 3186,
      "▁وجين": 3187,
      "واصلت": 3188,
      "سوف": 3189,
      "نف": 3190,
      "مرة": 3191,
      "▁شجاعا": 3192,
      "▁خطير": 3193,
      "▁الهرب": 3194,
      "ستخدم": 3195,
      "قذ": 3196,
      "▁قفزت": 3197,
      "▁زي": 3198,
      "قى": 3199,
      "دعينا": 3200,
      "وابة": 3201,
      "ياة": 3202,
      "▁والحيوانات": 3203,
      "▁لبعضهم": 3204,
      "▁ألوان": 3205,
      "▁بسيا": 3206,
      "▁تجربة": 3207,
      "▁نوع": 3208,
      "ناص": 3209,
      "▁مفي": 3210,
      "▁تفاح": 3211,
      "وصلت": 3212,
      "▁الحائط": 3213,
      "سكويت": 3214,
      "ليك": 3215,
      "▁فمه": 3216,
      "▁دقائق": 3217,
      "باتات": 3218,
      "صار": 3219,
      "▁يخ": 3220,
      "▁وجوه": 3221,
      "▁يظهر": 3222,
      "▁تعود": 3223,
      "▁بمفر": 3224,
      "▁القطع": 3225,
      "▁انتهوا": 3226,
      "بكت": 3227,
      "▁أليس": 3228,
      "كتشف": 3229,
      "متها": 3230,
      "▁استمتعوا": 3231,
      "▁بداخلها": 3232,
      "▁منت": 3233,
      "▁بإمكانهم": 3234,
      "▁ملك": 3235,
      "بالت": 3236,
      "سرح": 3237,
      "ملأ": 3238,
      "▁طعم": 3239,
      "▁الضجيج": 3240,
      "▁لوالدتها": 3241,
      "فعة": 3242,
      "ضية": 3243,
      "▁حقل": 3244,
      "▁تبتسم": 3245,
      "▁وبدأوا": 3246,
      "▁حلم": 3247,
      "ركب": 3248,
      "تريد": 3249,
      "▁لطفاء": 3250,
      "▁ووال": 3251,
      "▁بأك": 3252,
      "▁صعودا": 3253,
      "▁والر": 3254,
      "▁البومة": 3255,
      "▁ووضعتها": 3256,
      "عيدا": 3257,
      "▁البالون": 3258,
      "▁السيد": 3259,
      "لادة": 3260,
      "طاف": 3261,
      "▁الحفلة": 3262,
      "▁وأعلى": 3263,
      "ضوا": 3264,
      "▁القرن": 3265,
      "▁وسقط": 3266,
      "صلاح": 3267,
      "▁والقفز": 3268,
      "▁وكانوا": 3269,
      "لعق": 3270,
      "▁وأكثر": 3271,
      "▁حديقتها": 3272,
      "▁شعرها": 3273,
      "▁علامة": 3274,
      "للغاية": 3275,
      "دب": 3276,
      "▁ميت": 3277,
      "▁أبيض": 3278,
      "يقولان": 3279,
      "▁العظ": 3280,
      "▁طول": 3281,
      "فعت": 3282,
      "▁دلو": 3283,
      "ديو": 3284,
      "▁بالش": 3285,
      "▁حشرة": 3286,
      "يب": 3287,
      "▁وجميلة": 3288,
      "▁بات": 3289,
      "مادة": 3290,
      "جادة": 3291,
      "▁الشاي": 3292,
      "سأساعدك": 3293,
      "▁يجلس": 3294,
      "▁أمس": 3295,
      "يحاول": 3296,
      "▁رائحة": 3297,
      "مث": 3298,
      "انتظرت": 3299,
      "شاهدان": 3300,
      "▁العسل": 3301,
      "▁الإطفاء": 3302,
      "▁تدور": 3303,
      "باد": 3304,
      "▁وعائ": 3305,
      "▁ليزا": 3306,
      "▁بفخر": 3307,
      "▁بنفسها": 3308,
      "▁سحري": 3309,
      "▁لصديق": 3310,
      "▁وتلعب": 3311,
      "▁مختلف": 3312,
      "ولات": 3313,
      "▁قذرة": 3314,
      "▁المتعة": 3315,
      "ياد": 3316,
      "شم": 3317,
      "▁ذراعي": 3318,
      "▁التفاحة": 3319,
      "وهم": 3320,
      "▁مما": 3321,
      "▁بعيدة": 3322,
      "باب": 3323,
      "▁بأسرع": 3324,
      "عدة": 3325,
      "كيمة": 3326,
      "▁صنعت": 3327,
      "▁فضوليا": 3328,
      "لديك": 3329,
      "▁هرب": 3330,
      "ملها": 3331,
      "خبة": 3332,
      "سو": 3333,
      "▁زجاجة": 3334,
      "ناع": 3335,
      "أنتم": 3336,
      "▁والطيور": 3337,
      "▁مذه": 3338,
      "▁رائح": 3339,
      "ميه": 3340,
      "▁ترسم": 3341,
      "▁الشخص": 3342,
      "▁تكوني": 3343,
      "إلا": 3344,
      "▁يعرفوا": 3345,
      "▁حقي": 3346,
      "▁شاح": 3347,
      "▁قريبة": 3348,
      "▁كسر": 3349,
      "▁أب": 3350,
      "▁تخرج": 3351,
      "▁وط": 3352,
      "▁العلم": 3353,
      "▁يمشون": 3354,
      "▁الخطب": 3355,
      "أيضا": 3356,
      "▁سخيف": 3357,
      "ياء": 3358,
      "▁ارتداء": 3359,
      "▁الصورة": 3360,
      "▁الصف": 3361,
      "▁شقي": 3362,
      "كنا": 3363,
      "▁يشارك": 3364,
      "▁غابة": 3365,
      "أعطته": 3366,
      "▁يأمل": 3367,
      "ثلج": 3368,
      "▁والج": 3369,
      "▁الجلي": 3370,
      "▁عط": 3371,
      "▁وسقطت": 3372,
      "▁ثوب": 3373,
      "اصط": 3374,
      "▁أط": 3375,
      "ستمع": 3376,
      "طبة": 3377,
      "آه": 3378,
      "وازن": 3379,
      "▁الخشب": 3380,
      "▁الناعم": 3381,
      "▁السير": 3382,
      "▁الجلوس": 3383,
      "▁تبقى": 3384,
      "▁وارت": 3385,
      "ذية": 3386,
      "طاء": 3387,
      "▁مكسورة": 3388,
      "قالا": 3389,
      "▁فرع": 3390,
      "▁تذك": 3391,
      "▁ووضعها": 3392,
      "▁التلفزيون": 3393,
      "▁عنها": 3394,
      "▁علمت": 3395,
      "▁وضحكوا": 3396,
      "لامعة": 3397,
      "أثناء": 3398,
      "دون": 3399,
      "▁المرأة": 3400,
      "▁شكرا": 3401,
      "▁للخارج": 3402,
      "بنفس": 3403,
      "▁المج": 3404,
      "▁حاولت": 3405,
      "▁عيون": 3406,
      "لتهم": 3407,
      "▁ملونة": 3408,
      "▁أمهاتهم": 3409,
      "▁وأبيه": 3410,
      "▁الوعاء": 3411,
      "ديها": 3412,
      "▁كلبا": 3413,
      "▁اللون": 3414,
      "▁الاستماع": 3415,
      "▁رما": 3416,
      "▁السلم": 3417,
      "مز": 3418,
      "▁خطأ": 3419,
      "بدأوا": 3420,
      "▁البر": 3421,
      "▁وخرج": 3422,
      "صفة": 3423,
      "▁النحلة": 3424,
      "▁ستكون": 3425,
      "▁سريعة": 3426,
      "▁التحرك": 3427,
      "الرجل": 3428,
      "زز": 3429,
      "▁يشعرون": 3430,
      "▁وشكرت": 3431,
      "▁الزي": 3432,
      "أردت": 3433,
      "▁وعانقت": 3434,
      "يضع": 3435,
      "▁سيارات": 3436,
      "▁الجز": 3437,
      "سون": 3438,
      "▁المياه": 3439,
      "▁ابتسمت": 3440,
      "▁وأظهر": 3441,
      "▁فقد": 3442,
      "أنتما": 3443,
      "▁خزانة": 3444,
      "جعلها": 3445,
      "▁لزيارة": 3446,
      "▁للقيام": 3447,
      "▁لدينا": 3448,
      "▁تف": 3449,
      "ضحكان": 3450,
      "خيل": 3451,
      "▁قراءة": 3452,
      "عانقون": 3453,
      "أكله": 3454,
      "▁بالمل": 3455,
      "سبب": 3456,
      "▁الفواكه": 3457,
      "▁الأمور": 3458,
      "الش": 3459,
      "▁تا": 3460,
      "▁منزلهم": 3461,
      "▁جيدا": 3462,
      "جارة": 3463,
      "▁الوج": 3464,
      "▁يسبق": 3465,
      "▁السائق": 3466,
      "▁الطريقة": 3467,
      "▁طريقه": 3468,
      "▁التقاط": 3469,
      "جديدا": 3470,
      "▁تؤذي": 3471,
      "▁أسد": 3472,
      "قدم": 3473,
      "▁آمنا": 3474,
      "تهي": 3475,
      "ارد": 3476,
      "▁ولو": 3477,
      "▁أنني": 3478,
      "▁الرحب": 3479,
      "▁موثوق": 3480,
      "جلست": 3481,
      "▁المهرج": 3482,
      "▁حولهم": 3483,
      "جون": 3484,
      "▁طبق": 3485,
      "▁ساطع": 3486,
      "▁المخلوق": 3487,
      "▁وصرخ": 3488,
      "▁هادئة": 3489,
      "عش": 3490,
      "▁جدتي": 3491,
      "كتل": 3492,
      "▁وان": 3493,
      "▁وأغلق": 3494,
      "▁أصفر": 3495,
      "▁يصرخ": 3496,
      "▁جعلها": 3497,
      "▁فار": 3498,
      "▁النمر": 3499,
      "أخذه": 3500,
      "اهية": 3501,
      "▁لإظهار": 3502,
      "▁متعبة": 3503,
      "▁السحب": 3504,
      "▁جاهز": 3505,
      "ذرا": 3506,
      "فكير": 3507,
      "▁مندهشا": 3508,
      "▁تسقط": 3509,
      "سعيدة": 3510,
      "▁الصحيح": 3511,
      "▁قلم": 3512,
      "▁استيقظ": 3513,
      "وري": 3514,
      "مح": 3515,
      "شتري": 3516,
      "▁أسود": 3517,
      "▁ينب": 3518,
      "قاعات": 3519,
      "▁فخورين": 3520,
      "▁فريد": 3521,
      "▁أجمل": 3522,
      "▁ينتظر": 3523,
      "▁عنا": 3524,
      "▁نهر": 3525,
      "▁بالط": 3526,
      "▁ابنتها": 3527,
      "▁الحشرات": 3528,
      "▁مبا": 3529,
      "جمة": 3530,
      "جز": 3531,
      "▁بقي": 3532,
      "▁أومأ": 3533,
      "فتقد": 3534,
      "▁القمر": 3535,
      "مسح": 3536,
      "▁يلمس": 3537,
      "وليا": 3538,
      "▁ملعقة": 3539,
      "أخذها": 3540,
      "▁محاولة": 3541,
      "▁التراب": 3542,
      "▁القبض": 3543,
      "▁تسبح": 3544,
      "▁يستمتعون": 3545,
      "▁مثير": 3546,
      "▁الموقد": 3547,
      "ميت": 3548,
      "▁دافئة": 3549,
      "▁الكيس": 3550,
      "جف": 3551,
      "▁بالكثير": 3552,
      "▁سريرها": 3553,
      "▁الوردي": 3554,
      "▁تلتقط": 3555,
      "▁اللامعة": 3556,
      "بكى": 3557,
      "▁سنجاب": 3558,
      "▁حظ": 3559,
      "▁مك": 3560,
      "▁سخيفة": 3561,
      "سبح": 3562,
      "▁رائعا": 3563,
      "▁مه": 3564,
      "▁عاص": 3565,
      "▁عادي": 3566,
      "لافي": 3567,
      "▁للطائر": 3568,
      "▁القديم": 3569,
      "سابق": 3570,
      "خذ": 3571,
      "▁الصعب": 3572,
      "▁تمطر": 3573,
      "▁أمسكت": 3574,
      "بدع": 3575,
      "▁العد": 3576,
      "▁التظاهر": 3577,
      "قاذ": 3578,
      "▁الحافلة": 3579,
      "ذور": 3580,
      "▁عرف": 3581,
      "▁العر": 3582,
      "▁وجيزة": 3583,
      "أعلم": 3584,
      "▁بعدم": 3585,
      "▁أنهما": 3586,
      "▁دع": 3587,
      "وكب": 3588,
      "▁تنمو": 3589,
      "طفل": 3590,
      "▁مارك": 3591,
      "▁كيتي": 3592,
      "▁ساق": 3593,
      "▁دفع": 3594,
      "▁الكنز": 3595,
      "▁الهاتف": 3596,
      "▁أجنح": 3597,
      "▁مد": 3598,
      "الطائر": 3599,
      "▁يضع": 3600,
      "بالتأكيد": 3601,
      "▁طائ": 3602,
      "▁حلوة": 3603,
      "وداعا": 3604,
      "▁بالإ": 3605,
      "▁خي": 3606,
      "▁بالص": 3607,
      "قامت": 3608,
      "▁الأسفل": 3609,
      "▁إصبع": 3610,
      "▁برتقال": 3611,
      "▁الليمون": 3612,
      "▁ثقيلة": 3613,
      "▁المتح": 3614,
      "يع": 3615,
      "▁جيبه": 3616,
      "بيض": 3617,
      "▁بالارت": 3618,
      "▁تضع": 3619,
      "▁يملك": 3620,
      "تزا": 3621,
      "▁دوا": 3622,
      "ديه": 3623,
      "شفة": 3624,
      "مله": 3625,
      "▁وتبتسم": 3626,
      "مهما": 3627,
      "▁المسرح": 3628,
      "بحثوا": 3629,
      "▁حادة": 3630,
      "▁الأول": 3631,
      "▁وحيدا": 3632,
      "شارت": 3633,
      "▁حصان": 3634,
      "▁دراجته": 3635,
      "▁أنا": 3636,
      "▁لب": 3637,
      "▁تظهر": 3638,
      "▁منز": 3639,
      "شفت": 3640,
      "▁تعمل": 3641,
      "▁جوي": 3642,
      "▁بكثير": 3643,
      "وجة": 3644,
      "▁فات": 3645,
      "▁والديه": 3646,
      "بنى": 3647,
      "صغ": 3648,
      "▁ونا": 3649,
      "▁بالون": 3650,
      "▁دراجة": 3651,
      "▁المغ": 3652,
      "صفر": 3653,
      "▁ذاهب": 3654,
      "▁كثب": 3655,
      "▁يبكي": 3656,
      "▁أماكن": 3657,
      "حر": 3658,
      "واح": 3659,
      "▁عاصفة": 3660,
      "▁ثقب": 3661,
      "ومي": 3662,
      "▁كلما": 3663,
      "▁وقوي": 3664,
      "فن": 3665,
      "▁خج": 3666,
      "▁جيبها": 3667,
      "▁وردية": 3668,
      "▁صحيح": 3669,
      "▁عناقا": 3670,
      "▁تسأل": 3671,
      "قية": 3672,
      "▁الكهف": 3673,
      "▁قضمة": 3674,
      "ترك": 3675,
      "▁ولطيف": 3676,
      "بدة": 3677,
      "▁الأش": 3678,
      "▁كبيرا": 3679,
      "ثق": 3680,
      "▁بالملل": 3681,
      "▁وأمسك": 3682,
      "▁طارت": 3683,
      "▁معنا": 3684,
      "▁الليالي": 3685,
      "تمنيت": 3686,
      "▁مالكه": 3687,
      "▁يز": 3688,
      "▁بطانية": 3689,
      "▁صرخ": 3690,
      "▁آن": 3691,
      "▁الزر": 3692,
      "تحت": 3693,
      "يمكنها": 3694,
      "▁بومة": 3695,
      "▁وقفز": 3696,
      "▁الي": 3697,
      "▁ودع": 3698,
      "▁نريد": 3699,
      "دس": 3700,
      "▁أول": 3701,
      "لاقة": 3702,
      "بمجرد": 3703,
      "▁مصن": 3704,
      "▁نفسا": 3705,
      "▁قمت": 3706,
      "▁وطلب": 3707,
      "▁منك": 3708,
      "▁الحقيبة": 3709,
      "▁العاصفة": 3710,
      "▁ضمادة": 3711,
      "▁ممتنة": 3712,
      "▁رسالة": 3713,
      "تأخذ": 3714,
      "أكثر": 3715,
      "▁فقدت": 3716,
      "أخذوا": 3717,
      "وهرة": 3718,
      "▁غرفتهم": 3719,
      "▁ذو": 3720,
      "▁تمام": 3721,
      "خلص": 3722,
      "تذكر": 3723,
      "▁فلوفي": 3724,
      "امضة": 3725,
      "بدت": 3726,
      "▁الأخضر": 3727,
      "يذهبون": 3728,
      "▁وبي": 3729,
      "▁قميص": 3730,
      "وضحت": 3731,
      "اول": 3732,
      "▁الأوان": 3733,
      "▁بيضاء": 3734,
      "ئلة": 3735,
      "▁المصباح": 3736,
      "▁لنفسه": 3737,
      "▁بالج": 3738,
      "راض": 3739,
      "▁حيوانات": 3740,
      "دير": 3741,
      "▁جاه": 3742,
      "يصرخ": 3743,
      "▁يستخدم": 3744,
      "▁للص": 3745,
      "الذي": 3746,
      "ساءلت": 3747,
      "▁يصدر": 3748,
      "ناديق": 3749,
      "▁الأمواج": 3750,
      "▁والغ": 3751,
      "▁تنظف": 3752,
      "▁الرس": 3753,
      "▁استعادة": 3754,
      "▁لاحظت": 3755,
      "حفا": 3756,
      "لأ": 3757,
      "واب": 3758,
      "▁سيف": 3759,
      "ربع": 3760,
      "▁تنتظر": 3761,
      "▁ينبغي": 3762,
      "▁ماندي": 3763,
      "فيق": 3764,
      "▁الجدار": 3765,
      "فها": 3766,
      "يبحث": 3767,
      "▁ويح": 3768,
      "▁تعتقد": 3769,
      "▁الارت": 3770,
      "▁يهتم": 3771,
      "خن": 3772,
      "▁الضحك": 3773,
      "▁بطريق": 3774,
      "▁الكم": 3775,
      "▁قويا": 3776,
      "▁القرية": 3777,
      "لون": 3778,
      "▁سوداء": 3779,
      "وشعر": 3780,
      "▁النارية": 3781,
      "تبع": 3782,
      "▁استطا": 3783,
      "▁والسعة": 3784,
      "يلعبون": 3785,
      "▁مغامرات": 3786,
      "▁منزع": 3787,
      "▁تضحك": 3788,
      "▁كلمات": 3789,
      "▁الطبي": 3790,
      "▁لأنني": 3791,
      "راتها": 3792,
      "▁القدم": 3793,
      "يسمع": 3794,
      "▁شر": 3795,
      "قاموا": 3796,
      "▁مشرق": 3797,
      "▁بهدوء": 3798,
      "▁الموز": 3799,
      "دق": 3800,
      "▁انه": 3801,
      "▁الفوز": 3802,
      "▁واس": 3803,
      "▁لمساعدته": 3804,
      "كتبة": 3805,
      "▁النحل": 3806,
      "▁إعط": 3807,
      "▁يلمع": 3808,
      "▁متوا": 3809,
      "طارد": 3810,
      "▁الشريط": 3811,
      "فخ": 3812,
      "▁وضعت": 3813,
      "ائب": 3814,
      "غسل": 3815,
      "اذهب": 3816,
      "▁البرج": 3817,
      "▁مستعد": 3818,
      "▁ثعلب": 3819,
      "لرؤية": 3820,
      "▁معرفة": 3821,
      "حفاة": 3822,
      "▁فوض": 3823,
      "بعت": 3824,
      "▁وأب": 3825,
      "▁مكتب": 3826,
      "قع": 3827,
      "▁أرى": 3828,
      "▁عصير": 3829,
      "▁للك": 3830,
      "قررا": 3831,
      "تبدو": 3832,
      "تعتقد": 3833,
      "▁وتناول": 3834,
      "▁يقود": 3835,
      "سأكون": 3836,
      "ويمكن": 3837,
      "▁تستخدم": 3838,
      "▁لمساعدتها": 3839,
      "▁طف": 3840,
      "▁يرون": 3841,
      "وعدت": 3842,
      "▁ممتن": 3843,
      "▁ضخمة": 3844,
      "رأتا": 3845,
      "خان": 3846,
      "▁ميلي": 3847,
      "ويلة": 3848,
      "▁وجعلت": 3849,
      "▁الصح": 3850,
      "▁بضعة": 3851,
      "▁المكسورة": 3852,
      "ضى": 3853,
      "قدر": 3854,
      "▁باردا": 3855,
      "ابتعد": 3856,
      "▁ورؤية": 3857,
      "ففك": 3858,
      "▁وجدوا": 3859,
      "▁صعبا": 3860,
      "أذى": 3861,
      "▁إخ": 3862,
      "نزل": 3863,
      "▁والاست": 3864,
      "▁البقرة": 3865,
      "وذ": 3866,
      "انا": 3867,
      "▁بحث": 3868,
      "▁تصبح": 3869,
      "▁الذئب": 3870,
      "لقاء": 3871,
      "فعلين": 3872,
      "صنعوا": 3873,
      "▁تمكنت": 3874,
      "▁فتحت": 3875,
      "▁لتح": 3876,
      "▁مثالي": 3877,
      "▁خا": 3878,
      "▁ضحك": 3879,
      "▁يتعلم": 3880,
      "لاة": 3881,
      "▁السوق": 3882,
      "▁لأصدقائه": 3883,
      "▁لذلك": 3884,
      "▁يؤلم": 3885,
      "▁تقفز": 3886,
      "▁صوفي": 3887,
      "طال": 3888,
      "طوم": 3889,
      "▁أبد": 3890,
      "سباحة": 3891,
      "طري": 3892,
      "وأراد": 3893,
      "▁رفع": 3894,
      "بداخل": 3895,
      "التي": 3896,
      "▁زر": 3897,
      "أة": 3898,
      "▁مليئا": 3899,
      "صنة": 3900,
      "صغيرا": 3901,
      "▁جال": 3902,
      "▁الكري": 3903,
      "▁العجين": 3904,
      "▁البل": 3905,
      "هزت": 3906,
      "▁لق": 3907,
      "▁جزء": 3908,
      "▁البوابة": 3909,
      "▁بالفعل": 3910,
      "▁مريح": 3911,
      "فوا": 3912,
      "▁المحاولة": 3913,
      "▁تحصل": 3914,
      "▁الحصان": 3915,
      "ثرت": 3916,
      "▁جولة": 3917,
      "ارى": 3918,
      "مير": 3919,
      "▁وفي": 3920,
      "▁السحرية": 3921,
      "▁ويقفز": 3922,
      "▁تذكر": 3923,
      "▁تلمع": 3924,
      "▁إيلي": 3925,
      "نفس": 3926,
      "▁وحش": 3927,
      "يها": 3928,
      "▁الثعبان": 3929,
      "▁وجدتها": 3930,
      "▁وسعيدة": 3931,
      "▁ومل": 3932,
      "▁العربة": 3933,
      "▁تدع": 3934,
      "▁مكانا": 3935,
      "▁تذكرت": 3936,
      "▁نصنع": 3937,
      "تذك": 3938,
      "تحقق": 3939,
      "فاجأ": 3940,
      "▁بالألعاب": 3941,
      "ريطة": 3942,
      "▁منتصف": 3943,
      "ميلا": 3944,
      "دغال": 3945,
      "تعانق": 3946,
      "▁يوجد": 3947,
      "▁حصل": 3948,
      "▁الطلاء": 3949,
      "وأنا": 3950,
      "▁والألعاب": 3951,
      "لاع": 3952,
      "▁يسقط": 3953,
      "▁لأنهم": 3954,
      "هتز": 3955,
      "كا": 3956,
      "▁ربط": 3957,
      "▁الأدغال": 3958,
      "انح": 3959,
      "هبط": 3960,
      "استمع": 3961,
      "▁مشغولة": 3962,
      "عطيها": 3963,
      "▁قماش": 3964,
      "▁سماع": 3965,
      "▁ليو": 3966,
      "▁بالن": 3967,
      "▁نحبك": 3968,
      "ائها": 3969,
      "أحضرت": 3970,
      "▁الاستمتاع": 3971,
      "▁فري": 3972,
      "▁والأشجار": 3973,
      "▁المغامرات": 3974,
      "وصول": 3975,
      "▁ويحب": 3976,
      "▁غريبة": 3977,
      "▁وعاد": 3978,
      "▁قصارى": 3979,
      "▁الصفراء": 3980,
      "عانقتها": 3981,
      "اشت": 3982,
      "سبوع": 3983,
      "ولاتة": 3984,
      "▁ريكس": 3985,
      "▁ضخم": 3986,
      "رفع": 3987,
      "ابون": 3988,
      "ذع": 3989,
      "ؤال": 3990,
      "▁ذاه": 3991,
      "وكانوا": 3992,
      "زرار": 3993,
      "▁تصدر": 3994,
      "▁والكتب": 3995,
      "▁عض": 3996,
      "▁يسبح": 3997,
      "▁عد": 3998,
      "▁يستطيعون": 3999,
      "▁الأمير": 4000,
      "▁البلدة": 4001,
      "▁ربما": 4002,
      "غل": 4003,
      "سما": 4004,
      "▁البيتزا": 4005,
      "▁وكأنها": 4006,
      "▁يلتقط": 4007,
      "▁مشه": 4008,
      "▁ومش": 4009,
      "▁يحصل": 4010,
      "▁استمرت": 4011,
      "خدام": 4012,
      "▁الحياة": 4013,
      "▁بطي": 4014,
      "حق": 4015,
      "طلع": 4016,
      "وأن": 4017,
      "لست": 4018,
      "رقت": 4019,
      "▁الأكبر": 4020,
      "▁وانتظر": 4021,
      "▁هما": 4022,
      "▁بوبو": 4023,
      "▁تفعلين": 4024,
      "ودي": 4025,
      "▁طلبت": 4026,
      "▁عرض": 4027,
      "▁جانب": 4028,
      "داد": 4029,
      "▁لترى": 4030,
      "▁خلط": 4031,
      "▁كنز": 4032,
      "التقى": 4033,
      "نحة": 4034,
      "▁مظلمة": 4035,
      "▁الشديدة": 4036,
      "▁وجاءت": 4037,
      "أرنب": 4038,
      "ائه": 4039,
      "▁حلوى": 4040,
      "▁الوراء": 4041,
      "ائد": 4042,
      "▁ساح": 4043,
      "▁الخيط": 4044,
      "▁يضحك": 4045,
      "▁القبعة": 4046,
      "ماطم": 4047,
      "▁وأمي": 4048,
      "راصنة": 4049,
      "فتر": 4050,
      "▁وتحب": 4051,
      "▁السجادة": 4052,
      "يجدون": 4053,
      "▁أمهما": 4054,
      "▁بالوحدة": 4055,
      "▁كسرت": 4056,
      "جاع": 4057,
      "▁الطير": 4058,
      "▁جنية": 4059,
      "▁سوف": 4060,
      "▁لقد": 4061,
      "اتهم": 4062,
      "▁بقعة": 4063,
      "▁الجرس": 4064,
      "▁لكل": 4065,
      "▁يضحكون": 4066,
      "دوات": 4067,
      "▁مباشرة": 4068,
      "▁ونرى": 4069,
      "▁صف": 4070,
      "▁بالأمان": 4071,
      "▁المرآة": 4072,
      "▁استمتعت": 4073,
      "▁صديقا": 4074,
      "▁وحتى": 4075,
      "▁تفاحة": 4076,
      "▁الفاكهة": 4077,
      "يتار": 4078,
      "▁أطول": 4079,
      "▁ينبح": 4080,
      "▁الكأس": 4081,
      "▁جائعة": 4082,
      "▁المكتبة": 4083,
      "تحدثوا": 4084,
      "▁المش": 4085,
      "▁مستعدة": 4086,
      "غريبا": 4087,
      "▁روز": 4088,
      "▁سباق": 4089,
      "يشعرون": 4090,
      "▁نيم": 4091,
      "▁حال": 4092,
      "▁الأسود": 4093,
      "▁الرسالة": 4094,
      "يقفز": 4095,
      "▁اللغز": 4096,
      "▁سيارتي": 4097,
      "لامعا": 4098,
      "▁الشرائح": 4099,
      "▁نيمو": 4100,
      "▁جرة": 4101,
      "استمرت": 4102,
      "عاية": 4103,
      "▁حافة": 4104,
      "لوا": 4105,
      "زهرية": 4106,
      "!\".": 4107,
      "▁مغلق": 4108,
      "▁التنظيف": 4109,
      "▁المرآب": 4110,
      "▁الأغاني": 4111,
      "▁حز": 4112,
      "▁نجمة": 4113,
      "▁إيق": 4114,
      "صب": 4115,
      "▁ويلعب": 4116,
      "سألته": 4117,
      "سها": 4118,
      "ؤه": 4119,
      "▁شاحن": 4120,
      "▁بالقلق": 4121,
      "▁بوق": 4122,
      "▁بلو": 4123,
      "بما": 4124,
      "روا": 4125,
      "ضغ": 4126,
      "▁بالارتياح": 4127,
      "▁كلها": 4128,
      "▁يلوح": 4129,
      "انه": 4130,
      "▁إصلاحه": 4131,
      "▁مثيرة": 4132,
      "برة": 4133,
      "▁بب": 4134,
      "عطيه": 4135,
      "▁سيئا": 4136,
      "▁بطة": 4137,
      "ستكشف": 4138,
      "▁ويضحكون": 4139,
      "▁استعا": 4140,
      "يبدأ": 4141,
      "▁منا": 4142,
      "▁تسمع": 4143,
      "▁الرما": 4144,
      "▁الحجر": 4145,
      "حباط": 4146,
      "▁الدرج": 4147,
      "عانقوا": 4148,
      "▁اللحظة": 4149,
      "بالنسبة": 4150,
      "▁زاوية": 4151,
      "▁ضحكوا": 4152,
      "كين": 4153,
      "▁ودي": 4154,
      "▁الملعب": 4155,
      "▁يفعله": 4156,
      "ختفي": 4157,
      "▁تذوق": 4158,
      "▁صاحب": 4159,
      "فورة": 4160,
      "▁الفستان": 4161,
      "▁يركضون": 4162,
      "شاة": 4163,
      "▁الخضروات": 4164,
      "▁بالراحة": 4165,
      "حسن": 4166,
      "شاركوا": 4167,
      "▁حوض": 4168,
      "▁سألت": 4169,
      "جرب": 4170,
      "خروط": 4171,
      "▁القش": 4172,
      "▁ترقص": 4173,
      "وير": 4174,
      "وبة": 4175,
      "ناصور": 4176,
      "▁يبقى": 4177,
      "▁تل": 4178,
      "▁الحظيرة": 4179,
      "▁بالرياح": 4180,
      "▁مزرعة": 4181,
      "▁تغي": 4182,
      "ضنت": 4183,
      "▁حمل": 4184,
      "أخر": 4185,
      "▁الروبوت": 4186,
      "▁كهف": 4187,
      "▁الخضراء": 4188,
      "▁وطلبت": 4189,
      "▁أمل": 4190,
      "▁تتوقف": 4191,
      "▁سيئ": 4192,
      "▁البيطري": 4193,
      "عملوا": 4194,
      "لعبت": 4195,
      "▁هم": 4196,
      "▁سقطت": 4197,
      "ئير": 4198,
      "▁الجبل": 4199,
      "▁شبكة": 4200,
      "▁الرا": 4201,
      "▁ثلج": 4202,
      "▁القمامة": 4203,
      "▁رف": 4204,
      "ختا": 4205,
      "▁بالبرد": 4206,
      "▁تحدث": 4207,
      "نج": 4208,
      "وزة": 4209,
      "▁المثالي": 4210,
      "▁مكسور": 4211,
      "▁جان": 4212,
      "▁إيلا": 4213,
      "غاء": 4214,
      "لاست": 4215,
      "مهم": 4216,
      "تحول": 4217,
      "▁ساعدت": 4218,
      "▁صوتا": 4219,
      "▁وآ": 4220,
      "رد": 4221,
      "▁تماما": 4222,
      "دايا": 4223,
      "يشاهدان": 4224,
      "أعرف": 4225,
      "▁أيديهم": 4226,
      "شاجران": 4227,
      "▁وشاح": 4228,
      "سامح": 4229,
      "عملت": 4230,
      "▁وسألتها": 4231,
      "▁والبحث": 4232,
      "▁توقفت": 4233,
      "▁العصي": 4234,
      "▁وترك": 4235,
      "▁الصراخ": 4236,
      "سيد": 4237,
      "▁حقيقي": 4238,
      "▁وكيف": 4239,
      "يحت": 4240,
      "▁خر": 4241,
      "▁الجدد": 4242,
      "الص": 4243,
      "▁رس": 4244,
      "▁تشرق": 4245,
      "اصة": 4246,
      "لوحة": 4247,
      "جعله": 4248,
      "مست": 4249,
      "▁يدور": 4250,
      "▁سريره": 4251,
      "وداني": 4252,
      "▁اسمك": 4253,
      "▁شاه": 4254,
      "▁الخوخ": 4255,
      "▁القلم": 4256,
      "▁الطبق": 4257,
      "▁الزاوية": 4258,
      "▁لولا": 4259,
      "▁ولكنها": 4260,
      "ربى": 4261,
      "▁وتعلم": 4262,
      "لامة": 4263,
      "أتمنى": 4264,
      "▁مبدع": 4265,
      "وانية": 4266,
      "▁عزيزتي": 4267,
      "ينية": 4268,
      "▁جعله": 4269,
      "ضواء": 4270,
      "طيفين": 4271,
      "فارة": 4272,
      "قاد": 4273,
      "▁الأشكال": 4274,
      "▁سائق": 4275,
      "▁طيب": 4276,
      "▁هاتف": 4277,
      "▁الثمن": 4278,
      "▁ثقيل": 4279,
      "وأرادت": 4280,
      "▁فهم": 4281,
      "▁فق": 4282,
      "▁وأسرع": 4283,
      "▁الأصفر": 4284,
      "▁نسيت": 4285,
      "▁حما": 4286,
      "▁شديدة": 4287,
      "الف": 4288,
      "▁صعب": 4289,
      "أكدت": 4290,
      "▁برأسها": 4291,
      "جعلت": 4292,
      "▁عظيمة": 4293,
      "▁تصدق": 4294,
      "▁قفص": 4295,
      "▁الألي": 4296,
      "▁يؤذي": 4297,
      "▁والإ": 4298,
      "▁جنا": 4299,
      "▁الحمامة": 4300,
      "ستمتعون": 4301,
      "▁تحبها": 4302,
      "▁وجيل": 4303,
      "▁لأصدقائها": 4304,
      "▁وأعطتها": 4305,
      "▁حقيقية": 4306,
      "▁السرطان": 4307,
      "أخذتها": 4308,
      "▁خش": 4309,
      "رررر": 4310,
      "▁لوالدته": 4311,
      "▁خرجت": 4312,
      "▁يفتح": 4313,
      "اخت": 4314,
      "ابقة": 4315,
      "▁وركضوا": 4316,
      "▁عني": 4317,
      "فاية": 4318,
      "▁كرته": 4319,
      "دهشة": 4320,
      "▁جمال": 4321,
      "▁وأنها": 4322,
      "▁أحبوا": 4323,
      "دتهم": 4324,
      "▁جه": 4325,
      "▁يغ": 4326,
      "▁باست": 4327,
      "▁إيجاد": 4328,
      "▁وجميل": 4329,
      "▁فستانها": 4330,
      "▁مصباح": 4331,
      "▁اعتقد": 4332,
      "▁الممر": 4333,
      "يكي": 4334,
      "كسرت": 4335,
      "يمكنه": 4336,
      "▁البطانية": 4337,
      "▁الكفاية": 4338,
      "عثر": 4339,
      "▁الخنزير": 4340,
      "▁أت": 4341,
      "ضطر": 4342,
      "أحضر": 4343,
      "▁الجليد": 4344,
      "ختارت": 4345,
      "▁للوصول": 4346,
      "▁المخ": 4347,
      "باغي": 4348,
      "كرونة": 4349,
      "ولاته": 4350,
      "وليس": 4351,
      "▁الطويل": 4352,
      "باغيتي": 4353,
      "فقوا": 4354,
      "▁لإن": 4355,
      "▁الغريب": 4356,
      "جت": 4357,
      "▁المظ": 4358,
      "▁وين": 4359,
      "▁الشرطة": 4360,
      "أعجبت": 4361,
      "▁أرادوا": 4362,
      "▁التمساح": 4363,
      "▁الست": 4364,
      "▁الزجاجة": 4365,
      "مشى": 4366,
      "▁يراقب": 4367,
      "الجميع": 4368,
      ":\"": 4369,
      "▁دور": 4370,
      "▁محا": 4371,
      "▁شريحة": 4372,
      "▁دخل": 4373,
      "▁مار": 4374,
      "سعيدا": 4375,
      "▁وكل": 4376,
      "ضار": 4377,
      "وو": 4378,
      "▁المحم": 4379,
      "▁حجر": 4380,
      "▁تنين": 4381,
      "ذائف": 4382,
      "طباق": 4383,
      "▁أقصد": 4384,
      "▁منذ": 4385,
      "▁يغني": 4386,
      "▁البالغ": 4387,
      "▁بالتعب": 4388,
      "▁مشا": 4389,
      "▁الدواء": 4390,
      "وين": 4391,
      "▁مدهش": 4392,
      "▁الرق": 4393,
      "مته": 4394,
      "ؤوس": 4395,
      "وهجة": 4396,
      "▁لديهما": 4397,
      "تسلقت": 4398,
      "▁الساعة": 4399,
      "جلسوا": 4400,
      "▁وطار": 4401,
      "▁وترى": 4402,
      "▁بأشياء": 4403,
      "▁ويركض": 4404,
      "▁يصبح": 4405,
      "▁تأمل": 4406,
      "▁اشت": 4407,
      "سيدة": 4408,
      "▁تز": 4409,
      "▁القفص": 4410,
      "▁وأصبحت": 4411,
      "▁يقف": 4412,
      "▁يسيرون": 4413,
      "ذار": 4414,
      "▁طاولة": 4415,
      "▁الدمى": 4416,
      "نسي": 4417,
      "▁النملة": 4418,
      "وأعط": 4419,
      "رأته": 4420,
      "▁بالب": 4421,
      "▁يعلم": 4422,
      "عجاب": 4423,
      "رارا": 4424,
      "نوا": 4425,
      "شعور": 4426,
      "▁غسل": 4427,
      "▁تمسك": 4428,
      "يفتح": 4429,
      "نبور": 4430,
      "وهكذا": 4431,
      "▁ذيل": 4432,
      "بدلا": 4433,
      "▁ليكون": 4434,
      "التفت": 4435,
      "▁كلا": 4436,
      "▁الهدية": 4437,
      "▁بلدة": 4438,
      "أشار": 4439,
      "▁متأكدة": 4440,
      "▁أناني": 4441,
      "عوا": 4442,
      "▁حارس": 4443,
      "ريس": 4444,
      "▁حذائها": 4445,
      "▁جورج": 4446,
      "كبير": 4447,
      "ولين": 4448,
      "جرى": 4449,
      "▁المعد": 4450,
      "اتم": 4451,
      "لصة": 4452,
      "▁والفتاة": 4453,
      "▁الرمل": 4454,
      "▁المسبح": 4455,
      "يان": 4456,
      "▁مفتاح": 4457,
      "▁شقيقها": 4458,
      "بيح": 4459,
      "وبعض": 4460,
      "▁ووجدوا": 4461,
      "▁يكونا": 4462,
      "▁تركض": 4463,
      "▁المنا": 4464,
      "أعطني": 4465,
      "عانقها": 4466,
      "تنظر": 4467,
      "زيزي": 4468,
      "▁والماء": 4469,
      "▁غاد": 4470,
      "▁والطائر": 4471,
      "▁شكر": 4472,
      "▁إصلاحها": 4473,
      "أصبحوا": 4474,
      "▁بحثا": 4475,
      "▁وأظهرت": 4476,
      "▁نفسك": 4477,
      "▁الدببة": 4478,
      "ركها": 4479,
      "▁دموع": 4480,
      "زلاق": 4481,
      "وجه": 4482,
      "ميتنز": 4483,
      "▁وناعم": 4484,
      "خدمها": 4485,
      "▁العملاق": 4486,
      "▁صاخب": 4487,
      "▁ملابسها": 4488,
      "مشت": 4489,
      "▁تجاه": 4490,
      "▁ترا": 4491,
      "سيل": 4492,
      "▁قطار": 4493,
      "▁لعبته": 4494,
      "▁عالق": 4495,
      "تساءلت": 4496,
      "وران": 4497,
      "جلات": 4498,
      "▁أخت": 4499,
      "أليس": 4500,
      "▁وقوية": 4501,
      "اصوليا": 4502,
      "▁شكل": 4503,
      "▁مرتاح": 4504,
      "▁بلعب": 4505,
      "▁تنتمي": 4506,
      "مد": 4507,
      "▁تتحدث": 4508,
      "حف": 4509,
      "فال": 4510,
      "▁فين": 4511,
      "▁الحدي": 4512,
      "▁استمع": 4513,
      "▁الخر": 4514,
      "حرة": 4515,
      "قوم": 4516,
      "▁تشار": 4517,
      "▁عادوا": 4518,
      "▁أننا": 4519,
      "▁تتوهج": 4520,
      "حية": 4521,
      "ميرا": 4522,
      "سألتها": 4523,
      "وهذا": 4524,
      "▁بيل": 4525,
      "ابتسموا": 4526,
      "▁طريقها": 4527,
      "لفل": 4528,
      "▁صعبة": 4529,
      "اندا": 4530,
      "▁صدا": 4531,
      "▁قلع": 4532,
      "▁وبك": 4533,
      "رقام": 4534,
      "جميعهم": 4535,
      "▁سأل": 4536,
      "عند": 4537,
      "▁أخير": 4538,
      "خفض": 4539,
      "زهار": 4540,
      "▁تلعبان": 4541,
      "▁مقر": 4542,
      "▁فك": 4543,
      "▁أقلام": 4544,
      "▁شجيرة": 4545,
      "اقت": 4546,
      "▁ريش": 4547,
      "▁آس": 4548,
      "▁يقترب": 4549,
      "وجود": 4550,
      "▁عب": 4551,
      "▁دوكي": 4552,
      "▁عان": 4553,
      "▁العملة": 4554,
      "تمنوا": 4555,
      "▁الفشار": 4556,
      "▁رأته": 4557,
      "▁وجاك": 4558,
      "لدينا": 4559,
      "أغلقت": 4560,
      "جاهل": 4561,
      "▁لنفسها": 4562,
      "شات": 4563,
      "▁الفرع": 4564,
      "ساعدني": 4565,
      "▁عنكبوت": 4566,
      "▁عالقة": 4567,
      "عصار": 4568,
      "▁حريص": 4569,
      "يقوم": 4570,
      "حاولوا": 4571,
      "▁صراخ": 4572,
      "▁متأخ": 4573,
      "▁الظل": 4574,
      "▁يتم": 4575,
      "أحببت": 4576,
      "سمى": 4577,
      "▁مثالية": 4578,
      "▁أذهب": 4579,
      "سوا": 4580,
      "▁الإن": 4581,
      "▁العرض": 4582,
      "▁الفراولة": 4583,
      "▁لجميع": 4584,
      "▁وجوههم": 4585,
      "الر": 4586,
      "▁تخف": 4587,
      "▁أه": 4588,
      "▁بالأشياء": 4589,
      "أحتاج": 4590,
      "▁الفيلم": 4591,
      "طح": 4592,
      "فاف": 4593,
      "▁القماش": 4594,
      "▁أصغر": 4595,
      "يلتقط": 4596,
      "▁المسافة": 4597,
      "▁الدافئ": 4598,
      "▁رائحته": 4599,
      "جيب": 4600,
      "▁والركض": 4601,
      "اسمي": 4602,
      "▁انت": 4603,
      "واصلوا": 4604,
      "▁سحابة": 4605,
      "فطار": 4606,
      "▁قو": 4607,
      "تماما": 4608,
      "فاء": 4609,
      "وأخيرا": 4610,
      "فيف": 4611,
      "▁سقط": 4612,
      "ظاه": 4613,
      "▁شمس": 4614,
      "▁اللوحة": 4615,
      "عانقته": 4616,
      "تحمسة": 4617,
      "▁شقيقته": 4618,
      "واية": 4619,
      "▁التد": 4620,
      "ملية": 4621,
      "▁حمام": 4622,
      "▁طرق": 4623,
      "ومع": 4624,
      "للم": 4625,
      "▁ودفع": 4626,
      "▁المسار": 4627,
      "▁العنب": 4628,
      "تسمع": 4629,
      "نريد": 4630,
      "▁للخروج": 4631,
      "▁غروب": 4632,
      "▁البلو": 4633,
      "عالية": 4634,
      "▁شرير": 4635,
      "▁لعبت": 4636,
      "ليلة": 4637,
      "سألها": 4638,
      "▁لكونه": 4639,
      "▁أوراق": 4640,
      "ظهرتها": 4641,
      "▁فتحه": 4642,
      "▁قا": 4643,
      "▁الزيت": 4644,
      "▁ويقولون": 4645,
      "طرقة": 4646,
      "▁وغاض": 4647,
      "▁الراحة": 4648,
      "▁رطب": 4649,
      "▁الدلو": 4650,
      "رام": 4651,
      "▁السكر": 4652,
      "▁يشاهد": 4653,
      "▁والكلب": 4654,
      "▁الوجبات": 4655,
      "يابا": 4656,
      "▁بهذه": 4657,
      "حصلت": 4658,
      "▁الأكثر": 4659,
      "▁الفق": 4660,
      "فات": 4661,
      "لمعة": 4662,
      "ذهابا": 4663,
      "▁علبة": 4664,
      "▁رطبة": 4665,
      "▁مسا": 4666,
      "▁ينتمي": 4667,
      "▁سل": 4668,
      "▁واستمرت": 4669,
      "▁الدودة": 4670,
      "وداع": 4671,
      "▁مميزة": 4672,
      "▁السباغيتي": 4673,
      "تظر": 4674,
      "بيحة": 4675,
      "ناطي": 4676,
      "▁لوحة": 4677,
      "▁للإ": 4678,
      "▁والزلاجة": 4679,
      "▁الري": 4680,
      "▁الجسر": 4681,
      "فوجئت": 4682,
      "انو": 4683,
      "مساك": 4684,
      "مرار": 4685,
      "معة": 4686,
      "▁بحماس": 4687,
      "▁لإصلاح": 4688,
      "▁الصياد": 4689,
      "▁للفتاة": 4690,
      "▁مظلم": 4691,
      "ارتدت": 4692,
      "▁وعادت": 4693,
      "▁الصاروخ": 4694,
      "▁بعصا": 4695,
      "▁الاعت": 4696,
      "هشة": 4697,
      "مرض": 4698,
      "▁ذراعيها": 4699,
      "▁جس": 4700,
      "▁قادرة": 4701,
      "▁والط": 4702,
      "ظاهرون": 4703,
      "▁ثمن": 4704,
      "تنا": 4705,
      "شاهدوا": 4706,
      "▁والغضب": 4707,
      "▁العش": 4708,
      "▁تبلغ": 4709,
      "سلام": 4710,
      "▁والسيارات": 4711,
      "▁مضط": 4712,
      "عمي": 4713,
      "▁المثيرة": 4714,
      "▁قرب": 4715,
      "طاردة": 4716,
      "▁وخرجت": 4717,
      "▁حبل": 4718,
      "▁السوداني": 4719,
      "▁ساحة": 4720,
      "▁الأسئلة": 4721,
      "أخلاق": 4722,
      "▁الكلاب": 4723,
      "▁قدميه": 4724,
      "▁وأص": 4725,
      "حضر": 4726,
      "▁زوج": 4727,
      "شج": 4728,
      "شبه": 4729,
      "أزرق": 4730,
      "▁لأمي": 4731,
      "▁وهربت": 4732,
      "شيائ": 4733,
      "ملي": 4734,
      "▁مذك": 4735,
      "▁نحاول": 4736,
      "▁الرح": 4737,
      "توقفوا": 4738,
      "▁ومخيف": 4739,
      "زوج": 4740,
      "يه": 4741,
      "وخاصة": 4742,
      "▁آمنين": 4743,
      "كرارا": 4744,
      "التقاط": 4745,
      "▁يعجبه": 4746,
      "▁أكن": 4747,
      "ميم": 4748,
      "خبا": 4749,
      "▁بألوان": 4750,
      "▁بحيرة": 4751,
      "▁اللطيفة": 4752,
      "سالي": 4753,
      "راة": 4754,
      "▁للحفاظ": 4755,
      "▁عانقوا": 4756,
      "سعيد": 4757,
      "▁الآلة": 4758,
      "عية": 4759,
      "▁نرى": 4760,
      "▁أحدهم": 4761,
      "▁التلة": 4762,
      "▁لمسها": 4763,
      "انع": 4764,
      "▁دوائر": 4765,
      "بلل": 4766,
      "ندي": 4767,
      "صقات": 4768,
      "انضمام": 4769,
      "▁يف": 4770,
      "وأصبح": 4771,
      "▁النباتات": 4772,
      "صفيق": 4773,
      "عادتها": 4774,
      "▁البارد": 4775,
      "▁ميتنز": 4776,
      "▁لسا": 4777,
      "زت": 4778,
      "ضيع": 4779,
      "بيني": 4780,
      "▁زيارة": 4781,
      "▁عانقت": 4782,
      "▁النمل": 4783,
      "▁بيلا": 4784,
      "جميلا": 4785,
      "▁ينسى": 4786,
      "ماعز": 4787,
      "▁بسيارته": 4788,
      "يمي": 4789,
      "▁رؤيتها": 4790,
      "طفو": 4791,
      "يعتقدون": 4792,
      "▁أنقذ": 4793,
      "عطيك": 4794,
      "▁قذر": 4795,
      "▁بالكتل": 4796,
      "▁الدافئة": 4797,
      "▁مختل": 4798,
      "ائي": 4799,
      "▁وأعطته": 4800,
      "▁وصديق": 4801,
      "▁بالض": 4802,
      "سادة": 4803,
      "▁دراجتها": 4804,
      "▁ديف": 4805,
      "▁ممل": 4806,
      "▁سمعوا": 4807,
      "▁الأكل": 4808,
      "لطيف": 4809,
      "▁ملاحظ": 4810,
      "▁صديقته": 4811,
      "▁ثلاثة": 4812,
      "▁حالة": 4813,
      "▁فلافي": 4814,
      "زيين": 4815,
      "طيران": 4816,
      "▁مشارك": 4817,
      "ربعة": 4818,
      "▁وتسلق": 4819,
      "▁تستسلم": 4820,
      "▁مضى": 4821,
      "أخرجت": 4822,
      "▁وجعلها": 4823,
      "▁الطويلة": 4824,
      "▁والحزن": 4825,
      "▁بفكرة": 4826,
      "▁المكونات": 4827,
      "دفء": 4828,
      "▁غاضبين": 4829,
      "▁وأق": 4830,
      "▁ومشاهدة": 4831,
      "▁منزعجة": 4832,
      "▁تهب": 4833,
      "ونهم": 4834,
      "مولي": 4835,
      "▁جالسة": 4836,
      "▁مخلوق": 4837,
      "▁والأوراق": 4838,
      "جلب": 4839,
      "▁تلة": 4840,
      "▁القفل": 4841,
      "▁مدر": 4842,
      "طاد": 4843,
      "تساءل": 4844,
      "شكروا": 4845,
      "▁معلم": 4846,
      "▁صديقان": 4847,
      "يرات": 4848,
      "▁ووعد": 4849,
      "▁التفكير": 4850,
      "▁وله": 4851,
      "▁المالك": 4852,
      "▁أنهى": 4853,
      "▁يستسلم": 4854,
      "طارات": 4855,
      "▁وأدركت": 4856,
      "يصنع": 4857,
      "▁يخبر": 4858,
      "وقع": 4859,
      "▁أجنحة": 4860,
      "باعة": 4861,
      "▁قبلة": 4862,
      "يصدر": 4863,
      "ؤيت": 4864,
      "▁المعكرونة": 4865,
      "▁ذهابا": 4866,
      "▁آلة": 4867,
      "▁قالوا": 4868,
      "▁ويبتسم": 4869,
      "▁الفقاعات": 4870,
      "▁فرو": 4871,
      "▁أخبرتها": 4872,
      "▁الشبكة": 4873,
      "قتراب": 4874,
      "شعرا": 4875,
      "▁يعزف": 4876,
      "▁متأخرا": 4877,
      "▁وضحك": 4878,
      "▁الرائع": 4879,
      "▁سيدي": 4880,
      "▁وصاح": 4881,
      "قليلا": 4882,
      "▁الأطباق": 4883,
      "▁نص": 4884,
      "فسهم": 4885,
      "سنجاب": 4886,
      "▁يجعلها": 4887,
      "▁الجدول": 4888,
      "▁وجميع": 4889,
      "▁اللامع": 4890,
      "▁رب": 4891,
      "▁أغراض": 4892,
      "الع": 4893,
      "▁تتأرجح": 4894,
      "أعطاها": 4895,
      "▁الضباب": 4896,
      "▁ألعابك": 4897,
      "▁نافذ": 4898,
      "يضحكون": 4899,
      "▁ويلعبون": 4900,
      "▁مرارا": 4901,
      "▁وحيدة": 4902,
      "▁ورك": 4903,
      "▁بالدفء": 4904,
      "▁المتا": 4905,
      "▁خطيرة": 4906,
      "▁ذراعه": 4907,
      "▁لفتح": 4908,
      "▁الإثارة": 4909,
      "▁جدد": 4910,
      "▁مغ": 4911,
      "▁يذهبون": 4912,
      "كيت": 4913,
      "لاثة": 4914,
      "▁للرجل": 4915,
      "ورق": 4916,
      "أشارت": 4917,
      "▁مرتفع": 4918,
      "▁برأسه": 4919,
      "▁العجينة": 4920,
      "ئم": 4921,
      "▁مخيفة": 4922,
      "عميقا": 4923,
      "يجلس": 4924,
      "جربة": 4925,
      "▁الفول": 4926,
      "▁يصل": 4927,
      "او": 4928,
      "▁فيل": 4929,
      "لاج": 4930,
      "لئ": 4931,
      "▁السحابة": 4932,
      "▁شطيرة": 4933,
      "▁لمشاهدة": 4934,
      "▁اختيار": 4935,
      "▁المحمص": 4936,
      "▁ام": 4937,
      "▁مندهشين": 4938,
      "▁نحلة": 4939,
      "▁لطف": 4940,
      "▁تخبر": 4941,
      "▁وأنه": 4942,
      "▁المحرك": 4943,
      "قدة": 4944,
      "▁براوني": 4945,
      "طمت": 4946,
      "بحثا": 4947,
      "يقرر": 4948,
      "▁يلاحظ": 4949,
      "يلعب": 4950,
      "▁بسبب": 4951,
      "▁منع": 4952,
      "▁فاح": 4953,
      "▁التسلق": 4954,
      "▁فاحصة": 4955,
      "▁فمها": 4956,
      "▁الحفر": 4957,
      "▁ملون": 4958,
      "خط": 4959,
      "▁وشاهد": 4960,
      "نفساء": 4961,
      "أكلوا": 4962,
      "▁الذرة": 4963,
      "▁ضعي": 4964,
      "نري": 4965,
      "آمل": 4966,
      "▁تؤلم": 4967,
      "▁يبتسمون": 4968,
      "▁منظ": 4969,
      "▁وساعد": 4970,
      "أرادتا": 4971,
      "▁أمنية": 4972,
      "▁هادئا": 4973,
      "▁رصاص": 4974,
      "انته": 4975,
      "▁بدون": 4976,
      "▁السفينة": 4977,
      "▁صبورة": 4978,
      "▁تهتم": 4979,
      "▁تفعله": 4980,
      "سين": 4981,
      "▁ولوح": 4982,
      "▁جاهزة": 4983,
      "▁تملك": 4984,
      "فاجئ": 4985,
      "▁عادية": 4986,
      "▁وبين": 4987,
      "هولة": 4988,
      "▁جدته": 4989,
      "سلة": 4990,
      "▁جانبا": 4991,
      "دوار": 4992,
      "الج": 4993,
      "▁وهبوطا": 4994,
      "▁تقترب": 4995,
      "▁وعلى": 4996,
      "▁وسي": 4997,
      "▁وقح": 4998,
      "▁باه": 4999,
      "أسقط": 5000,
      "▁الأماكن": 5001,
      "▁يعودوا": 5002,
      "▁الحقيق": 5003,
      "استخدمت": 5004,
      "▁نظيفا": 5005,
      "▁ثوبها": 5006,
      "▁قبعته": 5007,
      "▁أومأت": 5008,
      "▁عملة": 5009,
      "▁صاروخ": 5010,
      "▁المفاجأة": 5011,
      "▁حكيمة": 5012,
      "▁بولي": 5013,
      "▁لعائ": 5014,
      "فيه": 5015,
      "▁يتبع": 5016,
      "▁الطابق": 5017,
      "▁الساحرة": 5018,
      "▁مهذ": 5019,
      "▁والفخر": 5020,
      "▁باهظ": 5021,
      "▁خجولة": 5022,
      "▁للأطفال": 5023,
      "▁تاج": 5024,
      "دنا": 5025,
      "▁عجلة": 5026,
      "▁باردة": 5027,
      "▁دخلت": 5028,
      "▁وحزين": 5029,
      "▁وملمع": 5030,
      "▁التس": 5031,
      "واعد": 5032,
      "وهبوطا": 5033,
      "غيل": 5034,
      "جيء": 5035,
      "قابل": 5036,
      "▁يسمح": 5037,
      "▁والأس": 5038,
      "▁أخذه": 5039,
      "▁والأر": 5040,
      "▁اللافتة": 5041,
      "▁فأكثر": 5042,
      "غرق": 5043,
      "▁الشجاعة": 5044,
      "▁استخدامه": 5045,
      "مرحون": 5046,
      "▁المطاف": 5047,
      "▁خد": 5048,
      "▁القرش": 5049,
      "▁البيض": 5050,
      "لتك": 5051,
      "▁يتجول": 5052,
      "▁يفعلون": 5053,
      "▁أقوى": 5054,
      "▁وكلب": 5055,
      "▁شرائح": 5056,
      "▁لافتة": 5057,
      "▁السبب": 5058,
      "بيوتر": 5059,
      "▁متأكد": 5060,
      "▁أصاب": 5061,
      "وبر": 5062,
      "▁ساخنة": 5063,
      "ائل": 5064,
      "▁ورطة": 5065,
      "▁الحبوب": 5066,
      "▁بالسيارة": 5067,
      "▁والديها": 5068,
      "▁معج": 5069,
      "▁وسعيد": 5070,
      "وافذ": 5071,
      "▁يطلب": 5072,
      "راسة": 5073,
      "▁بالإحباط": 5074,
      "▁لحم": 5075,
      "▁شرب": 5076,
      "▁وما": 5077,
      "أحبوا": 5078,
      "▁أغلق": 5079,
      "▁الاستسلام": 5080,
      "▁كتب": 5081,
      "اردة": 5082,
      "دمى": 5083,
      "▁تنظ": 5084,
      "عبوا": 5085,
      "▁لبن": 5086,
      "▁وساعدت": 5087,
      "▁زاهية": 5088,
      "قريبا": 5089,
      "▁ويحاول": 5090,
      "زلج": 5091,
      "▁ثعبان": 5092,
      "▁نجد": 5093,
      "سان": 5094,
      "▁السحري": 5095,
      "▁مايك": 5096,
      "▁بعضنا": 5097,
      "▁بالذنب": 5098,
      "▁خبز": 5099,
      "وريلا": 5100,
      "▁بعضا": 5101,
      "▁أهمية": 5102,
      "▁الوردية": 5103,
      "▁ووضعته": 5104,
      "▁الصنبور": 5105,
      "▁ويرى": 5106,
      "▁يرسم": 5107,
      "▁أصدقائهم": 5108,
      "▁الشوكولاته": 5109,
      "▁توبي": 5110,
      "وحتى": 5111,
      "استيقظت": 5112,
      "▁حذائه": 5113,
      "▁شاحنته": 5114,
      "▁غابت": 5115,
      "▁أنفه": 5116,
      "▁القريبة": 5117,
      "طالما": 5118,
      "شعلت": 5119,
      "ستكون": 5120,
      "▁للد": 5121,
      "▁لساعات": 5122,
      "ندق": 5123,
      "▁يتذكر": 5124,
      "▁رؤيته": 5125,
      "غلاق": 5126,
      "▁أليف": 5127,
      "عاشت": 5128,
      "ولد": 5129,
      "ذيفة": 5130,
      "وإ": 5131,
      "أصدر": 5132,
      "ونك": 5133,
      "▁جيري": 5134,
      "بني": 5135,
      "تأكد": 5136,
      "▁قدميها": 5137,
      "▁الغراء": 5138,
      "ينا": 5139,
      "▁الأف": 5140,
      "▁السفر": 5141,
      "▁الأرجواني": 5142,
      "▁يفكر": 5143,
      "▁فظ": 5144,
      "▁ويصرخ": 5145,
      "▁سيارتها": 5146,
      "▁كلمة": 5147,
      "▁العاء": 5148,
      "جعلك": 5149,
      "دران": 5150,
      "▁وجلس": 5151,
      "▁عزيزي": 5152,
      "بان": 5153,
      "ولى": 5154,
      "دات": 5155,
      "▁لتلقي": 5156,
      "▁الشج": 5157,
      "▁سعيدان": 5158,
      "▁تحريك": 5159,
      "▁إليك": 5160,
      "▁وعندما": 5161,
      "كلي": 5162,
      "▁مشو": 5163,
      "▁سترة": 5164,
      "للعب": 5165,
      "صنعت": 5166,
      "▁وراءها": 5167,
      "درب": 5168,
      "▁لأمه": 5169,
      "▁ظل": 5170,
      "▁قدم": 5171,
      "▁لص": 5172,
      "▁وحدها": 5173,
      "بقيت": 5174,
      "ائرات": 5175,
      "أرجوك": 5176,
      "▁وملمعة": 5177,
      "▁الغراب": 5178,
      "ستها": 5179,
      "احنات": 5180,
      "فيد": 5181,
      "▁استمتع": 5182,
      "▁الحوت": 5183,
      "▁وألعاب": 5184,
      "▁السقف": 5185,
      "▁الصابون": 5186,
      "▁كعك": 5187,
      "▁وداف": 5188,
      "▁أدركت": 5189,
      "▁ظهره": 5190,
      "عما": 5191,
      "▁المربى": 5192,
      "▁الاقتراب": 5193,
      "الق": 5194,
      "استمعت": 5195,
      "▁علاج": 5196,
      "▁جرس": 5197,
      "ولف": 5198,
      "▁صر": 5199,
      "▁لالتقاط": 5200,
      "اقتربت": 5201,
      "وضح": 5202,
      "بكرا": 5203,
      "اكاو": 5204,
      "▁داني": 5205,
      "أكلت": 5206,
      "▁ضرب": 5207,
      "▁الشعر": 5208,
      "▁يقصد": 5209,
      "شاركون": 5210,
      "▁ومست": 5211,
      "اروا": 5212,
      "▁الكرز": 5213,
      "▁أندي": 5214,
      "▁شعور": 5215,
      "▁وأحب": 5216,
      "▁مسر": 5217,
      "▁قامت": 5218,
      "▁ينجح": 5219,
      "▁البرية": 5220,
      "اسية": 5221,
      "▁الآخرون": 5222,
      "▁ولديها": 5223,
      "▁تنسى": 5224,
      "▁الضخ": 5225,
      "▁وعانقتها": 5226,
      "▁فرس": 5227,
      "▁وتكون": 5228,
      "▁وراءه": 5229,
      "▁قضوا": 5230,
      "▁شرا": 5231,
      "▁رفض": 5232,
      "▁حديقته": 5233,
      "▁الحلاق": 5234,
      "يتها": 5235,
      "▁مخيفا": 5236,
      "جابة": 5237,
      "▁حدي": 5238,
      "زول": 5239,
      "ريه": 5240,
      "التقطتها": 5241,
      "▁يستمتعان": 5242,
      "▁منهما": 5243,
      "▁وأعطت": 5244,
      "▁صديقك": 5245,
      "جرت": 5246,
      "▁ركبتها": 5247,
      "▁مبكرا": 5248,
      "▁الدجاجة": 5249,
      "▁تتسلق": 5250,
      "▁اختبار": 5251,
      "▁البسكويت": 5252,
      "اتبع": 5253,
      "▁يغادر": 5254,
      "▁مخب": 5255,
      "ناها": 5256,
      "▁مخروط": 5257,
      "▁سؤال": 5258,
      "اهم": 5259,
      "ريها": 5260,
      "▁الإمساك": 5261,
      "▁تعلي": 5262,
      "ماح": 5263,
      "▁العلية": 5264,
      "▁معد": 5265,
      "▁قرد": 5266,
      "حكام": 5267,
      "رسل": 5268,
      "يبة": 5269,
      "▁بهذا": 5270,
      "▁الأزرار": 5271,
      "▁قلادة": 5272,
      "▁يحبها": 5273,
      "دائما": 5274,
      "▁حقائب": 5275,
      "▁قادرا": 5276,
      "▁المقص": 5277,
      "وفان": 5278,
      "▁سلم": 5279,
      "▁طبي": 5280,
      "واز": 5281,
      "تسل": 5282,
      "بيلي": 5283,
      "وصلوا": 5284,
      "للا": 5285,
      "▁البطي": 5286,
      "صاد": 5287,
      "أخير": 5288,
      "▁أصدقائك": 5289,
      "▁وأوم": 5290,
      "متلك": 5291,
      "مشيا": 5292,
      "▁مقا": 5293,
      "▁تعانق": 5294,
      "▁الزبدة": 5295,
      "▁إضا": 5296,
      "▁يرن": 5297,
      "▁الإفطار": 5298,
      "▁يعض": 5299,
      "▁لعق": 5300,
      "جددا": 5301,
      "طبوط": 5302,
      "قف": 5303,
      "افة": 5304,
      "راسي": 5305,
      "طين": 5306,
      "هاز": 5307,
      "▁المجيء": 5308,
      "صلة": 5309,
      "عاشوا": 5310,
      "حدر": 5311,
      "▁مملة": 5312,
      "يرقة": 5313,
      "لسلة": 5314,
      "▁نافذة": 5315,
      "لوي": 5316,
      "▁يبلغ": 5317,
      "▁كتابا": 5318,
      "سعا": 5319,
      "▁إيذاء": 5320,
      "فاع": 5321,
      "▁حكيم": 5322,
      "▁المتحركة": 5323,
      "▁الدرس": 5324,
      "أعدك": 5325,
      "▁الماعز": 5326,
      "▁يتأرجح": 5327,
      "سامحك": 5328,
      "أوضحت": 5329,
      "يريدان": 5330,
      "▁وعانقوا": 5331,
      "▁النق": 5332,
      "▁الأبيض": 5333,
      "▁بالد": 5334,
      "▁العلكة": 5335,
      "راته": 5336,
      "▁أشكال": 5337,
      "▁وعائلتها": 5338,
      "▁تراقب": 5339,
      "▁الكا": 5340,
      "وهرات": 5341,
      "▁السلالم": 5342,
      "وكاد": 5343,
      "▁والخوف": 5344,
      "▁القراءة": 5345,
      "▁بقية": 5346,
      "▁وحلو": 5347,
      "▁مسار": 5348,
      "هاد": 5349,
      "▁أرن": 5350,
      "▁كسول": 5351,
      "بحار": 5352,
      "▁عظيم": 5353,
      "▁قصيرة": 5354,
      "▁يأملون": 5355,
      "نهدت": 5356,
      "طابق": 5357,
      "▁وممت": 5358,
      "▁عرفت": 5359,
      "والآن": 5360,
      "ختبأ": 5361,
      "تضع": 5362,
      "▁الابت": 5363,
      "▁محفظ": 5364,
      "▁الوقوف": 5365,
      "▁الخيمة": 5366,
      "تأكدت": 5367,
      "▁طير": 5368,
      "▁الجم": 5369,
      "▁روبي": 5370,
      "▁الجدران": 5371,
      "فء": 5372,
      "▁الدخان": 5373,
      "▁منشفة": 5374,
      "الد": 5375,
      "▁الفلفل": 5376,
      "▁لسماع": 5377,
      "يته": 5378,
      "▁جناح": 5379,
      "▁وتدور": 5380,
      "▁تعجبها": 5381,
      "▁حقيبتها": 5382,
      "▁بأكملها": 5383,
      "▁يستكشف": 5384,
      "ئما": 5385,
      "▁المسن": 5386,
      "▁يجرب": 5387,
      "فحص": 5388,
      "▁آني": 5389,
      "▁بإحكام": 5390,
      "عاني": 5391,
      "▁نومها": 5392,
      "▁الرحلة": 5393,
      "▁بول": 5394,
      "رذ": 5395,
      "▁الشوكولاتة": 5396,
      "وكة": 5397,
      "▁الملكة": 5398,
      "▁السلحفاة": 5399,
      "▁بالدوار": 5400,
      "▁وجمع": 5401,
      "▁بطاقة": 5402,
      "▁وألق": 5403,
      "لاف": 5404,
      "▁المغادرة": 5405,
      "ليزا": 5406,
      "▁صد": 5407,
      "طرق": 5408,
      "▁عميق": 5409,
      "▁الات": 5410,
      "▁تعتني": 5411,
      "لز": 5412,
      "كلا": 5413,
      "▁جالس": 5414,
      "ومت": 5415,
      "امل": 5416,
      "▁موسيق": 5417,
      "ظيفة": 5418,
      "ائزة": 5419,
      "▁الأصوات": 5420,
      "▁اسمهما": 5421,
      "▁الصلصة": 5422,
      "▁بالعودة": 5423,
      "▁مضغ": 5424,
      "ديرة": 5425,
      "▁وأعطاها": 5426,
      "▁الطبيعة": 5427,
      "▁وأبيهم": 5428,
      "مق": 5429,
      "▁ولديه": 5430,
      "▁قاربه": 5431,
      "ضاف": 5432,
      "▁الصا": 5433,
      "▁مسح": 5434,
      "يخبر": 5435,
      "▁شارك": 5436,
      "زلان": 5437,
      "▁أسقط": 5438,
      "▁أذ": 5439,
      "▁والراحة": 5440,
      "▁ينظف": 5441,
      "▁الصناديق": 5442,
      "▁أليكس": 5443,
      "يزي": 5444,
      "لقا": 5445,
      "▁بعرائ": 5446,
      "نافس": 5447,
      "حافظ": 5448,
      "▁الأمطار": 5449,
      "▁عباد": 5450,
      "▁بمفردها": 5451,
      "▁تطلب": 5452,
      "بادي": 5453,
      "▁لرؤيته": 5454,
      "وكادو": 5455,
      "▁الجوهرة": 5456,
      "▁إنقاذ": 5457,
      "▁متأخر": 5458,
      "▁تشارلي": 5459,
      "كروف": 5460,
      "▁الوسادة": 5461,
      "▁وسارة": 5462,
      "روف": 5463,
      "▁تعني": 5464,
      "▁أشعر": 5465,
      "▁الحقيقة": 5466,
      "▁حف": 5467,
      "تن": 5468,
      "بنفسه": 5469,
      "ظاهروا": 5470,
      "▁وتك": 5471,
      "واحد": 5472,
      "▁قرروا": 5473,
      "▁النمو": 5474,
      "▁لرؤيتها": 5475,
      "▁غض": 5476,
      "▁زئير": 5477,
      "▁الأشخاص": 5478,
      "يرت": 5479,
      "▁أغني": 5480,
      "احتضنت": 5481,
      "طئا": 5482,
      "▁التمث": 5483,
      "فروا": 5484,
      "▁المكسور": 5485,
      "جبن": 5486,
      "▁مشغول": 5487,
      "▁سبب": 5488,
      "▁تمن": 5489,
      "بقية": 5490,
      "ختبر": 5491,
      "صيحة": 5492,
      "▁الصعود": 5493,
      "▁عمله": 5494,
      "▁لما": 5495,
      "▁بطن": 5496,
      "▁بالشجاعة": 5497,
      "▁الجدال": 5498,
      "تحطم": 5499,
      "▁متن": 5500,
      "راشة": 5501,
      "▁القيادة": 5502,
      "غامرة": 5503,
      "▁تتبع": 5504,
      "عطيهم": 5505,
      "ضفدع": 5506,
      "▁يتسلق": 5507,
      "وزي": 5508,
      "طوال": 5509,
      "وضعتها": 5510,
      "▁ومن": 5511,
      "فاق": 5512,
      "▁بشجاعة": 5513,
      "▁ساعات": 5514,
      "▁مفيدة": 5515,
      "▁فاز": 5516,
      "رافة": 5517,
      "▁آيس": 5518,
      "يسة": 5519,
      "▁ولاحظ": 5520,
      "▁باتجاه": 5521,
      "▁ونظروا": 5522,
      "▁شعره": 5523,
      "▁صاخبة": 5524,
      "▁وأخبرتها": 5525,
      "ذكرة": 5526,
      "حتر": 5527,
      "مشي": 5528,
      "▁الميناء": 5529,
      "..": 5530,
      "▁استخدم": 5531,
      "▁الديك": 5532,
      "▁عميقة": 5533,
      "▁وحزينة": 5534,
      "▁دائرة": 5535,
      "▁القوارب": 5536,
      "▁أعين": 5537,
      "▁البذور": 5538,
      "▁قصص": 5539,
      "▁أرض": 5540,
      "▁تفتح": 5541,
      "▁ذراعها": 5542,
      "▁قياس": 5543,
      "▁لئيمة": 5544,
      "حاض": 5545,
      "▁مذهلة": 5546,
      "▁والمتعة": 5547,
      "▁وهبط": 5548,
      "▁أصابع": 5549,
      "▁بنية": 5550,
      "▁المكتب": 5551,
      "▁حاد": 5552,
      "يضعون": 5553,
      "▁الاختبار": 5554,
      "▁مرح": 5555,
      "▁مفيد": 5556,
      "▁بسيارات": 5557,
      "▁بدأوا": 5558,
      "يفكر": 5559,
      "▁مفتوحة": 5560,
      "▁سعادة": 5561,
      "▁قضاء": 5562,
      "قابلت": 5563,
      "▁الطماطم": 5564,
      "وغا": 5565,
      "▁ويست": 5566,
      "راح": 5567,
      "داعب": 5568,
      "▁للاختباء": 5569,
      "شرح": 5570,
      "▁ولكنه": 5571,
      "▁مثيرا": 5572,
      "هروب": 5573,
      "▁تقريبا": 5574,
      "▁محظوظة": 5575,
      "▁والكثير": 5576,
      "▁النافورة": 5577,
      "▁حياته": 5578,
      "جرفة": 5579,
      "وضعها": 5580,
      "▁وقبعة": 5581,
      "▁إطفاء": 5582,
      "كتاب": 5583,
      "▁ونظيف": 5584,
      "▁صديقها": 5585,
      "▁والأح": 5586,
      "ضيات": 5587,
      "سخ": 5588,
      "▁إعداد": 5589,
      "مسة": 5590,
      "زاز": 5591,
      "▁واسع": 5592,
      "وضة": 5593,
      "▁ولوحت": 5594,
      "▁قالته": 5595,
      "▁لون": 5596,
      "تفوا": 5597,
      "▁النزول": 5598,
      "ورات": 5599,
      "▁أقل": 5600,
      "ثنين": 5601,
      "باشير": 5602,
      "▁الجزيرة": 5603,
      "▁يسأل": 5604,
      "▁أجز": 5605,
      "▁ورقص": 5606,
      "ذكية": 5607,
      "تحاول": 5608,
      "▁اقتربت": 5609,
      "ركت": 5610,
      "▁ولذيذ": 5611,
      "▁وكتب": 5612,
      "▁مهما": 5613,
      "دثت": 5614,
      "▁إيقاف": 5615,
      "داة": 5616,
      "▁الثقب": 5617,
      "فادع": 5618,
      "يلوح": 5619,
      "▁وأصاب": 5620,
      "استمتع": 5621,
      "▁وانتظرت": 5622,
      "أكلها": 5623,
      "▁العظم": 5624,
      "▁وآمن": 5625,
      "فه": 5626,
      "بنفسها": 5627,
      "▁ساندي": 5628,
      "تب": 5629,
      "▁هنري": 5630,
      "▁الحلقة": 5631,
      "▁رمي": 5632,
      "غاز": 5633,
      "▁سميث": 5634,
      "صرخوا": 5635,
      "▁الحلوة": 5636,
      "▁امت": 5637,
      "▁الكوخ": 5638,
      "ممة": 5639,
      "▁للأكل": 5640,
      "▁بالرضا": 5641,
      "▁لهما": 5642,
      "▁والحصول": 5643,
      "وابتسم": 5644,
      "▁أخبرته": 5645,
      "سعاف": 5646,
      "▁يبحر": 5647,
      "▁وصا": 5648,
      "غبا": 5649,
      "▁لطيفين": 5650,
      "▁يقوم": 5651,
      "▁صادق": 5652,
      "عمق": 5653,
      "يمكنهم": 5654,
      "تهاء": 5655,
      "عودون": 5656,
      "روب": 5657,
      "يضحك": 5658,
      "اءة": 5659,
      "فقدت": 5660,
      "▁وغير": 5661,
      "▁والأشكال": 5662,
      "▁ينظرون": 5663,
      "احتضنوا": 5664,
      "▁بأكمله": 5665,
      "▁سياراتهم": 5666,
      "ذل": 5667,
      "ثرى": 5668,
      "▁يذهبوا": 5669,
      "▁خلفها": 5670,
      "▁البيانو": 5671,
      "▁يلت": 5672,
      "علق": 5673,
      "▁ويصدر": 5674,
      "يأمل": 5675,
      "▁العملات": 5676,
      "▁وأنا": 5677,
      "▁القام": 5678,
      "لفين": 5679,
      "كسرات": 5680,
      "▁الفاصوليا": 5681,
      "▁غداء": 5682,
      "▁يمر": 5683,
      "▁يرقص": 5684,
      "سعداء": 5685,
      "▁وليس": 5686,
      "▁وصرخت": 5687,
      "▁اللحم": 5688,
      "▁كريهة": 5689,
      "▁ذه": 5690,
      "ذوب": 5691,
      "▁استراحة": 5692,
      "▁وأطلق": 5693,
      "▁تتأذى": 5694,
      "التقطته": 5695,
      "يحمل": 5696,
      "بسعادة": 5697,
      "▁يساعدها": 5698,
      "▁متأكدا": 5699,
      "▁أسامحك": 5700,
      "▁وتستمتع": 5701,
      "فسد": 5702,
      "▁صنعوا": 5703,
      "▁الهدايا": 5704,
      "▁وعانقته": 5705,
      "آخرين": 5706,
      "▁البصل": 5707,
      "أجابتها": 5708,
      "▁السج": 5709,
      "▁حزم": 5710,
      "▁كتلة": 5711,
      "فعله": 5712,
      "▁تقرأ": 5713,
      "رص": 5714,
      "▁وهم": 5715,
      "▁رخي": 5716,
      "▁الملعقة": 5717,
      "▁بقلم": 5718,
      "▁ركضوا": 5719,
      "▁كيت": 5720,
      "▁وعدم": 5721,
      "▁ركبته": 5722,
      "أخبرها": 5723,
      "▁اعتقدت": 5724,
      "▁فيلم": 5725,
      "▁البطاطا": 5726,
      "بأن": 5727,
      "▁تأخذها": 5728,
      "▁للحيوانات": 5729,
      "حول": 5730,
      "▁رأتها": 5731,
      "▁أجزاء": 5732,
      "▁الأرضية": 5733,
      "▁سيارتك": 5734,
      "▁ساقي": 5735,
      "▁للنظر": 5736,
      "▁رقيقة": 5737,
      "▁الجار": 5738,
      "رسال": 5739,
      "▁مضحكا": 5740,
      "▁مغادرة": 5741,
      "▁إش": 5742,
      "وبينما": 5743,
      "▁الغطاء": 5744,
      "▁أصدقائي": 5745,
      "أفضل": 5746,
      "قلص": 5747,
      "▁اللص": 5748,
      "▁الحجارة": 5749,
      "▁صبور": 5750,
      "▁قاموا": 5751,
      "▁رآه": 5752,
      "▁القليل": 5753,
      "ارة": 5754,
      "عمال": 5755,
      "▁سه": 5756,
      "▁خوذ": 5757,
      "▁بأق": 5758,
      "▁أخاها": 5759,
      "كات": 5760,
      "▁وسري": 5761,
      "▁بسهولة": 5762,
      "▁يرغبا": 5763,
      "تان": 5764,
      "▁والضحك": 5765,
      "▁لعبتها": 5766,
      "▁الرسوم": 5767,
      "وشكرت": 5768,
      "▁وسوف": 5769,
      "▁تتذكر": 5770,
      "▁الانزلاق": 5771,
      "وإيابا": 5772,
      "▁إعادة": 5773,
      "▁وأكبر": 5774,
      "يسمعون": 5775,
      "▁وفتحت": 5776,
      "▁بالغضب": 5777,
      "فجر": 5778,
      "▁ضحكت": 5779,
      "▁يهرب": 5780,
      "وداء": 5781,
      "▁رمادي": 5782,
      "أطلق": 5783,
      "▁إطعام": 5784,
      "▁الشوفان": 5785,
      "▁آسفين": 5786,
      "ريخ": 5787,
      "▁خرطوم": 5788,
      "▁نكن": 5789,
      "▁سفينة": 5790,
      "▁هاري": 5791,
      "ميلي": 5792,
      "دتك": 5793,
      "تحتاج": 5794,
      "▁دميتي": 5795,
      "▁عديدة": 5796,
      "قرأ": 5797,
      "▁المطار": 5798,
      "▁تبقي": 5799,
      "▁وعادوا": 5800,
      "▁نائمة": 5801,
      "لامها": 5802,
      "هربت": 5803,
      "▁وجبات": 5804,
      "▁الكاكاو": 5805,
      "▁تجلس": 5806,
      "▁الرياضية": 5807,
      "▁اليرقة": 5808,
      "▁حريصة": 5809,
      "احونة": 5810,
      "▁المغامرة": 5811,
      "▁الأن": 5812,
      "▁ويذهب": 5813,
      "▁الحكيمة": 5814,
      "▁البالونات": 5815,
      "كره": 5816,
      "▁للسباحة": 5817,
      "▁الأمام": 5818,
      "قار": 5819,
      "▁بالغيرة": 5820,
      "▁طوق": 5821,
      "ثاث": 5822,
      "▁الممرضة": 5823,
      "▁بقيت": 5824,
      "▁سبح": 5825,
      "▁برتقالية": 5826,
      "▁الألم": 5827,
      "▁الصديقان": 5828,
      "▁قرش": 5829,
      "▁القمح": 5830,
      "▁لوح": 5831,
      "▁جار": 5832,
      "▁إنهما": 5833,
      "▁السعيدة": 5834,
      "▁لإخبار": 5835,
      "الط": 5836,
      "رسمت": 5837,
      "يجعل": 5838,
      "▁العزف": 5839,
      "▁لغز": 5840,
      "▁بشأن": 5841,
      "▁نعود": 5842,
      "▁أف": 5843,
      "▁وتصدر": 5844,
      "▁مكت": 5845,
      "▁ممكن": 5846,
      "بأ": 5847,
      "▁الخط": 5848,
      "طعة": 5849,
      "طوي": 5850,
      "▁رجال": 5851,
      "ناطيس": 5852,
      "▁الناعمة": 5853,
      "ؤدي": 5854,
      "يتعلم": 5855,
      "▁يريدان": 5856,
      "تاء": 5857,
      "ائهم": 5858,
      "▁تستكشف": 5859,
      "▁كهذا": 5860,
      "ودود": 5861,
      "اتها": 5862,
      "▁بدت": 5863,
      "▁الاستمرار": 5864,
      "▁ماريا": 5865,
      "تنهدت": 5866,
      "ارات": 5867,
      "قس": 5868,
      "اؤه": 5869,
      "▁الشاق": 5870,
      "حيل": 5871,
      "▁الجزء": 5872,
      "ركوب": 5873,
      "طاط": 5874,
      "يفا": 5875,
      "روكلي": 5876,
      "▁الفطيرة": 5877,
      "ضاءت": 5878,
      "▁البرا": 5879,
      "▁مني": 5880,
      "ساعدها": 5881,
      "▁أحيان": 5882,
      "بيل": 5883,
      "تأتي": 5884,
      "▁غرفتك": 5885,
      "▁أصلع": 5886,
      "▁وتيم": 5887,
      "▁الشجاع": 5888,
      "▁استخدامها": 5889,
      "▁والناس": 5890,
      "▁العلوي": 5891,
      "▁الحي": 5892,
      "ابي": 5893,
      "▁التجول": 5894,
      "▁عدد": 5895,
      "▁اصط": 5896,
      "▁الكمبيوتر": 5897,
      "بابة": 5898,
      "▁تصديق": 5899,
      "شرحت": 5900,
      "▁تمر": 5901,
      "▁شعروا": 5902,
      "▁السمك": 5903,
      "▁الكرفس": 5904,
      "سكين": 5905,
      "▁ولي": 5906,
      "▁كرتها": 5907,
      "غاد": 5908,
      "▁تحلم": 5909,
      "روحة": 5910,
      "▁أخذها": 5911,
      "للمساعدة": 5912,
      "▁أرنبا": 5913,
      "قها": 5914,
      "▁طعا": 5915,
      "عاج": 5916,
      "▁المناسب": 5917,
      "▁وجو": 5918,
      "كتشاف": 5919,
      "▁عضة": 5920,
      "التقطها": 5921,
      "▁باللعبة": 5922,
      "أستطيع": 5923,
      "▁قلبها": 5924,
      "▁البطيخ": 5925,
      "▁رقيق": 5926,
      "صنعان": 5927,
      "صرية": 5928,
      "▁وابتسموا": 5929,
      "▁وبكى": 5930,
      "قوب": 5931,
      "▁وصنع": 5932,
      "▁الفارس": 5933,
      "▁لاحقا": 5934,
      "مك": 5935,
      "▁وأعطى": 5936,
      "رصد": 5937,
      "▁مزارع": 5938,
      "ركز": 5939,
      "▁أساعدك": 5940,
      "▁العجلة": 5941,
      "▁المغسلة": 5942,
      "فير": 5943,
      "▁جاهزا": 5944,
      "▁ماي": 5945,
      "▁سريعا": 5946,
      "▁فارغ": 5947,
      "▁الثور": 5948,
      "▁مخلص": 5949,
      "هوة": 5950,
      "▁ريشة": 5951,
      "لغاز": 5952,
      "رخاء": 5953,
      "بيت": 5954,
      "▁دبها": 5955,
      "كتة": 5956,
      "ريكس": 5957,
      "▁وث": 5958,
      "قيم": 5959,
      "▁الساخنة": 5960,
      "أدركوا": 5961,
      "▁يدفع": 5962,
      "خاف": 5963,
      "▁صحي": 5964,
      "▁البيضاء": 5965,
      "▁بيد": 5966,
      "ساة": 5967,
      "بدء": 5968,
      "▁رمادية": 5969,
      "عناع": 5970,
      "لحسن": 5971,
      "▁وقا": 5972,
      "▁السوداء": 5973,
      "▁الغسيل": 5974,
      "▁فريق": 5975,
      "حظى": 5976,
      "▁تقوم": 5977,
      "▁استيقظت": 5978,
      "▁كوخ": 5979,
      "▁وجعله": 5980,
      "باراة": 5981,
      "▁والجري": 5982,
      "▁أردت": 5983,
      "▁مصاب": 5984,
      "وتكرارا": 5985,
      "▁بالمرح": 5986,
      "اعت": 5987,
      "▁الدوران": 5988,
      "▁أجنحتها": 5989,
      "يخرج": 5990,
      "▁لإي": 5991,
      "▁لصديقتها": 5992,
      "▁مصممة": 5993,
      "تناول": 5994,
      "▁وسأ": 5995,
      "▁أحاول": 5996,
      "▁متا": 5997,
      "▁نعرف": 5998,
      "اختار": 5999,
      "▁أحبت": 6000,
      "▁ميمي": 6001,
      "▁اللوح": 6002,
      "▁هكذا": 6003,
      "▁بالحب": 6004,
      "▁بلدي": 6005,
      "عيون": 6006,
      "▁بحذر": 6007,
      "طرنج": 6008,
      "خرجوا": 6009,
      "▁للكلب": 6010,
      "▁فريدي": 6011,
      "▁أصنع": 6012,
      "يأتي": 6013,
      "▁ظ": 6014,
      "▁البروكلي": 6015,
      "بقار": 6016,
      "خام": 6017,
      "▁أعد": 6018,
      "▁يصلح": 6019,
      "▁كتل": 6020,
      "▁تدخل": 6021,
      "▁هل": 6022,
      "▁خاطئ": 6023,
      "ثيرا": 6024,
      "▁مريحة": 6025,
      "▁المقبض": 6026,
      "▁جذا": 6027,
      "▁وأمسكت": 6028,
      "▁صرخت": 6029,
      "▁يتحدثون": 6030,
      "حقا": 6031,
      "▁القوس": 6032,
      "نقع": 6033,
      "▁نصفين": 6034,
      "كانيكي": 6035,
      "▁تعب": 6036,
      "افح": 6037,
      "لتي": 6038,
      "▁وتدحرج": 6039,
      "▁ودخل": 6040,
      "يبتسمون": 6041,
      "▁وشاهدت": 6042,
      "▁ينام": 6043,
      "▁فارغة": 6044,
      "▁ويجعل": 6045,
      "يسحب": 6046,
      "▁مؤ": 6047,
      "▁نتشارك": 6048,
      "▁موسيقى": 6049,
      "يصنعون": 6050,
      "وجودة": 6051,
      "دمت": 6052,
      "▁هربت": 6053,
      "▁ذراع": 6054,
      "▁شقية": 6055,
      "▁مرحة": 6056,
      "▁يهت": 6057,
      "▁أعينهم": 6058,
      "▁امرأة": 6059,
      "▁عدة": 6060,
      "▁وقط": 6061,
      "قضى": 6062,
      "لكننا": 6063,
      "لقوا": 6064,
      "▁السيئة": 6065,
      "قاسم": 6066,
      "لاط": 6067,
      "▁مميزا": 6068,
      "ارتدى": 6069,
      "▁جائعا": 6070,
      "▁فوضوية": 6071,
      "▁تنتهي": 6072,
      "▁للانضمام": 6073,
      "لئة": 6074,
      "ياج": 6075,
      "▁الحرارة": 6076,
      "▁حلقة": 6077,
      "▁قرية": 6078,
      "▁الدقيق": 6079,
      "▁استخدمت": 6080,
      "▁الأدوات": 6081,
      "دعو": 6082,
      "▁تحتفظ": 6083,
      "لاث": 6084,
      "▁بألم": 6085,
      "▁الشرطي": 6086,
      "▁مقياس": 6087,
      "▁جزرة": 6088,
      "▁الأليف": 6089,
      "▁وقد": 6090,
      "التقطه": 6091,
      "▁وأخبرت": 6092,
      "▁تجربتها": 6093,
      "▁صبيا": 6094,
      "بري": 6095,
      "▁البوق": 6096,
      "▁خزان": 6097,
      "▁المبنى": 6098,
      "ئها": 6099,
      "▁ساخن": 6100,
      "▁ملابسه": 6101,
      "ناه": 6102,
      "بقوا": 6103,
      "▁ومع": 6104,
      "▁يحتفظ": 6105,
      "ستمر": 6106,
      "▁ساحرة": 6107,
      "شوا": 6108,
      "▁بون": 6109,
      "▁أظهر": 6110,
      "يبكي": 6111,
      "▁مجددا": 6112,
      "▁سك": 6113,
      "▁انزلق": 6114,
      "▁لامعا": 6115,
      "▁استطاعت": 6116,
      "شاهدتها": 6117,
      "▁مشي": 6118,
      "▁ميلادها": 6119,
      "▁البلوط": 6120,
      "▁تبع": 6121,
      "▁السعادة": 6122,
      "▁الكرات": 6123,
      "▁الكتلة": 6124,
      "فهي": 6125,
      "▁بالفرح": 6126,
      "▁يتصرف": 6127,
      "▁لصديقه": 6128,
      "▁وهاد": 6129,
      "▁رياح": 6130,
      "▁المسمار": 6131,
      "▁بطريقة": 6132,
      "▁السماح": 6133,
      "▁مرور": 6134,
      "▁ويستمتعون": 6135,
      "عاس": 6136,
      "▁اللب": 6137,
      "لوى": 6138,
      "▁أشيائ": 6139,
      "زعاج": 6140,
      "▁الأرز": 6141,
      "▁وأكلوا": 6142,
      "▁التخ": 6143,
      "افأة": 6144,
      "اعتقدوا": 6145,
      "ظاهرت": 6146,
      "لمساعدت": 6147,
      "تحدثت": 6148,
      "▁واعتقد": 6149,
      "كروفون": 6150,
      "انزلق": 6151,
      "رحلة": 6152,
      "جاح": 6153,
      "▁ودية": 6154,
      "▁الحلويات": 6155,
      "▁ويجب": 6156,
      "▁إثارة": 6157,
      "▁تفكر": 6158,
      "▁للراحة": 6159,
      "▁الهلام": 6160,
      "خلع": 6161,
      "▁ويشعر": 6162,
      "تذهب": 6163,
      "▁أرجوانية": 6164,
      "▁سرطان": 6165,
      "▁أحضر": 6166,
      "رتنا": 6167,
      "▁تعزف": 6168,
      "▁مرات": 6169,
      "▁النجمة": 6170,
      "▁غامض": 6171,
      "كمة": 6172,
      "حيد": 6173,
      "▁الظهر": 6174,
      "▁الأوزة": 6175,
      "▁القاع": 6176,
      "▁وجود": 6177,
      "اختارت": 6178,
      "▁ولاحظت": 6179,
      "▁تسمح": 6180,
      "▁ويبدو": 6181,
      "▁مشوش": 6182,
      "▁الحارس": 6183,
      "▁للف": 6184,
      "▁القواعد": 6185,
      "▁وسألته": 6186,
      "ارق": 6187,
      "جام": 6188,
      "▁الأرانب": 6189,
      "▁وعائلته": 6190,
      "▁جافة": 6191,
      "▁ينمو": 6192,
      "▁الفطر": 6193,
      "▁الغزال": 6194,
      "قصى": 6195,
      "▁بعرائسها": 6196,
      "▁الفصل": 6197,
      "▁وأخيرا": 6198,
      "▁تيد": 6199,
      "▁تصرخ": 6200,
      "▁الفراشات": 6201,
      "▁وفر": 6202,
      "▁بيديه": 6203,
      "▁واستمروا": 6204,
      "▁والرقص": 6205,
      "▁خدع": 6206,
      "▁كلي": 6207,
      "▁الزحف": 6208,
      "▁الكمثرى": 6209,
      "▁للتو": 6210,
      "▁والحليب": 6211,
      "▁وشرب": 6212,
      "ئه": 6213,
      "▁المنحدر": 6214,
      "مهلا": 6215,
      "سنت": 6216,
      "ابعة": 6217,
      "▁البيضة": 6218,
      "▁الغرب": 6219,
      "▁الشاشة": 6220,
      "▁أولاد": 6221,
      "▁تتدحرج": 6222,
      "▁القراصنة": 6223,
      "▁تخاف": 6224,
      "شارة": 6225,
      "اسم": 6226,
      "▁عشاء": 6227,
      "▁ذاهبون": 6228,
      "▁وأصبحوا": 6229,
      "▁ويأخذ": 6230,
      "▁وضعها": 6231,
      "▁لعيد": 6232,
      "▁ركب": 6233,
      "▁حزام": 6234,
      "▁للاستمتاع": 6235,
      "نديل": 6236,
      "▁القصر": 6237,
      "▁بالدمى": 6238,
      "▁القلادة": 6239,
      "▁بمساعدة": 6240,
      "▁يجيب": 6241,
      "▁مصنوع": 6242,
      "▁السحلية": 6243,
      "▁بالضبط": 6244,
      "الدب": 6245,
      "لنلعب": 6246,
      "▁الشرفة": 6247,
      "▁ويأكل": 6248,
      "▁لحما": 6249,
      "▁الصحي": 6250,
      "▁السقوط": 6251,
      "▁انها": 6252,
      "▁ماء": 6253,
      "وهذه": 6254,
      "▁بقرة": 6255,
      "سار": 6256,
      "▁المزهرية": 6257,
      "▁للعشاء": 6258,
      "▁والداه": 6259,
      "▁السحاب": 6260,
      "ناوبون": 6261,
      "يله": 6262,
      "يغ": 6263,
      "ذيذا": 6264,
      "▁طلبا": 6265,
      "زززز": 6266,
      "فظت": 6267,
      "رفعت": 6268,
      "رع": 6269,
      "راف": 6270,
      "▁وقامت": 6271,
      "▁وأعطاه": 6272,
      "صيب": 6273,
      "▁عملاق": 6274,
      "▁يحلم": 6275,
      "عشاب": 6276,
      "▁جيمس": 6277,
      "▁أسبوع": 6278,
      "▁طب": 6279,
      "▁الخريطة": 6280,
      "▁المصعد": 6281,
      "▁طعمه": 6282,
      "▁أغاني": 6283,
      "▁رائحتها": 6284,
      "رأتها": 6285,
      "ينها": 6286,
      "▁تحتوي": 6287,
      "؟\".": 6288,
      "سأله": 6289,
      "▁وطارت": 6290,
      "▁المتحف": 6291,
      "▁إعطاء": 6292,
      "▁فضوليين": 6293,
      "ضون": 6294,
      "▁أيدي": 6295,
      "▁يجعله": 6296,
      "▁قوة": 6297,
      "قالة": 6298,
      "▁طريقهم": 6299,
      "همس": 6300,
      "▁تجري": 6301,
      "▁عربة": 6302,
      "▁التمثال": 6303,
      "▁دفتر": 6304,
      "▁ولعبت": 6305,
      "▁ينا": 6306,
      "أتون": 6307,
      "▁اضطر": 6308,
      "لما": 6309,
      "▁موا": 6310,
      "يستخدم": 6311,
      "▁تطبخ": 6312,
      "راقصة": 6313,
      "▁دعونا": 6314,
      "ميز": 6315,
      "▁القطط": 6316,
      "▁أكله": 6317,
      "▁توأمان": 6318,
      "▁الكتابة": 6319,
      "تبكي": 6320,
      "▁المشكلة": 6321,
      "▁الكنيسة": 6322,
      "▁مطي": 6323,
      "▁متوت": 6324,
      "▁الملاك": 6325,
      "▁للمنزل": 6326,
      "▁أخبر": 6327,
      "▁يأخذها": 6328,
      "▁يحتوي": 6329,
      "▁رخ": 6330,
      "▁لجعلها": 6331,
      "▁بأقصى": 6332,
      "وذهب": 6333,
      "صفقون": 6334,
      "▁الجذع": 6335,
      "▁المنز": 6336,
      "غطت": 6337,
      "▁سوى": 6338,
      "تضحك": 6339,
      "ساعده": 6340,
      "▁الما": 6341,
      "▁جديدا": 6342,
      "▁البطاقة": 6343,
      "▁وربط": 6344,
      "▁وبقي": 6345,
      "▁مبنى": 6346,
      "▁لتنظيف": 6347,
      "▁والشمس": 6348,
      "ضيف": 6349,
      "أعطتهم": 6350,
      "▁لتعلم": 6351,
      "باللعب": 6352,
      "سمكة": 6353,
      "▁الفراء": 6354,
      "ويجب": 6355,
      "▁فطيرة": 6356,
      "▁أخلاق": 6357,
      "▁البرق": 6358,
      "▁واشت": 6359,
      "▁والاستكشاف": 6360,
      "▁وسادة": 6361,
      "▁حبوب": 6362,
      "فكار": 6363,
      "▁السيئ": 6364,
      "▁ناعما": 6365,
      "▁فوقها": 6366,
      "هول": 6367,
      "▁رحلته": 6368,
      "شاكل": 6369,
      "▁بعيون": 6370,
      "▁ليسوا": 6371,
      "عادته": 6372,
      "▁دافئا": 6373,
      "سنكون": 6374,
      "صع": 6375,
      "▁لجمع": 6376,
      "▁قادر": 6377,
      "▁سرعة": 6378,
      "ليم": 6379,
      "فون": 6380,
      "▁بتح": 6381,
      "▁التربة": 6382,
      "▁الخوف": 6383,
      "▁قاله": 6384,
      "▁صفقوا": 6385,
      "▁متواضع": 6386,
      "▁عملت": 6387,
      "ماد": 6388,
      "▁كرتي": 6389,
      "فضول": 6390,
      "انحنى": 6391,
      "▁يضرب": 6392,
      "▁كلارا": 6393,
      "غيث": 6394,
      "▁ووالده": 6395,
      "▁يساعده": 6396,
      "▁ورسم": 6397,
      "اته": 6398,
      "▁مسدس": 6399,
      "▁بطل": 6400,
      "▁منزلي": 6401,
      "▁للج": 6402,
      "فسي": 6403,
      "▁الأغنام": 6404,
      "راقا": 6405,
      "▁يلقي": 6406,
      "▁التوازن": 6407,
      "▁الهوكي": 6408,
      "▁تفعلون": 6409,
      "▁سيحدث": 6410,
      "▁مختلفا": 6411,
      "▁عجلات": 6412,
      "▁وسعداء": 6413,
      "▁الحار": 6414,
      "▁الحفاظ": 6415,
      "وبرا": 6416,
      "زالة": 6417,
      "▁النقانق": 6418,
      "▁لعد": 6419,
      "▁يختبئ": 6420,
      "لسوء": 6421,
      "جيدا": 6422,
      "▁الغوريلا": 6423,
      "▁صغي": 6424,
      "لإ": 6425,
      "▁والل": 6426,
      "▁وحده": 6427,
      "▁الدجاج": 6428,
      "▁فخورون": 6429,
      "▁أذك": 6430,
      "▁ووج": 6431,
      "حلم": 6432,
      "▁يتشاجران": 6433,
      "بتعد": 6434,
      "▁أحببت": 6435,
      "▁وأغلقت": 6436,
      "▁مبل": 6437,
      "▁تقف": 6438,
      "ختيار": 6439,
      "▁نم": 6440,
      "▁كله": 6441,
      "▁فعلته": 6442,
      "▁الوس": 6443,
      "▁البقر": 6444,
      "▁البائع": 6445,
      "▁اكتشف": 6446,
      "يظهر": 6447,
      "▁تعتذر": 6448,
      "جمد": 6449,
      "▁للإعجاب": 6450,
      "فقودة": 6451,
      "▁وغاضبة": 6452,
      "▁الملح": 6453,
      "▁ونظ": 6454,
      "حبة": 6455,
      "زها": 6456,
      "جرو": 6457,
      "▁واض": 6458,
      "▁فعلوا": 6459,
      "▁والشاحنات": 6460,
      "▁كاي": 6461,
      "يعانقون": 6462,
      "▁أشخاص": 6463,
      "▁حياتها": 6464,
      "▁رقص": 6465,
      "باه": 6466,
      "ديدان": 6467,
      "▁يترك": 6468,
      "سير": 6469,
      "▁الأرقام": 6470,
      "كتبت": 6471,
      "هدوء": 6472,
      "ولو": 6473,
      "▁نبات": 6474,
      "وعا": 6475,
      "سيارة": 6476,
      "▁عشرة": 6477,
      "▁إيا": 6478,
      "ؤيتهم": 6479,
      "▁وتضحك": 6480,
      "▁فاخرة": 6481,
      "▁وعدت": 6482,
      "▁الزاهية": 6483,
      "▁أزهار": 6484,
      "▁والأسماك": 6485,
      "▁المشمس": 6486,
      "▁والأسف": 6487,
      "▁وز": 6488,
      "▁فروه": 6489,
      "▁الصن": 6490,
      "▁ويريد": 6491,
      "▁مكانه": 6492,
      "▁ممتنا": 6493,
      "ينظران": 6494,
      "أود": 6495,
      "▁سمين": 6496,
      "▁مغامرته": 6497,
      "▁نقوم": 6498,
      "▁للتأكد": 6499,
      "راجع": 6500,
      "لبس": 6501,
      "▁مقبض": 6502,
      "▁النفق": 6503,
      "▁الصنوبر": 6504,
      "▁دايزي": 6505,
      "▁الميزان": 6506,
      "▁السري": 6507,
      "فهمت": 6508,
      "ذة": 6509,
      "▁مفتوح": 6510,
      "▁وضحكت": 6511,
      "▁نأخذ": 6512,
      "▁تغرب": 6513,
      "▁الإعصار": 6514,
      "▁زال": 6515,
      "قاعة": 6516,
      "▁الله": 6517,
      "وقررت": 6518,
      "▁يبدأ": 6519,
      "▁والقط": 6520,
      "▁تحبه": 6521,
      "سبول": 6522,
      "▁الجوز": 6523,
      "▁تدفع": 6524,
      "▁السكين": 6525,
      "▁الأغنية": 6526,
      "▁منازل": 6527,
      "▁سبا": 6528,
      "▁للصبي": 6529,
      "▁الراديو": 6530,
      "▁موجة": 6531,
      "▁وفكرت": 6532,
      "راجات": 6533,
      "▁قاع": 6534,
      "امبو": 6535,
      "▁ساعة": 6536,
      "▁الزجاج": 6537,
      "▁هادئين": 6538,
      "▁جهاز": 6539,
      "▁حارة": 6540,
      "▁بالشمس": 6541,
      "▁وتشعر": 6542,
      "ذيل": 6543,
      "▁عمتها": 6544,
      "▁أذن": 6545,
      "▁متعبين": 6546,
      "▁الإطار": 6547,
      "▁تكتب": 6548,
      "علبة": 6549,
      "▁والغناء": 6550,
      "▁يدخل": 6551,
      "عطس": 6552,
      "شوة": 6553,
      "▁صديقتي": 6554,
      "▁أرجوحة": 6555,
      "قلة": 6556,
      "صى": 6557,
      "▁الديناصور": 6558,
      "▁إطلاق": 6559,
      "▁القرع": 6560,
      "▁خلفه": 6561,
      "دفق": 6562,
      "▁كرات": 6563,
      "وتي": 6564,
      "▁أبعد": 6565,
      "تمكنت": 6566,
      "▁وجلست": 6567,
      "▁السحر": 6568,
      "▁واعتقدت": 6569,
      "▁ولها": 6570,
      "▁الأولى": 6571,
      "▁الحريق": 6572,
      "يأخذون": 6573,
      "يأكل": 6574,
      "▁والاستمتاع": 6575,
      "▁ملصق": 6576,
      "▁أكلها": 6577,
      "▁لجعله": 6578,
      "خار": 6579,
      "▁أكلت": 6580,
      "بيط": 6581,
      "▁واستمتع": 6582,
      "▁درسه": 6583,
      "عانقتهم": 6584,
      "شاهدته": 6585,
      "▁مشهور": 6586,
      "▁الأسبوع": 6587,
      "حن": 6588,
      "▁القوي": 6589,
      "▁مصنوعة": 6590,
      "▁أموال": 6591,
      "▁روب": 6592,
      "▁إصدار": 6593,
      "▁القا": 6594,
      "▁فوقه": 6595,
      "▁جم": 6596,
      "▁روزي": 6597,
      "▁توني": 6598,
      "▁يقضي": 6599,
      "▁حقائبهم": 6600,
      "▁الباندا": 6601,
      "▁صاخبا": 6602,
      "امتنان": 6603,
      "▁بقط": 6604,
      "▁بعدها": 6605,
      "▁استعارة": 6606,
      "▁الخش": 6607,
      "▁الدائ": 6608,
      "تيهما": 6609,
      "▁المحار": 6610,
      "جيمي": 6611,
      "▁والتأرجح": 6612,
      "استمتعوا": 6613,
      "أعطاه": 6614,
      "▁المكسرات": 6615,
      "ورأى": 6616,
      "زير": 6617,
      "▁إلا": 6618,
      "▁صفارة": 6619,
      "سألوا": 6620,
      "▁بالنعاس": 6621,
      "وغاض": 6622,
      "▁تخبز": 6623,
      "▁التقطت": 6624,
      "وجدتا": 6625,
      "▁دودة": 6626,
      "ضعه": 6627,
      "▁ربطة": 6628,
      "▁أنبوب": 6629,
      "▁فكر": 6630,
      "▁للناس": 6631,
      "▁الأسرة": 6632,
      "▁الأبقار": 6633,
      "رش": 6634,
      "▁الفكرة": 6635,
      "▁يقولون": 6636,
      "يساعد": 6637,
      "▁كف": 6638,
      "▁الربيع": 6639,
      "▁كار": 6640,
      "▁التونة": 6641,
      "▁قذرا": 6642,
      "▁فراش": 6643,
      "جه": 6644,
      "▁الرياضيات": 6645,
      "▁ورش": 6646,
      "إذهب": 6647,
      "▁صديقتين": 6648,
      "▁والحشرات": 6649,
      "▁وصول": 6650,
      "▁استمعت": 6651,
      "رائحة": 6652,
      "يبدأون": 6653,
      "▁توازن": 6654,
      "ظروف": 6655,
      "▁التالية": 6656,
      "خورة": 6657,
      "▁إشراقا": 6658,
      "حات": 6659,
      "▁قراء": 6660,
      "▁أعطتها": 6661,
      "▁وعلم": 6662,
      "يقا": 6663,
      "▁الحقول": 6664,
      "لوب": 6665,
      "▁لأي": 6666,
      "▁شريط": 6667,
      "▁يعيشون": 6668,
      "▁إظهار": 6669,
      "▁وتمكن": 6670,
      "▁بطاني": 6671,
      "▁الغريبة": 6672,
      "وعليك": 6673,
      "▁الطقس": 6674,
      "سمعا": 6675,
      "▁بتناول": 6676,
      "ميك": 6677,
      "▁إحضار": 6678,
      "▁والبط": 6679,
      "▁الفجل": 6680,
      "▁يص": 6681,
      "▁خطوة": 6682,
      "▁محرك": 6683,
      "▁ومر": 6684,
      "وبعد": 6685,
      "▁الخنفساء": 6686,
      "منزل": 6687,
      "ذرت": 6688,
      "▁يزعج": 6689,
      "▁جيب": 6690,
      "انيات": 6691,
      "ختبأت": 6692,
      "▁البج": 6693,
      "▁بمفرده": 6694,
      "وضعته": 6695,
      "▁هبط": 6696,
      "أمها": 6697,
      "أخبرتهم": 6698,
      "▁ووضعه": 6699,
      "دفعت": 6700,
      "▁فوضوي": 6701,
      "صيف": 6702,
      "▁طعمها": 6703,
      "▁يزالون": 6704,
      "▁والنجوم": 6705,
      "▁السلطة": 6706,
      "ائمة": 6707,
      "▁الأخطبوط": 6708,
      "▁مهرج": 6709,
      "▁موه": 6710,
      "واجه": 6711,
      "أشعلت": 6712,
      "وشكر": 6713,
      "▁ويركضون": 6714,
      "▁ينتهي": 6715,
      "▁أرجواني": 6716,
      "يقطين": 6717,
      "▁بشعور": 6718,
      "▁حساء": 6719,
      "▁الارتياح": 6720,
      "فتحه": 6721,
      "▁القهوة": 6722,
      "▁جعلتها": 6723,
      "▁الرخام": 6724,
      "ابتسما": 6725,
      "▁التفاحات": 6726,
      "▁محبطة": 6727,
      "فتحوا": 6728,
      "وكوك": 6729,
      "ضنان": 6730,
      "▁الجي": 6731,
      "▁الفض": 6732,
      "▁مكانها": 6733,
      "▁ومس": 6734,
      "▁تناسب": 6735,
      "▁أولي": 6736,
      "▁الإبحار": 6737,
      "▁التلفاز": 6738,
      "▁الحكيم": 6739,
      "▁مها": 6740,
      "راع": 6741,
      "▁القوية": 6742,
      "▁الطائرات": 6743,
      "▁تري": 6744,
      "▁العناق": 6745,
      "▁المعلمة": 6746,
      "وفير": 6747,
      "▁وابن": 6748,
      "▁والعثور": 6749,
      "▁الأفوكادو": 6750,
      "▁كلبه": 6751,
      "▁المضحكة": 6752,
      "▁بأيديهم": 6753,
      "قيل": 6754,
      "وارت": 6755,
      "بدون": 6756,
      "ساعدتها": 6757,
      "▁لعدم": 6758,
      "▁صداقات": 6759,
      "جاري": 6760,
      "تجري": 6761,
      "▁عرب": 6762,
      "▁وناعمة": 6763,
      "▁ارتدا": 6764,
      "▁تصميم": 6765,
      "▁والبسكويت": 6766,
      "أسف": 6767,
      "▁تقود": 6768,
      "▁نحصل": 6769,
      "▁الأصلع": 6770,
      "لبست": 6771,
      "▁سلا": 6772,
      "ائفة": 6773,
      "▁الفحم": 6774,
      "▁ولطيفة": 6775,
      "▁الحز": 6776,
      "▁القذائف": 6777,
      "▁معطفها": 6778,
      "▁جريس": 6779,
      "▁السلك": 6780,
      "▁يعجبك": 6781,
      "▁وذ": 6782,
      "▁والآن": 6783,
      "زحلق": 6784,
      "▁مثلك": 6785,
      "ثلاثة": 6786,
      "▁العمي": 6787,
      "وجعل": 6788,
      "ليا": 6789,
      "▁سار": 6790,
      "▁الصحون": 6791,
      "▁نحتاج": 6792,
      "حاولا": 6793,
      "▁الجرذ": 6794,
      "▁بالمساعدة": 6795,
      "▁غسالة": 6796,
      "▁مستلق": 6797,
      "▁بو": 6798,
      "▁والقر": 6799,
      "▁تتصرف": 6800,
      "▁والمل": 6801,
      "رائها": 6802,
      "▁المثالية": 6803,
      "▁جواز": 6804,
      "▁الصغار": 6805,
      "قوا": 6806,
      "▁حذاء": 6807,
      "▁أخرج": 6808,
      "▁وداع": 6809,
      "▁تعطي": 6810,
      "▁اب": 6811,
      "ذهبتا": 6812,
      "▁المعج": 6813,
      "▁نارية": 6814,
      "▁شف": 6815,
      "▁إنهاء": 6816,
      "بغاء": 6817,
      "▁كأس": 6818,
      "▁نجح": 6819,
      "▁عبور": 6820,
      "▁وأظهرتها": 6821,
      "▁طيور": 6822,
      "▁الرعد": 6823,
      "▁لف": 6824,
      "▁الرائحة": 6825,
      "بمساعدة": 6826,
      "▁الخيوط": 6827,
      "▁المشاكل": 6828,
      "انتظروا": 6829,
      "▁لأعلى": 6830,
      "شخص": 6831,
      "وهوبة": 6832,
      "▁تسجيل": 6833,
      "غضبت": 6834,
      "▁الشرير": 6835,
      "▁الغزلان": 6836,
      "أولا": 6837,
      "شان": 6838,
      "قضت": 6839,
      "▁الطاحونة": 6840,
      "▁ساقه": 6841,
      "نار": 6842,
      "للت": 6843,
      "▁يخاف": 6844,
      "▁أخيها": 6845,
      "▁تنظيم": 6846,
      "▁أظهرت": 6847,
      "▁ظهرها": 6848,
      "▁وتحدثوا": 6849,
      "ديف": 6850,
      "قفزوا": 6851,
      "▁وكأن": 6852,
      "ركضتا": 6853,
      "▁العالية": 6854,
      "▁طهي": 6855,
      "دو": 6856,
      "ركل": 6857,
      "▁الدهشة": 6858,
      "▁ووافق": 6859,
      "▁الصبار": 6860,
      "▁وتغني": 6861,
      "▁تجربته": 6862,
      "فيا": 6863,
      "▁البغل": 6864,
      "▁ودودا": 6865,
      "▁شاي": 6866,
      "▁والذهاب": 6867,
      "▁والصخور": 6868,
      "▁رأيا": 6869,
      "▁مشاركتها": 6870,
      "▁وأعجب": 6871,
      "خيفا": 6872,
      "▁المقوى": 6873,
      "▁أعطت": 6874,
      "▁أعجبتها": 6875,
      "▁البرتقالي": 6876,
      "▁لج": 6877,
      "نازير": 6878,
      "عرضت": 6879,
      "▁تلمسها": 6880,
      "▁بإمكاننا": 6881,
      "أعجبتها": 6882,
      "▁لاست": 6883,
      "▁المم": 6884,
      "▁الشجيرات": 6885,
      "▁مسن": 6886,
      "▁وقضوا": 6887,
      "يارته": 6888,
      "ساعدته": 6889,
      "غبة": 6890,
      "▁قفاز": 6891,
      "▁ووعدت": 6892,
      "▁السلسلة": 6893,
      "▁فرصة": 6894,
      "بادل": 6895,
      "تبحث": 6896,
      "أردنا": 6897,
      "▁تريده": 6898,
      "▁والجبن": 6899,
      "▁فتحها": 6900,
      "▁منزعج": 6901,
      "طرت": 6902,
      "رحل": 6903,
      "▁والأرنب": 6904,
      "لعابي": 6905,
      "أص": 6906,
      "▁البقالة": 6907,
      "وذهبت": 6908,
      "▁اكتشاف": 6909,
      "قادما": 6910,
      "▁يجعلك": 6911,
      "ولعبوا": 6912,
      "▁نصيحة": 6913,
      "▁ونح": 6914,
      "▁الشطرنج": 6915,
      "▁ذاهبة": 6916,
      "▁تكبر": 6917,
      "▁أقدا": 6918,
      "▁تنام": 6919,
      "▁فوجئ": 6920,
      "رررررررر": 6921,
      "▁وغضب": 6922,
      "لطالما": 6923,
      "▁تترك": 6924,
      "▁الهروب": 6925,
      "▁الجندي": 6926,
      "دهم": 6927,
      "وقرر": 6928,
      "▁مزيد": 6929,
      "ولكنه": 6930,
      "تحدثون": 6931,
      "زق": 6932,
      "▁تبدأ": 6933,
      "▁بالذهاب": 6934,
      "▁اليوغا": 6935,
      "▁باهظة": 6936,
      "▁باستخدام": 6937,
      "▁وممتعة": 6938,
      "▁غيتار": 6939,
      "ويذة": 6940,
      "▁العمود": 6941,
      "▁بالخارج": 6942,
      "▁بالحرج": 6943,
      "▁منزلهما": 6944,
      "رائحته": 6945,
      "▁أعطته": 6946,
      "▁بجانبها": 6947,
      "▁تختفي": 6948,
      "▁ثقيلا": 6949,
      "▁تينا": 6950,
      "▁قفل": 6951,
      "▁تراه": 6952,
      "▁الطا": 6953,
      "▁وجدها": 6954,
      "▁الثلاث": 6955,
      "▁بالعصا": 6956,
      "▁وبدا": 6957,
      "ارغ": 6958,
      "▁الطب": 6959,
      "▁وست": 6960,
      "▁القرنبيط": 6961,
      "▁مكتوب": 6962,
      "يرتدي": 6963,
      "▁للدخول": 6964,
      "▁متوترة": 6965,
      "عاملات": 6966,
      "عتذروا": 6967,
      "▁قلبه": 6968,
      "تنهد": 6969,
      "▁قيمة": 6970,
      "▁مطاردة": 6971,
      "▁جيسي": 6972,
      "▁رسوما": 6973,
      "▁الساخن": 6974,
      "▁حقيبته": 6975,
      "▁الظه": 6976,
      "▁ويعانق": 6977,
      "▁يستيقظ": 6978,
      "▁الموكب": 6979,
      "ماري": 6980,
      "للاهتمام": 6981,
      "▁يراه": 6982,
      "دائه": 6983,
      "▁الروح": 6984,
      "▁لسام": 6985,
      "▁الرصيف": 6986,
      "فترض": 6987,
      "▁رؤوس": 6988,
      "▁الفيديو": 6989,
      "▁مشاعر": 6990,
      "▁قوته": 6991,
      "▁والوحدة": 6992,
      "انهم": 6993,
      "تصرخ": 6994,
      "▁خجول": 6995,
      "▁أصدقاؤه": 6996,
      "شيل": 6997,
      "القطة": 6998,
      "▁الأذن": 6999,
      "▁إخراج": 7000,
      "▁يتشاجر": 7001,
      "▁ستيف": 7002,
      "صيدة": 7003,
      "▁كتابها": 7004,
      "▁ماجي": 7005,
      "▁بالسيارات": 7006,
      "▁الصبر": 7007,
      "بض": 7008,
      "▁عزف": 7009,
      "▁ذاهبين": 7010,
      "▁يعرفا": 7011,
      "▁واستمتعت": 7012,
      "▁قميصه": 7013,
      "▁الحذاء": 7014,
      "جيد": 7015,
      "استمتعت": 7016,
      "▁المدهشة": 7017,
      "▁وأرادوا": 7018,
      "رتاح": 7019,
      "جية": 7020,
      "▁طفلا": 7021,
      "▁استطاع": 7022,
      "اثنان": 7023,
      "ؤها": 7024,
      "▁مصد": 7025,
      "▁ولن": 7026,
      "▁عميقا": 7027,
      "البا": 7028,
      "▁والض": 7029,
      "حزم": 7030,
      "▁بالزهور": 7031,
      "▁تجمع": 7032,
      "▁البحار": 7033,
      "▁تغضب": 7034,
      "▁الأسنان": 7035,
      "▁أريك": 7036,
      "يضحكان": 7037,
      "ذير": 7038,
      "▁واسعة": 7039,
      "▁يهز": 7040,
      "▁هشة": 7041,
      "▁أبحث": 7042,
      "▁تستمر": 7043,
      "▁أعطى": 7044,
      "▁تغيير": 7045,
      "▁المظلمة": 7046,
      "▁لتأكله": 7047,
      "▁المعن": 7048,
      "▁وتحطمت": 7049,
      "▁الرملية": 7050,
      "▁عو": 7051,
      "▁هدف": 7052,
      "رائحتها": 7053,
      "تلك": 7054,
      "▁الأعشاب": 7055,
      "▁نافذتها": 7056,
      "▁والحب": 7057,
      "▁يحتاجون": 7058,
      "▁مريضة": 7059,
      "▁ممارسة": 7060,
      "ائية": 7061,
      "▁الشبح": 7062,
      "ريقة": 7063,
      "نسيت": 7064,
      "مغ": 7065,
      "▁رعاية": 7066,
      "▁ووضعوا": 7067,
      "▁عالقا": 7068,
      "▁دميتك": 7069,
      "▁المخلوقات": 7070,
      "ئزر": 7071,
      "للي": 7072,
      "هوض": 7073,
      "يكل": 7074,
      "▁النجم": 7075,
      "قابلة": 7076,
      "▁وأخبرته": 7077,
      "ائعة": 7078,
      "▁المرجانية": 7079,
      "▁الفضاء": 7080,
      "جراء": 7081,
      "▁نائم": 7082,
      "بسرعة": 7083,
      "▁يومها": 7084,
      "▁وتصنع": 7085,
      "آت": 7086,
      "▁لبقية": 7087,
      "عتهم": 7088,
      "▁للتح": 7089,
      "تحان": 7090,
      "▁بالا": 7091,
      "وبعضها": 7092,
      "▁وتق": 7093,
      "▁أحبها": 7094,
      "▁الفطائر": 7095,
      "▁قضى": 7096,
      "▁كونها": 7097,
      "اتصلت": 7098,
      "بتسمة": 7099,
      "▁الأغصان": 7100,
      "▁دان": 7101,
      "▁الواقع": 7102,
      "▁المكعب": 7103,
      "▁عطلة": 7104,
      "وحا": 7105,
      "▁ودخلت": 7106,
      "▁نائما": 7107,
      "▁الصيف": 7108,
      "▁ليلعب": 7109,
      "▁آبي": 7110,
      "▁يتمتعان": 7111,
      "▁أحضرت": 7112,
      "راقبت": 7113,
      "ولطيف": 7114,
      "▁وتقفز": 7115,
      "ريرة": 7116,
      "غطية": 7117,
      "▁ركوبها": 7118,
      "▁للبقاء": 7119,
      "▁الخلية": 7120,
      "بغض": 7121,
      "▁جوز": 7122,
      "▁والسماء": 7123,
      "▁بيتسي": 7124,
      "تفكر": 7125,
      "وعاشوا": 7126,
      "طدم": 7127,
      "يشكر": 7128,
      "▁وسالي": 7129,
      "▁ويمكنه": 7130,
      "ألق": 7131,
      "▁الأضواء": 7132,
      "فذهب": 7133,
      "▁المباراة": 7134,
      "اشترت": 7135,
      "▁البني": 7136,
      "▁سوار": 7137,
      "▁وأم": 7138,
      "▁بصديق": 7139,
      "▁نحوه": 7140,
      "▁الرنة": 7141,
      "يتظاهرون": 7142,
      "سافر": 7143,
      "نبوب": 7144,
      "▁قبعتها": 7145,
      "▁أصم": 7146,
      "▁بالركض": 7147,
      "▁حرا": 7148,
      "▁بألعابهما": 7149,
      "▁لبناء": 7150,
      "▁طبيب": 7151,
      "▁المقلاة": 7152,
      "▁بصحة": 7153,
      "▁ودائما": 7154,
      "▁تكونوا": 7155,
      "ثيرة": 7156,
      "▁لبضع": 7157,
      "أعاد": 7158,
      "▁أخوها": 7159,
      "غنوا": 7160,
      "▁بدلة": 7161,
      "فعلت": 7162,
      "▁الشمعة": 7163,
      "▁الانتهاء": 7164,
      "▁التزلج": 7165,
      "▁جائعين": 7166,
      "فلوفي": 7167,
      "أعدت": 7168,
      "▁ناج": 7169,
      "يعرف": 7170,
      "▁الحوض": 7171,
      "▁السطح": 7172,
      "▁يراها": 7173,
      "▁أحمق": 7174,
      "▁إغلاق": 7175,
      "▁والنظر": 7176,
      "▁الرش": 7177,
      "ولية": 7178,
      "جلد": 7179,
      "يدفع": 7180,
      "▁القفاز": 7181,
      "يتوقف": 7182,
      "▁ضجة": 7183,
      "▁المستنقع": 7184,
      "▁الشتاء": 7185,
      "▁مذهلا": 7186,
      "لاد": 7187,
      "شعرين": 7188,
      "ئهم": 7189,
      "▁غني": 7190,
      "ظم": 7191,
      "▁يطلق": 7192,
      "▁النوافذ": 7193,
      "▁بنا": 7194,
      "▁منقار": 7195,
      "▁التوا": 7196,
      "▁رأيت": 7197,
      "بكون": 7198,
      "▁اليقطين": 7199,
      "ائن": 7200,
      "▁هزت": 7201,
      "حظات": 7202,
      "▁وبكت": 7203,
      "▁طعامه": 7204,
      "▁بأيدي": 7205,
      "▁وأسقط": 7206,
      "كتشفت": 7207,
      "▁الزواج": 7208,
      "ديزي": 7209,
      "▁الغبار": 7210,
      "▁دروس": 7211,
      "▁وتوقف": 7212,
      "▁ينزل": 7213,
      "▁غناء": 7214,
      "▁سيد": 7215,
      "بيذ": 7216,
      "▁تجده": 7217,
      "▁النهوض": 7218,
      "▁والدب": 7219,
      "▁الأحذية": 7220,
      "▁البراغيث": 7221,
      "▁سابق": 7222,
      "▁ووالدها": 7223,
      "▁أسنانه": 7224,
      "أسقطت": 7225,
      "▁طباعة": 7226,
      "حضار": 7227,
      "▁تشغيل": 7228,
      "▁أطلق": 7229,
      "▁الحمار": 7230,
      "▁خلع": 7231,
      "واستمتعوا": 7232,
      "▁مغامرتهم": 7233,
      "▁قلقين": 7234,
      "قيلة": 7235,
      "▁يرد": 7236,
      "▁يجدوا": 7237,
      "▁قوارب": 7238,
      "▁لأخ": 7239,
      "▁الشمسية": 7240,
      "▁النبات": 7241,
      "عبة": 7242,
      "▁ويضحك": 7243,
      "▁الوقود": 7244,
      "▁عملا": 7245,
      "▁قنديل": 7246,
      "وأك": 7247,
      "▁يسحب": 7248,
      "▁وقرروا": 7249,
      "▁المعنوية": 7250,
      "▁ممتنين": 7251,
      "كرر": 7252,
      "▁الحبر": 7253,
      "▁جلس": 7254,
      "▁الطباشير": 7255,
      "يلعبان": 7256,
      "وفر": 7257,
      "امعة": 7258,
      "▁أعما": 7259,
      "▁وودع": 7260,
      "▁فظيع": 7261,
      "▁وكيم": 7262,
      "▁الأنبوب": 7263,
      "▁دموعها": 7264,
      "▁لشخص": 7265,
      "غطى": 7266,
      "▁مستقلة": 7267,
      "▁تجعلها": 7268,
      "▁تسامح": 7269,
      "▁صغار": 7270,
      "هدية": 7271,
      "ألو": 7272,
      "▁وأجاب": 7273,
      "▁يعرفان": 7274,
      "▁مساعدتهم": 7275,
      "وأنت": 7276,
      "بعضها": 7277,
      "▁تفقد": 7278,
      "▁تلو": 7279,
      "زيلا": 7280,
      "أشعر": 7281,
      "يست": 7282,
      "▁شروق": 7283,
      "وكل": 7284,
      "▁والأشياء": 7285,
      "جدتي": 7286,
      "ثيان": 7287,
      "▁نار": 7288,
      "وقالوا": 7289,
      "الشجرة": 7290,
      "تاد": 7291,
      "▁ساكن": 7292,
      "▁مم": 7293,
      "▁ومد": 7294,
      "▁طائرته": 7295,
      "▁المعجنات": 7296,
      "▁البحرية": 7297,
      "▁والسكر": 7298,
      "▁البد": 7299,
      "▁يزداد": 7300,
      "▁نومه": 7301,
      "▁رأها": 7302,
      "يذهبان": 7303,
      "قلت": 7304,
      "▁إضافة": 7305,
      "الها": 7306,
      "▁مقاب": 7307,
      "▁الابتسام": 7308,
      "▁تتظاهر": 7309,
      "مينة": 7310,
      "▁وأبيهما": 7311,
      "▁بريد": 7312,
      "يش": 7313,
      "▁والبي": 7314,
      "▁أمير": 7315,
      "▁فروع": 7316,
      "▁والنباتات": 7317,
      "▁فصل": 7318,
      "▁ومريح": 7319,
      "▁فرشاة": 7320,
      "▁تدمير": 7321,
      "ريغ": 7322,
      "▁يحبه": 7323,
      "▁سياج": 7324,
      "ويم": 7325,
      "تعطي": 7326,
      "موا": 7327,
      "▁بالعمل": 7328,
      "▁والعشب": 7329,
      "▁وبحث": 7330,
      "▁يضحكان": 7331,
      "▁وبارد": 7332,
      "▁البرميل": 7333,
      "▁بالغثيان": 7334,
      "▁بجوار": 7335,
      "▁أفس": 7336,
      "أحمر": 7337,
      "▁المضحك": 7338,
      "▁رافعة": 7339,
      "▁التدريب": 7340,
      "▁وتجري": 7341,
      "▁أحدا": 7342,
      "▁الخاتم": 7343,
      "عيدها": 7344,
      "▁استعداد": 7345,
      "▁لارت": 7346,
      "يشعران": 7347,
      "▁مزيفة": 7348,
      "▁خدش": 7349,
      "▁يرفع": 7350,
      "مدد": 7351,
      "▁أنفسهم": 7352,
      "▁قبيحة": 7353,
      "▁يناسب": 7354,
      "ليست": 7355,
      "احتاج": 7356,
      "ضان": 7357,
      "سحبوا": 7358,
      "▁الطبل": 7359,
      "▁الغوص": 7360,
      "▁البيسبول": 7361,
      "▁تغيب": 7362,
      "انك": 7363,
      "▁المصنع": 7364,
      "▁أست": 7365,
      "▁جذع": 7366,
      "▁قطعت": 7367,
      "▁ساعي": 7368,
      "▁ملابسهم": 7369,
      "وكانا": 7370,
      "▁ابتسموا": 7371,
      "▁اثنين": 7372,
      "▁بإمكانك": 7373,
      "▁بجانبه": 7374,
      "طط": 7375,
      "▁يأكلون": 7376,
      "▁ورج": 7377,
      "▁تجاهل": 7378,
      "▁إخبار": 7379,
      "وام": 7380,
      "شاهدها": 7381,
      "لمست": 7382,
      "▁طفلين": 7383,
      "▁مقربين": 7384,
      "▁ويهز": 7385,
      "كيتي": 7386,
      "▁مبدعة": 7387,
      "▁وأخذوا": 7388,
      "▁متواضعة": 7389,
      "وأحيانا": 7390,
      "▁بالقفز": 7391,
      "▁الخروف": 7392,
      "صبي": 7393,
      "▁سحبها": 7394,
      "شاب": 7395,
      "مامها": 7396,
      "▁شارب": 7397,
      "▁الطهي": 7398,
      "بش": 7399,
      "سط": 7400,
      "▁مذكراتها": 7401,
      "▁جر": 7402,
      "▁الغاض": 7403,
      "▁أنانية": 7404,
      "▁حفر": 7405,
      "▁الملاحظ": 7406,
      "▁دف": 7407,
      "سيئا": 7408,
      "▁وتحاول": 7409,
      "▁البئر": 7410,
      "ثلث": 7411,
      "▁يله": 7412,
      "هتزاز": 7413,
      "▁عنق": 7414,
      "▁بصبر": 7415,
      "▁يقرأ": 7416,
      "يعانق": 7417,
      "َّ": 7418,
      "سلل": 7419,
      "ضيء": 7420,
      "وركضت": 7421,
      "▁جهده": 7422,
      "برى": 7423,
      "▁خجولا": 7424,
      "صوت": 7425,
      "▁معجب": 7426,
      "ينتظر": 7427,
      "▁وأحضر": 7428,
      "▁الإسعاف": 7429,
      "▁المذنب": 7430,
      "ثعلب": 7431,
      "▁وتذهب": 7432,
      "▁والأب": 7433,
      "▁ارتدت": 7434,
      "▁طويلا": 7435,
      "▁سفر": 7436,
      "طاقة": 7437,
      "▁إصبعه": 7438,
      "▁خريطة": 7439,
      "▁نتمكن": 7440,
      "جتماع": 7441,
      "وواصلوا": 7442,
      "▁إرسال": 7443,
      "▁والخجل": 7444,
      "▁يركب": 7445,
      "▁وأقوى": 7446,
      "▁فستانا": 7447,
      "▁البركان": 7448,
      "▁الطيار": 7449,
      "▁سويا": 7450,
      "وصيل": 7451,
      "سحبت": 7452,
      "▁وسبح": 7453,
      "متحمسة": 7454,
      "ليط": 7455,
      "▁ونظيفة": 7456,
      "▁ارتكب": 7457,
      "▁نملة": 7458,
      "استخدموا": 7459,
      "▁التج": 7460,
      "▁الغني": 7461,
      "يارات": 7462,
      "▁بالمرض": 7463,
      "▁يهتز": 7464,
      "سابيع": 7465,
      "▁غصن": 7466,
      "▁والمرح": 7467,
      "▁الطوب": 7468,
      "غف": 7469,
      "▁تريدون": 7470,
      "▁مغامرتها": 7471,
      "خلق": 7472,
      "يتعلمون": 7473,
      "▁أنهت": 7474,
      "▁المهرجان": 7475,
      "▁بيديها": 7476,
      "▁المسدس": 7477,
      "▁الخلف": 7478,
      "▁المروحة": 7479,
      "▁معنى": 7480,
      "▁قراصنة": 7481,
      "ألقى": 7482,
      "▁الساحر": 7483,
      "▁زهور": 7484,
      "▁الباردة": 7485,
      "لاستيك": 7486,
      "يركضان": 7487,
      "طور": 7488,
      "عدون": 7489,
      "▁إيذائ": 7490,
      "اضي": 7491,
      "▁المشمسة": 7492,
      "▁تتجول": 7493,
      "اختفى": 7494,
      "▁أشجار": 7495,
      "نيات": 7496,
      "▁الذهب": 7497,
      "▁بالتحسن": 7498,
      "▁الأولاد": 7499,
      "تبعت": 7500,
      "▁تب": 7501,
      "▁فتحة": 7502,
      "▁الكاميرا": 7503,
      "▁الجيدة": 7504,
      "▁قيادة": 7505,
      "▁يتسابق": 7506,
      "فلي": 7507,
      "▁تصل": 7508,
      "قرص": 7509,
      "اقترحت": 7510,
      "وسوف": 7511,
      "سمعان": 7512,
      "▁الحارة": 7513,
      "انون": 7514,
      "▁النسر": 7515,
      "▁ويل": 7516,
      "▁أصبحوا": 7517,
      "دوير": 7518,
      "▁نمر": 7519,
      "وقامت": 7520,
      "فاجآت": 7521,
      "مشيرة": 7522,
      "ناصورات": 7523,
      "شاركت": 7524,
      "▁قصير": 7525,
      "زياء": 7526,
      "▁ومساعدة": 7527,
      "مبدأ": 7528,
      "▁برك": 7529,
      "اللعب": 7530,
      "▁ويعانقون": 7531,
      "ودين": 7532,
      "بير": 7533,
      "▁الرومي": 7534,
      "ولوح": 7535,
      "▁روبوت": 7536,
      "▁الأثاث": 7537,
      "ضايق": 7538,
      "▁محطة": 7539,
      "▁المرحاض": 7540,
      "▁هش": 7541,
      "حتفال": 7542,
      "▁وأكلت": 7543,
      "▁بصنع": 7544,
      "▁نكتة": 7545,
      "▁تجعله": 7546,
      "▁ملعب": 7547,
      "▁الناي": 7548,
      "▁أمني": 7549,
      "طاة": 7550,
      "همست": 7551,
      "▁نظروا": 7552,
      "▁لتوم": 7553,
      "▁وتعانق": 7554,
      "▁والألوان": 7555,
      "▁برؤية": 7556,
      "▁فاخر": 7557,
      "▁الفخ": 7558,
      "▁أعماق": 7559,
      "▁ارتك": 7560,
      "غادرت": 7561,
      "▁الفروع": 7562,
      "طعمة": 7563,
      "لطيفا": 7564,
      "▁المطعم": 7565,
      "▁يستمعوا": 7566,
      "▁إله": 7567,
      "▁محرج": 7568,
      "▁عملها": 7569,
      "▁جلب": 7570,
      "▁يشبه": 7571,
      "▁صبورا": 7572,
      "▁لإيجاد": 7573,
      "فلافي": 7574,
      "آيس": 7575,
      "▁شق": 7576,
      "أخضر": 7577,
      "▁خيط": 7578,
      "▁وذيل": 7579,
      "▁التعلم": 7580,
      "أحسنت": 7581,
      "▁يرغبوا": 7582,
      "▁أجنحته": 7583,
      "يط": 7584,
      "▁دعوة": 7585,
      "▁بقدر": 7586,
      "راد": 7587,
      "▁خنزير": 7588,
      "▁جهدها": 7589,
      "رائط": 7590,
      "▁والديهم": 7591,
      "▁الشجار": 7592,
      "سأذهب": 7593,
      "▁لمحاولة": 7594,
      "لاتها": 7595,
      "▁أنفها": 7596,
      "▁البجعة": 7597,
      "▁يهم": 7598,
      "حاب": 7599,
      "▁موز": 7600,
      "▁الببغاء": 7601,
      "▁وملابس": 7602,
      "▁تستيقظ": 7603,
      "▁مفضلة": 7604,
      "▁وأر": 7605,
      "ساعدا": 7606,
      "▁مرتاحة": 7607,
      "▁الهيكل": 7608,
      "ينبح": 7609,
      "▁وقحا": 7610,
      "▁الموسيق": 7611,
      "▁دمى": 7612,
      "▁ماما": 7613,
      "▁سماء": 7614,
      "▁تساعده": 7615,
      "▁واله": 7616,
      "وأخذ": 7617,
      "▁إميلي": 7618,
      "▁وانتظروا": 7619,
      "▁الرقم": 7620,
      "▁يعطي": 7621,
      "ليكوب": 7622,
      "▁بيب": 7623,
      "ظهرته": 7624,
      "▁الكرمة": 7625,
      "▁فارس": 7626,
      "ظري": 7627,
      "▁صوتها": 7628,
      "الشمس": 7629,
      "▁كيم": 7630,
      "▁ندخل": 7631,
      "▁إلهي": 7632,
      "▁البع": 7633,
      "▁الشعاب": 7634,
      "▁تلمسه": 7635,
      "▁وشارك": 7636,
      "▁مخا": 7637,
      "صعدت": 7638,
      "بيبتي": 7639,
      "▁وتع": 7640,
      "▁الرياضة": 7641,
      "▁المجوهرات": 7642,
      "انتهى": 7643,
      "▁الكمان": 7644,
      "▁مقرب": 7645,
      "▁المرور": 7646,
      "ليكوبتر": 7647,
      "▁تجلب": 7648,
      "▁كهذه": 7649,
      "▁صدر": 7650,
      "▁ابتسا": 7651,
      "ديا": 7652,
      "▁يجدها": 7653,
      "▁كلبها": 7654,
      "▁رؤوسهم": 7655,
      "طفة": 7656,
      "▁الذبابة": 7657,
      "▁ليت": 7658,
      "▁والخضروات": 7659,
      "▁مدروس": 7660,
      "▁نحوها": 7661,
      "▁الحقيقي": 7662,
      "▁ومعرفة": 7663,
      "▁وأخرجت": 7664,
      "▁وو": 7665,
      "▁تنس": 7666,
      "ناسبة": 7667,
      "▁أذكياء": 7668,
      "▁زلاجة": 7669,
      "▁معطفه": 7670,
      "▁الميكانيكي": 7671,
      "لديهما": 7672,
      "▁المعدنية": 7673,
      "الفتاة": 7674,
      "▁بائ": 7675,
      "▁للغ": 7676,
      "مشيرا": 7677,
      "▁الفاخرة": 7678,
      "▁نوعها": 7679,
      "▁مشاكل": 7680,
      "▁الفندق": 7681,
      "▁أداة": 7682,
      "▁جبل": 7683,
      "▁فقير": 7684,
      "ندقية": 7685,
      "▁سحر": 7686,
      "▁المقابل": 7687,
      "▁الأمان": 7688,
      "▁وأجابت": 7689,
      "▁الضغط": 7690,
      "▁الأليفة": 7691,
      "▁تحرك": 7692,
      "▁البطريق": 7693,
      "▁مزهرية": 7694,
      "▁بتنظيف": 7695,
      "▁تلاحظ": 7696,
      "جنح": 7697,
      "▁يطارد": 7698,
      "بالون": 7699,
      "▁وشاهدوا": 7700,
      "▁قطتها": 7701,
      "▁ويقفزون": 7702,
      "▁رومي": 7703,
      "▁وشع": 7704,
      "يحاولون": 7705,
      "▁عدلا": 7706,
      "▁حظيت": 7707,
      "▁براون": 7708,
      "▁تحقيق": 7709,
      "▁رحلتهم": 7710,
      "ؤذ": 7711,
      "▁وأومأ": 7712,
      "▁المريح": 7713,
      "▁ليزي": 7714,
      "حد": 7715,
      "▁بيوم": 7716,
      "▁للتحقق": 7717,
      "▁الدلفين": 7718,
      "▁المحا": 7719,
      "▁عملوا": 7720,
      "en": 7721,
      "▁هدي": 7722,
      "▁السرعة": 7723,
      "▁المتاهة": 7724,
      "▁شوك": 7725,
      "ثاؤ": 7726,
      "الغ": 7727,
      "▁السفلي": 7728,
      "▁الأوبرا": 7729,
      "ساتين": 7730,
      "▁المعدن": 7731,
      "▁لتكون": 7732,
      "للذهاب": 7733,
      "▁وأخرج": 7734,
      "▁بالجوع": 7735,
      "▁الدراجات": 7736,
      "▁سهلا": 7737,
      "▁اقت": 7738,
      "يقومون": 7739,
      "ولت": 7740,
      "▁ومخيفة": 7741,
      "▁الكبرى": 7742,
      "▁خلية": 7743,
      "بيلا": 7744,
      "▁يفعلوا": 7745,
      "▁لذا": 7746,
      "▁معلقة": 7747,
      "▁ورفع": 7748,
      "يعودون": 7749,
      "▁شجاعين": 7750,
      "▁بنفسك": 7751,
      "▁أبراج": 7752,
      "بوبي": 7753,
      "▁ويضحكان": 7754,
      "طابقة": 7755,
      "▁قررا": 7756,
      "ران": 7757,
      "▁ترتعش": 7758,
      "فف": 7759,
      "بداخله": 7760,
      "▁حماية": 7761,
      "▁بيتزا": 7762,
      "it": 7763,
      "يصل": 7764,
      "▁وعرف": 7765,
      "جمو": 7766,
      "▁جاف": 7767,
      "▁الإبرة": 7768,
      "فقود": 7769,
      "▁اكتسب": 7770,
      "▁النزهة": 7771,
      "▁وأزرق": 7772,
      "▁منظمة": 7773,
      "▁ينزلق": 7774,
      "▁فريدة": 7775,
      "▁العادية": 7776,
      "▁والآخر": 7777,
      "جمعت": 7778,
      "▁كونه": 7779,
      "▁النعناع": 7780,
      "مشوا": 7781,
      "▁المعبد": 7782,
      "جيني": 7783,
      "▁القلق": 7784,
      "▁المنزلية": 7785,
      "▁المنظر": 7786,
      "▁مشوشة": 7787,
      "▁تكسر": 7788,
      "▁إبقاء": 7789,
      "▁درج": 7790,
      "▁قفزوا": 7791,
      "▁إزعاج": 7792,
      "▁ذراعيه": 7793,
      "▁تزيين": 7794,
      "▁وجده": 7795,
      "نعت": 7796,
      "▁لكونهم": 7797,
      "▁تمساح": 7798,
      "▁ذكر": 7799,
      "نبح": 7800,
      "▁وظيفة": 7801,
      "ليئة": 7802,
      "▁فحص": 7803,
      "فظة": 7804,
      "▁وينظرون": 7805,
      "▁زوي": 7806,
      "لاجات": 7807,
      "حوم": 7808,
      "▁ودودة": 7809,
      "▁موهوبة": 7810,
      "خنا": 7811,
      "▁أعطاها": 7812,
      "وقعت": 7813,
      "▁بعملها": 7814,
      "ذاذ": 7815,
      "▁ودافئ": 7816,
      "حيدة": 7817,
      "▁وكانا": 7818,
      "▁تلتقطها": 7819,
      "▁بالتوتر": 7820,
      "اكتشف": 7821,
      "▁سترتها": 7822,
      "وذهبوا": 7823,
      "حوا": 7824,
      "يحتضنان": 7825,
      "▁نادر": 7826,
      "يحتاج": 7827,
      "شاهده": 7828,
      "باني": 7829,
      "▁الجاز": 7830,
      "▁فلو": 7831,
      "▁غي": 7832,
      "▁متوهجة": 7833,
      "يلهون": 7834,
      "▁حركة": 7835,
      "زرع": 7836,
      "▁إلينا": 7837,
      "▁بتق": 7838,
      "ضمن": 7839,
      "▁مستاءة": 7840,
      "▁المجا": 7841,
      "▁قدمها": 7842,
      "صبع": 7843,
      "▁السجن": 7844,
      "ويحب": 7845,
      "▁سحاب": 7846,
      "وهما": 7847,
      "▁وبدأا": 7848,
      "▁بطنه": 7849,
      "قاذه": 7850,
      "▁الصفحة": 7851,
      "قيس": 7852,
      "سلت": 7853,
      "▁ويبدأ": 7854,
      "غباء": 7855,
      "صال": 7856,
      "وربما": 7857,
      "▁الخلاط": 7858,
      "▁ويستمتع": 7859,
      "▁رقم": 7860,
      "▁والكرة": 7861,
      "▁يستطي": 7862,
      "أضاءت": 7863,
      "▁نأكل": 7864,
      "▁الإجابة": 7865,
      "▁المحطة": 7866,
      "▁حد": 7867,
      "▁جزيرة": 7868,
      "itt": 7869,
      "▁ديناصور": 7870,
      "عفن": 7871,
      "▁وأحذي": 7872,
      "ومئ": 7873,
      "▁وعيون": 7874,
      "رتكب": 7875,
      "▁وحاولوا": 7876,
      "ركون": 7877,
      "اصطدمت": 7878,
      "▁يرغبون": 7879,
      "اسمه": 7880,
      "نيا": 7881,
      "فسوف": 7882,
      "▁أعتقد": 7883,
      "▁الشموع": 7884,
      "▁القذرة": 7885,
      "▁والمزيد": 7886,
      "يعطي": 7887,
      "▁يجري": 7888,
      "▁ترتفع": 7889,
      "▁التأكد": 7890,
      "▁المدخنة": 7891,
      "▁أسما": 7892,
      "▁الملف": 7893,
      "▁مطعم": 7894,
      "▁يعتني": 7895,
      "▁بالكاد": 7896,
      "نحني": 7897,
      "لأنهم": 7898,
      "شعة": 7899,
      "▁البطل": 7900,
      "▁حامض": 7901,
      "▁وشكروا": 7902,
      "▁ينتظرون": 7903,
      "▁ترفع": 7904,
      "▁ذكيا": 7905,
      "خاش": 7906,
      "أصاب": 7907,
      "غنت": 7908,
      "▁الحذر": 7909,
      "▁ضفاف": 7910,
      "▁والصبي": 7911,
      "▁الغيوم": 7912,
      "▁ونسي": 7913,
      "▁أمامه": 7914,
      "▁محبط": 7915,
      "تمسك": 7916,
      "▁الوردة": 7917,
      "▁غادر": 7918,
      "▁مشعر": 7919,
      "▁مدينة": 7920,
      "▁العلبة": 7921,
      "▁وتجعل": 7922,
      "▁حلمها": 7923,
      "▁مشهورة": 7924,
      "▁والأطفال": 7925,
      "أعدها": 7926,
      "▁المركز": 7927,
      "▁سترته": 7928,
      "▁المهمة": 7929,
      "▁صادقة": 7930,
      "ولكنني": 7931,
      "▁أربع": 7932,
      "▁غريبا": 7933,
      "▁نجم": 7934,
      "▁الصينية": 7935,
      "غمز": 7936,
      "▁الأخيرة": 7937,
      "زرقاء": 7938,
      "ثاؤب": 7939,
      "▁السهل": 7940,
      "▁الجيب": 7941,
      "▁تهز": 7942,
      "▁إزالة": 7943,
      "▁منزلا": 7944,
      "ورب": 7945,
      "▁بعيني": 7946,
      "▁الإنذار": 7947,
      "▁بالوداع": 7948,
      "▁قضت": 7949,
      "▁مخفي": 7950,
      "▁مزيف": 7951,
      "واستمر": 7952,
      "قيما": 7953,
      "يعتقدان": 7954,
      "▁الشامبو": 7955,
      "▁واستخدم": 7956,
      "itten": 7957,
      "▁الكبار": 7958,
      "▁تحتها": 7959,
      "تعثرت": 7960,
      "ittens": 7961,
      "طاق": 7962,
      "▁يستطيعوا": 7963,
      "Mittens": 7964,
      "▁الآمن": 7965,
      "▁البرتقالية": 7966,
      "شاركان": 7967,
      "▁يذوب": 7968,
      "▁ملأ": 7969,
      "▁حامضة": 7970,
      "▁قاب": 7971,
      "▁عنيدة": 7972,
      "▁ساع": 7973,
      "▁جلي": 7974,
      "ذاق": 7975,
      "▁بعضكم": 7976,
      "باع": 7977,
      "▁ومدت": 7978,
      "دائها": 7979,
      "▁وتشارك": 7980,
      "▁ساحر": 7981,
      "▁للآخرين": 7982,
      "▁مخال": 7983,
      "▁لعائلتها": 7984,
      "نونة": 7985,
      "▁راشيل": 7986,
      "▁يشاهدان": 7987,
      "يأملون": 7988,
      "وادث": 7989,
      "عامل": 7990,
      "▁ويجد": 7991,
      "▁ستح": 7992,
      "▁وسار": 7993,
      "▁ممتلئ": 7994,
      "▁يسمعون": 7995,
      "▁نمت": 7996,
      "▁وبكيت": 7997,
      "▁وإي": 7998,
      "وماس": 7999,
      "لليلي": 8000,
      "▁وفجأة": 8001,
      "▁زالوا": 8002,
      "شجرة": 8003,
      "ألا": 8004,
      "طاطية": 8005,
      "▁نبقى": 8006,
      "▁سمك": 8007,
      "وإلا": 8008,
      "نعثر": 8009,
      "▁للس": 8010,
      "شجع": 8011,
      "▁دائرية": 8012,
      "▁بالعجز": 8013,
      "وأحب": 8014,
      "▁الصفحات": 8015,
      "▁يشعران": 8016,
      "سقاط": 8017,
      "▁العلامة": 8018,
      "▁البطات": 8019,
      "▁يقل": 8020,
      "راقبها": 8021,
      "نتهم": 8022,
      "وبها": 8023,
      "لافين": 8024,
      "▁العنا": 8025,
      "▁آكل": 8026,
      "▁لحظة": 8027,
      "▁قبيح": 8028,
      "▁القطارات": 8029,
      "قطعت": 8030,
      "▁أمك": 8031,
      "خيلت": 8032,
      "دك": 8033,
      "▁خيمة": 8034,
      "يطلب": 8035,
      "▁التاج": 8036,
      "▁باز": 8037,
      "▁وتسقط": 8038,
      "▁المفت": 8039,
      "▁مساحة": 8040,
      "▁الشطيرة": 8041,
      "الخ": 8042,
      "▁رصد": 8043,
      "ؤذيك": 8044,
      "▁تنضم": 8045,
      "▁ملء": 8046,
      "▁يجمع": 8047,
      "▁جل": 8048,
      "▁تشير": 8049,
      "▁موثوقة": 8050,
      "▁إبدا": 8051,
      "▁جميعهم": 8052,
      "▁مهذب": 8053,
      "أرى": 8054,
      "▁ملف": 8055,
      "▁الأق": 8056,
      "▁الغامض": 8057,
      "▁وشجاع": 8058,
      "▁تطفو": 8059,
      "▁المساء": 8060,
      "▁وذكي": 8061,
      "طقة": 8062,
      "وله": 8063,
      "▁حمامة": 8064,
      "▁وضعه": 8065,
      "عز": 8066,
      "▁أقول": 8067,
      "▁تلت": 8068,
      "لامات": 8069,
      "▁العقدة": 8070,
      "▁تختار": 8071,
      "▁يستحق": 8072,
      "▁كع": 8073,
      "▁راض": 8074,
      "▁أفهم": 8075,
      "▁ويقولان": 8076,
      "▁الموجودة": 8077,
      "▁الحقيقية": 8078,
      "مسحة": 8079,
      "▁الدائرة": 8080,
      "راقبة": 8081,
      "فرك": 8082,
      "▁كلبي": 8083,
      "▁بيع": 8084,
      "▁يرمي": 8085,
      "▁إطار": 8086,
      "علمك": 8087,
      "خرق": 8088,
      "باك": 8089,
      "يقرران": 8090,
      "▁الفريق": 8091,
      "▁كتابة": 8092,
      "ظاهران": 8093,
      "▁الجمبري": 8094,
      "▁يختفي": 8095,
      "▁السك": 8096,
      "▁عظمة": 8097,
      "▁جولي": 8098,
      "▁أخذتها": 8099,
      "ذين": 8100,
      "▁برتقالي": 8101,
      "▁التحية": 8102,
      "ئوا": 8103,
      "▁وأس": 8104,
      "بتك": 8105,
      "▁الذه": 8106,
      "▁تسمى": 8107,
      "▁اكتشفت": 8108,
      "سور": 8109,
      "ياطة": 8110,
      "▁الحديدية": 8111,
      "▁والورق": 8112,
      "شرق": 8113,
      "▁بمدى": 8114,
      "▁الوادي": 8115,
      "▁تغادر": 8116,
      "▁رفضت": 8117,
      "فسا": 8118,
      "▁وطف": 8119,
      "نحتاج": 8120,
      "▁الضخم": 8121,
      "▁واستمع": 8122,
      "▁مضطرب": 8123,
      "طت": 8124,
      "▁سعيدين": 8125,
      "▁لحظات": 8126,
      "▁راقصة": 8127,
      "اختفت": 8128,
      "▁ننظف": 8129,
      "▁حريق": 8130,
      "كلف": 8131,
      "▁خطوات": 8132,
      "▁جينا": 8133,
      "قدمت": 8134,
      "سنذهب": 8135,
      "▁الملون": 8136,
      "فعا": 8137,
      "▁القاضي": 8138,
      "▁منازلهم": 8139,
      "▁الدراسة": 8140,
      "▁بأقدا": 8141,
      "▁الحادة": 8142,
      "يتساءل": 8143,
      "سات": 8144,
      "وجو": 8145,
      "▁نست": 8146,
      "شبع": 8147,
      "▁الفقمة": 8148,
      "▁لمدة": 8149,
      "▁الجامعة": 8150,
      "▁المطرقة": 8151,
      "▁الزبادي": 8152,
      "داقة": 8153,
      "▁طيبين": 8154,
      "▁قفا": 8155,
      "▁وقاسي": 8156,
      "▁الشه": 8157,
      "▁الملصقات": 8158,
      "▁الثاني": 8159,
      "بالونات": 8160,
      "▁أتت": 8161,
      "ماط": 8162,
      "وأخذت": 8163,
      "▁التجاري": 8164,
      "▁للطيور": 8165,
      "جرا": 8166,
      "▁ومشرقة": 8167,
      "▁معروف": 8168,
      "▁السهم": 8169,
      "قته": 8170,
      "ائز": 8171,
      "▁نقل": 8172,
      "▁عاش": 8173,
      "لهذا": 8174,
      "▁واحت": 8175,
      "▁للب": 8176,
      "تلعب": 8177,
      "عدين": 8178,
      "▁باله": 8179,
      "▁والأمان": 8180,
      "▁فضلكم": 8181,
      "▁لتجرب": 8182,
      "ابط": 8183,
      "▁متسل": 8184,
      "▁عين": 8185,
      "▁والأحجام": 8186,
      "جزيلا": 8187,
      "▁رخيصة": 8188,
      "▁تزحف": 8189,
      "▁ويبحث": 8190,
      "تيجة": 8191,
      "▁ترتاح": 8192,
      "▁القامة": 8193,
      "▁وتج": 8194,
      "▁نحوهم": 8195,
      "▁يزحف": 8196,
      "▁شطائر": 8197,
      "▁مخطئ": 8198,
      "زلت": 8199,
      "▁والحجارة": 8200,
      "▁رحلتها": 8201,
      "▁الصاخبة": 8202,
      "وابتسمت": 8203,
      "▁الآنسة": 8204,
      "طئة": 8205,
      "يهرب": 8206,
      "زلزال": 8207,
      "فرش": 8208,
      "▁لأبي": 8209,
      "▁البذرة": 8210,
      "▁الضخمة": 8211,
      "وفا": 8212,
      "▁يعانق": 8213,
      "▁شطي": 8214,
      "فرف": 8215,
      "▁وهبطت": 8216,
      "▁أحدهما": 8217,
      "▁بينكي": 8218,
      "▁يؤذيك": 8219,
      "▁عصاه": 8220,
      "▁يتمتع": 8221,
      "▁وكلاهما": 8222,
      "ضغطت": 8223,
      "▁لإنقاذ": 8224,
      "▁هتفوا": 8225,
      "وللي": 8226,
      "▁انح": 8227,
      "▁التا": 8228,
      "▁المقا": 8229,
      "رأها": 8230,
      "▁ويحظ": 8231,
      "▁مريض": 8232,
      "ئران": 8233,
      "▁قاسية": 8234,
      "يدي": 8235,
      "▁القذيفة": 8236,
      "▁ساخنا": 8237,
      "▁جوهرة": 8238,
      "▁ومرت": 8239,
      "وائ": 8240,
      "وسأل": 8241,
      "▁الحلاقة": 8242,
      "▁بالسباق": 8243,
      "▁للاحتفال": 8244,
      "▁قليل": 8245,
      "▁وتيمي": 8246,
      "وكو": 8247,
      "▁وافق": 8248,
      "▁جارتها": 8249,
      "▁تحتر": 8250,
      "وركض": 8251,
      "▁الخطر": 8252,
      "طويلا": 8253,
      "▁القاعة": 8254,
      "▁يتوهج": 8255,
      "▁ويغ": 8256,
      "▁الموجة": 8257,
      "اقترح": 8258,
      "▁المحفظة": 8259,
      "سأعطيك": 8260,
      "▁فاكهة": 8261,
      "▁فرك": 8262,
      "▁غبية": 8263,
      "▁تنزلق": 8264,
      "▁لدفع": 8265,
      "▁فعلوه": 8266,
      "وراء": 8267,
      "▁النبيذ": 8268,
      "▁ضغط": 8269,
      "▁وأفضل": 8270,
      "▁حبيبتي": 8271,
      "▁جده": 8272,
      "▁للتحقيق": 8273,
      "▁يستطيعان": 8274,
      "▁صحية": 8275,
      "▁المثلث": 8276,
      "▁وصنعت": 8277,
      "▁الزيتون": 8278,
      "▁استبد": 8279,
      "▁تويت": 8280,
      "▁وممتع": 8281,
      "▁وتأتي": 8282,
      "أطفال": 8283,
      "▁يصنعون": 8284,
      "▁دجاجة": 8285,
      "▁رأوه": 8286,
      "▁معدنية": 8287,
      "▁ألم": 8288,
      "▁كونك": 8289,
      "▁أمامها": 8290,
      "▁والخي": 8291,
      "▁قذيفة": 8292,
      "▁الارتفاع": 8293,
      "▁يدع": 8294,
      "ؤل": 8295,
      "▁بهما": 8296,
      "▁واص": 8297,
      "▁بطيئة": 8298,
      "خية": 8299,
      "انظري": 8300,
      "بالقرب": 8301,
      "▁يعنيه": 8302,
      "▁نادرة": 8303,
      "▁وابتسامة": 8304,
      "عيان": 8305,
      "▁ساكنا": 8306,
      "▁تأكد": 8307,
      "▁وتضعها": 8308,
      "▁مشغولين": 8309,
      "▁الصحيحة": 8310,
      "▁وهذا": 8311,
      "▁يعانقون": 8312,
      "▁نغ": 8313,
      "اصطدم": 8314,
      "ورك": 8315,
      "▁ساطعة": 8316,
      "واحدة": 8317,
      "▁العط": 8318,
      "▁للأبد": 8319,
      "▁لمساعدتك": 8320,
      "▁ويضع": 8321,
      "▁يسمى": 8322,
      "▁وعصير": 8323,
      "▁يأتون": 8324,
      "▁مكعب": 8325,
      "نحل": 8326,
      "▁جسم": 8327,
      "▁تأكله": 8328,
      "هبطت": 8329,
      "▁الكلمة": 8330,
      "▁قبعت": 8331,
      "▁يرتفع": 8332,
      "▁تثق": 8333,
      "▁حريصا": 8334,
      "▁ومريحة": 8335,
      "▁والملابس": 8336,
      "اليا": 8337,
      "▁الصفارة": 8338,
      "▁وجا": 8339,
      "▁رط": 8340,
      "ودعت": 8341,
      "▁ابنته": 8342,
      "▁يجلب": 8343,
      "▁البطاقات": 8344,
      "▁وواصلت": 8345,
      "لوه": 8346,
      "رتيب": 8347,
      "وته": 8348,
      "ورأت": 8349,
      "▁وهادئ": 8350,
      "▁باللون": 8351,
      "▁جدار": 8352,
      "▁ريد": 8353,
      "▁ويهرب": 8354,
      "▁اللحوم": 8355,
      "▁والعصير": 8356,
      "يحتضن": 8357,
      "▁عملاقة": 8358,
      "▁وبحثت": 8359,
      "▁حج": 8360,
      "▁للط": 8361,
      "▁الخطاف": 8362,
      "▁يعجبهم": 8363,
      "▁وجعلتها": 8364,
      "▁ويشاهد": 8365,
      "▁الجاد": 8366,
      "▁يمن": 8367,
      "▁المترو": 8368,
      "▁بعمله": 8369,
      "▁وعانقها": 8370,
      "▁طعامها": 8371,
      "قلب": 8372,
      "▁المظهر": 8373,
      "الكرة": 8374,
      "▁أنقذت": 8375,
      "▁اللهب": 8376,
      "▁دمرت": 8377,
      "عدوا": 8378,
      "▁سبايك": 8379,
      "ذمر": 8380,
      "▁ريمي": 8381,
      "▁للاستماع": 8382,
      "▁مشوشا": 8383,
      "▁وسألها": 8384,
      "▁الشكل": 8385,
      "▁آخرين": 8386,
      "▁الوح": 8387,
      "▁تنزل": 8388,
      "▁الزمن": 8389,
      "ظنوا": 8390,
      "فاجئة": 8391,
      "▁ينضم": 8392,
      "▁مبللة": 8393,
      "▁وسحبت": 8394,
      "دل": 8395,
      "يطير": 8396,
      "راعة": 8397,
      "▁الأبراج": 8398,
      "▁وبحثوا": 8399,
      "▁الشواية": 8400,
      "▁وسط": 8401,
      "▁ملكة": 8402,
      "تويتي": 8403,
      "▁خوف": 8404,
      "▁ومعطف": 8405,
      "عهم": 8406,
      "▁الكريم": 8407,
      "وعلى": 8408,
      "▁مات": 8409,
      "▁شم": 8410,
      "▁والعصي": 8411,
      "▁الماس": 8412,
      "▁وغادر": 8413,
      "▁جسر": 8414,
      "هات": 8415,
      "▁الشوكة": 8416,
      "عطف": 8417,
      "▁موهوب": 8418,
      "▁جرح": 8419,
      "▁سيذهب": 8420,
      "▁يرتجف": 8421,
      "▁النكات": 8422,
      "▁ديفيد": 8423,
      "فاتيح": 8424,
      "آها": 8425,
      "▁يحبونها": 8426,
      "▁وشعروا": 8427,
      "▁الصوف": 8428,
      "▁تشاهد": 8429,
      "▁لإحضار": 8430,
      "▁وواصل": 8431,
      "▁البرد": 8432,
      "اتي": 8433,
      "▁المسنة": 8434,
      "▁الفرقة": 8435,
      "▁وطرق": 8436,
      "▁الرسام": 8437,
      "يقظة": 8438,
      "▁يشرب": 8439,
      "يارتها": 8440,
      "▁سيعود": 8441,
      "▁والصراخ": 8442,
      "):": 8443,
      "▁مريضا": 8444,
      "متحمس": 8445,
      "▁صلبة": 8446,
      "▁وشال": 8447,
      "فاري": 8448,
      "ضحكا": 8449,
      "▁وحشا": 8450,
      "لسا": 8451,
      "▁لدقيقة": 8452,
      "▁تشبه": 8453,
      "▁وملونة": 8454,
      "سطبل": 8455,
      "▁الهاد": 8456,
      "▁ألعابنا": 8457,
      "تيه": 8458,
      "▁التصرف": 8459,
      "▁بسيارة": 8460,
      "▁ميد": 8461,
      "تعث": 8462,
      "▁سكين": 8463,
      "▁الاتجاه": 8464,
      "▁تخلط": 8465,
      "▁مرتفعة": 8466,
      "واك": 8467,
      "▁وأخبرها": 8468,
      "تجد": 8469,
      "▁وحزينين": 8470,
      "دهر": 8471,
      "▁صياد": 8472,
      "▁تمانع": 8473,
      "▁والرياح": 8474,
      "أخلاقية": 8475,
      "▁أشارك": 8476,
      "▁ويصرخون": 8477,
      "▁تشرب": 8478,
      "▁الجوارب": 8479,
      "▁المهملات": 8480,
      "▁أمت": 8481,
      "▁جاره": 8482,
      "▁الكون": 8483,
      "▁وخضراء": 8484,
      "▁للتحدث": 8485,
      "سأفعل": 8486,
      "▁عائدة": 8487,
      "▁ومشرق": 8488,
      "▁خارق": 8489,
      "▁وأبيض": 8490,
      "راها": 8491,
      "▁الموسيقي": 8492,
      "▁ملأت": 8493,
      "▁والبيض": 8494,
      "▁ملجأ": 8495,
      "▁وضعوا": 8496,
      "مزق": 8497,
      "▁التنفس": 8498,
      "سبحت": 8499,
      "▁يغضب": 8500,
      "يسقط": 8501,
      "حمل": 8502,
      "▁جدتك": 8503,
      "▁المسح": 8504,
      "يمرحون": 8505,
      "▁ونت": 8506,
      "متلاك": 8507,
      "▁شار": 8508,
      "جمال": 8509,
      "▁للطفل": 8510,
      "▁متوتر": 8511,
      "فروم": 8512,
      "▁أصيب": 8513,
      "▁الكنوز": 8514,
      "▁بالتراب": 8515,
      "▁تشتري": 8516,
      "▁توفير": 8517,
      "▁والدتي": 8518,
      "▁جسده": 8519,
      "▁أفسدت": 8520,
      "جروح": 8521,
      "▁سمعا": 8522,
      "▁المختبر": 8523,
      "▁ويمرحون": 8524,
      "▁ابي": 8525,
      "▁تسلقها": 8526,
      "ملت": 8527,
      "▁بيدها": 8528,
      "▁صعوبة": 8529,
      "▁قلقا": 8530,
      "▁مطبخ": 8531,
      "▁التق": 8532,
      "▁أينما": 8533,
      "خدش": 8534,
      "▁يكتب": 8535,
      "متد": 8536,
      "▁تؤذيك": 8537,
      "▁منخفض": 8538,
      "▁الأخبار": 8539,
      "الماء": 8540,
      "▁الاحتفال": 8541,
      "▁أنهوا": 8542,
      "▁مخبأ": 8543,
      "▁عودة": 8544,
      "يمشي": 8545,
      "ؤس": 8546,
      "يحلم": 8547,
      "▁صديقهم": 8548,
      "▁المشرقة": 8549,
      "▁ويف": 8550,
      "▁أخبرتك": 8551,
      "▁اليخت": 8552,
      "▁يرقة": 8553,
      "▁واختبأ": 8554,
      "ركبت": 8555,
      "▁الحديث": 8556,
      "▁ضار": 8557,
      "▁يرتدون": 8558,
      "▁وتحت": 8559,
      "▁صرخة": 8560,
      "▁تعض": 8561,
      "ستال": 8562,
      "▁نضع": 8563,
      "السيارة": 8564,
      "▁ويبتسمون": 8565,
      "عجوز": 8566,
      "رأيت": 8567,
      "عادها": 8568,
      "ملأت": 8569,
      "▁الديناصورات": 8570,
      "▁الرافعة": 8571,
      "آآ": 8572,
      "كنسة": 8573,
      "▁حياة": 8574,
      "▁سيجعل": 8575,
      "▁يطفو": 8576,
      "▁أحبائي": 8577,
      "ظى": 8578,
      "▁والاستماع": 8579,
      "عاطف": 8580,
      "بإ": 8581,
      "▁وملأ": 8582,
      "▁الريشة": 8583,
      "▁والأصفر": 8584,
      "ناجب": 8585,
      "صفقت": 8586,
      "▁يرتاح": 8587,
      "▁عمها": 8588,
      "▁خائفون": 8589,
      "▁يدعيان": 8590,
      "▁الحركة": 8591,
      "▁خفيف": 8592,
      "▁سيفعل": 8593,
      "▁الظهيرة": 8594,
      "▁ومتحمس": 8595,
      "▁المغناطيس": 8596,
      "أسرع": 8597,
      "▁ويساعد": 8598,
      "▁الرمادي": 8599,
      "▁ويصنع": 8600,
      "▁رقبته": 8601,
      "▁وفخور": 8602,
      "▁ذهبية": 8603,
      "▁صح": 8604,
      "▁أومأوا": 8605,
      "لان": 8606,
      "شى": 8607,
      "▁الكوب": 8608,
      "رحوا": 8609,
      "طلبوا": 8610,
      "تتوقف": 8611,
      "▁نحظى": 8612,
      "▁إبها": 8613,
      "ينسون": 8614,
      "▁والبيوت": 8615,
      "▁بير": 8616,
      "▁وتعلمت": 8617,
      "▁ولف": 8618,
      "▁وأشارت": 8619,
      "▁مرآ": 8620,
      "▁سنوي": 8621,
      "رض": 8622,
      "▁ويكون": 8623,
      "▁أربعة": 8624,
      "حرك": 8625,
      "▁وحلوة": 8626,
      "▁جدتهم": 8627,
      "▁غبي": 8628,
      "▁تأ": 8629,
      "▁وألقى": 8630,
      "▁يفقد": 8631,
      "عاتهم": 8632,
      "▁والدهم": 8633,
      "▁القلاع": 8634,
      "▁بمجرد": 8635,
      "غار": 8636,
      "ليللي": 8637,
      "▁سلطة": 8638,
      "▁وسريعة": 8639,
      "▁وتست": 8640,
      "بيتر": 8641,
      "▁الليزر": 8642,
      "▁نجحت": 8643,
      "لمسها": 8644,
      "▁الدوا": 8645,
      "▁تجعلك": 8646,
      "▁وحيوان": 8647,
      "▁الأجرة": 8648,
      "▁المسامير": 8649,
      "توس": 8650,
      "سأريك": 8651,
      "ولكنها": 8652,
      "تس": 8653,
      "يوك": 8654,
      "▁الحجم": 8655,
      "▁رشفة": 8656,
      "ذيت": 8657,
      "ركبوا": 8658,
      "للع": 8659,
      "▁مخطئا": 8660,
      "▁ودافئة": 8661,
      "▁صالة": 8662,
      "▁عالم": 8663,
      "▁وقام": 8664,
      "▁قصر": 8665,
      "▁ميلاده": 8666,
      "لدهش": 8667,
      "▁تنجح": 8668,
      "▁والرجل": 8669,
      "▁بحرية": 8670,
      "زحفت": 8671,
      "▁اللباس": 8672,
      "▁يواصل": 8673,
      "▁يومهم": 8674,
      "▁أعطاه": 8675,
      "▁بالحماس": 8676,
      "▁يتمن": 8677,
      "▁مختب": 8678,
      "خرخر": 8679,
      "▁أيها": 8680,
      "▁تقل": 8681,
      "▁منزلك": 8682,
      "▁والسنجاب": 8683,
      "▁أسقطت": 8684,
      "▁يلف": 8685,
      "كسجين": 8686,
      "▁المسحوق": 8687,
      "▁تساعدها": 8688,
      "▁مشاركته": 8689,
      "▁وتريد": 8690,
      "▁مغلقة": 8691,
      "▁الضفادع": 8692,
      "▁المحشوة": 8693,
      "▁هوب": 8694,
      "▁بعمق": 8695,
      "▁يبحثون": 8696,
      "انهما": 8697,
      "▁السلام": 8698,
      "▁المستحضر": 8699,
      "▁عطشان": 8700,
      "ائك": 8701,
      "▁الحصى": 8702,
      "كتابة": 8703,
      "▁تنظيفها": 8704,
      "▁البري": 8705,
      "▁مهذبة": 8706,
      "ظيف": 8707,
      "▁الحديد": 8708,
      "رآه": 8709,
      "ؤوا": 8710,
      "حاس": 8711,
      "▁ومظ": 8712,
      "▁ملاحظة": 8713,
      "▁ويخرج": 8714,
      "▁نن": 8715,
      "▁لمست": 8716,
      "▁طعامهم": 8717,
      "▁البرك": 8718,
      "▁الديدان": 8719,
      "▁يقلق": 8720,
      "▁لونا": 8721,
      "مارك": 8722,
      "يمسك": 8723,
      "▁بيضة": 8724,
      "▁وتكرار": 8725,
      "▁تشعرين": 8726,
      "فايات": 8727,
      "▁الأنا": 8728,
      "▁ضعيف": 8729,
      "نود": 8730,
      "فتحها": 8731,
      "▁لإظهارها": 8732,
      "فصل": 8733,
      "▁ورأيا": 8734,
      "▁يداعب": 8735,
      "▁الموثوق": 8736,
      "تعانقهم": 8737,
      "▁تهرب": 8738,
      "كمال": 8739,
      "يجر": 8740,
      "▁يؤدي": 8741,
      "▁الحزين": 8742,
      "▁ترمي": 8743,
      "▁جمالا": 8744,
      "▁بطنها": 8745,
      "▁أحذي": 8746,
      "▁الدم": 8747,
      "هزة": 8748,
      "فذهبت": 8749,
      "يراقب": 8750,
      "وقات": 8751,
      "▁صورتها": 8752,
      "▁تتحطم": 8753,
      "▁النباح": 8754,
      "هكذا": 8755,
      "▁خطر": 8756,
      "▁سمينة": 8757,
      "▁ذئب": 8758,
      "رحب": 8759,
      "▁برنام": 8760,
      "▁علامات": 8761,
      "▁الصيد": 8762,
      "▁يصعد": 8763,
      "▁ليأكله": 8764,
      "أحبها": 8765,
      "▁أحلام": 8766,
      "▁مشت": 8767,
      "▁يشت": 8768,
      "رأتهم": 8769,
      "▁رعد": 8770,
      "▁وساروا": 8771,
      "▁البالغة": 8772,
      "▁خطيرا": 8773,
      "▁تحبهم": 8774,
      "ذج": 8775,
      "▁مجمو": 8776,
      "▁الألغاز": 8777,
      "▁نحن": 8778,
      "▁الطلق": 8779,
      "▁معجبة": 8780,
      "▁ويرقص": 8781,
      "دعت": 8782,
      "▁وشاركوا": 8783,
      "▁أخرق": 8784,
      "▁تعت": 8785,
      "▁شبك": 8786,
      "ضمت": 8787,
      "▁معاطف": 8788,
      "▁الطيبة": 8789,
      "▁لوالدها": 8790,
      "▁الأنابيب": 8791,
      "▁زه": 8792,
      "وتحب": 8793,
      "▁البناء": 8794,
      "▁صديقنا": 8795,
      "▁الخيول": 8796,
      "بهذه": 8797,
      "▁السناجب": 8798,
      "وقت": 8799,
      "▁فكرت": 8800,
      "سيارتي": 8801,
      "فيها": 8802,
      "مدت": 8803,
      "لمسه": 8804,
      "طباء": 8805,
      "هش": 8806,
      "▁وتساعد": 8807,
      "▁المجهر": 8808,
      "▁وشجاعة": 8809,
      "▁المجلة": 8810,
      "قبلت": 8811,
      "▁للعمل": 8812,
      "▁المفترض": 8813,
      "▁نسأل": 8814,
      "لوها": 8815,
      "▁تعط": 8816,
      "▁يتشاجرون": 8817,
      "▁بالامتنان": 8818,
      "▁والدفء": 8819,
      "▁مظلة": 8820,
      "حل": 8821,
      "▁لينا": 8822,
      "▁لغ": 8823,
      "▁صناديق": 8824,
      "يستخدمون": 8825,
      "▁ألعابي": 8826,
      "▁سرقة": 8827,
      "▁النهار": 8828,
      "▁مصمما": 8829,
      "▁التدحرج": 8830,
      "▁والإثارة": 8831,
      "كشفت": 8832,
      "▁النعام": 8833,
      "▁بالحصول": 8834,
      "إيميلي": 8835,
      "▁ارتدى": 8836,
      "▁رقبتها": 8837,
      "▁لوضع": 8838,
      "▁تصعد": 8839,
      "يبحثون": 8840,
      "▁الكابل": 8841,
      "سد": 8842,
      "▁وسمع": 8843,
      "▁وشراء": 8844,
      "التفتت": 8845,
      "▁القميص": 8846,
      "▁ساقيه": 8847,
      "معها": 8848,
      "▁المتوهجة": 8849,
      "ضخ": 8850,
      "▁وزن": 8851,
      "شجي": 8852,
      "▁يطيرون": 8853,
      "توق": 8854,
      "▁وعرض": 8855,
      "▁التلال": 8856,
      "▁أسابيع": 8857,
      "▁وتدحرجت": 8858,
      "بتة": 8859,
      "▁ومثيرة": 8860,
      "▁ضائع": 8861,
      "▁ناجحة": 8862,
      "ريحا": 8863,
      "رتهما": 8864,
      "▁العادي": 8865,
      "▁محبطا": 8866,
      "▁طا": 8867,
      "▁نسوا": 8868,
      "▁وبوب": 8869,
      "▁الغرباء": 8870,
      "▁الدبوس": 8871,
      "▁غالبا": 8872,
      "▁وينتظر": 8873,
      "▁بحب": 8874,
      "▁المسكين": 8875,
      "رون": 8876,
      "▁أنفس": 8877,
      "▁والدهما": 8878,
      "▁المستقبل": 8879,
      "▁سراح": 8880,
      "▁والتعلم": 8881,
      "▁لمقابلة": 8882,
      "▁شاهدت": 8883,
      "▁مجنون": 8884,
      "▁بوابة": 8885,
      "▁تغلق": 8886,
      "▁ليرى": 8887,
      "ضربت": 8888,
      "وزان": 8889,
      "انحنت": 8890,
      "▁وتسلقت": 8891,
      "▁مصابة": 8892,
      "▁عقدة": 8893,
      "▁آذ": 8894,
      "رمى": 8895,
      "ظلت": 8896,
      "▁ومحاولة": 8897,
      "▁مدرسة": 8898,
      "كني": 8899,
      "▁الكوكب": 8900,
      "▁اللطف": 8901,
      "▁يسرق": 8902,
      "▁الرماد": 8903,
      "وواصل": 8904,
      "ائف": 8905,
      "▁النقي": 8906,
      "▁مليئ": 8907,
      "▁أسنانها": 8908,
      "▁وأقرب": 8909,
      "▁بالهدوء": 8910,
      "▁وصاحت": 8911,
      "▁فرز": 8912,
      "▁حس": 8913,
      "▁غطاء": 8914,
      "▁السترة": 8915,
      "▁وعرفت": 8916,
      "صدقائه": 8917,
      "▁حلويات": 8918,
      "▁شمسية": 8919,
      "حني": 8920,
      "▁القذر": 8921,
      "▁مسمار": 8922,
      "▁البنفس": 8923,
      "▁الكراسي": 8924,
      "لدى": 8925,
      "▁والقب": 8926,
      "بالأ": 8927,
      "يستمتعون": 8928,
      "▁الرطبة": 8929,
      "▁مكافأة": 8930,
      "▁المخيم": 8931,
      "شق": 8932,
      "▁لتجد": 8933,
      "▁حذر": 8934,
      "رائع": 8935,
      "▁لتجربة": 8936,
      "▁تقصد": 8937,
      "▁يمانع": 8938,
      "املة": 8939,
      "تعالوا": 8940,
      "عاقب": 8941,
      "شخاص": 8942,
      "▁السوار": 8943,
      "▁يشاركوا": 8944,
      "امتحان": 8945,
      "▁المزيفة": 8946,
      "أحيان": 8947,
      "▁وفكر": 8948,
      "متهم": 8949,
      "▁التخلي": 8950,
      "▁يفوز": 8951,
      "▁صفق": 8952,
      "الطيور": 8953,
      "▁تغير": 8954,
      "▁تختبئ": 8955,
      "▁تحسين": 8956,
      "أسد": 8957,
      "▁الأصغر": 8958,
      "فقت": 8959,
      "▁ستحب": 8960,
      "▁خروف": 8961,
      "▁تمتلك": 8962,
      "▁بقع": 8963,
      "▁ومثير": 8964,
      "▁يمشيان": 8965,
      "أصيب": 8966,
      "▁والان": 8967,
      "اتصل": 8968,
      "▁مطيع": 8969,
      "▁جعلته": 8970,
      "▁سخيفا": 8971,
      "▁جالسا": 8972,
      "▁رمل": 8973,
      "ولها": 8974,
      "▁تقديم": 8975,
      "▁وينظر": 8976,
      "▁وأعاد": 8977,
      "دموع": 8978,
      "▁وسادتها": 8979,
      "سأحاول": 8980,
      "▁بلد": 8981,
      "شكرته": 8982,
      "▁لكما": 8983,
      "كلاكما": 8984,
      "▁سيكونون": 8985,
      "▁استمعوا": 8986,
      "دالية": 8987,
      "أخذته": 8988,
      "▁محاول": 8989,
      "بدوا": 8990,
      "▁البا": 8991,
      "▁بإصلاح": 8992,
      "▁لكم": 8993,
      "هن": 8994,
      "▁غامضة": 8995,
      "▁حظيرة": 8996,
      "▁ابيجيل": 8997,
      "▁وكرة": 8998,
      "القط": 8999,
      "▁الميكروفون": 9000,
      "▁وصديقه": 9001,
      "▁عمود": 9002,
      "▁الطاقة": 9003,
      "▁بكرة": 9004,
      "▁فزت": 9005,
      "▁مألو": 9006,
      "▁بالطعام": 9007,
      "يما": 9008,
      "صفقوا": 9009,
      "أحد": 9010,
      "▁ساكنة": 9011,
      "وتها": 9012,
      "▁وودود": 9013,
      "▁اليد": 9014,
      "▁حمار": 9015,
      "بون": 9016,
      "أينما": 9017,
      "▁غادرت": 9018,
      "ؤمن": 9019,
      "▁وأصدر": 9020,
      "وتعلم": 9021,
      "▁تسلقت": 9022,
      "▁واستخدمت": 9023,
      "الروح": 9024,
      "يدعى": 9025,
      "▁ستعود": 9026,
      "▁خاصا": 9027,
      "غارو": 9028,
      "طام": 9029,
      "ونظ": 9030,
      "فاكهة": 9031,
      "▁لأول": 9032,
      "▁نستمتع": 9033,
      "▁العطر": 9034,
      "ئي": 9035,
      "▁الاعتناء": 9036,
      "▁سهل": 9037,
      "كسي": 9038,
      "عيده": 9039,
      "▁العالي": 9040,
      "▁إعصار": 9041,
      "▁مهذبا": 9042,
      "▁نطاق": 9043,
      "▁وباردة": 9044,
      "▁نينا": 9045,
      "▁تجدها": 9046,
      "▁الولد": 9047,
      "▁المخيف": 9048,
      "▁المرساة": 9049,
      "▁خمسة": 9050,
      "▁المزيف": 9051,
      "▁تحبين": 9052,
      "▁وخرجوا": 9053,
      "▁أغلقت": 9054,
      "▁تركت": 9055,
      "▁الحوادث": 9056,
      "لأنك": 9057,
      "الشاحنة": 9058,
      "▁ببناء": 9059,
      "غنى": 9060,
      "بداخلها": 9061,
      "وأنها": 9062,
      "▁يتساءل": 9063,
      "كيفية": 9064,
      "▁تعاني": 9065,
      "▁تفريغ": 9066,
      "ويمكنك": 9067,
      "سرب": 9068,
      "▁نفهم": 9069,
      "▁هيكل": 9070,
      "▁يقضون": 9071,
      "▁أدوا": 9072,
      "▁يمتلك": 9073,
      "▁وأشكال": 9074,
      "أوضح": 9075,
      "▁والجد": 9076,
      "فكرة": 9077,
      "▁لبدء": 9078,
      "▁عادلا": 9079,
      "ممم": 9080,
      "▁ننتظر": 9081,
      "كلمات": 9082,
      "لويات": 9083,
      "▁اعت": 9084,
      "▁وأحدثت": 9085,
      "▁بندقية": 9086,
      "▁أذنه": 9087,
      "فتحتها": 9088,
      "▁حب": 9089,
      "نزلق": 9090,
      "جزاء": 9091,
      "رفض": 9092,
      "وييت": 9093,
      "▁المملكة": 9094,
      "تسقط": 9095,
      "ستي": 9096,
      "▁الدلافين": 9097,
      "▁أخاف": 9098,
      "وقا": 9099,
      "▁وساقي": 9100,
      "فإن": 9101,
      "▁الأمل": 9102,
      "▁بسياراتهم": 9103,
      "▁مرار": 9104,
      "▁دفن": 9105,
      "▁بأجنح": 9106,
      "▁وصديقتها": 9107,
      "مثيرا": 9108,
      "▁وتحدث": 9109,
      "▁متى": 9110,
      "▁البخار": 9111,
      "تفتح": 9112,
      "▁أبط": 9113,
      "▁يمسكها": 9114,
      "▁سرية": 9115,
      "▁غزال": 9116,
      "طرة": 9117,
      "حتفظ": 9118,
      "عير": 9119,
      "▁هاتفها": 9120,
      "▁احتاج": 9121,
      "▁يخت": 9122,
      "▁صيد": 9123,
      "▁وصفراء": 9124,
      "▁أسئلة": 9125,
      "▁مضطربة": 9126,
      "▁القطعة": 9127,
      "▁بفمه": 9128,
      "▁الأطعمة": 9129,
      "وسا": 9130,
      "▁يأخذه": 9131,
      "▁توماس": 9132,
      "▁فم": 9133,
      "صدرت": 9134,
      "▁لالتقاطها": 9135,
      "▁بالنظر": 9136,
      "خلف": 9137,
      "▁يتدحرج": 9138,
      "▁يرحل": 9139,
      "▁يجدان": 9140,
      "مضحكة": 9141,
      "▁بيتي": 9142,
      "تخبر": 9143,
      "▁وقدم": 9144,
      "▁ترش": 9145,
      "▁طلاء": 9146,
      "▁ميتة": 9147,
      "▁رملية": 9148,
      "▁معرو": 9149,
      "تركت": 9150,
      "حاق": 9151,
      "▁وقبلة": 9152,
      "الناس": 9153,
      "راه": 9154,
      "أصدقاء": 9155,
      "▁الإنسان": 9156,
      "▁مقاومة": 9157,
      "▁كنا": 9158,
      "▁حرارة": 9159,
      "▁الشاب": 9160,
      "▁والقلم": 9161,
      "▁سرق": 9162,
      "لوك": 9163,
      "تبدأ": 9164,
      "▁حر": 9165,
      "▁شرارة": 9166,
      "▁وجر": 9167,
      "▁صلب": 9168,
      "▁واق": 9169,
      "▁وحمراء": 9170,
      "شرطة": 9171,
      "قتها": 9172,
      "أعطاهم": 9173,
      "ونحن": 9174,
      "▁جهد": 9175,
      "▁التما": 9176,
      "▁الزرافة": 9177,
      "▁كتفيه": 9178,
      "▁مطرقة": 9179,
      "▁المعاملات": 9180,
      "▁والسحب": 9181,
      "انتهت": 9182,
      "▁صي": 9183,
      "▁ويحتاج": 9184,
      "▁وأصفر": 9185,
      "راشات": 9186,
      "جيم": 9187,
      "ندم": 9188,
      "والتي": 9189,
      "▁الأما": 9190,
      "ممت": 9191,
      "▁المحامي": 9192,
      "▁تدوير": 9193,
      "غبين": 9194,
      "▁وسمعت": 9195,
      "▁واعت": 9196,
      "يلولة": 9197,
      "ثال": 9198,
      "▁السعيد": 9199,
      "▁تغسل": 9200,
      "▁القرود": 9201,
      "فوق": 9202,
      "▁وصنعوا": 9203,
      "حز": 9204,
      "▁حلاقة": 9205,
      "▁خدعة": 9206,
      "▁ملقا": 9207,
      "ذاكر": 9208,
      "▁النادي": 9209,
      "يأكلون": 9210,
      "▁لإعط": 9211,
      "فلن": 9212,
      "▁إصبعها": 9213,
      "▁يسرع": 9214,
      "▁الشق": 9215,
      "مضحكا": 9216,
      "▁بز": 9217,
      "▁بمن": 9218,
      "يتبع": 9219,
      "▁بالحرارة": 9220,
      "يوما": 9221,
      "تجعل": 9222,
      "▁يعيشان": 9223,
      "▁الأرجاء": 9224,
      "غيير": 9225,
      "تد": 9226,
      "▁استمروا": 9227,
      "ظنت": 9228,
      "▁يبيع": 9229,
      "▁تحميل": 9230,
      "▁السكة": 9231,
      "ليد": 9232,
      "▁شرس": 9233,
      "بدأا": 9234,
      "▁مخبأة": 9235,
      "▁الجمجمة": 9236,
      "▁تتحقق": 9237,
      "قرض": 9238,
      "أسفل": 9239,
      "▁المصاص": 9240,
      "▁منظر": 9241,
      "▁يتأذى": 9242,
      "▁ولطيفين": 9243,
      "▁الجولف": 9244,
      "▁الغلاف": 9245,
      "▁بأذر": 9246,
      "▁قصصا": 9247,
      "▁لبعضهما": 9248,
      "▁ترغبين": 9249,
      "▁فرانك": 9250,
      "▁خطوط": 9251,
      "▁شاهد": 9252,
      "▁مفتوحا": 9253,
      "▁وصاخبة": 9254,
      "ساقط": 9255,
      "وجعلت": 9256,
      "▁نجوم": 9257,
      "▁ممتلئة": 9258,
      "▁محقة": 9259,
      "فإنها": 9260,
      "▁حادث": 9261,
      "وأنه": 9262,
      "▁أصلح": 9263,
      "▁والدتهما": 9264,
      "▁صنعتها": 9265,
      "▁ساقها": 9266,
      "▁مغلقا": 9267,
      "▁بكاء": 9268,
      "▁قرن": 9269,
      "▁ولذيذة": 9270,
      "▁حديث": 9271,
      "▁يبتسمان": 9272,
      "اكتشفت": 9273,
      "▁بيده": 9274,
      "▁ابنها": 9275,
      "▁لذيذا": 9276,
      "▁معجبين": 9277,
      "▁وصب": 9278,
      "غامرات": 9279,
      "▁تضرب": 9280,
      "ظرف": 9281,
      "▁لتظهر": 9282,
      "صاخبا": 9283,
      "ذكريات": 9284,
      "▁المظلة": 9285,
      "▁جذابة": 9286,
      "▁سخي": 9287,
      "▁الغصن": 9288,
      "▁وشكرته": 9289,
      "▁لوجود": 9290,
      "▁ريا": 9291,
      "▁نافورة": 9292,
      "▁ننظر": 9293,
      "▁وبقيت": 9294,
      "راقبه": 9295,
      "عدات": 9296,
      "خاصا": 9297,
      "▁والطفل": 9298,
      "▁تضيع": 9299,
      "منه": 9300,
      "▁تحتاجها": 9301,
      "▁يبقي": 9302,
      "▁عالي": 9303,
      "▁كلوي": 9304,
      "▁المكياج": 9305,
      "ميتها": 9306,
      "ورقة": 9307,
      "▁شاطئ": 9308,
      "▁أغراضها": 9309,
      "▁ونبح": 9310,
      "▁فعلتها": 9311,
      "▁بسلام": 9312,
      "▁مفتا": 9313,
      "يقررون": 9314,
      "ؤلؤ": 9315,
      "▁يثق": 9316,
      "▁وقحة": 9317,
      "▁تنظيفه": 9318,
      "▁والرضا": 9319,
      "▁تأكلها": 9320,
      "بعمل": 9321,
      "▁والتحدث": 9322,
      "مسكون": 9323,
      "▁بيض": 9324,
      "▁تهد": 9325,
      "أب": 9326,
      "طعا": 9327,
      "▁تتحول": 9328,
      "▁والأزرق": 9329,
      "▁الواس": 9330,
      "جاعا": 9331,
      "▁تحذير": 9332,
      "▁الرسائل": 9333,
      "▁مطيعة": 9334,
      "▁ممكنة": 9335,
      "إنهما": 9336,
      "▁تجعلني": 9337,
      "▁ويقوم": 9338,
      "▁لابن": 9339,
      "ثقة": 9340,
      "▁بوضع": 9341,
      "▁حية": 9342,
      "▁يحدق": 9343,
      "أترين": 9344,
      "يهز": 9345,
      "▁الجيران": 9346,
      "▁مغطاة": 9347,
      "سه": 9348,
      "▁إلقاء": 9349,
      "▁بالألوان": 9350,
      "▁التقاطها": 9351,
      "▁بالطين": 9352,
      "▁منديل": 9353,
      "ائعا": 9354,
      "▁الهدوء": 9355,
      "▁وشقيق": 9356,
      "▁ونستمتع": 9357,
      "▁مرنة": 9358,
      "لكما": 9359,
      "▁سمح": 9360,
      "▁بأسنان": 9361,
      "▁المعدات": 9362,
      "▁بطانيتها": 9363,
      "لوحت": 9364,
      "فلوا": 9365,
      "▁البطارية": 9366,
      "شو": 9367,
      "▁قدمه": 9368,
      "ضفت": 9369,
      "ومو": 9370,
      "▁الدبابة": 9371,
      "▁تصطاد": 9372,
      "ماغ": 9373,
      "▁ويغني": 9374,
      "لطيفة": 9375,
      "▁سان": 9376,
      "وأدرك": 9377,
      "تظاهروا": 9378,
      "▁قمي": 9379,
      "▁الاسترخاء": 9380,
      "▁وصحية": 9381,
      "يمين": 9382,
      "▁وحشي": 9383,
      "▁الليم": 9384,
      "▁وأصابت": 9385,
      "▁السخيفة": 9386,
      "▁الوحيد": 9387,
      "أمسكوا": 9388,
      "شعل": 9389,
      "▁أنفا": 9390,
      "▁إجراء": 9391,
      "▁أخط": 9392,
      "▁وعصرية": 9393,
      "▁نتظاهر": 9394,
      "▁أفكار": 9395,
      "▁جاكي": 9396,
      "▁مقص": 9397,
      "▁تزدهر": 9398,
      "هاها": 9399,
      "▁وتبكي": 9400,
      "▁يغنون": 9401,
      "لمساعدتي": 9402,
      "يصرخون": 9403,
      "وجميع": 9404,
      "قاذها": 9405,
      "▁يذهبان": 9406,
      "▁والفأر": 9407,
      "...": 9408,
      "يصنعان": 9409,
      "▁ليز": 9410,
      "زالت": 9411,
      "▁ناجح": 9412,
      "▁ليقول": 9413,
      "▁الزينة": 9414,
      "ميات": 9415,
      "▁لعبتهم": 9416,
      "▁فعلناها": 9417,
      "▁وأبائهم": 9418,
      "أميرة": 9419,
      "▁المفقودة": 9420,
      "▁أبا": 9421,
      "▁تنا": 9422,
      "▁والكتل": 9423,
      "والدتها": 9424,
      "▁الحزام": 9425,
      "تظاهرت": 9426,
      "▁الوال": 9427,
      "▁مساعدتنا": 9428,
      "▁لهذا": 9429,
      "▁يقطع": 9430,
      "▁المئزر": 9431,
      "▁القانون": 9432,
      "▁وأخذها": 9433,
      "▁يسيران": 9434,
      "▁وهربوا": 9435,
      "ستاني": 9436,
      "▁لحماية": 9437,
      "السيدة": 9438,
      "راجعت": 9439,
      "▁الغرف": 9440,
      "▁تكونا": 9441,
      "▁القاموس": 9442,
      "▁الخشخاش": 9443,
      "▁قراءتها": 9444,
      "اط": 9445,
      "فيدة": 9446,
      "▁نبحث": 9447,
      "ليو": 9448,
      "▁وتمن": 9449,
      "▁زوم": 9450,
      "▁الرمادية": 9451,
      "▁يختار": 9452,
      "▁غيور": 9453,
      "▁يأكلوا": 9454,
      "▁وأنت": 9455,
      "▁وراءهم": 9456,
      "▁تكوين": 9457,
      "▁يبكون": 9458,
      "شغيل": 9459,
      "▁منزعجا": 9460,
      "▁الملاحظة": 9461,
      "▁الكنغر": 9462,
      "▁سجادة": 9463,
      "▁والخبز": 9464,
      "▁يومه": 9465,
      "▁لأمهم": 9466,
      "▁التقطتها": 9467,
      "اتبعني": 9468,
      "▁مرتاحا": 9469,
[...]
