{
  "version": "1.0",
  "truncation": null,
  "padding": null,
  "added_tokens": [
    {
      "id": 0,
      "content": "<|PAD|>",
      "single_word": false,
      "lstrip": false,
      "rstrip": false,
      "normalized": false,
      "special": true
    },
    {
      "id": 1,
      "content": "<|BOS|>",
      "single_word": false,
      "lstrip": false,
      "rstrip": false,
      "normalized": false,
      "special": true
    },
    {
      "id": 2,
      "content": "<|EOS|>",
      "single_word": false,
      "lstrip": false,
      "rstrip": false,
      "normalized": false,
      "special": true
    },
    {
      "id": 3,
      "content": "<|UNK|>",
      "single_word": false,
      "lstrip": false,
      "rstrip": false,
      "normalized": false,
      "special": true
    }
  ],
  "normalizer": {
    "type": "NFKC"
  },
  "pre_tokenizer": {
    "type": "Metaspace",
    "replacement": "▁",
    "prepend_scheme": "never",
    "split": true
  },
  "post_processor": {
    "type": "TemplateProcessing",
    "single": [
      {
        "SpecialToken": {
          "id": "<|BOS|>",
          "type_id": 0
        }
      },
      {
        "Sequence": {
          "id": "A",
          "type_id": 0
        }
      },
      {
        "SpecialToken": {
          "id": "<|EOS|>",
          "type_id": 0
        }
      }
    ],
    "pair": [
      {
        "SpecialToken": {
          "id": "<|BOS|>",
          "type_id": 0
        }
      },
      {
        "Sequence": {
          "id": "A",
          "type_id": 0
        }
      },
      {
        "SpecialToken": {
          "id": "<|EOS|>",
          "type_id": 0
        }
      },
      {
        "SpecialToken": {
          "id": "<|BOS|>",
          "type_id": 1
        }
      },
      {
        "Sequence": {
          "id": "B",
          "type_id": 1
        }
      },
      {
        "SpecialToken": {
          "id": "<|EOS|>",
          "type_id": 1
        }
      }
    ],
    "special_tokens": {
      "<|BOS|>": {
        "id": "<|BOS|>",
        "ids": [
          1
        ],
        "tokens": [
          "<|BOS|>"
        ]
      },
      "<|EOS|>": {
        "id": "<|EOS|>",
        "ids": [
          2
        ],
        "tokens": [
          "<|EOS|>"
        ]
      }
    }
  },
  "decoder": {
    "type": "Metaspace",
    "replacement": "▁",
    "prepend_scheme": "never",
    "split": true
  },
  "model": {
    "type": "BPE",
    "dropout": null,
    "unk_token": "<|UNK|>",
    "continuing_subword_prefix": null,
    "end_of_word_suffix": null,
    "fuse_unk": false,
    "byte_fallback": false,
    "ignore_merges": false,
    "vocab": {
      "<|PAD|>": 0,
      "<|BOS|>": 1,
      "<|EOS|>": 2,
      "<|UNK|>": 3,
      "!": 4,
      "\"": 5,
      "$": 6,
      "%": 7,
      "'": 8,
      "(": 9,
      ")": 10,
      "*": 11,
      "+": 12,
      ",": 13,
      "-": 14,
      ".": 15,
      "/": 16,
      "0": 17,
      "1": 18,
      "2": 19,
      "3": 20,
      "4": 21,
      "5": 22,
      "6": 23,
      "7": 24,
      "8": 25,
      "9": 26,
      ":": 27,
      ";": 28,
      "<": 29,
      ">": 30,
      "?": 31,
      "_": 32,
      "a": 33,
      "A": 34,
      "b": 35,
      "B": 36,
      "c": 37,
      "C": 38,
      "d": 39,
      "D": 40,
      "e": 41,
      "E": 42,
      "f": 43,
      "F": 44,
      "g": 45,
      "G": 46,
      "h": 47,
      "H": 48,
      "i": 49,
      "I": 50,
      "j": 51,
      "J": 52,
      "k": 53,
      "K": 54,
      "l": 55,
      "L": 56,
      "m": 57,
      "M": 58,
      "n": 59,
      "N": 60,
      "o": 61,
      "O": 62,
      "p": 63,
      "P": 64,
      "r": 65,
      "R": 66,
      "s": 67,
      "S": 68,
      "t": 69,
      "T": 70,
      "u": 71,
      "U": 72,
      "w": 73,
      "W": 74,
      "x": 75,
      "X": 76,
      "y": 77,
      "Y": 78,
      "z": 79,
      "Z": 80,
      "|": 81,
      "ँ": 82,
      "ं": 83,
      "ः": 84,
      "अ": 85,
      "आ": 86,
      "इ": 87,
      "ई": 88,
      "उ": 89,
      "ऊ": 90,
      "ऋ": 91,
      "ए": 92,
      "ऐ": 93,
      "ऑ": 94,
      "ओ": 95,
      "औ": 96,
      "क": 97,
      "ख": 98,
      "ग": 99,
      "घ": 100,
      "च": 101,
      "छ": 102,
      "ज": 103,
      "झ": 104,
      "ञ": 105,
      "ट": 106,
      "ठ": 107,
      "ड": 108,
      "ढ": 109,
      "ण": 110,
      "त": 111,
      "थ": 112,
      "द": 113,
      "ध": 114,
      "न": 115,
      "प": 116,
      "फ": 117,
      "ब": 118,
      "भ": 119,
      "म": 120,
      "य": 121,
      "र": 122,
      "ल": 123,
      "व": 124,
      "श": 125,
      "ष": 126,
      "स": 127,
      "ह": 128,
      "़": 129,
      "ा": 130,
      "ि": 131,
      "ी": 132,
      "ु": 133,
      "ू": 134,
      "ृ": 135,
      "े": 136,
      "ै": 137,
      "ॉ": 138,
      "ो": 139,
      "ौ": 140,
      "्": 141,
      "।": 142,
      "。": 143,
      "ア": 144,
      "イ": 145,
      "デ": 146,
      "▁": 147,
      "\t": 148,
      "\n": 149,
      "▁!": 150,
      "▁\"": 151,
      "▁$": 152,
      "▁%": 153,
      "▁'": 154,
      "▁(": 155,
      "▁)": 156,
      "▁*": 157,
      "▁+": 158,
      "▁,": 159,
      "▁-": 160,
      "▁.": 161,
      "▁/": 162,
      "▁0": 163,
      "▁1": 164,
      "▁2": 165,
      "▁3": 166,
      "▁4": 167,
      "▁5": 168,
      "▁6": 169,
      "▁7": 170,
      "▁8": 171,
      "▁9": 172,
      "▁:": 173,
      "▁;": 174,
      "▁<": 175,
      "▁>": 176,
      "▁?": 177,
      "▁_": 178,
      "▁a": 179,
      "▁A": 180,
      "▁b": 181,
      "▁B": 182,
      "▁c": 183,
      "▁C": 184,
      "▁d": 185,
      "▁D": 186,
      "▁e": 187,
      "▁E": 188,
      "▁f": 189,
      "▁F": 190,
      "▁g": 191,
      "▁G": 192,
      "▁h": 193,
      "▁H": 194,
      "▁i": 195,
      "▁I": 196,
      "▁j": 197,
      "▁J": 198,
      "▁k": 199,
      "▁K": 200,
      "▁l": 201,
      "▁L": 202,
      "▁m": 203,
      "▁M": 204,
      "▁n": 205,
      "▁N": 206,
      "▁o": 207,
      "▁O": 208,
      "▁p": 209,
      "▁P": 210,
      "▁r": 211,
      "▁R": 212,
      "▁s": 213,
      "▁S": 214,
      "▁t": 215,
      "▁T": 216,
      "▁u": 217,
      "▁U": 218,
      "▁w": 219,
      "▁W": 220,
      "▁x": 221,
      "▁X": 222,
      "▁y": 223,
      "▁Y": 224,
      "▁z": 225,
      "▁Z": 226,
      "▁|": 227,
      "▁ँ": 228,
      "▁ं": 229,
      "▁ः": 230,
      "▁अ": 231,
      "▁आ": 232,
      "▁इ": 233,
      "▁ई": 234,
      "▁उ": 235,
      "▁ऊ": 236,
      "▁ऋ": 237,
      "▁ए": 238,
      "▁ऐ": 239,
      "▁ऑ": 240,
      "▁ओ": 241,
      "▁औ": 242,
      "▁क": 243,
      "▁ख": 244,
      "▁ग": 245,
      "▁घ": 246,
      "▁च": 247,
      "▁छ": 248,
      "▁ज": 249,
      "▁झ": 250,
      "▁ञ": 251,
      "▁ट": 252,
      "▁ठ": 253,
      "▁ड": 254,
      "▁ढ": 255,
      "▁ण": 256,
      "▁त": 257,
      "▁थ": 258,
      "▁द": 259,
      "▁ध": 260,
      "▁न": 261,
      "▁प": 262,
      "▁फ": 263,
      "▁ब": 264,
      "▁भ": 265,
      "▁म": 266,
      "▁य": 267,
      "▁र": 268,
      "▁ल": 269,
      "▁व": 270,
      "▁श": 271,
      "▁ष": 272,
      "▁स": 273,
      "▁ह": 274,
      "▁़": 275,
      "▁ा": 276,
      "▁ि": 277,
      "▁ी": 278,
      "▁ु": 279,
      "▁ू": 280,
      "▁ृ": 281,
      "▁े": 282,
      "▁ै": 283,
      "▁ॉ": 284,
      "▁ो": 285,
      "▁ौ": 286,
      "▁्": 287,
      "▁।": 288,
      "▁。": 289,
      "▁ア": 290,
      "▁イ": 291,
      "▁デ": 292,
      "ने": 293,
      "▁ने": 294,
      "और": 295,
      "▁और": 296,
      "या": 297,
      "▁या": 298,
      "उस": 299,
      "▁उस": 300,
      "एक": 301,
      "▁एक": 302,
      "है": 303,
      "▁है": 304,
      "कि": 305,
      "▁कि": 306,
      "ना": 307,
      "▁ना": 308,
      "ें": 309,
      "▁ें": 310,
      "कर": 311,
      "▁कर": 312,
      "के": 313,
      "▁के": 314,
      "से": 315,
      "▁से": 316,
      "वह": 317,
      "▁वह": 318,
      "ड़": 319,
      "▁ड़": 320,
      "की": 321,
      "▁की": 322,
      "था": 323,
      "▁था": 324,
      "ार": 325,
      "▁ार": 326,
      "को": 327,
      "▁को": 328,
      "हु": 329,
      "▁हु": 330,
      "ता": 331,
      "▁ता": 332,
      "ों": 333,
      "▁ों": 334,
      "लि": 335,
      "▁लि": 336,
      "हा": 337,
      "▁हा": 338,
      "ते": 339,
      "▁ते": 340,
      "स्": 341,
      "▁स्": 342,
      "का": 343,
      "▁का": 344,
      "में": 345,
      "▁में": 346,
      "ली": 347,
      "▁ली": 348,
      "ही": 349,
      "▁ही": 350,
      "थी": 351,
      "▁थी": 352,
      "ले": 353,
      "▁ले": 354,
      "उसने": 355,
      "▁उसने": 356,
      "अप": 357,
      "▁अप": 358,
      "दि": 359,
      "▁दि": 360,
      "सा": 361,
      "▁सा": 362,
      "ला": 363,
      "▁ला": 364,
      "क्": 365,
      "▁क्": 366,
      "मा": 367,
      "▁मा": 368,
      "नी": 369,
      "▁नी": 370,
      "दे": 371,
      "▁दे": 372,
      "ती": 373,
      "▁ती": 374,
      "हो": 375,
      "▁हो": 376,
      "बहु": 377,
      "▁बहु": 378,
      "बहुत": 379,
      "▁बहुत": 380,
      "न्": 381,
      "▁न्": 382,
      "खा": 383,
      "▁खा": 384,
      "रा": 385,
      "▁रा": 386,
      "जा": 387,
      "▁जा": 388,
      "चा": 389,
      "▁चा": 390,
      "वे": 391,
      "▁वे": 392,
      "पर": 393,
      "▁पर": 394,
      "ज़": 395,
      "▁ज़": 396,
      "हीं": 397,
      "▁हीं": 398,
      "हैं": 399,
      "▁हैं": 400,
      "नहीं": 401,
      "▁नहीं": 402,
      "कहा": 403,
      "▁कहा": 404,
      "कु": 405,
      "▁कु": 406,
      "वा": 407,
      "▁वा": 408,
      "पा": 409,
      "▁पा": 410,
      "उसे": 411,
      "▁उसे": 412,
      "न्ह": 413,
      "▁न्ह": 414,
      "ंद": 415,
      "▁ंद": 416,
      "भी": 417,
      "▁भी": 418,
      "उन्ह": 419,
      "▁उन्ह": 420,
      "माँ": 421,
      "▁माँ": 422,
      "लिए": 423,
      "▁लिए": 424,
      "गा": 425,
      "▁गा": 426,
      "लिली": 427,
      "▁लिली": 428,
      "अपने": 429,
      "▁अपने": 430,
      "खे": 431,
      "▁खे": 432,
      "यह": 433,
      "▁यह": 434,
      "बा": 435,
      "▁बा": 436,
      "मी": 437,
      "▁मी": 438,
      "तु": 439,
      "▁तु": 440,
      "रे": 441,
      "▁रे": 442,
      "खु": 443,
      "▁खु": 444,
      "किन": 445,
      "▁किन": 446,
      "लेकिन": 447,
      "▁लेकिन": 448,
      "िर": 449,
      "▁िर": 450,
      "िल": 451,
      "▁िल": 452,
      "चाह": 453,
      "▁चाह": 454,
      "थे": 455,
      "▁थे": 456,
      "मु": 457,
      "▁मु": 458,
      "तुम": 459,
      "▁तुम": 460,
      "ोट": 461,
      "▁ोट": 462,
      "दिन": 463,
      "▁दिन": 464,
      "त्": 465,
      "▁त्": 466,
      "पस": 467,
      "▁पस": 468,
      "अपनी": 469,
      "▁अपनी": 470,
      "खेल": 471,
      "▁खेल": 472,
      "दो": 473,
      "▁दो": 474,
      "खुश": 475,
      "▁खुश": 476,
      "र्": 477,
      "▁र्": 478,
      "बार": 479,
      "▁बार": 480,
      "सक": 481,
      "▁सक": 482,
      "रह": 483,
      "▁रह": 484,
      "ोंने": 485,
      "▁ोंने": 486,
      "गया": 487,
      "▁गया": 488,
      "उन्होंने": 489,
      "▁उन्होंने": 490,
      "मै": 491,
      "▁मै": 492,
      "सी": 493,
      "▁सी": 494,
      "लड़": 495,
      "▁लड़": 496,
      "साथ": 497,
      "▁साथ": 498,
      "किया": 499,
      "▁किया": 500,
      "छोट": 501,
      "▁छोट": 502,
      "बे": 503,
      "▁बे": 504,
      "देखा": 505,
      "▁देखा": 506,
      "देख": 507,
      "▁देख": 508,
      "सु": 509,
      "▁सु": 510,
      "दिया": 511,
      "▁दिया": 512,
      "पसंद": 513,
      "▁पसंद": 514,
      "बड़": 515,
      "▁बड़": 516,
      "री": 517,
      "▁री": 518,
      "स्त": 519,
      "▁स्त": 520,
      "गी": 521,
      "▁गी": 522,
      "प्": 523,
      "▁प्": 524,
      "टि": 525,
      "▁टि": 526,
      "च्": 527,
      "▁च्": 528,
      "सू": 529,
      "▁सू": 530,
      "कुछ": 531,
      "▁कुछ": 532,
      "जि": 533,
      "▁जि": 534,
      "तो": 535,
      "▁तो": 536,
      "दा": 537,
      "▁दा": 538,
      "गई": 539,
      "▁गई": 540,
      "हम": 541,
      "▁हम": 542,
      "पू": 543,
      "▁पू": 544,
      "उसकी": 545,
      "▁उसकी": 546,
      "फिर": 547,
      "▁फिर": 548,
      "शा": 549,
      "▁शा": 550,
      "हुए": 551,
      "▁हुए": 552,
      "छा": 553,
      "▁छा": 554,
      "जब": 555,
      "▁जब": 556,
      "दोस्त": 557,
      "▁दोस्त": 558,
      "उसके": 559,
      "▁उसके": 560,
      "लगा": 561,
      "▁लगा": 562,
      "रहा": 563,
      "▁रहा": 564,
      "क्या": 565,
      "▁क्या": 566,
      "ित": 567,
      "▁ित": 568,
      "हर": 569,
      "▁हर": 570,
      "मह": 571,
      "▁मह": 572,
      "मैं": 573,
      "▁मैं": 574,
      "इस": 575,
      "▁इस": 576,
      "पास": 577,
      "▁पास": 578,
      "ंग": 579,
      "▁ंग": 580,
      "जो": 581,
      "▁जो": 582,
      "टॉ": 583,
      "▁टॉ": 584,
      "नि": 585,
      "▁नि": 586,
      "उन्हें": 587,
      "▁उन्हें": 588,
      "चे": 589,
      "▁चे": 590,
      "रो": 591,
      "▁रो": 592,
      "लड़की": 593,
      "▁लड़की": 594,
      "करना": 595,
      "▁करना": 596,
      "मि": 597,
      "▁मि": 598,
      "ार्": 599,
      "▁ार्": 600,
      "रू": 601,
      "▁रू": 602,
      "बेन": 603,
      "▁बेन": 604,
      "अच्": 605,
      "▁अच्": 606,
      "यों": 607,
      "▁यों": 608,
      "मुस्": 609,
      "▁मुस्": 610,
      "रही": 611,
      "▁रही": 612,
      "टॉम": 613,
      "▁टॉम": 614,
      "छोटी": 615,
      "▁छोटी": 616,
      "करने": 617,
      "▁करने": 618,
      "्ह": 619,
      "▁्ह": 620,
      "दी": 621,
      "▁दी": 622,
      "दू": 623,
      "▁दू": 624,
      "तुम्ह": 625,
      "▁तुम्ह": 626,
      "मज़": 627,
      "▁मज़": 628,
      "दु": 629,
      "▁दु": 630,
      "घर": 631,
      "▁घर": 632,
      "क्ष": 633,
      "▁क्ष": 634,
      "कुरा": 635,
      "▁कुरा": 636,
      "मुस्कुरा": 637,
      "▁मुस्कुरा": 638,
      "ट्": 639,
      "▁ट्": 640,
      "सूस": 641,
      "▁सूस": 642,
      "महसूस": 643,
      "▁महसूस": 644,
      "ची": 645,
      "▁ची": 646,
      "उन": 647,
      "▁उन": 648,
      "भा": 649,
      "▁भा": 650,
      "रहे": 651,
      "▁रहे": 652,
      "ंत": 653,
      "▁ंत": 654,
      "करते": 655,
      "▁करते": 656,
      "ओर": 657,
      "▁ओर": 658,
      "मे": 659,
      "▁मे": 660,
      "बना": 661,
      "▁बना": 662,
      "ल्": 663,
      "▁ल्": 664,
      "जिस": 665,
      "▁जिस": 666,
      "मद": 667,
      "▁मद": 668,
      "मदद": 669,
      "▁मदद": 670,
      "इसे": 671,
      "▁इसे": 672,
      "िल्": 673,
      "▁िल्": 674,
      "कार": 675,
      "▁कार": 676,
      "ड़ा": 677,
      "▁ड़ा": 678,
      "दार": 679,
      "▁दार": 680,
      "सो": 681,
      "▁सो": 682,
      "खेलना": 683,
      "▁खेलना": 684,
      "कह": 685,
      "▁कह": 686,
      "नों": 687,
      "▁नों": 688,
      "बड़ा": 689,
      "▁बड़ा": 690,
      "टिमी": 691,
      "▁टिमी": 692,
      "लग": 693,
      "▁लग": 694,
      "ूँ": 695,
      "▁ूँ": 696,
      "लिया": 697,
      "▁लिया": 698,
      "खिल": 699,
      "▁खिल": 700,
      "क्स": 701,
      "▁क्स": 702,
      "िश": 703,
      "▁िश": 704,
      "खो": 705,
      "▁खो": 706,
      "ंदर": 707,
      "▁ंदर": 708,
      "खिलौ": 709,
      "▁खिलौ": 710,
      "सम": 711,
      "▁सम": 712,
      "हुआ": 713,
      "▁हुआ": 714,
      "मुझ": 715,
      "▁मुझ": 716,
      "पे": 717,
      "▁पे": 718,
      "ारा": 719,
      "▁ारा": 720,
      "सकते": 721,
      "▁सकते": 722,
      "गए": 723,
      "▁गए": 724,
      "करती": 725,
      "▁करती": 726,
      "मुझे": 727,
      "▁मुझे": 728,
      "नाम": 729,
      "▁नाम": 730,
      "दौ": 731,
      "▁दौ": 732,
      "सै": 733,
      "▁सै": 734,
      "लो": 735,
      "▁लो": 736,
      "फ़": 737,
      "▁फ़": 738,
      "जान": 739,
      "▁जान": 740,
      "प्या": 741,
      "▁प्या": 742,
      "ढ़": 743,
      "▁ढ़": 744,
      "पी": 745,
      "▁पी": 746,
      "शु": 747,
      "▁शु": 748,
      "हाँ": 749,
      "▁हाँ": 750,
      "मज़े": 751,
      "▁मज़े": 752,
      "चि": 753,
      "▁चि": 754,
      "बाहर": 755,
      "▁बाहर": 756,
      "म्": 757,
      "▁म्": 758,
      "ड़ी": 759,
      "▁ड़ी": 760,
      "ारी": 761,
      "▁ारी": 762,
      "पूछा": 763,
      "▁पूछा": 764,
      "चाहता": 765,
      "▁चाहता": 766,
      "पार्": 767,
      "▁पार्": 768,
      "टी": 769,
      "▁टी": 770,
      "जै": 771,
      "▁जै": 772,
      "लू": 773,
      "▁लू": 774,
      "सब": 775,
      "▁सब": 776,
      "िया": 777,
      "▁िया": 778,
      "पह": 779,
      "▁पह": 780,
      "छे": 781,
      "▁छे": 782,
      "ठी": 783,
      "▁ठी": 784,
      "उत्": 785,
      "▁उत्": 786,
      "िए": 787,
      "▁िए": 788,
      "ेशा": 789,
      "▁ेशा": 790,
      "आप": 791,
      "▁आप": 792,
      "हूँ": 793,
      "▁हूँ": 794,
      "चाहती": 795,
      "▁चाहती": 796,
      "सभी": 797,
      "▁सभी": 798,
      "सकता": 799,
      "▁सकता": 800,
      "गले": 801,
      "▁गले": 802,
      "खी": 803,
      "▁खी": 804,
      "गु": 805,
      "▁गु": 806,
      "दूस": 807,
      "▁दूस": 808,
      "पार्क": 809,
      "▁पार्क": 810,
      "चाहिए": 811,
      "▁चाहिए": 812,
      "पि": 813,
      "▁पि": 814,
      "करता": 815,
      "▁करता": 816,
      "वि": 817,
      "▁वि": 818,
      "शुरू": 819,
      "▁शुरू": 820,
      "सकती": 821,
      "▁सकती": 822,
      "िला": 823,
      "▁िला": 824,
      "गे": 825,
      "▁गे": 826,
      "बै": 827,
      "▁बै": 828,
      "कू": 829,
      "▁कू": 830,
      "तक": 831,
      "▁तक": 832,
      "क्यों": 833,
      "▁क्यों": 834,
      "जी": 835,
      "▁जी": 836,
      "साह": 837,
      "▁साह": 838,
      "छोटा": 839,
      "▁छोटा": 840,
      "कोश": 841,
      "▁कोश": 842,
      "टिम": 843,
      "▁टिम": 844,
      "न्य": 845,
      "▁न्य": 846,
      "जिसका": 847,
      "▁जिसका": 848,
      "अपना": 849,
      "▁अपना": 850,
      "कोशिश": 851,
      "▁कोशिश": 852,
      "बु": 853,
      "▁बु": 854,
      "इसलिए": 855,
      "▁इसलिए": 856,
      "दौड़": 857,
      "▁दौड़": 858,
      "फै": 859,
      "▁फै": 860,
      "ठीक": 861,
      "▁ठीक": 862,
      "चम": 863,
      "▁चम": 864,
      "पेड़": 865,
      "▁पेड़": 866,
      "बाद": 867,
      "▁बाद": 868,
      "द्": 869,
      "▁द्": 870,
      "श्": 871,
      "▁श्": 872,
      "पता": 873,
      "▁पता": 874,
      "तुम्हें": 875,
      "▁तुम्हें": 876,
      "हुई": 877,
      "▁हुई": 878,
      "बि": 879,
      "▁बि": 880,
      "बी": 881,
      "▁बी": 882,
      "सला": 883,
      "▁सला": 884,
      "गर्": 885,
      "▁गर्": 886,
      "जे": 887,
      "▁जे": 888,
      "खुशी": 889,
      "▁खुशी": 890,
      "डर": 891,
      "▁डर": 892,
      "वहा": 893,
      "▁वहा": 894,
      "बो": 895,
      "▁बो": 896,
      "पक्ष": 897,
      "▁पक्ष": 898,
      "अच्छा": 899,
      "▁अच्छा": 900,
      "दिखा": 901,
      "▁दिखा": 902,
      "पक": 903,
      "▁पक": 904,
      "हमेशा": 905,
      "▁हमेशा": 906,
      "उत्साह": 907,
      "▁उत्साह": 908,
      "सारा": 909,
      "▁सारा": 910,
      "ूल": 911,
      "▁ूल": 912,
      "झा": 913,
      "▁झा": 914,
      "मान": 915,
      "▁मान": 916,
      "वाज़": 917,
      "▁वाज़": 918,
      "कभी": 919,
      "▁कभी": 920,
      "लड़का": 921,
      "▁लड़का": 922,
      "आया": 923,
      "▁आया": 924,
      "बड़े": 925,
      "▁बड़े": 926,
      "वर": 927,
      "▁वर": 928,
      "रख": 929,
      "▁रख": 930,
      "ठा": 931,
      "▁ठा": 932,
      "प्यार": 933,
      "▁प्यार": 934,
      "ति": 935,
      "▁ति": 936,
      "उत्साहित": 937,
      "▁उत्साहित": 938,
      "तर": 939,
      "▁तर": 940,
      "सैम": 941,
      "▁सैम": 942,
      "फैसला": 943,
      "▁फैसला": 944,
      "वाद": 945,
      "▁वाद": 946,
      "जाने": 947,
      "▁जाने": 948,
      "धा": 949,
      "▁धा": 950,
      "ंड": 951,
      "▁ंड": 952,
      "कुत्": 953,
      "▁कुत्": 954,
      "निक": 955,
      "▁निक": 956,
      "ड़े": 957,
      "▁ड़े": 958,
      "पहु": 959,
      "▁पहु": 960,
      "समय": 961,
      "▁समय": 962,
      "दूसरे": 963,
      "▁दूसरे": 964,
      "वापस": 965,
      "▁वापस": 966,
      "ब्": 967,
      "▁ब्": 968,
      "बिल्": 969,
      "▁बिल्": 970,
      "आवाज़": 971,
      "▁आवाज़": 972,
      "न्ना": 973,
      "▁न्ना": 974,
      "अब": 975,
      "▁अब": 976,
      "टे": 977,
      "▁टे": 978,
      "म्मी": 979,
      "▁म्मी": 980,
      "पक्षी": 981,
      "▁पक्षी": 982,
      "दोस्तों": 983,
      "▁दोस्तों": 984,
      "मैक्स": 985,
      "▁मैक्स": 986,
      "बॉ": 987,
      "▁बॉ": 988,
      "हाथ": 989,
      "▁हाथ": 990,
      "आद": 991,
      "▁आद": 992,
      "प्र": 993,
      "▁प्र": 994,
      "बच्": 995,
      "▁बच्": 996,
      "टा": 997,
      "▁टा": 998,
      "आदमी": 999,
      "▁आदमी": 1000,
      "अन्ना": 1001,
      "▁अन्ना": 1002,
      "्या": 1003,
      "▁्या": 1004,
      "पानी": 1005,
      "▁पानी": 1006,
      "जल्": 1007,
      "▁जल्": 1008,
      "उसका": 1009,
      "▁उसका": 1010,
      "चल": 1011,
      "▁चल": 1012,
      "बात": 1013,
      "▁बात": 1014,
      "पिता": 1015,
      "▁पिता": 1016,
      "धन्य": 1017,
      "▁धन्य": 1018,
      "धन्यवाद": 1019,
      "▁धन्यवाद": 1020,
      "सिर": 1021,
      "▁सिर": 1022,
      "गो": 1023,
      "▁गो": 1024,
      "उनके": 1025,
      "▁उनके": 1026,
      "सूर": 1027,
      "▁सूर": 1028,
      "हं": 1029,
      "▁हं": 1030,
      "ारे": 1031,
      "▁ारे": 1032,
      "हिला": 1033,
      "▁हिला": 1034,
      "जाना": 1035,
      "▁जाना": 1036,
      "क्योंकि": 1037,
      "▁क्योंकि": 1038,
      "मिल": 1039,
      "▁मिल": 1040,
      "सुंदर": 1041,
      "▁सुंदर": 1042,
      "पै": 1043,
      "▁पै": 1044,
      "कूद": 1045,
      "▁कूद": 1046,
      "अंत": 1047,
      "▁अंत": 1048,
      "पहुँ": 1049,
      "▁पहुँ": 1050,
      "तना": 1051,
      "▁तना": 1052,
      "िल्ला": 1053,
      "▁िल्ला": 1054,
      "ूं": 1055,
      "▁ूं": 1056,
      "खेलने": 1057,
      "▁खेलने": 1058,
      "मुस्कुराते": 1059,
      "▁मुस्कुराते": 1060,
      "साव": 1061,
      "▁साव": 1062,
      "कई": 1063,
      "▁कई": 1064,
      "मज़ेदार": 1065,
      "▁मज़ेदार": 1066,
      "सावधा": 1067,
      "▁सावधा": 1068,
      "बड़ी": 1069,
      "▁बड़ी": 1070,
      "तै": 1071,
      "▁तै": 1072,
      "अंदर": 1073,
      "▁अंदर": 1074,
      "स्ते": 1075,
      "▁स्ते": 1076,
      "दोनों": 1077,
      "▁दोनों": 1078,
      "वी": 1079,
      "▁वी": 1080,
      "नीचे": 1081,
      "▁नीचे": 1082,
      "काम": 1083,
      "▁काम": 1084,
      "उड़": 1085,
      "▁उड़": 1086,
      "सबसे": 1087,
      "▁सबसे": 1088,
      "जैक": 1089,
      "▁जैक": 1090,
      "तेज़": 1091,
      "▁तेज़": 1092,
      "्य": 1093,
      "▁्य": 1094,
      "वार": 1095,
      "▁वार": 1096,
      "ुक": 1097,
      "▁ुक": 1098,
      "्ट": 1099,
      "▁्ट": 1100,
      "कहती": 1101,
      "▁कहती": 1102,
      "गह": 1103,
      "▁गह": 1104,
      "छी": 1105,
      "▁छी": 1106,
      "कोई": 1107,
      "▁कोई": 1108,
      "लगी": 1109,
      "▁लगी": 1110,
      "जाए": 1111,
      "▁जाए": 1112,
      "लगाया": 1113,
      "▁लगाया": 1114,
      "स्वा": 1115,
      "▁स्वा": 1116,
      "चीज़": 1117,
      "▁चीज़": 1118,
      "ूम": 1119,
      "▁ूम": 1120,
      "वहाँ": 1121,
      "▁वहाँ": 1122,
      "गें": 1123,
      "▁गें": 1124,
      "चला": 1125,
      "▁चला": 1126,
      "चिल्ला": 1127,
      "▁चिल्ला": 1128,
      "ंच": 1129,
      "▁ंच": 1130,
      "ंगी": 1131,
      "▁ंगी": 1132,
      "कै": 1133,
      "▁कै": 1134,
      "बू": 1135,
      "▁बू": 1136,
      "तभी": 1137,
      "▁तभी": 1138,
      "दुखी": 1139,
      "▁दुखी": 1140,
      "गेंद": 1141,
      "▁गेंद": 1142,
      "उठा": 1143,
      "▁उठा": 1144,
      "चार": 1145,
      "▁चार": 1146,
      "ड्": 1147,
      "▁ड्": 1148,
      "भाग": 1149,
      "▁भाग": 1150,
      "खिलौनों": 1151,
      "▁खिलौनों": 1152,
      "पापा": 1153,
      "▁पापा": 1154,
      "होने": 1155,
      "▁होने": 1156,
      "कम": 1157,
      "▁कम": 1158,
      "बन": 1159,
      "▁बन": 1160,
      "होगा": 1161,
      "▁होगा": 1162,
      "टर": 1163,
      "▁टर": 1164,
      "चाहते": 1165,
      "▁चाहते": 1166,
      "पकड़": 1167,
      "▁पकड़": 1168,
      "तरह": 1169,
      "▁तरह": 1170,
      "थीं": 1171,
      "▁थीं": 1172,
      "टो": 1173,
      "▁टो": 1174,
      "बिल्ली": 1175,
      "▁बिल्ली": 1176,
      "चु": 1177,
      "▁चु": 1178,
      "ष्ट": 1179,
      "▁ष्ट": 1180,
      "छोटे": 1181,
      "▁छोटे": 1182,
      "पहले": 1183,
      "▁पहले": 1184,
      "बारे": 1185,
      "▁बारे": 1186,
      "रखा": 1187,
      "▁रखा": 1188,
      "मिया": 1189,
      "▁मिया": 1190,
      "गर्व": 1191,
      "▁गर्व": 1192,
      "मम्मी": 1193,
      "▁मम्मी": 1194,
      "उदा": 1195,
      "▁उदा": 1196,
      "जॉ": 1197,
      "▁जॉ": 1198,
      "जंग": 1199,
      "▁जंग": 1200,
      "खोज": 1201,
      "▁खोज": 1202,
      "जानवर": 1203,
      "▁जानवर": 1204,
      "चीज": 1205,
      "▁चीज": 1206,
      "देखी": 1207,
      "▁देखी": 1208,
      "ऊपर": 1209,
      "▁ऊपर": 1210,
      "पाया": 1211,
      "▁पाया": 1212,
      "डा": 1213,
      "▁डा": 1214,
      "पत्": 1215,
      "▁पत्": 1216,
      "बता": 1217,
      "▁बता": 1218,
      "उदास": 1219,
      "▁उदास": 1220,
      "ास": 1221,
      "▁ास": 1222,
      "खिलौना": 1223,
      "▁खिलौना": 1224,
      "कहता": 1225,
      "▁कहता": 1226,
      "ट्र": 1227,
      "▁ट्र": 1228,
      "अच्छे": 1229,
      "▁अच्छे": 1230,
      "हंस": 1231,
      "▁हंस": 1232,
      "पॉ": 1233,
      "▁पॉ": 1234,
      "खर": 1235,
      "▁खर": 1236,
      "मेरे": 1237,
      "▁मेरे": 1238,
      "रंग": 1239,
      "▁रंग": 1240,
      "आस": 1241,
      "▁आस": 1242,
      "रक्ष": 1243,
      "▁रक्ष": 1244,
      "अच्छी": 1245,
      "▁अच्छी": 1246,
      "मुस्कुराई": 1247,
      "▁मुस्कुराई": 1248,
      "जाते": 1249,
      "▁जाते": 1250,
      "जगह": 1251,
      "▁जगह": 1252,
      "फूल": 1253,
      "▁फूल": 1254,
      "ड़िया": 1255,
      "▁ड़िया": 1256,
      "थो": 1257,
      "▁थो": 1258,
      "चमक": 1259,
      "▁चमक": 1260,
      "हमें": 1261,
      "▁हमें": 1262,
      "खाना": 1263,
      "▁खाना": 1264,
      "निकल": 1265,
      "▁निकल": 1266,
      "जोर": 1267,
      "▁जोर": 1268,
      "घूम": 1269,
      "▁घूम": 1270,
      "स्वादि": 1271,
      "▁स्वादि": 1272,
      "स्वादिष्ट": 1273,
      "▁स्वादिष्ट": 1274,
      "जंगल": 1275,
      "▁जंगल": 1276,
      "बगी": 1277,
      "▁बगी": 1278,
      "खास": 1279,
      "▁खास": 1280,
      "यू": 1281,
      "▁यू": 1282,
      "गुस्": 1283,
      "▁गुस्": 1284,
      "देखते": 1285,
      "▁देखते": 1286,
      "चलो": 1287,
      "▁चलो": 1288,
      "निका": 1289,
      "▁निका": 1290,
      "पु": 1291,
      "▁पु": 1292,
      "सुरक्ष": 1293,
      "▁सुरक्ष": 1294,
      "बंद": 1295,
      "▁बंद": 1296,
      "फा": 1297,
      "▁फा": 1298,
      "दूर": 1299,
      "▁दूर": 1300,
      "साझा": 1301,
      "▁साझा": 1302,
      "बैठ": 1303,
      "▁बैठ": 1304,
      "तनी": 1305,
      "▁तनी": 1306,
      "मत": 1307,
      "▁मत": 1308,
      "गोश": 1309,
      "▁गोश": 1310,
      "खरगोश": 1311,
      "▁खरगोश": 1312,
      "हे": 1313,
      "▁हे": 1314,
      "दर": 1315,
      "▁दर": 1316,
      "सि": 1317,
      "▁सि": 1318,
      "सुना": 1319,
      "▁सुना": 1320,
      "व्य": 1321,
      "▁व्य": 1322,
      "लोग": 1323,
      "▁लोग": 1324,
      "सुन": 1325,
      "▁सुन": 1326,
      "नया": 1327,
      "▁नया": 1328,
      "भू": 1329,
      "▁भू": 1330,
      "याद": 1331,
      "▁याद": 1332,
      "ऐसा": 1333,
      "▁ऐसा": 1334,
      "लाइ": 1335,
      "▁लाइ": 1336,
      "करो": 1337,
      "▁करो": 1338,
      "चमकी": 1339,
      "▁चमकी": 1340,
      "बगीचे": 1341,
      "▁बगीचे": 1342,
      "सुरक्षित": 1343,
      "▁सुरक्षित": 1344,
      "छि": 1345,
      "▁छि": 1346,
      "आई": 1347,
      "▁आई": 1348,
      "नए": 1349,
      "▁नए": 1350,
      "उनकी": 1351,
      "▁उनकी": 1352,
      "मेरी": 1353,
      "▁मेरी": 1354,
      "जवा": 1355,
      "▁जवा": 1356,
      "रों": 1357,
      "▁रों": 1358,
      "रूर": 1359,
      "▁रूर": 1360,
      "जवाब": 1361,
      "▁जवाब": 1362,
      "भालू": 1363,
      "▁भालू": 1364,
      "परि": 1365,
      "▁परि": 1366,
      "सूरज": 1367,
      "▁सूरज": 1368,
      "मज़ा": 1369,
      "▁मज़ा": 1370,
      "चारों": 1371,
      "▁चारों": 1372,
      "पीछे": 1373,
      "▁पीछे": 1374,
      "रोज़": 1375,
      "▁रोज़": 1376,
      "डी": 1377,
      "▁डी": 1378,
      "कमरे": 1379,
      "▁कमरे": 1380,
      "गर": 1381,
      "▁गर": 1382,
      "अलग": 1383,
      "▁अलग": 1384,
      "सोचा": 1385,
      "▁सोचा": 1386,
      "लड़के": 1387,
      "▁लड़के": 1388,
      "सीखा": 1389,
      "▁सीखा": 1390,
      "ेंगे": 1391,
      "▁ेंगे": 1392,
      "बेह": 1393,
      "▁बेह": 1394,
      "कान": 1395,
      "▁कान": 1396,
      "चढ़": 1397,
      "▁चढ़": 1398,
      "देखो": 1399,
      "▁देखो": 1400,
      "जाता": 1401,
      "▁जाता": 1402,
      "जल्दी": 1403,
      "▁जल्दी": 1404,
      "लाल": 1405,
      "▁लाल": 1406,
      "कुत्ते": 1407,
      "▁कुत्ते": 1408,
      "डॉ": 1409,
      "▁डॉ": 1410,
      "धी": 1411,
      "▁धी": 1412,
      "गि": 1413,
      "▁गि": 1414,
      "फी": 1415,
      "▁फी": 1416,
      "यर": 1417,
      "▁यर": 1418,
      "जॉन": 1419,
      "▁जॉन": 1420,
      "जार": 1421,
      "▁जार": 1422,
      "स्वी": 1423,
      "▁स्वी": 1424,
      "कुत्ता": 1425,
      "▁कुत्ता": 1426,
      "मिला": 1427,
      "▁मिला": 1428,
      "ियों": 1429,
      "▁ियों": 1430,
      "्यादा": 1431,
      "▁्यादा": 1432,
      "ताकि": 1433,
      "▁ताकि": 1434,
      "हिलाया": 1435,
      "▁हिलाया": 1436,
      "क्र": 1437,
      "▁क्र": 1438,
      "परिवार": 1439,
      "▁परिवार": 1440,
      "बेहतर": 1441,
      "▁बेहतर": 1442,
      "सोच": 1443,
      "▁सोच": 1444,
      "तुम्हारे": 1445,
      "▁तुम्हारे": 1446,
      "लूसी": 1447,
      "▁लूसी": 1448,
      "खेलते": 1449,
      "▁खेलते": 1450,
      "यो": 1451,
      "▁यो": 1452,
      "ताब": 1453,
      "▁ताब": 1454,
      "करी": 1455,
      "▁करी": 1456,
      "खिलौने": 1457,
      "▁खिलौने": 1458,
      "हैरा": 1459,
      "▁हैरा": 1460,
      "होता": 1461,
      "▁होता": 1462,
      "तैया": 1463,
      "▁तैया": 1464,
      "इंत": 1465,
      "▁इंत": 1466,
      "आँ": 1467,
      "▁आँ": 1468,
      "फ्": 1469,
      "▁फ्": 1470,
      "बह": 1471,
      "▁बह": 1472,
      "किसी": 1473,
      "▁किसी": 1474,
      "ऊं": 1475,
      "▁ऊं": 1476,
      "ोर": 1477,
      "▁ोर": 1478,
      "बहा": 1479,
      "▁बहा": 1480,
      "नक": 1481,
      "▁नक": 1482,
      "अन": 1483,
      "▁अन": 1484,
      "तैयार": 1485,
      "▁तैयार": 1486,
      "जाती": 1487,
      "▁जाती": 1488,
      "जिसे": 1489,
      "▁जिसे": 1490,
      "बच्चे": 1491,
      "▁बच्चे": 1492,
      "देखना": 1493,
      "▁देखना": 1494,
      "हवा": 1495,
      "▁हवा": 1496,
      "पूर्": 1497,
      "▁पूर्": 1498,
      "सं": 1499,
      "▁सं": 1500,
      "लं": 1501,
      "▁लं": 1502,
      "देखने": 1503,
      "▁देखने": 1504,
      "बहादु": 1505,
      "▁बहादु": 1506,
      "माल": 1507,
      "▁माल": 1508,
      "रर": 1509,
      "▁रर": 1510,
      "बताया": 1511,
      "▁बताया": 1512,
      "केक": 1513,
      "▁केक": 1514,
      "आसमान": 1515,
      "▁आसमान": 1516,
      "तला": 1517,
      "▁तला": 1518,
      "उससे": 1519,
      "▁उससे": 1520,
      "गिर": 1521,
      "▁गिर": 1522,
      "मुद्": 1523,
      "▁मुद्": 1524,
      "ूब": 1525,
      "▁ूब": 1526,
      "खुद": 1527,
      "▁खुद": 1528,
      "समुद्": 1529,
      "▁समुद्": 1530,
      "किताब": 1531,
      "▁किताब": 1532,
      "त्र": 1533,
      "▁त्र": 1534,
      "मीन": 1535,
      "▁मीन": 1536,
      "लॉ": 1537,
      "▁लॉ": 1538,
      "कप": 1539,
      "▁कप": 1540,
      "सावधानी": 1541,
      "▁सावधानी": 1542,
      "साफ़": 1543,
      "▁साफ़": 1544,
      "इस्ते": 1545,
      "▁इस्ते": 1546,
      "इस्तेमाल": 1547,
      "▁इस्तेमाल": 1548,
      "वाह": 1549,
      "▁वाह": 1550,
      "अभी": 1551,
      "▁अभी": 1552,
      "ख़": 1553,
      "▁ख़": 1554,
      "बॉक्स": 1555,
      "▁बॉक्स": 1556,
      "जैसे": 1557,
      "▁जैसे": 1558,
      "त्व": 1559,
      "▁त्व": 1560,
      "डे": 1561,
      "▁डे": 1562,
      "ज़रूर": 1563,
      "▁ज़रूर": 1564,
      "जल्द": 1565,
      "▁जल्द": 1566,
      "तलाश": 1567,
      "▁तलाश": 1568,
      "पॉट": 1569,
      "▁पॉट": 1570,
      "पूर्ण": 1571,
      "▁पूर्ण": 1572,
      "खाने": 1573,
      "▁खाने": 1574,
      "जू": 1575,
      "▁जू": 1576,
      "तस्वी": 1577,
      "▁तस्वी": 1578,
      "चिड़िया": 1579,
      "▁चिड़िया": 1580,
      "सके": 1581,
      "▁सके": 1582,
      "करे": 1583,
      "▁करे": 1584,
      "चू": 1585,
      "▁चू": 1586,
      "सावधान": 1587,
      "▁सावधान": 1588,
      "वहां": 1589,
      "▁वहां": 1590,
      "हैरान": 1591,
      "▁हैरान": 1592,
      "धीरे": 1593,
      "▁धीरे": 1594,
      "गर्म": 1595,
      "▁गर्म": 1596,
      "पं": 1597,
      "▁पं": 1598,
      "मैंने": 1599,
      "▁मैंने": 1600,
      "ोड़": 1601,
      "▁ोड़": 1602,
      "जमीन": 1603,
      "▁जमीन": 1604,
      "शाय": 1605,
      "▁शाय": 1606,
      "शायद": 1607,
      "▁शायद": 1608,
      "बहादुर": 1609,
      "▁बहादुर": 1610,
      "आआ": 1611,
      "▁आआ": 1612,
      "ग्": 1613,
      "▁ग्": 1614,
      "बोली": 1615,
      "▁बोली": 1616,
      "तुम्हारी": 1617,
      "▁तुम्हारी": 1618,
      "मार": 1619,
      "▁मार": 1620,
      "टू": 1621,
      "▁टू": 1622,
      "इतना": 1623,
      "▁इतना": 1624,
      "रंगी": 1625,
      "▁रंगी": 1626,
      "श्श्": 1627,
      "▁श्श्": 1628,
      "लों": 1629,
      "▁लों": 1630,
      "पो": 1631,
      "▁पो": 1632,
      "स्ता": 1633,
      "▁स्ता": 1634,
      "यहाँ": 1635,
      "▁यहाँ": 1636,
      "चली": 1637,
      "▁चली": 1638,
      "मछ": 1639,
      "▁मछ": 1640,
      "जेन": 1641,
      "▁जेन": 1642,
      "तस्वीर": 1643,
      "▁तस्वीर": 1644,
      "स्पॉट": 1645,
      "▁स्पॉट": 1646,
      "लेकर": 1647,
      "▁लेकर": 1648,
      "आपको": 1649,
      "▁आपको": 1650,
      "लगे": 1651,
      "▁लगे": 1652,
      "चोट": 1653,
      "▁चोट": 1654,
      "निया": 1655,
      "▁निया": 1656,
      "बर्": 1657,
      "▁बर्": 1658,
      "स्लाइ": 1659,
      "▁स्लाइ": 1660,
      "आँख": 1661,
      "▁आँख": 1662,
      "इंतजार": 1663,
      "▁इंतजार": 1664,
      "गुस्से": 1665,
      "▁गुस्से": 1666,
      "होना": 1667,
      "▁होना": 1668,
      "गल": 1669,
      "▁गल": 1670,
      "फि": 1671,
      "▁फि": 1672,
      "स्लाइड": 1673,
      "▁स्लाइड": 1674,
      "साल": 1675,
      "▁साल": 1676,
      "थोड़ा": 1677,
      "▁थोड़ा": 1678,
      "चों": 1679,
      "▁चों": 1680,
      "शे": 1681,
      "▁शे": 1682,
      "ढूं": 1683,
      "▁ढूं": 1684,
      "रात": 1685,
      "▁रात": 1686,
      "सूरत": 1687,
      "▁सूरत": 1688,
      "आरा": 1689,
      "▁आरा": 1690,
      "त्म": 1691,
      "▁त्म": 1692,
      "बस": 1693,
      "▁बस": 1694,
      "ंक": 1695,
      "▁ंक": 1696,
      "सुनी": 1697,
      "▁सुनी": 1698,
      "इक": 1699,
      "▁इक": 1700,
      "करीब": 1701,
      "▁करीब": 1702,
      "जानवरों": 1703,
      "▁जानवरों": 1704,
      "राइ": 1705,
      "▁राइ": 1706,
      "डि": 1707,
      "▁डि": 1708,
      "डरा": 1709,
      "▁डरा": 1710,
      "होती": 1711,
      "▁होती": 1712,
      "ख़ास": 1713,
      "▁ख़ास": 1714,
      "शान": 1715,
      "▁शान": 1716,
      "आराम": 1717,
      "▁आराम": 1718,
      "रम": 1719,
      "▁रम": 1720,
      "होकर": 1721,
      "▁होकर": 1722,
      "पत्थ": 1723,
      "▁पत्थ": 1724,
      "बॉब": 1725,
      "▁बॉब": 1726,
      "बढ़": 1727,
      "▁बढ़": 1728,
      "भर": 1729,
      "▁भर": 1730,
      "दादी": 1731,
      "▁दादी": 1732,
      "उठाया": 1733,
      "▁उठाया": 1734,
      "ढूंढ": 1735,
      "▁ढूंढ": 1736,
      "सर": 1737,
      "▁सर": 1738,
      "चीजों": 1739,
      "▁चीजों": 1740,
      "श्च": 1741,
      "▁श्च": 1742,
      "समुद्र": 1743,
      "▁समुद्र": 1744,
      "ज्": 1745,
      "▁ज्": 1746,
      "बुरा": 1747,
      "▁बुरा": 1748,
      "स्यू": 1749,
      "▁स्यू": 1750,
      "अल": 1751,
      "▁अल": 1752,
      "खूब": 1753,
      "▁खूब": 1754,
      "बनाया": 1755,
      "▁बनाया": 1756,
      "जन": 1757,
      "▁जन": 1758,
      "तीन": 1759,
      "▁तीन": 1760,
      "वाला": 1761,
      "▁वाला": 1762,
      "हरे": 1763,
      "▁हरे": 1764,
      "महत्व": 1765,
      "▁महत्व": 1766,
      "ट्रक": 1767,
      "▁ट्रक": 1768,
      "आने": 1769,
      "▁आने": 1770,
      "अगर": 1771,
      "▁अगर": 1772,
      "ंध": 1773,
      "▁ंध": 1774,
      "रोमा": 1775,
      "▁रोमा": 1776,
      "रोमांच": 1777,
      "▁रोमांच": 1778,
      "विदा": 1779,
      "▁विदा": 1780,
      "बल": 1781,
      "▁बल": 1782,
      "अके": 1783,
      "▁अके": 1784,
      "नाव": 1785,
      "▁नाव": 1786,
      "रहता": 1787,
      "▁रहता": 1788,
      "खूबसूरत": 1789,
      "▁खूबसूरत": 1790,
      "रि": 1791,
      "▁रि": 1792,
      "माता": 1793,
      "▁माता": 1794,
      "जाकर": 1795,
      "▁जाकर": 1796,
      "बनाना": 1797,
      "▁बनाना": 1798,
      "लाब": 1799,
      "▁लाब": 1800,
      "हँ": 1801,
      "▁हँ": 1802,
      "बनाने": 1803,
      "▁बनाने": 1804,
      "पूछ": 1805,
      "▁पूछ": 1806,
      "धि": 1807,
      "▁धि": 1808,
      "बूढ़": 1809,
      "▁बूढ़": 1810,
      "वाले": 1811,
      "▁वाले": 1812,
      "नै": 1813,
      "▁नै": 1814,
      "छोड़": 1815,
      "▁छोड़": 1816,
      "रोने": 1817,
      "▁रोने": 1818,
      "तैर": 1819,
      "▁तैर": 1820,
      "ंता": 1821,
      "▁ंता": 1822,
      "आन": 1823,
      "▁आन": 1824,
      "महत्वपूर्ण": 1825,
      "▁महत्वपूर्ण": 1826,
      "लु": 1827,
      "▁लु": 1828,
      "घु": 1829,
      "▁घु": 1830,
      "खरी": 1831,
      "▁खरी": 1832,
      "मॉ": 1833,
      "▁मॉ": 1834,
      "पूरे": 1835,
      "▁पूरे": 1836,
      "स्ट": 1837,
      "▁स्ट": 1838,
      "शांत": 1839,
      "▁शांत": 1840,
      "अनु": 1841,
      "▁अनु": 1842,
      "हरा": 1843,
      "▁हरा": 1844,
      "चले": 1845,
      "▁चले": 1846,
      "मेरा": 1847,
      "▁मेरा": 1848,
      "ज़रूरत": 1849,
      "▁ज़रूरत": 1850,
      "कहते": 1851,
      "▁कहते": 1852,
      "हूं": 1853,
      "▁हूं": 1854,
      "आनंद": 1855,
      "▁आनंद": 1856,
      "ज़ी": 1857,
      "▁ज़ी": 1858,
      "मुस्कुराया": 1859,
      "▁मुस्कुराया": 1860,
      "चिंता": 1861,
      "▁चिंता": 1862,
      "रहना": 1863,
      "▁रहना": 1864,
      "अचा": 1865,
      "▁अचा": 1866,
      "भारी": 1867,
      "▁भारी": 1868,
      "अचानक": 1869,
      "▁अचानक": 1870,
      "ट्टी": 1871,
      "▁ट्टी": 1872,
      "फे": 1873,
      "▁फे": 1874,
      "कैसे": 1875,
      "▁कैसे": 1876,
      "हों": 1877,
      "▁हों": 1878,
      "मिली": 1879,
      "▁मिली": 1880,
      "मारी": 1881,
      "▁मारी": 1882,
      "दरवा": 1883,
      "▁दरवा": 1884,
      "सीख": 1885,
      "▁सीख": 1886,
      "पहन": 1887,
      "▁पहन": 1888,
      "ीदा": 1889,
      "▁ीदा": 1890,
      "पसंदीदा": 1891,
      "▁पसंदीदा": 1892,
      "जारी": 1893,
      "▁जारी": 1894,
      "शानदार": 1895,
      "▁शानदार": 1896,
      "आए": 1897,
      "▁आए": 1898,
      "तुमने": 1899,
      "▁तुमने": 1900,
      "सही": 1901,
      "▁सही": 1902,
      "देखती": 1903,
      "▁देखती": 1904,
      "परेशा": 1905,
      "▁परेशा": 1906,
      "ठंड": 1907,
      "▁ठंड": 1908,
      "लोगों": 1909,
      "▁लोगों": 1910,
      "भु": 1911,
      "▁भु": 1912,
      "लने": 1913,
      "▁लने": 1914,
      "वाली": 1915,
      "▁वाली": 1916,
      "जु": 1917,
      "▁जु": 1918,
      "पत्थर": 1919,
      "▁पत्थर": 1920,
      "जानती": 1921,
      "▁जानती": 1922,
      "पहुँचा": 1923,
      "▁पहुँचा": 1924,
      "जर": 1925,
      "▁जर": 1926,
      "चीजें": 1927,
      "▁चीजें": 1928,
      "रुक": 1929,
      "▁रुक": 1930,
      "समझ": 1931,
      "▁समझ": 1932,
      "त्रा": 1933,
      "▁त्रा": 1934,
      "घास": 1935,
      "▁घास": 1936,
      "टॉमी": 1937,
      "▁टॉमी": 1938,
      "राज": 1939,
      "▁राज": 1940,
      "देखता": 1941,
      "▁देखता": 1942,
      "भाई": 1943,
      "▁भाई": 1944,
      "सान": 1945,
      "▁सान": 1946,
      "खत्म": 1947,
      "▁खत्म": 1948,
      "मिलकर": 1949,
      "▁मिलकर": 1950,
      "तालाब": 1951,
      "▁तालाब": 1952,
      "देखकर": 1953,
      "▁देखकर": 1954,
      "कार्": 1955,
      "▁कार्": 1956,
      "रूम": 1957,
      "▁रूम": 1958,
      "खोला": 1959,
      "▁खोला": 1960,
      "मार्": 1961,
      "▁मार्": 1962,
      "पहुँच": 1963,
      "▁पहुँच": 1964,
      "कृ": 1965,
      "▁कृ": 1966,
      "क्ति": 1967,
      "▁क्ति": 1968,
      "पाई": 1969,
      "▁पाई": 1970,
      "पिताजी": 1971,
      "▁पिताजी": 1972,
      "कहानी": 1973,
      "▁कहानी": 1974,
      "देर": 1975,
      "▁देर": 1976,
      "महिला": 1977,
      "▁महिला": 1978,
      "क्रिया": 1979,
      "▁क्रिया": 1980,
      "दिखाई": 1981,
      "▁दिखाई": 1982,
      "किए": 1983,
      "▁किए": 1984,
      "पें": 1985,
      "▁पें": 1986,
      "खि": 1987,
      "▁खि": 1988,
      "बक्": 1989,
      "▁बक्": 1990,
      "यात्रा": 1991,
      "▁यात्रा": 1992,
      "बद": 1993,
      "▁बद": 1994,
      "ये": 1995,
      "▁ये": 1996,
      "सुक": 1997,
      "▁सुक": 1998,
      "उसमें": 1999,
      "▁उसमें": 2000,
      "उत्सुक": 2001,
      "▁उत्सुक": 2002,
      "दया": 2003,
      "▁दया": 2004,
      "लाया": 2005,
      "▁लाया": 2006,
      "इससे": 2007,
      "▁इससे": 2008,
      "जहाँ": 2009,
      "▁जहाँ": 2010,
      "काट": 2011,
      "▁काट": 2012,
      "शुक्रिया": 2013,
      "▁शुक्रिया": 2014,
      "जानता": 2015,
      "▁जानता": 2016,
      "टुक": 2017,
      "▁टुक": 2018,
      "शोर": 2019,
      "▁शोर": 2020,
      "लीला": 2021,
      "▁लीला": 2022,
      "छू": 2023,
      "▁छू": 2024,
      "खेला": 2025,
      "▁खेला": 2026,
      "स्व": 2027,
      "▁स्व": 2028,
      "ब्लॉ": 2029,
      "▁ब्लॉ": 2030,
      "फें": 2031,
      "▁फें": 2032,
      "बच्चों": 2033,
      "▁बच्चों": 2034,
      "गाय": 2035,
      "▁गाय": 2036,
      "तय": 2037,
      "▁तय": 2038,
      "चमकदार": 2039,
      "▁चमकदार": 2040,
      "लगता": 2041,
      "▁लगता": 2042,
      "दिख": 2043,
      "▁दिख": 2044,
      "शर्": 2045,
      "▁शर्": 2046,
      "ज्यादा": 2047,
      "▁ज्यादा": 2048,
      "दुनिया": 2049,
      "▁दुनिया": 2050,
      "करें": 2051,
      "▁करें": 2052,
      "ज्ञ": 2053,
      "▁ज्ञ": 2054,
      "ेंच": 2055,
      "▁ेंच": 2056,
      "दिखाया": 2057,
      "▁दिखाया": 2058,
      "बारिश": 2059,
      "▁बारिश": 2060,
      "चीज़ें": 2061,
      "▁चीज़ें": 2062,
      "क्री": 2063,
      "▁क्री": 2064,
      "रंगीन": 2065,
      "▁रंगीन": 2066,
      "होते": 2067,
      "▁होते": 2068,
      "किल": 2069,
      "▁किल": 2070,
      "कुकी": 2071,
      "▁कुकी": 2072,
      "ज्ञा": 2073,
      "▁ज्ञा": 2074,
      "तित": 2075,
      "▁तित": 2076,
      "बिस्त": 2077,
      "▁बिस्त": 2078,
      "ऊंचा": 2079,
      "▁ऊंचा": 2080,
      "नम": 2081,
      "▁नम": 2082,
      "मना": 2083,
      "▁मना": 2084,
      "फल": 2085,
      "▁फल": 2086,
      "अद्": 2087,
      "▁अद्": 2088,
      "प्यारी": 2089,
      "▁प्यारी": 2090,
      "भुत": 2091,
      "▁भुत": 2092,
      "अद्भुत": 2093,
      "▁अद्भुत": 2094,
      "हि": 2095,
      "▁हि": 2096,
      "कुल": 2097,
      "▁कुल": 2098,
      "आँखें": 2099,
      "▁आँखें": 2100,
      "रु": 2101,
      "▁रु": 2102,
      "र्श": 2103,
      "▁र्श": 2104,
      "माफ़": 2105,
      "▁माफ़": 2106,
      "बर": 2107,
      "▁बर": 2108,
      "वादा": 2109,
      "▁वादा": 2110,
      "मछली": 2111,
      "▁मछली": 2112,
      "देते": 2113,
      "▁देते": 2114,
      "इतनी": 2115,
      "▁इतनी": 2116,
      "देता": 2117,
      "▁देता": 2118,
      "बिस्तर": 2119,
      "▁बिस्तर": 2120,
      "करा": 2121,
      "▁करा": 2122,
      "दुकान": 2123,
      "▁दुकान": 2124,
      "अन्य": 2125,
      "▁अन्य": 2126,
      "स्थ": 2127,
      "▁स्थ": 2128,
      "लेने": 2129,
      "▁लेने": 2130,
      "नाक": 2131,
      "▁नाक": 2132,
      "पुरा": 2133,
      "▁पुरा": 2134,
      "ड़ों": 2135,
      "▁ड़ों": 2136,
      "बोला": 2137,
      "▁बोला": 2138,
      "आख": 2139,
      "▁आख": 2140,
      "आखिर": 2141,
      "▁आखिर": 2142,
      "विश": 2143,
      "▁विश": 2144,
      "कीड़े": 2145,
      "▁कीड़े": 2146,
      "मू": 2147,
      "▁मू": 2148,
      "भरा": 2149,
      "▁भरा": 2150,
      "बिता": 2151,
      "▁बिता": 2152,
      "थोड़ी": 2153,
      "▁थोड़ी": 2154,
      "मो": 2155,
      "▁मो": 2156,
      "सिर्": 2157,
      "▁सिर्": 2158,
      "रेस": 2159,
      "▁रेस": 2160,
      "दौड़ी": 2161,
      "▁दौड़ी": 2162,
      "अजी": 2163,
      "▁अजी": 2164,
      "कितना": 2165,
      "▁कितना": 2166,
      "होगी": 2167,
      "▁होगी": 2168,
      "सैली": 2169,
      "▁सैली": 2170,
      "बजा": 2171,
      "▁बजा": 2172,
      "अजीब": 2173,
      "▁अजीब": 2174,
      "एँ": 2175,
      "▁एँ": 2176,
      "मजब": 2177,
      "▁मजब": 2178,
      "मजबू": 2179,
      "▁मजबू": 2180,
      "पढ़": 2181,
      "▁पढ़": 2182,
      "वल": 2183,
      "▁वल": 2184,
      "नई": 2185,
      "▁नई": 2186,
      "छु": 2187,
      "▁छु": 2188,
      "हसा": 2189,
      "▁हसा": 2190,
      "पंख": 2191,
      "▁पंख": 2192,
      "हसास": 2193,
      "▁हसास": 2194,
      "पड़": 2195,
      "▁पड़": 2196,
      "डेज़ी": 2197,
      "▁डेज़ी": 2198,
      "कॉ": 2199,
      "▁कॉ": 2200,
      "टेडी": 2201,
      "▁टेडी": 2202,
      "आइ": 2203,
      "▁आइ": 2204,
      "पूरी": 2205,
      "▁पूरी": 2206,
      "उप": 2207,
      "▁उप": 2208,
      "बैग": 2209,
      "▁बैग": 2210,
      "छेद": 2211,
      "▁छेद": 2212,
      "दयालु": 2213,
      "▁दयालु": 2214,
      "रखना": 2215,
      "▁रखना": 2216,
      "लेट": 2217,
      "▁लेट": 2218,
      "आज": 2219,
      "▁आज": 2220,
      "तितली": 2221,
      "▁तितली": 2222,
      "लौ": 2223,
      "▁लौ": 2224,
      "झूल": 2225,
      "▁झूल": 2226,
      "बिल्कुल": 2227,
      "▁बिल्कुल": 2228,
      "र्य": 2229,
      "▁र्य": 2230,
      "नरम": 2231,
      "▁नरम": 2232,
      "नाच": 2233,
      "▁नाच": 2234,
      "नमस्ते": 2235,
      "▁नमस्ते": 2236,
      "खिड़": 2237,
      "▁खिड़": 2238,
      "चेहरे": 2239,
      "▁चेहरे": 2240,
      "बक्से": 2241,
      "▁बक्से": 2242,
      "बेनी": 2243,
      "▁बेनी": 2244,
      "तोड़": 2245,
      "▁तोड़": 2246,
      "आखिरकार": 2247,
      "▁आखिरकार": 2248,
      "लियाँ": 2249,
      "▁लियाँ": 2250,
      "तेज़ी": 2251,
      "▁तेज़ी": 2252,
      "कारों": 2253,
      "▁कारों": 2254,
      "ड़क": 2255,
      "▁ड़क": 2256,
      "डॉल": 2257,
      "▁डॉल": 2258,
      "ंट": 2259,
      "▁ंट": 2260,
      "कपड़े": 2261,
      "▁कपड़े": 2262,
      "ढक": 2263,
      "▁ढक": 2264,
      "पड़ा": 2265,
      "▁पड़ा": 2266,
      "रररर": 2267,
      "▁रररर": 2268,
      "ज़्यादा": 2269,
      "▁ज़्यादा": 2270,
      "काग": 2271,
      "▁काग": 2272,
      "तू": 2273,
      "▁तू": 2274,
      "दौड़ा": 2275,
      "▁दौड़ा": 2276,
      "ट्रे": 2277,
      "▁ट्रे": 2278,
      "उम्मी": 2279,
      "▁उम्मी": 2280,
      "ंदा": 2281,
      "▁ंदा": 2282,
      "उम्मीद": 2283,
      "▁उम्मीद": 2284,
      "निकाल": 2285,
      "▁निकाल": 2286,
      "जोरदार": 2287,
      "▁जोरदार": 2288,
      "पना": 2289,
      "▁पना": 2290,
      "पने": 2291,
      "▁पने": 2292,
      "क्का": 2293,
      "▁क्का": 2294,
      "डाल": 2295,
      "▁डाल": 2296,
      "केट": 2297,
      "▁केट": 2298,
      "देती": 2299,
      "▁देती": 2300,
      "जादु": 2301,
      "▁जादु": 2302,
      "जादुई": 2303,
      "▁जादुई": 2304,
      "ंस": 2305,
      "▁ंस": 2306,
      "एहसास": 2307,
      "▁एहसास": 2308,
      "रहती": 2309,
      "▁रहती": 2310,
      "माफी": 2311,
      "▁माफी": 2312,
      "तुम्हारा": 2313,
      "▁तुम्हारा": 2314,
      "आओ": 2315,
      "▁आओ": 2316,
      "भरी": 2317,
      "▁भरी": 2318,
      "रोश": 2319,
      "▁रोश": 2320,
      "स्क्": 2321,
      "▁स्क्": 2322,
      "टूट": 2323,
      "▁टूट": 2324,
      "जाओ": 2325,
      "▁जाओ": 2326,
      "धु": 2327,
      "▁धु": 2328,
      "पया": 2329,
      "▁पया": 2330,
      "देखे": 2331,
      "▁देखे": 2332,
      "प्रति": 2333,
      "▁प्रति": 2334,
      "कृपया": 2335,
      "▁कृपया": 2336,
      "मेह": 2337,
      "▁मेह": 2338,
      "गड़": 2339,
      "▁गड़": 2340,
      "शेर": 2341,
      "▁शेर": 2342,
      "नो": 2343,
      "▁नो": 2344,
      "निश्च": 2345,
      "▁निश्च": 2346,
      "उनका": 2347,
      "▁उनका": 2348,
      "चमकीला": 2349,
      "▁चमकीला": 2350,
      "सबक": 2351,
      "▁सबक": 2352,
      "हमारे": 2353,
      "▁हमारे": 2354,
      "हां": 2355,
      "▁हां": 2356,
      "फेंक": 2357,
      "▁फेंक": 2358,
      "भे": 2359,
      "▁भे": 2360,
      "खरीद": 2361,
      "▁खरीद": 2362,
      "सिर्फ": 2363,
      "▁सिर्फ": 2364,
      "दिए": 2365,
      "▁दिए": 2366,
      "पकड़ने": 2367,
      "▁पकड़ने": 2368,
      "झू": 2369,
      "▁झू": 2370,
      "फूलों": 2371,
      "▁फूलों": 2372,
      "रहने": 2373,
      "▁रहने": 2374,
      "ओह": 2375,
      "▁ओह": 2376,
      "गन": 2377,
      "▁गन": 2378,
      "ढूँ": 2379,
      "▁ढूँ": 2380,
      "मजबूत": 2381,
      "▁मजबूत": 2382,
      "इन": 2383,
      "▁इन": 2384,
      "तने": 2385,
      "▁तने": 2386,
      "हाथों": 2387,
      "▁हाथों": 2388,
      "तुमसे": 2389,
      "▁तुमसे": 2390,
      "केवल": 2391,
      "▁केवल": 2392,
      "तरफ": 2393,
      "▁तरफ": 2394,
      "हँस": 2395,
      "▁हँस": 2396,
      "भूल": 2397,
      "▁भूल": 2398,
      "विश्": 2399,
      "▁विश्": 2400,
      "एमी": 2401,
      "▁एमी": 2402,
      "खोल": 2403,
      "▁खोल": 2404,
      "ंधे": 2405,
      "▁ंधे": 2406,
      "शि": 2407,
      "▁शि": 2408,
      "गिरा": 2409,
      "▁गिरा": 2410,
      "बूढ़े": 2411,
      "▁बूढ़े": 2412,
      "खिड़की": 2413,
      "▁खिड़की": 2414,
      "दिल": 2415,
      "▁दिल": 2416,
      "मेहन": 2417,
      "▁मेहन": 2418,
      "खाया": 2419,
      "▁खाया": 2420,
      "ियाँ": 2421,
      "▁ियाँ": 2422,
      "ट्टा": 2423,
      "▁ट्टा": 2424,
      "दान": 2425,
      "▁दान": 2426,
      "आआआआ": 2427,
      "▁आआआआ": 2428,
      "ंगे": 2429,
      "▁ंगे": 2430,
      "निश्चित": 2431,
      "▁निश्चित": 2432,
      "एड": 2433,
      "▁एड": 2434,
      "करके": 2435,
      "▁करके": 2436,
      "फर्श": 2437,
      "▁फर्श": 2438,
      "विर": 2439,
      "▁विर": 2440,
      "्स": 2441,
      "▁्स": 2442,
      "तट": 2443,
      "▁तट": 2444,
      "परेशान": 2445,
      "▁परेशान": 2446,
      "उड़ा": 2447,
      "▁उड़ा": 2448,
      "सेब": 2449,
      "▁सेब": 2450,
      "तरी": 2451,
      "▁तरी": 2452,
      "श्श्श्श्": 2453,
      "▁श्श्श्श्": 2454,
      "रोशनी": 2455,
      "▁रोशनी": 2456,
      "क्रीम": 2457,
      "▁क्रीम": 2458,
      "रै": 2459,
      "▁रै": 2460,
      "मुस्कान": 2461,
      "▁मुस्कान": 2462,
      "अगले": 2463,
      "▁अगले": 2464,
      "जिसमें": 2465,
      "▁जिसमें": 2466,
      "हंसते": 2467,
      "▁हंसते": 2468,
      "हार": 2469,
      "▁हार": 2470,
      "कीड़ा": 2471,
      "▁कीड़ा": 2472,
      "बारी": 2473,
      "▁बारी": 2474,
      "जिज्ञा": 2475,
      "▁जिज्ञा": 2476,
      "कूल": 2477,
      "▁कूल": 2478,
      "खींच": 2479,
      "▁खींच": 2480,
      "ंडी": 2481,
      "▁ंडी": 2482,
      "कौ": 2483,
      "▁कौ": 2484,
      "सुनाई": 2485,
      "▁सुनाई": 2486,
      "कूदते": 2487,
      "▁कूदते": 2488,
      "करेंगे": 2489,
      "▁करेंगे": 2490,
      "मेहनत": 2491,
      "▁मेहनत": 2492,
      "पाने": 2493,
      "▁पाने": 2494,
      "यक": 2495,
      "▁यक": 2496,
      "टोपी": 2497,
      "▁टोपी": 2498,
      "सका": 2499,
      "▁सका": 2500,
      "जाएगा": 2501,
      "▁जाएगा": 2502,
      "व्यक्ति": 2503,
      "▁व्यक्ति": 2504,
      "पकड़ा": 2505,
      "▁पकड़ा": 2506,
      "दर्": 2507,
      "▁दर्": 2508,
      "गुस्सा": 2509,
      "▁गुस्सा": 2510,
      "चीज़ों": 2511,
      "▁चीज़ों": 2512,
      "मेंढक": 2513,
      "▁मेंढक": 2514,
      "आगे": 2515,
      "▁आगे": 2516,
      "दूसरों": 2517,
      "▁दूसरों": 2518,
      "बचा": 2519,
      "▁बचा": 2520,
      "गलती": 2521,
      "▁गलती": 2522,
      "कों": 2523,
      "▁कों": 2524,
      "फ़े": 2525,
      "▁फ़े": 2526,
      "शाली": 2527,
      "▁शाली": 2528,
      "तब": 2529,
      "▁तब": 2530,
      "मॉली": 2531,
      "▁मॉली": 2532,
      "सोस": 2533,
      "▁सोस": 2534,
      "समझा": 2535,
      "▁समझा": 2536,
      "शब्": 2537,
      "▁शब्": 2538,
      "र्ड": 2539,
      "▁र्ड": 2540,
      "शब्द": 2541,
      "▁शब्द": 2542,
      "दरवाजा": 2543,
      "▁दरवाजा": 2544,
      "टावर": 2545,
      "▁टावर": 2546,
      "कुकीज़": 2547,
      "▁कुकीज़": 2548,
      "कं": 2549,
      "▁कं": 2550,
      "देने": 2551,
      "▁देने": 2552,
      "डराव": 2553,
      "▁डराव": 2554,
      "लगाई": 2555,
      "▁लगाई": 2556,
      "राजकु": 2557,
      "▁राजकु": 2558,
      "कहाँ": 2559,
      "▁कहाँ": 2560,
      "रहते": 2561,
      "▁रहते": 2562,
      "खेत": 2563,
      "▁खेत": 2564,
      "स्क्विर": 2565,
      "▁स्क्विर": 2566,
      "काश": 2567,
      "▁काश": 2568,
      "सुबह": 2569,
      "▁सुबह": 2570,
      "गईं": 2571,
      "▁गईं": 2572,
      "ढूँढ": 2573,
      "▁ढूँढ": 2574,
      "साफ": 2575,
      "▁साफ": 2576,
      "ईं": 2577,
      "▁ईं": 2578,
      "यम": 2579,
      "▁यम": 2580,
      "अलविदा": 2581,
      "▁अलविदा": 2582,
      "रोमांचक": 2583,
      "▁रोमांचक": 2584,
      "आइस": 2585,
      "▁आइस": 2586,
      "आभारी": 2587,
      "▁आभारी": 2588,
      "महल": 2589,
      "▁महल": 2590,
      "पक्षियों": 2591,
      "▁पक्षियों": 2592,
      "アイ": 2593,
      "▁アイ": 2594,
      "छड़ी": 2595,
      "▁छड़ी": 2596,
      "पूरा": 2597,
      "▁पूरा": 2598,
      "सुनिश्चित": 2599,
      "▁सुनिश्चित": 2600,
      "अकेला": 2601,
      "▁अकेला": 2602,
      "चिल्लाया": 2603,
      "▁चिल्लाया": 2604,
      "デア": 2605,
      "▁デア": 2606,
      "बियर": 2607,
      "▁बियर": 2608,
      "アイデア": 2609,
      "▁アイデア": 2610,
      "लियों": 2611,
      "▁लियों": 2612,
      "चमकीली": 2613,
      "▁चमकीली": 2614,
      "निकाला": 2615,
      "▁निकाला": 2616,
      "थक": 2617,
      "▁थक": 2618,
      "दर्द": 2619,
      "▁दर्द": 2620,
      "भो": 2621,
      "▁भो": 2622,
      "चित्र": 2623,
      "▁चित्र": 2624,
      "लंबी": 2625,
      "▁लंबी": 2626,
      "रोज": 2627,
      "▁रोज": 2628,
      "वेंच": 2629,
      "▁वेंच": 2630,
      "पहुँचे": 2631,
      "▁पहुँचे": 2632,
      "दौड़ते": 2633,
      "▁दौड़ते": 2634,
      "टेबल": 2635,
      "▁टेबल": 2636,
      "शहर": 2637,
      "▁शहर": 2638,
      "वन": 2639,
      "▁वन": 2640,
      "रसो": 2641,
      "▁रसो": 2642,
      "मुश्": 2643,
      "▁मुश्": 2644,
      "तोह": 2645,
      "▁तोह": 2646,
      "एडवेंच": 2647,
      "▁एडवेंच": 2648,
      "च्छा": 2649,
      "▁च्छा": 2650,
      "गाना": 2651,
      "▁गाना": 2652,
      "लंबे": 2653,
      "▁लंबे": 2654,
      "मालि": 2655,
      "▁मालि": 2656,
      "बच्चा": 2657,
      "▁बच्चा": 2658,
      "मुश्किल": 2659,
      "▁मुश्किल": 2660,
      "रेत": 2661,
      "▁रेत": 2662,
      "जिल": 2663,
      "▁जिल": 2664,
      "रसोई": 2665,
      "▁रसोई": 2666,
      "रॉ": 2667,
      "▁रॉ": 2668,
      "दम": 2669,
      "▁दम": 2670,
      "स्क्विरल": 2671,
      "▁स्क्विरल": 2672,
      "टन": 2673,
      "▁टन": 2674,
      "गायब": 2675,
      "▁गायब": 2676,
      "रास्ते": 2677,
      "▁रास्ते": 2678,
      "तार": 2679,
      "▁तार": 2680,
      "्यान": 2681,
      "▁्यान": 2682,
      "गुला": 2683,
      "▁गुला": 2684,
      "रंगों": 2685,
      "▁रंगों": 2686,
      "इकट्": 2687,
      "▁इकट्": 2688,
      "गुलाबी": 2689,
      "▁गुलाबी": 2690,
      "आइसक्रीम": 2691,
      "▁आइसक्रीम": 2692,
      "ंटी": 2693,
      "▁ंटी": 2694,
      "घूमने": 2695,
      "▁घूमने": 2696,
      "मिट्टी": 2697,
      "▁मिट्टी": 2698,
      "आपके": 2699,
      "▁आपके": 2700,
      "चमकीले": 2701,
      "▁चमकीले": 2702,
      "शर": 2703,
      "▁शर": 2704,
      "अंधे": 2705,
      "▁अंधे": 2706,
      "चाहा": 2707,
      "▁चाहा": 2708,
      "कस": 2709,
      "▁कस": 2710,
      "पहा": 2711,
      "▁पहा": 2712,
      "भौ": 2713,
      "▁भौ": 2714,
      "तल": 2715,
      "▁तल": 2716,
      "ल्स": 2717,
      "▁ल्स": 2718,
      "विचार": 2719,
      "▁विचार": 2720,
      "पोशा": 2721,
      "▁पोशा": 2722,
      "ोन": 2723,
      "▁ोन": 2724,
      "स्टो": 2725,
      "▁स्टो": 2726,
      "राह": 2727,
      "▁राह": 2728,
      "तिक": 2729,
      "▁तिक": 2730,
      "इसके": 2731,
      "▁इसके": 2732,
      "दीवार": 2733,
      "▁दीवार": 2734,
      "ध्यान": 2735,
      "▁ध्यान": 2736,
      "भाल": 2737,
      "▁भाल": 2738,
      "साम": 2739,
      "▁साम": 2740,
      "ंचा": 2741,
      "▁ंचा": 2742,
      "जिससे": 2743,
      "▁जिससे": 2744,
      "सोने": 2745,
      "▁सोने": 2746,
      "पीछा": 2747,
      "▁पीछा": 2748,
      "पोशाक": 2749,
      "▁पोशाक": 2750,
      "गत": 2751,
      "▁गत": 2752,
      "अग": 2753,
      "▁अग": 2754,
      "आग": 2755,
      "▁आग": 2756,
      "मौ": 2757,
      "▁मौ": 2758,
      "ओं": 2759,
      "▁ओं": 2760,
      "तेज": 2761,
      "▁तेज": 2762,
      "दौड़े": 2763,
      "▁दौड़े": 2764,
      "इश": 2765,
      "▁इश": 2766,
      "जुड़": 2767,
      "▁जुड़": 2768,
      "इच्छा": 2769,
      "▁इच्छा": 2770,
      "ड्राइ": 2771,
      "▁ड्राइ": 2772,
      "बनाए": 2773,
      "▁बनाए": 2774,
      "लोम": 2775,
      "▁लोम": 2776,
      "नैतिक": 2777,
      "▁नैतिक": 2778,
      "लन": 2779,
      "▁लन": 2780,
      "लीं": 2781,
      "▁लीं": 2782,
      "सड़क": 2783,
      "▁सड़क": 2784,
      "साइ": 2785,
      "▁साइ": 2786,
      "प्राइ": 2787,
      "▁प्राइ": 2788,
      "देना": 2789,
      "▁देना": 2790,
      "प्त": 2791,
      "▁प्त": 2792,
      "पेड़ों": 2793,
      "▁पेड़ों": 2794,
      "प्यारा": 2795,
      "▁प्यारा": 2796,
      "र्न": 2797,
      "▁र्न": 2798,
      "प्रा": 2799,
      "▁प्रा": 2800,
      "दौड़ना": 2801,
      "▁दौड़ना": 2802,
      "धार": 2803,
      "▁धार": 2804,
      "ब्लॉक्स": 2805,
      "▁ब्लॉक्स": 2806,
      "शी": 2807,
      "▁शी": 2808,
      "िर्": 2809,
      "▁िर्": 2810,
      "सरप्राइ": 2811,
      "▁सरप्राइ": 2812,
      "अफ": 2813,
      "▁अफ": 2814,
      "पार्टी": 2815,
      "▁पार्टी": 2816,
      "ज़ा": 2817,
      "▁ज़ा": 2818,
      "माँग": 2819,
      "▁माँग": 2820,
      "फ़ा": 2821,
      "▁फ़ा": 2822,
      "खोजने": 2823,
      "▁खोजने": 2824,
      "अस": 2825,
      "▁अस": 2826,
      "घुमा": 2827,
      "▁घुमा": 2828,
      "संगी": 2829,
      "▁संगी": 2830,
      "संगीत": 2831,
      "▁संगीत": 2832,
      "अफसोस": 2833,
      "▁अफसोस": 2834,
      "मुस्कुराए": 2835,
      "▁मुस्कुराए": 2836,
      "अधि": 2837,
      "▁अधि": 2838,
      "तुर": 2839,
      "▁तुर": 2840,
      "पहने": 2841,
      "▁पहने": 2842,
      "रहो": 2843,
      "▁रहो": 2844,
      "चिंत": 2845,
      "▁चिंत": 2846,
      "रास्ता": 2847,
      "▁रास्ता": 2848,
      "द्धि": 2849,
      "▁द्धि": 2850,
      "चाहे": 2851,
      "▁चाहे": 2852,
      "स्वागत": 2853,
      "▁स्वागत": 2854,
      "तों": 2855,
      "▁तों": 2856,
      "लगाते": 2857,
      "▁लगाते": 2858,
      "इसमें": 2859,
      "▁इसमें": 2860,
      "पल": 2861,
      "▁पल": 2862,
      "क्टर": 2863,
      "▁क्टर": 2864,
      "बनना": 2865,
      "▁बनना": 2866,
      "चिंतित": 2867,
      "▁चिंतित": 2868,
      "आता": 2869,
      "▁आता": 2870,
      "बुद्धि": 2871,
      "▁बुद्धि": 2872,
      "इशारा": 2873,
      "▁इशारा": 2874,
      "गुड़िया": 2875,
      "▁गुड़िया": 2876,
      "अगली": 2877,
      "▁अगली": 2878,
      "मैदान": 2879,
      "▁मैदान": 2880,
      "बैठकर": 2881,
      "▁बैठकर": 2882,
      "चूहे": 2883,
      "▁चूहे": 2884,
      "करेगा": 2885,
      "▁करेगा": 2886,
      "बहन": 2887,
      "▁बहन": 2888,
      "लाने": 2889,
      "▁लाने": 2890,
      "बंदर": 2891,
      "▁बंदर": 2892,
      "जानना": 2893,
      "▁जानना": 2894,
      "पार": 2895,
      "▁पार": 2896,
      "विदाई": 2897,
      "▁विदाई": 2898,
      "विंग": 2899,
      "▁विंग": 2900,
      "सैर": 2901,
      "▁सैर": 2902,
      "तस्वीरें": 2903,
      "▁तस्वीरें": 2904,
      "कल्": 2905,
      "▁कल्": 2906,
      "बनाते": 2907,
      "▁बनाते": 2908,
      "रखने": 2909,
      "▁रखने": 2910,
      "ंप": 2911,
      "▁ंप": 2912,
      "कागज़": 2913,
      "▁कागज़": 2914,
      "करनी": 2915,
      "▁करनी": 2916,
      "मैरी": 2917,
      "▁मैरी": 2918,
      "वास": 2919,
      "▁वास": 2920,
      "वै": 2921,
      "▁वै": 2922,
      "बालों": 2923,
      "▁बालों": 2924,
      "ूप": 2925,
      "▁ूप": 2926,
      "मालिक": 2927,
      "▁मालिक": 2928,
      "कल": 2929,
      "▁कल": 2930,
      "तुरंत": 2931,
      "▁तुरंत": 2932,
      "चिल्लाकर": 2933,
      "▁चिल्लाकर": 2934,
      "कहीं": 2935,
      "▁कहीं": 2936,
      "पका": 2937,
      "▁पका": 2938,
      "लेते": 2939,
      "▁लेते": 2940,
      "सहम": 2941,
      "▁सहम": 2942,
      "ंडा": 2943,
      "▁ंडा": 2944,
      "धक्का": 2945,
      "▁धक्का": 2946,
      "रस्": 2947,
      "▁रस्": 2948,
      "लून": 2949,
      "▁लून": 2950,
      "एं": 2951,
      "▁एं": 2952,
      "चाहो": 2953,
      "▁चाहो": 2954,
      "कौन": 2955,
      "▁कौन": 2956,
      "लिस": 2957,
      "▁लिस": 2958,
      "निरा": 2959,
      "▁निरा": 2960,
      "लगाना": 2961,
      "▁लगाना": 2962,
      "भोजन": 2963,
      "▁भोजन": 2964,
      "आपकी": 2965,
      "▁आपकी": 2966,
      "म्म": 2967,
      "▁म्म": 2968,
      "घूमना": 2969,
      "▁घूमना": 2970,
      "चूहा": 2971,
      "▁चूहा": 2972,
      "हिस्": 2973,
      "▁हिस्": 2974,
      "प्यारे": 2975,
      "▁प्यारे": 2976,
      "यहां": 2977,
      "▁यहां": 2978,
      "बनाई": 2979,
      "▁बनाई": 2980,
      "अलमारी": 2981,
      "▁अलमारी": 2982,
      "मोट": 2983,
      "▁मोट": 2984,
      "बीच": 2985,
      "▁बीच": 2986,
      "दुख": 2987,
      "▁दुख": 2988,
      "ट्रेन": 2989,
      "▁ट्रेन": 2990,
      "स्टर": 2991,
      "▁स्टर": 2992,
      "चट्टा": 2993,
      "▁चट्टा": 2994,
      "एम्": 2995,
      "▁एम्": 2996,
      "पर्": 2997,
      "▁पर्": 2998,
      "भाव": 2999,
      "▁भाव": 3000,
      "रूप": 3001,
      "▁रूप": 3002,
      "निकलने": 3003,
      "▁निकलने": 3004,
      "बत्": 3005,
      "▁बत्": 3006,
      "र्स": 3007,
      "▁र्स": 3008,
      "कड़ी": 3009,
      "▁कड़ी": 3010,
      "दूसरी": 3011,
      "▁दूसरी": 3012,
      "डिया": 3013,
      "▁डिया": 3014,
      "हमने": 3015,
      "▁हमने": 3016,
      "आश्च": 3017,
      "▁आश्च": 3018,
      "स्नै": 3019,
      "▁स्नै": 3020,
      "जिज्ञासु": 3021,
      "▁जिज्ञासु": 3022,
      "ढे": 3023,
      "▁ढे": 3024,
      "माँगी": 3025,
      "▁माँगी": 3026,
      "क्रे": 3027,
      "▁क्रे": 3028,
      "कसकर": 3029,
      "▁कसकर": 3030,
      "खतर": 3031,
      "▁खतर": 3032,
      "किसान": 3033,
      "▁किसान": 3034,
      "एडवेंचर": 3035,
      "▁एडवेंचर": 3036,
      "देखभाल": 3037,
      "▁देखभाल": 3038,
      "ऐसी": 3039,
      "▁ऐसी": 3040,
      "दिखाने": 3041,
      "▁दिखाने": 3042,
      "पैर": 3043,
      "▁पैर": 3044,
      "शरार": 3045,
      "▁शरार": 3046,
      "लौट": 3047,
      "▁लौट": 3048,
      "बढ़ा": 3049,
      "▁बढ़ा": 3050,
      "फिस": 3051,
      "▁फिस": 3052,
      "हिल": 3053,
      "▁हिल": 3054,
      "नदी": 3055,
      "▁नदी": 3056,
      "तालियाँ": 3057,
      "▁तालियाँ": 3058,
      "गलत": 3059,
      "▁गलत": 3060,
      "पैसे": 3061,
      "▁पैसे": 3062,
      "खतरनाक": 3063,
      "▁खतरनाक": 3064,
      "डॉक्टर": 3065,
      "▁डॉक्टर": 3066,
      "सरप्राइज़": 3067,
      "▁सरप्राइज़": 3068,
      "लेना": 3069,
      "▁लेना": 3070,
      "दायक": 3071,
      "▁दायक": 3072,
      "बुद्धिमान": 3073,
      "▁बुद्धिमान": 3074,
      "कितनी": 3075,
      "▁कितनी": 3076,
      "आश्चर्य": 3077,
      "▁आश्चर्य": 3078,
      "ज़ार": 3079,
      "▁ज़ार": 3080,
      "मक्": 3081,
      "▁मक्": 3082,
      "करूँ": 3083,
      "▁करूँ": 3084,
      "हाथी": 3085,
      "▁हाथी": 3086,
      "चुन": 3087,
      "▁चुन": 3088,
      "स्मार्": 3089,
      "▁स्मार्": 3090,
      "ठंडा": 3091,
      "▁ठंडा": 3092,
      "नीला": 3093,
      "▁नीला": 3094,
      "मिलने": 3095,
      "▁मिलने": 3096,
      "किना": 3097,
      "▁किना": 3098,
      "कदम": 3099,
      "▁कदम": 3100,
      "स्मार्ट": 3101,
      "▁स्मार्ट": 3102,
      "जहा": 3103,
      "▁जहा": 3104,
      "सफल": 3105,
      "▁सफल": 3106,
      "बाइक": 3107,
      "▁बाइक": 3108,
      "स्ताना": 3109,
      "▁स्ताना": 3110,
      "स्टोर": 3111,
      "▁स्टोर": 3112,
      "फु": 3113,
      "▁फु": 3114,
      "हट": 3115,
      "▁हट": 3116,
      "जुड़वा": 3117,
      "▁जुड़वा": 3118,
      "स्या": 3119,
      "▁स्या": 3120,
      "पेट": 3121,
      "▁पेट": 3122,
      "ंत्र": 3123,
      "▁ंत्र": 3124,
      "बैलून": 3125,
      "▁बैलून": 3126,
      "लब": 3127,
      "▁लब": 3128,
      "आरामदायक": 3129,
      "▁आरामदायक": 3130,
      "पड़ो": 3131,
      "▁पड़ो": 3132,
      "आइडिया": 3133,
      "▁आइडिया": 3134,
      "सिल": 3135,
      "▁सिल": 3136,
      "आकाश": 3137,
      "▁आकाश": 3138,
      "बिली": 3139,
      "▁बिली": 3140,
      "गं": 3141,
      "▁गं": 3142,
      "माफ": 3143,
      "▁माफ": 3144,
      "बेटी": 3145,
      "▁बेटी": 3146,
      "सरण": 3147,
      "▁सरण": 3148,
      "अनुसरण": 3149,
      "▁अनुसरण": 3150,
      "गाने": 3151,
      "▁गाने": 3152,
      "धूप": 3153,
      "▁धूप": 3154,
      "अधिक": 3155,
      "▁अधिक": 3156,
      "कुर्": 3157,
      "▁कुर्": 3158,
      "दरवाज़": 3159,
      "▁दरवाज़": 3160,
      "ड्रै": 3161,
      "▁ड्रै": 3162,
      "बेरी": 3163,
      "▁बेरी": 3164,
      "राहत": 3165,
      "▁राहत": 3166,
      "पेंट": 3167,
      "▁पेंट": 3168,
      "मूर्": 3169,
      "▁मूर्": 3170,
      "सीढ़": 3171,
      "▁सीढ़": 3172,
      "जानते": 3173,
      "▁जानते": 3174,
      "चुकी": 3175,
      "▁चुकी": 3176,
      "बटन": 3177,
      "▁बटन": 3178,
      "ड्रैगन": 3179,
      "▁ड्रैगन": 3180,
      "न्स": 3181,
      "▁न्स": 3182,
      "राजकुमारी": 3183,
      "▁राजकुमारी": 3184,
      "चम्म": 3185,
      "▁चम्म": 3186,
      "चन": 3187,
      "▁चन": 3188,
      "साँ": 3189,
      "▁साँ": 3190,
      "विश्वास": 3191,
      "▁विश्वास": 3192,
      "फ़ोन": 3193,
      "▁फ़ोन": 3194,
      "स्प": 3195,
      "▁स्प": 3196,
      "रहस्": 3197,
      "▁रहस्": 3198,
      "किनारे": 3199,
      "▁किनारे": 3200,
      "उल्": 3201,
      "▁उल्": 3202,
      "किचन": 3203,
      "▁किचन": 3204,
      "प्रि": 3205,
      "▁प्रि": 3206,
      "शर्मि": 3207,
      "▁शर्मि": 3208,
      "शरारती": 3209,
      "▁शरारती": 3210,
      "राब": 3211,
      "▁राब": 3212,
      "शाखा": 3213,
      "▁शाखा": 3214,
      "उपयो": 3215,
      "▁उपयो": 3216,
      "दोस्ताना": 3217,
      "▁दोस्ताना": 3218,
      "दरवाजे": 3219,
      "▁दरवाजे": 3220,
      "लिविंग": 3221,
      "▁लिविंग": 3222,
      "निराश": 3223,
      "▁निराश": 3224,
      "सपने": 3225,
      "▁सपने": 3226,
      "चिल्लाते": 3227,
      "▁चिल्लाते": 3228,
      "बाल": 3229,
      "▁बाल": 3230,
      "काली": 3231,
      "▁काली": 3232,
      "अभ": 3233,
      "▁अभ": 3234,
      "धो": 3235,
      "▁धो": 3236,
      "चम्मच": 3237,
      "▁चम्मच": 3238,
      "घो": 3239,
      "▁घो": 3240,
      "कूदना": 3241,
      "▁कूदना": 3242,
      "कैंडी": 3243,
      "▁कैंडी": 3244,
      "हॉ": 3245,
      "▁हॉ": 3246,
      "भौंक": 3247,
      "▁भौंक": 3248,
      "घा": 3249,
      "▁घा": 3250,
      "फ्ल": 3251,
      "▁फ्ल": 3252,
      "एम्मा": 3253,
      "▁एम्मा": 3254,
      "रोना": 3255,
      "▁रोना": 3256,
      "पत": 3257,
      "▁पत": 3258,
      "वहार": 3259,
      "▁वहार": 3260,
      "व्यवहार": 3261,
      "▁व्यवहार": 3262,
      "कल्पना": 3263,
      "▁कल्पना": 3264,
      "गोल": 3265,
      "▁गोल": 3266,
      "अकेले": 3267,
      "▁अकेले": 3268,
      "स्था": 3269,
      "▁स्था": 3270,
      "बैंग": 3271,
      "▁बैंग": 3272,
      "टक": 3273,
      "▁टक": 3274,
      "शांति": 3275,
      "▁शांति": 3276,
      "हरी": 3277,
      "▁हरी": 3278,
      "किताबें": 3279,
      "▁किताबें": 3280,
      "छुआ": 3281,
      "▁छुआ": 3282,
      "स्कूल": 3283,
      "▁स्कूल": 3284,
      "कुर्सी": 3285,
      "▁कुर्सी": 3286,
      "शन": 3287,
      "▁शन": 3288,
      "परवाह": 3289,
      "▁परवाह": 3290,
      "बिना": 3291,
      "▁बिना": 3292,
      "पौ": 3293,
      "▁पौ": 3294,
      "रखी": 3295,
      "▁रखी": 3296,
      "सूप": 3297,
      "▁सूप": 3298,
      "जितनी": 3299,
      "▁जितनी": 3300,
      "जिसके": 3301,
      "▁जिसके": 3302,
      "तख": 3303,
      "▁तख": 3304,
      "आकार": 3305,
      "▁आकार": 3306,
      "गिन": 3307,
      "▁गिन": 3308,
      "गाजर": 3309,
      "▁गाजर": 3310,
      "उनसे": 3311,
      "▁उनसे": 3312,
      "सामने": 3313,
      "▁सामने": 3314,
      "पहर": 3315,
      "▁पहर": 3316,
      "दोपहर": 3317,
      "▁दोपहर": 3318,
      "बदल": 3319,
      "▁बदल": 3320,
      "विच": 3321,
      "▁विच": 3322,
      "संतु": 3323,
      "▁संतु": 3324,
      "जूते": 3325,
      "▁जूते": 3326,
      "घुट": 3327,
      "▁घुट": 3328,
      "लिखा": 3329,
      "▁लिखा": 3330,
      "चढ़ना": 3331,
      "▁चढ़ना": 3332,
      "समझाया": 3333,
      "▁समझाया": 3334,
      "चर": 3335,
      "▁चर": 3336,
      "विन": 3337,
      "▁विन": 3338,
      "लोमड़ी": 3339,
      "▁लोमड़ी": 3340,
      "ड़ियों": 3341,
      "▁ड़ियों": 3342,
      "उड़ते": 3343,
      "▁उड़ते": 3344,
      "रोक": 3345,
      "▁रोक": 3346,
      "ज़र": 3347,
      "▁ज़र": 3348,
      "पड़ी": 3349,
      "▁पड़ी": 3350,
      "पाए": 3351,
      "▁पाए": 3352,
      "टुकड़ा": 3353,
      "▁टुकड़ा": 3354,
      "निर्": 3355,
      "▁निर्": 3356,
      "रखे": 3357,
      "▁रखे": 3358,
      "स्टि": 3359,
      "▁स्टि": 3360,
      "बुरे": 3361,
      "▁बुरे": 3362,
      "चलें": 3363,
      "▁चलें": 3364,
      "जाएँ": 3365,
      "▁जाएँ": 3366,
      "घों": 3367,
      "▁घों": 3368,
      "लगाने": 3369,
      "▁लगाने": 3370,
      "पैरों": 3371,
      "▁पैरों": 3372,
      "ंछ": 3373,
      "▁ंछ": 3374,
      "जुड़वां": 3375,
      "▁जुड़वां": 3376,
      "तोहफा": 3377,
      "▁तोहफा": 3378,
      "नर": 3379,
      "▁नर": 3380,
      "वही": 3381,
      "▁वही": 3382,
      "सकें": 3383,
      "▁सकें": 3384,
      "लंबा": 3385,
      "▁लंबा": 3386,
      "रररररररर": 3387,
      "▁रररररररर": 3388,
      "चाहोगे": 3389,
      "▁चाहोगे": 3390,
      "बैंगनी": 3391,
      "▁बैंगनी": 3392,
      "जीत": 3393,
      "▁जीत": 3394,
      "पैक": 3395,
      "▁पैक": 3396,
      "आती": 3397,
      "▁आती": 3398,
      "मैन": 3399,
      "▁मैन": 3400,
      "ड्रेस": 3401,
      "▁ड्रेस": 3402,
      "पूछती": 3403,
      "▁पूछती": 3404,
      "लें": 3405,
      "▁लें": 3406,
      "पूंछ": 3407,
      "▁पूंछ": 3408,
      "जेब": 3409,
      "▁जेब": 3410,
      "टै": 3411,
      "▁टै": 3412,
      "सोचता": 3413,
      "▁सोचता": 3414,
      "जना": 3415,
      "▁जना": 3416,
      "वस": 3417,
      "▁वस": 3418,
      "दुर्": 3419,
      "▁दुर्": 3420,
      "चेहरा": 3421,
      "▁चेहरा": 3422,
      "मन": 3423,
      "▁मन": 3424,
      "कटो": 3425,
      "▁कटो": 3426,
      "डल": 3427,
      "▁डल": 3428,
      "करेगी": 3429,
      "▁करेगी": 3430,
      "ऊँ": 3431,
      "▁ऊँ": 3432,
      "बॉल": 3433,
      "▁बॉल": 3434,
      "गंदा": 3435,
      "▁गंदा": 3436,
      "यल": 3437,
      "▁यल": 3438,
      "म्र": 3439,
      "▁म्र": 3440,
      "बोर्ड": 3441,
      "▁बोर्ड": 3442,
      "सैंड": 3443,
      "▁सैंड": 3444,
      "झी": 3445,
      "▁झी": 3446,
      "लेता": 3447,
      "▁लेता": 3448,
      "नोट": 3449,
      "▁नोट": 3450,
      "सर्": 3451,
      "▁सर्": 3452,
      "रोब": 3453,
      "▁रोब": 3454,
      "आकर": 3455,
      "▁आकर": 3456,
      "जाल": 3457,
      "▁जाल": 3458,
      "नीले": 3459,
      "▁नीले": 3460,
      "खोजा": 3461,
      "▁खोजा": 3462,
      "स्ट्र": 3463,
      "▁स्ट्र": 3464,
      "सॉ": 3465,
      "▁सॉ": 3466,
      "खेले": 3467,
      "▁खेले": 3468,
      "व्यस्त": 3469,
      "▁व्यस्त": 3470,
      "कट": 3471,
      "▁कट": 3472,
      "नीली": 3473,
      "▁नीली": 3474,
      "ंगा": 3475,
      "▁ंगा": 3476,
      "कूदकर": 3477,
      "▁कूदकर": 3478,
      "चिल्लाई": 3479,
      "▁चिल्लाई": 3480,
      "लै": 3481,
      "▁लै": 3482,
      "डरावना": 3483,
      "▁डरावना": 3484,
      "ठे": 3485,
      "▁ठे": 3486,
      "झूले": 3487,
      "▁झूले": 3488,
      "जिम": 3489,
      "▁जिम": 3490,
      "ंडे": 3491,
      "▁ंडे": 3492,
      "अंग": 3493,
      "▁अंग": 3494,
      "ंज": 3495,
      "▁ंज": 3496,
      "ढेर": 3497,
      "▁ढेर": 3498,
      "नट": 3499,
      "▁नट": 3500,
      "बादल": 3501,
      "▁बादल": 3502,
      "बर्फ": 3503,
      "▁बर्फ": 3504,
      "दिखाना": 3505,
      "▁दिखाना": 3506,
      "उंग": 3507,
      "▁उंग": 3508,
      "भाग्य": 3509,
      "▁भाग्य": 3510,
      "पहाड़ी": 3511,
      "▁पहाड़ी": 3512,
      "उल्लू": 3513,
      "▁उल्लू": 3514,
      "आते": 3515,
      "▁आते": 3516,
      "रखते": 3517,
      "▁रखते": 3518,
      "परेशानी": 3519,
      "▁परेशानी": 3520,
      "स्नो": 3521,
      "▁स्नो": 3522,
      "ट्री": 3523,
      "▁ट्री": 3524,
      "सोचती": 3525,
      "▁सोचती": 3526,
      "इकट्ठा": 3527,
      "▁इकट्ठा": 3528,
      "स्वाद": 3529,
      "▁स्वाद": 3530,
      "बिताया": 3531,
      "▁बिताया": 3532,
      "निकला": 3533,
      "▁निकला": 3534,
      "असली": 3535,
      "▁असली": 3536,
      "बोतल": 3537,
      "▁बोतल": 3538,
      "हँसते": 3539,
      "▁हँसते": 3540,
      "योजना": 3541,
      "▁योजना": 3542,
      "फ्लफी": 3543,
      "▁फ्लफी": 3544,
      "हाल": 3545,
      "▁हाल": 3546,
      "मुस्कुराती": 3547,
      "▁मुस्कुराती": 3548,
      "डै": 3549,
      "▁डै": 3550,
      "खिला": 3551,
      "▁खिला": 3552,
      "चलने": 3553,
      "▁चलने": 3554,
      "मतलब": 3555,
      "▁मतलब": 3556,
      "दादा": 3557,
      "▁दादा": 3558,
      "जाएगी": 3559,
      "▁जाएगी": 3560,
      "तरीका": 3561,
      "▁तरीका": 3562,
      "ख्या": 3563,
      "▁ख्या": 3564,
      "सारे": 3565,
      "▁सारे": 3566,
      "मानी": 3567,
      "▁मानी": 3568,
      "पीला": 3569,
      "▁पीला": 3570,
      "उसी": 3571,
      "▁उसी": 3572,
      "स्वस्थ": 3573,
      "▁स्वस्थ": 3574,
      "आआआआआआआआ": 3575,
      "▁आआआआआआआआ": 3576,
      "ंख": 3577,
      "▁ंख": 3578,
      "ंची": 3579,
      "▁ंची": 3580,
      "देश": 3581,
      "▁देश": 3582,
      "जेनी": 3583,
      "▁जेनी": 3584,
      "छिपा": 3585,
      "▁छिपा": 3586,
      "आँखों": 3587,
      "▁आँखों": 3588,
      "कार्ड": 3589,
      "▁कार्ड": 3590,
      "आवाज़ें": 3591,
      "▁आवाज़ें": 3592,
      "रुको": 3593,
      "▁रुको": 3594,
      "लेती": 3595,
      "▁लेती": 3596,
      "बुरी": 3597,
      "▁बुरी": 3598,
      "माफ़ी": 3599,
      "▁माफ़ी": 3600,
      "बल्": 3601,
      "▁बल्": 3602,
      "मिले": 3603,
      "▁मिले": 3604,
      "हंसी": 3605,
      "▁हंसी": 3606,
      "आना": 3607,
      "▁आना": 3608,
      "बाल्": 3609,
      "▁बाल्": 3610,
      "र्ग": 3611,
      "▁र्ग": 3612,
      "जादू": 3613,
      "▁जादू": 3614,
      "मुला": 3615,
      "▁मुला": 3616,
      "ँच": 3617,
      "▁ँच": 3618,
      "रहें": 3619,
      "▁रहें": 3620,
      "श्श्श्श्श्श्श्श्": 3621,
      "▁श्श्श्श्श्श्श्श्": 3622,
      "फ़्": 3623,
      "▁फ़्": 3624,
      "बाहों": 3625,
      "▁बाहों": 3626,
      "पहुँची": 3627,
      "▁पहुँची": 3628,
      "खराब": 3629,
      "▁खराब": 3630,
      "झाड़ी": 3631,
      "▁झाड़ी": 3632,
      "गंद": 3633,
      "▁गंद": 3634,
      "लगाती": 3635,
      "▁लगाती": 3636,
      "दिखता": 3637,
      "▁दिखता": 3638,
      "स्थित": 3639,
      "▁स्थित": 3640,
      "झूलों": 3641,
      "▁झूलों": 3642,
      "जरूर": 3643,
      "▁जरूर": 3644,
      "चींटी": 3645,
      "▁चींटी": 3646,
      "चादर": 3647,
      "▁चादर": 3648,
      "निकाली": 3649,
      "▁निकाली": 3650,
      "इसका": 3651,
      "▁इसका": 3652,
      "साइकिल": 3653,
      "▁साइकिल": 3654,
      "ँह": 3655,
      "▁ँह": 3656,
      "बजाईं": 3657,
      "▁बजाईं": 3658,
      "काले": 3659,
      "▁काले": 3660,
      "परी": 3661,
      "▁परी": 3662,
      "मूर्ख": 3663,
      "▁मूर्ख": 3664,
      "चट्टान": 3665,
      "▁चट्टान": 3666,
      "ॉक": 3667,
      "▁ॉक": 3668,
      "चुप": 3669,
      "▁चुप": 3670,
      "देखीं": 3671,
      "▁देखीं": 3672,
      "इंतज़ार": 3673,
      "▁इंतज़ार": 3674,
      "जैसा": 3675,
      "▁जैसा": 3676,
      "दिलच": 3677,
      "▁दिलच": 3678,
      "चाला": 3679,
      "▁चाला": 3680,
      "शर्मिंदा": 3681,
      "▁शर्मिंदा": 3682,
      "बाल्टी": 3683,
      "▁बाल्टी": 3684,
      "शक्ति": 3685,
      "▁शक्ति": 3686,
      "नियाँ": 3687,
      "▁नियाँ": 3688,
      "बेंच": 3689,
      "▁बेंच": 3690,
      "मुँह": 3691,
      "▁मुँह": 3692,
      "चलते": 3693,
      "▁चलते": 3694,
      "कारी": 3695,
      "▁कारी": 3696,
      "बेच": 3697,
      "▁बेच": 3698,
      "लिख": 3699,
      "▁लिख": 3700,
      "इं": 3701,
      "▁इं": 3702,
      "डूब": 3703,
      "▁डूब": 3704,
      "पाइ": 3705,
      "▁पाइ": 3706,
      "मांगी": 3707,
      "▁मांगी": 3708,
      "वान": 3709,
      "▁वान": 3710,
      "चौ": 3711,
      "▁चौ": 3712,
      "बुलाया": 3713,
      "▁बुलाया": 3714,
      "डाइ": 3715,
      "▁डाइ": 3716,
      "गीत": 3717,
      "▁गीत": 3718,
      "दृ": 3719,
      "▁दृ": 3720,
      "क्ट": 3721,
      "▁क्ट": 3722,
      "मिस्टर": 3723,
      "▁मिस्टर": 3724,
      "सैमी": 3725,
      "▁सैमी": 3726,
      "पकड़े": 3727,
      "▁पकड़े": 3728,
      "राजा": 3729,
      "▁राजा": 3730,
      "जीव": 3731,
      "▁जीव": 3732,
      "यॉ": 3733,
      "▁यॉ": 3734,
      "राक्ष": 3735,
      "▁राक्ष": 3736,
      "उड़ने": 3737,
      "▁उड़ने": 3738,
      "भूरा": 3739,
      "▁भूरा": 3740,
      "रस्सी": 3741,
      "▁रस्सी": 3742,
      "भव": 3743,
      "▁भव": 3744,
      "चढ़ने": 3745,
      "▁चढ़ने": 3746,
      "ब्लॉक": 3747,
      "▁ब्लॉक": 3748,
      "दबा": 3749,
      "▁दबा": 3750,
      "तियों": 3751,
      "▁तियों": 3752,
      "झील": 3753,
      "▁झील": 3754,
      "राक्षस": 3755,
      "▁राक्षस": 3756,
      "छूना": 3757,
      "▁छूना": 3758,
      "चॉक": 3759,
      "▁चॉक": 3760,
      "सफ़े": 3761,
      "▁सफ़े": 3762,
      "काला": 3763,
      "▁काला": 3764,
      "विनम्र": 3765,
      "▁विनम्र": 3766,
      "सफ़ेद": 3767,
      "▁सफ़ेद": 3768,
      "लाँ": 3769,
      "▁लाँ": 3770,
      "डिनर": 3771,
      "▁डिनर": 3772,
      "धै": 3773,
      "▁धै": 3774,
      "पौध": 3775,
      "▁पौध": 3776,
      "ट्स": 3777,
      "▁ट्स": 3778,
      "धैर्य": 3779,
      "▁धैर्य": 3780,
      "पड़ोसी": 3781,
      "▁पड़ोसी": 3782,
      "पड़े": 3783,
      "▁पड़े": 3784,
      "न्हें": 3785,
      "▁न्हें": 3786,
      "सैंडविच": 3787,
      "▁सैंडविच": 3788,
      "कारें": 3789,
      "▁कारें": 3790,
      "गाँ": 3791,
      "▁गाँ": 3792,
      "दूध": 3793,
      "▁दूध": 3794,
      "सित": 3795,
      "▁सित": 3796,
      "रोते": 3797,
      "▁रोते": 3798,
      "टुकड़ों": 3799,
      "▁टुकड़ों": 3800,
      "ओवन": 3801,
      "▁ओवन": 3802,
      "कोट": 3803,
      "▁कोट": 3804,
      "राज़": 3805,
      "▁राज़": 3806,
      "टकरा": 3807,
      "▁टकरा": 3808,
      "जन्": 3809,
      "▁जन्": 3810,
      "चाबी": 3811,
      "▁चाबी": 3812,
      "जन्म": 3813,
      "▁जन्म": 3814,
      "यही": 3815,
      "▁यही": 3816,
      "गाड़ी": 3817,
      "▁गाड़ी": 3818,
      "समुद्री": 3819,
      "▁समुद्री": 3820,
      "बीज": 3821,
      "▁बीज": 3822,
      "बीमार": 3823,
      "▁बीमार": 3824,
      "पूल": 3825,
      "▁पूल": 3826,
      "फिन": 3827,
      "▁फिन": 3828,
      "च्छ": 3829,
      "▁च्छ": 3830,
      "जिसने": 3831,
      "▁जिसने": 3832,
      "पूछता": 3833,
      "▁पूछता": 3834,
      "स्वार्": 3835,
      "▁स्वार्": 3836,
      "खुशबू": 3837,
      "▁खुशबू": 3838,
      "उतना": 3839,
      "▁उतना": 3840,
      "बाड़": 3841,
      "▁बाड़": 3842,
      "पिल्": 3843,
      "▁पिल्": 3844,
      "सकी": 3845,
      "▁सकी": 3846,
      "ाई": 3847,
      "▁ाई": 3848,
      "बाँ": 3849,
      "▁बाँ": 3850,
      "छिप": 3851,
      "▁छिप": 3852,
      "पेश": 3853,
      "▁पेश": 3854,
      "ऐसे": 3855,
      "▁ऐसे": 3856,
      "बत्तख": 3857,
      "▁बत्तख": 3858,
      "लय": 3859,
      "▁लय": 3860,
      "यरी": 3861,
      "▁यरी": 3862,
      "सम्": 3863,
      "▁सम्": 3864,
      "सीखना": 3865,
      "▁सीखना": 3866,
      "चालाक": 3867,
      "▁चालाक": 3868,
      "जन्मदिन": 3869,
      "▁जन्मदिन": 3870,
      "नें": 3871,
      "▁नें": 3872,
      "ज़ि": 3873,
      "▁ज़ि": 3874,
      "मचा": 3875,
      "▁मचा": 3876,
      "ढूंढने": 3877,
      "▁ढूंढने": 3878,
      "सम्मान": 3879,
      "▁सम्मान": 3880,
      "ताव": 3881,
      "▁ताव": 3882,
      "लहर": 3883,
      "▁लहर": 3884,
      "स्वार्थी": 3885,
      "▁स्वार्थी": 3886,
      "एमिली": 3887,
      "▁एमिली": 3888,
      "पिल्ला": 3889,
      "▁पिल्ला": 3890,
      "जितना": 3891,
      "▁जितना": 3892,
      "दौड़ता": 3893,
      "▁दौड़ता": 3894,
      "अंधेरा": 3895,
      "▁अंधेरा": 3896,
      "फर": 3897,
      "▁फर": 3898,
      "हंसे": 3899,
      "▁हंसे": 3900,
      "जता": 3901,
      "▁जता": 3902,
      "फंस": 3903,
      "▁फंस": 3904,
      "पतंग": 3905,
      "▁पतंग": 3906,
      "जाया": 3907,
      "▁जाया": 3908,
      "खुशहाल": 3909,
      "▁खुशहाल": 3910,
      "उड़ना": 3911,
      "▁उड़ना": 3912,
      "पहनना": 3913,
      "▁पहनना": 3914,
      "पुरानी": 3915,
      "▁पुरानी": 3916,
      "नौ": 3917,
      "▁नौ": 3918,
      "भरे": 3919,
      "▁भरे": 3920,
      "चाय": 3921,
      "▁चाय": 3922,
      "हवाई": 3923,
      "▁हवाई": 3924,
      "उपयोग": 3925,
      "▁उपयोग": 3926,
      "पुराना": 3927,
      "▁पुराना": 3928,
      "कत": 3929,
      "▁कत": 3930,
      "सामा": 3931,
      "▁सामा": 3932,
      "मुड़": 3933,
      "▁मुड़": 3934,
      "खोलने": 3935,
      "▁खोलने": 3936,
      "यमय": 3937,
      "▁यमय": 3938,
      "रहस्यमय": 3939,
      "▁रहस्यमय": 3940,
      "शामिल": 3941,
      "▁शामिल": 3942,
      "क्सर": 3943,
      "▁क्सर": 3944,
      "चलना": 3945,
      "▁चलना": 3946,
      "अंगू": 3947,
      "▁अंगू": 3948,
      "जोड़": 3949,
      "▁जोड़": 3950,
      "ज़ोर": 3951,
      "▁ज़ोर": 3952,
      "डाला": 3953,
      "▁डाला": 3954,
      "ड्राइवर": 3955,
      "▁ड्राइवर": 3956,
      "संग": 3957,
      "▁संग": 3958,
      "रेड": 3959,
      "▁रेड": 3960,
      "क्कर": 3961,
      "▁क्कर": 3962,
      "बैठे": 3963,
      "▁बैठे": 3964,
      "शो": 3965,
      "▁शो": 3966,
      "जूस": 3967,
      "▁जूस": 3968,
      "ट्वी": 3969,
      "▁ट्वी": 3970,
      "तौ": 3971,
      "▁तौ": 3972,
      "हमारी": 3973,
      "▁हमारी": 3974,
      "पहना": 3975,
      "▁पहना": 3976,
      "सब्": 3977,
      "▁सब्": 3978,
      "रोबोट": 3979,
      "▁रोबोट": 3980,
      "कात": 3981,
      "▁कात": 3982,
      "कोने": 3983,
      "▁कोने": 3984,
      "खरीदने": 3985,
      "▁खरीदने": 3986,
      "दौड़कर": 3987,
      "▁दौड़कर": 3988,
      "फायर": 3989,
      "▁फायर": 3990,
      "भागने": 3991,
      "▁भागने": 3992,
      "मुलाकात": 3993,
      "▁मुलाकात": 3994,
      "डरी": 3995,
      "▁डरी": 3996,
      "मच्छ": 3997,
      "▁मच्छ": 3998,
      "नारंगी": 3999,
      "▁नारंगी": 4000,
      "ंगन": 4001,
      "▁ंगन": 4002,
      "हाय": 4003,
      "▁हाय": 4004,
      "दांत": 4005,
      "▁दांत": 4006,
      "छूने": 4007,
      "▁छूने": 4008,
      "पुराने": 4009,
      "▁पुराने": 4010,
      "पकी": 4011,
      "▁पकी": 4012,
      "मिठा": 4013,
      "▁मिठा": 4014,
      "पिल्ले": 4015,
      "▁पिल्ले": 4016,
      "कहानियाँ": 4017,
      "▁कहानियाँ": 4018,
      "पीले": 4019,
      "▁पीले": 4020,
      "भ्": 4021,
      "▁भ्": 4022,
      "हालाँ": 4023,
      "▁हालाँ": 4024,
      "हालाँकि": 4025,
      "▁हालाँकि": 4026,
      "मशी": 4027,
      "▁मशी": 4028,
      "मां": 4029,
      "▁मां": 4030,
      "खाते": 4031,
      "▁खाते": 4032,
      "टिंग": 4033,
      "▁टिंग": 4034,
      "समस्या": 4035,
      "▁समस्या": 4036,
      "दिलचस्प": 4037,
      "▁दिलचस्प": 4038,
      "चाहोगी": 4039,
      "▁चाहोगी": 4040,
      "छला": 4041,
      "▁छला": 4042,
      "पों": 4043,
      "▁पों": 4044,
      "रखता": 4045,
      "▁रखता": 4046,
      "फिसल": 4047,
      "▁फिसल": 4048,
      "कमरा": 4049,
      "▁कमरा": 4050,
      "खींचा": 4051,
      "▁खींचा": 4052,
      "दौड़ने": 4053,
      "▁दौड़ने": 4054,
      "जेक": 4055,
      "▁जेक": 4056,
      "उड़ान": 4057,
      "▁उड़ान": 4058,
      "चिक": 4059,
      "▁चिक": 4060,
      "स्थान": 4061,
      "▁स्थान": 4062,
      "स्ती": 4063,
      "▁स्ती": 4064,
      "मांग": 4065,
      "▁मांग": 4066,
      "पिक": 4067,
      "▁पिक": 4068,
      "सुनना": 4069,
      "▁सुनना": 4070,
      "पर्या": 4071,
      "▁पर्या": 4072,
      "गुफा": 4073,
      "▁गुफा": 4074,
      "पीटर": 4075,
      "▁पीटर": 4076,
      "अर": 4077,
      "▁अर": 4078,
      "संके": 4079,
      "▁संके": 4080,
      "बाप": 4081,
      "▁बाप": 4082,
      "फैला": 4083,
      "▁फैला": 4084,
      "भले": 4085,
      "▁भले": 4086,
      "गहरी": 4087,
      "▁गहरी": 4088,
      "सामान": 4089,
      "▁सामान": 4090,
      "हिलाते": 4091,
      "▁हिलाते": 4092,
      "सहमत": 4093,
      "▁सहमत": 4094,
      "र्क": 4095,
      "▁र्क": 4096,
      "पढ़ना": 4097,
      "▁पढ़ना": 4098,
      "प्राण": 4099,
      "▁प्राण": 4100,
      "बाथ": 4101,
      "▁बाथ": 4102,
      "सीटी": 4103,
      "▁सीटी": 4104,
      "रखती": 4105,
      "▁रखती": 4106,
      "हिस्सा": 4107,
      "▁हिस्सा": 4108,
      "भ्रम": 4109,
      "▁भ्रम": 4110,
      "तेजी": 4111,
      "▁तेजी": 4112,
      "पर्याप्त": 4113,
      "▁पर्याप्त": 4114,
      "मज़बू": 4115,
      "▁मज़बू": 4116,
      "अनो": 4117,
      "▁अनो": 4118,
      "छलांग": 4119,
      "▁छलांग": 4120,
      "झपकी": 4121,
      "▁झपकी": 4122,
      "जॉनी": 4123,
      "▁जॉनी": 4124,
      "ताकत": 4125,
      "▁ताकत": 4126,
      "खेलें": 4127,
      "▁खेलें": 4128,
      "पुलिस": 4129,
      "▁पुलिस": 4130,
      "शिक्ष": 4131,
      "▁शिक्ष": 4132,
      "पंखों": 4133,
      "▁पंखों": 4134,
      "मज़बूत": 4135,
      "▁मज़बूत": 4136,
      "छता": 4137,
      "▁छता": 4138,
      "कीन": 4139,
      "▁कीन": 4140,
      "विमान": 4141,
      "▁विमान": 4142,
      "आंगन": 4143,
      "▁आंगन": 4144,
      "खड़ा": 4145,
      "▁खड़ा": 4146,
      "सामान्य": 4147,
      "▁सामान्य": 4148,
      "र्च": 4149,
      "▁र्च": 4150,
      "मिनट": 4151,
      "▁मिनट": 4152,
      "इतने": 4153,
      "▁इतने": 4154,
      "ल्फ": 4155,
      "▁ल्फ": 4156,
      "टुकड़े": 4157,
      "▁टुकड़े": 4158,
      "अमी": 4159,
      "▁अमी": 4160,
      "बं": 4161,
      "▁बं": 4162,
      "डिब्": 4163,
      "▁डिब्": 4164,
      "गड़बड़": 4165,
      "▁गड़बड़": 4166,
      "ऊंची": 4167,
      "▁ऊंची": 4168,
      "पछता": 4169,
      "▁पछता": 4170,
      "नाचना": 4171,
      "▁नाचना": 4172,
      "सीढ़ी": 4173,
      "▁सीढ़ी": 4174,
      "वेल": 4175,
      "▁वेल": 4176,
      "प्रभाव": 4177,
      "▁प्रभाव": 4178,
      "स्वीकार": 4179,
      "▁स्वीकार": 4180,
      "जहाज": 4181,
      "▁जहाज": 4182,
      "मर": 4183,
      "▁मर": 4184,
      "जीवन": 4185,
      "▁जीवन": 4186,
      "साँस": 4187,
      "▁साँस": 4188,
      "होंगे": 4189,
      "▁होंगे": 4190,
      "व्": 4191,
      "▁व्": 4192,
      "जिए": 4193,
      "▁जिए": 4194,
      "आपने": 4195,
      "▁आपने": 4196,
      "गुजर": 4197,
      "▁गुजर": 4198,
      "ूंगा": 4199,
      "▁ूंगा": 4200,
      "क्षम": 4201,
      "▁क्षम": 4202,
      "पुकार": 4203,
      "▁पुकार": 4204,
      "टें": 4205,
      "▁टें": 4206,
      "दीं": 4207,
      "▁दीं": 4208,
      "फिट": 4209,
      "▁फिट": 4210,
      "भेड़": 4211,
      "▁भेड़": 4212,
      "मशीन": 4213,
      "▁मशीन": 4214,
      "गार": 4215,
      "▁गार": 4216,
      "संकेत": 4217,
      "▁संकेत": 4218,
      "आपका": 4219,
      "▁आपका": 4220,
      "बैठने": 4221,
      "▁बैठने": 4222,
      "चित्रित": 4223,
      "▁चित्रित": 4224,
      "सोफे": 4225,
      "▁सोफे": 4226,
      "स्नैक्स": 4227,
      "▁स्नैक्स": 4228,
      "अमीर": 4229,
      "▁अमीर": 4230,
      "नाज": 4231,
      "▁नाज": 4232,
      "जाँच": 4233,
      "▁जाँच": 4234,
      "शक्तिशाली": 4235,
      "▁शक्तिशाली": 4236,
      "एगा": 4237,
      "▁एगा": 4238,
      "खजाने": 4239,
      "▁खजाने": 4240,
      "यु": 4241,
      "▁यु": 4242,
      "लाइनों": 4243,
      "▁लाइनों": 4244,
      "रोमांचित": 4245,
      "▁रोमांचित": 4246,
      "अजन": 4247,
      "▁अजन": 4248,
      "स्टे": 4249,
      "▁स्टे": 4250,
      "ोटी": 4251,
      "▁ोटी": 4252,
      "पकड़ना": 4253,
      "▁पकड़ना": 4254,
      "हल्": 4255,
      "▁हल्": 4256,
      "स्टी": 4257,
      "▁स्टी": 4258,
      "रुककर": 4259,
      "▁रुककर": 4260,
      "ख्याल": 4261,
      "▁ख्याल": 4262,
      "दिनों": 4263,
      "▁दिनों": 4264,
      "पिकनिक": 4265,
      "▁पिकनिक": 4266,
      "भ्रमित": 4267,
      "▁भ्रमित": 4268,
      "उछ": 4269,
      "▁उछ": 4270,
      "्यास": 4271,
      "▁्यास": 4272,
      "नाजुक": 4273,
      "▁नाजुक": 4274,
      "रत्": 4275,
      "▁रत्": 4276,
      "पुल": 4277,
      "▁पुल": 4278,
      "सुनते": 4279,
      "▁सुनते": 4280,
      "अभ्यास": 4281,
      "▁अभ्यास": 4282,
      "चेताव": 4283,
      "▁चेताव": 4284,
      "तैरते": 4285,
      "▁तैरते": 4286,
      "निकली": 4287,
      "▁निकली": 4288,
      "पछतावा": 4289,
      "▁पछतावा": 4290,
      "लकड़ी": 4291,
      "▁लकड़ी": 4292,
      "देगा": 4293,
      "▁देगा": 4294,
      "छिपाने": 4295,
      "▁छिपाने": 4296,
      "सले": 4297,
      "▁सले": 4298,
      "लाई": 4299,
      "▁लाई": 4300,
      "पालन": 4301,
      "▁पालन": 4302,
      "पहनी": 4303,
      "▁पहनी": 4304,
      "जाएंगे": 4305,
      "▁जाएंगे": 4306,
      "भूखा": 4307,
      "▁भूखा": 4308,
      "डियो": 4309,
      "▁डियो": 4310,
      "कीं": 4311,
      "▁कीं": 4312,
      "बर्त": 4313,
      "▁बर्त": 4314,
      "चाकू": 4315,
      "▁चाकू": 4316,
      "सिखाया": 4317,
      "▁सिखाया": 4318,
      "जताई": 4319,
      "▁जताई": 4320,
      "जरूरत": 4321,
      "▁जरूरत": 4322,
      "मुस्कुराता": 4323,
      "▁मुस्कुराता": 4324,
      "रोटी": 4325,
      "▁रोटी": 4326,
      "सारी": 4327,
      "▁सारी": 4328,
      "ड्डी": 4329,
      "▁ड्डी": 4330,
      "हेलो": 4331,
      "▁हेलो": 4332,
      "आज़": 4333,
      "▁आज़": 4334,
      "गै": 4335,
      "▁गै": 4336,
      "छाया": 4337,
      "▁छाया": 4338,
      "आइए": 4339,
      "▁आइए": 4340,
      "आज़मा": 4341,
      "▁आज़मा": 4342,
      "िंग": 4343,
      "▁िंग": 4344,
      "माइ": 4345,
      "▁माइ": 4346,
      "मददगार": 4347,
      "▁मददगार": 4348,
      "क्रेयॉ": 4349,
      "▁क्रेयॉ": 4350,
      "हंसा": 4351,
      "▁हंसा": 4352,
      "कूदने": 4353,
      "▁कूदने": 4354,
      "उनमें": 4355,
      "▁उनमें": 4356,
      "जाग": 4357,
      "▁जाग": 4358,
      "सोचते": 4359,
      "▁सोचते": 4360,
      "जिमी": 4361,
      "▁जिमी": 4362,
      "चलता": 4363,
      "▁चलता": 4364,
      "उठ": 4365,
      "▁उठ": 4366,
      "मीठा": 4367,
      "▁मीठा": 4368,
      "गति": 4369,
      "▁गति": 4370,
      "पाते": 4371,
      "▁पाते": 4372,
      "जिन": 4373,
      "▁जिन": 4374,
      "जंगली": 4375,
      "▁जंगली": 4376,
      "तैरना": 4377,
      "▁तैरना": 4378,
      "बढ़ाया": 4379,
      "▁बढ़ाया": 4380,
      "ष्": 4381,
      "▁ष्": 4382,
      "पाल": 4383,
      "▁पाल": 4384,
      "दरवाज़ा": 4385,
      "▁दरवाज़ा": 4386,
      "झुक": 4387,
      "▁झुक": 4388,
      "शर्ट": 4389,
      "▁शर्ट": 4390,
      "स्नोमैन": 4391,
      "▁स्नोमैन": 4392,
      "यकीन": 4393,
      "▁यकीन": 4394,
      "उठाने": 4395,
      "▁उठाने": 4396,
      "तूफा": 4397,
      "▁तूफा": 4398,
      "अदा": 4399,
      "▁अदा": 4400,
      "अनुभव": 4401,
      "▁अनुभव": 4402,
      "चना": 4403,
      "▁चना": 4404,
      "सफा": 4405,
      "▁सफा": 4406,
      "चेतावनी": 4407,
      "▁चेतावनी": 4408,
      "सफाई": 4409,
      "▁सफाई": 4410,
      "सहमति": 4411,
      "▁सहमति": 4412,
      "ार्थ": 4413,
      "▁ार्थ": 4414,
      "नीय": 4415,
      "▁नीय": 4416,
      "प्रे": 4417,
      "▁प्रे": 4418,
      "हंसने": 4419,
      "▁हंसने": 4420,
      "कच": 4421,
      "▁कच": 4422,
      "इसकी": 4423,
      "▁इसकी": 4424,
      "ब्लू": 4425,
      "▁ब्लू": 4426,
      "डाइना": 4427,
      "▁डाइना": 4428,
      "बिल": 4429,
      "▁बिल": 4430,
      "बातें": 4431,
      "▁बातें": 4432,
      "कूदता": 4433,
      "▁कूदता": 4434,
      "मक्ख": 4435,
      "▁मक्ख": 4436,
      "पिंज": 4437,
      "▁पिंज": 4438,
      "भग": 4439,
      "▁भग": 4440,
      "झूला": 4441,
      "▁झूला": 4442,
      "डाइनासो": 4443,
      "▁डाइनासो": 4444,
      "सफे": 4445,
      "▁सफे": 4446,
      "जेली": 4447,
      "▁जेली": 4448,
      "तूफान": 4449,
      "▁तूफान": 4450,
      "सफेद": 4451,
      "▁सफेद": 4452,
      "क्रो": 4453,
      "▁क्रो": 4454,
      "जिद्": 4455,
      "▁जिद्": 4456,
      "बूढ़ा": 4457,
      "▁बूढ़ा": 4458,
      "मिठाई": 4459,
      "▁मिठाई": 4460,
      "टना": 4461,
      "▁टना": 4462,
      "खाली": 4463,
      "▁खाली": 4464,
      "मिट्": 4465,
      "▁मिट्": 4466,
      "गड़ा": 4467,
      "▁गड़ा": 4468,
      "करण": 4469,
      "▁करण": 4470,
      "हमारा": 4471,
      "▁हमारा": 4472,
      "क्त": 4473,
      "▁क्त": 4474,
      "बार्": 4475,
      "▁बार्": 4476,
      "कारण": 4477,
      "▁कारण": 4478,
      "बुला": 4479,
      "▁बुला": 4480,
      "ंटों": 4481,
      "▁ंटों": 4482,
      "प्राणी": 4483,
      "▁प्राणी": 4484,
      "आसान": 4485,
      "▁आसान": 4486,
      "शह": 4487,
      "▁शह": 4488,
      "सपना": 4489,
      "▁सपना": 4490,
      "सोना": 4491,
      "▁सोना": 4492,
      "श्न": 4493,
      "▁श्न": 4494,
      "आकारों": 4495,
      "▁आकारों": 4496,
      "खड़े": 4497,
      "▁खड़े": 4498,
      "डूबने": 4499,
      "▁डूबने": 4500,
      "डाइनासोर": 4501,
      "▁डाइनासोर": 4502,
      "सांस": 4503,
      "▁सांस": 4504,
      "कालीन": 4505,
      "▁कालीन": 4506,
      "गाँव": 4507,
      "▁गाँव": 4508,
      "र्ष": 4509,
      "▁र्ष": 4510,
      "छत": 4511,
      "▁छत": 4512,
      "जली": 4513,
      "▁जली": 4514,
      "गुज़र": 4515,
      "▁गुज़र": 4516,
      "बादलों": 4517,
      "▁बादलों": 4518,
      "सीखने": 4519,
      "▁सीखने": 4520,
      "भूत": 4521,
      "▁भूत": 4522,
      "लंच": 4523,
      "▁लंच": 4524,
      "याँ": 4525,
      "▁याँ": 4526,
      "खाई": 4527,
      "▁खाई": 4528,
      "ब्र": 4529,
      "▁ब्र": 4530,
      "नाटक": 4531,
      "▁नाटक": 4532,
      "व्यव": 4533,
      "▁व्यव": 4534,
      "बर्तन": 4535,
      "▁बर्तन": 4536,
      "चूम": 4537,
      "▁चूम": 4538,
      "ब्रश": 4539,
      "▁ब्रश": 4540,
      "टह": 4541,
      "▁टह": 4542,
      "लहरा": 4543,
      "▁लहरा": 4544,
      "ट्वीटी": 4545,
      "▁ट्वीटी": 4546,
      "घंटी": 4547,
      "▁घंटी": 4548,
      "छिड़": 4549,
      "▁छिड़": 4550,
      "उपकरण": 4551,
      "▁उपकरण": 4552,
      "बल्कि": 4553,
      "▁बल्कि": 4554,
      "चॉकलेट": 4555,
      "▁चॉकलेट": 4556,
      "मौका": 4557,
      "▁मौका": 4558,
      "पत्ते": 4559,
      "▁पत्ते": 4560,
      "किताबों": 4561,
      "▁किताबों": 4562,
      "चिट्": 4563,
      "▁चिट्": 4564,
      "जैसी": 4565,
      "▁जैसी": 4566,
      "पालतू": 4567,
      "▁पालतू": 4568,
      "क्रि": 4569,
      "▁क्रि": 4570,
      "कागज": 4571,
      "▁कागज": 4572,
      "ार्म": 4573,
      "▁ार्म": 4574,
      "बैठा": 4575,
      "▁बैठा": 4576,
      "चुं": 4577,
      "▁चुं": 4578,
      "ब्रा": 4579,
      "▁ब्रा": 4580,
      "नींद": 4581,
      "▁नींद": 4582,
      "विश्वस": 4583,
      "▁विश्वस": 4584,
      "विश्वसनीय": 4585,
      "▁विश्वसनीय": 4586,
      "हासिल": 4587,
      "▁हासिल": 4588,
      "रोल": 4589,
      "▁रोल": 4590,
      "हैरानी": 4591,
      "▁हैरानी": 4592,
      "गीला": 4593,
      "▁गीला": 4594,
      "सूजी": 4595,
      "▁सूजी": 4596,
      "घोड़े": 4597,
      "▁घोड़े": 4598,
      "करूँगा": 4599,
      "▁करूँगा": 4600,
      "बरा": 4601,
      "▁बरा": 4602,
      "शर्मी": 4603,
      "▁शर्मी": 4604,
      "घुटने": 4605,
      "▁घुटने": 4606,
      "करूँगी": 4607,
      "▁करूँगी": 4608,
      "स्क": 4609,
      "▁स्क": 4610,
      "क्रेयॉन": 4611,
      "▁क्रेयॉन": 4612,
      "जिद्दी": 4613,
      "▁जिद्दी": 4614,
      "सिखा": 4615,
      "▁सिखा": 4616,
      "चक्कर": 4617,
      "▁चक्कर": 4618,
      "ार्ड": 4619,
      "▁ार्ड": 4620,
      "स्नैक": 4621,
      "▁स्नैक": 4622,
      "गेम": 4623,
      "▁गेम": 4624,
      "फू": 4625,
      "▁फू": 4626,
      "दोस्ती": 4627,
      "▁दोस्ती": 4628,
      "भागा": 4629,
      "▁भागा": 4630,
      "ग्र": 4631,
      "▁ग्र": 4632,
      "्ष": 4633,
      "▁्ष": 4634,
      "नुक": 4635,
      "▁नुक": 4636,
      "घोंसले": 4637,
      "▁घोंसले": 4638,
      "हिर": 4639,
      "▁हिर": 4640,
      "काय": 4641,
      "▁काय": 4642,
      "सीट": 4643,
      "▁सीट": 4644,
      "बनाती": 4645,
      "▁बनाती": 4646,
      "तरीके": 4647,
      "▁तरीके": 4648,
      "आकर्ष": 4649,
      "▁आकर्ष": 4650,
      "व्यवस्थित": 4651,
      "▁व्यवस्थित": 4652,
      "बेड": 4653,
      "▁बेड": 4654,
      "बनाता": 4655,
      "▁बनाता": 4656,
      "उंगली": 4657,
      "▁उंगली": 4658,
      "भागना": 4659,
      "▁भागना": 4660,
      "एक्स": 4661,
      "▁एक्स": 4662,
      "किस": 4663,
      "▁किस": 4664,
      "सूअर": 4665,
      "▁सूअर": 4666,
      "छिड़का": 4667,
      "▁छिड़का": 4668,
      "उतनी": 4669,
      "▁उतनी": 4670,
      "सक्षम": 4671,
      "▁सक्षम": 4672,
      "खेलकर": 4673,
      "▁खेलकर": 4674,
      "बूढ़ी": 4675,
      "▁बूढ़ी": 4676,
      "मंत्र": 4677,
      "▁मंत्र": 4678,
      "रॉकेट": 4679,
      "▁रॉकेट": 4680,
      "नुकसान": 4681,
      "▁नुकसान": 4682,
      "मगर": 4683,
      "▁मगर": 4684,
      "धारण": 4685,
      "▁धारण": 4686,
      "हिलने": 4687,
      "▁हिलने": 4688,
      "मगरमच्छ": 4689,
      "▁मगरमच्छ": 4690,
      "तंत्र": 4691,
      "▁तंत्र": 4692,
      "हामी": 4693,
      "▁हामी": 4694,
      "ंसा": 4695,
      "▁ंसा": 4696,
      "सुनने": 4697,
      "▁सुनने": 4698,
      "स्वतंत्र": 4699,
      "▁स्वतंत्र": 4700,
      "अंधेरे": 4701,
      "▁अंधेरे": 4702,
      "कबू": 4703,
      "▁कबू": 4704,
      "दरवाज़े": 4705,
      "▁दरवाज़े": 4706,
      "हिरण": 4707,
      "▁हिरण": 4708,
      "बेडरूम": 4709,
      "▁बेडरूम": 4710,
      "कबूतर": 4711,
      "▁कबूतर": 4712,
      "एलिस": 4713,
      "▁एलिस": 4714,
      "चख": 4715,
      "▁चख": 4716,
      "मारा": 4717,
      "▁मारा": 4718,
      "मुड़कर": 4719,
      "▁मुड़कर": 4720,
      "उठी": 4721,
      "▁उठी": 4722,
      "बुजु": 4723,
      "▁बुजु": 4724,
      "खोजना": 4725,
      "▁खोजना": 4726,
      "मॉमी": 4727,
      "▁मॉमी": 4728,
      "बुजुर्ग": 4729,
      "▁बुजुर्ग": 4730,
      "रण": 4731,
      "▁रण": 4732,
      "जूद": 4733,
      "▁जूद": 4734,
      "आंख": 4735,
      "▁आंख": 4736,
      "पैन": 4737,
      "▁पैन": 4738,
      "मछलियों": 4739,
      "▁मछलियों": 4740,
      "दें": 4741,
      "▁दें": 4742,
      "दृश्": 4743,
      "▁दृश्": 4744,
      "फ्ट": 4745,
      "▁फ्ट": 4746,
      "भरो": 4747,
      "▁भरो": 4748,
      "सच": 4749,
      "▁सच": 4750,
      "ईमान": 4751,
      "▁ईमान": 4752,
      "क्षा": 4753,
      "▁क्षा": 4754,
      "पैट": 4755,
      "▁पैट": 4756,
      "रत्न": 4757,
      "▁रत्न": 4758,
      "चकि": 4759,
      "▁चकि": 4760,
      "फ्रि": 4761,
      "▁फ्रि": 4762,
      "ईमानदार": 4763,
      "▁ईमानदार": 4764,
      "तियाँ": 4765,
      "▁तियाँ": 4766,
      "थै": 4767,
      "▁थै": 4768,
      "दादाजी": 4769,
      "▁दादाजी": 4770,
      "मती": 4771,
      "▁मती": 4772,
      "वास्त": 4773,
      "▁वास्त": 4774,
      "छीन": 4775,
      "▁छीन": 4776,
      "ऐना": 4777,
      "▁ऐना": 4778,
      "कठ": 4779,
      "▁कठ": 4780,
      "नं": 4781,
      "▁नं": 4782,
      "सुझा": 4783,
      "▁सुझा": 4784,
      "मार्क": 4785,
      "▁मार्क": 4786,
      "जहाज़": 4787,
      "▁जहाज़": 4788,
      "रचना": 4789,
      "▁रचना": 4790,
      "पहुंचा": 4791,
      "▁पहुंचा": 4792,
      "मुस्कुराईं": 4793,
      "▁मुस्कुराईं": 4794,
      "मुर्": 4795,
      "▁मुर्": 4796,
      "बक्सा": 4797,
      "▁बक्सा": 4798,
      "खजाना": 4799,
      "▁खजाना": 4800,
      "लेक्स": 4801,
      "▁लेक्स": 4802,
      "पीली": 4803,
      "▁पीली": 4804,
      "पत्तियों": 4805,
      "▁पत्तियों": 4806,
      "शरी": 4807,
      "▁शरी": 4808,
      "हिलाता": 4809,
      "▁हिलाता": 4810,
      "बहस": 4811,
      "▁बहस": 4812,
      "शरीर": 4813,
      "▁शरीर": 4814,
      "सार": 4815,
      "▁सार": 4816,
      "साधारण": 4817,
      "▁साधारण": 4818,
      "स्टल": 4819,
      "▁स्टल": 4820,
      "तारों": 4821,
      "▁तारों": 4822,
      "अजनबी": 4823,
      "▁अजनबी": 4824,
      "म्मत": 4825,
      "▁म्मत": 4826,
      "भया": 4827,
      "▁भया": 4828,
      "जबकि": 4829,
      "▁जबकि": 4830,
      "ठंडी": 4831,
      "▁ठंडी": 4832,
      "गाया": 4833,
      "▁गाया": 4834,
      "शादी": 4835,
      "▁शादी": 4836,
      "अस्": 4837,
      "▁अस्": 4838,
      "जैकेट": 4839,
      "▁जैकेट": 4840,
      "सिक्": 4841,
      "▁सिक्": 4842,
      "लता": 4843,
      "▁लता": 4844,
      "ट्यू": 4845,
      "▁ट्यू": 4846,
      "टीवी": 4847,
      "▁टीवी": 4848,
      "बच्ची": 4849,
      "▁बच्ची": 4850,
      "कंबल": 4851,
      "▁कंबल": 4852,
      "क्यू": 4853,
      "▁क्यू": 4854,
      "पताल": 4855,
      "▁पताल": 4856,
      "टेप": 4857,
      "▁टेप": 4858,
      "अस्पताल": 4859,
      "▁अस्पताल": 4860,
      "काफी": 4861,
      "▁काफी": 4862,
      "ज़्": 4863,
      "▁ज़्": 4864,
      "घूमते": 4865,
      "▁घूमते": 4866,
      "पहनने": 4867,
      "▁पहनने": 4868,
      "भयानक": 4869,
      "▁भयानक": 4870,
      "एली": 4871,
      "▁एली": 4872,
      "कद्": 4873,
      "▁कद्": 4874,
      "गार्ड": 4875,
      "▁गार्ड": 4876,
      "घड़ी": 4877,
      "▁घड़ी": 4878,
      "कॉर्ड": 4879,
      "▁कॉर्ड": 4880,
      "राजकुमार": 4881,
      "▁राजकुमार": 4882,
      "वास्तव": 4883,
      "▁वास्तव": 4884,
      "उतर": 4885,
      "▁उतर": 4886,
      "दर्श": 4887,
      "▁दर्श": 4888,
      "वारा": 4889,
      "▁वारा": 4890,
      "स्ना": 4891,
      "▁स्ना": 4892,
      "शब्दों": 4893,
      "▁शब्दों": 4894,
      "मेल": 4895,
      "▁मेल": 4896,
      "लगती": 4897,
      "▁लगती": 4898,
      "कैसा": 4899,
      "▁कैसा": 4900,
      "छिपने": 4901,
      "▁छिपने": 4902,
      "ह्": 4903,
      "▁ह्": 4904,
      "अक्सर": 4905,
      "▁अक्सर": 4906,
      "दौड़ती": 4907,
      "▁दौड़ती": 4908,
      "स्नान": 4909,
      "▁स्नान": 4910,
      "अंडे": 4911,
      "▁अंडे": 4912,
      "रानी": 4913,
      "▁रानी": 4914,
      "झाँ": 4915,
      "▁झाँ": 4916,
      "सब्जि": 4917,
      "▁सब्जि": 4918,
      "सुझाव": 4919,
      "▁सुझाव": 4920,
      "बर्फ़": 4921,
      "▁बर्फ़": 4922,
      "चड़": 4923,
      "▁चड़": 4924,
      "बजाना": 4925,
      "▁बजाना": 4926,
      "परफे": 4927,
      "▁परफे": 4928,
      "ल्प": 4929,
      "▁ल्प": 4930,
      "चुका": 4931,
      "▁चुका": 4932,
      "डॉल्स": 4933,
      "▁डॉल्स": 4934,
      "रररररररररररररररर": 4935,
      "▁रररररररररररररररर": 4936,
      "चढ़कर": 4937,
      "▁चढ़कर": 4938,
      "पिया": 4939,
      "▁पिया": 4940,
      "कीचड़": 4941,
      "▁कीचड़": 4942,
      "वाज": 4943,
      "▁वाज": 4944,
      "आवाज": 4945,
      "▁आवाज": 4946,
      "प्लेट": 4947,
      "▁प्लेट": 4948,
      "पेंसिल": 4949,
      "▁पेंसिल": 4950,
      "सों": 4951,
      "▁सों": 4952,
      "र्ट": 4953,
      "▁र्ट": 4954,
      "बेला": 4955,
      "▁बेला": 4956,
      "जिन्हें": 4957,
      "▁जिन्हें": 4958,
      "जिसकी": 4959,
      "▁जिसकी": 4960,
      "सुनती": 4961,
      "▁सुनती": 4962,
      "आएगा": 4963,
      "▁आएगा": 4964,
      "कीजिए": 4965,
      "▁कीजिए": 4966,
      "बाकी": 4967,
      "▁बाकी": 4968,
      "बुल": 4969,
      "▁बुल": 4970,
      "भाग्यशाली": 4971,
      "▁भाग्यशाली": 4972,
      "परफेक्ट": 4973,
      "▁परफेक्ट": 4974,
      "क्ला": 4975,
      "▁क्ला": 4976,
      "भीर": 4977,
      "▁भीर": 4978,
      "कपड़ों": 4979,
      "▁कपड़ों": 4980,
      "मक्खी": 4981,
      "▁मक्खी": 4982,
      "टियों": 4983,
      "▁टियों": 4984,
      "हँसी": 4985,
      "▁हँसी": 4986,
      "स्टिकर": 4987,
      "▁स्टिकर": 4988,
      "फ्रिज": 4989,
      "▁फ्रिज": 4990,
      "उबा": 4991,
      "▁उबा": 4992,
      "टबॉल": 4993,
      "▁टबॉल": 4994,
      "जिज्ञासा": 4995,
      "▁जिज्ञासा": 4996,
      "पत्थरों": 4997,
      "▁पत्थरों": 4998,
      "लियो": 4999,
      "▁लियो": 5000,
      "गाते": 5001,
      "▁गाते": 5002,
      "छुए": 5003,
      "▁छुए": 5004,
      "चबा": 5005,
      "▁चबा": 5006,
      "बेबी": 5007,
      "▁बेबी": 5008,
      "निर्ण": 5009,
      "▁निर्ण": 5010,
      "पहुंच": 5011,
      "▁पहुंच": 5012,
      "डैडी": 5013,
      "▁डैडी": 5014,
      "यी": 5015,
      "▁यी": 5016,
      "पेंटिंग": 5017,
      "▁पेंटिंग": 5018,
      "गंभीर": 5019,
      "▁गंभीर": 5020,
      "मधु": 5021,
      "▁मधु": 5022,
      "घायल": 5023,
      "▁घायल": 5024,
      "प्रार्थ": 5025,
      "▁प्रार्थ": 5026,
      "प्रार्थना": 5027,
      "▁प्रार्थना": 5028,
      "उधार": 5029,
      "▁उधार": 5030,
      "तूफ़ा": 5031,
      "▁तूफ़ा": 5032,
      "उत": 5033,
      "▁उत": 5034,
      "काटा": 5035,
      "▁काटा": 5036,
      "चीनी": 5037,
      "▁चीनी": 5038,
      "पिंजरे": 5039,
      "▁पिंजरे": 5040,
      "उठाई": 5041,
      "▁उठाई": 5042,
      "दिखने": 5043,
      "▁दिखने": 5044,
      "दृश्य": 5045,
      "▁दृश्य": 5046,
      "झूलना": 5047,
      "▁झूलना": 5048,
      "िल्म": 5049,
      "▁िल्म": 5050,
      "तूफ़ान": 5051,
      "▁तूफ़ान": 5052,
      "इमार": 5053,
      "▁इमार": 5054,
      "किले": 5055,
      "▁किले": 5056,
      "चुरा": 5057,
      "▁चुरा": 5058,
      "लाइन": 5059,
      "▁लाइन": 5060,
      "चोंच": 5061,
      "▁चोंच": 5062,
      "टका": 5063,
      "▁टका": 5064,
      "पकड़कर": 5065,
      "▁पकड़कर": 5066,
      "वो": 5067,
      "▁वो": 5068,
      "माँगते": 5069,
      "▁माँगते": 5070,
      "लगने": 5071,
      "▁लगने": 5072,
      "दौरा": 5073,
      "▁दौरा": 5074,
      "टीचर": 5075,
      "▁टीचर": 5076,
      "ऊंगा": 5077,
      "▁ऊंगा": 5078,
      "पीठ": 5079,
      "▁पीठ": 5080,
      "बुक": 5081,
      "▁बुक": 5082,
      "वत": 5083,
      "▁वत": 5084,
      "ौल": 5085,
      "▁ौल": 5086,
      "खेलता": 5087,
      "▁खेलता": 5088,
      "ूंगी": 5089,
      "▁ूंगी": 5090,
      "मं": 5091,
      "▁मं": 5092,
      "किट्टी": 5093,
      "▁किट्टी": 5094,
      "लिसा": 5095,
      "▁लिसा": 5096,
      "मैंडी": 5097,
      "▁मैंडी": 5098,
      "मछलियाँ": 5099,
      "▁मछलियाँ": 5100,
      "पूछना": 5101,
      "▁पूछना": 5102,
      "सव": 5103,
      "▁सव": 5104,
      "सफलता": 5105,
      "▁सफलता": 5106,
      "घंटों": 5107,
      "▁घंटों": 5108,
      "दुः": 5109,
      "▁दुः": 5110,
      "ड्रम": 5111,
      "▁ड्रम": 5112,
      "धुपाने": 5113,
      "▁धुपाने": 5114,
      "कटोरे": 5115,
      "▁कटोरे": 5116,
      "बाघ": 5117,
      "▁बाघ": 5118,
      "खेलती": 5119,
      "▁खेलती": 5120,
      "ऊंचे": 5121,
      "▁ऊंचे": 5122,
      "लैंप": 5123,
      "▁लैंप": 5124,
      "मामा": 5125,
      "▁मामा": 5126,
      "गों": 5127,
      "▁गों": 5128,
      "सन": 5129,
      "▁सन": 5130,
      "सुथ": 5131,
      "▁सुथ": 5132,
      "सिक": 5133,
      "▁सिक": 5134,
      "छिड़क": 5135,
      "▁छिड़क": 5136,
      "रिबन": 5137,
      "▁रिबन": 5138,
      "उबाऊ": 5139,
      "▁उबाऊ": 5140,
      "बजाते": 5141,
      "▁बजाते": 5142,
      "हड्डी": 5143,
      "▁हड्डी": 5144,
      "गंदे": 5145,
      "▁गंदे": 5146,
      "डरे": 5147,
      "▁डरे": 5148,
      "पट्टी": 5149,
      "▁पट्टी": 5150,
      "नियों": 5151,
      "▁नियों": 5152,
      "विशा": 5153,
      "▁विशा": 5154,
      "बोल": 5155,
      "▁बोल": 5156,
      "ठंडे": 5157,
      "▁ठंडे": 5158,
      "बचाने": 5159,
      "▁बचाने": 5160,
      "गंदगी": 5161,
      "▁गंदगी": 5162,
      "गरी": 5163,
      "▁गरी": 5164,
      "ॉर्न": 5165,
      "▁ॉर्न": 5166,
      "खुला": 5167,
      "▁खुला": 5168,
      "पीट": 5169,
      "▁पीट": 5170,
      "गेट": 5171,
      "▁गेट": 5172,
      "बॉबी": 5173,
      "▁बॉबी": 5174,
      "पॉप": 5175,
      "▁पॉप": 5176,
      "काटने": 5177,
      "▁काटने": 5178,
      "शू": 5179,
      "▁शू": 5180,
      "जानने": 5181,
      "▁जानने": 5182,
      "दुःख": 5183,
      "▁दुःख": 5184,
      "खड़ी": 5185,
      "▁खड़ी": 5186,
      "आल": 5187,
      "▁आल": 5188,
      "लेगा": 5189,
      "▁लेगा": 5190,
      "स्तक": 5191,
      "▁स्तक": 5192,
      "नहा": 5193,
      "▁नहा": 5194,
      "दूसरा": 5195,
      "▁दूसरा": 5196,
      "बैठी": 5197,
      "▁बैठी": 5198,
      "साहसिक": 5199,
      "▁साहसिक": 5200,
      "भूरे": 5201,
      "▁भूरे": 5202,
      "आकर्षक": 5203,
      "▁आकर्षक": 5204,
      "विशाल": 5205,
      "▁विशाल": 5206,
      "सुनता": 5207,
      "▁सुनता": 5208,
      "तैरने": 5209,
      "▁तैरने": 5210,
      "भावना": 5211,
      "▁भावना": 5212,
      "आटा": 5213,
      "▁आटा": 5214,
      "कितने": 5215,
      "▁कितने": 5216,
      "देगी": 5217,
      "▁देगी": 5218,
      "ट्रै": 5219,
      "▁ट्रै": 5220,
      "घुमाया": 5221,
      "▁घुमाया": 5222,
      "सजा": 5223,
      "▁सजा": 5224,
      "मोम": 5225,
      "▁मोम": 5226,
      "आआआआआआआआआआआआआआआआ": 5227,
      "▁आआआआआआआआआआआआआआआआ": 5228,
      "गरीब": 5229,
      "▁गरीब": 5230,
      "स्कार्": 5231,
      "▁स्कार्": 5232,
      "समू": 5233,
      "▁समू": 5234,
      "प्ला": 5235,
      "▁प्ला": 5236,
      "कूदा": 5237,
      "▁कूदा": 5238,
      "प्रभावित": 5239,
      "▁प्रभावित": 5240,
      "जल": 5241,
      "▁जल": 5242,
      "टब": 5243,
      "▁टब": 5244,
      "दल": 5245,
      "▁दल": 5246,
      "शहद": 5247,
      "▁शहद": 5248,
      "निर्णय": 5249,
      "▁निर्णय": 5250,
      "ृत्": 5251,
      "▁ृत्": 5252,
      "पर्स": 5253,
      "▁पर्स": 5254,
      "लोर": 5255,
      "▁लोर": 5256,
      "बाथरूम": 5257,
      "▁बाथरूम": 5258,
      "निशान": 5259,
      "▁निशान": 5260,
      "बहादुरी": 5261,
      "▁बहादुरी": 5262,
      "बर्बाद": 5263,
      "▁बर्बाद": 5264,
      "तान": 5265,
      "▁तान": 5266,
      "जश्न": 5267,
      "▁जश्न": 5268,
      "वेटर": 5269,
      "▁वेटर": 5270,
      "पूँ": 5271,
      "▁पूँ": 5272,
      "इल": 5273,
      "▁इल": 5274,
      "नकली": 5275,
      "▁नकली": 5276,
      "श्श्श्श्श्श्श्श्श्श्श्श्श्श्श्श्": 5277,
      "▁श्श्श्श्श्श्श्श्श्श्श्श्श्श्श्श्": 5278,
      "वफा": 5279,
      "▁वफा": 5280,
      "सुल": 5281,
      "▁सुल": 5282,
      "ज़िप": 5283,
      "▁ज़िप": 5284,
      "वफादार": 5285,
      "▁वफादार": 5286,
      "दोष": 5287,
      "▁दोष": 5288,
      "खोली": 5289,
      "▁खोली": 5290,
      "आईं": 5291,
      "▁आईं": 5292,
      "औरत": 5293,
      "▁औरत": 5294,
      "प्रो": 5295,
      "▁प्रो": 5296,
      "खरीदा": 5297,
      "▁खरीदा": 5298,
      "कृति": 5299,
      "▁कृति": 5300,
      "बेरीज़": 5301,
      "▁बेरीज़": 5302,
      "पौधे": 5303,
      "▁पौधे": 5304,
      "चिट्ठी": 5305,
      "▁चिट्ठी": 5306,
      "रक्षा": 5307,
      "▁रक्षा": 5308,
      "बदबू": 5309,
      "▁बदबू": 5310,
      "बजाय": 5311,
      "▁बजाय": 5312,
      "माइक्रो": 5313,
      "▁माइक्रो": 5314,
      "इमारत": 5315,
      "▁इमारत": 5316,
      "पूँछ": 5317,
      "▁पूँछ": 5318,
      "चालू": 5319,
      "▁चालू": 5320,
      "पाकर": 5321,
      "▁पाकर": 5322,
      "नियम": 5323,
      "▁नियम": 5324,
      "जीवंत": 5325,
      "▁जीवंत": 5326,
      "समूह": 5327,
      "▁समूह": 5328,
      "दवा": 5329,
      "▁दवा": 5330,
      "नक्": 5331,
      "▁नक्": 5332,
      "फड़ा": 5333,
      "▁फड़ा": 5334,
      "स्पे": 5335,
      "▁स्पे": 5336,
      "चांद": 5337,
      "▁चांद": 5338,
      "पिस्त": 5339,
      "▁पिस्त": 5340,
      "भीग": 5341,
      "▁भीग": 5342,
      "कैंची": 5343,
      "▁कैंची": 5344,
      "मोमबत्": 5345,
      "▁मोमबत्": 5346,
      "गंध": 5347,
      "▁गंध": 5348,
      "मोड़": 5349,
      "▁मोड़": 5350,
      "मेट": 5351,
      "▁मेट": 5352,
      "द्ध": 5353,
      "▁द्ध": 5354,
      "बनने": 5355,
      "▁बनने": 5356,
      "स्ट्रॉ": 5357,
      "▁स्ट्रॉ": 5358,
      "चलती": 5359,
      "▁चलती": 5360,
      "सवारी": 5361,
      "▁सवारी": 5362,
      "मज़ाक": 5363,
      "▁मज़ाक": 5364,
      "संग्": 5365,
      "▁संग्": 5366,
      "मिनटों": 5367,
      "▁मिनटों": 5368,
      "खेलेंगे": 5369,
      "▁खेलेंगे": 5370,
      "डरावनी": 5371,
      "▁डरावनी": 5372,
      "स्ट्रिंग": 5373,
      "▁स्ट्रिंग": 5374,
      "रसी": 5375,
      "▁रसी": 5376,
      "िये": 5377,
      "▁िये": 5378,
      "पत्तों": 5379,
      "▁पत्तों": 5380,
      "प्रदर्श": 5381,
      "▁प्रदर्श": 5382,
      "आलसी": 5383,
      "▁आलसी": 5384,
      "खोद": 5385,
      "▁खोद": 5386,
      "टीम": 5387,
      "▁टीम": 5388,
      "सिक्का": 5389,
      "▁सिक्का": 5390,
      "चोटिल": 5391,
      "▁चोटिल": 5392,
      "उदार": 5393,
      "▁उदार": 5394,
      "कीड़ों": 5395,
      "▁कीड़ों": 5396,
      "रिकॉर्ड": 5397,
      "▁रिकॉर्ड": 5398,
      "डकी": 5399,
      "▁डकी": 5400,
      "सेट": 5401,
      "▁सेट": 5402,
      "हिम्मत": 5403,
      "▁हिम्मत": 5404,
      "सौ": 5405,
      "▁सौ": 5406,
      "कटोरा": 5407,
      "▁कटोरा": 5408,
      "आमंत्र": 5409,
      "▁आमंत्र": 5410,
      "सत": 5411,
      "▁सत": 5412,
      "ून": 5413,
      "▁ून": 5414,
      "मौसम": 5415,
      "▁मौसम": 5416,
      "साँप": 5417,
      "▁साँप": 5418,
      "राई": 5419,
      "▁राई": 5420,
      "खेद": 5421,
      "▁खेद": 5422,
      "द्वी": 5423,
      "▁द्वी": 5424,
      "कार्य": 5425,
      "▁कार्य": 5426,
      "स्केट": 5427,
      "▁स्केट": 5428,
      "लॉली": 5429,
      "▁लॉली": 5430,
      "गंदी": 5431,
      "▁गंदी": 5432,
      "नाश्": 5433,
      "▁नाश्": 5434,
      "द्वीप": 5435,
      "▁द्वीप": 5436,
      "फड़": 5437,
      "▁फड़": 5438,
      "चाप": 5439,
      "▁चाप": 5440,
      "ूँगी": 5441,
      "▁ूँगी": 5442,
      "ढूँढने": 5443,
      "▁ढूँढने": 5444,
      "चुपचाप": 5445,
      "▁चुपचाप": 5446,
      "नंबर": 5447,
      "▁नंबर": 5448,
      "मिलना": 5449,
      "▁मिलना": 5450,
      "पिस्तौल": 5451,
      "▁पिस्तौल": 5452,
      "फड़फड़ा": 5453,
      "▁फड़फड़ा": 5454,
      "कछुए": 5455,
      "▁कछुए": 5456,
      "टोकरी": 5457,
      "▁टोकरी": 5458,
      "खासकर": 5459,
      "▁खासकर": 5460,
      "सीढ़ियों": 5461,
      "▁सीढ़ियों": 5462,
      "बच": 5463,
      "▁बच": 5464,
      "प्ले": 5465,
      "▁प्ले": 5466,
      "पाइप": 5467,
      "▁पाइप": 5468,
      "कोको": 5469,
      "▁कोको": 5470,
      "खाए": 5471,
      "▁खाए": 5472,
      "बताने": 5473,
      "▁बताने": 5474,
      "अकेली": 5475,
      "▁अकेली": 5476,
      "बास्केट": 5477,
      "▁बास्केट": 5478,
      "जगहों": 5479,
      "▁जगहों": 5480,
      "गड़बड़ी": 5481,
      "▁गड़बड़ी": 5482,
      "कीमती": 5483,
      "▁कीमती": 5484,
      "लियां": 5485,
      "▁लियां": 5486,
      "पकॉर्न": 5487,
      "▁पकॉर्न": 5488,
      "पॉपकॉर्न": 5489,
      "▁पॉपकॉर्न": 5490,
      "निकालने": 5491,
      "▁निकालने": 5492,
      "भरोसा": 5493,
      "▁भरोसा": 5494,
      "सुलझा": 5495,
      "▁सुलझा": 5496,
      "आमंत्रित": 5497,
      "▁आमंत्रित": 5498,
      "दिला": 5499,
      "▁दिला": 5500,
      "चलाना": 5501,
      "▁चलाना": 5502,
      "टूटी": 5503,
      "▁टूटी": 5504,
      "संतुलन": 5505,
      "▁संतुलन": 5506,
      "इंजन": 5507,
      "▁इंजन": 5508,
      "स्कार्फ": 5509,
      "▁स्कार्फ": 5510,
      "रखो": 5511,
      "▁रखो": 5512,
      "वट": 5513,
      "▁वट": 5514,
      "लोला": 5515,
      "▁लोला": 5516,
      "बैंड": 5517,
      "▁बैंड": 5518,
      "पर्वत": 5519,
      "▁पर्वत": 5520,
      "लॉलीपॉप": 5521,
      "▁लॉलीपॉप": 5522,
      "इसने": 5523,
      "▁इसने": 5524,
      "निकले": 5525,
      "▁निकले": 5526,
      "लॉग": 5527,
      "▁लॉग": 5528,
      "ऐन": 5529,
      "▁ऐन": 5530,
      "चार्": 5531,
      "▁चार्": 5532,
      "कील": 5533,
      "▁कील": 5534,
      "चाचा": 5535,
      "▁चाचा": 5536,
      "लड़ना": 5537,
      "▁लड़ना": 5538,
      "ग्रे": 5539,
      "▁ग्रे": 5540,
      "नजर": 5541,
      "▁नजर": 5542,
      "शॉ": 5543,
      "▁शॉ": 5544,
      "मेज़": 5545,
      "▁मेज़": 5546,
      "ंह": 5547,
      "▁ंह": 5548,
      "नाराज": 5549,
      "▁नाराज": 5550,
      "खुल": 5551,
      "▁खुल": 5552,
      "प्पी": 5553,
      "▁प्पी": 5554,
      "ल्यू": 5555,
      "▁ल्यू": 5556,
      "बगीचा": 5557,
      "▁बगीचा": 5558,
      "एला": 5559,
      "▁एला": 5560,
      "ताज": 5561,
      "▁ताज": 5562,
      "माने": 5563,
      "▁माने": 5564,
      "फ्रे": 5565,
      "▁फ्रे": 5566,
      "छोड़ना": 5567,
      "▁छोड़ना": 5568,
      "इकट्ठे": 5569,
      "▁इकट्ठे": 5570,
      "नु": 5571,
      "▁नु": 5572,
      "पहाड़": 5573,
      "▁पहाड़": 5574,
      "मोटा": 5575,
      "▁मोटा": 5576,
      "सूँ": 5577,
      "▁सूँ": 5578,
      "साहस": 5579,
      "▁साहस": 5580,
      "सलाद": 5581,
      "▁सलाद": 5582,
      "हिलाई": 5583,
      "▁हिलाई": 5584,
      "प्राप्त": 5585,
      "▁प्राप्त": 5586,
      "सवा": 5587,
      "▁सवा": 5588,
      "सूर्": 5589,
      "▁सूर्": 5590,
      "चिप": 5591,
      "▁चिप": 5592,
      "द्वारा": 5593,
      "▁द्वारा": 5594,
      "प्रश": 5595,
      "▁प्रश": 5596,
      "ंदगी": 5597,
      "▁ंदगी": 5598,
      "मुखी": 5599,
      "▁मुखी": 5600,
      "घुटनों": 5601,
      "▁घुटनों": 5602,
      "बुलबु": 5603,
      "▁बुलबु": 5604,
      "गड्": 5605,
      "▁गड्": 5606,
      "समा": 5607,
      "▁समा": 5608,
      "तीर": 5609,
      "▁तीर": 5610,
      "हिलाकर": 5611,
      "▁हिलाकर": 5612,
      "भागते": 5613,
      "▁भागते": 5614,
      "संतुष्ट": 5615,
      "▁संतुष्ट": 5616,
      "ंका": 5617,
      "▁ंका": 5618,
      "परे": 5619,
      "▁परे": 5620,
      "प्रकाश": 5621,
      "▁प्रकाश": 5622,
      "क्सी": 5623,
      "▁क्सी": 5624,
      "ब्रे": 5625,
      "▁ब्रे": 5626,
      "बैठना": 5627,
      "▁बैठना": 5628,
      "टूटे": 5629,
      "▁टूटे": 5630,
      "रित": 5631,
      "▁रित": 5632,
      "लभ": 5633,
      "▁लभ": 5634,
      "मुंह": 5635,
      "▁मुंह": 5636,
      "शेल्फ": 5637,
      "▁शेल्फ": 5638,
      "दुर्लभ": 5639,
      "▁दुर्लभ": 5640,
      "डिब्बे": 5641,
      "▁डिब्बे": 5642,
      "बां": 5643,
      "▁बां": 5644,
      "डाली": 5645,
      "▁डाली": 5646,
      "नाचने": 5647,
      "▁नाचने": 5648,
      "वक": 5649,
      "▁वक": 5650,
      "बांध": 5651,
      "▁बांध": 5652,
      "स्थिर": 5653,
      "▁स्थिर": 5654,
      "गोंद": 5655,
      "▁गोंद": 5656,
      "प्रशंसा": 5657,
      "▁प्रशंसा": 5658,
      "ध्य": 5659,
      "▁ध्य": 5660,
      "झाड़ियों": 5661,
      "▁झाड़ियों": 5662,
      "मौजूद": 5663,
      "▁मौजूद": 5664,
      "हेल्प": 5665,
      "▁हेल्प": 5666,
      "घटना": 5667,
      "▁घटना": 5668,
      "तकिया": 5669,
      "▁तकिया": 5670,
      "रेक्स": 5671,
      "▁रेक्स": 5672,
      "प्ली": 5673,
      "▁प्ली": 5674,
      "पुरस्": 5675,
      "▁पुरस्": 5676,
      "िन": 5677,
      "▁िन": 5678,
      "सांप": 5679,
      "▁सांप": 5680,
      "मीठे": 5681,
      "▁मीठे": 5682,
      "सूट": 5683,
      "▁सूट": 5684,
      "भेड़िया": 5685,
      "▁भेड़िया": 5686,
      "ेष": 5687,
      "▁ेष": 5688,
      "समर्": 5689,
      "▁समर्": 5690,
      "डॉल्": 5691,
      "▁डॉल्": 5692,
      "विशेष": 5693,
      "▁विशेष": 5694,
      "छिड़काव": 5695,
      "▁छिड़काव": 5696,
      "पथ": 5697,
      "▁पथ": 5698,
      "बोले": 5699,
      "▁बोले": 5700,
      "शांतिपूर्ण": 5701,
      "▁शांतिपूर्ण": 5702,
      "पैटर्न": 5703,
      "▁पैटर्न": 5704,
      "चकित": 5705,
      "▁चकित": 5706,
      "कीट": 5707,
      "▁कीट": 5708,
      "लगाता": 5709,
      "▁लगाता": 5710,
      "दिखती": 5711,
      "▁दिखती": 5712,
      "वहीं": 5713,
      "▁वहीं": 5714,
      "डंडा": 5715,
      "▁डंडा": 5716,
      "व्ह": 5717,
      "▁व्ह": 5718,
      "गर्मी": 5719,
      "▁गर्मी": 5720,
      "बोबो": 5721,
      "▁बोबो": 5722,
      "ड्राइंग": 5723,
      "▁ड्राइंग": 5724,
      "गम": 5725,
      "▁गम": 5726,
      "स्कर": 5727,
      "▁स्कर": 5728,
      "दिखाते": 5729,
      "▁दिखाते": 5730,
      "निकलकर": 5731,
      "▁निकलकर": 5732,
      "डेव": 5733,
      "▁डेव": 5734,
      "िका": 5735,
      "▁िका": 5736,
      "सूखा": 5737,
      "▁सूखा": 5738,
      "तोड़ने": 5739,
      "▁तोड़ने": 5740,
      "घोंसला": 5741,
      "▁घोंसला": 5742,
      "ग़": 5743,
      "▁ग़": 5744,
      "थका": 5745,
      "▁थका": 5746,
      "प्रकार": 5747,
      "▁प्रकार": 5748,
      "आलू": 5749,
      "▁आलू": 5750,
      "वकू": 5751,
      "▁वकू": 5752,
      "नाराज़": 5753,
      "▁नाराज़": 5754,
      "बाय": 5755,
      "▁बाय": 5756,
      "बेवकू": 5757,
      "▁बेवकू": 5758,
      "पेपर": 5759,
      "▁पेपर": 5760,
      "ढ़ा": 5761,
      "▁ढ़ा": 5762,
      "गेटी": 5763,
      "▁गेटी": 5764,
      "स्टै": 5765,
      "▁स्टै": 5766,
      "रुकने": 5767,
      "▁रुकने": 5768,
      "खींचते": 5769,
      "▁खींचते": 5770,
      "खोलीं": 5771,
      "▁खोलीं": 5772,
      "बुन": 5773,
      "▁बुन": 5774,
      "खत": 5775,
      "▁खत": 5776,
      "पैके": 5777,
      "▁पैके": 5778,
      "चढ़ाई": 5779,
      "▁चढ़ाई": 5780,
      "पकड़ी": 5781,
      "▁पकड़ी": 5782,
      "आसपास": 5783,
      "▁आसपास": 5784,
      "पौधों": 5785,
      "▁पौधों": 5786,
      "उतार": 5787,
      "▁उतार": 5788,
      "दुकानदार": 5789,
      "▁दुकानदार": 5790,
      "एक्": 5791,
      "▁एक्": 5792,
      "लिन": 5793,
      "▁लिन": 5794,
      "माइक": 5795,
      "▁माइक": 5796,
      "चिपका": 5797,
      "▁चिपका": 5798,
      "एक्सप्": 5799,
      "▁एक्सप्": 5800,
      "झु": 5801,
      "▁झु": 5802,
      "सलाह": 5803,
      "▁सलाह": 5804,
      "चुना": 5805,
      "▁चुना": 5806,
      "मसा": 5807,
      "▁मसा": 5808,
      "आँसू": 5809,
      "▁आँसू": 5810,
      "टमा": 5811,
      "▁टमा": 5812,
      "जाज": 5813,
      "▁जाज": 5814,
      "तलवार": 5815,
      "▁तलवार": 5816,
      "टमाटर": 5817,
      "▁टमाटर": 5818,
      "हैट": 5819,
      "▁हैट": 5820,
      "पंजे": 5821,
      "▁पंजे": 5822,
      "टेंट": 5823,
      "▁टेंट": 5824,
      "मति": 5825,
      "▁मति": 5826,
      "न्या": 5827,
      "▁न्या": 5828,
      "म्या": 5829,
      "▁म्या": 5830,
      "अनुमति": 5831,
      "▁अनुमति": 5832,
      "उपयोगी": 5833,
      "▁उपयोगी": 5834,
      "घोड़ा": 5835,
      "▁घोड़ा": 5836,
      "गिनती": 5837,
      "▁गिनती": 5838,
      "चखा": 5839,
      "▁चखा": 5840,
      "चाहेंगे": 5841,
      "▁चाहेंगे": 5842,
      "णा": 5843,
      "▁णा": 5844,
      "दही": 5845,
      "▁दही": 5846,
      "ूँगा": 5847,
      "▁ूँगा": 5848,
      "प्रिय": 5849,
      "▁प्रिय": 5850,
      "झुककर": 5851,
      "▁झुककर": 5852,
      "एगी": 5853,
      "▁एगी": 5854,
      "बजाने": 5855,
      "▁बजाने": 5856,
      "मार्च": 5857,
      "▁मार्च": 5858,
      "सिक्के": 5859,
      "▁सिक्के": 5860,
      "देंगे": 5861,
      "▁देंगे": 5862,
      "त्रि": 5863,
      "▁त्रि": 5864,
      "टेड": 5865,
      "▁टेड": 5866,
      "ड्रा": 5867,
      "▁ड्रा": 5868,
      "उल": 5869,
      "▁उल": 5870,
      "थाली": 5871,
      "▁थाली": 5872,
      "बाह": 5873,
      "▁बाह": 5874,
      "जिम्मी": 5875,
      "▁जिम्मी": 5876,
      "फॉ": 5877,
      "▁फॉ": 5878,
      "मुझसे": 5879,
      "▁मुझसे": 5880,
      "चलाने": 5881,
      "▁चलाने": 5882,
      "मोटी": 5883,
      "▁मोटी": 5884,
      "जादूगर": 5885,
      "▁जादूगर": 5886,
      "पीने": 5887,
      "▁पीने": 5888,
      "प्रिंट": 5889,
      "▁प्रिंट": 5890,
      "नर्": 5891,
      "▁नर्": 5892,
      "स्कू": 5893,
      "▁स्कू": 5894,
      "ज़न": 5895,
      "▁ज़न": 5896,
      "फाड़": 5897,
      "▁फाड़": 5898,
      "कद्दू": 5899,
      "▁कद्दू": 5900,
      "वॉ": 5901,
      "▁वॉ": 5902,
      "सामना": 5903,
      "▁सामना": 5904,
      "ल्ट": 5905,
      "▁ल्ट": 5906,
      "हिलाए": 5907,
      "▁हिलाए": 5908,
      "चिल्लाता": 5909,
      "▁चिल्लाता": 5910,
      "पत्तियाँ": 5911,
      "▁पत्तियाँ": 5912,
      "तोहफे": 5913,
      "▁तोहफे": 5914,
      "यं": 5915,
      "▁यं": 5916,
      "िस": 5917,
      "▁िस": 5918,
      "गोली": 5919,
      "▁गोली": 5920,
      "कमजोर": 5921,
      "▁कमजोर": 5922,
      "पुकारा": 5923,
      "▁पुकारा": 5924,
      "पैकेज": 5925,
      "▁पैकेज": 5926,
      "साबुन": 5927,
      "▁साबुन": 5928,
      "त्साह": 5929,
      "▁त्साह": 5930,
      "कपड़ा": 5931,
      "▁कपड़ा": 5932,
      "उंगलियों": 5933,
      "▁उंगलियों": 5934,
      "बंनी": 5935,
      "▁बंनी": 5936,
      "तः": 5937,
      "▁तः": 5938,
      "रहेंगे": 5939,
      "▁रहेंगे": 5940,
      "त्मक": 5941,
      "▁त्मक": 5942,
      "नृत्": 5943,
      "▁नृत्": 5944,
      "बादा": 5945,
      "▁बादा": 5946,
      "कहना": 5947,
      "▁कहना": 5948,
      "चोर": 5949,
      "▁चोर": 5950,
      "टार": 5951,
      "▁टार": 5952,
      "अंततः": 5953,
      "▁अंततः": 5954,
      "स्टिक": 5955,
      "▁स्टिक": 5956,
      "मक्खन": 5957,
      "▁मक्खन": 5958,
      "प्रोत्साह": 5959,
      "▁प्रोत्साह": 5960,
      "मिर्": 5961,
      "▁मिर्": 5962,
      "गीली": 5963,
      "▁गीली": 5964,
      "फोन": 5965,
      "▁फोन": 5966,
      "स्ट्री": 5967,
      "▁स्ट्री": 5968,
      "वेश": 5969,
      "▁वेश": 5970,
      "स्पर्": 5971,
      "▁स्पर्": 5972,
      "लापरवाह": 5973,
      "▁लापरवाह": 5974,
      "हँसे": 5975,
      "▁हँसे": 5976,
      "अंगूर": 5977,
      "▁अंगूर": 5978,
      "शिक्षक": 5979,
      "▁शिक्षक": 5980,
      "बेटे": 5981,
      "▁बेटे": 5982,
      "देखें": 5983,
      "▁देखें": 5984,
      "डायरी": 5985,
      "▁डायरी": 5986,
      "गिटार": 5987,
      "▁गिटार": 5988,
      "बादाम": 5989,
      "▁बादाम": 5990,
      "जहां": 5991,
      "▁जहां": 5992,
      "पाना": 5993,
      "▁पाना": 5994,
      "मिर्च": 5995,
      "▁मिर्च": 5996,
      "आं": 5997,
      "▁आं": 5998,
      "जला": 5999,
      "▁जला": 6000,
      "पढ़ने": 6001,
      "▁पढ़ने": 6002,
      "नज़र": 6003,
      "▁नज़र": 6004,
      "लमेट": 6005,
      "▁लमेट": 6006,
      "ल्य": 6007,
      "▁ल्य": 6008,
      "बीप": 6009,
      "▁बीप": 6010,
      "हेलमेट": 6011,
      "▁हेलमेट": 6012,
      "पहुँचने": 6013,
      "▁पहुँचने": 6014,
      "प्रतिभा": 6015,
      "▁प्रतिभा": 6016,
      "टेन्स": 6017,
      "▁टेन्स": 6018,
      "रुका": 6019,
      "▁रुका": 6020,
      "चिकना": 6021,
      "▁चिकना": 6022,
      "ऊंगी": 6023,
      "▁ऊंगी": 6024,
      "लड़ाई": 6025,
      "▁लड़ाई": 6026,
      "लर": 6027,
      "▁लर": 6028,
      "भागी": 6029,
      "▁भागी": 6030,
      "भूखे": 6031,
      "▁भूखे": 6032,
      "मिलाया": 6033,
      "▁मिलाया": 6034,
      "सीखते": 6035,
      "▁सीखते": 6036,
      "भौंकने": 6037,
      "▁भौंकने": 6038,
      "कचरे": 6039,
      "▁कचरे": 6040,
      "पुरस्कार": 6041,
      "▁पुरस्कार": 6042,
      "नष्ट": 6043,
      "▁नष्ट": 6044,
      "मीठी": 6045,
      "▁मीठी": 6046,
      "रेन": 6047,
      "▁रेन": 6048,
      "पेन": 6049,
      "▁पेन": 6050,
      "ढूंढा": 6051,
      "▁ढूंढा": 6052,
      "खट्टा": 6053,
      "▁खट्टा": 6054,
      "लगभग": 6055,
      "▁लगभग": 6056,
      "टाई": 6057,
      "▁टाई": 6058,
      "सुनहरी": 6059,
      "▁सुनहरी": 6060,
      "खरीदना": 6061,
      "▁खरीदना": 6062,
      "ंगार": 6063,
      "▁ंगार": 6064,
      "भागे": 6065,
      "▁भागे": 6066,
      "प्रकट": 6067,
      "▁प्रकट": 6068,
      "उड़कर": 6069,
      "▁उड़कर": 6070,
      "हेय": 6071,
      "▁हेय": 6072,
      "तौलिया": 6073,
      "▁तौलिया": 6074,
      "र्म": 6075,
      "▁र्म": 6076,
      "टन्स": 6077,
      "▁टन्स": 6078,
      "किम": 6079,
      "▁किम": 6080,
      "स्को": 6081,
      "▁स्को": 6082,
      "स्ट्रॉबेरी": 6083,
      "▁स्ट्रॉबेरी": 6084,
      "ूक": 6085,
      "▁ूक": 6086,
      "करूंगा": 6087,
      "▁करूंगा": 6088,
      "गिरने": 6089,
      "▁गिरने": 6090,
      "दबाया": 6091,
      "▁दबाया": 6092,
      "उछल": 6093,
      "▁उछल": 6094,
      "ल्यूसी": 6095,
      "▁ल्यूसी": 6096,
      "इट": 6097,
      "▁इट": 6098,
      "डरो": 6099,
      "▁डरो": 6100,
      "टिकट": 6101,
      "▁टिकट": 6102,
      "मित्र": 6103,
      "▁मित्र": 6104,
      "पिघ": 6105,
      "▁पिघ": 6106,
      "मूल्य": 6107,
      "▁मूल्य": 6108,
      "रहस्य": 6109,
      "▁रहस्य": 6110,
      "मसाले": 6111,
      "▁मसाले": 6112,
      "ंचे": 6113,
      "▁ंचे": 6114,
      "पनी": 6115,
      "▁पनी": 6116,
      "रेडियो": 6117,
      "▁रेडियो": 6118,
      "रखें": 6119,
      "▁रखें": 6120,
      "सितारा": 6121,
      "▁सितारा": 6122,
      "पोंछ": 6123,
      "▁पोंछ": 6124,
      "बकरी": 6125,
      "▁बकरी": 6126,
      "कां": 6127,
      "▁कां": 6128,
      "हैंडल": 6129,
      "▁हैंडल": 6130,
      "चिड़": 6131,
      "▁चिड़": 6132,
      "टेली": 6133,
      "▁टेली": 6134,
      "चूमा": 6135,
      "▁चूमा": 6136,
      "एक्सप्लोर": 6137,
      "▁एक्सप्लोर": 6138,
      "आत": 6139,
      "▁आत": 6140,
      "गिनना": 6141,
      "▁गिनना": 6142,
      "त्वचा": 6143,
      "▁त्वचा": 6144,
      "शिकारी": 6145,
      "▁शिकारी": 6146,
      "क्रिस्टल": 6147,
      "▁क्रिस्टल": 6148,
      "सेज़": 6149,
      "▁सेज़": 6150,
      "मांस": 6151,
      "▁मांस": 6152,
      "चेरी": 6153,
      "▁चेरी": 6154,
      "घूमती": 6155,
      "▁घूमती": 6156,
      "संदेश": 6157,
      "▁संदेश": 6158,
      "फुटबॉल": 6159,
      "▁फुटबॉल": 6160,
      "तारी": 6161,
      "▁तारी": 6162,
      "नीबू": 6163,
      "▁नीबू": 6164,
      "खेलो": 6165,
      "▁खेलो": 6166,
      "डाक": 6167,
      "▁डाक": 6168,
      "नोड": 6169,
      "▁नोड": 6170,
      "हॉर्न": 6171,
      "▁हॉर्न": 6172,
      "मिलेगा": 6173,
      "▁मिलेगा": 6174,
      "मिट्टेन्स": 6175,
      "▁मिट्टेन्स": 6176,
      "सतह": 6177,
      "▁सतह": 6178,
      "सवाल": 6179,
      "▁सवाल": 6180,
      "पाती": 6181,
      "▁पाती": 6182,
      "चीं": 6183,
      "▁चीं": 6184,
      "भूखी": 6185,
      "▁भूखी": 6186,
      "योग": 6187,
      "▁योग": 6188,
      "पेंगु": 6189,
      "▁पेंगु": 6190,
      "मनाया": 6191,
      "▁मनाया": 6192,
      "गिला": 6193,
      "▁गिला": 6194,
      "टीले": 6195,
      "▁टीले": 6196,
      "साहसी": 6197,
      "▁साहसी": 6198,
      "लगीं": 6199,
      "▁लगीं": 6200,
      "पीना": 6201,
      "▁पीना": 6202,
      "प्रवेश": 6203,
      "▁प्रवेश": 6204,
      "चिल्लाने": 6205,
      "▁चिल्लाने": 6206,
      "सुरक्षा": 6207,
      "▁सुरक्षा": 6208,
      "आंखें": 6209,
      "▁आंखें": 6210,
      "रगड़": 6211,
      "▁रगड़": 6212,
      "बेताब": 6213,
      "▁बेताब": 6214,
      "छींक": 6215,
      "▁छींक": 6216,
      "क्रिए": 6217,
      "▁क्रिए": 6218,
      "डॉल्फिन": 6219,
      "▁डॉल्फिन": 6220,
      "गुलाब": 6221,
      "▁गुलाब": 6222,
      "जीतना": 6223,
      "▁जीतना": 6224,
      "लपेट": 6225,
      "▁लपेट": 6226,
      "आँगन": 6227,
      "▁आँगन": 6228,
      "बढ़ने": 6229,
      "▁बढ़ने": 6230,
      "वैन": 6231,
      "▁वैन": 6232,
      "ंटर": 6233,
      "▁ंटर": 6234,
      "छो": 6235,
      "▁छो": 6236,
      "जों": 6237,
      "▁जों": 6238,
      "हीरो": 6239,
      "▁हीरो": 6240,
      "दूरी": 6241,
      "▁दूरी": 6242,
      "माननी": 6243,
      "▁माननी": 6244,
      "कूदती": 6245,
      "▁कूदती": 6246,
      "घूमता": 6247,
      "▁घूमता": 6248,
      "गड़गड़ा": 6249,
      "▁गड़गड़ा": 6250,
      "हिस्सों": 6251,
      "▁हिस्सों": 6252,
      "सितारे": 6253,
      "▁सितारे": 6254,
      "बार्न": 6255,
      "▁बार्न": 6256,
      "गिलास": 6257,
      "▁गिलास": 6258,
      "खून": 6259,
      "▁खून": 6260,
      "सवार": 6261,
      "▁सवार": 6262,
      "हटा": 6263,
      "▁हटा": 6264,
      "लिश": 6265,
      "▁लिश": 6266,
      "ज़े": 6267,
      "▁ज़े": 6268,
      "सोफी": 6269,
      "▁सोफी": 6270,
      "ग्रह": 6271,
      "▁ग्रह": 6272,
      "सिर्फ़": 6273,
      "▁सिर्फ़": 6274,
      "तोड़ना": 6275,
      "▁तोड़ना": 6276,
      "कंधे": 6277,
      "▁कंधे": 6278,
      "किला": 6279,
      "▁किला": 6280,
      "सुई": 6281,
      "▁सुई": 6282,
      "दिखाता": 6283,
      "▁दिखाता": 6284,
      "प्रकृति": 6285,
      "▁प्रकृति": 6286,
      "कॉप्": 6287,
      "▁कॉप्": 6288,
      "प्रदर्शन": 6289,
      "▁प्रदर्शन": 6290,
      "शंख": 6291,
      "▁शंख": 6292,
      "गाती": 6293,
      "▁गाती": 6294,
      "लड़ने": 6295,
      "▁लड़ने": 6296,
      "भागता": 6297,
      "▁भागता": 6298,
      "मोटर": 6299,
      "▁मोटर": 6300,
      "जनक": 6301,
      "▁जनक": 6302,
      "ढा": 6303,
      "▁ढा": 6304,
      "चाँ": 6305,
      "▁चाँ": 6306,
      "चेन": 6307,
      "▁चेन": 6308,
      "जॉर्": 6309,
      "▁जॉर्": 6310,
      "हंसता": 6311,
      "▁हंसता": 6312,
      "चुंबन": 6313,
      "▁चुंबन": 6314,
      "दोषी": 6315,
      "▁दोषी": 6316,
      "एलेक्स": 6317,
      "▁एलेक्स": 6318,
      "ताला": 6319,
      "▁ताला": 6320,
      "लेगी": 6321,
      "▁लेगी": 6322,
      "माना": 6323,
      "▁माना": 6324,
      "ढूंढना": 6325,
      "▁ढूंढना": 6326,
      "किस्": 6327,
      "▁किस्": 6328,
      "रहेगा": 6329,
      "▁रहेगा": 6330,
      "अनोखा": 6331,
      "▁अनोखा": 6332,
      "स्पेगेटी": 6333,
      "▁स्पेगेटी": 6334,
      "इन्हें": 6335,
      "▁इन्हें": 6336,
      "उच": 6337,
      "▁उच": 6338,
      "तालियां": 6339,
      "▁तालियां": 6340,
      "र्रा": 6341,
      "▁र्रा": 6342,
      "हिलाती": 6343,
      "▁हिलाती": 6344,
      "छोड़कर": 6345,
      "▁छोड़कर": 6346,
      "प्रोत्साहित": 6347,
      "▁प्रोत्साहित": 6348,
      "नर्स": 6349,
      "▁नर्स": 6350,
      "क्ल": 6351,
      "▁क्ल": 6352,
      "मिलन": 6353,
      "▁मिलन": 6354,
      "सुननी": 6355,
      "▁सुननी": 6356,
      "ऊंचाई": 6357,
      "▁ऊंचाई": 6358,
      "घि": 6359,
      "▁घि": 6360,
      "वाय": 6361,
      "▁वाय": 6362,
      "मिश्": 6363,
      "▁मिश्": 6364,
      "ऊँगा": 6365,
      "▁ऊँगा": 6366,
      "चलिए": 6367,
      "▁चलिए": 6368,
      "यर्स": 6369,
      "▁यर्स": 6370,
      "लीजा": 6371,
      "▁लीजा": 6372,
      "लगते": 6373,
      "▁लगते": 6374,
      "ग्रेस": 6375,
      "▁ग्रेस": 6376,
      "पनीर": 6377,
      "▁पनीर": 6378,
      "कॉप्टर": 6379,
      "▁कॉप्टर": 6380,
      "तकिए": 6381,
      "▁तकिए": 6382,
      "फव्": 6383,
      "▁फव्": 6384,
      "टिव": 6385,
      "▁टिव": 6386,
      "पूछे": 6387,
      "▁पूछे": 6388,
      "फ़ॉ": 6389,
      "▁फ़ॉ": 6390,
      "वीडियो": 6391,
      "▁वीडियो": 6392,
      "टूटा": 6393,
      "▁टूटा": 6394,
      "फ़ेरी": 6395,
      "▁फ़ेरी": 6396,
      "चिपचि": 6397,
      "▁चिपचि": 6398,
      "स्कूटर": 6399,
      "▁स्कूटर": 6400,
      "एंगे": 6401,
      "▁एंगे": 6402,
      "बुलबुले": 6403,
      "▁बुलबुले": 6404,
      "मिलनसार": 6405,
      "▁मिलनसार": 6406,
      "यन": 6407,
      "▁यन": 6408,
      "सुनकर": 6409,
      "▁सुनकर": 6410,
      "मुर्गी": 6411,
      "▁मुर्गी": 6412,
      "ख्": 6413,
      "▁ख्": 6414,
      "झंडा": 6415,
      "▁झंडा": 6416,
      "सह": 6417,
      "▁सह": 6418,
      "नेट": 6419,
      "▁नेट": 6420,
      "तस्वीरों": 6421,
      "▁तस्वीरों": 6422,
      "लची": 6423,
      "▁लची": 6424,
      "वज": 6425,
      "▁वज": 6426,
      "चीन": 6427,
      "▁चीन": 6428,
      "पिज़्": 6429,
      "▁पिज़्": 6430,
      "भूरी": 6431,
      "▁भूरी": 6432,
      "भेज": 6433,
      "▁भेज": 6434,
      "स्टेशन": 6435,
      "▁स्टेशन": 6436,
      "धे": 6437,
      "▁धे": 6438,
      "ोल्": 6439,
      "▁ोल्": 6440,
      "कोण": 6441,
      "▁कोण": 6442,
      "दिमा": 6443,
      "▁दिमा": 6444,
      "बाज़ार": 6445,
      "▁बाज़ार": 6446,
      "छिपक": 6447,
      "▁छिपक": 6448,
      "जॉर्ज": 6449,
      "▁जॉर्ज": 6450,
      "खरे": 6451,
      "▁खरे": 6452,
      "धर": 6453,
      "▁धर": 6454,
      "धके": 6455,
      "▁धके": 6456,
      "क्क": 6457,
      "▁क्क": 6458,
      "पाता": 6459,
      "▁पाता": 6460,
      "ट्रॉ": 6461,
      "▁ट्रॉ": 6462,
      "निकालता": 6463,
      "▁निकालता": 6464,
      "इनाम": 6465,
      "▁इनाम": 6466,
      "बुआ": 6467,
      "▁बुआ": 6468,
      "टोस्ट": 6469,
      "▁टोस्ट": 6470,
      "केकड़े": 6471,
      "▁केकड़े": 6472,
      "पड़ोस": 6473,
      "▁पड़ोस": 6474,
      "बेचै": 6475,
      "▁बेचै": 6476,
      "मिश्रण": 6477,
      "▁मिश्रण": 6478,
      "बताते": 6479,
      "▁बताते": 6480,
      "ट्रि": 6481,
      "▁ट्रि": 6482,
      "रचनात्मक": 6483,
      "▁रचनात्मक": 6484,
      "रल": 6485,
      "▁रल": 6486,
      "लाइस": 6487,
      "▁लाइस": 6488,
      "दूंगा": 6489,
      "▁दूंगा": 6490,
      "ढ़ी": 6491,
      "▁ढ़ी": 6492,
      "खरों": 6493,
      "▁खरों": 6494,
      "लौटा": 6495,
      "▁लौटा": 6496,
      "शर्मीली": 6497,
      "▁शर्मीली": 6498,
      "वजह": 6499,
      "▁वजह": 6500,
      "पिज़्ज़ा": 6501,
      "▁पिज़्ज़ा": 6502,
      "छड़": 6503,
      "▁छड़": 6504,
      "लटका": 6505,
      "▁लटका": 6506,
      "पास्ता": 6507,
      "▁पास्ता": 6508,
      "बिजली": 6509,
      "▁बिजली": 6510,
      "जेल": 6511,
      "▁जेल": 6512,
      "लिखना": 6513,
      "▁लिखना": 6514,
      "अज्ञा": 6515,
      "▁अज्ञा": 6516,
      "सूख": 6517,
      "▁सूख": 6518,
      "म्स": 6519,
      "▁म्स": 6520,
      "ऊर्": 6521,
      "▁ऊर्": 6522,
      "सोचकर": 6523,
      "▁सोचकर": 6524,
      "नोटिस": 6525,
      "▁नोटिस": 6526,
      "फायरमैन": 6527,
      "▁फायरमैन": 6528,
      "कठोर": 6529,
      "▁कठोर": 6530,
      "ऊर्जा": 6531,
      "▁ऊर्जा": 6532,
      "फट": 6533,
      "▁फट": 6534,
      "केले": 6535,
      "▁केले": 6536,
      "कांप": 6537,
      "▁कांप": 6538,
      "बनाईं": 6539,
      "▁बनाईं": 6540,
      "दिखाती": 6541,
      "▁दिखाती": 6542,
      "अनुमान": 6543,
      "▁अनुमान": 6544,
      "दुर्घटना": 6545,
      "▁दुर्घटना": 6546,
      "ऊँगी": 6547,
      "▁ऊँगी": 6548,
      "पेंगुइन": 6549,
      "▁पेंगुइन": 6550,
      "ंजन": 6551,
      "▁ंजन": 6552,
      "वजन": 6553,
      "▁वजन": 6554,
      "खुजली": 6555,
      "▁खुजली": 6556,
      "दूंगी": 6557,
      "▁दूंगी": 6558,
      "पहली": 6559,
      "▁पहली": 6560,
      "पॉली": 6561,
      "▁पॉली": 6562,
      "कराया": 6563,
      "▁कराया": 6564,
      "दिमाग": 6565,
      "▁दिमाग": 6566,
      "कश": 6567,
      "▁कश": 6568,
      "स्के": 6569,
      "▁स्के": 6570,
      "सुरी": 6571,
      "▁सुरी": 6572,
      "उड़ता": 6573,
      "▁उड़ता": 6574,
      "चमकने": 6575,
      "▁चमकने": 6576,
      "त्वना": 6577,
      "▁त्वना": 6578,
      "उत्सुकता": 6579,
      "▁उत्सुकता": 6580,
      "बिताने": 6581,
      "▁बिताने": 6582,
      "अंगूठी": 6583,
      "▁अंगूठी": 6584,
      "परेड": 6585,
      "▁परेड": 6586,
      "मसालेदार": 6587,
      "▁मसालेदार": 6588,
      "बुझा": 6589,
      "▁बुझा": 6590,
      "चिल्लाए": 6591,
      "▁चिल्लाए": 6592,
      "ड्राइव": 6593,
      "▁ड्राइव": 6594,
      "गड़गड़ाहट": 6595,
      "▁गड़गड़ाहट": 6596,
      "जलने": 6597,
      "▁जलने": 6598,
      "काँ": 6599,
      "▁काँ": 6600,
      "सानी": 6601,
      "▁सानी": 6602,
      "गाह": 6603,
      "▁गाह": 6604,
      "कहने": 6605,
      "▁कहने": 6606,
      "जेट": 6607,
      "▁जेट": 6608,
      "कुत्तों": 6609,
      "▁कुत्तों": 6610,
      "पहुंचे": 6611,
      "▁पहुंचे": 6612,
      "भूमि": 6613,
      "▁भूमि": 6614,
      "काटना": 6615,
      "▁काटना": 6616,
      "प्राचीन": 6617,
      "▁प्राचीन": 6618,
      "पेशकश": 6619,
      "▁पेशकश": 6620,
      "चार्ली": 6621,
      "▁चार्ली": 6622,
      "नर्वस": 6623,
      "▁नर्वस": 6624,
      "आधु": 6625,
      "▁आधु": 6626,
      "सां": 6627,
      "▁सां": 6628,
      "पहुँचाई": 6629,
      "▁पहुँचाई": 6630,
      "येक": 6631,
      "▁येक": 6632,
      "शिकाय": 6633,
      "▁शिकाय": 6634,
      "आधुनिक": 6635,
      "▁आधुनिक": 6636,
      "लेंगे": 6637,
      "▁लेंगे": 6638,
      "हथ": 6639,
      "▁हथ": 6640,
      "कोन": 6641,
      "▁कोन": 6642,
      "काउ": 6643,
      "▁काउ": 6644,
      "बीचों": 6645,
      "▁बीचों": 6646,
      "रंगीनी": 6647,
      "▁रंगीनी": 6648,
      "क्रिएटिव": 6649,
      "▁क्रिएटिव": 6650,
      "चाँद": 6651,
      "▁चाँद": 6652,
      "छिपकली": 6653,
      "▁छिपकली": 6654,
      "कंगार": 6655,
      "▁कंगार": 6656,
      "साइन": 6657,
      "▁साइन": 6658,
      "क्लब": 6659,
      "▁क्लब": 6660,
      "सील": 6661,
      "▁सील": 6662,
      "उनको": 6663,
      "▁उनको": 6664,
      "हुईं": 6665,
      "▁हुईं": 6666,
      "सुंदरता": 6667,
      "▁सुंदरता": 6668,
      "त्रिकोण": 6669,
      "▁त्रिकोण": 6670,
      "कंगारू": 6671,
      "▁कंगारू": 6672,
      "ढक्क": 6673,
      "▁ढक्क": 6674,
      "कानों": 6675,
      "▁कानों": 6676,
      "चीख": 6677,
      "▁चीख": 6678,
      "गहरे": 6679,
      "▁गहरे": 6680,
      "पॉलिश": 6681,
      "▁पॉलिश": 6682,
      "पूर्वक": 6683,
      "▁पूर्वक": 6684,
      "एडवेंचर्स": 6685,
      "▁एडवेंचर्स": 6686,
      "क्लास": 6687,
      "▁क्लास": 6688,
      "ढक्कन": 6689,
      "▁ढक्कन": 6690,
      "चो": 6691,
      "▁चो": 6692,
      "लगाकर": 6693,
      "▁लगाकर": 6694,
      "जाएं": 6695,
      "▁जाएं": 6696,
      "पकड़ते": 6697,
      "▁पकड़ते": 6698,
      "डरावने": 6699,
      "▁डरावने": 6700,
      "शीर्ष": 6701,
      "▁शीर्ष": 6702,
      "लहरों": 6703,
      "▁लहरों": 6704,
      "कला": 6705,
      "▁कला": 6706,
      "बने": 6707,
      "▁बने": 6708,
      "हीरा": 6709,
      "▁हीरा": 6710,
      "बाग़": 6711,
      "▁बाग़": 6712,
      "ट्राई": 6713,
      "▁ट्राई": 6714,
      "पॉल": 6715,
      "▁पॉल": 6716,
      "टून": 6717,
      "▁टून": 6718,
      "कार्टून": 6719,
      "▁कार्टून": 6720,
      "असह": 6721,
      "▁असह": 6722,
      "इंसान": 6723,
      "▁इंसान": 6724,
      "शिकायत": 6725,
      "▁शिकायत": 6726,
      "ठो": 6727,
      "▁ठो": 6728,
      "लक": 6729,
      "▁लक": 6730,
      "टिम्मी": 6731,
      "▁टिम्मी": 6732,
      "टाइ": 6733,
      "▁टाइ": 6734,
      "तैरा": 6735,
      "▁तैरा": 6736,
      "निकालती": 6737,
      "▁निकालती": 6738,
      "परीक्षा": 6739,
      "▁परीक्षा": 6740,
      "त्येक": 6741,
      "▁त्येक": 6742,
      "बेक": 6743,
      "▁बेक": 6744,
      "शाम": 6745,
      "▁शाम": 6746,
      "प्रत्येक": 6747,
      "▁प्रत्येक": 6748,
      "लौटे": 6749,
      "▁लौटे": 6750,
      "सांत्वना": 6751,
      "▁सांत्वना": 6752,
      "डो": 6753,
      "▁डो": 6754,
      "हैरी": 6755,
      "▁हैरी": 6756,
      "तापूर्ण": 6757,
      "▁तापूर्ण": 6758,
      "स्क्री": 6759,
      "▁स्क्री": 6760,
      "स्वेटर": 6761,
      "▁स्वेटर": 6762,
      "ड्रॉ": 6763,
      "▁ड्रॉ": 6764,
      "लगेगा": 6765,
      "▁लगेगा": 6766,
      "भौंका": 6767,
      "▁भौंका": 6768,
      "शर्मिंदगी": 6769,
      "▁शर्मिंदगी": 6770,
      "आसानी": 6771,
      "▁आसानी": 6772,
      "नफर": 6773,
      "▁नफर": 6774,
      "नीं": 6775,
      "▁नीं": 6776,
      "मिस": 6777,
      "▁मिस": 6778,
      "ट्वि": 6779,
      "▁ट्वि": 6780,
      "फैल": 6781,
      "▁फैल": 6782,
      "कैम": 6783,
      "▁कैम": 6784,
      "ध्यम": 6785,
      "▁ध्यम": 6786,
      "नफरत": 6787,
      "▁नफरत": 6788,
      "घू": 6789,
      "▁घू": 6790,
      "यूम": 6791,
      "▁यूम": 6792,
      "चाटा": 6793,
      "▁चाटा": 6794,
      "बेल्ट": 6795,
      "▁बेल्ट": 6796,
      "सॉस": 6797,
      "▁सॉस": 6798,
      "कचरा": 6799,
      "▁कचरा": 6800,
      "भगवान": 6801,
      "▁भगवान": 6802,
      "स्क्रीन": 6803,
      "▁स्क्रीन": 6804,
      "मास्क": 6805,
      "▁मास्क": 6806,
      "ज़ल": 6807,
      "▁ज़ल": 6808,
      "घरों": 6809,
      "▁घरों": 6810,
      "पत्ता": 6811,
      "▁पत्ता": 6812,
      "चुनने": 6813,
      "▁चुनने": 6814,
      "टहनी": 6815,
      "▁टहनी": 6816,
      "चिड़चि": 6817,
      "▁चिड़चि": 6818,
      "चह": 6819,
      "▁चह": 6820,
      "दस": 6821,
      "▁दस": 6822,
      "मिटन्स": 6823,
      "▁मिटन्स": 6824,
      "चलाते": 6825,
      "▁चलाते": 6826,
      "फ्री": 6827,
      "▁फ्री": 6828,
      "निकालते": 6829,
      "▁निकालते": 6830,
      "णाम": 6831,
      "▁णाम": 6832,
      "प्रतिभाशाली": 6833,
      "▁प्रतिभाशाली": 6834,
      "दस्तक": 6835,
      "▁दस्तक": 6836,
      "चाट": 6837,
      "▁चाट": 6838,
      "बेटा": 6839,
      "▁बेटा": 6840,
      "तोड़ा": 6841,
      "▁तोड़ा": 6842,
      "फ़िल्म": 6843,
      "▁फ़िल्म": 6844,
      "जीप": 6845,
      "▁जीप": 6846,
      "प्रया": 6847,
      "▁प्रया": 6848,
      "सिंक": 6849,
      "▁सिंक": 6850,
      "ग्ला": 6851,
      "▁ग्ला": 6852,
      "बढ़िया": 6853,
      "▁बढ़िया": 6854,
      "हिस्से": 6855,
      "▁हिस्से": 6856,
      "सैल": 6857,
      "▁सैल": 6858,
      "चिम": 6859,
      "▁चिम": 6860,
      "उत्तर": 6861,
      "▁उत्तर": 6862,
      "दिखावा": 6863,
      "▁दिखावा": 6864,
      "बल्ब": 6865,
      "▁बल्ब": 6866,
      "पेनी": 6867,
      "▁पेनी": 6868,
      "चलाया": 6869,
      "▁चलाया": 6870,
      "गुस्सैल": 6871,
      "▁गुस्सैल": 6872,
      "छिपी": 6873,
      "▁छिपी": 6874,
      "मोती": 6875,
      "▁मोती": 6876,
      "जीवित": 6877,
      "▁जीवित": 6878,
      "अफ़": 6879,
      "▁अफ़": 6880,
      "खं": 6881,
      "▁खं": 6882,
      "बक": 6883,
      "▁बक": 6884,
      "चीयर": 6885,
      "▁चीयर": 6886,
      "हिलाने": 6887,
      "▁हिलाने": 6888,
      "गैराज": 6889,
      "▁गैराज": 6890,
      "उठीं": 6891,
      "▁उठीं": 6892,
      "सुथरा": 6893,
      "▁सुथरा": 6894,
      "गड्ढे": 6895,
      "▁गड्ढे": 6896,
      "क्लारा": 6897,
      "▁क्लारा": 6898,
      "अफ़सोस": 6899,
      "▁अफ़सोस": 6900,
      "पण": 6901,
      "▁पण": 6902,
      "हास्या": 6903,
      "▁हास्या": 6904,
      "कहां": 6905,
      "▁कहां": 6906,
      "खुले": 6907,
      "▁खुले": 6908,
      "हरों": 6909,
      "▁हरों": 6910,
      "फ्रेड": 6911,
      "▁फ्रेड": 6912,
      "बदसूरत": 6913,
      "▁बदसूरत": 6914,
      "फ़ेयरी": 6915,
      "▁फ़ेयरी": 6916,
      "स्पद": 6917,
      "▁स्पद": 6918,
      "नृत्य": 6919,
      "▁नृत्य": 6920,
      "हास्यास्पद": 6921,
      "▁हास्यास्पद": 6922,
      "कया": 6923,
      "▁कया": 6924,
      "कवि": 6925,
      "▁कवि": 6926,
      "चहा": 6927,
      "▁चहा": 6928,
      "धनु": 6929,
      "▁धनु": 6930,
      "फलों": 6931,
      "▁फलों": 6932,
      "संत": 6933,
      "▁संत": 6934,
      "पिंक": 6935,
      "▁पिंक": 6936,
      "धातु": 6937,
      "▁धातु": 6938,
      "मिलता": 6939,
      "▁मिलता": 6940,
      "निकाले": 6941,
      "▁निकाले": 6942,
      "झूठ": 6943,
      "▁झूठ": 6944,
      "कल्प": 6945,
      "▁कल्प": 6946,
      "चहचहा": 6947,
      "▁चहचहा": 6948,
      "ऐनी": 6949,
      "▁ऐनी": 6950,
      "पांडा": 6951,
      "▁पांडा": 6952,
      "पायल": 6953,
      "▁पायल": 6954,
      "भूला": 6955,
      "▁भूला": 6956,
      "बोलीं": 6957,
      "▁बोलीं": 6958,
      "दीवारों": 6959,
      "▁दीवारों": 6960,
      "वैसा": 6961,
      "▁वैसा": 6962,
      "दौरान": 6963,
      "▁दौरान": 6964,
      "पायलट": 6965,
      "▁पायलट": 6966,
      "ड़ू": 6967,
      "▁ड़ू": 6968,
      "माध्यम": 6969,
      "▁माध्यम": 6970,
      "न्न": 6971,
      "▁न्न": 6972,
      "खाता": 6973,
      "▁खाता": 6974,
      "चुनौ": 6975,
      "▁चुनौ": 6976,
      "आज़माना": 6977,
      "▁आज़माना": 6978,
      "बेचैन": 6979,
      "▁बेचैन": 6980,
      "कविता": 6981,
      "▁कविता": 6982,
      "धनुष": 6983,
      "▁धनुष": 6984,
      "पन": 6985,
      "▁पन": 6986,
      "गहरा": 6987,
      "▁गहरा": 6988,
      "व्यंजन": 6989,
      "▁व्यंजन": 6990,
      "पहनती": 6991,
      "▁पहनती": 6992,
      "खोलते": 6993,
      "▁खोलते": 6994,
      "स्टोव": 6995,
      "▁स्टोव": 6996,
      "डिब्बा": 6997,
      "▁डिब्बा": 6998,
      "वायलिन": 6999,
      "▁वायलिन": 7000,
      "सूरजमुखी": 7001,
      "▁सूरजमुखी": 7002,
      "पोस्ट": 7003,
      "▁पोस्ट": 7004,
      "कार्डबोर्ड": 7005,
      "▁कार्डबोर्ड": 7006,
      "बाँट": 7007,
      "▁बाँट": 7008,
      "अनोखी": 7009,
      "▁अनोखी": 7010,
      "नक्शा": 7011,
      "▁नक्शा": 7012,
      "बतख": 7013,
      "▁बतख": 7014,
      "लेनी": 7015,
      "▁लेनी": 7016,
      "ज़मीन": 7017,
      "▁ज़मीन": 7018,
      "फ़ार्म": 7019,
      "▁फ़ार्म": 7020,
      "ट्रकों": 7021,
      "▁ट्रकों": 7022,
      "मारना": 7023,
      "▁मारना": 7024,
      "नाचते": 7025,
      "▁नाचते": 7026,
      "क्रेन": 7027,
      "▁क्रेन": 7028,
      "दृढ़": 7029,
      "▁दृढ़": 7030,
      "दफ": 7031,
      "▁दफ": 7032,
      "ताज़ा": 7033,
      "▁ताज़ा": 7034,
      "पैसा": 7035,
      "▁पैसा": 7036,
      "बदबूदार": 7037,
      "▁बदबूदार": 7038,
      "र्नी": 7039,
      "▁र्नी": 7040,
      "डरती": 7041,
      "▁डरती": 7042,
      "रोकने": 7043,
      "▁रोकने": 7044,
      "ठोकर": 7045,
      "▁ठोकर": 7046,
      "ताली": 7047,
      "▁ताली": 7048,
      "ट्रं": 7049,
      "▁ट्रं": 7050,
      "हंसती": 7051,
      "▁हंसती": 7052,
      "पूछते": 7053,
      "▁पूछते": 7054,
      "उनी": 7055,
      "▁उनी": 7056,
      "मामी": 7057,
      "▁मामी": 7058,
      "ज़ू": 7059,
      "▁ज़ू": 7060,
      "लोक": 7061,
      "▁लोक": 7062,
      "चिह्": 7063,
      "▁चिह्": 7064,
      "जैतू": 7065,
      "▁जैतू": 7066,
      "तरफ़": 7067,
      "▁तरफ़": 7068,
      "चिल्लाती": 7069,
      "▁चिल्लाती": 7070,
      "हँसा": 7071,
      "▁हँसा": 7072,
      "गाजरें": 7073,
      "▁गाजरें": 7074,
      "सब्जियाँ": 7075,
      "▁सब्जियाँ": 7076,
      "ऊब": 7077,
      "▁ऊब": 7078,
      "मिक्सर": 7079,
      "▁मिक्सर": 7080,
      "बनाएँ": 7081,
      "▁बनाएँ": 7082,
      "एंकर": 7083,
      "▁एंकर": 7084,
      "एंडी": 7085,
      "▁एंडी": 7086,
      "ओव": 7087,
      "▁ओव": 7088,
      "नज़": 7089,
      "▁नज़": 7090,
      "किंग": 7091,
      "▁किंग": 7092,
      "कियों": 7093,
      "▁कियों": 7094,
      "प्यू": 7095,
      "▁प्यू": 7096,
      "गिंग": 7097,
      "▁गिंग": 7098,
      "ट्रंपेट": 7099,
      "▁ट्रंपेट": 7100,
      "रें": 7101,
      "▁रें": 7102,
      "बाजी": 7103,
      "▁बाजी": 7104,
      "सैनिक": 7105,
      "▁सैनिक": 7106,
      "चुके": 7107,
      "▁चुके": 7108,
      "समझकर": 7109,
      "▁समझकर": 7110,
      "क्रीक": 7111,
      "▁क्रीक": 7112,
      "चुनना": 7113,
      "▁चुनना": 7114,
      "मूर्ति": 7115,
      "▁मूर्ति": 7116,
      "स्थानों": 7117,
      "▁स्थानों": 7118,
      "ब्राउनी": 7119,
      "▁ब्राउनी": 7120,
      "रररररररररररररररररररररररररररररररर": 7121,
      "▁रररररररररररररररररररररररररररररररर": 7122,
      "बांसुरी": 7123,
      "▁बांसुरी": 7124,
      "भयं": 7125,
      "▁भयं": 7126,
      "बाउल": 7127,
      "▁बाउल": 7128,
      "खुशमि": 7129,
      "▁खुशमि": 7130,
      "बिन": 7131,
      "▁बिन": 7132,
      "बताना": 7133,
      "▁बताना": 7134,
      "मारिया": 7135,
      "▁मारिया": 7136,
      "व्हि": 7137,
      "▁व्हि": 7138,
      "ट्रॉफी": 7139,
      "▁ट्रॉफी": 7140,
      "भयंकर": 7141,
      "▁भयंकर": 7142,
      "बीत": 7143,
      "▁बीत": 7144,
      "भुग": 7145,
      "▁भुग": 7146,
      "बचाया": 7147,
      "▁बचाया": 7148,
      "हल्के": 7149,
      "▁हल्के": 7150,
      "झाँक": 7151,
      "▁झाँक": 7152,
      "मोमबत्ती": 7153,
      "▁मोमबत्ती": 7154,
      "धूल": 7155,
      "▁धूल": 7156,
      "र्की": 7157,
      "▁र्की": 7158,
      "जैज़": 7159,
      "▁जैज़": 7160,
      "व्यक्त": 7161,
      "▁व्यक्त": 7162,
      "फेंका": 7163,
      "▁फेंका": 7164,
      "धोने": 7165,
      "▁धोने": 7166,
      "चौड़ी": 7167,
      "▁चौड़ी": 7168,
      "असहज": 7169,
      "▁असहज": 7170,
      "पज़ल": 7171,
      "▁पज़ल": 7172,
      "सोचना": 7173,
      "▁सोचना": 7174,
      "पंजों": 7175,
      "▁पंजों": 7176,
      "वैसे": 7177,
      "▁वैसे": 7178,
      "भौंकता": 7179,
      "▁भौंकता": 7180,
      "नोटबुक": 7181,
      "▁नोटबुक": 7182,
      "प्रेरित": 7183,
      "▁प्रेरित": 7184,
      "लोकप्रिय": 7185,
      "▁लोकप्रिय": 7186,
      "जैतून": 7187,
      "▁जैतून": 7188,
      "दस्ता": 7189,
      "▁दस्ता": 7190,
      "रबर": 7191,
      "▁रबर": 7192,
      "शौ": 7193,
      "▁शौ": 7194,
      "ॉल": 7195,
      "▁ॉल": 7196,
      "छाती": 7197,
      "▁छाती": 7198,
      "चेहरों": 7199,
      "▁चेहरों": 7200,
      "जेरी": 7201,
      "▁जेरी": 7202,
      "मिलती": 7203,
      "▁मिलती": 7204,
      "उठाए": 7205,
      "▁उठाए": 7206,
      "माताओं": 7207,
      "▁माताओं": 7208,
      "छोड़ने": 7209,
      "▁छोड़ने": 7210,
      "दुर्भाग्य": 7211,
      "▁दुर्भाग्य": 7212,
      "नियमों": 7213,
      "▁नियमों": 7214,
      "स्कोप": 7215,
      "▁स्कोप": 7216,
      "पियाँ": 7217,
      "▁पियाँ": 7218,
      "कर्": 7219,
      "▁कर्": 7220,
      "र्डर": 7221,
      "▁र्डर": 7222,
      "महंगा": 7223,
      "▁महंगा": 7224,
      "टॉर्च": 7225,
      "▁टॉर्च": 7226,
      "पहिये": 7227,
      "▁पहिये": 7228,
      "पहुंची": 7229,
      "▁पहुंची": 7230,
      "जॉगिंग": 7231,
      "▁जॉगिंग": 7232,
      "क्यूट": 7233,
      "▁क्यूट": 7234,
      "घिनौ": 7235,
      "▁घिनौ": 7236,
      "आत्म": 7237,
      "▁आत्म": 7238,
      "सख्": 7239,
      "▁सख्": 7240,
      "पिंग": 7241,
      "▁पिंग": 7242,
      "दिखाए": 7243,
      "▁दिखाए": 7244,
      "कंप्यू": 7245,
      "▁कंप्यू": 7246,
      "चाहेगा": 7247,
      "▁चाहेगा": 7248,
      "टैक्सी": 7249,
      "▁टैक्सी": 7250,
      "ह्वेल": 7251,
      "▁ह्वेल": 7252,
      "प्लीज़": 7253,
      "▁प्लीज़": 7254,
      "प्रयास": 7255,
      "▁प्रयास": 7256,
      "कंप्यूटर": 7257,
      "▁कंप्यूटर": 7258,
      "एना": 7259,
      "▁एना": 7260,
      "भटक": 7261,
      "▁भटक": 7262,
      "रस": 7263,
      "▁रस": 7264,
      "जांच": 7265,
      "▁जांच": 7266,
      "लड़ते": 7267,
      "▁लड़ते": 7268,
      "प्रतिस्पर्": 7269,
      "▁प्रतिस्पर्": 7270,
      "डैनी": 7271,
      "▁डैनी": 7272,
      "मंदि": 7273,
      "▁मंदि": 7274,
      "स्प्रे": 7275,
      "▁स्प्रे": 7276,
      "बाज़": 7277,
      "▁बाज़": 7278,
      "कहे": 7279,
      "▁कहे": 7280,
      "पोनी": 7281,
      "▁पोनी": 7282,
      "उपल": 7283,
      "▁उपल": 7284,
      "समर्थ": 7285,
      "▁समर्थ": 7286,
      "मंदिर": 7287,
      "▁मंदिर": 7288,
      "टर्की": 7289,
      "▁टर्की": 7290,
      "तारे": 7291,
      "▁तारे": 7292,
      "लुटे": 7293,
      "▁लुटे": 7294,
      "ऑफिस": 7295,
      "▁ऑफिस": 7296,
      "टरी": 7297,
      "▁टरी": 7298,
      "पनों": 7299,
      "▁पनों": 7300,
      "सपनों": 7301,
      "▁सपनों": 7302,
      "स्पाइ": 7303,
      "▁स्पाइ": 7304,
      "दिलाया": 7305,
      "▁दिलाया": 7306,
      "पैदा": 7307,
      "▁पैदा": 7308,
      "उठाना": 7309,
      "▁उठाना": 7310,
      "टोपियाँ": 7311,
      "▁टोपियाँ": 7312,
      "डां": 7313,
      "▁डां": 7314,
      "सोचने": 7315,
      "▁सोचने": 7316,
      "पौधा": 7317,
      "▁पौधा": 7318,
      "स्थिति": 7319,
      "▁स्थिति": 7320,
      "भुगतान": 7321,
      "▁भुगतान": 7322,
      "उपलब्": 7323,
      "▁उपलब्": 7324,
      "उठाते": 7325,
      "▁उठाते": 7326,
      "पड़ता": 7327,
      "▁पड़ता": 7328,
      "चुनौती": 7329,
      "▁चुनौती": 7330,
      "ाना": 7331,
      "▁ाना": 7332,
      "कित्": 7333,
      "▁कित्": 7334,
      "चिकित्": 7335,
      "▁चिकित्": 7336,
      "कैक्ट": 7337,
      "▁कैक्ट": 7338,
      "स्टार": 7339,
      "▁स्टार": 7340,
      "पहुँचाने": 7341,
      "▁पहुँचाने": 7342,
      "कैक्टस": 7343,
      "▁कैक्टस": 7344,
      "बज": 7345,
      "▁बज": 7346,
      "नेमो": 7347,
      "▁नेमो": 7348,
      "रेस्त": 7349,
      "▁रेस्त": 7350,
      "क्रै": 7351,
      "▁क्रै": 7352,
      "चट्टानों": 7353,
      "▁चट्टानों": 7354,
      "धैर्यवान": 7355,
      "▁धैर्यवान": 7356,
      "रेस्तरा": 7357,
      "▁रेस्तरा": 7358,
      "चर्च": 7359,
      "▁चर्च": 7360,
      "थके": 7361,
      "▁थके": 7362,
      "लपे": 7363,
      "▁लपे": 7364,
      "वर्क": 7365,
      "▁वर्क": 7366,
      "द्वार": 7367,
      "▁द्वार": 7368,
      "पुस्त": 7369,
      "▁पुस्त": 7370,
      "ग्रा": 7371,
      "▁ग्रा": 7372,
      "ग्री": 7373,
      "▁ग्री": 7374,
      "मारते": 7375,
      "▁मारते": 7376,
      "रखेगी": 7377,
      "▁रखेगी": 7378,
      "चुंबक": 7379,
      "▁चुंबक": 7380,
      "टायर": 7381,
      "▁टायर": 7382,
      "बार्बर": 7383,
      "▁बार्बर": 7384,
      "झाँका": 7385,
      "▁झाँका": 7386,
      "मधुमक्ख": 7387,
      "▁मधुमक्ख": 7388,
      "सजावट": 7389,
      "▁सजावट": 7390,
      "यहीं": 7391,
      "▁यहीं": 7392,
      "उसको": 7393,
      "▁उसको": 7394,
      "प्पड़": 7395,
      "▁प्पड़": 7396,
      "िल्ली": 7397,
      "▁िल्ली": 7398,
      "हिलाना": 7399,
      "▁हिलाना": 7400,
      "गेंदों": 7401,
      "▁गेंदों": 7402,
      "टोनी": 7403,
      "▁टोनी": 7404,
      "छिपे": 7405,
      "▁छिपे": 7406,
      "मॉन्": 7407,
      "▁मॉन्": 7408,
      "दांतों": 7409,
      "▁दांतों": 7410,
      "शर्मीला": 7411,
      "▁शर्मीला": 7412,
      "जीतने": 7413,
      "▁जीतने": 7414,
      "डरता": 7415,
      "▁डरता": 7416,
      "उठाता": 7417,
      "▁उठाता": 7418,
      "पंखु": 7419,
      "▁पंखु": 7420,
      "पाएगा": 7421,
      "▁पाएगा": 7422,
      "सूँघ": 7423,
      "▁सूँघ": 7424,
      "इग्": 7425,
      "▁इग्": 7426,
      "ज़ो": 7427,
      "▁ज़ो": 7428,
      "पाउ": 7429,
      "▁पाउ": 7430,
      "सुने": 7431,
      "▁सुने": 7432,
      "पेय": 7433,
      "▁पेय": 7434,
      "सकतीं": 7435,
      "▁सकतीं": 7436,
      "नींबू": 7437,
      "▁नींबू": 7438,
      "चिह्न": 7439,
      "▁चिह्न": 7440,
      "चिकित्सक": 7441,
      "▁चिकित्सक": 7442,
      "तें": 7443,
      "▁तें": 7444,
      "धब्": 7445,
      "▁धब्": 7446,
      "क्रूर": 7447,
      "▁क्रूर": 7448,
      "ज़ूम": 7449,
      "▁ज़ूम": 7450,
      "छाता": 7451,
      "▁छाता": 7452,
      "लगाए": 7453,
      "▁लगाए": 7454,
      "सिग": 7455,
      "▁सिग": 7456,
      "भूख": 7457,
      "▁भूख": 7458,
      "रोज़ाना": 7459,
      "▁रोज़ाना": 7460,
      "समझते": 7461,
      "▁समझते": 7462,
      "खींचना": 7463,
      "▁खींचना": 7464,
      "अभि": 7465,
      "▁अभि": 7466,
      "मित्रतापूर्ण": 7467,
      "▁मित्रतापूर्ण": 7468,
      "अव": 7469,
      "▁अव": 7470,
      "गीले": 7471,
      "▁गीले": 7472,
      "संख्या": 7473,
      "▁संख्या": 7474,
      "रुकना": 7475,
      "▁रुकना": 7476,
      "मजबूर": 7477,
      "▁मजबूर": 7478,
      "बंदरगाह": 7479,
      "▁बंदरगाह": 7480,
      "रोको": 7481,
      "▁रोको": 7482,
      "धागे": 7483,
      "▁धागे": 7484,
      "ड्डे": 7485,
      "▁ड्डे": 7486,
      "ब्लॉकों": 7487,
      "▁ब्लॉकों": 7488,
      "फेंकना": 7489,
      "▁फेंकना": 7490,
      "खोलना": 7491,
      "▁खोलना": 7492,
      "विक": 7493,
      "▁विक": 7494,
      "बैरल": 7495,
      "▁बैरल": 7496,
      "मधुमक्खी": 7497,
      "▁मधुमक्खी": 7498,
      "इला": 7499,
      "▁इला": 7500,
      "लाना": 7501,
      "▁लाना": 7502,
      "रखेगा": 7503,
      "▁रखेगा": 7504,
      "घबरा": 7505,
      "▁घबरा": 7506,
      "सेज": 7507,
      "▁सेज": 7508,
      "माहट": 7509,
      "▁माहट": 7510,
      "चाहें": 7511,
      "▁चाहें": 7512,
      "दोहरा": 7513,
      "▁दोहरा": 7514,
      "डरने": 7515,
      "▁डरने": 7516,
      "आआआआआआआआआआआआआआआआआआआआआआआआआआआआआआआआ": 7517,
      "▁आआआआआआआआआआआआआआआआआआआआआआआआआआआआआआआआ": 7518,
      "मॉन्स्टर": 7519,
      "▁मॉन्स्टर": 7520,
      "थिए": 7521,
      "▁थिए": 7522,
      "हफ्": 7523,
      "▁हफ्": 7524,
      "रखेंगे": 7525,
      "▁रखेंगे": 7526,
      "कराने": 7527,
      "▁कराने": 7528,
      "संगठ": 7529,
      "▁संगठ": 7530,
      "थिएटर": 7531,
      "▁थिएटर": 7532,
      "उछा": 7533,
      "▁उछा": 7534,
      "पद": 7535,
      "▁पद": 7536,
      "लना": 7537,
      "▁लना": 7538,
      "वारे": 7539,
      "▁वारे": 7540,
      "लात": 7541,
      "▁लात": 7542,
      "प्स": 7543,
      "▁प्स": 7544,
      "बिठा": 7545,
      "▁बिठा": 7546,
      "डिजा": 7547,
      "▁डिजा": 7548,
      "माँगनी": 7549,
      "▁माँगनी": 7550,
      "पर्दे": 7551,
      "▁पर्दे": 7552,
      "थैला": 7553,
      "▁थैला": 7554,
      "कक्षा": 7555,
      "▁कक्षा": 7556,
      "चक": 7557,
      "▁चक": 7558,
      "थकी": 7559,
      "▁थकी": 7560,
      "मग": 7561,
      "▁मग": 7562,
      "जागा": 7563,
      "▁जागा": 7564,
      "चिल्लाना": 7565,
      "▁चिल्लाना": 7566,
      "टोबी": 7567,
      "▁टोबी": 7568,
      "सूर्या": 7569,
      "▁सूर्या": 7570,
      "ंसी": 7571,
      "▁ंसी": 7572,
      "एकदम": 7573,
      "▁एकदम": 7574,
      "खुर": 7575,
      "▁खुर": 7576,
      "कंघ": 7577,
      "▁कंघ": 7578,
      "पकाने": 7579,
      "▁पकाने": 7580,
      "कड़": 7581,
      "▁कड़": 7582,
      "जागी": 7583,
      "▁जागी": 7584,
      "हेयर": 7585,
      "▁हेयर": 7586,
      "केकड़ा": 7587,
      "▁केकड़ा": 7588,
      "श्श्श्श्श्श्श्श्श्श्श्श्श्श्श्श्श्श्श्श्श्श्श्श्श्श्श्श्श्श्श्श्": 7589,
      "▁श्श्श्श्श्श्श्श्श्श्श्श्श्श्श्श्श्श्श्श्श्श्श्श्श्श्श्श्श्श्श्श्": 7590,
      "काउंटर": 7591,
      "▁काउंटर": 7592,
      "दफना": 7593,
      "▁दफना": 7594,
      "ऑक्": 7595,
      "▁ऑक्": 7596,
      "लेजर": 7597,
      "▁लेजर": 7598,
      "लूप": 7599,
      "▁लूप": 7600,
      "करोगे": 7601,
      "▁करोगे": 7602,
      "ट्रैक": 7603,
      "▁ट्रैक": 7604,
      "स्ने": 7605,
      "▁स्ने": 7606,
      "दियों": 7607,
      "▁दियों": 7608,
      "लाकर": 7609,
      "▁लाकर": 7610,
      "तीखा": 7611,
      "▁तीखा": 7612,
      "रेखा": 7613,
      "▁रेखा": 7614,
      "निशा": 7615,
      "▁निशा": 7616,
      "पहे": 7617,
      "▁पहे": 7618,
      "मूली": 7619,
      "▁मूली": 7620,
      "प्रभावशाली": 7621,
      "▁प्रभावशाली": 7622,
      "र्नीचर": 7623,
      "▁र्नीचर": 7624,
      "सख्त": 7625,
      "▁सख्त": 7626,
      "इग्लू": 7627,
      "▁इग्लू": 7628,
      "ऑक्टो": 7629,
      "▁ऑक्टो": 7630,
      "सुख": 7631,
      "▁सुख": 7632,
      "फ़ोल्": 7633,
      "▁फ़ोल्": 7634,
      "संभाल": 7635,
      "▁संभाल": 7636,
      "पोर्ट": 7637,
      "▁पोर्ट": 7638,
      "जुट": 7639,
      "▁जुट": 7640,
      "हॉल": 7641,
      "▁हॉल": 7642,
      "लेंस": 7643,
      "▁लेंस": 7644,
      "चखना": 7645,
      "▁चखना": 7646,
      "फ्रेम": 7647,
      "▁फ्रेम": 7648,
      "डिजाइन": 7649,
      "▁डिजाइन": 7650,
      "सूर्यास्त": 7651,
      "▁सूर्यास्त": 7652,
      "लिफ़ा": 7653,
      "▁लिफ़ा": 7654,
      "दाँ": 7655,
      "▁दाँ": 7656,
      "मिसाइ": 7657,
      "▁मिसाइ": 7658,
      "गर्माहट": 7659,
      "▁गर्माहट": 7660,
      "सिखाने": 7661,
      "▁सिखाने": 7662,
      "कॉलर": 7663,
      "▁कॉलर": 7664,
      "पशु": 7665,
      "▁पशु": 7666,
      "सुपर": 7667,
      "▁सुपर": 7668,
      "क्षण": 7669,
      "▁क्षण": 7670,
      "अंतरि": 7671,
      "▁अंतरि": 7672,
      "जूतों": 7673,
      "▁जूतों": 7674,
      "रुकी": 7675,
      "▁रुकी": 7676,
      "बिताना": 7677,
      "▁बिताना": 7678,
      "भौंकना": 7679,
      "▁भौंकना": 7680,
      "शिक्षिका": 7681,
      "▁शिक्षिका": 7682,
      "हल्की": 7683,
      "▁हल्की": 7684,
      "माइक्रोस्कोप": 7685,
      "▁माइक्रोस्कोप": 7686,
      "अंतरिक्ष": 7687,
      "▁अंतरिक्ष": 7688,
      "कवर": 7689,
      "▁कवर": 7690,
      "णित": 7691,
      "▁णित": 7692,
      "थप्पड़": 7693,
      "▁थप्पड़": 7694,
      "ारों": 7695,
      "▁ारों": 7696,
      "चिढ़ा": 7697,
      "▁चिढ़ा": 7698,
      "विज़न": 7699,
      "▁विज़न": 7700,
      "सिस": 7701,
      "▁सिस": 7702,
      "धीमा": 7703,
      "▁धीमा": 7704,
      "नाश्ता": 7705,
      "▁नाश्ता": 7706,
      "टेलीविज़न": 7707,
      "▁टेलीविज़न": 7708,
      "मिसाइल": 7709,
      "▁मिसाइल": 7710,
      "ईंट": 7711,
      "▁ईंट": 7712,
      "झों": 7713,
      "▁झों": 7714,
      "व्या": 7715,
      "▁व्या": 7716,
      "ेंस": 7717,
      "▁ेंस": 7718,
      "पागल": 7719,
      "▁पागल": 7720,
      "ल्हा": 7721,
      "▁ल्हा": 7722,
      "डराने": 7723,
      "▁डराने": 7724,
      "सामग्र": 7725,
      "▁सामग्र": 7726,
      "कठिन": 7727,
      "▁कठिन": 7728,
      "पियानो": 7729,
      "▁पियानो": 7730,
      "ऑक्टोपस": 7731,
      "▁ऑक्टोपस": 7732,
      "फ़ोल्डर": 7733,
      "▁फ़ोल्डर": 7734,
      "करूंगी": 7735,
      "▁करूंगी": 7736,
      "केबल": 7737,
      "▁केबल": 7738,
      "स्पा": 7739,
      "▁स्पा": 7740,
      "मिसेज़": 7741,
      "▁मिसेज़": 7742,
      "गुज़": 7743,
      "▁गुज़": 7744,
      "कामों": 7745,
      "▁कामों": 7746,
      "फेंकते": 7747,
      "▁फेंकते": 7748,
      "ढूँढ़": 7749,
      "▁ढूँढ़": 7750,
      "अधिकारी": 7751,
      "▁अधिकारी": 7752,
      "ग्रिल": 7753,
      "▁ग्रिल": 7754,
      "खरोंच": 7755,
      "▁खरोंच": 7756,
      "तोता": 7757,
      "▁तोता": 7758,
      "रोता": 7759,
      "▁रोता": 7760,
      "ब्रोको": 7761,
      "▁ब्रोको": 7762,
      "भागकर": 7763,
      "▁भागकर": 7764,
      "बताती": 7765,
      "▁बताती": 7766,
      "ब्रोकोली": 7767,
      "▁ब्रोकोली": 7768,
      "डंडे": 7769,
      "▁डंडे": 7770,
      "बडी": 7771,
      "▁बडी": 7772,
      "सेल": 7773,
      "▁सेल": 7774,
      "चावल": 7775,
      "▁चावल": 7776,
      "सुधार": 7777,
      "▁सुधार": 7778,
      "उठाती": 7779,
      "▁उठाती": 7780,
      "सियों": 7781,
      "▁सियों": 7782,
      "ज्वाला": 7783,
      "▁ज्वाला": 7784,
      "फव्वारे": 7785,
      "▁फव्वारे": 7786,
      "मंद": 7787,
      "▁मंद": 7788,
      "कोहरे": 7789,
      "▁कोहरे": 7790,
      "स्ट्": 7791,
      "▁स्ट्": 7792,
      "गाता": 7793,
      "▁गाता": 7794,
      "जिद": 7795,
      "▁जिद": 7796,
      "ट्टे": 7797,
      "▁ट्टे": 7798,
      "खोजी": 7799,
      "▁खोजी": 7800,
      "फाव": 7801,
      "▁फाव": 7802,
      "राइड": 7803,
      "▁राइड": 7804,
      "कराता": 7805,
      "▁कराता": 7806,
      "दयालुता": 7807,
      "▁दयालुता": 7808,
      "गाँठ": 7809,
      "▁गाँठ": 7810,
      "पाउडर": 7811,
      "▁पाउडर": 7812,
      "ऑर्डर": 7813,
      "▁ऑर्डर": 7814,
      "फिल्म": 7815,
      "▁फिल्म": 7816,
      "रेट": 7817,
      "▁रेट": 7818,
      "दाढ़ी": 7819,
      "▁दाढ़ी": 7820,
      "टॉय": 7821,
      "▁टॉय": 7822,
      "ियार": 7823,
      "▁ियार": 7824,
      "टैग": 7825,
      "▁टैग": 7826,
      "संग्रह": 7827,
      "▁संग्रह": 7828,
      "मूल्यवान": 7829,
      "▁मूल्यवान": 7830,
      "खच्": 7831,
      "▁खच्": 7832,
      "पकिन": 7833,
      "▁पकिन": 7834,
      "वकील": 7835,
      "▁वकील": 7836,
      "स्पी": 7837,
      "▁स्पी": 7838,
      "सुरंग": 7839,
      "▁सुरंग": 7840,
      "जोई": 7841,
      "▁जोई": 7842,
      "नामो": 7843,
      "▁नामो": 7844,
      "गुर्रा": 7845,
      "▁गुर्रा": 7846,
      "पैडल": 7847,
      "▁पैडल": 7848,
      "तैरती": 7849,
      "▁तैरती": 7850,
      "आएगी": 7851,
      "▁आएगी": 7852,
      "पहुँचाना": 7853,
      "▁पहुँचाना": 7854,
      "खींचने": 7855,
      "▁खींचने": 7856,
      "चोरी": 7857,
      "▁चोरी": 7858,
      "अंडा": 7859,
      "▁अंडा": 7860,
      "जलन": 7861,
      "▁जलन": 7862,
      "नॉ": 7863,
      "▁नॉ": 7864,
      "मश": 7865,
      "▁मश": 7866,
      "कोच": 7867,
      "▁कोच": 7868,
      "प्याज़": 7869,
      "▁प्याज़": 7870,
      "विष": 7871,
      "▁विष": 7872,
      "पॉपी": 7873,
      "▁पॉपी": 7874,
      "अनदेखा": 7875,
      "▁अनदेखा": 7876,
      "डेस्क": 7877,
      "▁डेस्क": 7878,
      "छुट्": 7879,
      "▁छुट्": 7880,
      "ट्रीट": 7881,
      "▁ट्रीट": 7882,
      "खच्चर": 7883,
      "▁खच्चर": 7884,
      "टियाँ": 7885,
      "▁टियाँ": 7886,
      "जेम्स": 7887,
      "▁जेम्स": 7888,
      "संगठित": 7889,
      "▁संगठित": 7890,
      "अट": 7891,
      "▁अट": 7892,
      "शै": 7893,
      "▁शै": 7894,
      "मेज": 7895,
      "▁मेज": 7896,
      "बढ़ता": 7897,
      "▁बढ़ता": 7898,
      "पाईं": 7899,
      "▁पाईं": 7900,
      "शाखाओं": 7901,
      "▁शाखाओं": 7902,
      "मांगते": 7903,
      "▁मांगते": 7904,
      "भावनाओं": 7905,
      "▁भावनाओं": 7906,
      "नाश्ते": 7907,
      "▁नाश्ते": 7908,
      "तारीफ": 7909,
      "▁तारीफ": 7910,
      "चिपचिपा": 7911,
      "▁चिपचिपा": 7912,
      "धकेल": 7913,
      "▁धकेल": 7914,
      "स्पाइक": 7915,
      "▁स्पाइक": 7916,
      "मशरूम": 7917,
      "▁मशरूम": 7918,
      "कप्": 7919,
      "▁कप्": 7920,
      "दराज़": 7921,
      "▁दराज़": 7922,
      "केला": 7923,
      "▁केला": 7924,
      "हान": 7925,
      "▁हान": 7926,
      "देकर": 7927,
      "▁देकर": 7928,
      "पाँच": 7929,
      "▁पाँच": 7930,
      "पहचा": 7931,
      "▁पहचा": 7932,
      "बंदूक": 7933,
      "▁बंदूक": 7934,
      "तैरता": 7935,
      "▁तैरता": 7936,
      "लाइसेंस": 7937,
      "▁लाइसेंस": 7938,
      "टल": 7939,
      "▁टल": 7940,
      "दय": 7941,
      "▁दय": 7942,
      "नरी": 7943,
      "▁नरी": 7944,
      "बजाती": 7945,
      "▁बजाती": 7946,
      "खाती": 7947,
      "▁खाती": 7948,
      "सूखी": 7949,
      "▁सूखी": 7950,
      "चिड़ियों": 7951,
      "▁चिड़ियों": 7952,
      "पहिया": 7953,
      "▁पहिया": 7954,
      "खरीदी": 7955,
      "▁खरीदी": 7956,
      "पहनते": 7957,
      "▁पहनते": 7958,
      "बदलने": 7959,
      "▁बदलने": 7960,
      "माइक्रोफ़ोन": 7961,
      "▁माइक्रोफ़ोन": 7962,
      "रसीला": 7963,
      "▁रसीला": 7964,
      "षा": 7965,
      "▁षा": 7966,
      "किरण": 7967,
      "▁किरण": 7968,
      "चालय": 7969,
      "▁चालय": 7970,
      "बेसब": 7971,
      "▁बेसब": 7972,
      "ट्रेस": 7973,
      "▁ट्रेस": 7974,
      "टेस्ट": 7975,
      "▁टेस्ट": 7976,
      "संभव": 7977,
      "▁संभव": 7978,
      "मनाने": 7979,
      "▁मनाने": 7980,
      "लेटकर": 7981,
      "▁लेटकर": 7982,
      "लहराया": 7983,
      "▁लहराया": 7984,
      "प्लास्टिक": 7985,
      "▁प्लास्टिक": 7986,
      "शौचालय": 7987,
      "▁शौचालय": 7988,
      "बेसबॉल": 7989,
      "▁बेसबॉल": 7990,
      "जड़": 7991,
      "▁जड़": 7992,
      "मफिन": 7993,
      "▁मफिन": 7994,
      "हैमर": 7995,
      "▁हैमर": 7996,
      "दिखी": 7997,
      "▁दिखी": 7998,
      "पैंट": 7999,
      "▁पैंट": 8000,
      "निकलता": 8001,
      "▁निकलता": 8002,
      "धीमी": 8003,
      "▁धीमी": 8004,
      "अनुसार": 8005,
      "▁अनुसार": 8006,
      "पकाना": 8007,
      "▁पकाना": 8008,
      "टैंक": 8009,
      "▁टैंक": 8010,
      "खुशमिजाज": 8011,
      "▁खुशमिजाज": 8012,
      "अहसास": 8013,
      "▁अहसास": 8014,
      "डु": 8015,
      "▁डु": 8016,
      "नाविक": 8017,
      "▁नाविक": 8018,
      "मैट्रेस": 8019,
      "▁मैट्रेस": 8020,
      "आश्चर्यचकित": 8021,
      "▁आश्चर्यचकित": 8022,
      "म्याऊं": 8023,
      "▁म्याऊं": 8024,
      "स्पाइडर": 8025,
      "▁स्पाइडर": 8026,
      "गणित": 8027,
      "▁गणित": 8028,
      "पट्टा": 8029,
      "▁पट्टा": 8030,
      "मक्का": 8031,
      "▁मक्का": 8032,
      "लिंग": 8033,
      "▁लिंग": 8034,
      "प्रसि": 8035,
      "▁प्रसि": 8036,
      "ढूँढा": 8037,
      "▁ढूँढा": 8038,
      "बिर": 8039,
      "▁बिर": 8040,
      "मृ": 8041,
      "▁मृ": 8042,
      "कालय": 8043,
      "▁कालय": 8044,
      "टीना": 8045,
      "▁टीना": 8046,
      "मानने": 8047,
      "▁मानने": 8048,
      "बनो": 8049,
      "▁बनो": 8050,
      "संकल्प": 8051,
      "▁संकल्प": 8052,
      "खिंचा": 8053,
      "▁खिंचा": 8054,
      "तितलियों": 8055,
      "▁तितलियों": 8056,
      "चाहेगी": 8057,
      "▁चाहेगी": 8058,
      "बाँध": 8059,
      "▁बाँध": 8060,
      "बाथरोब": 8061,
      "▁बाथरोब": 8062,
      "पुस्तकालय": 8063,
      "▁पुस्तकालय": 8064,
      "कप्तान": 8065,
      "▁कप्तान": 8066,
      "माचि": 8067,
      "▁माचि": 8068,
      "पेस्ट्री": 8069,
      "▁पेस्ट्री": 8070,
      "गुज": 8071,
      "▁गुज": 8072,
      "द्य": 8073,
      "▁द्य": 8074,
      "गोले": 8075,
      "▁गोले": 8076,
      "बैठते": 8077,
      "▁बैठते": 8078,
      "ज्जा": 8079,
      "▁ज्जा": 8080,
      "हल्का": 8081,
      "▁हल्का": 8082,
      "ढाल": 8083,
      "▁ढाल": 8084,
      "फ़ॉर्क": 8085,
      "▁फ़ॉर्क": 8086,
      "आज़ा": 8087,
      "▁आज़ा": 8088,
      "रवी": 8089,
      "▁रवी": 8090,
      "खाकर": 8091,
      "▁खाकर": 8092,
      "त्रों": 8093,
      "▁त्रों": 8094,
      "लोशन": 8095,
      "▁लोशन": 8096,
      "ियां": 8097,
      "▁ियां": 8098,
      "कामना": 8099,
      "▁कामना": 8100,
      "उठाकर": 8101,
      "▁उठाकर": 8102,
      "हेली": 8103,
      "▁हेली": 8104,
      "नमक": 8105,
      "▁नमक": 8106,
      "मोली": 8107,
      "▁मोली": 8108,
      "सरप्राइज": 8109,
      "▁सरप्राइज": 8110,
      "स्याही": 8111,
      "▁स्याही": 8112,
      "क्लाउन": 8113,
      "▁क्लाउन": 8114,
      "शूरवी": 8115,
      "▁शूरवी": 8116,
      "टक्कर": 8117,
      "▁टक्कर": 8118,
      "बांट": 8119,
      "▁बांट": 8120,
      "सीधे": 8121,
      "▁सीधे": 8122,
      "उड़ती": 8123,
      "▁उड़ती": 8124,
      "उदासी": 8125,
      "▁उदासी": 8126,
      "डालने": 8127,
      "▁डालने": 8128,
      "चढ़ते": 8129,
      "▁चढ़ते": 8130,
      "गियर": 8131,
      "▁गियर": 8132,
      "छड़ें": 8133,
      "▁छड़ें": 8134,
      "हफ्ते": 8135,
      "▁हफ्ते": 8136,
      "फ्य": 8137,
      "▁फ्य": 8138,
      "भार": 8139,
      "▁भार": 8140,
      "केस": 8141,
      "▁केस": 8142,
      "स्मि": 8143,
      "▁स्मि": 8144,
      "रोया": 8145,
      "▁रोया": 8146,
      "रोचक": 8147,
      "▁रोचक": 8148,
      "विड": 8149,
      "▁विड": 8150,
      "डेविड": 8151,
      "▁डेविड": 8152,
      "मारता": 8153,
      "▁मारता": 8154,
      "बदला": 8155,
      "▁बदला": 8156,
      "घुमाना": 8157,
      "▁घुमाना": 8158,
      "यॉट": 8159,
      "▁यॉट": 8160,
      "नौकाय": 8161,
      "▁नौकाय": 8162,
      "अज्ञात": 8163,
      "▁अज्ञात": 8164,
      "प्रसिद्ध": 8165,
      "▁प्रसिद्ध": 8166,
      "नौकायन": 8167,
      "▁नौकायन": 8168,
      "ऊन": 8169,
      "▁ऊन": 8170,
      "तारा": 8171,
      "▁तारा": 8172,
      "बजाता": 8173,
      "▁बजाता": 8174,
      "जिरा": 8175,
      "▁जिरा": 8176,
      "जोड़ा": 8177,
      "▁जोड़ा": 8178,
      "रोजाना": 8179,
      "▁रोजाना": 8180,
      "मियों": 8181,
      "▁मियों": 8182,
      "रूरी": 8183,
      "▁रूरी": 8184,
      "फ्रै": 8185,
      "▁फ्रै": 8186,
      "खोलकर": 8187,
      "▁खोलकर": 8188,
      "फ़ाइल": 8189,
      "▁फ़ाइल": 8190,
      "चिकनी": 8191,
      "▁चिकनी": 8192,
      "फूला": 8193,
      "▁फूला": 8194,
      "समाप्त": 8195,
      "▁समाप्त": 8196,
      "माचिस": 8197,
      "▁माचिस": 8198,
      "फर्नीचर": 8199,
      "▁फर्नीचर": 8200,
      "बल्स": 8201,
      "▁बल्स": 8202,
      "रगड़ा": 8203,
      "▁रगड़ा": 8204,
      "केनिक": 8205,
      "▁केनिक": 8206,
      "लायक": 8207,
      "▁लायक": 8208,
      "पिज्जा": 8209,
      "▁पिज्जा": 8210,
      "चलकर": 8211,
      "▁चलकर": 8212,
      "गोल्फ": 8213,
      "▁गोल्फ": 8214,
      "गेंदें": 8215,
      "▁गेंदें": 8216,
      "हेनरी": 8217,
      "▁हेनरी": 8218,
      "झुका": 8219,
      "▁झुका": 8220,
      "स्केलेट": 8221,
      "▁स्केलेट": 8222,
      "लपेटा": 8223,
      "▁लपेटा": 8224,
      "ंसे": 8225,
      "▁ंसे": 8226,
      "ंकी": 8227,
      "▁ंकी": 8228,
      "दन": 8229,
      "▁दन": 8230,
      "जोड़ी": 8231,
      "▁जोड़ी": 8232,
      "निभा": 8233,
      "▁निभा": 8234,
      "नैपकिन": 8235,
      "▁नैपकिन": 8236,
      "माँगना": 8237,
      "▁माँगना": 8238,
      "चुपके": 8239,
      "▁चुपके": 8240,
      "गार्डन": 8241,
      "▁गार्डन": 8242,
      "संग्रहा": 8243,
      "▁संग्रहा": 8244,
      "छोड़ा": 8245,
      "▁छोड़ा": 8246,
      "शूरवीर": 8247,
      "▁शूरवीर": 8248,
      "स्केलेटन": 8249,
      "▁स्केलेटन": 8250,
      "खुदा": 8251,
      "▁खुदा": 8252,
      "पेरा": 8253,
      "▁पेरा": 8254,
      "म्य": 8255,
      "▁म्य": 8256,
      "बिल्लियों": 8257,
      "▁बिल्लियों": 8258,
      "चलाई": 8259,
      "▁चलाई": 8260,
      "पुस्तक": 8261,
      "▁पुस्तक": 8262,
      "दिखते": 8263,
      "▁दिखते": 8264,
      "डालना": 8265,
      "▁डालना": 8266,
      "संग्रहालय": 8267,
      "▁संग्रहालय": 8268,
      "आशा": 8269,
      "▁आशा": 8270,
      "भविष": 8271,
      "▁भविष": 8272,
      "्र": 8273,
      "▁्र": 8274,
      "स्तु": 8275,
      "▁स्तु": 8276,
      "लालची": 8277,
      "▁लालची": 8278,
      "डिज़ा": 8279,
      "▁डिज़ा": 8280,
      "रिंग": 8281,
      "▁रिंग": 8282,
      "प्रतियो": 8283,
      "▁प्रतियो": 8284,
      "अंधेरी": 8285,
      "▁अंधेरी": 8286,
      "वैगन": 8287,
      "▁वैगन": 8288,
      "पतली": 8289,
      "▁पतली": 8290,
      "रहस्यमयी": 8291,
      "▁रहस्यमयी": 8292,
      "भविष्य": 8293,
      "▁भविष्य": 8294,
      "निकलते": 8295,
      "▁निकलते": 8296,
      "बढ़ते": 8297,
      "▁बढ़ते": 8298,
      "घाटी": 8299,
      "▁घाटी": 8300,
      "डिज़ाइन": 8301,
      "▁डिज़ाइन": 8302,
      "प्रतियोगि": 8303,
      "▁प्रतियोगि": 8304,
      "एसिस": 8305,
      "▁एसिस": 8306,
      "ओएसिस": 8307,
      "▁ओएसिस": 8308,
      "बनी": 8309,
      "▁बनी": 8310,
      "माँगा": 8311,
      "▁माँगा": 8312,
      "म्मे": 8313,
      "▁म्मे": 8314,
      "श्री": 8315,
      "▁श्री": 8316,
      "संभा": 8317,
      "▁संभा": 8318,
      "मारने": 8319,
      "▁मारने": 8320,
      "पहनता": 8321,
      "▁पहनता": 8322,
      "रुचि": 8323,
      "▁रुचि": 8324,
      "इकट्ठी": 8325,
      "▁इकट्ठी": 8326,
      "निराशा": 8327,
      "▁निराशा": 8328,
      "मच्छर": 8329,
      "▁मच्छर": 8330,
      "स्मिथ": 8331,
      "▁स्मिथ": 8332,
      "मंच": 8333,
      "▁मंच": 8334,
      "रग": 8335,
      "▁रग": 8336,
      "सेले": 8337,
      "▁सेले": 8338,
      "कीमत": 8339,
      "▁कीमत": 8340,
      "लित": 8341,
      "▁लित": 8342,
      "वेस्ट": 8343,
      "▁वेस्ट": 8344,
      "जानकर": 8345,
      "▁जानकर": 8346,
      "पिन": 8347,
      "▁पिन": 8348,
      "उछलने": 8349,
      "▁उछलने": 8350,
      "सौम्य": 8351,
      "▁सौम्य": 8352,
      "बेवकूफ": 8353,
      "▁बेवकूफ": 8354,
      "ग्लास": 8355,
      "▁ग्लास": 8356,
      "सुखद": 8357,
      "▁सुखद": 8358,
      "ओली": 8359,
      "▁ओली": 8360,
      "कोय": 8361,
      "▁कोय": 8362,
      "माप": 8363,
      "▁माप": 8364,
      "लाइट": 8365,
      "▁लाइट": 8366,
      "परिणाम": 8367,
      "▁परिणाम": 8368,
      "धोखा": 8369,
      "▁धोखा": 8370,
      "अंगु": 8371,
      "▁अंगु": 8372,
      "युवा": 8373,
      "▁युवा": 8374,
      "अटारी": 8375,
      "▁अटारी": 8376,
      "सस्ता": 8377,
      "▁सस्ता": 8378,
      "गां": 8379,
      "▁गां": 8380,
      "मीमी": 8381,
      "▁मीमी": 8382,
      "खोना": 8383,
      "▁खोना": 8384,
      "ढूंढते": 8385,
      "▁ढूंढते": 8386,
      "सब्जियों": 8387,
      "▁सब्जियों": 8388,
      "आतिश": 8389,
      "▁आतिश": 8390,
      "इयों": 8391,
      "▁इयों": 8392,
      "लकी": 8393,
      "▁लकी": 8394,
      "शतर": 8395,
      "▁शतर": 8396,
      "ल्ली": 8397,
      "▁ल्ली": 8398,
      "बजाई": 8399,
      "▁बजाई": 8400,
      "बजाया": 8401,
      "▁बजाया": 8402,
      "कंघी": 8403,
      "▁कंघी": 8404,
      "प्रतियोगिता": 8405,
      "▁प्रतियोगिता": 8406,
      "शतरंज": 8407,
      "▁शतरंज": 8408,
      "सप्": 8409,
      "▁सप्": 8410,
      "रहेगी": 8411,
      "▁रहेगी": 8412,
      "सैंडी": 8413,
      "▁सैंडी": 8414,
      "जॉय": 8415,
      "▁जॉय": 8416,
      "होंगी": 8417,
      "▁होंगी": 8418,
      "हेलीकॉप्टर": 8419,
      "▁हेलीकॉप्टर": 8420,
      "झकर": 8421,
      "▁झकर": 8422,
      "वश्": 8423,
      "▁वश्": 8424,
      "सराह": 8425,
      "▁सराह": 8426,
      "लाए": 8427,
      "▁लाए": 8428,
      "पाइन": 8429,
      "▁पाइन": 8430,
      "मैकेनिक": 8431,
      "▁मैकेनिक": 8432,
      "मानते": 8433,
      "▁मानते": 8434,
      "बूझकर": 8435,
      "▁बूझकर": 8436,
      "फ्लेक्स": 8437,
      "▁फ्लेक्स": 8438,
      "राज्य": 8439,
      "▁राज्य": 8440,
      "कूलर": 8441,
      "▁कूलर": 8442,
      "जोड़ने": 8443,
      "▁जोड़ने": 8444,
      "स्टीव": 8445,
      "▁स्टीव": 8446,
      "वर्ग": 8447,
      "▁वर्ग": 8448,
      "नाली": 8449,
      "▁नाली": 8450,
      "स्टा": 8451,
      "▁स्टा": 8452,
      "भाषा": 8453,
      "▁भाषा": 8454,
      "म्प": 8455,
      "▁म्प": 8456,
      "विक्रे": 8457,
      "▁विक्रे": 8458,
      "जीभ": 8459,
      "▁जीभ": 8460,
      "चुभो": 8461,
      "▁चुभो": 8462,
      "ड़ियाँ": 8463,
      "▁ड़ियाँ": 8464,
      "रिका": 8465,
      "▁रिका": 8466,
      "नहाने": 8467,
      "▁नहाने": 8468,
      "बाहें": 8469,
      "▁बाहें": 8470,
      "कयाक": 8471,
      "▁कयाक": 8472,
      "प्रतिस्पर्धी": 8473,
      "▁प्रतिस्पर्धी": 8474,
      "छुट्टियों": 8475,
      "▁छुट्टियों": 8476,
      "विक्रेता": 8477,
      "▁विक्रेता": 8478,
      "ऐबी": 8479,
      "▁ऐबी": 8480,
      "वर्": 8481,
      "▁वर्": 8482,
      "वेट": 8483,
      "▁वेट": 8484,
      "पहला": 8485,
      "▁पहला": 8486,
      "धागा": 8487,
      "▁धागा": 8488,
      "ंडों": 8489,
      "▁ंडों": 8490,
      "पूछने": 8491,
      "▁पूछने": 8492,
      "कॉस्ट": 8493,
      "▁कॉस्ट": 8494,
      "पर्दा": 8495,
      "▁पर्दा": 8496,
      "नक्शे": 8497,
      "▁नक्शे": 8498,
      "अं": 8499,
      "▁अं": 8500,
      "ओपेरा": 8501,
      "▁ओपेरा": 8502,
      "महान": 8503,
      "▁महान": 8504,
      "रोका": 8505,
      "▁रोका": 8506,
      "बैटरी": 8507,
      "▁बैटरी": 8508,
      "गोला": 8509,
      "▁गोला": 8510,
      "जाएँगे": 8511,
      "▁जाएँगे": 8512,
      "टैप": 8513,
      "▁टैप": 8514,
      "सर्कल": 8515,
      "▁सर्कल": 8516,
      "सर्दियों": 8517,
      "▁सर्दियों": 8518,
      "सॉसेज": 8519,
      "▁सॉसेज": 8520,
      "बिलकुल": 8521,
      "▁बिलकुल": 8522,
      "डांटा": 8523,
      "▁डांटा": 8524,
      "खुदाई": 8525,
      "▁खुदाई": 8526,
      "म्मेदार": 8527,
      "▁म्मेदार": 8528,
      "सेलेरी": 8529,
      "▁सेलेरी": 8530,
      "रबड़": 8531,
      "▁रबड़": 8532,
      "लोड": 8533,
      "▁लोड": 8534,
      "झाड़ू": 8535,
      "▁झाड़ू": 8536,
      "मिलते": 8537,
      "▁मिलते": 8538,
      "बिताए": 8539,
      "▁बिताए": 8540,
      "भेड़िये": 8541,
      "▁भेड़िये": 8542,
      "स्कर्ट": 8543,
      "▁स्कर्ट": 8544,
      "कॉस्टयूम": 8545,
      "▁कॉस्टयूम": 8546,
      "ओहो": 8547,
      "▁ओहो": 8548,
      "टिल": 8549,
      "▁टिल": 8550,
      "बक्स": 8551,
      "▁बक्स": 8552,
      "विल": 8553,
      "▁विल": 8554,
      "हीरे": 8555,
      "▁हीरे": 8556,
      "त्य": 8557,
      "▁त्य": 8558,
      "फ़िश": 8559,
      "▁फ़िश": 8560,
      "जानबूझकर": 8561,
      "▁जानबूझकर": 8562,
      "बिखर": 8563,
      "▁बिखर": 8564,
      "निकलना": 8565,
      "▁निकलना": 8566,
      "योदय": 8567,
      "▁योदय": 8568,
      "खोलती": 8569,
      "▁खोलती": 8570,
      "सूर्योदय": 8571,
      "▁सूर्योदय": 8572,
      "अड्डे": 8573,
      "▁अड्डे": 8574,
      "पत्रिका": 8575,
      "▁पत्रिका": 8576,
      "गिरी": 8577,
      "▁गिरी": 8578,
      "आश्": 8579,
      "▁आश्": 8580,
      "सरी": 8581,
      "▁सरी": 8582,
      "क्ट्री": 8583,
      "▁क्ट्री": 8584,
      "मापने": 8585,
      "▁मापने": 8586,
      "निकालना": 8587,
      "▁निकालना": 8588,
      "हँसकर": 8589,
      "▁हँसकर": 8590,
      "उंड": 8591,
      "▁उंड": 8592,
      "चं": 8593,
      "▁चं": 8594,
      "जड़ी": 8595,
      "▁जड़ी": 8596,
      "सूखे": 8597,
      "▁सूखे": 8598,
      "रोती": 8599,
      "▁रोती": 8600,
      "पीते": 8601,
      "▁पीते": 8602,
      "कूदी": 8603,
      "▁कूदी": 8604,
      "हंसना": 8605,
      "▁हंसना": 8606,
      "ंधन": 8607,
      "▁ंधन": 8608,
      "समझदार": 8609,
      "▁समझदार": 8610,
      "बरतना": 8611,
      "▁बरतना": 8612,
      "कदमों": 8613,
      "▁कदमों": 8614,
      "लहरें": 8615,
      "▁लहरें": 8616,
      "आंखों": 8617,
      "▁आंखों": 8618,
      "खिंचाव": 8619,
      "▁खिंचाव": 8620,
      "उग": 8621,
      "▁उग": 8622,
      "झंडे": 8623,
      "▁झंडे": 8624,
      "जाई": 8625,
      "▁जाई": 8626,
      "परफ्य": 8627,
      "▁परफ्य": 8628,
      "मैगी": 8629,
      "▁मैगी": 8630,
      "टॉप": 8631,
      "▁टॉप": 8632,
      "शुरु": 8633,
      "▁शुरु": 8634,
      "संतुलित": 8635,
      "▁संतुलित": 8636,
      "ट्वीट": 8637,
      "▁ट्वीट": 8638,
      "परफ्यूम": 8639,
      "▁परफ्यूम": 8640,
      "खट": 8641,
      "▁खट": 8642,
      "थर्": 8643,
      "▁थर्": 8644,
      "वस्तु": 8645,
      "▁वस्तु": 8646,
      "मुस्कुराने": 8647,
      "▁मुस्कुराने": 8648,
      "बियों": 8649,
      "▁बियों": 8650,
      "फ्रॉ": 8651,
      "▁फ्रॉ": 8652,
      "फेयरी": 8653,
      "▁फेयरी": 8654,
      "रेनबो": 8655,
      "▁रेनबो": 8656,
      "मामीटर": 8657,
      "▁मामीटर": 8658,
      "थर्मामीटर": 8659,
      "▁थर्मामीटर": 8660,
      "घर्ष": 8661,
      "▁घर्ष": 8662,
      "सच्": 8663,
      "▁सच्": 8664,
      "सिला": 8665,
      "▁सिला": 8666,
      "किक": 8667,
      "▁किक": 8668,
      "केबिन": 8669,
      "▁केबिन": 8670,
      "कोहरा": 8671,
      "▁कोहरा": 8672,
      "होटल": 8673,
      "▁होटल": 8674,
      "लगो": 8675,
      "▁लगो": 8676,
      "मिलाकर": 8677,
      "▁मिलाकर": 8678,
      "कार्यों": 8679,
      "▁कार्यों": 8680,
      "ढूँढना": 8681,
      "▁ढूँढना": 8682,
      "माँगने": 8683,
      "▁माँगने": 8684,
      "ष्ठ": 8685,
      "▁ष्ठ": 8686,
      "ब्लूबेरी": 8687,
      "▁ब्लूबेरी": 8688,
      "फ्लॉ": 8689,
      "▁फ्लॉ": 8690,
      "संघर्ष": 8691,
      "▁संघर्ष": 8692,
      "मछु": 8693,
      "▁मछु": 8694,
      "ऊँचा": 8695,
      "▁ऊँचा": 8696,
      "पुकारते": 8697,
      "▁पुकारते": 8698,
      "किस्मत": 8699,
      "▁किस्मत": 8700,
      "इजाज": 8701,
      "▁इजाज": 8702,
      "नल": 8703,
      "▁नल": 8704,
      "न्होंने": 8705,
      "▁न्होंने": 8706,
      "सीब": 8707,
      "▁सीब": 8708,
      "पासपोर्ट": 8709,
      "▁पासपोर्ट": 8710,
      "गोद": 8711,
      "▁गोद": 8712,
      "स्नोवी": 8713,
      "▁स्नोवी": 8714,
      "युद्ध": 8715,
      "▁युद्ध": 8716,
      "चांदी": 8717,
      "▁चांदी": 8718,
      "स्कर्स": 8719,
      "▁स्कर्स": 8720,
      "इजाजत": 8721,
      "▁इजाजत": 8722,
      "an": 8723,
      "▁an": 8724,
      "AN": 8725,
      "▁AN": 8726,
      "An": 8727,
      "▁An": 8728,
      "at": 8729,
      "▁at": 8730,
      "AT": 8731,
      "▁AT": 8732,
      "At": 8733,
      "▁At": 8734,
      "in": 8735,
      "▁in": 8736,
      "IN": 8737,
      "▁IN": 8738,
      "In": 8739,
      "▁In": 8740,
      "आटे": 8741,
      "▁आटे": 8742,
      "नायक": 8743,
      "▁नायक": 8744,
      "हाव": 8745,
      "▁हाव": 8746,
      "हाउस": 8747,
      "▁हाउस": 8748,
      "मैच": 8749,
      "▁मैच": 8750,
      "लड़कों": 8751,
      "▁लड़कों": 8752,
      "गेहूँ": 8753,
      "▁गेहूँ": 8754,
      "बुलेंस": 8755,
      "▁बुलेंस": 8756,
      "चमका": 8757,
      "▁चमका": 8758,
      "पंखा": 8759,
      "▁पंखा": 8760,
      "बरत": 8761,
      "▁बरत": 8762,
      "बचाना": 8763,
      "▁बचाना": 8764,
      "खोदना": 8765,
      "▁खोदना": 8766,
      "तेंदु": 8767,
      "▁तेंदु": 8768,
      "थडे": 8769,
      "▁थडे": 8770,
      "लाउ": 8771,
      "▁लाउ": 8772,
      "गाल": 8773,
      "▁गाल": 8774,
      "जिन्होंने": 8775,
      "▁जिन्होंने": 8776,
      "फैक्ट्री": 8777,
      "▁फैक्ट्री": 8778,
      "चुनी": 8779,
      "▁चुनी": 8780,
      "हंसों": 8781,
      "▁हंसों": 8782,
      "बर्थडे": 8783,
      "▁बर्थडे": 8784,
      "घुस": 8785,
      "▁घुस": 8786,
      "चट्टानें": 8787,
      "▁चट्टानें": 8788,
      "बत्तखों": 8789,
      "▁बत्तखों": 8790,
      "ट्यूब": 8791,
      "▁ट्यूब": 8792,
      "फ्रेडी": 8793,
      "▁फ्रेडी": 8794,
      "खतरे": 8795,
      "▁खतरे": 8796,
      "खंभे": 8797,
      "▁खंभे": 8798,
      "जिराफ": 8799,
      "▁जिराफ": 8800,
      "सराहना": 8801,
      "▁सराहना": 8802,
      "अख़": 8803,
      "▁अख़": 8804,
      "सड़": 8805,
      "▁सड़": 8806,
      "लिप": 8807,
      "▁लिप": 8808,
      "लिफ्ट": 8809,
      "▁लिफ्ट": 8810,
      "रखकर": 8811,
      "▁रखकर": 8812,
      "पकड़ता": 8813,
      "▁पकड़ता": 8814,
      "चुने": 8815,
      "▁चुने": 8816,
      "रोज़ी": 8817,
      "▁रोज़ी": 8818,
      "खेतों": 8819,
      "▁खेतों": 8820,
      "सितारों": 8821,
      "▁सितारों": 8822,
      "आज़माने": 8823,
      "▁आज़माने": 8824,
      "दलदल": 8825,
      "▁दलदल": 8826,
      "अख़बार": 8827,
      "▁अख़बार": 8828,
      "कें": 8829,
      "▁कें": 8830,
      "लाती": 8831,
      "▁लाती": 8832,
      "छीनने": 8833,
      "▁छीनने": 8834,
      "चबाना": 8835,
      "▁चबाना": 8836,
      "रसीले": 8837,
      "▁रसीले": 8838,
      "सूँघा": 8839,
      "▁सूँघा": 8840,
      "खबर": 8841,
      "▁खबर": 8842,
      "मुसीब": 8843,
      "▁मुसीब": 8844,
      "टिक": 8845,
      "▁टिक": 8846,
      "ार्क": 8847,
      "▁ार्क": 8848,
      "फ़ु": 8849,
      "▁फ़ु": 8850,
      "छेड़": 8851,
      "▁छेड़": 8852,
      "बिखरे": 8853,
      "▁बिखरे": 8854,
      "टाया": 8855,
      "▁टाया": 8856,
      "डाले": 8857,
      "▁डाले": 8858,
      "लाइब्रे": 8859,
      "▁लाइब्रे": 8860,
      "जूता": 8861,
      "▁जूता": 8862,
      "शेल": 8863,
      "▁शेल": 8864,
      "आखिरी": 8865,
      "▁आखिरी": 8866,
      "कॉफी": 8867,
      "▁कॉफी": 8868,
      "एम्बुलेंस": 8869,
      "▁एम्बुलेंस": 8870,
      "नहाना": 8871,
      "▁नहाना": 8872,
      "प्लान": 8873,
      "▁प्लान": 8874,
      "घिनौना": 8875,
      "▁घिनौना": 8876,
      "डिश": 8877,
      "▁डिश": 8878,
      "हूप": 8879,
      "▁हूप": 8880,
      "सुहाव": 8881,
      "▁सुहाव": 8882,
      "भागती": 8883,
      "▁भागती": 8884,
      "मिलाने": 8885,
      "▁मिलाने": 8886,
      "पंछी": 8887,
      "▁पंछी": 8888,
      "अलार्म": 8889,
      "▁अलार्म": 8890,
      "नाचती": 8891,
      "▁नाचती": 8892,
      "फ़ायर": 8893,
      "▁फ़ायर": 8894,
      "घुमाव": 8895,
      "▁घुमाव": 8896,
      "संगीतकार": 8897,
      "▁संगीतकार": 8898,
      "फिसलन": 8899,
      "▁फिसलन": 8900,
      "लिखने": 8901,
      "▁लिखने": 8902,
      "उपकरणों": 8903,
      "▁उपकरणों": 8904,
      "ईमानदारी": 8905,
      "▁ईमानदारी": 8906,
      "बचने": 8907,
      "▁बचने": 8908,
      "पन्": 8909,
      "▁पन्": 8910,
      "रवि": 8911,
      "▁रवि": 8912,
      "नाइट": 8913,
      "▁नाइट": 8914,
      "चालक": 8915,
      "▁चालक": 8916,
      "बेल": 8917,
      "▁बेल": 8918,
      "सुनो": 8919,
      "▁सुनो": 8920,
      "गिरे": 8921,
      "▁गिरे": 8922,
      "क्रम": 8923,
      "▁क्रम": 8924,
      "ज़्ज़ी": 8925,
      "▁ज़्ज़ी": 8926,
      "लचीला": 8927,
      "▁लचीला": 8928,
      "आभार": 8929,
      "▁आभार": 8930,
      "नू": 8931,
      "▁नू": 8932,
      "पृ": 8933,
      "▁पृ": 8934,
      "पतला": 8935,
      "▁पतला": 8936,
      "रहीं": 8937,
      "▁रहीं": 8938,
      "जाऊंगा": 8939,
      "▁जाऊंगा": 8940,
      "ट्सी": 8941,
      "▁ट्सी": 8942,
      "भूति": 8943,
      "▁भूति": 8944,
      "तैरकर": 8945,
      "▁तैरकर": 8946,
      "बनाएंगे": 8947,
      "▁बनाएंगे": 8948,
      "कद्र": 8949,
      "▁कद्र": 8950,
      "पहेली": 8951,
      "▁पहेली": 8952,
      "मुसीबत": 8953,
      "▁मुसीबत": 8954,
      "घोड़": 8955,
      "▁घोड़": 8956,
      "लिखे": 8957,
      "▁लिखे": 8958,
      "बाव": 8959,
      "▁बाव": 8960,
      "प्याज": 8961,
      "▁प्याज": 8962,
      "झूलते": 8963,
      "▁झूलते": 8964,
      "गिनने": 8965,
      "▁गिनने": 8966,
      "उचका": 8967,
      "▁उचका": 8968,
      "दस्ताने": 8969,
      "▁दस्ताने": 8970,
      "पहचान": 8971,
      "▁पहचान": 8972,
      "सप्ता": 8973,
      "▁सप्ता": 8974,
      "घोड़ों": 8975,
      "▁घोड़ों": 8976,
      "आधा": 8977,
      "▁आधा": 8978,
      "छोर": 8979,
      "▁छोर": 8980,
      "ूर": 8981,
      "▁ूर": 8982,
      "स्य": 8983,
      "▁स्य": 8984,
      "क्की": 8985,
      "▁क्की": 8986,
      "प्रश्न": 8987,
      "▁प्रश्न": 8988,
      "बताता": 8989,
      "▁बताता": 8990,
      "निकालीं": 8991,
      "▁निकालीं": 8992,
      "गरम": 8993,
      "▁गरम": 8994,
      "चूक": 8995,
      "▁चूक": 8996,
      "डिली": 8997,
      "▁डिली": 8998,
      "हिचकि": 8999,
      "▁हिचकि": 9000,
      "खोलता": 9001,
      "▁खोलता": 9002,
      "घुमाने": 9003,
      "▁घुमाने": 9004,
      "खिलाना": 9005,
      "▁खिलाना": 9006,
      "बावजूद": 9007,
      "▁बावजूद": 9008,
      "रफ़्": 9009,
      "▁रफ़्": 9010,
      "तेल": 9011,
      "▁तेल": 9012,
      "खाद्य": 9013,
      "▁खाद्य": 9014,
      "जिम्मेदार": 9015,
      "▁जिम्मेदार": 9016,
      "ब्स": 9017,
      "▁ब्स": 9018,
      "पढ़ी": 9019,
      "▁पढ़ी": 9020,
      "आइना": 9021,
      "▁आइना": 9022,
      "लौटी": 9023,
      "▁लौटी": 9024,
      "मचाते": 9025,
      "▁मचाते": 9026,
      "जिनके": 9027,
      "▁जिनके": 9028,
      "पिघल": 9029,
      "▁पिघल": 9030,
      "फ़ुटबॉल": 9031,
      "▁फ़ुटबॉल": 9032,
      "io": 9033,
      "▁io": 9034,
      "IO": 9035,
      "▁IO": 9036,
      "Io": 9037,
      "▁Io": 9038,
      "sl": 9039,
      "▁sl": 9040,
      "SL": 9041,
      "▁SL": 9042,
      "Sl": 9043,
      "▁Sl": 9044,
      "छड़ों": 9045,
      "▁छड़ों": 9046,
      "फंसा": 9047,
      "▁फंसा": 9048,
      "भि": 9049,
      "▁भि": 9050,
      "मस": 9051,
      "▁मस": 9052,
      "ौहार": 9053,
      "▁ौहार": 9054,
      "लिटिल": 9055,
      "▁लिटिल": 9056,
      "राजी": 9057,
      "▁राजी": 9058,
      "नामों": 9059,
      "▁नामों": 9060,
      "मानता": 9061,
      "▁मानता": 9062,
      "टोकरे": 9063,
      "▁टोकरे": 9064,
      "चढ़ता": 9065,
      "▁चढ़ता": 9066,
      "झूलने": 9067,
      "▁झूलने": 9068,
      "फेंकने": 9069,
      "▁फेंकने": 9070,
      "व्रूम": 9071,
      "▁व्रूम": 9072,
      "स्टीक": 9073,
      "▁स्टीक": 9074,
      "सिक्कों": 9075,
      "▁सिक्कों": 9076,
      "बास्केटबॉल": 9077,
      "▁बास्केटबॉल": 9078,
      "सामग्रियों": 9079,
      "▁सामग्रियों": 9080,
      "आज़ाद": 9081,
      "▁आज़ाद": 9082,
      "त्यौहार": 9083,
      "▁त्यौहार": 9084,
      "खटख": 9085,
      "▁खटख": 9086,
      "di": 9087,
      "▁di": 9088,
      "DI": 9089,
      "▁DI": 9090,
      "Di": 9091,
      "▁Di": 9092,
      "hin": 9093,
      "▁hin": 9094,
      "HIN": 9095,
      "▁HIN": 9096,
      "Hin": 9097,
      "▁Hin": 9098,
      "ran": 9099,
      "▁ran": 9100,
      "RAN": 9101,
      "▁RAN": 9102,
      "Ran": 9103,
      "▁Ran": 9104,
      "tran": 9105,
      "▁tran": 9106,
      "TRAN": 9107,
      "▁TRAN": 9108,
      "Tran": 9109,
      "▁Tran": 9110,
      "थकान": 9111,
      "▁थकान": 9112,
      "फिश": 9113,
      "▁फिश": 9114,
      "लाता": 9115,
      "▁लाता": 9116,
      "खुली": 9117,
      "▁खुली": 9118,
      "बेट्सी": 9119,
      "▁बेट्सी": 9120,
      "रूबी": 9121,
      "▁रूबी": 9122,
      "बीन": 9123,
      "▁बीन": 9124,
      "बोलने": 9125,
      "▁बोलने": 9126,
      "ड्ड": 9127,
      "▁ड्ड": 9128,
      "डालती": 9129,
      "▁डालती": 9130,
      "गुजरते": 9131,
      "▁गुजरते": 9132,
      "फॉर्म": 9133,
      "▁फॉर्म": 9134,
      "सुपरहीरो": 9135,
      "▁सुपरहीरो": 9136,
      "atio": 9137,
      "▁atio": 9138,
      "ATIO": 9139,
      "▁ATIO": 9140,
      "Atio": 9141,
      "▁Atio": 9142,
      "slatio": 9143,
      "▁slatio": 9144,
      "SLATIO": 9145,
      "▁SLATIO": 9146,
      "Slatio": 9147,
      "▁Slatio": 9148,
      "hindi": 9149,
      "▁hindi": 9150,
      "HINDI": 9151,
      "▁HINDI": 9152,
      "Hindi": 9153,
      "▁Hindi": 9154,
      "translatio": 9155,
      "▁translatio": 9156,
      "TRANSLATIO": 9157,
      "▁TRANSLATIO": 9158,
      "Translatio": 9159,
      "▁Translatio": 9160,
      "translation": 9161,
      "▁translation": 9162,
      "TRANSLATION": 9163,
      "▁TRANSLATION": 9164,
      "Translation": 9165,
      "▁Translation": 9166,
      "ओगे": 9167,
      "▁ओगे": 9168,
      "तमी": 9169,
      "▁तमी": 9170,
      "थपथ": 9171,
      "▁थपथ": 9172,
      "हू": 9173,
      "▁हू": 9174,
      "स्विच": 9175,
      "▁स्विच": 9176,
      "वेफल": 9177,
      "▁वेफल": 9178,
      "कहानियों": 9179,
      "▁कहानियों": 9180,
      "ट्रू": 9181,
      "▁ट्रू": 9182,
      "डेसर्": 9183,
      "▁डेसर्": 9184,
      "धुआँ": 9185,
      "▁धुआँ": 9186,
      "व्ही": 9187,
      "▁व्ही": 9188,
      "कैमरा": 9189,
      "▁कैमरा": 9190,
      "झोंका": 9191,
      "▁झोंका": 9192,
      "डेसर्ट": 9193,
      "▁डेसर्ट": 9194,
      "मशह": 9195,
      "▁मशह": 9196,
      "नाले": 9197,
      "▁नाले": 9198,
      "देखेंगे": 9199,
      "▁देखेंगे": 9200,
      "ल्ड": 9201,
      "▁ल्ड": 9202,
      "कूदे": 9203,
      "▁कूदे": 9204,
      "हंसकर": 9205,
      "▁हंसकर": 9206,
      "बिताते": 9207,
      "▁बिताते": 9208,
      "बनाएगा": 9209,
      "▁बनाएगा": 9210,
      "मोटे": 9211,
      "▁मोटे": 9212,
      "उल्का": 9213,
      "▁उल्का": 9214,
      "जोड़ना": 9215,
      "▁जोड़ना": 9216,
      "फूलगो": 9217,
      "▁फूलगो": 9218,
      "क्यूब": 9219,
      "▁क्यूब": 9220,
      "निशाना": 9221,
      "▁निशाना": 9222,
      "रफ़्तार": 9223,
      "▁रफ़्तार": 9224,
      "मशहूर": 9225,
      "▁मशहूर": 9226,
      "ंटे": 9227,
      "▁ंटे": 9228,
      "ईंधन": 9229,
      "▁ईंधन": 9230,
      "उम्र": 9231,
      "▁उम्र": 9232,
      "तिल": 9233,
      "▁तिल": 9234,
      "षण": 9235,
      "▁षण": 9236,
      "चेल": 9237,
      "▁चेल": 9238,
      "द्धा": 9239,
      "▁द्धा": 9240,
      "मानना": 9241,
      "▁मानना": 9242,
      "गोर": 9243,
      "▁गोर": 9244,
      "मिलेंगे": 9245,
      "▁मिलेंगे": 9246,
      "कैच": 9247,
      "▁कैच": 9248,
      "बरतनी": 9249,
      "▁बरतनी": 9250,
      "जेलीफ़िश": 9251,
      "▁जेलीफ़िश": 9252,
      "चींटियों": 9253,
      "▁चींटियों": 9254,
      "मोटरसाइकिल": 9255,
      "▁मोटरसाइकिल": 9256,
      "चिड़चिड़ा": 9257,
      "▁चिड़चिड़ा": 9258,
      "सिलाई": 9259,
      "▁सिलाई": 9260,
      "फूलगोभी": 9261,
      "▁फूलगोभी": 9262,
      "सको": 9263,
      "▁सको": 9264,
      "हफ़्": 9265,
      "▁हफ़्": 9266,
      "यान": 9267,
      "▁यान": 9268,
      "राष्": 9269,
      "▁राष्": 9270,
      "पीच": 9271,
      "▁पीच": 9272,
      "गर्दन": 9273,
      "▁गर्दन": 9274,
      "ड्स": 9275,
      "▁ड्स": 9276,
      "मिलाना": 9277,
      "▁मिलाना": 9278,
      "लॉन": 9279,
      "▁लॉन": 9280,
      "बदतमी": 9281,
      "▁बदतमी": 9282,
      "स्टैम्प": 9283,
      "▁स्टैम्प": 9284,
      "राष्ट्र": 9285,
      "▁राष्ट्र": 9286,
      "अक्ष": 9287,
      "▁अक्ष": 9288,
      "पजल": 9289,
      "▁पजल": 9290,
      "व्स": 9291,
      "▁व्स": 9292,
      "निश": 9293,
      "▁निश": 9294,
      "मुस्कुराकर": 9295,
      "▁मुस्कुराकर": 9296,
      "पेस्टल": 9297,
      "▁पेस्टल": 9298,
      "गुप्त": 9299,
      "▁गुप्त": 9300,
      "वादन": 9301,
      "▁वादन": 9302,
      "डॉग": 9303,
      "▁डॉग": 9304,
      "क्रॉ": 9305,
      "▁क्रॉ": 9306,
      "ग्ग": 9307,
      "▁ग्ग": 9308,
      "बर्ट": 9309,
      "▁बर्ट": 9310,
      "कॉर्न": 9311,
      "▁कॉर्न": 9312,
      "स्क्रू": 9313,
      "▁स्क्रू": 9314,
      "बनाएगी": 9315,
      "▁बनाएगी": 9316,
      "घुमाते": 9317,
      "▁घुमाते": 9318,
      "देशों": 9319,
      "▁देशों": 9320,
      "कांपने": 9321,
      "▁कांपने": 9322,
      "नाचा": 9323,
      "▁नाचा": 9324,
      "स्विंग": 9325,
      "▁स्विंग": 9326,
      "स्प्रि": 9327,
      "▁स्प्रि": 9328,
      "गाए": 9329,
      "▁गाए": 9330,
      "बेकार": 9331,
      "▁बेकार": 9332,
      "डरते": 9333,
      "▁डरते": 9334,
      "धान": 9335,
      "▁धान": 9336,
      "योद्धा": 9337,
      "▁योद्धा": 9338,
      "नावों": 9339,
      "▁नावों": 9340,
      "भुलाया": 9341,
      "▁भुलाया": 9342,
      "पहाड़ों": 9343,
      "▁पहाड़ों": 9344,
      "लेंडर": 9345,
      "▁लेंडर": 9346,
      "मुलायम": 9347,
      "▁मुलायम": 9348,
      "बत्तखें": 9349,
      "▁बत्तखें": 9350,
      "अंदा": 9351,
      "▁अंदा": 9352,
      "फँ": 9353,
      "▁फँ": 9354,
      "फार्म": 9355,
      "▁फार्म": 9356,
      "बटर": 9357,
      "▁बटर": 9358,
      "लेबल": 9359,
      "▁लेबल": 9360,
      "पेडल": 9361,
      "▁पेडल": 9362,
      "बातों": 9363,
      "▁बातों": 9364,
      "खोजते": 9365,
      "▁खोजते": 9366,
      "चढ़ा": 9367,
      "▁चढ़ा": 9368,
      "गिरते": 9369,
      "▁गिरते": 9370,
      "ग्स": 9371,
      "▁ग्स": 9372,
      "चोटी": 9373,
      "▁चोटी": 9374,
      "बढ़ती": 9375,
      "▁बढ़ती": 9376,
      "जाओगे": 9377,
      "▁जाओगे": 9378,
      "गलतियाँ": 9379,
      "▁गलतियाँ": 9380,
      "ज़ेबरा": 9381,
      "▁ज़ेबरा": 9382,
      "शुरुआत": 9383,
      "▁शुरुआत": 9384,
      "ईर्ष": 9385,
      "▁ईर्ष": 9386,
      "खनि": 9387,
      "▁खनि": 9388,
      "सफु": 9389,
      "▁सफु": 9390,
      "परो": 9391,
      "▁परो": 9392,
      "रेमी": 9393,
      "▁रेमी": 9394,
      "सुन्": 9395,
      "▁सुन्": 9396,
      "तोते": 9397,
      "▁तोते": 9398,
      "बैक": 9399,
      "▁बैक": 9400,
      "ट्रंक": 9401,
      "▁ट्रंक": 9402,
      "यूनि": 9403,
      "▁यूनि": 9404,
      "समझती": 9405,
      "▁समझती": 9406,
      "उड़ाने": 9407,
      "▁उड़ाने": 9408,
      "छिपाना": 9409,
      "▁छिपाना": 9410,
      "फैलाए": 9411,
      "▁फैलाए": 9412,
      "समाधान": 9413,
      "▁समाधान": 9414,
      "हथौ": 9415,
      "▁हथौ": 9416,
      "ईर्ष्या": 9417,
      "▁ईर्ष्या": 9418,
      "अली": 9419,
      "▁अली": 9420,
      "कही": 9421,
      "▁कही": 9422,
      "चर्": 9423,
      "▁चर्": 9424,
      "फर्क": 9425,
      "▁फर्क": 9426,
      "काल": 9427,
      "▁काल": 9428,
      "लेज": 9429,
      "▁लेज": 9430,
      "सीने": 9431,
      "▁सीने": 9432,
      "मानती": 9433,
      "▁मानती": 9434,
      "चूही": 9435,
      "▁चूही": 9436,
      "सामग्री": 9437,
      "▁सामग्री": 9438,
      "डैन": 9439,
      "▁डैन": 9440,
      "युक्": 9441,
      "▁युक्": 9442,
      "थैले": 9443,
      "▁थैले": 9444,
      "न्याय": 9445,
      "▁न्याय": 9446,
      "हेयरकट": 9447,
      "▁हेयरकट": 9448,
      "फली": 9449,
      "▁फली": 9450,
      "किये": 9451,
      "▁किये": 9452,
      "तीनों": 9453,
      "▁तीनों": 9454,
      "जेमी": 9455,
      "▁जेमी": 9456,
      "सिकु": 9457,
      "▁सिकु": 9458,
      "बरतने": 9459,
      "▁बरतने": 9460,
      "विनती": 9461,
      "▁विनती": 9462,
      "बाँटना": 9463,
      "▁बाँटना": 9464,
      "उठता": 9465,
      "▁उठता": 9466,
      "काँटे": 9467,
      "▁काँटे": 9468,
      "तिर": 9469,
      "▁तिर": 9470,
      "शार्क": 9471,
      "▁शार्क": 9472,
      "हल": 9473,
      "▁हल": 9474,
      "भीड़": 9475,
      "▁भीड़": 9476,
      "क्षे": 9477,
      "▁क्षे": 9478,
      "ख़राब": 9479,
      "▁ख़राब": 9480,
      "मॉडल": 9481,
      "▁मॉडल": 9482,
      "दानव": 9483,
      "▁दानव": 9484,
      "प्लीज": 9485,
      "▁प्लीज": 9486,
      "ंघ": 9487,
      "▁ंघ": 9488,
      "धारा": 9489,
      "▁धारा": 9490,
      "रजाई": 9491,
      "▁रजाई": 9492,
      "खेलों": 9493,
      "▁खेलों": 9494,
      "प्पो": 9495,
      "▁प्पो": 9496,
      "महंगी": 9497,
      "▁महंगी": 9498,
      "खोदा": 9499,
      "▁खोदा": 9500,
      "गेहूं": 9501,
      "▁गेहूं": 9502,
      "पैच": 9503,
      "▁पैच": 9504,
      "हिप्पो": 9505,
      "▁हिप्पो": 9506,
      "रोशन": 9507,
      "▁रोशन": 9508,
      "धुंध": 9509,
      "▁धुंध": 9510,
      "अभिया": 9511,
      "▁अभिया": 9512,
      "हॉकी": 9513,
      "▁हॉकी": 9514,
      "चिट्ठ": 9515,
      "▁चिट्ठ": 9516,
      "अभिवादन": 9517,
      "▁अभिवादन": 9518,
      "गोरिल्ला": 9519,
      "▁गोरिल्ला": 9520,
      "घन": 9521,
      "▁घन": 9522,
      "झपका": 9523,
      "▁झपका": 9524,
      "टूल": 9525,
      "▁टूल": 9526,
      "बानी": 9527,
      "▁बानी": 9528,
      "त्री": 9529,
      "▁त्री": 9530,
      "तोड़े": 9531,
      "▁तोड़े": 9532,
      "मेक": 9533,
      "▁मेक": 9534,
      "प्यास": 9535,
      "▁प्यास": 9536,
      "गर्मियों": 9537,
      "▁गर्मियों": 9538,
      "ब्रेड": 9539,
      "▁ब्रेड": 9540,
      "प्रस": 9541,
      "▁प्रस": 9542,
      "शाखाएँ": 9543,
      "▁शाखाएँ": 9544,
      "शून्य": 9545,
      "▁शून्य": 9546,
      "सुलझाने": 9547,
      "▁सुलझाने": 9548,
      "उपलब्ध": 9549,
      "▁उपलब्ध": 9550,
      "फ्रैंक": 9551,
      "▁फ्रैंक": 9552,
      "अंगुली": 9553,
      "▁अंगुली": 9554,
      "सुन्दर": 9555,
      "▁सुन्दर": 9556,
      "इंग": 9557,
      "▁इंग": 9558,
      "भगा": 9559,
      "▁भगा": 9560,
      "हैंगर": 9561,
      "▁हैंगर": 9562,
      "रेल": 9563,
      "▁रेल": 9564,
      "मुक्त": 9565,
      "▁मुक्त": 9566,
      "सींग": 9567,
      "▁सींग": 9568,
      "खोया": 9569,
      "▁खोया": 9570,
      "गुड़ियों": 9571,
      "▁गुड़ियों": 9572,
      "भूलेगा": 9573,
      "▁भूलेगा": 9574,
      "रुख": 9575,
      "▁रुख": 9576,
      "धुआं": 9577,
      "▁धुआं": 9578,
      "लोमड़े": 9579,
      "▁लोमड़े": 9580,
      "सम्मानजनक": 9581,
      "▁सम्मानजनक": 9582,
      "ट्यूटर": 9583,
      "▁ट्यूटर": 9584,
      "वॉशर": 9585,
      "▁वॉशर": 9586,
      "मेकअप": 9587,
      "▁मेकअप": 9588,
      "प्रसन्न": 9589,
      "▁प्रसन्न": 9590,
      "पलों": 9591,
      "▁पलों": 9592,
      "हुक": 9593,
      "▁हुक": 9594,
      "ताले": 9595,
      "▁ताले": 9596,
      "स्वर": 9597,
      "▁स्वर": 9598,
      "कियाँ": 9599,
      "▁कियाँ": 9600,
[...]
