{
  "version": "1.0",
  "truncation": null,
  "padding": null,
  "added_tokens": [
    {
      "id": 0,
      "content": "<|PAD|>",
      "single_word": false,
      "lstrip": false,
      "rstrip": false,
      "normalized": false,
      "special": true
    },
    {
      "id": 1,
      "content": "<|BOS|>",
      "single_word": false,
      "lstrip": false,
      "rstrip": false,
      "normalized": false,
      "special": true
    },
    {
      "id": 2,
      "content": "<|EOS|>",
      "single_word": false,
      "lstrip": false,
      "rstrip": false,
      "normalized": false,
      "special": true
    },
    {
      "id": 3,
      "content": "<|UNK|>",
      "single_word": false,
      "lstrip": false,
      "rstrip": false,
      "normalized": false,
      "special": true
    }
  ],
  "normalizer": {
    "type": "NFKC"
  },
  "pre_tokenizer": {
    "type": "Sequence",
    "pretokenizers": [
      {
        "type": "UnicodeScripts"
      },
      {
        "type": "Digits",
        "individual_digits": true
      },
      {
        "type": "Metaspace",
        "replacement": "▁",
        "prepend_scheme": "never",
        "split": true
      }
    ]
  },
  "post_processor": {
    "type": "TemplateProcessing",
    "single": [
      {
        "SpecialToken": {
          "id": "<|BOS|>",
          "type_id": 0
        }
      },
      {
        "Sequence": {
          "id": "A",
          "type_id": 0
        }
      },
      {
        "SpecialToken": {
          "id": "<|EOS|>",
          "type_id": 0
        }
      }
    ],
    "pair": [
      {
        "SpecialToken": {
          "id": "<|BOS|>",
          "type_id": 0
        }
      },
      {
        "Sequence": {
          "id": "A",
          "type_id": 0
        }
      },
      {
        "SpecialToken": {
          "id": "<|EOS|>",
          "type_id": 0
        }
      },
      {
        "SpecialToken": {
          "id": "<|BOS|>",
          "type_id": 1
        }
      },
      {
        "Sequence": {
          "id": "B",
          "type_id": 1
        }
      },
      {
        "SpecialToken": {
          "id": "<|EOS|>",
          "type_id": 1
        }
      }
    ],
    "special_tokens": {
      "<|BOS|>": {
        "id": "<|BOS|>",
        "ids": [
          1
        ],
        "tokens": [
          "<|BOS|>"
        ]
      },
      "<|EOS|>": {
        "id": "<|EOS|>",
        "ids": [
          2
        ],
        "tokens": [
          "<|EOS|>"
        ]
      }
    }
  },
  "decoder": {
    "type": "Metaspace",
    "replacement": "▁",
    "prepend_scheme": "never",
    "split": true
  },
  "model": {
    "type": "BPE",
    "dropout": null,
    "unk_token": "<|UNK|>",
    "continuing_subword_prefix": null,
    "end_of_word_suffix": null,
    "fuse_unk": false,
    "byte_fallback": false,
    "ignore_merges": false,
    "vocab": {
      "<|PAD|>": 0,
      "<|BOS|>": 1,
      "<|EOS|>": 2,
      "<|UNK|>": 3,
      "\n": 4,
      "!": 5,
      "\"": 6,
      "$": 7,
      "%": 8,
      "'": 9,
      "(": 10,
      ")": 11,
      "*": 12,
      "+": 13,
      ",": 14,
      "-": 15,
      ".": 16,
      "/": 17,
      "0": 18,
      "1": 19,
      "2": 20,
      "3": 21,
      "4": 22,
      "5": 23,
      "6": 24,
      "7": 25,
      "8": 26,
      "9": 27,
      ":": 28,
      ";": 29,
      "<": 30,
      ">": 31,
      "?": 32,
      "A": 33,
      "B": 34,
      "C": 35,
      "D": 36,
      "E": 37,
      "G": 38,
      "H": 39,
      "I": 40,
      "K": 41,
      "M": 42,
      "N": 43,
      "O": 44,
      "P": 45,
      "R": 46,
      "S": 47,
      "T": 48,
      "U": 49,
      "X": 50,
      "_": 51,
      "a": 52,
      "b": 53,
      "c": 54,
      "d": 55,
      "e": 56,
      "f": 57,
      "g": 58,
      "h": 59,
      "i": 60,
      "j": 61,
      "k": 62,
      "l": 63,
      "m": 64,
      "n": 65,
      "o": 66,
      "p": 67,
      "r": 68,
      "s": 69,
      "t": 70,
      "u": 71,
      "w": 72,
      "x": 73,
      "y": 74,
      "z": 75,
      "|": 76,
      "ँ": 77,
      "ं": 78,
      "ः": 79,
      "अ": 80,
      "आ": 81,
      "इ": 82,
      "ई": 83,
      "उ": 84,
      "ऊ": 85,
      "ऋ": 86,
      "ए": 87,
      "ऐ": 88,
      "ऑ": 89,
      "ओ": 90,
      "औ": 91,
      "क": 92,
      "ख": 93,
      "ग": 94,
      "घ": 95,
      "च": 96,
      "छ": 97,
      "ज": 98,
      "झ": 99,
      "ञ": 100,
      "ट": 101,
      "ठ": 102,
      "ड": 103,
      "ढ": 104,
      "ण": 105,
      "त": 106,
      "थ": 107,
      "द": 108,
      "ध": 109,
      "न": 110,
      "प": 111,
      "फ": 112,
      "ब": 113,
      "भ": 114,
      "म": 115,
      "य": 116,
      "र": 117,
      "ल": 118,
      "व": 119,
      "श": 120,
      "ष": 121,
      "स": 122,
      "ह": 123,
      "़": 124,
      "ा": 125,
      "ि": 126,
      "ी": 127,
      "ु": 128,
      "ू": 129,
      "ृ": 130,
      "े": 131,
      "ै": 132,
      "ॉ": 133,
      "ो": 134,
      "ौ": 135,
      "्": 136,
      "।": 137,
      "▁": 138,
      "。": 139,
      "ア": 140,
      "イ": 141,
      "デ": 142,
      "▁क": 143,
      "ने": 144,
      "▁ह": 145,
      "▁स": 146,
      "▁ब": 147,
      "▁म": 148,
      "▁प": 149,
      "▁थ": 150,
      "और": 151,
      "▁और": 152,
      "▁द": 153,
      "या": 154,
      "उस": 155,
      "एक": 156,
      "▁ल": 157,
      "▁है": 158,
      "ना": 159,
      "ें": 160,
      "▁अ": 161,
      "वह": 162,
      "▁ज": 163,
      "ड़": 164,
      "▁ख": 165,
      "\n\n": 166,
      "▁था": 167,
      "ार": 168,
      "▁एक": 169,
      "▁ग": 170,
      "▁कर": 171,
      "▁को": 172,
      "▁र": 173,
      "▁च": 174,
      "▁कि": 175,
      "ता": 176,
      "ों": 177,
      "▁उस": 178,
      "▁के": 179,
      "िल": 180,
      "ते": 181,
      "▁ने": 182,
      "▁न": 183,
      "▁से": 184,
      "हा": 185,
      "▁थी": 186,
      "▁में": 187,
      "▁अप": 188,
      "िन": 189,
      "▁की": 190,
      "ुत": 191,
      "ही": 192,
      "स्": 193,
      "।\n\n": 194,
      "ती": 195,
      "▁आ": 196,
      "▁बह": 197,
      "नी": 198,
      "ले": 199,
      "▁दे": 200,
      "न्": 201,
      "▁बहुत": 202,
      "▁हो": 203,
      "▁उ": 204,
      "ाह": 205,
      "▁त": 206,
      "उसने": 207,
      "▁\"": 208,
      "की": 209,
      "▁वह": 210,
      "िया": 211,
      "वे": 212,
      "ाँ": 213,
      "िए": 214,
      "हीं": 215,
      "ला": 216,
      "▁हैं": 217,
      "▁देख": 218,
      "रा": 219,
      "▁सा": 220,
      "क्": 221,
      "▁कहा": 222,
      "▁नहीं": 223,
      "ज़": 224,
      "▁भ": 225,
      "▁पर": 226,
      "▁का": 227,
      "ंद": 228,
      "वा": 229,
      "न्ह": 230,
      "▁जा": 231,
      "िली": 232,
      "के": 233,
      "▁फ": 234,
      "का": 235,
      "से": 236,
      "▁उसे": 237,
      "▁हु": 238,
      "▁पा": 239,
      "यह": 240,
      "▁अपने": 241,
      "ुम": 242,
      "▁छ": 243,
      "ेल": 244,
      "किन": 245,
      "▁चाह": 246,
      "▁खु": 247,
      "िर": 248,
      "मी": 249,
      "गा": 250,
      "ली": 251,
      "▁इ": 252,
      "लेकिन": 253,
      "▁लिए": 254,
      "▁थे": 255,
      "▁माँ": 256,
      "रे": 257,
      "ोट": 258,
      "\"\n\n": 259,
      "▁ट": 260,
      "▁दिन": 261,
      "र्": 262,
      "▁खेल": 263,
      "▁अपनी": 264,
      "▁खुश": 265,
      "▁सक": 266,
      "▁दो": 267,
      "्या": 268,
      "ोंने": 269,
      "▁गया": 270,
      "न्होंने": 271,
      "▁बार": 272,
      "▁साथ": 273,
      "लिली": 274,
      "▁किया": 275,
      "▁श": 276,
      "▁देखा": 277,
      "कर": 278,
      "ूस": 279,
      "▁दिया": 280,
      "संद": 281,
      "▁पसंद": 282,
      "▁रह": 283,
      "्र": 284,
      "ड़ा": 285,
      "स्त": 286,
      "▁घ": 287,
      "▁लड़": 288,
      "भी": 289,
      "ैं": 290,
      "▁स्": 291,
      "च्": 292,
      "▁ड": 293,
      "▁कु": 294,
      "गी": 295,
      "उन्होंने": 296,
      "ित": 297,
      "री": 298,
      "▁सु": 299,
      "▁भी": 300,
      "▁छोट": 301,
      "त्": 302,
      "▁उसने": 303,
      "▁मु": 304,
      "ान": 305,
      "▁गई": 306,
      "▁हुए": 307,
      "▁कुछ": 308,
      "▁दोस्त": 309,
      "खा": 310,
      "छा": 311,
      "▁बा": 312,
      "▁लगा": 313,
      "▁रहा": 314,
      "ेन": 315,
      "▁मह": 316,
      "कु": 317,
      "▁\n\n": 318,
      "▁पू": 319,
      "▁ना": 320,
      "ंग": 321,
      "▁वे": 322,
      "दा": 323,
      "▁तुम": 324,
      "न्हें": 325,
      "▁पास": 326,
      "िस": 327,
      "टि": 328,
      "▁करना": 329,
      "तो": 330,
      "▁ले": 331,
      "।\"\n\n": 332,
      "तुम": 333,
      "▁यह": 334,
      "▁सी": 335,
      "ार्": 336,
      "▁फिर": 337,
      "▁पह": 338,
      "ड़ी": 339,
      "्ह": 340,
      "यों": 341,
      "िश": 342,
      "ॉम": 343,
      "▁हम": 344,
      "▁मुस्": 345,
      "ंत": 346,
      "▁रही": 347,
      "ाल": 348,
      "▁करने": 349,
      "▁अच्": 350,
      "▁वा": 351,
      "▁लड़की": 352,
      "▁ओ": 353,
      "मैं": 354,
      "ड़े": 355,
      "▁खा": 356,
      "▁मज़": 357,
      "कुरा": 358,
      "सूस": 359,
      "▁मुस्कुरा": 360,
      "▁महसूस": 361,
      "जब": 362,
      "क्ष": 363,
      "चे": 364,
      "▁सम": 365,
      "▁लिली": 366,
      "ूर": 367,
      "▁रहे": 368,
      "▁रो": 369,
      "▁करते": 370,
      "▁ओर": 371,
      "▁घर": 372,
      "▁बना": 373,
      "दद": 374,
      "िक": 375,
      "▁मदद": 376,
      "!\"": 377,
      "िल्": 378,
      "ुर": 379,
      "सा": 380,
      "चा": 381,
      "इस": 382,
      "▁उसके": 383,
      "दार": 384,
      "▁खेलना": 385,
      "शा": 386,
      "ूँ": 387,
      "▁खिल": 388,
      "▁इसे": 389,
      "▁उसकी": 390,
      "▁उन्हें": 391,
      "क्स": 392,
      "▁कह": 393,
      "▁जो": 394,
      "ल्": 395,
      "▁बड़ा": 396,
      "▁छोटी": 397,
      "▁क्या": 398,
      "ारा": 399,
      "▁ध": 400,
      "नों": 401,
      "ंदर": 402,
      "▁व": 403,
      "िला": 404,
      "▁हुआ": 405,
      "▁ही": 406,
      "▁खिलौ": 407,
      "▁सकते": 408,
      "▁खो": 409,
      "▁गए": 410,
      "▁करती": 411,
      "झे": 412,
      "कि": 413,
      "ारी": 414,
      "▁बाह": 415,
      "▁दौ": 416,
      "ढ़": 417,
      "▁नाम": 418,
      "पा": 419,
      "वाद": 420,
      "▁मज़े": 421,
      "हम": 422,
      "▁ची": 423,
      "▁जान": 424,
      "▁तुम्ह": 425,
      "▁पूछा": 426,
      "▁चाहता": 427,
      "टॉम": 428,
      "▁बाहर": 429,
      "▁प्या": 430,
      "▁जिस": 431,
      "।\n\n\"": 432,
      "▁लिया": 433,
      "गे": 434,
      "माँ": 435,
      "▁उन": 436,
      "।\"": 437,
      "▁मा": 438,
      "▁सो": 439,
      "▁दु": 440,
      "▁दि": 441,
      "मु": 442,
      "ठी": 443,
      "म्": 444,
      "्ट": 445,
      "ार्क": 446,
      "जा": 447,
      "त्स": 448,
      "▁क्": 449,
      "सी": 450,
      "उसकी": 451,
      "▁चाहती": 452,
      "▁सकता": 453,
      "▁हूँ": 454,
      "▁पे": 455,
      "▁उत्स": 456,
      "▁तक": 457,
      "▁चाहिए": 458,
      "▁सब": 459,
      "ूल": 460,
      "▁करता": 461,
      "ुरू": 462,
      "टिमी": 463,
      "▁रख": 464,
      "मुझे": 465,
      "▁सकती": 466,
      "▁शुरू": 467,
      "हाँ": 468,
      "▁मे": 469,
      "!\"\n\n": 470,
      "फ़": 471,
      "ुक": 472,
      "लिए": 473,
      "▁पार्क": 474,
      "▁कोश": 475,
      "▁गु": 476,
      "▁हा": 477,
      "बेन": 478,
      "▁कोशिश": 479,
      "न्य": 480,
      "उसे": 481,
      "▁अपना": 482,
      "▁अच्छ": 483,
      "ेशा": 484,
      "दी": 485,
      "मा": 486,
      "उसके": 487,
      "▁बे": 488,
      "▁फै": 489,
      "ठीक": 490,
      "▁गले": 491,
      "क्या": 492,
      "▁या": 493,
      "िता": 494,
      "▁हुई": 495,
      "▁नी": 496,
      "▁भा": 497,
      "▁जिसका": 498,
      "?\"\n\n": 499,
      "इसलिए": 500,
      "▁बेन": 501,
      "▁चम": 502,
      "▁खुशी": 503,
      "▁गर्": 504,
      "▁सभी": 505,
      "▁पता": 506,
      "▁दिखा": 507,
      "▁पी": 508,
      "▁उत्साह": 509,
      "▁ऊ": 510,
      "▁बै": 511,
      "▁बाद": 512,
      "वाज़": 513,
      "ैम": 514,
      "▁पेड़": 515,
      "▁हमेशा": 516,
      "ूम": 517,
      "सला": 518,
      "▁ता": 519,
      "▁क्यों": 520,
      "▁जब": 521,
      "वर": 522,
      "▁दी": 523,
      "▁अच्छा": 524,
      "▁छोटा": 525,
      "ठा": 526,
      "▁कार": 527,
      "ैक्स": 528,
      "झा": 529,
      "▁प्यार": 530,
      "▁उत्साहित": 531,
      "?\"": 532,
      "▁दौड़": 533,
      "ैक": 534,
      "्य": 535,
      "▁फैसला": 536,
      "टी": 537,
      "▁ते": 538,
      "▁पक": 539,
      "▁हाथ": 540,
      "ुत्": 541,
      "▁रा": 542,
      "▁डर": 543,
      "पस": 544,
      "▁पहु": 545,
      "▁बड़े": 546,
      "▁आया": 547,
      "▁समय": 548,
      "▁टि": 549,
      "ूसरे": 550,
      "▁लग": 551,
      "▁इस": 552,
      "खी": 553,
      "▁बु": 554,
      "▁गा": 555,
      "▁आप": 556,
      "▁लड़का": 557,
      "न्ना": 558,
      "क्षी": 559,
      "म्मी": 560,
      "▁बो": 561,
      "▁वापस": 562,
      "▁तर": 563,
      "ूद": 564,
      "ूं": 565,
      "दमी": 566,
      "▁दोस्तों": 567,
      "▁उन्होंने": 568,
      "▁आवाज़": 569,
      "ंस": 570,
      "ियों": 571,
      "▁चल": 572,
      "न्यवाद": 573,
      "▁तो": 574,
      "▁बात": 575,
      "टिम": 576,
      "▁जाने": 577,
      "ारे": 578,
      "▁सिर": 579,
      "जी": 580,
      "मान": 581,
      "▁प्र": 582,
      "▁हिला": 583,
      "ंच": 584,
      "▁झ": 585,
      "ैसे": 586,
      "▁मिल": 587,
      "जो": 588,
      "पर": 589,
      "▁नि": 590,
      "श्": 591,
      "फिर": 592,
      "▁पानी": 593,
      "▁पहुँ": 594,
      "छोट": 595,
      "▁चि": 596,
      "▁सुंदर": 597,
      "िल्ला": 598,
      "▁निक": 599,
      "दूसरे": 600,
      "लो": 601,
      "वध": 602,
      "▁मुस्कुराते": 603,
      ",\"": 604,
      "▁मज़ेदार": 605,
      "▁खेलने": 606,
      "स्ते": 607,
      "तर": 608,
      "▁ज़": 609,
      "▁कई": 610,
      "▁कूद": 611,
      "▁उड़": 612,
      "▁ऐ": 613,
      "वार": 614,
      "▁तै": 615,
      "▁काम": 616,
      "▁य": 617,
      "▁तेज़": 618,
      "ास": 619,
      "▁ढ": 620,
      "वी": 621,
      "में": 622,
      "▁कुत्": 623,
      "▁सबसे": 624,
      "▁टॉम": 625,
      "हर": 626,
      "उन्हें": 627,
      "▁ए": 628,
      "▁कहती": 629,
      "▁जल्": 630,
      "सारा": 631,
      "▁सावध": 632,
      "ेंद": 633,
      "▁मैं": 634,
      "▁लगी": 635,
      "डी": 636,
      "बी": 637,
      "▁अंदर": 638,
      "▁लगाया": 639,
      "▁चा": 640,
      "▁कभी": 641,
      "▁तुम्हें": 642,
      "▁बड़ी": 643,
      "▁जाए": 644,
      "▁चीज़": 645,
      "▁लो": 646,
      "तना": 647,
      "▁नीचे": 648,
      "ूरत": 649,
      "कार": 650,
      "▁चला": 651,
      "ति": 652,
      "▁आदमी": 653,
      "▁उठा": 654,
      "▁जाना": 655,
      "िल्ली": 656,
      "▁दुखी": 657,
      "▁होने": 658,
      "▁होगा": 659,
      "▁चिल्ला": 660,
      "ष्ट": 661,
      "▁दोनों": 662,
      "▁खिलौनों": 663,
      "▁क्योंकि": 664,
      "▁बच्": 665,
      "▁चाहते": 666,
      "▁पक्षी": 667,
      "बा": 668,
      "▁कोई": 669,
      "▁सुन": 670,
      "को": 671,
      "▁ला": 672,
      "▁धन्यवाद": 673,
      "▁पकड़": 674,
      "तभी": 675,
      "अन्ना": 676,
      "▁कम": 677,
      "▁तरह": 678,
      "▁थीं": 679,
      "ंगी": 680,
      "▁बि": 681,
      "▁चु": 682,
      "▁जि": 683,
      "ोर": 684,
      "▁बारे": 685,
      "तुम्ह": 686,
      "▁गेंद": 687,
      "▁रखा": 688,
      "टर": 689,
      "▁ठीक": 690,
      "▁भाग": 691,
      "▁गर्व": 692,
      "▁स्वाद": 693,
      "▁पहले": 694,
      "▁खोज": 695,
      "्रे": 696,
      "मे": 697,
      "▁उदा": 698,
      "गो": 699,
      "▁उसका": 700,
      "▁देखी": 701,
      "▁शा": 702,
      "▁चीज": 703,
      "▁ली": 704,
      "वि": 705,
      "्रा": 706,
      "▁आस": 707,
      "ंगल": 708,
      "▁बता": 709,
      "▁अल": 710,
      "▁हर": 711,
      "▁पाया": 712,
      "▁उदास": 713,
      "▁कहता": 714,
      "▁बन": 715,
      "▁अच्छे": 716,
      "बे": 717,
      "▁खिलौना": 718,
      "गह": 719,
      "▁मुस्कुराई": 720,
      "ड़िया": 721,
      "▁जगह": 722,
      "▁ऊपर": 723,
      "ंड": 724,
      "ारों": 725,
      "उन": 726,
      "▁निकल": 727,
      "▁चमक": 728,
      "िष्ट": 729,
      "ूर्": 730,
      "▁अच्छी": 731,
      "▁उनके": 732,
      "ट्ट": 733,
      "▁जानवर": 734,
      "द्": 735,
      "▁रंग": 736,
      "▁सुर": 737,
      "ॉक्स": 738,
      "▁घूम": 739,
      "सैम": 740,
      "छे": 741,
      "▁खे": 742,
      "लड़": 743,
      "ियाँ": 744,
      "▁खाना": 745,
      "▁टिमी": 746,
      "ॉन": 747,
      "▁स्वादिष्ट": 748,
      "▁निका": 749,
      "ालू": 750,
      "▁फूल": 751,
      "▁जाते": 752,
      "▁गुस्": 753,
      "▁देखते": 754,
      "▁सुरक्ष": 755,
      "▁बैठ": 756,
      "▁बगी": 757,
      "▁अब": 758,
      "▁पत्": 759,
      "रगो": 760,
      "रगोश": 761,
      "▁हंस": 762,
      "्ल": 763,
      "▁छोटे": 764,
      "अंत": 765,
      "इड": 766,
      "▁साझा": 767,
      "▁सुना": 768,
      "▁बंद": 769,
      "▁दूर": 770,
      "पी": 771,
      "▁जंगल": 772,
      "▁करो": 773,
      "▁खास": 774,
      "▁नया": 775,
      "▁आई": 776,
      "रों": 777,
      "मैक्स": 778,
      "▁सुरक्षित": 779,
      "▁याद": 780,
      "चलो": 781,
      "▁पिता": 782,
      "▁जवा": 783,
      "▁पै": 784,
      "ूरज": 785,
      "▁बगीचे": 786,
      "▁जवाब": 787,
      "दे": 788,
      "▁थो": 789,
      "▁पापा": 790,
      "▁मज़ा": 791,
      "▁चमकी": 792,
      "▁बेह": 793,
      "जैक": 794,
      "बू": 795,
      "▁छि": 796,
      "ेंगे": 797,
      "▁सीखा": 798,
      "▁जोर": 799,
      "▁चारों": 800,
      "▁सोचा": 801,
      "▁ऐसा": 802,
      "▁कमरे": 803,
      "ूसी": 804,
      "ॉल": 805,
      "▁चढ़": 806,
      "!\n\n": 807,
      "▁ट्र": 808,
      "नहीं": 809,
      "▁पीछे": 810,
      "यर": 811,
      "▁वहाँ": 812,
      "जिस": 813,
      "▁व्य": 814,
      "गर": 815,
      "▁नए": 816,
      "छोटी": 817,
      "▁लोग": 818,
      "ूब": 819,
      "▁जाता": 820,
      "फी": 821,
      "िवार": 822,
      "्यादा": 823,
      "▁हिलाया": 824,
      "टा": 825,
      "▁रोज़": 826,
      "▁जल्दी": 827,
      "▁सोच": 828,
      "िं": 829,
      "▁बेहतर": 830,
      "▁चे": 831,
      "▁मिला": 832,
      "▁लाल": 833,
      "ताब": 834,
      "▁सैम": 835,
      "▁होता": 836,
      "▁अन": 837,
      "▁बिल्ली": 838,
      "ॉट": 839,
      "▁इंत": 840,
      "▁मत": 841,
      "▁खेलते": 842,
      "कान": 843,
      "▁हैरा": 844,
      "▁वि": 845,
      "यार": 846,
      "तनी": 847,
      "द्र": 848,
      "▁गिर": 849,
      "आप": 850,
      "▁खिलौने": 851,
      "ानी": 852,
      "तुम्हें": 853,
      "▁देखने": 854,
      "हाद": 855,
      "ां": 856,
      "रर": 857,
      "▁टे": 858,
      "▁देखना": 859,
      "▁बताया": 860,
      "▁भू": 861,
      "माल": 862,
      "प्": 863,
      "▁आँ": 864,
      "▁दा": 865,
      "▁किसी": 866,
      "▁बजा": 867,
      "▁जाती": 868,
      "▁तैयार": 869,
      "पूर्": 870,
      "मीन": 871,
      "▁स्ट": 872,
      "▁खुद": 873,
      "ूप": 874,
      "▁लि": 875,
      "▁गर्म": 876,
      "जे": 877,
      "▁लं": 878,
      "कुछ": 879,
      "▁बी": 880,
      "स्तेमाल": 881,
      "▁इस्तेमाल": 882,
      "▁बहाद": 883,
      "▁मैक्स": 884,
      "मम्मी": 885,
      "अब": 886,
      "▁जी": 887,
      "▁दर": 888,
      "▁सावधानी": 889,
      "▁तला": 890,
      "स्प": 891,
      "क्र": 892,
      "▁साफ़": 893,
      "िश्": 894,
      "वाह": 895,
      "▁तलाश": 896,
      "▁उससे": 897,
      "▁फ़": 898,
      "ची": 899,
      "▁समु": 900,
      "▁समुद्र": 901,
      "स्वी": 902,
      "▁मुझे": 903,
      "यद": 904,
      "ोड़": 905,
      "▁कप": 906,
      "सो": 907,
      "ट्": 908,
      "ीरे": 909,
      "▁ती": 910,
      "▁सके": 911,
      "▁तस्वी": 912,
      "▁परिवार": 913,
      "ंचा": 914,
      "पूर्ण": 915,
      "▁हैरान": 916,
      "▁तुम्हारे": 917,
      "▁कुत्ते": 918,
      "▁हवा": 919,
      "▁पु": 920,
      "▁भर": 921,
      "देख": 922,
      "▁उनकी": 923,
      "▁किताब": 924,
      "▁सूरज": 925,
      "आआ": 926,
      "ंख": 927,
      "▁आसमान": 928,
      "जार": 929,
      "▁अभी": 930,
      "यू": 931,
      "▁बोली": 932,
      "▁मेरी": 933,
      "▁करे": 934,
      "▁मि": 935,
      "श्श्": 936,
      "रूरत": 937,
      "▁जमीन": 938,
      "स्ता": 939,
      "▁ख़": 940,
      "पिता": 941,
      "▁केक": 942,
      "ॉब": 943,
      "▁रे": 944,
      "▁खरगोश": 945,
      "▁चली": 946,
      "▁मेरे": 947,
      "▁इतना": 948,
      "ेद": 949,
      "▁ताकि": 950,
      "त्व": 951,
      "▁बॉक्स": 952,
      "▁लेकर": 953,
      "▁लगे": 954,
      "▁बहादुर": 955,
      "जन": 956,
      "▁टिम": 957,
      "▁चोट": 958,
      "जॉन": 959,
      "थर": 960,
      "लाइड": 961,
      "▁तस्वीर": 962,
      "पने": 963,
      "▁इंतजार": 964,
      "▁होना": 965,
      "ंध": 966,
      "देखो": 967,
      "▁लड़के": 968,
      "▁गुस्से": 969,
      "मिया": 970,
      "▁आँख": 971,
      "सूरत": 972,
      "▁खाने": 973,
      "फा": 974,
      "▁करी": 975,
      "त्म": 976,
      "राम": 977,
      "▁ढूं": 978,
      "ब्": 979,
      "बह": 980,
      "▁कुत्ता": 981,
      "▁सुनी": 982,
      "▁हाँ": 983,
      "▁सावधान": 984,
      "▁होती": 985,
      "▁करीब": 986,
      "ॉमी": 987,
      "▁ख़ास": 988,
      "▁होकर": 989,
      "▁भालू": 990,
      "पे": 991,
      "▁ढूंढ": 992,
      "▁सारा": 993,
      "▁बढ़": 994,
      "लों": 995,
      "टे": 996,
      "▁थोड़ा": 997,
      "▁उठाया": 998,
      "▁आराम": 999,
      "▁डरा": 1000,
      "कभी": 1001,
      "▁चीजों": 1002,
      "▁बनाया": 1003,
      "हमें": 1004,
      "▁खूब": 1005,
      "यो": 1006,
      "▁सि": 1007,
      "▁अलग": 1008,
      "▁ठ": 1009,
      "ेर": 1010,
      "▁टू": 1011,
      "▁आने": 1012,
      "▁टो": 1013,
      "मांच": 1014,
      "▁महत्व": 1015,
      "▁दूस": 1016,
      "▁बच्चे": 1017,
      "मैंने": 1018,
      "▁रोमांच": 1019,
      "▁रहता": 1020,
      "▁अके": 1021,
      "▁मछ": 1022,
      "▁स्लाइड": 1023,
      "▁रात": 1024,
      "▁खूबसूरत": 1025,
      "लाब": 1026,
      "▁चेह": 1027,
      "शायद": 1028,
      "▁गल": 1029,
      "▁तुम्हारी": 1030,
      "▁बनाना": 1031,
      "चान": 1032,
      "▁पूछ": 1033,
      "▁बनाने": 1034,
      "▁जानवरों": 1035,
      "▁डा": 1036,
      "्राइ": 1037,
      "▁जाकर": 1038,
      "▁बुरा": 1039,
      "जि": 1040,
      "मि": 1041,
      "▁रोने": 1042,
      "ज़ी": 1043,
      "▁सीख": 1044,
      "▁बर्": 1045,
      "▁छोड़": 1046,
      "▁मिया": 1047,
      "▁महत्वपूर्ण": 1048,
      "नंद": 1049,
      "▁आनंद": 1050,
      "▁तैर": 1051,
      "▁जिसे": 1052,
      "जर": 1053,
      "▁वाला": 1054,
      "▁ज़रूरत": 1055,
      "चों": 1056,
      "हे": 1057,
      "▁वाले": 1058,
      "▁हँ": 1059,
      "▁ब्ल": 1060,
      "बल": 1061,
      "▁ट्रक": 1062,
      "▁रहना": 1063,
      "▁चले": 1064,
      "चानक": 1065,
      "▁सै": 1066,
      "ट्टी": 1067,
      "▁साल": 1068,
      "ीदा": 1069,
      "▁मुस्कुराया": 1070,
      "▁खरी": 1071,
      "दु": 1072,
      "▁पहन": 1073,
      "▁शांत": 1074,
      "ानदार": 1075,
      "▁पसंदीदा": 1076,
      "लड़की": 1077,
      "▁कैसे": 1078,
      "▁आए": 1079,
      "लू": 1080,
      "▁देखती": 1081,
      "▁नाव": 1082,
      "▁कहते": 1083,
      "▁जारी": 1084,
      "▁माता": 1085,
      "उनके": 1086,
      "▁तीन": 1087,
      "▁सही": 1088,
      "▁शानदार": 1089,
      "▁रुक": 1090,
      "स्ट": 1091,
      "▁वाली": 1092,
      "▁पहुँचा": 1093,
      "▁पो": 1094,
      "▁जानती": 1095,
      "▁पूरे": 1096,
      "▁हूं": 1097,
      "▁जल्द": 1098,
      "▁मै": 1099,
      "त्रा": 1100,
      "इक": 1101,
      "▁अंत": 1102,
      "▁चीजें": 1103,
      "▁देखता": 1104,
      "▁चिड़िया": 1105,
      "ॉर्": 1106,
      "▁जैक": 1107,
      "▁मिलकर": 1108,
      "▁देखकर": 1109,
      "▁खोला": 1110,
      "दो": 1111,
      "▁पहुँच": 1112,
      "▁गि": 1113,
      "ज्": 1114,
      "▁चू": 1115,
      "▁खत्म": 1116,
      "क्रिया": 1117,
      "▁दरवा": 1118,
      "▁दिखाई": 1119,
      "▁देर": 1120,
      "▁आपको": 1121,
      "▁रंगी": 1122,
      "▁खोल": 1123,
      "▁दिख": 1124,
      "लूसी": 1125,
      "निया": 1126,
      "▁पत्थर": 1127,
      "▁लोगों": 1128,
      "▁खी": 1129,
      "▁पाई": 1130,
      "ॉली": 1131,
      "▁घास": 1132,
      "▁हमें": 1133,
      "▁काट": 1134,
      "ुक्रिया": 1135,
      "▁बस": 1136,
      "ड़ों": 1137,
      "▁उत्सुक": 1138,
      "▁भाई": 1139,
      "▁यात्रा": 1140,
      "▁जानता": 1141,
      "▁बद": 1142,
      "▁तालाब": 1143,
      "▁स्प": 1144,
      "ूत": 1145,
      "ंडा": 1146,
      "▁यहाँ": 1147,
      "▁टुक": 1148,
      "▁खेला": 1149,
      "▁तय": 1150,
      "▁दया": 1151,
      "▁जे": 1152,
      "ेश": 1153,
      "▁लगता": 1154,
      "लु": 1155,
      "ेंच": 1156,
      "▁फें": 1157,
      "▁करें": 1158,
      "उसका": 1159,
      "ंक": 1160,
      "▁ज्यादा": 1161,
      "▁शोर": 1162,
      "▁चीज़ें": 1163,
      "▁दिखाया": 1164,
      "र्श": 1165,
      "भा": 1166,
      "▁होते": 1167,
      "▁समझ": 1168,
      "▁पंख": 1169,
      "▁निकाल": 1170,
      "▁बक्": 1171,
      "मेरे": 1172,
      "कृ": 1173,
      "स्तर": 1174,
      "▁पें": 1175,
      "▁दुनिया": 1176,
      "सभी": 1177,
      "मै": 1178,
      "्स": 1179,
      "▁स्व": 1180,
      "▁ऊंचा": 1181,
      "▁मम्मी": 1182,
      "▁छू": 1183,
      "वहाँ": 1184,
      "▁चमकदार": 1185,
      "पक्षी": 1186,
      "भुत": 1187,
      "द्भुत": 1188,
      "▁अद्भुत": 1189,
      "▁वहां": 1190,
      "▁टा": 1191,
      "कुल": 1192,
      "▁रंगीन": 1193,
      "चि": 1194,
      "ज्ञ": 1195,
      "्फ": 1196,
      "▁देते": 1197,
      "▁किए": 1198,
      "▁शर्": 1199,
      "▁देता": 1200,
      "▁वादा": 1201,
      "▁आँखें": 1202,
      "तुमने": 1203,
      "▁लेने": 1204,
      "▁गो": 1205,
      "▁गंद": 1206,
      "▁बोला": 1207,
      "खिर": 1208,
      "▁इतनी": 1209,
      "कुत्": 1210,
      "▁कुकी": 1211,
      "▁बिता": 1212,
      "▁सू": 1213,
      "जैसे": 1214,
      "▁भरा": 1215,
      "▁गाय": 1216,
      "ड़क": 1217,
      "बिल्ली": 1218,
      "रम": 1219,
      "सै": 1220,
      "▁हं": 1221,
      "जीब": 1222,
      "▁डाल": 1223,
      "▁बिस्तर": 1224,
      "ॉक": 1225,
      "पना": 1226,
      "▁दौड़ी": 1227,
      "एँ": 1228,
      "चित": 1229,
      "्रि": 1230,
      "▁पुरा": 1231,
      "▁अजीब": 1232,
      "▁अनु": 1233,
      "वल": 1234,
      "▁अन्ना": 1235,
      "हसा": 1236,
      "हसास": 1237,
      "ेज़ी": 1238,
      "▁दादी": 1239,
      "▁जै": 1240,
      "▁उप": 1241,
      "च्छा": 1242,
      "ये": 1243,
      "▁सं": 1244,
      "▁मजब": 1245,
      "▁पढ़": 1246,
      "बॉब": 1247,
      "▁हि": 1248,
      "बच्": 1249,
      "▁रखना": 1250,
      "▁कहानी": 1251,
      "▁नई": 1252,
      "ितली": 1253,
      "▁कितना": 1254,
      "क्यों": 1255,
      "▁बू": 1256,
      "▁पूरी": 1257,
      "िल्कुल": 1258,
      "क्री": 1259,
      "मस्ते": 1260,
      "र्य": 1261,
      "▁खि": 1262,
      "▁लौ": 1263,
      "ाया": 1264,
      "▁तोड़": 1265,
      "▁स्न": 1266,
      "खिरकार": 1267,
      "▁चेहरे": 1268,
      "ओह": 1269,
      "लीला": 1270,
      "▁चाहो": 1271,
      "▁बैग": 1272,
      "▁छेद": 1273,
      "▁दयालु": 1274,
      "जेन": 1275,
      "ईं": 1276,
      "▁तेज़ी": 1277,
      "▁पड़ा": 1278,
      "रररर": 1279,
      "छोटा": 1280,
      "▁अन्य": 1281,
      "▁ज़्यादा": 1282,
      "▁दुकान": 1283,
      "हन": 1284,
      "अल": 1285,
      "▁नरम": 1286,
      "▁जु": 1287,
      "▁उसमें": 1288,
      "म्मीद": 1289,
      "▁पिताजी": 1290,
      "▁जोरदार": 1291,
      "द्ध": 1292,
      "▁झूल": 1293,
      "क्का": 1294,
      "्री": 1295,
      "▁नाच": 1296,
      "▁मना": 1297,
      "▁मछली": 1298,
      "▁दौड़ा": 1299,
      "▁देती": 1300,
      "दुई": 1301,
      "▁एहसास": 1302,
      "लियाँ": 1303,
      "▁कीड़े": 1304,
      "▁रहती": 1305,
      "▁बच्चों": 1306,
      "▁डॉल": 1307,
      "क्ति": 1308,
      "चिं": 1309,
      "चिंता": 1310,
      "▁भरी": 1311,
      "इन": 1312,
      "▁माफी": 1313,
      "▁गी": 1314,
      "पया": 1315,
      "▁कपड़े": 1316,
      "▁टूट": 1317,
      "▁बक्से": 1318,
      "▁देखे": 1319,
      "▁कार्": 1320,
      "▁सबक": 1321,
      "▁खरीद": 1322,
      "▁स्क": 1323,
      "▁बूढ़": 1324,
      "▁काग": 1325,
      "▁धीरे": 1326,
      "▁फेंक": 1327,
      "▁दिए": 1328,
      "▁भूल": 1329,
      "आदमी": 1330,
      "पास": 1331,
      "अग": 1332,
      "▁पकड़ने": 1333,
      "▁रहने": 1334,
      "ज़र": 1335,
      "धन्यवाद": 1336,
      "▁सफ": 1337,
      "स्पॉट": 1338,
      "बु": 1339,
      "▁ढूँ": 1340,
      "▁जादुई": 1341,
      "▁तरफ": 1342,
      "▁रोश": 1343,
      "केट": 1344,
      "▁दिल": 1345,
      "डर": 1346,
      "▁हाथों": 1347,
      "ड़की": 1348,
      "▁महिला": 1349,
      "▁परेश": 1350,
      "▁परेशान": 1351,
      "म्म": 1352,
      "पापा": 1353,
      "▁मजबूत": 1354,
      "टो": 1355,
      "ंधे": 1356,
      "▁तुमसे": 1357,
      "हां": 1358,
      "टॉमी": 1359,
      "▁प्रति": 1360,
      "र्द": 1361,
      "▁आभ": 1362,
      "▁उम्मीद": 1363,
      "▁मिली": 1364,
      "धीरे": 1365,
      "कृपया": 1366,
      "▁गिरा": 1367,
      "सकर": 1368,
      "▁खींच": 1369,
      "ढक": 1370,
      "▁हों": 1371,
      "▁चमकीला": 1372,
      "▁मेरा": 1373,
      "▁डॉ": 1374,
      "आआआआ": 1375,
      "ंगे": 1376,
      "▁मेहन": 1377,
      "िश्चित": 1378,
      "▁करके": 1379,
      "▁केवल": 1380,
      "▁सिर्फ": 1381,
      "▁इससे": 1382,
      "ुट": 1383,
      "▁उड़ा": 1384,
      "▁तट": 1385,
      "श्श्श्श्": 1386,
      "▁साम": 1387,
      "ुआ": 1388,
      "ित्र": 1389,
      "▁लूसी": 1390,
      "▁बारिश": 1391,
      "▁मुस्कान": 1392,
      "▁खिड़की": 1393,
      "▁जित": 1394,
      "दान": 1395,
      "खरगोश": 1396,
      "▁टी": 1397,
      "▁करेंगे": 1398,
      "▁माफ़": 1399,
      "▁पड़": 1400,
      "▁अगर": 1401,
      "▁फर्श": 1402,
      "क्व": 1403,
      "▁जाएगा": 1404,
      "यक": 1405,
      "र्स": 1406,
      "गन": 1407,
      "▁पकड़ा": 1408,
      "▁मेहनत": 1409,
      "▁सका": 1410,
      "▁गुस्सा": 1411,
      "▁चीज़ों": 1412,
      "▁झू": 1413,
      "▁फूलों": 1414,
      "निक": 1415,
      "्रेस": 1416,
      "दिन": 1417,
      "▁टेडी": 1418,
      "ॉप": 1419,
      "▁रोशनी": 1420,
      "▁बचा": 1421,
      "▁मान": 1422,
      "▁स्थ": 1423,
      "▁गलती": 1424,
      "चार": 1425,
      "सोस": 1426,
      "ैंड": 1427,
      "▁समझा": 1428,
      "ब्द": 1429,
      "▁टोपी": 1430,
      "▁तितली": 1431,
      "तने": 1432,
      "बो": 1433,
      "▁सुनाई": 1434,
      "जक": 1435,
      "▁आगे": 1436,
      "▁हंसते": 1437,
      "फे": 1438,
      "स्यू": 1439,
      "नमस्ते": 1440,
      "स्थ": 1441,
      "अलग": 1442,
      "भालू": 1443,
      "▁देने": 1444,
      "जकुम": 1445,
      "▁जिज्ञ": 1446,
      "▁सर": 1447,
      "▁विश्": 1448,
      "▁रहते": 1449,
      "क्विर": 1450,
      "▁सेब": 1451,
      "▁कहाँ": 1452,
      "▁लगाई": 1453,
      "▁कैं": 1454,
      "▁जू": 1455,
      "▁कूदते": 1456,
      "▁ढूँढ": 1457,
      "▁गईं": 1458,
      "विदा": 1459,
      "हाल": 1460,
      "सर": 1461,
      "▁कै": 1462,
      "▁रोमांचक": 1463,
      "यम": 1464,
      "ोन": 1465,
      "▁जैसे": 1466,
      "▁हँस": 1467,
      "क्षियों": 1468,
      "アイ": 1469,
      "▁ट्रे": 1470,
      "▁आकार": 1471,
      "भाल": 1472,
      "काश": 1473,
      "वन": 1474,
      "▁मी": 1475,
      "▁नै": 1476,
      "▁दूसरों": 1477,
      "▁स्पॉट": 1478,
      "▁आभारी": 1479,
      "ड्": 1480,
      "デア": 1481,
      "アイデア": 1482,
      "▁डराव": 1483,
      "शुक्रिया": 1484,
      "▁शब्द": 1485,
      "▁तरी": 1486,
      "लि": 1487,
      "▁अकेला": 1488,
      "▁प्यारी": 1489,
      "▁निकाला": 1490,
      "किल": 1491,
      "▁साफ": 1492,
      "लिस": 1493,
      "▁थक": 1494,
      "▁एड": 1495,
      "▁ड्र": 1496,
      "▁सिखा": 1497,
      "▁उनका": 1498,
      "▁बियर": 1499,
      "▁पहुँचे": 1500,
      "▁रोज": 1501,
      "▁पूरा": 1502,
      "वेंच": 1503,
      "▁खेत": 1504,
      "▁थोड़ी": 1505,
      "▁सुनिश्चित": 1506,
      "▁पि": 1507,
      "श्किल": 1508,
      "▁टावर": 1509,
      "▁चिल्लाया": 1510,
      "हरा": 1511,
      "मार": 1512,
      "▁दरवाजा": 1513,
      "▁अस": 1514,
      "▁कुकीज़": 1515,
      "▁दर्द": 1516,
      "▁मुश्किल": 1517,
      "▁एडवेंच": 1518,
      "▁घुम": 1519,
      "▁दौड़ते": 1520,
      "▁छड़ी": 1521,
      "सोई": 1522,
      "्यान": 1523,
      "▁महल": 1524,
      "क्विरल": 1525,
      "▁जेन": 1526,
      "दाई": 1527,
      "▁तोह": 1528,
      "क्रीम": 1529,
      "▁मार": 1530,
      "लाबी": 1531,
      "▁स्यू": 1532,
      "▁इक": 1533,
      "दम": 1534,
      "▁दूसरे": 1535,
      "▁इकट्": 1536,
      "इसक्रीम": 1537,
      "▁गायब": 1538,
      "▁सुबह": 1539,
      "▁चमकीली": 1540,
      "▁चाहा": 1541,
      "▁लंबी": 1542,
      "ंटी": 1543,
      "अचानक": 1544,
      "शाक": 1545,
      "▁घूमने": 1546,
      "लेट": 1547,
      "▁छिपा": 1548,
      "तिक": 1549,
      "ज़ा": 1550,
      "▁व्यक्ति": 1551,
      "्व": 1552,
      "▁रसोई": 1553,
      "ल्स": 1554,
      "▁झा": 1555,
      "▁हार": 1556,
      "▁रंगों": 1557,
      "गत": 1558,
      "ओं": 1559,
      "▁पीछा": 1560,
      "जहाँ": 1561,
      "▁कीड़ा": 1562,
      "▁ध्यान": 1563,
      "▁अध": 1564,
      "▁माल": 1565,
      "ार्थ": 1566,
      "▁लंबे": 1567,
      "▁माँग": 1568,
      "▁बुला": 1569,
      "▁कौ": 1570,
      "▁इश": 1571,
      "▁जाओ": 1572,
      "▁बनाए": 1573,
      "लन": 1574,
      "▁पोशाक": 1575,
      "▁इच्छा": 1576,
      "ार्टी": 1577,
      "▁होगी": 1578,
      "प्त": 1579,
      "▁दौड़े": 1580,
      "▁अफ": 1581,
      "िर्": 1582,
      "▁गाना": 1583,
      "▁तेज": 1584,
      "प्राइ": 1585,
      "▁रहो": 1586,
      "▁चमकीले": 1587,
      "बेनी": 1588,
      "▁टेबल": 1589,
      "▁भौ": 1590,
      "अपने": 1591,
      "क्योंकि": 1592,
      "▁मिट्टी": 1593,
      "▁चित्र": 1594,
      "ंगीत": 1595,
      "▁खोजने": 1596,
      "▁पक्षियों": 1597,
      "▁रेत": 1598,
      "बहुत": 1599,
      "▁अफसोस": 1600,
      "▁सोने": 1601,
      "▁हमारे": 1602,
      "▁गड़": 1603,
      "▁पहने": 1604,
      "▁अलविदा": 1605,
      "मारी": 1606,
      "▁सड़क": 1607,
      "द्धि": 1608,
      "वहां": 1609,
      "▁दौड़ना": 1610,
      "▁कं": 1611,
      "▁भे": 1612,
      "▁देना": 1613,
      "वागत": 1614,
      "▁लगाते": 1615,
      "▁गुलाबी": 1616,
      "बर": 1617,
      "▁नैतिक": 1618,
      "लड़के": 1619,
      "रो": 1620,
      "क्टर": 1621,
      "ंतित": 1622,
      "▁मुस्कुराए": 1623,
      "▁बनना": 1624,
      "▁प्यारा": 1625,
      "▁जुड़": 1626,
      "मेरी": 1627,
      "▁इशारा": 1628,
      "▁आइसक्रीम": 1629,
      "▁पत": 1630,
      "▁चिंतित": 1631,
      "िंग": 1632,
      "ेली": 1633,
      "अप": 1634,
      "▁मौ": 1635,
      "▁पहा": 1636,
      "अगर": 1637,
      "▁करेगा": 1638,
      "▁सरप्राइ": 1639,
      "▁बैठकर": 1640,
      "▁विचार": 1641,
      "▁दीवार": 1642,
      "ंडे": 1643,
      "▁अधिक": 1644,
      "धार": 1645,
      "▁मैदान": 1646,
      "▁रास्ता": 1647,
      "▁अग": 1648,
      "▁जानना": 1649,
      ".\n\n": 1650,
      "▁अंधे": 1651,
      "उनकी": 1652,
      "▁बनाते": 1653,
      "▁रखने": 1654,
      "▁गे": 1655,
      "▁फा": 1656,
      "दू": 1657,
      "▁अचानक": 1658,
      "विंग": 1659,
      "▁सैर": 1660,
      "▁करनी": 1661,
      "ैगन": 1662,
      "जल्": 1663,
      "मार्": 1664,
      "▁विदाई": 1665,
      "▁ब्लॉक्स": 1666,
      "ुरंत": 1667,
      "▁आता": 1668,
      "ून": 1669,
      "▁आश्": 1670,
      "▁शहर": 1671,
      "▁भो": 1672,
      "▁लेते": 1673,
      "लने": 1674,
      "▁शेर": 1675,
      "▁सहम": 1676,
      "▁देखो": 1677,
      "▁चिल्लाकर": 1678,
      "▁तस्वीरें": 1679,
      "दर": 1680,
      "सैली": 1681,
      "▁पार": 1682,
      "तरना": 1683,
      "मॉली": 1684,
      "क्त": 1685,
      "लून": 1686,
      "▁मो": 1687,
      "▁लगाना": 1688,
      "अगले": 1689,
      "▁पल": 1690,
      "▁कहीं": 1691,
      "▁मेंढक": 1692,
      "छोटे": 1693,
      "▁बनाई": 1694,
      "▁गुड़िया": 1695,
      "▁हिस्": 1696,
      "▁लेकिन": 1697,
      "जिसे": 1698,
      "▁आपके": 1699,
      "▁घूमना": 1700,
      "टन": 1701,
      "▁संगीत": 1702,
      "▁कारों": 1703,
      "स्टर": 1704,
      "▁प्रा": 1705,
      "▁पेड़ों": 1706,
      "▁निकलने": 1707,
      "▁गलत": 1708,
      "शी": 1709,
      "▁भोजन": 1710,
      "ासु": 1711,
      "▁कागज़": 1712,
      "टों": 1713,
      "▁माँगी": 1714,
      "▁कसकर": 1715,
      "▁रूम": 1716,
      "▁शर": 1717,
      "▁पत्त": 1718,
      "सूरज": 1719,
      "▁तुरंत": 1720,
      "▁बालों": 1721,
      "▁निरा": 1722,
      "▁देखभाल": 1723,
      "▁एडवेंचर": 1724,
      "▁मालिक": 1725,
      "▁संत": 1726,
      "▁रूप": 1727,
      "▁दुख": 1728,
      "▁आश्च": 1729,
      "सब": 1730,
      "▁धक्का": 1731,
      "▁दिखाने": 1732,
      "▁प्": 1733,
      "▁रास्ते": 1734,
      "तरनाक": 1735,
      "सान": 1736,
      "▁लौट": 1737,
      "▁आग": 1738,
      "यल": 1739,
      "▁चुन": 1740,
      "▁क्र": 1741,
      "दायक": 1742,
      "▁पार्टी": 1743,
      "द्धिमान": 1744,
      "मार्ट": 1745,
      "▁खतरनाक": 1746,
      "▁तालियाँ": 1747,
      "▁पैसे": 1748,
      "▁हिल": 1749,
      "वास": 1750,
      "▁ऐसी": 1751,
      "▁पैर": 1752,
      "बार": 1753,
      "▁करूँ": 1754,
      "ंत्र": 1755,
      "च्छ": 1756,
      "▁कितनी": 1757,
      "▁अलमारी": 1758,
      "▁मिलने": 1759,
      "स्ताना": 1760,
      "▁आश्चर्य": 1761,
      "हरी": 1762,
      "▁किना": 1763,
      "र्ड": 1764,
      "▁ड्राइ": 1765,
      "ज़ार": 1766,
      "डेज़ी": 1767,
      "▁कदम": 1768,
      "लब": 1769,
      "▁भारी": 1770,
      "▁बच्चा": 1771,
      "कुत्ता": 1772,
      "▁आज": 1773,
      "▁बाइक": 1774,
      "▁बहन": 1775,
      "▁सफल": 1776,
      "▁आइड": 1777,
      "▁आइडिया": 1778,
      "▁सरप्राइज़": 1779,
      "▁ठंडा": 1780,
      "▁लेना": 1781,
      "▁चट्ट": 1782,
      "▁यो": 1783,
      "ारती": 1784,
      "▁राह": 1785,
      "▁अनुसर": 1786,
      "▁अनुसरण": 1787,
      "▁स्मार्ट": 1788,
      "ंगली": 1789,
      "▁जिज्ञासु": 1790,
      "त्त": 1791,
      "▁आरामदायक": 1792,
      "ंछ": 1793,
      "▁डि": 1794,
      "प्या": 1795,
      "▁खजा": 1796,
      "▁आपकी": 1797,
      "ढ़ी": 1798,
      "▁राहत": 1799,
      "एं": 1800,
      "▁दूसरी": 1801,
      "र्ष": 1802,
      "▁चुकी": 1803,
      "लियों": 1804,
      "▁आखिरकार": 1805,
      "जकुमारी": 1806,
      "इसे": 1807,
      "चन": 1808,
      "एमी": 1809,
      "▁खाया": 1810,
      "▁जॉन": 1811,
      "▁नदी": 1812,
      "मिंद": 1813,
      "राब": 1814,
      "▁यहां": 1815,
      "अपनी": 1816,
      "▁किनारे": 1817,
      "▁उपयो": 1818,
      "बिल्कुल": 1819,
      "म्मा": 1820,
      "▁गड़ब": 1821,
      "आओ": 1822,
      "▁बॉब": 1823,
      "▁ऑ": 1824,
      "▁कौन": 1825,
      "ूंगा": 1826,
      "▁शर्मिंद": 1827,
      "▁पेंट": 1828,
      "कू": 1829,
      "बच्चे": 1830,
      "कहा": 1831,
      "।\"\n\n\"": 1832,
      "▁दरवाज़": 1833,
      "म्मच": 1834,
      "लड़का": 1835,
      "र्सी": 1836,
      "सु": 1837,
      "सू": 1838,
      "क्षा": 1839,
      "▁ट्रेन": 1840,
      "जल्द": 1841,
      "▁जहा": 1842,
      "न्स": 1843,
      "घर": 1844,
      "▁लिविंग": 1845,
      "ैंग": 1846,
      "▁रहस्": 1847,
      "▁जहाँ": 1848,
      "▁प्यारे": 1849,
      "टक": 1850,
      "▁सपने": 1851,
      "▁रु": 1852,
      "▁शाखा": 1853,
      "वहार": 1854,
      "▁दोस्ताना": 1855,
      "▁बाल": 1856,
      "ल्पना": 1857,
      "▁स्टोर": 1858,
      "▁बटन": 1859,
      "▁किचन": 1860,
      "▁निराश": 1861,
      "▁धो": 1862,
      "मेरा": 1863,
      "तल": 1864,
      "▁बूढ़े": 1865,
      "सम": 1866,
      "▁साह": 1867,
      "सिल": 1868,
      "▁अभ": 1869,
      "▁भौंक": 1870,
      "चिड़िया": 1871,
      "▁चिल्लाते": 1872,
      "▁रखी": 1873,
      "▁अकेले": 1874,
      "चू": 1875,
      "खे": 1876,
      "▁गिन": 1877,
      "▁कल्पना": 1878,
      "▁मोट": 1879,
      "▁बारी": 1880,
      "▁बैलून": 1881,
      "▁दरवाजे": 1882,
      "▁मूर्": 1883,
      "दादी": 1884,
      "▁माफ": 1885,
      "▁छिप": 1886,
      "▁करा": 1887,
      "मो": 1888,
      "▁बुद्धिमान": 1889,
      "▁व्यवहार": 1890,
      "ंची": 1891,
      "पहर": 1892,
      "ौध": 1893,
      "यहाँ": 1894,
      "▁साँ": 1895,
      "▁चट्टान": 1896,
      "▁तुम्हारा": 1897,
      "▁शरारती": 1898,
      "▁चम्मच": 1899,
      "▁सामने": 1900,
      "▁समझाया": 1901,
      "मड़ी": 1902,
      "ड़ियों": 1903,
      "▁चढ़ना": 1904,
      "र्ग": 1905,
      "▁ड्रेस": 1906,
      "▁विश्वास": 1907,
      "▁उनसे": 1908,
      "▁घुमा": 1909,
      "▁जानते": 1910,
      "▁छी": 1911,
      "▁बदल": 1912,
      "▁शांति": 1913,
      "▁दू": 1914,
      "▁घुट": 1915,
      "चर": 1916,
      "▁निकाली": 1917,
      "वां": 1918,
      "▁गाने": 1919,
      "क्ट": 1920,
      "▁रखे": 1921,
      "▁कैंडी": 1922,
      "▁आकाश": 1923,
      "▁लाइ": 1924,
      "▁टुकड़ा": 1925,
      "गु": 1926,
      "▁गाजर": 1927,
      "कुत्ते": 1928,
      "▁कुर्सी": 1929,
      "स्या": 1930,
      "▁चाहे": 1931,
      "▁स्क्विरल": 1932,
      "▁लगाने": 1933,
      "हमने": 1934,
      "▁पड़ो": 1935,
      "▁संतु": 1936,
      "▁पाए": 1937,
      "जना": 1938,
      "▁सकें": 1939,
      "▁चाहोगे": 1940,
      "रररररररर": 1941,
      "ैंगनी": 1942,
      "▁उड़ते": 1943,
      "▁जितनी": 1944,
      "हेल": 1945,
      "▁रोक": 1946,
      "ंगा": 1947,
      ".\"\n\n": 1948,
      "▁लाने": 1949,
      "▁पैरों": 1950,
      "▁पूछती": 1951,
      "ंता": 1952,
      "▁निर्": 1953,
      "▁सोचता": 1954,
      "▁जेब": 1955,
      "▁तोहफा": 1956,
      "▁स्वागत": 1957,
      "▁बीच": 1958,
      "▁बंदर": 1959,
      "▁धूप": 1960,
      "▁जाएँ": 1961,
      "मिली": 1962,
      "▁पूंछ": 1963,
      "▁नाक": 1964,
      "ताकि": 1965,
      "▁लाया": 1966,
      "▁फिस": 1967,
      "ंप": 1968,
      "▁छुआ": 1969,
      "▁जीत": 1970,
      "विच": 1971,
      "▁करेगी": 1972,
      "करी": 1973,
      "शाली": 1974,
      "▁चेहरा": 1975,
      "▁शाम": 1976,
      "▁जूते": 1977,
      "म्र": 1978,
      "▁लेता": 1979,
      "िशा": 1980,
      "▁रोना": 1981,
      "▁जुड़वां": 1982,
      "▁लंबा": 1983,
      "▁आती": 1984,
      "▁खोजा": 1985,
      "▁बुरे": 1986,
      "डल": 1987,
      "▁नीला": 1988,
      "▁ब्लॉक": 1989,
      "▁गंदा": 1990,
      "▁स्थान": 1991,
      "▁घों": 1992,
      "▁सूप": 1993,
      "▁डेज़ी": 1994,
      "▁शुक्रिया": 1995,
      "▁स्कूल": 1996,
      "राज": 1997,
      "डि": 1998,
      "ल्लू": 1999,
      "▁खेले": 2000,
      "मैन": 2001,
      "▁चिल्लाई": 2002,
      "▁बिल्कुल": 2003,
      "▁दिखाना": 2004,
      "ॉर्न": 2005,
      "रंगी": 2006,
      "▁रखते": 2007,
      "▁आते": 2008,
      "▁विन": 2009,
      "▁बिना": 2010,
      "ठे": 2011,
      "▁बर": 2012,
      "▁ढेर": 2013,
      "▁कटो": 2014,
      "▁दोपहर": 2015,
      "▁सोचती": 2016,
      "जान": 2017,
      "ट्र": 2018,
      "▁पड़ी": 2019,
      "▁परेशा": 2020,
      "▁परेशानी": 2021,
      "▁पौध": 2022,
      "▁इकट्ठा": 2023,
      "▁शि": 2024,
      "▁सैंड": 2025,
      "▁नोट": 2026,
      "▁चलें": 2027,
      "▁बिताया": 2028,
      "मह": 2029,
      "▁जार": 2030,
      "्लफी": 2031,
      "▁मुस्कुराती": 2032,
      "?\"\n\n\"": 2033,
      "▁निकला": 2034,
      "जिसमें": 2035,
      "▁कूदना": 2036,
      "किस": 2037,
      "दोनों": 2038,
      "▁बैंगनी": 2039,
      "स्क": 2040,
      "▁डरावना": 2041,
      "▁जाल": 2042,
      "तुम्हारा": 2043,
      "▁तरीका": 2044,
      "करा": 2045,
      "र्ट": 2046,
      "▁बेटी": 2047,
      "▁मतलब": 2048,
      "आखिरकार": 2049,
      "▁चूहे": 2050,
      "इकिल": 2051,
      "▁चिक": 2052,
      "▁चलने": 2053,
      "▁चिंता": 2054,
      "बूढ़": 2055,
      "आआआआआआआआ": 2056,
      "वस": 2057,
      "▁पं": 2058,
      "▁जाएगी": 2059,
      "▁सारे": 2060,
      "▁तू": 2061,
      "▁काली": 2062,
      "▁लेती": 2063,
      "्यू": 2064,
      "धु": 2065,
      "▁झूले": 2066,
      "▁मिले": 2067,
      "आज": 2068,
      "▁घो": 2069,
      "▁आवाज़ें": 2070,
      "▁असली": 2071,
      "तब": 2072,
      "ाँच": 2073,
      "▁रहें": 2074,
      "जिससे": 2075,
      "श्श्श्श्श्श्श्श्": 2076,
      "▁उत": 2077,
      "▁टॉमी": 2078,
      "▁आँखों": 2079,
      "ज़रूर": 2080,
      "▁स्वस्थ": 2081,
      "▁बोतल": 2082,
      "▁बाहों": 2083,
      "▁पहुँची": 2084,
      "बाद": 2085,
      "डे": 2086,
      "▁लगाती": 2087,
      "▁दिखता": 2088,
      "▁पहाड़ी": 2089,
      "▁मन": 2090,
      "▁चूहा": 2091,
      "▁योजना": 2092,
      "वान": 2093,
      "▁माफ़ी": 2094,
      "▁फैला": 2095,
      "▁नीली": 2096,
      "मैरी": 2097,
      "▁फल": 2098,
      "▁अंग": 2099,
      "▁खराब": 2100,
      "▁ब्र": 2101,
      "▁आना": 2102,
      "▁फ़ोन": 2103,
      "▁किताबें": 2104,
      "थो": 2105,
      "जिल": 2106,
      "▁बजाईं": 2107,
      "▁हँसते": 2108,
      "रुक": 2109,
      "▁क्रे": 2110,
      "▁व्यस्त": 2111,
      "▁झी": 2112,
      "▁मुला": 2113,
      "ूंगी": 2114,
      "▁झप": 2115,
      "▁सैली": 2116,
      "▁डूब": 2117,
      "▁देखीं": 2118,
      "▁कहान": 2119,
      "▁बाल्": 2120,
      "▁इंतज़ार": 2121,
      "▁नीले": 2122,
      "तू": 2123,
      "▁रस्": 2124,
      "▁अगली": 2125,
      "ौल": 2126,
      "▁बुरी": 2127,
      "ैन": 2128,
      "▁सजा": 2129,
      "▁जिसमें": 2130,
      "▁गोल": 2131,
      "▁हंसी": 2132,
      "▁दिलच": 2133,
      "ँह": 2134,
      "आपको": 2135,
      "▁बर्फ": 2136,
      "▁कार्ड": 2137,
      "ाहट": 2138,
      "इसमें": 2139,
      "▁चुप": 2140,
      "▁मांगी": 2141,
      "▁शर्मिंदा": 2142,
      "▁मुँह": 2143,
      "▁बुलाया": 2144,
      "▁लिखा": 2145,
      "▁छा": 2146,
      "▁बाल्टी": 2147,
      "▁पिं": 2148,
      "▁आओ": 2149,
      ".\"": 2150,
      "▁जिन": 2151,
      "रुको": 2152,
      "िट": 2153,
      "▁दिला": 2154,
      "▁काले": 2155,
      "▁चलते": 2156,
      "▁साहस": 2157,
      "▁बादल": 2158,
      "▁बेच": 2159,
      "▁पकड़े": 2160,
      "▁चाला": 2161,
      "▁ड्रैगन": 2162,
      "▁झाड़ी": 2163,
      "इल": 2164,
      "िनर": 2165,
      "▁गीत": 2166,
      "▁झूलों": 2167,
      "▁कूदकर": 2168,
      "भव": 2169,
      "▁विश": 2170,
      "त्तख": 2171,
      "▁मानी": 2172,
      "▁बेंच": 2173,
      "क्षस": 2174,
      "▁चढ़ने": 2175,
      "▁दबा": 2176,
      "फ़ेद": 2177,
      "▁खोली": 2178,
      "▁उड़ने": 2179,
      "▁छूना": 2180,
      "र्क": 2181,
      "ैर्य": 2182,
      "▁डॉक्टर": 2183,
      "इना": 2184,
      "▁बाँ": 2185,
      "टिंग": 2186,
      "▁पड़े": 2187,
      "▁तब": 2188,
      "▁पैक": 2189,
      "▁मूर्ख": 2190,
      "▁पका": 2191,
      "जिसका": 2192,
      "न्म": 2193,
      "▁जीव": 2194,
      "▁टुकड़ों": 2195,
      "गड़": 2196,
      "▁ई": 2197,
      "▁मू": 2198,
      "आया": 2199,
      "ॉग": 2200,
      "▁टकरा": 2201,
      "▁बीमार": 2202,
      "्याल": 2203,
      "▁रोते": 2204,
      "▁चिप": 2205,
      "▁चादर": 2206,
      "पेड़": 2207,
      "▁रि": 2208,
      "▁हाथी": 2209,
      "ंचे": 2210,
      "▁पूछता": 2211,
      "▁लिख": 2212,
      "▁विनम्र": 2213,
      "महिला": 2214,
      "कत": 2215,
      "बस": 2216,
      "▁खुशबू": 2217,
      "यरी": 2218,
      "न्मदिन": 2219,
      "▁सैंडविच": 2220,
      "बन": 2221,
      "ियां": 2222,
      "▁राजकुमारी": 2223,
      "जोर": 2224,
      "नें": 2225,
      "▁मचा": 2226,
      "▁ढूंढने": 2227,
      "▁धैर्य": 2228,
      "▁सीखना": 2229,
      "ार्थी": 2230,
      "▁सकी": 2231,
      "इससे": 2232,
      "▁रस्सी": 2233,
      "है": 2234,
      "पार्क": 2235,
      "भाव": 2236,
      "खु": 2237,
      "पो": 2238,
      "▁दौड़ता": 2239,
      "▁लीं": 2240,
      "▁फंस": 2241,
      "▁घा": 2242,
      "▁पहनना": 2243,
      "बड़े": 2244,
      "▁सामान": 2245,
      "▁खिला": 2246,
      "▁इसके": 2247,
      "▁चाबी": 2248,
      "फिन": 2249,
      "▁सम्": 2250,
      "▁उपयोग": 2251,
      "▁उसी": 2252,
      "प्यारी": 2253,
      "▁सम्मान": 2254,
      "बोट": 2255,
      "यमय": 2256,
      "क्सर": 2257,
      "▁समुद्री": 2258,
      "▁खोलने": 2259,
      "▁स्नो": 2260,
      "बूढ़े": 2261,
      "▁उड़ना": 2262,
      "▁शामिल": 2263,
      "टना": 2264,
      "▁दृ": 2265,
      "▁मुड़": 2266,
      "▁भरे": 2267,
      "▁स्वी": 2268,
      "▁डाला": 2269,
      "क्कर": 2270,
      "▁कल": 2271,
      "▁जोड़": 2272,
      "▁बैठे": 2273,
      "▁जन्मदिन": 2274,
      "्रम": 2275,
      "परिवार": 2276,
      "िल्ले": 2277,
      "▁चलना": 2278,
      "▁चालाक": 2279,
      "▁चॉक": 2280,
      "▁पूल": 2281,
      "▁पहना": 2282,
      "▁बीज": 2283,
      "▁खुशहाल": 2284,
      "▁बाड़": 2285,
      "▁पुरानी": 2286,
      "▁खरीदने": 2287,
      "्वी": 2288,
      "▁कोट": 2289,
      "ताव": 2290,
      "कात": 2291,
      "▁झील": 2292,
      "▁दूध": 2293,
      "ंगन": 2294,
      "▁पीला": 2295,
      "िप": 2296,
      "▁चाय": 2297,
      "बॉल": 2298,
      "▁जादू": 2299,
      "▁छूने": 2300,
      "▁दौड़कर": 2301,
      "▁ओवन": 2302,
      "▁भूरा": 2303,
      "▁कू": 2304,
      "ाँकि": 2305,
      "▁स्वार्थी": 2306,
      "▁मुलाकात": 2307,
      "▁हरा": 2308,
      "▁डरी": 2309,
      "कली": 2310,
      "▁वही": 2311,
      "▁भागने": 2312,
      "▁चाहोगी": 2313,
      "▁रखता": 2314,
      "▁परवाह": 2315,
      "▁रहस्यमय": 2316,
      "स्ती": 2317,
      "ट्स": 2318,
      "▁मार्": 2319,
      "▁कोने": 2320,
      "▁पुराना": 2321,
      "▁दिलचस्प": 2322,
      "▁सित": 2323,
      "▁समस्या": 2324,
      "▁मांग": 2325,
      "कों": 2326,
      "▁हंसे": 2327,
      "ऊँ": 2328,
      "▁निकली": 2329,
      "▁उड़ान": 2330,
      "इसके": 2331,
      "अर": 2332,
      "▁पर्या": 2333,
      "केत": 2334,
      "▁दांत": 2335,
      "▁मिठा": 2336,
      "▁कहानियाँ": 2337,
      "▁गाड़ी": 2338,
      "▁सफ़ेद": 2339,
      "▁ऐसे": 2340,
      "▁फिसल": 2341,
      "▁चौ": 2342,
      "▁काला": 2343,
      "▁हिलाते": 2344,
      "ॉनी": 2345,
      "▁साइकिल": 2346,
      "तुम्हारे": 2347,
      "▁खींचा": 2348,
      "▁सुनना": 2349,
      "▁सहमत": 2350,
      "▁\n": 2351,
      "ोटी": 2352,
      "▁हिस्सा": 2353,
      "▁रखती": 2354,
      "▁पुराने": 2355,
      "▁संग": 2356,
      "बारी": 2357,
      "▁दुर्": 2358,
      "▁एमी": 2359,
      "▁पतंग": 2360,
      "ंडी": 2361,
      "लांग": 2362,
      "▁पर्याप्त": 2363,
      "▁जता": 2364,
      "▁जूस": 2365,
      "पानी": 2366,
      "ुरी": 2367,
      "▁अंधेरा": 2368,
      "▁ताकत": 2369,
      "▁दौड़ने": 2370,
      "बाप": 2371,
      "बेरी": 2372,
      "▁जैसा": 2373,
      "छता": 2374,
      "▁भ्रम": 2375,
      "▁पढ़ना": 2376,
      "ंजन": 2377,
      "मान्य": 2378,
      "▁तेजी": 2379,
      "बूत": 2380,
      "कीन": 2381,
      "कड़ी": 2382,
      "कूद": 2383,
      "▁किसान": 2384,
      "▁डिनर": 2385,
      "▁पंखों": 2386,
      "▁खड़ा": 2387,
      "▁गहरी": 2388,
      "▁शक्त": 2389,
      "साथ": 2390,
      "▁झपकी": 2391,
      "जु": 2392,
      "▁कमरा": 2393,
      "▁पुक": 2394,
      "शन": 2395,
      "▁पछता": 2396,
      "▁आंगन": 2397,
      "▁हरे": 2398,
      "▁छलांग": 2399,
      "▁अनो": 2400,
      "▁गड़बड़": 2401,
      "एगा": 2402,
      "▁स्वीकार": 2403,
      "▁सीटी": 2404,
      "▁गुजर": 2405,
      "▁ज़ोर": 2406,
      "▁होंगे": 2407,
      "▁प्रभाव": 2408,
      "थोड़ी": 2409,
      "जिए": 2410,
      "▁मिन": 2411,
      "▁पिक": 2412,
      "▁इतने": 2413,
      "शीन": 2414,
      "मीर": 2415,
      "▁खाते": 2416,
      "▁हवाई": 2417,
      "▁डिब्": 2418,
      "गार": 2419,
      "▁बैठने": 2420,
      "▁टुकड़े": 2421,
      "फ्": 2422,
      "▁साँस": 2423,
      "इए": 2424,
      "▁पों": 2425,
      "▁लहर": 2426,
      "▁जिल": 2427,
      "णी": 2428,
      "▁जाँच": 2429,
      "▁ऊंची": 2430,
      "िशाली": 2431,
      "▁गाँ": 2432,
      "▁ग्र": 2433,
      "▁नाचना": 2434,
      "बारिश": 2435,
      "हंस": 2436,
      "▁लाइनों": 2437,
      "▁डे": 2438,
      "▁पड़ोसी": 2439,
      "▁कूल": 2440,
      "▁खेलें": 2441,
      "पिताजी": 2442,
      "हरे": 2443,
      "▁मज़बूत": 2444,
      "तों": 2445,
      "▁पकड़ना": 2446,
      "क्ख": 2447,
      "▁गुफा": 2448,
      "▁जितना": 2449,
      "▁खजाने": 2450,
      "▁जरूरत": 2451,
      "▁ख्याल": 2452,
      "▁धा": 2453,
      "▁चित्रित": 2454,
      "जुक": 2455,
      "्यास": 2456,
      "▁पेश": 2457,
      "▁जीवन": 2458,
      "▁संकेत": 2459,
      "्न": 2460,
      "▁सुनते": 2461,
      "▁पछतावा": 2462,
      "▁रुककर": 2463,
      "भले": 2464,
      "सले": 2465,
      "▁उछ": 2466,
      "▁पालन": 2467,
      "ॉकेट": 2468,
      "▁पहनी": 2469,
      "▁उल्लू": 2470,
      "▁फिट": 2471,
      "डियो": 2472,
      "▁शो": 2473,
      "▁कारें": 2474,
      "▁अनुम": 2475,
      "▁रोमांचित": 2476,
      "▁स्नैक्स": 2477,
      "▁भ्रमित": 2478,
      "▁दिनों": 2479,
      "▁सिखाया": 2480,
      "▁जताई": 2481,
      "▁पीले": 2482,
      "▁शायद": 2483,
      "▁भूखा": 2484,
      "▁तैरते": 2485,
      "▁हल्": 2486,
      "▁जाएंगे": 2487,
      "ड्डी": 2488,
      "▁अभ्यास": 2489,
      "चना": 2490,
      "▁बत्तख": 2491,
      "ज़मा": 2492,
      "▁परी": 2493,
      "▁सीढ़ी": 2494,
      "▁पिल्ले": 2495,
      "▁आज़मा": 2496,
      "▁मुस्कुराता": 2497,
      "▁शक्तिशाली": 2498,
      "▁गं": 2499,
      "डॉ": 2500,
      "▁जाया": 2501,
      "▁स्टि": 2502,
      "▁नारंगी": 2503,
      "त्र": 2504,
      "▁विमान": 2505,
      "नीचे": 2506,
      "▁नाजुक": 2507,
      "▁बेनी": 2508,
      "▁सोचते": 2509,
      "!\"\n\n\"": 2510,
      "लोग": 2511,
      "एम्मा": 2512,
      "▁इसका": 2513,
      "▁मैंने": 2514,
      "जेनी": 2515,
      "▁बढ़ाया": 2516,
      "▁सारी": 2517,
      "▁झुक": 2518,
      "पेट": 2519,
      "▁जहाज": 2520,
      "▁कीं": 2521,
      "▁बढ़ा": 2522,
      "▁सॉ": 2523,
      "▁देगा": 2524,
      "▁पाने": 2525,
      "▁उठाने": 2526,
      "खेल": 2527,
      "▁अदा": 2528,
      "▁यकीन": 2529,
      "फाई": 2530,
      "▁अनुभव": 2531,
      "तावनी": 2532,
      "िका": 2533,
      "▁पाते": 2534,
      "▁लोमड़ी": 2535,
      "▁मददगार": 2536,
      "▁सहमति": 2537,
      "बिली": 2538,
      "हाय": 2539,
      "▁लेट": 2540,
      "▁हमारी": 2541,
      "▁हंसा": 2542,
      "जानवर": 2543,
      "▁लकड़ी": 2544,
      "▁उठ": 2545,
      "▁हंसने": 2546,
      "स्थित": 2547,
      "▁क्रेय": 2548,
      "▁पिकनिक": 2549,
      "फान": 2550,
      "▁तैरना": 2551,
      "अच्छा": 2552,
      "▁रोटी": 2553,
      "सोर": 2554,
      "▁दीं": 2555,
      "▁जाग": 2556,
      "इनासोर": 2557,
      "▁गति": 2558,
      "▁उतना": 2559,
      "▁पाल": 2560,
      "▁बाथर": 2561,
      "फ्ट": 2562,
      "▁सोफे": 2563,
      "▁इसलिए": 2564,
      "▁कूदने": 2565,
      "▁चेतावनी": 2566,
      "किसान": 2567,
      "मच्छ": 2568,
      "शेर": 2569,
      "ॉबी": 2570,
      "करण": 2571,
      "तन": 2572,
      "फूल": 2573,
      "▁खाली": 2574,
      "ुए": 2575,
      "ार्ड": 2576,
      "▁कारण": 2577,
      "श्न": 2578,
      "▁छिपाने": 2579,
      "आइए": 2580,
      "▁सपना": 2581,
      "▁डूबने": 2582,
      "राज़": 2583,
      "कप": 2584,
      "▁सांस": 2585,
      "▁राक्षस": 2586,
      "▁आसान": 2587,
      "▁दादा": 2588,
      "हेलो": 2589,
      "▁खड़े": 2590,
      "द्दी": 2591,
      "▁गुज़र": 2592,
      "▁चूम": 2593,
      "नीय": 2594,
      "साल": 2595,
      "▁कड़ी": 2596,
      "▁एक्स": 2597,
      "▁मिठाई": 2598,
      "ार्म": 2599,
      "▁जिससे": 2600,
      "▁बातें": 2601,
      "ंसा": 2602,
      "अंदर": 2603,
      "▁कीम": 2604,
      "▁सब्": 2605,
      "▁सीखने": 2606,
      "▁दरवाज़ा": 2607,
      "व्य": 2608,
      "▁मशीन": 2609,
      "▁लहरा": 2610,
      "ल्कि": 2611,
      "▁चाकू": 2612,
      "ट्टा": 2613,
      "▁चींटी": 2614,
      "ग्": 2615,
      "उसमें": 2616,
      "▁जिसके": 2617,
      "▁मौका": 2618,
      "▁सोना": 2619,
      "▁रेस": 2620,
      "जली": 2621,
      "▁कॉ": 2622,
      "हालाँकि": 2623,
      "जरे": 2624,
      "▁बिली": 2625,
      "▁रोबोट": 2626,
      "▁बैठा": 2627,
      "श्य": 2628,
      "यान": 2629,
      "केक": 2630,
      "बोर्ड": 2631,
      "▁ठंड": 2632,
      "ॉर्ड": 2633,
      "वसनीय": 2634,
      "▁नींद": 2635,
      "▁आकारों": 2636,
      "▁मीठा": 2637,
      "▁\n\n\"": 2638,
      "▁हासिल": 2639,
      "▁कूदता": 2640,
      "▁उपकरण": 2641,
      "ेंट": 2642,
      "तुम्हारी": 2643,
      "▁करूँगा": 2644,
      "▁कच": 2645,
      "ड़का": 2646,
      "▁खाई": 2647,
      "▁भाग्य": 2648,
      "▁हैरानी": 2649,
      "▁घुटने": 2650,
      "▁रत्": 2651,
      "▁छाया": 2652,
      "▁नाटक": 2653,
      "▁करूँगी": 2654,
      "▁पालतू": 2655,
      "माफ़": 2656,
      "जिम": 2657,
      "▁शर्ट": 2658,
      "कर्ष": 2659,
      "▁चख": 2660,
      "▁इसमें": 2661,
      "▁हेल": 2662,
      "▁सामान्य": 2663,
      "▁जंगली": 2664,
      "▁छत": 2665,
      "नो": 2666,
      "वस्थित": 2667,
      "▁चक्कर": 2668,
      "▁बनाती": 2669,
      "▁पत्ते": 2670,
      "▁तरीके": 2671,
      "प्र": 2672,
      "ैंप": 2673,
      "▁पिल्ला": 2674,
      "▁नुक": 2675,
      "▁बनाता": 2676,
      "ंट": 2677,
      "्रॉ": 2678,
      "क्षम": 2679,
      "▁गीला": 2680,
      "▁स्नोमैन": 2681,
      "▁सक्षम": 2682,
      "▁सीट": 2683,
      "सावध": 2684,
      "▁चुं": 2685,
      "▁चिट्": 2686,
      "कहानी": 2687,
      "धुपा": 2688,
      "▁पेट": 2689,
      "▁आकर्ष": 2690,
      "गरमच्छ": 2691,
      "▁कागज": 2692,
      "▁घोंसले": 2693,
      "▁खेलकर": 2694,
      "▁दोस्ती": 2695,
      "▁जिद्दी": 2696,
      "▁नुकसान": 2697,
      "िरण": 2698,
      "तंत्र": 2699,
      "▁अमीर": 2700,
      "लेक्स": 2701,
      "▁हामी": 2702,
      "▁भागना": 2703,
      "▁उंगली": 2704,
      "बूतर": 2705,
      "डरूम": 2706,
      "▁हिलने": 2707,
      "▁क्रेयॉन": 2708,
      "फ़ा": 2709,
      "▁बादलों": 2710,
      "▁शर्मी": 2711,
      "धारण": 2712,
      "▁मुड़कर": 2713,
      "रि": 2714,
      "वना": 2715,
      "▁उठी": 2716,
      "▁फायर": 2717,
      "जुर्ग": 2718,
      "जूद": 2719,
      "धा": 2720,
      "ेंस": 2721,
      "ल्य": 2722,
      "▁स्नैक": 2723,
      "▁सुनने": 2724,
      "ाहर": 2725,
      "वेल": 2726,
      "▁नो": 2727,
      "हाथ": 2728,
      "▁इसकी": 2729,
      "▁तुमने": 2730,
      "▁भागा": 2731,
      "▁छिड़का": 2732,
      "▁बेडरूम": 2733,
      "मानदार": 2734,
      "▁खोजना": 2735,
      "▁डाइनासोर": 2736,
      "▁पाइ": 2737,
      "स्तव": 2738,
      "▁बर्तन": 2739,
      "अगली": 2740,
      "▁सफेद": 2741,
      "▁गेम": 2742,
      "▁जेली": 2743,
      "्रेड": 2744,
      "ट्टे": 2745,
      "▁भरो": 2746,
      "▁ड्राइवर": 2747,
      "▁छीन": 2748,
      "▁चॉकलेट": 2749,
      "▁सच": 2750,
      "▁ज्": 2751,
      "ताल": 2752,
      "▁घं": 2753,
      "▁पहुंचा": 2754,
      "▁किस": 2755,
      "▁सुझा": 2756,
      "▁पुल": 2757,
      "▁ब्रश": 2758,
      "▁मारा": 2759,
      "▁शेल": 2760,
      "▁चलता": 2761,
      "▁स्वतंत्र": 2762,
      "▁घंटी": 2763,
      "▁प्रिं": 2764,
      "सैमी": 2765,
      "▁जैसी": 2766,
      "कित": 2767,
      "रीर": 2768,
      "▁हिलाता": 2769,
      "▁मुस्कुराईं": 2770,
      "▁कठ": 2771,
      "जनबी": 2772,
      "स्टल": 2773,
      "भाग": 2774,
      "मंत्र": 2775,
      "▁शरीर": 2776,
      "मेंढक": 2777,
      "▁बिख": 2778,
      "बच्चों": 2779,
      "म्मत": 2780,
      "▁विश्वसनीय": 2781,
      "क्के": 2782,
      "कोई": 2783,
      "्रिंग": 2784,
      "▁आंख": 2785,
      "▁किताबों": 2786,
      "नाव": 2787,
      "ाइल": 2788,
      "र्न": 2789,
      "काय": 2790,
      "बि": 2791,
      "▁राजा": 2792,
      "स्पताल": 2793,
      "बाहर": 2794,
      "ज़्": 2795,
      "▁दरवाज़े": 2796,
      "यानक": 2797,
      "कट": 2798,
      "स्क्विरल": 2799,
      "ंकर": 2800,
      "▁पहनने": 2801,
      "▁जैकेट": 2802,
      "▁झूला": 2803,
      "सार": 2804,
      "▁बहस": 2805,
      "ैंक": 2806,
      "जकुमार": 2807,
      "हवा": 2808,
      "ॉय": 2809,
      "▁लगती": 2810,
      "ट्वी": 2811,
      "▁शब्दों": 2812,
      "▁रत्न": 2813,
      "ट्रक": 2814,
      "▁मेल": 2815,
      "▁खजाना": 2816,
      "नान": 2817,
      "▁भेड़": 2818,
      "▁नं": 2819,
      "▁दौड़ती": 2820,
      "▁झाँ": 2821,
      "▁छिपने": 2822,
      "▁सुझाव": 2823,
      "चड़": 2824,
      "वाज": 2825,
      "▁चुका": 2826,
      "▁घूमते": 2827,
      "आपने": 2828,
      "▁बजाना": 2829,
      "▁मछलियों": 2830,
      "रररररररररररररररर": 2831,
      "नि": 2832,
      "▁फे": 2833,
      "हमारे": 2834,
      "▁बोल": 2835,
      "▁चढ़कर": 2836,
      "ंज": 2837,
      "बरा": 2838,
      "▁अक्सर": 2839,
      "▁दें": 2840,
      "▁फु": 2841,
      "्हें": 2842,
      "▁चढ़ा": 2843,
      "▁अंधेरे": 2844,
      "जिन": 2845,
      "लबु": 2846,
      "ैसा": 2847,
      "▁सुनती": 2848,
      "▁आएगा": 2849,
      "▁ईमानदार": 2850,
      "बल्कि": 2851,
      "▁कीजिए": 2852,
      "▁हरी": 2853,
      "फेक्ट": 2854,
      "▁कंबल": 2855,
      "पु": 2856,
      "सों": 2857,
      "क्खी": 2858,
      "▁भयानक": 2859,
      "भीर": 2860,
      "▁ठंडी": 2861,
      "ासा": 2862,
      "▁रिक": 2863,
      "टियों": 2864,
      "क्रो": 2865,
      "थरों": 2866,
      "्प": 2867,
      "▁लंच": 2868,
      "▁व्यवस्थित": 2869,
      "▁पैन": 2870,
      "▁तूफान": 2871,
      "कल": 2872,
      "गेंद": 2873,
      "▁चबा": 2874,
      "▁भाग्यशाली": 2875,
      "ैडी": 2876,
      "▁आवाज": 2877,
      "▁काफी": 2878,
      "▁मां": 2879,
      "▁पहुंच": 2880,
      "जिसके": 2881,
      "्वारा": 2882,
      "▁परफेक्ट": 2883,
      "▁छु": 2884,
      "जिमी": 2885,
      "भे": 2886,
      "▁कान": 2887,
      "िशान": 2888,
      "▁पीली": 2889,
      "▁निर्ण": 2890,
      "दर्श": 2891,
      "▁कीचड़": 2892,
      "ार्थना": 2893,
      "▁पत्तियों": 2894,
      "▁घायल": 2895,
      "▁सब्ज": 2896,
      "▁गै": 2897,
      "▁उधार": 2898,
      "▁शादी": 2899,
      "▁पेंसिल": 2900,
      "ूह": 2901,
      "▁अस्पताल": 2902,
      "▁उबा": 2903,
      "▁जिज्ञासा": 2904,
      "▁चों": 2905,
      "▁उठाई": 2906,
      "मछ": 2907,
      "▁साधारण": 2908,
      "ूँगी": 2909,
      "फ़ान": 2910,
      "▁चुरा": 2911,
      "ुटबॉल": 2912,
      "आस": 2913,
      "एमिली": 2914,
      "िल्म": 2915,
      "▁कपड़ों": 2916,
      "▁बक्सा": 2917,
      "▁प्राणी": 2918,
      "▁काटा": 2919,
      "▁हँसी": 2920,
      "▁जहाज़": 2921,
      "▁पुलिस": 2922,
      "चूहे": 2923,
      "▁फ़े": 2924,
      "▁बर्फ़": 2925,
      "▁टीवी": 2926,
      "▁माँगते": 2927,
      "▁प्लेट": 2928,
      "ऊंगा": 2929,
      "▁रॉकेट": 2930,
      "▁दौरा": 2931,
      "▁लगने": 2932,
      "▁पकड़कर": 2933,
      "▁टेप": 2934,
      "▁दिखने": 2935,
      "▁गंभीर": 2936,
      "जाओ": 2937,
      "टका": 2938,
      "▁निशान": 2939,
      "▁उतर": 2940,
      "▁पीठ": 2941,
      "पॉप": 2942,
      "▁खेलता": 2943,
      "▁घड़ी": 2944,
      "▁मज़ाक": 2945,
      "धुपाने": 2946,
      "▁तारों": 2947,
      "▁बेरी": 2948,
      "▁एम्मा": 2949,
      "▁पूछना": 2950,
      "▁अगले": 2951,
      "आसमान": 2952,
      "फ्लफी": 2953,
      "▁मैरी": 2954,
      "▁गाँव": 2955,
      "नाम": 2956,
      "दोस्त": 2957,
      "▁पेंटिंग": 2958,
      "▁बजाते": 2959,
      "▁चोंच": 2960,
      "धुम": 2961,
      "▁फ्लफी": 2962,
      "▁प्रार्थना": 2963,
      "▁झूलना": 2964,
      "▁बचाने": 2965,
      "▁कटोरे": 2966,
      "▁माइ": 2967,
      "▁बूढ़ा": 2968,
      "▁स्नान": 2969,
      "ःख": 2970,
      "▁खेलती": 2971,
      "रीब": 2972,
      "फ़्": 2973,
      "▁बुलबु": 2974,
      "सुथ": 2975,
      "▁जानने": 2976,
      "पीटर": 2977,
      "जिसने": 2978,
      "▁प्ला": 2979,
      "▁सफलता": 2980,
      "स्तक": 2981,
      "▁रिकॉर्ड": 2982,
      "▁उबाऊ": 2983,
      "▁बैठी": 2984,
      "▁लीला": 2985,
      "▁घोड़े": 2986,
      "▁पिया": 2987,
      "▁खड़ी": 2988,
      "▁पत्थरों": 2989,
      "▁छिड़क": 2990,
      "▁काटने": 2991,
      "यी": 2992,
      "हद": 2993,
      "▁हमारा": 2994,
      "लोर": 2995,
      "▁सुनता": 2996,
      "▁ब्लू": 2997,
      "▁पट्टी": 2998,
      "▁सीढ़": 2999,
      "▁कैसा": 3000,
      "आआआआआआआआआआआआआआआआ": 3001,
      "▁खुला": 3002,
      "▁बांध": 3003,
      "▁कालीन": 3004,
      "▁पिंजरे": 3005,
      "सावधान": 3006,
      "▁किले": 3007,
      "▁बाकी": 3008,
      "▁प्रभावित": 3009,
      "▁क्ष": 3010,
      "▁लाइन": 3011,
      "▁डॉल्स": 3012,
      "▁साहसिक": 3013,
      "▁इन": 3014,
      "▁डरे": 3015,
      "▁आकर्षक": 3016,
      "▁हड्डी": 3017,
      "र्च": 3018,
      "▁निकले": 3019,
      "▁गंदगी": 3020,
      "▁घुमाया": 3021,
      "▁गंदे": 3022,
      "▁निर्णय": 3023,
      "▁कितने": 3024,
      "▁बर्बाद": 3025,
      "खुश": 3026,
      "लसी": 3027,
      "शर": 3028,
      "▁नौ": 3029,
      "▁स्टी": 3030,
      "▁धी": 3031,
      "▁दुःख": 3032,
      "▁इमार": 3033,
      "मिस्टर": 3034,
      "श्श्श्श्श्श्श्श्श्श्श्श्श्श्श्श्": 3035,
      "ग्र": 3036,
      "▁गाया": 3037,
      "▁बहादुरी": 3038,
      "फादार": 3039,
      "▁सुल": 3040,
      "▁डाली": 3041,
      "इट": 3042,
      "▁आईं": 3043,
      "▁खरीदा": 3044,
      "▁विशाल": 3045,
      "▁रिबन": 3046,
      "मब": 3047,
      "▁तैरने": 3048,
      "▁ठंडे": 3049,
      "था": 3050,
      "▁रक्षा": 3051,
      "▁चालू": 3052,
      "तान": 3053,
      "▁पाकर": 3054,
      "▁शे": 3055,
      "▁वास्तव": 3056,
      "▁गाते": 3057,
      "कृति": 3058,
      "▁घंटों": 3059,
      "▁भु": 3060,
      "▁खुल": 3061,
      "नए": 3062,
      "वारी": 3063,
      "▁जश्न": 3064,
      "▁बनने": 3065,
      "जेक": 3066,
      "ँछ": 3067,
      "▁पूँछ": 3068,
      "▁चलती": 3069,
      "▁बजाय": 3070,
      "चम": 3071,
      "▁लु": 3072,
      "▁भीग": 3073,
      "▁टै": 3074,
      "्रिज": 3075,
      "िये": 3076,
      "▁देगी": 3077,
      "▁पर्स": 3078,
      "▁प्रो": 3079,
      "▁ड्रम": 3080,
      "▁जीवंत": 3081,
      "▁मिनटों": 3082,
      "▁ऊंचे": 3083,
      "▁चलो": 3084,
      "▁ये": 3085,
      "▁पैट": 3086,
      "टेडी": 3087,
      "डॉक्टर": 3088,
      "▁रोल": 3089,
      "▁वफादार": 3090,
      "▁खोद": 3091,
      "▁आपका": 3092,
      "▁जला": 3093,
      "▁शहद": 3094,
      "▁मुझ": 3095,
      "हाथी": 3096,
      "▁मिश": 3097,
      "▁खेलेंगे": 3098,
      "आवाज़": 3099,
      "▁चोटिल": 3100,
      "चूहा": 3101,
      "स्तौल": 3102,
      "जू": 3103,
      "फड़ा": 3104,
      "▁खेद": 3105,
      "▁आमंत्र": 3106,
      "▁टिक": 3107,
      "लोमड़ी": 3108,
      "ड्ढ": 3109,
      "▁रचना": 3110,
      "ूँगा": 3111,
      "▁भावना": 3112,
      "▁यही": 3113,
      "▁मछलियाँ": 3114,
      "▁बदबू": 3115,
      "▁स्टिकर": 3116,
      "▁टह": 3117,
      "▁क्ला": 3118,
      "झकर": 3119,
      "पड़": 3120,
      "▁पॉप": 3121,
      "▁कूदा": 3122,
      "▁मोड़": 3123,
      "चाप": 3124,
      "▁प्रदर्श": 3125,
      "▁सिक्का": 3126,
      "्रीम": 3127,
      "▁ढूँढने": 3128,
      "▁डरावनी": 3129,
      "▁चिट्ठी": 3130,
      "ंका": 3131,
      "कॉर्न": 3132,
      "छुए": 3133,
      "▁नकली": 3134,
      "▁तल": 3135,
      "▁फड़": 3136,
      "▁समूह": 3137,
      "▁बोर्ड": 3138,
      "▁चुपचाप": 3139,
      "तितली": 3140,
      "▁बच": 3141,
      "▁आकर": 3142,
      "▁स्ट्रिंग": 3143,
      "▁हिम्मत": 3144,
      "जॉनी": 3145,
      "वट": 3146,
      "▁मिलना": 3147,
      "▁बताने": 3148,
      "▁बाथरूम": 3149,
      "▁संद": 3150,
      "▁दवा": 3151,
      "स्केट": 3152,
      "▁नियम": 3153,
      "▁पत्तों": 3154,
      "▁गड़बड़ी": 3155,
      "भू": 3156,
      "▁ताल": 3157,
      "▁निकालने": 3158,
      "▁सुलझा": 3159,
      "▁आमंत्रित": 3160,
      "एलिस": 3161,
      "जबकि": 3162,
      "▁जगहों": 3163,
      "▁माइक्रो": 3164,
      "▁इमारत": 3165,
      "▁सत": 3166,
      "▁सवारी": 3167,
      "▁थै": 3168,
      "ार्फ": 3169,
      "▁चलाना": 3170,
      "▁अकेली": 3171,
      "▁भरोसा": 3172,
      "▁नहा": 3173,
      "▁भूत": 3174,
      "▁गेट": 3175,
      "चाह": 3176,
      "▁रखो": 3177,
      "ॉलीपॉप": 3178,
      "▁कीमती": 3179,
      "▁सूखा": 3180,
      "▁दृश्य": 3181,
      "ंह": 3182,
      "एगी": 3183,
      "त्साह": 3184,
      "▁प्रश": 3185,
      "्लू": 3186,
      "▁गंदी": 3187,
      "▁संतुलन": 3188,
      "▁नजर": 3189,
      "स्वागत": 3190,
      "क्रे": 3191,
      "▁फड़फड़ा": 3192,
      "▁लैंप": 3193,
      "▁नमस्ते": 3194,
      "प्पी": 3195,
      "▁सीढ़ियों": 3196,
      "▁परि": 3197,
      "▁कटोरा": 3198,
      "गल": 3199,
      "▁मोमब": 3200,
      "ट्वीटी": 3201,
      "▁टोकरी": 3202,
      "▁इकट्ठे": 3203,
      "▁नाराज": 3204,
      "▁संग्र": 3205,
      "ष्": 3206,
      "▁पुर": 3207,
      "▁औरत": 3208,
      "▁हिलाई": 3209,
      "▁जिम": 3210,
      "▁प्राप्त": 3211,
      "▁द्वी": 3212,
      "▁द्वारा": 3213,
      "▁लें": 3214,
      "▁भूरे": 3215,
      "▁कैंची": 3216,
      "▁नंबर": 3217,
      "▁द्वीप": 3218,
      "बॉक्स": 3219,
      "▁बास्केट": 3220,
      "ूँघ": 3221,
      "मुखी": 3222,
      "▁ट्री": 3223,
      "▁छोड़ना": 3224,
      "णा": 3225,
      "▁सला": 3226,
      "ज़े": 3227,
      "▁फ्रिज": 3228,
      "▁हिलाकर": 3229,
      "▁पिस्तौल": 3230,
      "▁मगरमच्छ": 3231,
      "चाहे": 3232,
      "पह": 3233,
      "लभ": 3234,
      "स्कार": 3235,
      "▁टूटी": 3236,
      "▁कीड़ों": 3237,
      "▁ताज": 3238,
      "▁उछल": 3239,
      "▁कबूतर": 3240,
      "▁प्रे": 3241,
      "▁उंगल": 3242,
      "ज़न": 3243,
      "▁पर्": 3244,
      "▁पर्व": 3245,
      "▁समा": 3246,
      "▁बैठना": 3247,
      "▁स्ट्रॉ": 3248,
      "▁मिस्टर": 3249,
      "▁सवा": 3250,
      "▁आटा": 3251,
      "▁मुंह": 3252,
      "▁भागते": 3253,
      "वक": 3254,
      "▁सूँघ": 3255,
      "▁बिल्": 3256,
      "▁अंडे": 3257,
      "ोंद": 3258,
      "ल्प": 3259,
      "▁प्रशंसा": 3260,
      "्फ़": 3261,
      "▁उदार": 3262,
      "ढ़ा": 3263,
      "▁मौजूद": 3264,
      "▁नक्": 3265,
      "क्षक": 3266,
      "▁डाक": 3267,
      "ेष": 3268,
      "▁पॉल": 3269,
      "▁चांद": 3270,
      "▁टूटे": 3271,
      "▁घुटनों": 3272,
      "यही": 3273,
      "▁लॉलीपॉप": 3274,
      "▁गार्ड": 3275,
      "फ़े": 3276,
      "▁बोले": 3277,
      "▁लापर": 3278,
      "▁पौधे": 3279,
      "वेटर": 3280,
      "्यूटर": 3281,
      "भग": 3282,
      "▁चखा": 3283,
      "▁लगाता": 3284,
      "▁दिखती": 3285,
      "▁डिब्बे": 3286,
      "▁पाइप": 3287,
      "ॉपी": 3288,
      "▁हट": 3289,
      "▁मॉली": 3290,
      "▁गहरा": 3291,
      "▁बच्ची": 3292,
      "्राउ": 3293,
      "िंक": 3294,
      "लाह": 3295,
      "▁प्रकार": 3296,
      "▁निकलकर": 3297,
      "▁नाचने": 3298,
      "हेल्प": 3299,
      "खिल": 3300,
      "▁सौ": 3301,
      "▁तोड़ने": 3302,
      "▁दुर्लभ": 3303,
      "भाग्य": 3304,
      "बै": 3305,
      "▁दिखाते": 3306,
      "मेट": 3307,
      "▁टीम": 3308,
      "▁तूफ़ान": 3309,
      "वकू": 3310,
      "▁कला": 3311,
      "▁अजनबी": 3312,
      "गेटी": 3313,
      "▁बुजुर्ग": 3314,
      "▁संतुष्ट": 3315,
      "▁डैडी": 3316,
      "▁विशेष": 3317,
      "▁खोलीं": 3318,
      "▁लॉग": 3319,
      "▁गड्ढ": 3320,
      "▁टब": 3321,
      "▁नाश्": 3322,
      "▁नाराज़": 3323,
      "▁रुकने": 3324,
      "▁कार्ट": 3325,
      "▁कार्य": 3326,
      "▁ड्राइंग": 3327,
      "▁पॉपकॉर्न": 3328,
      "▁हिरण": 3329,
      "स्लाइड": 3330,
      "▁खाए": 3331,
      "▁पकड़ी": 3332,
      "▁ऐना": 3333,
      "▁पहाड़": 3334,
      "जंगल": 3335,
      "▁रसी": 3336,
      "▁आलसी": 3337,
      "किताब": 3338,
      "▁बूढ़ी": 3339,
      "▁शांतिपूर्ण": 3340,
      "▁पैटर्न": 3341,
      "▁उनमें": 3342,
      "▁ज़िप": 3343,
      "बंदर": 3344,
      "▁उत्": 3345,
      "▁आसपास": 3346,
      "▁स्थिर": 3347,
      "▁वहीं": 3348,
      "फर": 3349,
      "▁सलाह": 3350,
      "▁थका": 3351,
      "जाज": 3352,
      "माटर": 3353,
      "▁चुना": 3354,
      "▁छिड़काव": 3355,
      "▁क्रि": 3356,
      "रात": 3357,
      "▁स्पे": 3358,
      "▁डंडा": 3359,
      "राजकुमारी": 3360,
      "▁चाहेंगे": 3361,
      "▁आँसू": 3362,
      "▁उपयोगी": 3363,
      "▁पंजे": 3364,
      "▁अनुमति": 3365,
      "▁सलाद": 3366,
      "▁पर्वत": 3367,
      "सूजी": 3368,
      "▁एक्सप्": 3369,
      "तार": 3370,
      "बड़ा": 3371,
      "यु": 3372,
      "▁बैंड": 3373,
      "लाल": 3374,
      "▁प्रकाश": 3375,
      "▁बजाने": 3376,
      "▁खींचते": 3377,
      "▁अंगू": 3378,
      "▁झुककर": 3379,
      "▁दादाजी": 3380,
      "▁देंगे": 3381,
      "▁घोंसला": 3382,
      "▁उतार": 3383,
      "ऐसा": 3384,
      "▁हे": 3385,
      "▁सूर्": 3386,
      "▁स्कार्फ": 3387,
      "▁साँप": 3388,
      "▁चढ़ाई": 3389,
      "▁लड़ना": 3390,
      "▁बगीचा": 3391,
      "प्ली": 3392,
      "▁तीर": 3393,
      "▁मीठे": 3394,
      "धी": 3395,
      "▁सेट": 3396,
      "▁चलाने": 3397,
      "▁तलवार": 3398,
      "पू": 3399,
      "खासकर": 3400,
      "▁मेज़": 3401,
      "▁गर्मी": 3402,
      "▁गिनती": 3403,
      "▁मोटा": 3404,
      "▁फर": 3405,
      "उनका": 3406,
      "द्दू": 3407,
      "▁दूसरा": 3408,
      "▁जिन्हें": 3409,
      "जों": 3410,
      "मॉमी": 3411,
      "▁रग": 3412,
      "▁उतनी": 3413,
      "▁हिलाए": 3414,
      "▁सामना": 3415,
      "▁गोंद": 3416,
      "त्साहित": 3417,
      "ंनी": 3418,
      "मर": 3419,
      "▁गरीब": 3420,
      "▁इंजन": 3421,
      "ड़ाई": 3422,
      "बुन": 3423,
      "▁झाड़ियों": 3424,
      "▁उंगलियों": 3425,
      "तः": 3426,
      "▁रहेंगे": 3427,
      "▁तकिया": 3428,
      "त्मक": 3429,
      "▁फाड़": 3430,
      "▁चिपका": 3431,
      "▁पुकारा": 3432,
      "िकारी": 3433,
      "▁सिक्के": 3434,
      "खिलौ": 3435,
      "लाया": 3436,
      "▁चिल्लाता": 3437,
      "▁मौसम": 3438,
      "क्खन": 3439,
      "डा": 3440,
      "▁टेंट": 3441,
      "▁झु": 3442,
      "▁सूट": 3443,
      "▁टीचर": 3444,
      "▁पोंछ": 3445,
      "▁मॉ": 3446,
      "▁हैट": 3447,
      "केज": 3448,
      "▁पौधों": 3449,
      "तीन": 3450,
      "▁ड्रा": 3451,
      "▁तोहफे": 3452,
      "▁पड़ोस": 3453,
      "ग़": 3454,
      "▁शी": 3455,
      "दाम": 3456,
      "ल्फिन": 3457,
      "एली": 3458,
      "▁मधुम": 3459,
      "▁कमजोर": 3460,
      "िर्च": 3461,
      "दूस": 3462,
      "मार्क": 3463,
      "यास": 3464,
      "▁देखें": 3465,
      "▁पेपर": 3466,
      "▁सूअर": 3467,
      "▁बिल": 3468,
      "▁थाली": 3469,
      "▁नज़र": 3470,
      "▁मार्च": 3471,
      "तु": 3472,
      "हार": 3473,
      "▁पीने": 3474,
      "▁पहुँचने": 3475,
      "▁लापरवाह": 3476,
      "ऊंगी": 3477,
      "कह": 3478,
      "▁अंततः": 3479,
      "▁संभाल": 3480,
      "बच्चा": 3481,
      "▁रुका": 3482,
      "▁जिसने": 3483,
      "▁गीली": 3484,
      "▁प्रिंट": 3485,
      "▁स्ट्रॉबेरी": 3486,
      "▁मिलाया": 3487,
      "ड्र": 3488,
      "ोल्": 3489,
      "▁दही": 3490,
      "▁कोको": 3491,
      "▁नर्": 3492,
      "▁नष्ट": 3493,
      "▁तौल": 3494,
      "▁प्रतिभा": 3495,
      "▁नोड": 3496,
      "ृत्": 3497,
      "▁सर्": 3498,
      "मैंडी": 3499,
      "्टर": 3500,
      "बेला": 3501,
      "▁सीखते": 3502,
      "▁पढ़ने": 3503,
      "▁खरीदना": 3504,
      "▁भौंकने": 3505,
      "टार": 3506,
      "▁मुर्": 3507,
      "ंगार": 3508,
      "साले": 3509,
      "▁चीनी": 3510,
      "▁कपड़ा": 3511,
      "▁ढूंढा": 3512,
      "▁हेलमेट": 3513,
      "▁तौ": 3514,
      "▁डायरी": 3515,
      "▁गोली": 3516,
      "▁चिकना": 3517,
      "▁गम": 3518,
      "▁सुनहरी": 3519,
      "▁गिटार": 3520,
      "▁अंगूर": 3521,
      "ोड़ा": 3522,
      "▁जल": 3523,
      "▁खट्टा": 3524,
      "▁टमाटर": 3525,
      "मामा": 3526,
      "▁प्रकट": 3527,
      "▁दबाया": 3528,
      "सि": 3529,
      "▁करूंगा": 3530,
      "▁उड़कर": 3531,
      "▁एक्सप्लोर": 3532,
      "मदद": 3533,
      "ूक": 3534,
      "▁रखें": 3535,
      "डरो": 3536,
      "▁भागी": 3537,
      "बाय": 3538,
      "ड्रैगन": 3539,
      "▁ग्रे": 3540,
      "▁दोष": 3541,
      "▁बेसब": 3542,
      "▁कचरे": 3543,
      "▁बेल": 3544,
      "▁पिघ": 3545,
      "मछली": 3546,
      "▁मुझसे": 3547,
      "▁सतह": 3548,
      "पत्": 3549,
      "सेज़": 3550,
      "ैंडी": 3551,
      "▁गिरने": 3552,
      "रू": 3553,
      "वेश": 3554,
      "▁साबुन": 3555,
      "▁भूखे": 3556,
      "▁मिलेगा": 3557,
      "ट्टेन्स": 3558,
      "▁मिस": 3559,
      "▁मित्र": 3560,
      "▁त्व": 3561,
      "▁मनाया": 3562,
      "▁त्वचा": 3563,
      "▁सफाई": 3564,
      "दादा": 3565,
      "▁चीख": 3566,
      "▁बेवकू": 3567,
      "▁लगीं": 3568,
      "▁मीठी": 3569,
      "▁आजमा": 3570,
      "नु": 3571,
      "परी": 3572,
      "▁मिर्च": 3573,
      "▁खेलो": 3574,
      "▁बेबी": 3575,
      "▁हँसे": 3576,
      "▁पुरस्कार": 3577,
      "▁सवाल": 3578,
      "▁भूखी": 3579,
      "लें": 3580,
      "▁हटा": 3581,
      "▁मर": 3582,
      "▁तारी": 3583,
      "▁बेताब": 3584,
      "▁रहस्य": 3585,
      "▁तौलिया": 3586,
      "्ला": 3587,
      "▁गंध": 3588,
      "योग": 3589,
      "▁मूल्य": 3590,
      "▁पेन": 3591,
      "राजा": 3592,
      "▁लगभग": 3593,
      "▁बढ़ने": 3594,
      "▁पत्तियाँ": 3595,
      "ट्रे": 3596,
      "▁रगड़": 3597,
      "स्टि": 3598,
      "िलास": 3599,
      "▁पैकेज": 3600,
      "▁माननी": 3601,
      "▁हिस्सों": 3602,
      "▁तभी": 3603,
      "▁फुटबॉल": 3604,
      "ज्ञा": 3605,
      "▁कंधे": 3606,
      "▁कां": 3607,
      "▁स्पा": 3608,
      "▁पीना": 3609,
      "▁प्रवेश": 3610,
      "▁चिल्लाने": 3611,
      "▁भेज": 3612,
      "एंगे": 3613,
      "▁हथ": 3614,
      "▁पॉट": 3615,
      "▁डां": 3616,
      "ल्ब": 3617,
      "▁मांस": 3618,
      "▁दिखाता": 3619,
      "▁घूमता": 3620,
      "▁घूमती": 3621,
      "▁सुरक्षा": 3622,
      "▁चूमा": 3623,
      "▁तोड़ना": 3624,
      "▁क्रिए": 3625,
      "▁आंखें": 3626,
      "शि": 3627,
      "र्म": 3628,
      "िको": 3629,
      "▁कहना": 3630,
      "▁भागे": 3631,
      "▁भागता": 3632,
      "▁भूले": 3633,
      "▁आँगन": 3634,
      "जनक": 3635,
      "ॉर्ज": 3636,
      "▁गिनना": 3637,
      "▁लड़ाई": 3638,
      "▁बाघ": 3639,
      "▁ढूंढना": 3640,
      "▁स्कू": 3641,
      "▁मोटी": 3642,
      "जानवरों": 3643,
      "▁प्रदर्शन": 3644,
      "▁दोषी": 3645,
      "▁हॉर्न": 3646,
      "▁आलू": 3647,
      "▁देश": 3648,
      "▁रहेगा": 3649,
      "▁ढक": 3650,
      "्रिय": 3651,
      "▁चुंबन": 3652,
      "पि": 3653,
      "मत": 3654,
      "▁कद्दू": 3655,
      "▁हैंडल": 3656,
      "▁राजकुमार": 3657,
      "▁हिलाती": 3658,
      "▁छींक": 3659,
      "▁प्रोत्साहित": 3660,
      "हज": 3661,
      "▁कछुए": 3662,
      "▁गिलास": 3663,
      "र्रा": 3664,
      "▁लड़ने": 3665,
      "▁बादाम": 3666,
      "▁स्टे": 3667,
      "▁छोड़कर": 3668,
      "▁टीले": 3669,
      "▁टेली": 3670,
      "▁सुननी": 3671,
      "▁हंसता": 3672,
      "ऊँगा": 3673,
      "ख्": 3674,
      "यर्स": 3675,
      "नीर": 3676,
      "▁लगते": 3677,
      "ंसान": 3678,
      "हेय": 3679,
      "▁शेल्फ": 3680,
      "पै": 3681,
      "ैम्": 3682,
      "▁चाल": 3683,
      "▁पूछे": 3684,
      "टिव": 3685,
      "▁टिकट": 3686,
      "▁तालियां": 3687,
      "नसार": 3688,
      "▁सवार": 3689,
      "▁जीतना": 3690,
      "▁सैमी": 3691,
      "▁ऊंचाई": 3692,
      "▁स्कूटर": 3693,
      "▁ट्रा": 3694,
      "्याऊ": 3695,
      "▁एमिली": 3696,
      "▁संदेश": 3697,
      "बॉबी": 3698,
      "यन": 3699,
      "▁मक्खन": 3700,
      "क्क": 3701,
      "▁कांप": 3702,
      "▁सुनकर": 3703,
      "ॉप्टर": 3704,
      "दौ": 3705,
      "▁कॉल": 3706,
      "काल": 3707,
      "▁टूटा": 3708,
      "कौ": 3709,
      "जह": 3710,
      "ोको": 3711,
      "▁मसाले": 3712,
      "कीड़ा": 3713,
      "र्थ": 3714,
      "▁सुई": 3715,
      "▁गुलाब": 3716,
      "▁नीबू": 3717,
      "▁प्ले": 3718,
      "सफाई": 3719,
      "▁फू": 3720,
      "▁वी": 3721,
      "▁अनोखा": 3722,
      "अच्छ": 3723,
      "उल्लू": 3724,
      "ार्ली": 3725,
      "▁तस्वीरों": 3726,
      "▁कंप": 3727,
      "ध्य": 3728,
      "कीड़े": 3729,
      "▁धके": 3730,
      "▁मिलनसार": 3731,
      "▁निकालता": 3732,
      "▁कंघ": 3733,
      "गाह": 3734,
      "▁शंख": 3735,
      "्रण": 3736,
      "▁घु": 3737,
      "▁सिर्फ़": 3738,
      "बीच": 3739,
      "चींटी": 3740,
      "▁वीडियो": 3741,
      "▁चेन": 3742,
      "▁नम": 3743,
      "▁पाता": 3744,
      "▁कूदती": 3745,
      "▁बताते": 3746,
      "▁जेक": 3747,
      "▁सितारा": 3748,
      "धे": 3749,
      "▁वजह": 3750,
      "▁गाती": 3751,
      "▁चाचा": 3752,
      "▁लौटा": 3753,
      "ज़्ज़ा": 3754,
      "▁लटका": 3755,
      "▁किला": 3756,
      "▁बार्न": 3757,
      "▁यु": 3758,
      "पीट": 3759,
      "▁रेडियो": 3760,
      "घटना": 3761,
      "तै": 3762,
      "▁तकिए": 3763,
      "माग": 3764,
      "र्जा": 3765,
      "▁प्रकृति": 3766,
      "▁सूख": 3767,
      "▁क्रिस्टल": 3768,
      "डकी": 3769,
      "रित": 3770,
      "▁पनीर": 3771,
      "▁लपेट": 3772,
      "▁बनाईं": 3773,
      "▁बेटे": 3774,
      "हरों": 3775,
      "गुइन": 3776,
      "ऊँगी": 3777,
      "▁रचनात्मक": 3778,
      "अच्छी": 3779,
      "▁जॉनी": 3780,
      "▁दिखाती": 3781,
      "चीन": 3782,
      "▁पुकार": 3783,
      "कश": 3784,
      "कै": 3785,
      "बुक": 3786,
      "रल": 3787,
      "▁लची": 3788,
      "▁सांप": 3789,
      "▁ऊर्जा": 3790,
      "त्वना": 3791,
      "ेशन": 3792,
      "▁बिताने": 3793,
      "शुरू": 3794,
      "▁दूंगा": 3795,
      "▁कराया": 3796,
      "ाँद": 3797,
      "▁चमकने": 3798,
      "▁नोटिस": 3799,
      "गड़ाहट": 3800,
      "▁बुलबुले": 3801,
      "▁फ्रे": 3802,
      "▁इनाम": 3803,
      "र्नी": 3804,
      "इसने": 3805,
      "म्स": 3806,
      "▁पहुंचे": 3807,
      "▁बुझा": 3808,
      "▁स्टेशन": 3809,
      "▁पेशकश": 3810,
      "▁कठोर": 3811,
      "अभी": 3812,
      "ैनी": 3813,
      "र्प": 3814,
      "▁उड़ता": 3815,
      "▁पहुँचाई": 3816,
      "▁उत्सुकता": 3817,
      "येक": 3818,
      "धुनिक": 3819,
      "▁पॉलिश": 3820,
      "▁एक्": 3821,
      "▁कीट": 3822,
      "किट्टी": 3823,
      "▁बीचों": 3824,
      "▁सितारे": 3825,
      "▁अनुमान": 3826,
      "▁लेंगे": 3827,
      "वही": 3828,
      "▁सां": 3829,
      "▁फट": 3830,
      "त्ती": 3831,
      "▁बाउ": 3832,
      "सानी": 3833,
      "▁वजन": 3834,
      "▁हुईं": 3835,
      "▁रानी": 3836,
      "▁चिल्लाए": 3837,
      "▁निकाले": 3838,
      "रोज़": 3839,
      "▁घोड़ा": 3840,
      "ंगारू": 3841,
      "▁क्रिएटिव": 3842,
      "फल": 3843,
      "हमेशा": 3844,
      "▁झंडा": 3845,
      "▁सुंदरता": 3846,
      "▁काटना": 3847,
      "▁शर्मीली": 3848,
      "▁नर्वस": 3849,
      "क्कन": 3850,
      "शु": 3851,
      "▁जलने": 3852,
      "▁खरों": 3853,
      "▁लगाकर": 3854,
      "पूर्वक": 3855,
      "▁दूरी": 3856,
      "ृत": 3857,
      "▁बने": 3858,
      "वापस": 3859,
      "▁सैनिक": 3860,
      "दुकान": 3861,
      "▁जेनी": 3862,
      "▁मिश्रण": 3863,
      "बिल": 3864,
      "▁दूंगी": 3865,
      "▁निकालती": 3866,
      "लिसा": 3867,
      "▁एडवेंचर्स": 3868,
      "▁चिपचि": 3869,
      "▁ब्लूबेरी": 3870,
      "▁ट्राई": 3871,
      "▁ईं": 3872,
      "ड़ें": 3873,
      "त्येक": 3874,
      "▁भूरी": 3875,
      "▁ठो": 3876,
      "▁लौटे": 3877,
      "दल": 3878,
      "फिस": 3879,
      "तापूर्ण": 3880,
      "▁खुजली": 3881,
      "▁दिमाग": 3882,
      "▁बेक": 3883,
      "▁लगेगा": 3884,
      "▁डॉल्फिन": 3885,
      "▁शिकाय": 3886,
      "▁लिखना": 3887,
      "▁सांत्वना": 3888,
      "▁आसानी": 3889,
      "▁भूम": 3890,
      "▁फव": 3891,
      "▁असहज": 3892,
      "▁भौंका": 3893,
      "▁शर्मिंदगी": 3894,
      "फरत": 3895,
      "ध्यम": 3896,
      "चलिए": 3897,
      "स्को": 3898,
      "रास्ते": 3899,
      "▁तैरा": 3900,
      "क्रीन": 3901,
      "▁ड्राइव": 3902,
      "टन्स": 3903,
      "लारा": 3904,
      "ड़चि": 3905,
      "▁नफरत": 3906,
      "ज़ल": 3907,
      "▁फ्र": 3908,
      "▁फैल": 3909,
      "▁लोम": 3910,
      "बेटी": 3911,
      "▁सोचकर": 3912,
      "▁कव": 3913,
      "▁सन": 3914,
      "▁मारी": 3915,
      "▁कोन": 3916,
      "▁चोर": 3917,
      "▁क्लब": 3918,
      "▁चाटा": 3919,
      "▁चलाते": 3920,
      "▁पकड़ते": 3921,
      "▁गेह": 3922,
      "▁चुनने": 3923,
      "चमकी": 3924,
      "णाम": 3925,
      "िकोण": 3926,
      "अन्य": 3927,
      "ोव": 3928,
      "▁दस्तक": 3929,
      "▁स्वेटर": 3930,
      "▁वैन": 3931,
      "फ़ोन": 3932,
      "▁तोड़ा": 3933,
      "पीछे": 3934,
      "देश": 3935,
      "▁चेरी": 3936,
      "▁टोस्ट": 3937,
      "▁निकालते": 3938,
      "सैल": 3939,
      "▁शिकायत": 3940,
      "▁चह": 3941,
      "▁धुआ": 3942,
      "▁जिसकी": 3943,
      "▁दिखावा": 3944,
      "▁रंगीनी": 3945,
      "▁पिज़्ज़ा": 3946,
      "▁हिस्से": 3947,
      "▁मोटर": 3948,
      "▁स्पेगेटी": 3949,
      "कारी": 3950,
      "ॉस": 3951,
      "ल्फ": 3952,
      "▁ऊँ": 3953,
      "▁अंगूठी": 3954,
      "ाना": 3955,
      "▁बल": 3956,
      "▁गहरे": 3957,
      "फ़सोस": 3958,
      "▁ढक्कन": 3959,
      "▁चाट": 3960,
      "▁स्थित": 3961,
      "▁उठीं": 3962,
      "▁अफ़सोस": 3963,
      "▁जाएं": 3964,
      "▁चलाया": 3965,
      "▁चुभ": 3966,
      "स्पद": 3967,
      "▁डरावने": 3968,
      "▁ड्रॉ": 3969,
      "स्यास्पद": 3970,
      "▁कार्टून": 3971,
      "▁प्रतिभाशाली": 3972,
      "एला": 3973,
      "चहा": 3974,
      "बड़ी": 3975,
      "▁लपे": 3976,
      "▁तार": 3977,
      "▁धु": 3978,
      "▁चीयर": 3979,
      "▁भूला": 3980,
      "▁बढ़िया": 3981,
      "ृत्य": 3982,
      "ॉफी": 3983,
      "▁काँ": 3984,
      "▁कहां": 3985,
      "▁मिलता": 3986,
      "▁बोलीं": 3987,
      "▁दौरान": 3988,
      "..": 3989,
      "फु": 3990,
      "ड़ू": 3991,
      "▁केले": 3992,
      "▁हमने": 3993,
      "▁घरों": 3994,
      "▁मास्क": 3995,
      "▁माध्यम": 3996,
      "▁पीटर": 3997,
      "▁हिलाने": 3998,
      "▁छिपी": 3999,
      "यलिन": 4000,
      "▁बाँट": 4001,
      "▁आज़माना": 4002,
      "▁बेरीज़": 4003,
      "नुष": 4004,
      "▁चहचहा": 4005,
      "▁तित": 4006,
      "▁काउ": 4007,
      "▁खुले": 4008,
      "▁बाग़": 4009,
      "टेड": 4010,
      "▁पहनती": 4011,
      "▁खोलते": 4012,
      "▁बदसूरत": 4013,
      "सुथरा": 4014,
      "जै": 4015,
      "▁जॉग": 4016,
      "▁इन्हें": 4017,
      "▁वो": 4018,
      "उनमें": 4019,
      "▁व्यक्त": 4020,
      "▁खरीदी": 4021,
      "तख": 4022,
      "▁फलों": 4023,
      "▁पास्ता": 4024,
      "▁खाता": 4025,
      "▁ताला": 4026,
      "▁बेचैन": 4027,
      "▁जीवित": 4028,
      "▁दृढ़": 4029,
      "▁गड्ढे": 4030,
      "▁उत्तर": 4031,
      "▁शीर्ष": 4032,
      "▁मसालेदार": 4033,
      "▁दफ": 4034,
      "▁परे": 4035,
      "▁हीरा": 4036,
      "्यूम": 4037,
      "▁कुत्तों": 4038,
      "▁व्यंजन": 4039,
      "यलट": 4040,
      "▁चुनौ": 4041,
      "▁कॉस्ट": 4042,
      "▁ठोकर": 4043,
      "ख़": 4044,
      "▁कैम": 4045,
      "▁रू": 4046,
      "▁आधुनिक": 4047,
      "▁पाना": 4048,
      "▁डरती": 4049,
      "गोल": 4050,
      "▁मारना": 4051,
      "▁रोकने": 4052,
      "▁अनोखी": 4053,
      "▁लहरों": 4054,
      "▁सॉस": 4055,
      "▁बेल्ट": 4056,
      "धर": 4057,
      "▁रेन": 4058,
      "▁साइन": 4059,
      "▁बांस": 4060,
      "कियों": 4061,
      "▁हास्यास्पद": 4062,
      "▁पिंक": 4063,
      "▁डिब्बा": 4064,
      "गवान": 4065,
      "शे": 4066,
      "▁खत": 4067,
      "नीला": 4068,
      "▁पहली": 4069,
      "▁वायलिन": 4070,
      "▁तरफ़": 4071,
      "▁प्रत्येक": 4072,
      "▁झूठ": 4073,
      "▁गैराज": 4074,
      "र्पण": 4075,
      "ब्रे": 4076,
      "▁नज़": 4077,
      "▁बनाएँ": 4078,
      "▁कहने": 4079,
      "▁हंसती": 4080,
      "▁प्राचीन": 4081,
      "डेव": 4082,
      "ंपेट": 4083,
      "बक": 4084,
      "ोरी": 4085,
      "▁बाज़ार": 4086,
      "▁ऊब": 4087,
      "यूट": 4088,
      "▁पूछते": 4089,
      "▁खून": 4090,
      "▁उनको": 4091,
      "लोला": 4092,
      "▁ज़ि": 4093,
      "▁चुके": 4094,
      "▁नाचते": 4095,
      "▁चुनना": 4096,
      "▁धातु": 4097,
      "रररररररररररररररररररररररररररररररर": 4098,
      "्राउनी": 4099,
      "ओव": 4100,
      "जित": 4101,
      "यंकर": 4102,
      "▁क्रीम": 4103,
      "▁नृत्य": 4104,
      "▁फिन": 4105,
      "▁बताना": 4106,
      "▁टोप": 4107,
      "▁गड़गड़ाहट": 4108,
      "▁स्थानों": 4109,
      "कम": 4110,
      "ड्राइ": 4111,
      "▁बज": 4112,
      "र्की": 4113,
      "▁घिन": 4114,
      "मां": 4115,
      "▁चिल्लाती": 4116,
      "▁लाई": 4117,
      "▁पत्ता": 4118,
      "▁बीत": 4119,
      "▁बचाया": 4120,
      "▁झाँक": 4121,
      "▁कविता": 4122,
      "ऐन": 4123,
      "चाल": 4124,
      "▁बॉल": 4125,
      "▁बुआ": 4126,
      "बाजी": 4127,
      "प्स": 4128,
      "▁स्टोव": 4129,
      "दुर्": 4130,
      "▁पोख": 4131,
      "▁भुग": 4132,
      "▁टहनी": 4133,
      "तून": 4134,
      "▁सिंक": 4135,
      "इसका": 4136,
      "▁पैसा": 4137,
      "▁ट्रंपेट": 4138,
      "किसी": 4139,
      "▁पंजों": 4140,
      "कप्रिय": 4141,
      "▁प्रेरित": 4142,
      "▁सह": 4143,
      "▁भौंकता": 4144,
      "▁गाजरें": 4145,
      "▁कार्डबोर्ड": 4146,
      "व्यक्ति": 4147,
      "स्कोप": 4148,
      "पन": 4149,
      "रानी": 4150,
      "जाना": 4151,
      "ैक्सी": 4152,
      "▁पहुंची": 4153,
      "▁मिलती": 4154,
      "▁ज़मीन": 4155,
      "▁उठाए": 4156,
      "▁सोचना": 4157,
      "▁चेहरों": 4158,
      "▁लियो": 4159,
      "ॉर्च": 4160,
      "▁नोटबुक": 4161,
      "▁ग्रह": 4162,
      "▁सब्जियाँ": 4163,
      "्वेल": 4164,
      "▁अव": 4165,
      "▁खं": 4166,
      "▁दिखाए": 4167,
      "▁प्रयास": 4168,
      "आपका": 4169,
      "▁छोड़ने": 4170,
      "▁हँसा": 4171,
      "▁माताओं": 4172,
      "▁फेंका": 4173,
      "▁धोने": 4174,
      "▁चाहेगा": 4175,
      "▁मिनट": 4176,
      "▁बल्ब": 4177,
      "▁भटक": 4178,
      "ंदिर": 4179,
      "स्पर्": 4180,
      "▁ट्रकों": 4181,
      "▁दीवारों": 4182,
      "▁हल्के": 4183,
      "▁बदबूदार": 4184,
      "▁ट्वी": 4185,
      "▁लड़ते": 4186,
      "▁बिजली": 4187,
      "ैश": 4188,
      "▁महंगा": 4189,
      "▁लोकप्रिय": 4190,
      "ब्ध": 4191,
      "▁भेड़िया": 4192,
      "जल्दी": 4193,
      "कई": 4194,
      "टरी": 4195,
      "पनों": 4196,
      "लब्ध": 4197,
      "▁सर्क": 4198,
      "▁जांच": 4199,
      "▁पाती": 4200,
      "▁क्यूट": 4201,
      "▁उठाना": 4202,
      "▁पैदा": 4203,
      "समझकर": 4204,
      "▁दिलाया": 4205,
      "▁जादूगर": 4206,
      "▁लुटे": 4207,
      "पहले": 4208,
      "▁घिनौ": 4209,
      "स्टी": 4210,
      "▁भयंकर": 4211,
      "▁फ्ल": 4212,
      "▁लेनी": 4213,
      "▁चौड़ी": 4214,
      "▁धकेल": 4215,
      "▁बाउल": 4216,
      "▁बांसुरी": 4217,
      "▁भुगतान": 4218,
      "▁सख्": 4219,
      "▁पैं": 4220,
      "▁आत्म": 4221,
      "गाय": 4222,
      "▁इंसान": 4223,
      "▁चिह": 4224,
      "▁उठाते": 4225,
      "▁पहुँचाने": 4226,
      "▁जुटा": 4227,
      "क्टस": 4228,
      "▁दुर्घटना": 4229,
      "▁कचरा": 4230,
      "स्टिक": 4231,
      "▁परेड": 4232,
      "ंटर": 4233,
      "▁खुशमि": 4234,
      "▁धूल": 4235,
      "▁ताली": 4236,
      "▁चिड़चि": 4237,
      "▁सोचने": 4238,
      "▁फ़िल्म": 4239,
      "▁उपलब्ध": 4240,
      "लियो": 4241,
      "▁नियमों": 4242,
      "बर्": 4243,
      "▁पड़ता": 4244,
      "▁रखेगी": 4245,
      "▁नक्शा": 4246,
      "दौड़": 4247,
      "एड": 4248,
      "▁हाल": 4249,
      "▁सपनों": 4250,
      "उससे": 4251,
      "वाला": 4252,
      "▁कहे": 4253,
      "▁फ़ार्म": 4254,
      "ड्डे": 4255,
      "सबसे": 4256,
      "▁परीक्षा": 4257,
      "▁झाँका": 4258,
      "▁चुनौती": 4259,
      "यूब": 4260,
      "▁चाँद": 4261,
      "प्पड़": 4262,
      "▁मोती": 4263,
      "▁जॉगिंग": 4264,
      "▁फोन": 4265,
      "ित्स": 4266,
      "▁डरता": 4267,
      "▁उठाता": 4268,
      "▁सिग": 4269,
      "जिम्मी": 4270,
      "▁प्रतिस्पर्": 4271,
      "▁मारते": 4272,
      "ंबू": 4273,
      "▁रबर": 4274,
      "▁सकतीं": 4275,
      "▁पेंगुइन": 4276,
      "▁ऑफिस": 4277,
      "▁धैर्यवान": 4278,
      "▁दांतों": 4279,
      "ित्सक": 4280,
      "▁सुने": 4281,
      "▁लगाए": 4282,
      "▁हिलाना": 4283,
      "▁गेंदों": 4284,
      "जिसकी": 4285,
      "▁अनदे": 4286,
      "▁समझते": 4287,
      "▁थके": 4288,
      "▁कानों": 4289,
      "िसा": 4290,
      "▁छिपे": 4291,
      "▁भूख": 4292,
      "ंख्या": 4293,
      "▁मैट": 4294,
      "▁स्प्रे": 4295,
      "▁मजबूर": 4296,
      "▁मोमबत्ती": 4297,
      "▁मुर्गी": 4298,
      "▁चार": 4299,
      "▁टॉर्च": 4300,
      "▁स्के": 4301,
      "▁ट्रॉफी": 4302,
      "▁रुकना": 4303,
      "▁खोलना": 4304,
      "▁खींचना": 4305,
      "▁मूर्ति": 4306,
      "▁पाएगा": 4307,
      "ड्राइवर": 4308,
      "बिन": 4309,
      "▁म्याऊ": 4310,
      "▁दस": 4311,
      "▁भगवान": 4312,
      "▁छे": 4313,
      "▁धब्": 4314,
      "▁पेय": 4315,
      "▁राइड": 4316,
      "▁पोस्ट": 4317,
      "▁शर्मीला": 4318,
      "आग": 4319,
      "ैप": 4320,
      "्वार": 4321,
      "▁ब्रा": 4322,
      "न्स्टर": 4323,
      "▁पंखु": 4324,
      "▁रखेगा": 4325,
      "वर्क": 4326,
      "शहर": 4327,
      "राक्षस": 4328,
      "सेज": 4329,
      "▁चाहें": 4330,
      "▁रोज़ाना": 4331,
      "▁जीतने": 4332,
      "ूतों": 4333,
      "आआआआआआआआआआआआआआआआआआआआआआआआआआआआआआआआ": 4334,
      "पिल्ला": 4335,
      "▁द्वार": 4336,
      "▁किम": 4337,
      "िएटर": 4338,
      "▁ट्": 4339,
      "▁पहिये": 4340,
      "▁रखेंगे": 4341,
      "▁ताज़ा": 4342,
      "बुरा": 4343,
      "▁क्रूर": 4344,
      "▁छाती": 4345,
      "प्लीज़": 4346,
      "▁कंप्यूटर": 4347,
      "तैयार": 4348,
      "▁बकरी": 4349,
      "▁पज़ल": 4350,
      "कील": 4351,
      "▁बिठा": 4352,
      "▁फेंकना": 4353,
      "▁माँगनी": 4354,
      "▁डिजा": 4355,
      "▁छाता": 4356,
      "बड़": 4357,
      "▁जागा": 4358,
      "▁गुस्सैल": 4359,
      "▁जैतून": 4360,
      "▁कराने": 4361,
      "पुलिस": 4362,
      "▁पद": 4363,
      "▁शौ": 4364,
      "▁घबरा": 4365,
      "▁वैसा": 4366,
      "▁यहीं": 4367,
      "▁चट्टानों": 4368,
      "▁सजावट": 4369,
      "दोस्तों": 4370,
      "▁मित्रतापूर्ण": 4371,
      "ऊपर": 4372,
      "▁जागी": 4373,
      "▁दोहरा": 4374,
      "▁बीप": 4375,
      "▁रुकी": 4376,
      "▁चिकित्सक": 4377,
      "श्श्श्श्श्श्श्श्श्श्श्श्श्श्श्श्श्श्श्श्श्श्श्श्श्श्श्श्श्श्श्श्": 4378,
      "▁दफना": 4379,
      "▁संख्या": 4380,
      "▁त्र": 4381,
      "क्टो": 4382,
      "मुद्र": 4383,
      "▁करोगे": 4384,
      "▁जीप": 4385,
      "क्रीक": 4386,
      "▁धागे": 4387,
      "ग्लू": 4388,
      "लना": 4389,
      "समुद्र": 4390,
      "▁किर": 4391,
      "लीन": 4392,
      "▁पेस्ट": 4393,
      "▁दुकानदार": 4394,
      "▁गीले": 4395,
      "र्नीचर": 4396,
      "▁चिह्न": 4397,
      "▁ट्वि": 4398,
      "जरा": 4399,
      "ठित": 4400,
      "▁पथ": 4401,
      "यास्त": 4402,
      "▁किस्": 4403,
      "किंग": 4404,
      "माइक": 4405,
      "आपके": 4406,
      "▁चखना": 4407,
      "▁डिजाइन": 4408,
      "▁थकी": 4409,
      "▁फ्री": 4410,
      "▁लाकर": 4411,
      "▁सूरजमुखी": 4412,
      "▁सिखाने": 4413,
      "▁साहसी": 4414,
      "▁ब्लॉकों": 4415,
      "▁उछा": 4416,
      "लीजा": 4417,
      "क्षिका": 4418,
      "▁ट्रैक": 4419,
      "▁तीखा": 4420,
      "▁बिताना": 4421,
      "▁चुंबक": 4422,
      "रिक्ष": 4423,
      "▁थैला": 4424,
      "▁कॉलर": 4425,
      "णित": 4426,
      "ब्ल": 4427,
      "ोध": 4428,
      "▁कवर": 4429,
      "▁दाँ": 4430,
      "▁लता": 4431,
      "▁फ्": 4432,
      "▁धनुष": 4433,
      "विज़न": 4434,
      "▁गर्माहट": 4435,
      "▁अभि": 4436,
      "▁बंदरगाह": 4437,
      "▁पकाने": 4438,
      "वो": 4439,
      "▁कया": 4440,
      "▁संक": 4441,
      "▁मक्खी": 4442,
      "▁पाउ": 4443,
      "▁लेगा": 4444,
      "ल्हा": 4445,
      "▁क्यूब": 4446,
      "▁झों": 4447,
      "▁फ़ा": 4448,
      "▁मिट्ट": 4449,
      "▁डराने": 4450,
      "▁ऑर्": 4451,
      "▁प्रभावशाली": 4452,
      "लोगों": 4453,
      "▁सख्त": 4454,
      "क्टोपस": 4455,
      "▁करूंगी": 4456,
      "▁री": 4457,
      "▁स्ने": 4458,
      "▁कामों": 4459,
      "▁ढूँढ़": 4460,
      "▁सामग्र": 4461,
      "्वारे": 4462,
      "प्यारे": 4463,
      "सूअर": 4464,
      "▁कठिन": 4465,
      "▁धीमा": 4466,
      "अपना": 4467,
      "जॉर्ज": 4468,
      "नेट": 4469,
      "▁मफिन": 4470,
      "▁इला": 4471,
      "▁चिल्लाना": 4472,
      "▁बताती": 4473,
      "▁मिक्सर": 4474,
      "▁रेखा": 4475,
      "ोकोली": 4476,
      "▁हफ्": 4477,
      "▁परफ": 4478,
      "▁खुर": 4479,
      "▁सुख": 4480,
      "▁गुज़": 4481,
      "▁नींबू": 4482,
      "▁एंकर": 4483,
      "▁उठाती": 4484,
      "▁फेंकते": 4485,
      "▁भौंकना": 4486,
      "पोर्ट": 4487,
      "▁खरोंच": 4488,
      "▁त्रिकोण": 4489,
      "▁गाल": 4490,
      "▁सुपर": 4491,
      "▁डरने": 4492,
      "▁ज़ू": 4493,
      "▁स्टार": 4494,
      "▁टाइ": 4495,
      "▁सूजी": 4496,
      "▁कराता": 4497,
      "जल": 4498,
      "▁मंदिर": 4499,
      "ियार": 4500,
      "▁भगा": 4501,
      "▁सुधार": 4502,
      "▁शिक्षक": 4503,
      "▁हल्की": 4504,
      "▁संग्रह": 4505,
      "किताबें": 4506,
      "▁मूल्यवान": 4507,
      "बहाद": 4508,
      "▁कृ": 4509,
      "रेट": 4510,
      "▁ट्य": 4511,
      "▁बैरल": 4512,
      "▁जिद": 4513,
      "▁फ़ोल्": 4514,
      "▁आएगी": 4515,
      "▁पहुँचाना": 4516,
      "अलविदा": 4517,
      "मंद": 4518,
      "▁कंगारू": 4519,
      "▁जूतों": 4520,
      "▁एकदम": 4521,
      "राजकुमार": 4522,
      "च्चर": 4523,
      "▁खोजी": 4524,
      "▁लात": 4525,
      "▁केकड़े": 4526,
      "▁पोनी": 4527,
      "▁अंतरिक्ष": 4528,
      "▁तारीफ": 4529,
      "▁अनदेखा": 4530,
      "▁ऑर्डर": 4531,
      "इयों": 4532,
      "▁बतख": 4533,
      "▁जलन": 4534,
      "▁रस": 4535,
      "▁डंडे": 4536,
      "खाना": 4537,
      "▁भागकर": 4538,
      "▁दाढ़ी": 4539,
      "फायर": 4540,
      "लिखा": 4541,
      "▁छिपकली": 4542,
      "▁पौधा": 4543,
      "▁माइक्रोस्कोप": 4544,
      "▁टोपियाँ": 4545,
      "▁थप्पड़": 4546,
      "▁नर्स": 4547,
      "इसेंस": 4548,
      "▁लिफ़ा": 4549,
      "चित्र": 4550,
      "▁खींचने": 4551,
      "▁मांगते": 4552,
      "शरूम": 4553,
      "कौन": 4554,
      "▁काउंटर": 4555,
      "णों": 4556,
      "ोस": 4557,
      "▁मग": 4558,
      "▁देकर": 4559,
      "न्न": 4560,
      "▁तु": 4561,
      "▁पांडा": 4562,
      "▁शिकारी": 4563,
      "िंचा": 4564,
      "▁तैरती": 4565,
      "▁पाईं": 4566,
      "ट्रो": 4567,
      "बहादुर": 4568,
      "दय": 4569,
      "बगी": 4570,
      "मू": 4571,
      "▁सील": 4572,
      "▁राज़": 4573,
      "▁बजाती": 4574,
      "▁बढ़ता": 4575,
      "▁तैरता": 4576,
      "▁पहनते": 4577,
      "▁बदलने": 4578,
      "बोबो": 4579,
      "▁फ़ेरी": 4580,
      "दूर": 4581,
      "षा": 4582,
      "▁मं": 4583,
      "▁व्या": 4584,
      "▁पुस्त": 4585,
      "▁रेक्स": 4586,
      "▁जेट": 4587,
      "▁दयालुता": 4588,
      "▁लेटकर": 4589,
      "▁ट्रीट": 4590,
      "चालय": 4591,
      "पार्टी": 4592,
      "▁मार्क": 4593,
      "▁अट": 4594,
      "▁चर्च": 4595,
      "▁इग्लू": 4596,
      "▁दिखी": 4597,
      "मामी": 4598,
      "ड़ियाँ": 4599,
      "▁निकलता": 4600,
      "इडर": 4601,
      "▁अनुसार": 4602,
      "▁मनाने": 4603,
      "▁बाँध": 4604,
      "▁लहराया": 4605,
      "ल्यूसी": 4606,
      "▁फ्रेम": 4607,
      "उतनी": 4608,
      "चकित": 4609,
      "लता": 4610,
      "लेंस": 4611,
      "▁अहसास": 4612,
      "ॉर्क": 4613,
      "▁सूखी": 4614,
      "▁संगठित": 4615,
      "▁गाँठ": 4616,
      "▁ग्रिल": 4617,
      "▁पर्दे": 4618,
      "▁फव्वारे": 4619,
      "▁पैंट": 4620,
      "ंसी": 4621,
      "पकिन": 4622,
      "ोब": 4623,
      "▁थिएटर": 4624,
      "▁ढाल": 4625,
      "▁सुरंग": 4626,
      "▁नाश्ता": 4627,
      "ट्रेन": 4628,
      "▁टेलीविज़न": 4629,
      "चक": 4630,
      "बंद": 4631,
      "मज़े": 4632,
      "▁पागल": 4633,
      "▁टॉय": 4634,
      "▁बनो": 4635,
      "प्तान": 4636,
      "▁मानने": 4637,
      "▁ढूँढा": 4638,
      "▁शाखाओं": 4639,
      "▁चाहेगी": 4640,
      "▁भावनाओं": 4641,
      "▁सूर्यास्त": 4642,
      "▁संकल्प": 4643,
      "▁पाउडर": 4644,
      "चिस": 4645,
      "दन": 4646,
      "द्य": 4647,
      "स्वाद": 4648,
      "▁खाती": 4649,
      "▁माप": 4650,
      "▁चावल": 4651,
      "▁चुनी": 4652,
      "▁बैठते": 4653,
      "ज्जा": 4654,
      "▁टायर": 4655,
      "▁योग": 4656,
      "▁डेस्क": 4657,
      "▁प्लास्टिक": 4658,
      "▁हेयर": 4659,
      "बिर": 4660,
      "▁केबल": 4661,
      "हान": 4662,
      "खाने": 4663,
      "▁लेजर": 4664,
      "ूरवी": 4665,
      "साइ": 4666,
      "▁उठाकर": 4667,
      "▁लाइसेंस": 4668,
      "▁ब्रोकोली": 4669,
      "▁बेसबॉल": 4670,
      "▁कड़": 4671,
      "▁बंनी": 4672,
      "▁मशरूम": 4673,
      "▁केला": 4674,
      "▁आज़ा": 4675,
      "साइकिल": 4676,
      "▁चीं": 4677,
      "▁निभा": 4678,
      "▁उड़ती": 4679,
      "▁चढ़ते": 4680,
      "्रिका": 4681,
      "▁पियानो": 4682,
      "▁फ़ोल्डर": 4683,
      "पक्षियों": 4684,
      "लं": 4685,
      "▁दल": 4686,
      "▁सेल": 4687,
      "केनिक": 4688,
      "▁व्ह": 4689,
      "▁मेज": 4690,
      "▁गुर्रा": 4691,
      "विड": 4692,
      "▁पैडल": 4693,
      "▁आश्चर्यचकित": 4694,
      "▁घुमाना": 4695,
      "▁बरत": 4696,
      "▁मूली": 4697,
      "कायन": 4698,
      "▁फ़ेयरी": 4699,
      "सिद्ध": 4700,
      "ज्ञात": 4701,
      "▁ईंट": 4702,
      "▁आखिर": 4703,
      "ेनरी": 4704,
      "▁खाकर": 4705,
      "▁रोचक": 4706,
      "▁जोड़ा": 4707,
      "म्य": 4708,
      "▁उदासी": 4709,
      "ट्टियों": 4710,
      "▁मारता": 4711,
      "▁बाथरोब": 4712,
      "▁समाप्त": 4713,
      "रूरी": 4714,
      "बल्स": 4715,
      "ष्य": 4716,
      "सिस": 4717,
      "▁कक्षा": 4718,
      "▁लूप": 4719,
      "तालाब": 4720,
      "▁शॉप": 4721,
      "▁स्टा": 4722,
      "▁वैसे": 4723,
      "▁चिढ़ा": 4724,
      "▁बजाता": 4725,
      "▁सरप्राइज": 4726,
      "▁फाव": 4727,
      "खुशी": 4728,
      "▁हल्का": 4729,
      "▁नौकायन": 4730,
      "▁रगड़ा": 4731,
      "▁लपेटा": 4732,
      "उतना": 4733,
      "▁खिंचा": 4734,
      "▁कोहरे": 4735,
      "▁तारे": 4736,
      "▁छोड़ा": 4737,
      "▁सीधे": 4738,
      "▁रोया": 4739,
      "▁खोलकर": 4740,
      "▁डालने": 4741,
      "लेटन": 4742,
      "▁माँगना": 4743,
      "▁मिसाइल": 4744,
      "▁पेस्ट्री": 4745,
      "▁हफ्ते": 4746,
      "ूरवीर": 4747,
      "यूम": 4748,
      "व्ह": 4749,
      "▁बनी": 4750,
      "▁मॉमी": 4751,
      "▁किट्टी": 4752,
      "▁टक्कर": 4753,
      "▁चलाई": 4754,
      "पेरा": 4755,
      "▁दिखते": 4756,
      "▁बदला": 4757,
      "हालय": 4758,
      "▁अधिकारी": 4759,
      "▁झुका": 4760,
      "▁स्थिति": 4761,
      "▁खुशमिजाज": 4762,
      "▁न्या": 4763,
      "▁लायक": 4764,
      "विष्य": 4765,
      "▁पढ़ा": 4766,
      "दरवा": 4767,
      "▁डिज़ा": 4768,
      "▁गार्डन": 4769,
      "डैनी": 4770,
      "।\n": 4771,
      "▁स्या": 4772,
      "▁बुक": 4773,
      "▁चोरी": 4774,
      "▁जोड़ी": 4775,
      "▁प्रसिद्ध": 4776,
      "▁निकलते": 4777,
      "▁बढ़ते": 4778,
      "▁डालना": 4779,
      "▁कैक्टस": 4780,
      "▁पकाना": 4781,
      "▁माइक्रोफ़ोन": 4782,
      "▁डिज़ाइन": 4783,
      "एसिस": 4784,
      "भूत": 4785,
      "▁हॉल": 4786,
      "▁अज्ञात": 4787,
      "▁फिल्म": 4788,
      "▁माँगा": 4789,
      "टिम्मी": 4790,
      "▁फ़ाइल": 4791,
      "मिथ": 4792,
      "▁पहनता": 4793,
      "▁मारने": 4794,
      "▁इकट्ठी": 4795,
      "▁फायरमैन": 4796,
      "▁धीमी": 4797,
      "▁चिपचिपा": 4798,
      "दुर्भाग्य": 4799,
      "▁ट्वीटी": 4800,
      "बक्": 4801,
      "मोट": 4802,
      "▁दस्ता": 4803,
      "रेक्स": 4804,
      "▁ऊन": 4805,
      "▁गाता": 4806,
      "▁चुपके": 4807,
      "▁उछलने": 4808,
      "टल": 4809,
      "▁हैमर": 4810,
      "▁चकित": 4811,
      "रेड": 4812,
      "▁प्याज़": 4813,
      "मुस्": 4814,
      "ॉर्म": 4815,
      "ग्ला": 4816,
      "▁ज्वाला": 4817,
      "तिश": 4818,
      "बत्तख": 4819,
      "क्की": 4820,
      "▁खोना": 4821,
      "बूढ़ी": 4822,
      "▁ढूंढते": 4823,
      "▁गोले": 4824,
      "हैरी": 4825,
      "एलेक्स": 4826,
      "धूप": 4827,
      "ॉकी": 4828,
      "▁कील": 4829,
      "▁जानकर": 4830,
      "तरंज": 4831,
      "▁लोशन": 4832,
      "▁बजाई": 4833,
      "▁बजाया": 4834,
      "रंगीन": 4835,
      "कूदना": 4836,
      "योगिता": 4837,
      "पॉल": 4838,
      "विश्": 4839,
      "▁गणित": 4840,
      "▁रहेगी": 4841,
      "▁रोजाना": 4842,
      "▁गोल्फ": 4843,
      "▁होंगी": 4844,
      "▁नैपकिन": 4845,
      "ेलीक": 4846,
      "▁टैग": 4847,
      "▁सौम्य": 4848,
      "▁सुखद": 4849,
      "दराज़": 4850,
      "▁मक्का": 4851,
      "▁उग": 4852,
      "ंदा": 4853,
      "▁पायलट": 4854,
      "▁टर्की": 4855,
      "▁पहिया": 4856,
      "ल्ली": 4857,
      "बूझकर": 4858,
      "▁पुस्तक": 4859,
      "▁रुचि": 4860,
      "▁धोखा": 4861,
      "▁अंगु": 4862,
      "▁रहस्यमयी": 4863,
      "▁रसीला": 4864,
      "कालय": 4865,
      "चार्ली": 4866,
      "स्नो": 4867,
      "▁बोबो": 4868,
      "▁जीभ": 4869,
      "बहन": 4870,
      "मिटन्स": 4871,
      "बुद्धिमान": 4872,
      "▁मानते": 4873,
      "▁निराशा": 4874,
      "▁जोड़ने": 4875,
      "क्रेता": 4876,
      "मुस्कुरा": 4877,
      "▁सस्ता": 4878,
      "लेरी": 4879,
      "▁टैंक": 4880,
      "▁बाहें": 4881,
      "▁माचिस": 4882,
      "▁लाना": 4883,
      "▁फ़ॉर्क": 4884,
      "सोफी": 4885,
      "▁म्याऊं": 4886,
      "▁शौचालय": 4887,
      "▁स्याही": 4888,
      "लित": 4889,
      "ीं": 4890,
      "▁स्क्रीन": 4891,
      "▁स्मिथ": 4892,
      "▁रोका": 4893,
      "म्मे": 4894,
      "▁चिड़ियों": 4895,
      "बाघ": 4896,
      "ंडों": 4897,
      "र्दियों": 4898,
      "रोबोट": 4899,
      "फूलों": 4900,
      "▁कीमत": 4901,
      "▁मॉन्स्टर": 4902,
      "▁कंघी": 4903,
      "▁मैट्रेस": 4904,
      "ेलीकॉप्टर": 4905,
      "म्मेदार": 4906,
      "ंजी": 4907,
      "जहां": 4908,
      "साह": 4909,
      "राफ": 4910,
      "▁छोर": 4911,
      "▁टैक्सी": 4912,
      "▁वैगन": 4913,
      "▁मिलते": 4914,
      "कारों": 4915,
      "▁टेस्ट": 4916,
      "▁पूछने": 4917,
      "▁बिताए": 4918,
      "▁जाएँगे": 4919,
      "▁चिकनी": 4920,
      "▁नाश्ते": 4921,
      "खिलौने": 4922,
      "▁डांटा": 4923,
      "▁प्रतिस्पर्धी": 4924,
      "खि": 4925,
      "टिल": 4926,
      "शेल": 4927,
      "▁कट": 4928,
      "▁उल्": 4929,
      "▁भविष्य": 4930,
      "▁छड़ें": 4931,
      "▁बाज़": 4932,
      "▁जानबूझकर": 4933,
      "▁आपने": 4934,
      "▁निकलना": 4935,
      "योदय": 4936,
      "▁खोलती": 4937,
      "▁टाई": 4938,
      "▁बिखर": 4939,
      "पत्थर": 4940,
      "▁सनग्ला": 4941,
      "▁चुभो": 4942,
      "▁कॉस्टयूम": 4943,
      "हिरण": 4944,
      "▁अड्डे": 4945,
      "▁आशा": 4946,
      "▁बार्": 4947,
      "▁माना": 4948,
      "▁एली": 4949,
      "▁लोड": 4950,
      "▁लाए": 4951,
      "▁सब्जियों": 4952,
      "▁मधुमक्खी": 4953,
      "दादाजी": 4954,
      "▁नमक": 4955,
      "▁तितलियों": 4956,
      "ँस": 4957,
      "पत": 4958,
      "मिस": 4959,
      "▁मंच": 4960,
      "▁महान": 4961,
      "▁निशा": 4962,
      "काम": 4963,
      "▁भाषा": 4964,
      "▁ज़ूम": 4965,
      "▁गियर": 4966,
      "▁निकालना": 4967,
      "ओहो": 4968,
      "क्ट्री": 4969,
      "▁मधुमक्ख": 4970,
      "▁कयाक": 4971,
      "ग्रेस": 4972,
      "\n\n\"": 4973,
      "क्लारा": 4974,
      "▁खुदाई": 4975,
      "्रूम": 4976,
      "▁वेस्ट": 4977,
      "▁क्ल": 4978,
      "ंधन": 4979,
      "▁सराह": 4980,
      "▁कैंप": 4981,
      "▁पिज्जा": 4982,
      "▁बरतना": 4983,
      "▁कूदी": 4984,
      "▁मोमबत्त": 4985,
      "▁सुपरही": 4986,
      "चिल्ला": 4987,
      "ैब": 4988,
      "▁सप्": 4989,
      "▁अंडा": 4990,
      "▁जहां": 4991,
      "▁रोती": 4992,
      "ुरुआ": 4993,
      "▁मापने": 4994,
      "▁पीट": 4995,
      "▁पीते": 4996,
      "बेबी": 4997,
      "▁लालची": 4998,
      "▁कदमों": 4999,
      "थोड़ा": 5000,
      "▁परिणाम": 5001,
      "आकाश": 5002,
      "उम्मीद": 5003,
      "सन": 5004,
      "▁रबड़": 5005,
      "र्मामी": 5006,
      "स्तु": 5007,
      "▁ओएसिस": 5008,
      "जाई": 5009,
      "र्मामीटर": 5010,
      "यहां": 5011,
      "ोड़े": 5012,
      "स्पी": 5013,
      "ज़ोर": 5014,
      "▁फर्नीचर": 5015,
      "▁शतरंज": 5016,
      "▁पूर्": 5017,
      "▁मुस्कुराने": 5018,
      "साझा": 5019,
      "▁मिलाकर": 5020,
      "▁हँसकर": 5021,
      "▁कार्यों": 5022,
      "बुजुर्ग": 5023,
      "▁ढूँढना": 5024,
      "▁झाड़ू": 5025,
      "▁माँगने": 5026,
      "▁क्रेन": 5027,
      "▁कूलर": 5028,
      "▁आंखों": 5029,
      "ष्ठ": 5030,
      "घर्ष": 5031,
      "बत": 5032,
      "स्य": 5033,
      "▁उगा": 5034,
      "▁नाली": 5035,
      "पीला": 5036,
      "▁गोला": 5037,
      "▁पतली": 5038,
      "एंडी": 5039,
      "पूरे": 5040,
      "▁पुकारते": 5041,
      "▁ऊँचा": 5042,
      "जैसा": 5043,
      "फ्रेड": 5044,
      "बियों": 5045,
      "▁रें": 5046,
      "▁पाइन": 5047,
      "माता": 5048,
      "▁यॉट": 5049,
      "▁डाले": 5050,
      "▁गोद": 5051,
      "स्कर्स": 5052,
      "▁छुट्टियों": 5053,
      "▁क्लास": 5054,
      "जाजत": 5055,
      "▁अटारी": 5056,
      "an": 5057,
      "at": 5058,
      "in": 5059,
      "पथ": 5060,
      "▁ह्वेल": 5061,
      "▁खट": 5062,
      "▁चंच": 5063,
      "▁इजाजत": 5064,
      "▁स्क्र": 5065,
      "फ़िश": 5066,
      "▁बेला": 5067,
      "▁निच": 5068,
      "▁हंसना": 5069,
      "मिट्टेन्स": 5070,
      "▁सूखे": 5071,
      "बुलेंस": 5072,
      "▁रोशन": 5073,
      "▁प्रतियोगिता": 5074,
      "▁डॉग": 5075,
      "▁बचाना": 5076,
      "▁संतुलित": 5077,
      "▁खिंचाव": 5078,
      "घास": 5079,
      "झू": 5080,
      "हित": 5081,
      "▁शक्ति": 5082,
      "▁मुर्ग": 5083,
      "कुकी": 5084,
      "्होंने": 5085,
      "▁हीरे": 5086,
      "▁चमका": 5087,
      "▁स्कर्ट": 5088,
      "▁अंधेरी": 5089,
      "▁खोदना": 5090,
      "▁परफ्यूम": 5091,
      "▁ट्यूब": 5092,
      "▁सराहना": 5093,
      "▁रोता": 5094,
      "▁रखकर": 5095,
      "▁घाटी": 5096,
      "▁आज़माने": 5097,
      "▁प्लान": 5098,
      "▁सर्कल": 5099,
      "▁किस्मत": 5100,
      "ऐनी": 5101,
      "करे": 5102,
      "िय": 5103,
      "नेमो": 5104,
      "▁पासपोर्ट": 5105,
      "म्बुलेंस": 5106,
      "कारें": 5107,
      "▁पकड़ता": 5108,
      "▁धागा": 5109,
      "▁छीनने": 5110,
      "▁खतरे": 5111,
      "ऐना": 5112,
      "ग्री": 5113,
      "थडे": 5114,
      "प्रा": 5115,
      "बाल": 5116,
      "▁बॉबी": 5117,
      "▁पिन": 5118,
      "▁जेल": 5119,
      "▁कोय": 5120,
      "▁आतिश": 5121,
      "▁बेटा": 5122,
      "▁चुने": 5123,
      "गोभी": 5124,
      "▁मिट्टेन्स": 5125,
      "▁बर्थडे": 5126,
      "भाई": 5127,
      "▁समझदार": 5128,
      "▁पत्रिका": 5129,
      "▁स्टिक": 5130,
      "▁सॉसेज": 5131,
      "▁चबाना": 5132,
      "▁सूँघा": 5133,
      "बंनी": 5134,
      "शल": 5135,
      "ॉश": 5136,
      "ोसी": 5137,
      "▁कोच": 5138,
      "▁सेलेरी": 5139,
      "▁आटे": 5140,
      "▁वस्तु": 5141,
      "सीबत": 5142,
      "ोड़ों": 5143,
      "▁सिक्": 5144,
      "▁चूक": 5145,
      "▁संघर्ष": 5146,
      "ड्ड": 5147,
      "ंछी": 5148,
      "▁बिखरे": 5149,
      "▁बचने": 5150,
      "▁भूमि": 5151,
      "▁हालाँकि": 5152,
      "बगीचे": 5153,
      "▁जड़ी": 5154,
      "▁गन": 5155,
      "▁किक": 5156,
      "▁सुहा": 5157,
      "▁भागती": 5158,
      "▁गिरे": 5159,
      "▁केकड़ा": 5160,
      "पेड़ों": 5161,
      "ज़्ज़ी": 5162,
      "▁छेड़": 5163,
      "रंग": 5164,
      "ोता": 5165,
      "▁कद्र": 5166,
      "▁बक्स": 5167,
      "▁जड़": 5168,
      "▁खबर": 5169,
      "▁रहीं": 5170,
      "▁जाऊंगा": 5171,
      "▁लेगी": 5172,
      "▁ऐन": 5173,
      "ट्सी": 5174,
      "▁संर": 5175,
      "▁संभव": 5176,
      "▁बनाएंगे": 5177,
      "▁फिसलन": 5178,
      "भूति": 5179,
      "▁खंभे": 5180,
      "▁घिनौना": 5181,
      "▁आखिरी": 5182,
      "चका": 5183,
      "मगरमच्छ": 5184,
      "▁अख़": 5185,
      "▁उचका": 5186,
      "▁वर्ग": 5187,
      "माइ": 5188,
      "▁गां": 5189,
      "▁लोला": 5190,
      "▁मिलाने": 5191,
      "जरूर": 5192,
      "▁जैज़": 5193,
      "▁उपकरणों": 5194,
      "कबूतर": 5195,
      "वजूद": 5196,
      "▁हूप": 5197,
      "नामो": 5198,
      "▁उसको": 5199,
      "क्षित": 5200,
      "▁झंडे": 5201,
      "▁चिम": 5202,
      "▁बताता": 5203,
      "▁तैरकर": 5204,
      "▁खोलता": 5205,
      "▁नाचती": 5206,
      "▁निकालीं": 5207,
      "▁खिलाना": 5208,
      "▁बेवकूफ": 5209,
      "जरी": 5210,
      "मेल": 5211,
      "▁सच्": 5212,
      "▁लिसा": 5213,
      "िलच": 5214,
      "▁शुरुआ": 5215,
      "▁मुसीबत": 5216,
      "▁बुद्धि": 5217,
      "▁लौटी": 5218,
      "▁आभार": 5219,
      "▁खेतों": 5220,
      "▁गिनने": 5221,
      "▁घुमाने": 5222,
      "▁झपका": 5223,
      "▁मचाते": 5224,
      "खेलने": 5225,
      "▁संग्रहालय": 5226,
      "▁पर्दा": 5227,
      "▁सूर्योदय": 5228,
      "▁पुस्तकालय": 5229,
      "io": 5230,
      "sl": 5231,
      "खटा": 5232,
      "तियों": 5233,
      "फ्र": 5234,
      "▁फंसा": 5235,
      "िसक": 5236,
      "▁पहचान": 5237,
      "▁माइक": 5238,
      "जादू": 5239,
      "▁बैटरी": 5240,
      "▁एलिस": 5241,
      "▁चढ़ता": 5242,
      "▁टोकरे": 5243,
      "▁टैप": 5244,
      "▁नहाना": 5245,
      "▁पिघल": 5246,
      "दुकानदार": 5247,
      "▁बार्बर": 5248,
      "di": 5249,
      "hin": 5250,
      "ran": 5251,
      "tran": 5252,
      "चकि": 5253,
      "ॉड": 5254,
      "्ही": 5255,
      "ारत": 5256,
      "▁आधा": 5257,
      "▁राजी": 5258,
      "▁गिफ्ट": 5259,
      "▁डालती": 5260,
      "▁लिखने": 5261,
      "▁गुजरते": 5262,
      "▁बिल्लियों": 5263,
      "▁सामग्रियों": 5264,
      "▁आज़ाद": 5265,
      "atio": 5266,
      "▁सिक्कों": 5267,
      "slatio": 5268,
      "hindi": 5269,
      "translatio": 5270,
      "translation": 5271,
      "अजनबी": 5272,
      "ओगे": 5273,
      "तमी": 5274,
      "ब्लू": 5275,
      "सर्ट": 5276,
      "▁सर्दियों": 5277,
      "▁पट्टा": 5278,
      "▁खाद्य": 5279,
      "िलाई": 5280,
      "▁फेंकने": 5281,
      "मारिया": 5282,
      "▁सितारों": 5283,
      "▁कॉफी": 5284,
      "▁चांदी": 5285,
      "▁झोंका": 5286,
      "▁अख़बार": 5287,
      "शह": 5288,
      "▁देखेंगे": 5289,
      "▁हीरो": 5290,
      "▁प्रश्न": 5291,
      "▁जिम्मेदार": 5292,
      "▁गिरी": 5293,
      "▁बिताते": 5294,
      "▁झूलने": 5295,
      "▁जूता": 5296,
      "▁बनाएगा": 5297,
      "▁बत्तखों": 5298,
      "ग्ग": 5299,
      "फ़्तार": 5300,
      "▁नक्शे": 5301,
      "▁लचीला": 5302,
      "▁स्केलेटन": 5303,
      "शहूर": 5304,
      "चेल": 5305,
      "▁मूल": 5306,
      "▁थकान": 5307,
      "▁असा": 5308,
      "▁गरम": 5309,
      "▁केबिन": 5310,
      "▁होटल": 5311,
      "▁बोलने": 5312,
      "▁मिलेंगे": 5313,
      "द्धा": 5314,
      "▁झूलते": 5315,
      "▁मानना": 5316,
      "▁बरतनी": 5317,
      "▁डेसर्ट": 5318,
      "▁स्पाइडर": 5319,
      "▁सुपरहीरो": 5320,
      "▁खटखटा": 5321,
      "कार्": 5322,
      "छि": 5323,
      "धान": 5324,
      "पसंद": 5325,
      "लेस": 5326,
      "▁उम्र": 5327,
      "▁वेल": 5328,
      "हमारा": 5329,
      "▁गर्दन": 5330,
      "ष्ट्र": 5331,
      "▁गेंदें": 5332,
      "▁मिलाना": 5333,
      "चीनी": 5334,
      "▁खरीदे": 5335,
      "▁जोड़ना": 5336,
      "पड़ोसी": 5337,
      "ैम्प": 5338,
      "पॉली": 5339,
      "व्स": 5340,
      "षण": 5341,
      "ौहार": 5342,
      "▁मिं": 5343,
      "▁पशु": 5344,
      "▁थर्मामीटर": 5345,
      "▁सको": 5346,
      "▁पहेली": 5347,
      "▁मुस्कुराकर": 5348,
      "ल्ड": 5349,
      "▁ट्रै": 5350,
      "▁मानता": 5351,
      "▁बनाएगी": 5352,
      "▁घुमाव": 5353,
      "▁कहानियों": 5354,
      "▁कांपने": 5355,
      "▁दलदल": 5356,
      "अंधे": 5357,
      "कदार": 5358,
      "चय": 5359,
      "वॉ": 5360,
      "▁नल": 5361,
      "▁डु": 5362,
      "रीन": 5363,
      "▁ओपेरा": 5364,
      "▁डरते": 5365,
      "▁अलार्म": 5366,
      "▁भुलाया": 5367,
      "▁फूला": 5368,
      "▁सप्ता": 5369,
      "गि": 5370,
      "▁मशहूर": 5371,
      "याद": 5372,
      "सेब": 5373,
      "▁खुली": 5374,
      "▁बातों": 5375,
      "आपकी": 5376,
      "▁नाविक": 5377,
      "▁बदतमी": 5378,
      "▁जाओगे": 5379,
      "बूढ़ा": 5380,
      "जिन्हें": 5381,
      "▁स्टीक": 5382,
      "▁बास्केटबॉल": 5383,
      "▁दस्ताने": 5384,
      "▁निशाना": 5385,
      "ंसे": 5386,
      "सफु": 5387,
      "▁पन्": 5388,
      "▁रफ़्तार": 5389,
      "वेट": 5390,
      "▁घोड़ों": 5391,
      "▁बेकार": 5392,
      "▁यू": 5393,
      "▁खोजते": 5394,
      "▁बंदूक": 5395,
      "जेम्स": 5396,
      "▁चोटी": 5397,
      "▁बढ़ती": 5398,
      "▁हिचकि": 5399,
      "टोनी": 5400,
      "▁उड़ाने": 5401,
      "र्ष्या": 5402,
      "▁फैलाए": 5403,
      "▁समाधान": 5404,
      "▁गेहूँ": 5405,
      "गाँ": 5406,
      "▁कही": 5407,
      "▁कॉर्न": 5408,
      "स्पा": 5409,
      "लेज": 5410,
      "▁फर्क": 5411,
      "कालीन": 5412,
      "▁बावजूद": 5413,
      "▁नाले": 5414,
      "▁नाचा": 5415,
      "▁नायक": 5416,
      "▁सीने": 5417,
      "क्षण": 5418,
      "▁पेस्टल": 5419,
      "माने": 5420,
      "लोम": 5421,
      "▁ट्रि": 5422,
      "मालिक": 5423,
      "▁नावों": 5424,
      "▁मैच": 5425,
      "▁समझती": 5426,
      "▁मानती": 5427,
      "▁फेयरी": 5428,
      "▁ईमानदारी": 5429,
      "भेड़िया": 5430,
      "▁नहाने": 5431,
      "कंप": 5432,
      "सिर": 5433,
      "ेगा": 5434,
      "▁हफ़्": 5435,
      "▁मच्छ": 5436,
      "▁पॉली": 5437,
      "उसी": 5438,
      "▁छड़ों": 5439,
      "▁सुन्": 5440,
      "▁गुप्त": 5441,
      "▁जिमी": 5442,
      "▁गिरते": 5443,
      "बच्ची": 5444,
      "▁पत्र": 5445,
      "▁ऑक्टोपस": 5446,
      "▁विनती": 5447,
      "▁बरतने": 5448,
      "▁बाँटना": 5449,
      "▁उठता": 5450,
      "▁रसीले": 5451,
      "▁कैमरा": 5452,
      "▁फ़ायर": 5453,
      "जरों": 5454,
      "▁लकी": 5455,
      "▁खच्चर": 5456,
      "▁आइना": 5457,
      "▁फार्म": 5458,
      "▁स्वर": 5459,
      "वादन": 5460,
      "हमारी": 5461,
      "▁यून": 5462,
      "▁लाती": 5463,
      "▁दाग": 5464,
      "टोबी": 5465,
      "▁घुमाते": 5466,
      "▁घुस": 5467,
      "▁रेनबो": 5468,
      "▁यूनि": 5469,
      "कअप": 5470,
      "तिर": 5471,
      "संत": 5472,
      "▁हेलीकॉप्टर": 5473,
      "▁पृ": 5474,
      "▁अक्ष": 5475,
      "▁अंक": 5476,
      "▁शू": 5477,
      "ानों": 5478,
      "▁बिछा": 5479,
      "ोरिल्ला": 5480,
      "▁हंसकर": 5481,
      "प्पो": 5482,
      "▁स्टैम्प": 5483,
      "▁फ़ुटबॉल": 5484,
      "▁डांस": 5485,
      "▁सामग्री": 5486,
      "▁अभिया": 5487,
      "▁ट्विग": 5488,
      "▁अभिवादन": 5489,
      "गार्ड": 5490,
      "गर्म": 5491,
      "▁ब्रे": 5492,
      "▁टूल": 5493,
      "▁प्यास": 5494,
      "▁सोफी": 5495,
      "▁लिखे": 5496,
      "ब्ब": 5497,
      "कूदकर": 5498,
      "▁सुलझाने": 5499,
      "बैलून": 5500,
      "▁धुआँ": 5501,
      "सन्न": 5502,
      "हेनरी": 5503,
      "▁पॉपी": 5504,
      "▁खनि": 5505,
      "▁नट": 5506,
      "ाँग": 5507,
      "▁डकी": 5508,
      "▁डिश": 5509,
      "▁महंगी": 5510,
      "▁खोले": 5511,
      "▁खोदा": 5512,
      "▁चलकर": 5513,
      "▁तोता": 5514,
      "▁तोड़े": 5515,
      "▁हंसों": 5516,
      "▁ट्रंक": 5517,
      "▁विच": 5518,
      "जेरी": 5519,
      "पेनी": 5520,
      "▁पतला": 5521,
      "▁रुख": 5522,
      "▁ईर्ष्या": 5523,
      "▁भूलेगा": 5524,
      "फिश": 5525,
      "▁तारा": 5526,
      "▁त्य": 5527,
      "▁खेलों": 5528,
      "किये": 5529,
      "▁प्रसन्न": 5530,
      "▁एला": 5531,
      "कोश": 5532,
      "▁सिकु": 5533,
      "सुबह": 5534,
      "▁क्लाउन": 5535,
      "शिक्षक": 5536,
      "▁मोटरसाइकिल": 5537,
      "▁किरण": 5538,
      "स्वादिष्ट": 5539,
      "▁स्क्रू": 5540,
      "▁सुन्दर": 5541,
      "घूम": 5542,
      "▁कब": 5543,
      "▁कमी": 5544,
      "▁सिलाई": 5545,
      "▁लक्ष": 5546,
      "▁ग्रेस": 5547,
      "▁निश्चित": 5548,
      "ंदगी": 5549,
      "▁बांट": 5550,
      "▁नाइट": 5551,
      "▁वेफल": 5552,
      "▁मामा": 5553,
      "▁तेल": 5554,
      "▁मैंडी": 5555,
      "▁चलाता": 5556,
      "▁शाखाएँ": 5557,
      "▁सजाया": 5558,
      "▁ईंधन": 5559,
      "▁सम्मानजनक": 5560,
      "▁चिट्ठ": 5561,
      "▁टहलने": 5562,
      "▁युवा": 5563,
      "▁बुकशेल": 5564,
      "▁अंगुली": 5565,
      "थे": 5566,
      "▁हॉकी": 5567,
      "▁गयी": 5568,
      "▁सीखी": 5569,
      "▁खोया": 5570,
      "▁प्याज": 5571,
      "▁मेकअप": 5572,
      "▁पीच": 5573,
      "्यूसी": 5574,
      "▁विदा": 5575,
      "▁ख़राब": 5576,
      "▁बुलाते": 5577,
      "▁गलतियाँ": 5578,
      "्यालय": 5579,
      "प्लीज": 5580,
      "लेंडर": 5581,
      "▁हथौ": 5582,
      "▁हेयरकट": 5583,
      "डो": 5584,
      "ब्राउनी": 5585,
      "मर्थ": 5586,
      "वाँ": 5587,
      "ौर": 5588,
      "▁ब्ला": 5589,
      "▁पलों": 5590,
      "▁पजल": 5591,
      "▁जगा": 5592,
      "▁चर्": 5593,
      "▁स्विच": 5594,
      "▁डिली": 5595,
      "▁बैकप": 5596,
      "क्रम": 5597,
      "▁भरना": 5598,
      "▁ढूँढते": 5599,
      "▁असमर्थ": 5600,
      "▁छिपकर": 5601,
      "▁सजाने": 5602,
      "▁इलाज": 5603,
      "बं": 5604,
      "बार्": 5605,
      "▁हग": 5606,
      "▁ल्यूसी": 5607,
      "▁रजाई": 5608,
      "▁टहन": 5609,
      "▁कुएं": 5610,
      "▁मुक्त": 5611,
      "▁माने": 5612,
      "जाने": 5613,
      "▁पेडल": 5614,
      "▁पैसों": 5615,
      "जनबियों": 5616,
      "▁डालते": 5617,
      "▁समझाने": 5618,
      "▁भेजा": 5619,
      "▁उतरा": 5620,
      "▁ज्ञ": 5621,
      "बिना": 5622,
      "▁फुसफु": 5623,
      "▁पोखरे": 5624,
      "▁चींटियों": 5625,
      "▁उल्का": 5626,
      "▁मच्छर": 5627,
      "▁बैकपैक": 5628,
      "जिक": 5629,
      "▁छल्": 5630,
      "▁स्वा": 5631,
      "▁पेनी": 5632,
      "▁गुड़ियों": 5633,
      "▁हाउस": 5634,
      "▁एनि": 5635,
      "▁एम्बुलेंस": 5636,
      "विमान": 5637,
      "▁भरने": 5638,
      "▁बढ़ी": 5639,
      "▁मुलायम": 5640,
      "भेड़": 5641,
      "▁थैले": 5642,
      "▁मॉडल": 5643,
      "▁काँटे": 5644,
      "▁बिठाया": 5645,
      "▁पदार्थ": 5646,
      "▁शुरुआत": 5647,
      "गाँव": 5648,
      "▁चर्चा": 5649,
      "जमीन": 5650,
      "जॉय": 5651,
      "बित": 5652,
      "मन": 5653,
      "िग": 5654,
      "▁हैंगर": 5655,
      "▁घू": 5656,
      "▁खाओ": 5657,
      "▁जोक": 5658,
      "▁वकील": 5659,
      "▁ताले": 5660,
      "▁प्रती": 5661,
      "▁एलेक्स": 5662,
      "▁लाता": 5663,
      "▁यादें": 5664,
      "▁फेंकी": 5665,
      "▁जुट": 5666,
      "▁खींचता": 5667,
      "▁पाएगी": 5668,
      "▁पंखा": 5669,
      "▁सॉफ्ट": 5670,
      "वेलरी": 5671,
      "▁भेड़िये": 5672,
      "ंजनों": 5673,
      "▁सर्फ": 5674,
      "▁युद्ध": 5675,
      "▁धुंध": 5676,
      "▁आत्मविश्": 5677,
      "▁स्नेह": 5678,
      "बक्से": 5679,
      "▁त्यौहार": 5680,
      "चल": 5681,
      "ब्र": 5682,
      "संगीत": 5683,
      "ानें": 5684,
      "ेत्र": 5685,
      "▁ब्रेड": 5686,
      "▁रेल": 5687,
      "▁फि": 5688,
      "▁बां": 5689,
      "▁लेबल": 5690,
      "▁पहला": 5691,
      "चाई": 5692,
      "▁हाय": 5693,
      "▁कामना": 5694,
      "▁तीखी": 5695,
      "मैगी": 5696,
      "▁हँसती": 5697,
      "▁चट्टानें": 5698,
      "▁कराना": 5699,
      "▁लाइब्रे": 5700,
      "डियर": 5701,
      "डेविड": 5702,
      "फ्लेक्स": 5703,
      "▁मिशन": 5704,
      "▁नज़दी": 5705,
      "▁ब्लाउ": 5706,
      "्मा": 5707,
      "▁गंत": 5708,
      "▁नयी": 5709,
      "▁हुक": 5710,
      "▁रहकर": 5711,
      "▁बनाकर": 5712,
      "▁ज़रूरी": 5713,
      "▁फूलगोभी": 5714,
      "मिंग": 5715,
      "▁मारती": 5716,
      "▁मोटे": 5717,
      "▁अनोखे": 5718,
      "▁बेसब्री": 5719,
      "▁गेहूं": 5720,
      "▁गंतव्य": 5721,
      "अमीर": 5722,
      "पें": 5723,
      "मता": 5724,
      "▁कप्तान": 5725,
      "ड़ने": 5726,
      "रां": 5727,
      "स्तरां": 5728,
      "बीप": 5729,
      "▁लिफ्ट": 5730,
      "▁बर्ताव": 5731,
      "▁समझने": 5732,
      "सुंदर": 5733,
      "▁शिक्षिका": 5734,
      "▁दिलचस्पी": 5735,
      "▁बेचने": 5736,
      "▁क्षेत्र": 5737,
      "दूसरी": 5738,
      "▁ड्रॉअर": 5739,
      "वॉशर": 5740,
      "इव": 5741,
      "बेल": 5742,
      "▁हड्ड": 5743,
      "▁शूरवीर": 5744,
      "▁लड़कों": 5745,
      "▁भीड़": 5746,
      "▁हमला": 5747,
      "िकॉप्टर": 5748,
      "टीचर": 5749,
      "▁गाए": 5750,
      "▁एप्र": 5751,
      "▁जिम्मी": 5752,
      "▁विक्रेता": 5753,
      "▁अंतर": 5754,
      "▁कैच": 5755,
      "जानते": 5756,
      "स्कूल": 5757,
      "▁दिलाता": 5758,
      "रररररररररररररररररररररररररररररररररररररररररररररररररररररररररररररररर": 5759,
      "▁झाँककर": 5760,
      "▁लुटेरे": 5761,
      "▁सिग्ह": 5762,
      "▁खनिज": 5763,
      "▁एनिम": 5764,
      "?\n\n": 5765,
      "चौ": 5766,
      "डिनर": 5767,
      "▁काजू": 5768,
      "▁सींग": 5769,
      "▁जानकारी": 5770,
      "▁राष्ट्र": 5771,
      "जोई": 5772,
      "विज़": 5773,
      "विवार": 5774,
      "▁करोगी": 5775,
      "स्टोर": 5776,
      "▁पोर्च": 5777,
      "▁मैकेनिक": 5778,
      "▁टांग": 5779,
      "▁होंठ": 5780,
      "▁निर्देश": 5781,
      "▁बरते": 5782,
      "▁खिलाफ": 5783,
      "▁डेव": 5784,
      "▁शेरों": 5785,
      "ष्टि": 5786,
      "▁स्पाइक": 5787,
      "▁फिनिश": 5788,
      "▁असामान्य": 5789,
      "शिकारी": 5790,
      "▁केंद": 5791,
      "▁कंक": 5792,
      "▁बहा": 5793,
      "▁गर": 5794,
      "▁नॉब": 5795,
      "▁इरा": 5796,
      "त्मा": 5797,
      "ॉमस": 5798,
      "▁वास": 5799,
      "▁राज": 5800,
      "▁अनजान": 5801,
      "दुखी": 5802,
      "▁तरीकों": 5803,
      "▁आजमाने": 5804,
      "▁भूलेगी": 5805,
      "▁ब्राउन": 5806,
      "प्राणी": 5807,
      "▁अभियान": 5808,
      "एना": 5809,
      "खर": 5810,
      "फली": 5811,
      "▁केट": 5812,
      "▁निश्": 5813,
      "▁फी": 5814,
      "▁ट्यू": 5815,
      "▁स्विंग": 5816,
      "▁ओट्स": 5817,
      "चेयर": 5818,
      "▁इसने": 5819,
      "▁कूदे": 5820,
      "▁छिपना": 5821,
      "ॉर्ट": 5822,
      "▁निकालकर": 5823,
      "▁डालकर": 5824,
      "▁बनाएं": 5825,
      "▁लहरें": 5826,
      "▁क्षमता": 5827,
      "दरवाजा": 5828,
      "▁केंद्र": 5829,
      "आइसक्रीम": 5830,
      "पहा": 5831,
      "ॉवर": 5832,
      "▁पाँच": 5833,
      "▁नली": 5834,
      "र्री": 5835,
      "▁फैक्ट्री": 5836,
      "▁एना": 5837,
      "▁पत्नी": 5838,
      "▁बर्फी": 5839,
      "▁कैसी": 5840,
      "▁संगीतकार": 5841,
      "च्छू": 5842,
      "▁रुके": 5843,
      "▁गुज़रते": 5844,
      "कितना": 5845,
      "र्मचेयर": 5846,
      "▁धब्बे": 5847,
      "बिरंगे": 5848,
      "कुकीज़": 5849,
      "▁एप्रन": 5850,
      "ओली": 5851,
      "विल": 5852,
      "▁बटर": 5853,
      "▁अजनबियों": 5854,
      "▁ग्ल": 5855,
      "▁आदेश": 5856,
      "ज़ो": 5857,
      "वाने": 5858,
      "वाना": 5859,
      "▁चीयर्स": 5860,
      "▁सोते": 5861,
      "विचार": 5862,
      "▁व्यंजनों": 5863,
      "▁रेजर": 5864,
      "▁उड़ाना": 5865,
      "▁कैलेंडर": 5866,
      "▁उठकर": 5867,
      "्राउंड": 5868,
      "कमरे": 5869,
      "▁बदलाव": 5870,
      "अंडे": 5871,
      "उधर": 5872,
      "झी": 5873,
      "पौध": 5874,
      "फ्ल": 5875,
      "बडी": 5876,
      "मधुम": 5877,
      "▁हल": 5878,
      "▁सद": 5879,
      "▁ब्राउनी": 5880,
      "▁दर्पण": 5881,
      "▁नकल": 5882,
      "ंगफली": 5883,
      "▁मेडल": 5884,
      "माफ": 5885,
      "▁चुट": 5886,
      "▁खिड़क": 5887,
      "▁कौशल": 5888,
      "▁शरारत": 5889,
      "▁संतरे": 5890,
      "बादल": 5891,
      "तूफान": 5892,
      "▁विनम्रता": 5893,
      "जितना": 5894,
      "▁दाँत": 5895,
      "ट्रोल": 5896,
      "▁इरादा": 5897,
      "ऐबी": 5898,
      "खत": 5899,
      "ग्राउंड": 5900,
      "बरों": 5901,
      "सुर": 5902,
      "▁साबित": 5903,
      "क्को": 5904,
      "सेस": 5905,
      "ोटो": 5906,
      "▁खाईं": 5907,
      "टीना": 5908,
      "विध": 5909,
      "▁स्पष्ट": 5910,
      "▁मालिश": 5911,
      "▁जुड़वाँ": 5912,
      "▁फाय": 5913,
      "▁मिलेगी": 5914,
      "▁छात्र": 5915,
      "फ्ड": 5916,
      "▁ब्लूबेरीज़": 5917,
      "▁अवतल": 5918,
      "डाइल": 5919,
      "▁सिल": 5920,
      "▁मॉल": 5921,
      "▁देनी": 5922,
      "▁धारा": 5923,
      "जाक": 5924,
      "▁चियर्स": 5925,
      "्लैश": 5926,
      "▁गर्मियों": 5927,
      "▁रेस्तरां": 5928,
      "▁काटता": 5929,
      "▁मार्कर": 5930,
      "▁धुआं": 5931,
      "जादूगर": 5932,
      "गंध": 5933,
      "जहा": 5934,
      "▁तंग": 5935,
      "▁इधर": 5936,
      "▁सुनें": 5937,
      "▁खोने": 5938,
      "▁गुब्ब": 5939,
      "▁कारनाम": 5940,
      "▁पैच": 5941,
      "▁पैनी": 5942,
      "▁बेहद": 5943,
      "दोपहर": 5944,
      "▁पढ़ते": 5945,
      "▁माँगती": 5946,
      "रोना": 5947,
      "▁पहाड़ों": 5948,
      "धारित": 5949,
      "▁धोना": 5950,
      "▁शिक्षा": 5951,
      "▁खिलाने": 5952,
      "▁लहराते": 5953,
      "चमकदार": 5954,
      "▁फावड़ा": 5955,
      "▁ब्रेक": 5956,
      "▁कारनामों": 5957,
      "घोड़े": 5958,
      "नट": 5959,
      "फ्रे": 5960,
      "▁दिशा": 5961,
      "▁लॉन": 5962,
      "▁खिलने": 5963,
      "▁स्टफ्ड": 5964,
      "▁दरार": 5965,
      "मिसेज़": 5966,
      "दोष": 5967,
      "▁काटकर": 5968,
      "▁उड़ाया": 5969,
      "क्विरल्स": 5970,
      "मोली": 5971,
      "▁लाइट": 5972,
      "राज्य": 5973,
      "▁मांगने": 5974,
      "▁परीक्षण": 5975,
      "▁भरोसे": 5976,
      "ल्पनिक": 5977,
      "दूसरों": 5978,
      "▁हथियार": 5979,
      "▁मांसपे": 5980,
      "▁कड़वा": 5981,
      "▁आतिशबाजी": 5982,
      "डैडी": 5983,
      "फोन": 5984,
      "▁सज़ा": 5985,
      "▁चक्र": 5986,
      "▁आर्मचेयर": 5987,
      "क्शन": 5988,
      "▁छत्": 5989,
      "▁भीतर": 5990,
      "टावर": 5991,
      "▁स्ट्रीम": 5992,
      "चिम": 5993,
      "लिंग": 5994,
      "गुलाबी": 5995,
      "कूदते": 5996,
      "▁उतरने": 5997,
      "▁न्याय": 5998,
      "▁चिमनी": 5999,
      "▁फुसफुसा": 6000,
      "▁चुटकु": 6001,
      "णियों": 6002,
      "तरीन": 6003,
      "फि": 6004,
      "रूर": 6005,
      "हास": 6006,
      "▁काल्पनिक": 6007,
      "▁घने": 6008,
      "चाचा": 6009,
      "पाथ": 6010,
      "▁भाप": 6011,
      "▁जबकि": 6012,
      "तिहास": 6013,
      "कोर": 6014,
      "यदि": 6015,
      "▁नावें": 6016,
      "ुटपाथ": 6017,
      "▁शब्दकोश": 6018,
      "▁छिपाना": 6019,
      "▁आश्चर्यजनक": 6020,
      "▁बंदरों": 6021,
      "ट्वीट": 6022,
      "पुल": 6023,
      "▁नौकरी": 6024,
      "▁संभालने": 6025,
      "▁सर्व": 6026,
      "▁चिड़चिड़ा": 6027,
      "▁पंखुड़ियों": 6028,
      "▁डुबो": 6029,
      "सिर्फ": 6030,
      "फॉर्म": 6031,
      "विन": 6032,
      "▁क्री": 6033,
      "नारंगी": 6034,
      "रेष्ठ": 6035,
      "▁शार्क": 6036,
      "▁स्लेज": 6037,
      "▁कुल्हा": 6038,
      "▁माथा": 6039,
      "दीवार": 6040,
      "▁दिखाओ": 6041,
      "श्रेष्ठ": 6042,
      "▁सुनो": 6043,
      "लिटिल": 6044,
      "▁माँगता": 6045,
      "▁उतारा": 6046,
      "▁खिलाड़ी": 6047,
      "▁गतिविध": 6048,
      "जिन्होंने": 6049,
      "सुथरे": 6050,
      "▁बेवकूफ़": 6051,
      "▁चालक": 6052,
      "▁भूमिका": 6053,
      "आआआआआआआआआआआआआआआआआआआआआआआआआआआआआआआआआआआआआआआआआआआआआआआआआआआआआआआआआआआआआआआआ": 6054,
      "▁लिफ़ाफ़ा": 6055,
      "▁ज्वालामुखी": 6056,
      "▁निश्चय": 6057,
      "पट": 6058,
      "सैंडी": 6059,
      "▁मजाक": 6060,
      "▁पंछी": 6061,
      "▁खट्टे": 6062,
      "स्टे": 6063,
      "▁आयो": 6064,
      "▁तेंद": 6065,
      "वाले": 6066,
      "▁चाहूँगा": 6067,
      "▁राख": 6068,
      "▁बोर": 6069,
      "▁आवाज़ों": 6070,
      "▁निकलती": 6071,
      "जेता": 6072,
      "स्तराँ": 6073,
      "▁भूलना": 6074,
      "समर्पण": 6075,
      "मोबा": 6076,
      "▁पाएंगे": 6077,
      "▁संकल्पित": 6078,
      "गड़ा": 6079,
      "पत्त": 6080,
      "सूप": 6081,
      "▁सस्ती": 6082,
      "▁सॉर्ट": 6083,
      "▁आज्ञा": 6084,
      "काग": 6085,
      "▁कुर्स": 6086,
      "▁समर्थ": 6087,
      "मात्र": 6088,
      "▁चमत्": 6089,
      "बेटा": 6090,
      "▁यादों": 6091,
      "▁बीन": 6092,
      "▁पहुँचकर": 6093,
      "▁जेरी": 6094,
      "▁पलक": 6095,
      "▁निर्दोष": 6096,
      "डियम": 6097,
      "▁जेलीफ़िश": 6098,
      "▁जेलीफिश": 6099,
      "▁ज्वेलरी": 6100,
      "▁भरोसेमंद": 6101,
      "कछुए": 6102,
      "िस्कर्स": 6103,
      "ेंड": 6104,
      "▁रविवार": 6105,
      "नीले": 6106,
      "▁जाऊँगा": 6107,
      "▁घन": 6108,
      "▁जिराफ": 6109,
      "टोमोबा": 6110,
      "▁हँसता": 6111,
      "▁प्राणियों": 6112,
      "▁लौटने": 6113,
      "▁पोंछे": 6114,
      "▁नंबरों": 6115,
      "▁गहराई": 6116,
      "▁कैमरे": 6117,
      "श्श्श्श्श्श्श्श्श्श्श्श्श्श्श्श्श्श्श्श्श्श्श्श्श्श्श्श्श्श्श्श्श्श्श्श्श्श्श्श्श्श्श्श्श्श्श्श्श्श्श्श्श्श्श्श्श्श्श्श्श्श्श्श्": 6118,
      "▁ज्ञान": 6119,
      "िगेल": 6120,
      "▁सर्वश्रेष्ठ": 6121,
      "▁समर्थन": 6122,
      "नदी": 6123,
      "फू": 6124,
      "वर्स": 6125,
      "याँ": 6126,
      "स्व": 6127,
      "▁आइ": 6128,
      "▁आजा": 6129,
      "▁उल": 6130,
      "▁भि": 6131,
      "▁फुटपाथ": 6132,
      "मीमी": 6133,
      "र्ता": 6134,
      "▁सुगंध": 6135,
      "िल्ल": 6136,
      "क्सी": 6137,
      "किम": 6138,
      "▁बनकर": 6139,
      "▁बढ़ना": 6140,
      "जिज्ञ": 6141,
      "▁संजो": 6142,
      "शील": 6143,
      "▁ऑटोमोबा": 6144,
      "▁निर्धारित": 6145,
      "खेलते": 6146,
      "▁बोलना": 6147,
      "▁कलाई": 6148,
      "खिलौना": 6149,
      "▁उचकाए": 6150,
      "▁यूनिफॉर्म": 6151,
      "टके": 6152,
      "पक": 6153,
      "्हा": 6154,
      "▁बड़ों": 6155,
      "▁चार्ली": 6156,
      "▁छल": 6157,
      "▁वै": 6158,
      "▁वर्": 6159,
      "म्राज्य": 6160,
      "▁क्विज़": 6161,
      "▁तोते": 6162,
      "▁थोड़े": 6163,
      "▁सुनीं": 6164,
      "▁आएँ": 6165,
      "▁गिना": 6166,
      "▁चूही": 6167,
      "▁दिखना": 6168,
      "▁अनुभूति": 6169,
      "▁संतरा": 6170,
      "▁पोंड": 6171,
      "ग्गी": 6172,
      "पिंड": 6173,
      "▁ड्रॉवर": 6174,
      "▁डिशवॉशर": 6175,
      "▁लाइब्रेरी": 6176,
      "▁नज़दीकी": 6177,
      ":\n\n\"": 6178,
      "थ्वी": 6179,
      "▁बकल": 6180,
      "▁लटक": 6181,
      "▁अंडों": 6182,
      "▁जहर": 6183,
      "▁चित": 6184,
      "▁चाहूँगी": 6185,
      "▁खाएँ": 6186,
      "▁गर्वित": 6187,
      "▁बैठती": 6188,
      "▁पैमाने": 6189,
      "▁हिप्पो": 6190,
      "▁बरती": 6191,
      "▁घाव": 6192,
      "▁बत्तखें": 6193,
      "▁चखने": 6194,
      "▁बिलकुल": 6195,
      "चमकीला": 6196,
      "▁चिह्नित": 6197,
      "▁स्टाइल": 6198,
      "साहसी": 6199,
      "▁लक्ष्य": 6200,
      "किया": 6201,
      "नर्स": 6202,
      "बकरी": 6203,
      "ह्मा": 6204,
      "िक्त": 6205,
      "▁खट्टी": 6206,
      "▁शॉवर": 6207,
      "िकार": 6208,
      "▁खोई": 6209,
      "प्पा": 6210,
      "▁खरगोशों": 6211,
      "▁होतीं": 6212,
      "▁चूह": 6213,
      "▁दिखे": 6214,
      "▁बदले": 6215,
      "▁कैबि": 6216,
      "हैप्पी": 6217,
      "▁चौड़ा": 6218,
      "▁हेलिकॉप्टर": 6219,
      "▁चुराने": 6220,
      "▁तौलिए": 6221,
      "▁कृपया": 6222,
      "फायरमैन": 6223,
      "▁घुमावदार": 6224,
      "▁कॉर्नफ्लेक्स": 6225,
      "तिरिक्त": 6226,
      "▁चिट्ठियाँ": 6227,
      "▁फायदा": 6228,
      "▁मांसपेश": 6229,
      "ह्मांड": 6230,
      "▁फंसी": 6231,
      "स्तरों": 6232,
      "▁स्ला": 6233,
      "ेनू": 6234,
      "▁पेब्": 6235,
      "▁भाव": 6236,
      "▁एंज": 6237,
      "▁चढ़ती": 6238,
      "यरन": 6239,
      "▁ढूंढी": 6240,
      "▁पहुँचाएगा": 6241,
      "▁जाओगी": 6242,
      ".\n\n\"": 6243,
      "प्यार": 6244,
      "▁पकाया": 6245,
      "▁मचाया": 6246,
      "▁गैस": 6247,
      "▁कार्यक्रम": 6248,
      "▁जुटाई": 6249,
      "▁कंकड़": 6250,
      "ओउ": 6251,
      "▁पार्": 6252,
      "▁जाम": 6253,
      "▁इतिहास": 6254,
      "▁माय": 6255,
      "▁मापना": 6256,
      "▁ज़े": 6257,
      "▁ऐनी": 6258,
      "▁विजेता": 6259,
      "▁लिखी": 6260,
      "▁जीता": 6261,
      "▁मछुआ": 6262,
      "▁स्पर्श": 6263,
      "ज्ञान": 6264,
      "▁खींचती": 6265,
      "्रेसलेट": 6266,
      "▁सिखाना": 6267,
      "▁बुलाने": 6268,
      "▁चित्रों": 6269,
      "▁मोहित": 6270,
      "▁फैलाया": 6271,
      "तूफ़ान": 6272,
      "फ़ेरी": 6273,
      "▁स्टेज": 6274,
      "▁उपलब्धि": 6275,
      "▁मोमबत्तियाँ": 6276,
      "▁मिंट": 6277,
      "▁निर्देशों": 6278,
      "ंजे": 6279,
      "गरीब": 6280,
      "पिल्ले": 6281,
      "वरी": 6282,
      "सफ़ेद": 6283,
      "▁कंध": 6284,
      "▁प्ल": 6285,
      "▁अतिरिक्त": 6286,
      "▁गूं": 6287,
      "लाई": 6288,
      "▁बाढ़": 6289,
      "▁खिलाया": 6290,
      "▁जोन्स": 6291,
      "पात": 6292,
      "▁दुस्": 6293,
      "▁ताजा": 6294,
      "▁चियर": 6295,
      "▁पकड़ती": 6296,
      "▁बिस्तरों": 6297,
      "!\n\n\"": 6298,
      "▁बढ़े": 6299,
      "▁आएंगे": 6300,
      "▁माताएँ": 6301,
      "▁दिखाईं": 6302,
      "▁फेंकता": 6303,
      "सरूम": 6304,
      "▁दुखद": 6305,
      "हंसते": 6306,
      "▁उठती": 6307,
      "▁उछलना": 6308,
      "दूसरा": 6309,
      "पैट": 6310,
      "▁चाटता": 6311,
      "▁उछाल": 6312,
      "▁कोयला": 6313,
      "परे": 6314,
      "▁जॉर्ज": 6315,
      "▁आश": 6316,
      "वाक": 6317,
      "वाया": 6318,
      "▁फ्रेड": 6319,
      "▁गुजरा": 6320,
      "▁कारना": 6321,
      "ंगलवार": 6322,
      "▁टेड": 6323,
      "▁जल्दबाजी": 6324,
      "▁खोलें": 6325,
      "▁पढ़ी": 6326,
      "▁सफारी": 6327,
      "▁मारिया": 6328,
      "▁जिनसे": 6329,
      "सावधानी": 6330,
      "▁फड़फड़ाए": 6331,
      "▁तैराकी": 6332,
      "बर्फ": 6333,
      "▁संरचना": 6334,
      "ओउच": 6335,
      "▁ज़ेबरा": 6336,
      "\",": 6337,
      "खो": 6338,
      "दया": 6339,
      "रॉबी": 6340,
      "लंच": 6341,
      "शो": 6342,
      "▁'": 6343,
      "▁कछ": 6344,
      "▁सूं": 6345,
      "▁सूत": 6346,
      "ड़कियों": 6347,
      "▁उठे": 6348,
      "▁साम्राज्य": 6349,
      "िशु": 6350,
      "जादुई": 6351,
      "▁राज़ी": 6352,
      "▁ज़ो": 6353,
      "▁बेहो": 6354,
      "▁सीखे": 6355,
      "▁पहनकर": 6356,
      "▁ट्रेनों": 6357,
      "▁हिलना": 6358,
      "▁रखीं": 6359,
      "▁मूंगफली": 6360,
      "▁चूमती": 6361,
      "▁डांट": 6362,
      "▁मधुमक्खियों": 6363,
      "▁उल्कापिंड": 6364,
      "पर्": 6365,
      "▁ब्रेसलेट": 6366,
      "▁अला": 6367,
      "▁एकमात्र": 6368,
      "र्मी": 6369,
      "▁साथी": 6370,
      "▁डरना": 6371,
      "▁ढी": 6372,
      "▁चढ़ी": 6373,
      "▁जितने": 6374,
      "▁क्रंची": 6375,
      "▁शिखर": 6376,
      "▁घोड़ी": 6377,
      "▁सजाना": 6378,
      "▁बीजों": 6379,
      "▁मांगना": 6380,
      "▁ताकतवर": 6381,
      "▁सूखने": 6382,
      "...": 6383,
      "▁सप्ताह": 6384,
      "▁ट्रिक्स": 6385,
      "छिप": 6386,
      "टू": 6387,
      "दूत": 6388,
      "▁बनें": 6389,
      "▁मेनू": 6390,
      "▁केस": 6391,
      "▁न्यू": 6392,
      "स्म": 6393,
      "स्क्रीन": 6394,
      "न्यास": 6395,
      "िरोध": 6396,
      "▁कुंजी": 6397,
      "सांप": 6398,
      "शांत": 6399,
      "▁जोड़े": 6400,
      "▁विरोध": 6401,
      "▁बेबस": 6402,
      "▁चेक": 6403,
      "▁मिलाए": 6404,
      "▁मिसेज़": 6405,
      "▁रेस्तराँ": 6406,
      "कपड़े": 6407,
      "▁स्टीव": 6408,
      "▁रूड": 6409,
      "▁बीतते": 6410,
      "▁तुलना": 6411,
      "▁चंचलता": 6412,
      "दि": 6413,
      "मूर्": 6414,
      "मवर्क": 6415,
      "ॉन्": 6416,
      "ोगे": 6417,
      "याम": 6418,
      "▁अस्त": 6419,
      "▁सेवा": 6420,
      "वास्तव": 6421,
      "▁टॉप": 6422,
      "▁वसंत": 6423,
      "▁क्लारा": 6424,
      "ूल्ह": 6425,
      "▁गायों": 6426,
      "प्लेस": 6427,
      "▁डराना": 6428,
      "▁करेंगी": 6429,
      "▁देखेगी": 6430,
      "ट्रू": 6431,
      "▁दिलाने": 6432,
      "▁पोंछा": 6433,
      "प्रति": 6434,
      "मंत्रण": 6435,
      "▁फुल्ली": 6436,
      "▁आत्मसमर्पण": 6437,
      "▁ब्रांड": 6438,
      "ग्गज": 6439,
      "▁कुल्हाड़ी": 6440,
      "जिज्ञासु": 6441,
      "▁ऑटोमोबाइल": 6442,
      "इंग": 6443,
      "पड़ी": 6444,
      "बैंगनी": 6445,
      "▁केप": 6446,
      "लेयर": 6447,
      "▁घड़ा": 6448,
      "▁महक": 6449,
      "▁मेस": 6450,
      "▁चुप्पी": 6451,
      "▁रेड": 6452,
      "ज्ञानी": 6453,
      "▁देखेगा": 6454,
      "▁क्रॉस": 6455,
      "▁खेलेगा": 6456,
      "व्यस्त": 6457,
      "हवाई": 6458,
      "युक्को": 6459,
      "ोल्ड": 6460,
      "▁सहलाया": 6461,
      "▁सिगरेट": 6462,
      "▁दाँतों": 6463,
      "▁गुज़रा": 6464,
      "▁निचोड़": 6465,
      "▁ट्यूना": 6466,
      "खतम": 6467,
      "झूल": 6468,
      "मिल": 6469,
      "सं": 6470,
      "साँ": 6471,
      "िम": 6472,
      "▁काटे": 6473,
      "▁इंच": 6474,
      "्रो": 6475,
      "▁घटना": 6476,
      "▁नाश": 6477,
      "▁नाचे": 6478,
      "▁सीक्रे": 6479,
      "▁पहियों": 6480,
      "पीले": 6481,
      "▁पिछ": 6482,
      "▁भेड़ों": 6483,
      "▁योद्धा": 6484,
      "समय": 6485,
      "गुस्": 6486,
      "▁ब्रह्मांड": 6487,
      "▁छाते": 6488,
      "▁पिंजरा": 6489,
      "▁टेलीफोन": 6490,
      "ब्लॉक्स": 6491,
      "▁मंजिल": 6492,
      "▁पूर्ण": 6493,
      "झूला": 6494,
      "▁आत्मविश्वास": 6495,
      "▁भिगो": 6496,
      "▁कैबिनेट": 6497,
      "▁एंजेल": 6498,
      "▁अलावा": 6499,
      "ूल्हे": 6500,
      "द्यालय": 6501,
      "ववि": 6502,
      "▁हैरी": 6503,
      "▁खज़ा": 6504,
      "काला": 6505,
      "▁छड़": 6506,
      "रेत": 6507,
      "रेमी": 6508,
      "▁स्वि": 6509,
      "▁सुखा": 6510,
      "ूरती": 6511,
      "▁धड़क": 6512,
      "मुर्": 6513,
      "▁तालियों": 6514,
      "देखते": 6515,
      "▁मिटन्स": 6516,
      "▁समझता": 6517,
      "▁शरण": 6518,
      "▁बढ़ाए": 6519,
      "▁आकर्षित": 6520,
      "बिस्तर": 6521,
      "▁तारीफ़": 6522,
      "▁प्लेग्राउंड": 6523,
      "जैज़": 6524,
      "फ्रैंक": 6525,
      "▁आजाद": 6526,
      "वविद्यालय": 6527,
      "नगु": 6528,
      "व्रूम": 6529,
      "▁पश्": 6530,
      "▁थपथ": 6531,
      "▁कोहरा": 6532,
      "गाड़ी": 6533,
      "र्र": 6534,
      "▁शराब": 6535,
      "▁वालों": 6536,
      "▁तां": 6537,
      "▁टिम्मी": 6538,
      "मेंट": 6539,
      "▁बीमारी": 6540,
      "रोज़ी": 6541,
      "सुन": 6542,
      "▁धोया": 6543,
      "▁घुमाता": 6544,
      "▁चौंक": 6545,
      "▁क्लासरूम": 6546,
      "क्रेन": 6547,
      "▁मरम्मत": 6548,
      "▁खुरद": 6549,
      "ोसरी": 6550,
      "▁सनग्लास": 6551,
      "▁आइने": 6552,
      "▁दुस्साहसी": 6553,
      "▁थपथपा": 6554,
      "फों": 6555,
      "मस": 6556,
      "मशीन": 6557,
      "वत": 6558,
      "▁हू": 6559,
      "▁सहा": 6560,
      "▁बडी": 6561,
      "▁म्यू": 6562,
      "▁नेट": 6563,
      "▁बहरा": 6564,
      "▁होनी": 6565,
      "▁होमवर्क": 6566,
      "▁उतने": 6567,
      "▁तकिये": 6568,
      "▁सालों": 6569,
      "केस": 6570,
      "▁मापा": 6571,
      "▁दीजिए": 6572,
      "्ययन": 6573,
      "▁तोड़ी": 6574,
      "▁कमरों": 6575,
      "देखना": 6576,
      "▁टोनी": 6577,
      "▁हँसने": 6578,
      "लिज़्ज़ी": 6579,
      "▁अध्ययन": 6580,
      "▁फिसलने": 6581,
      "▁चिकने": 6582,
      "▁उतारे": 6583,
      "ंटियाँ": 6584,
      "शरारती": 6585,
      "रूबी": 6586,
      "▁लोमड़": 6587,
      "▁व्यायाम": 6588,
      "▁पृथ्वी": 6589,
      "▁सीक्रेट": 6590,
      "चलें": 6591,
      "नया": 6592,
      "लहर": 6593,
      "शोर": 6594,
      "सड़क": 6595,
      "ियल": 6596,
      "▁दान": 6597,
      "▁उड़ी": 6598,
      "▁तिलच": 6599,
      "ंदु": 6600,
      "▁शु": 6601,
      "▁घड़े": 6602,
      "▁बाजार": 6603,
      "▁विल": 6604,
      "▁ऊपरी": 6605,
      "▁पकड़ो": 6606,
      "▁बिच्छू": 6607,
      "▁लीजा": 6608,
      "▁भूकंप": 6609,
      "▁स्वय": 6610,
      "▁गोभी": 6611,
      "▁उपन्यास": 6612,
      "▁दौड़ाया": 6613,
      "▁टाइमर": 6614,
      "▁वेलवेट": 6615,
      "▁हिचकिचा": 6616,
      "▁ग्लव्स": 6617,
      "▁छत्ते": 6618,
      "ंघ": 6619,
      "कारा": 6620,
      "भर": 6621,
      "लिन": 6622,
      "शब्द": 6623,
      "सित": 6624,
      "िस्टल": 6625,
      "▁गोरिल्ला": 6626,
      "▁जाऊंगी": 6627,
      "साफ़": 6628,
      "मानी": 6629,
      "▁भाला": 6630,
      "▁लाते": 6631,
      "्रामी": 6632,
      "▁रंगना": 6633,
      "▁दावा": 6634,
      "▁ढूंढ़": 6635,
      "▁पढ़ती": 6636,
      "▁कंकाल": 6637,
      "▁गेराज": 6638,
      "▁जॉनसन": 6639,
      "▁रोकना": 6640,
      "केकड़े": 6641,
      "निना": 6642,
      "ग्रस्त": 6643,
      "शिक्षिका": 6644,
      "▁गांव": 6645,
      "▁केंद्रित": 6646,
      "क्सीजन": 6647,
      "▁स्लाइस": 6648,
      "▁स्वयं": 6649,
      "खार": 6650,
      "जुट": 6651,
      "डरा": 6652,
      "मौ": 6653,
      "मिल्ली": 6654,
      "सूरती": 6655,
      "ॉन्स": 6656,
      "▁हॉट": 6657,
      "▁सिक": 6658,
      "▁सिसक": 6659,
      "▁बॉस": 6660,
      "▁कोनों": 6661,
      "▁देव": 6662,
      "▁कांच": 6663,
      "▁फंसे": 6664,
      "रेट्स": 6665,
      "्रय": 6666,
      "▁बानी": 6667,
      "▁फैसले": 6668,
      "▁यान": 6669,
      "▁लोहे": 6670,
      "▁बेहू": 6671,
      "टेबल": 6672,
      "▁जेम": 6673,
      "▁तोड़कर": 6674,
      "▁किसने": 6675,
      "▁फुर्री": 6676,
      "▁बर्फ़ी": 6677,
      "▁शेफ": 6678,
      "भूरा": 6679,
      "▁गड्ढा": 6680,
      "▁बुझाने": 6681,
      "▁सैनिकों": 6682,
      "▁मिट्टन": 6683,
      "▁लिफ़ाफ़े": 6684,
      "▁रेंग": 6685,
      "▁मुर्गियों": 6686,
      "▁पन्ने": 6687,
      "फ्रेडी": 6688,
      "डॉल": 6689,
      "फिक": 6690,
      "हि": 6691,
      "हँस": 6692,
      "▁कमा": 6693,
      "▁हौ": 6694,
      "▁मृत": 6695,
      "▁अज्ञानी": 6696,
      "▁ग्ला": 6697,
      "▁रंगा": 6698,
      "▁आइस": 6699,
      "▁आंस": 6700,
      "▁फ्रॉ": 6701,
      "▁लगाओ": 6702,
      "किस्म": 6703,
      "▁गुनगु": 6704,
      "वरण": 6705,
      "▁झटका": 6706,
      "▁ज़बरा": 6707,
      "▁एंडी": 6708,
      "बाज़": 6709,
      "मिट्टी": 6710,
      "▁काटते": 6711,
      "▁गोता": 6712,
      "▁बूंद": 6713,
      "अलमारी": 6714,
      "▁ट्रेनें": 6715,
      "▁स्नोवी": 6716,
      "▁ग्रोसरी": 6717,
      "▁प्रिंसेस": 6718,
      "▁बिखेर": 6719,
      "सुथरी": 6720,
      "▁फड़फड़ाया": 6721,
      "▁आयोजन": 6722,
      "िल्लाहट": 6723,
      "▁सूंघ": 6724,
      "किस्मती": 6725,
      "इक्स": 6726,
      "चोर": 6727,
      "डैन": 6728,
      "सल": 6729,
      "▁बॉ": 6730,
      "▁बल्कि": 6731,
      "▁मक्के": 6732,
      "▁चिल्लाहट": 6733,
      "िलहरी": 6734,
      "राग": 6735,
      "▁लगातार": 6736,
      "▁विक": 6737,
      "▁मेहम": 6738,
      "▁पीनट": 6739,
      "▁निमंत्रण": 6740,
      "▁कमर": 6741,
      "▁बैठता": 6742,
      "▁स्टैंड": 6743,
      "▁खींची": 6744,
      "▁सेबों": 6745,
      "▁बदलना": 6746,
      "▁चौक": 6747,
      "▁बुलबुलों": 6748,
      "▁शेड": 6749,
      "▁नज़ारा": 6750,
      "▁खंभा": 6751,
      "▁बतखों": 6752,
      "▁ईंटें": 6753,
      "छिपा": 6754,
      "▁शून्य": 6755,
      "▁खिड़कियाँ": 6756,
      "▁आज्ञाकारी": 6757,
      "इतना": 6758,
      "सफ": 6759,
      "▁हैलो": 6760,
      "▁न्य": 6761,
      "▁फँस": 6762,
      "मीरा": 6763,
      "▁ट्यूटर": 6764,
      "▁सकूँ": 6765,
      "▁रहूँगी": 6766,
      "पाही": 6767,
      "▁यार्ड": 6768,
      "▁उत्साहपूर्वक": 6769,
      "▁बुखार": 6770,
      "▁लिफा": 6771,
      "▁खिड़कियों": 6772,
      "▁गुड़ियाँ": 6773,
      "टनरी": 6774,
      "▁क्रोको": 6775,
      "▁दिलाई": 6776,
      "▁चिपक": 6777,
      "▁सब्जी": 6778,
      "▁परिचित": 6779,
      "▁स्टेडियम": 6780,
      "▁घूमा": 6781,
      "▁पश्चिम": 6782,
      "ओगी": 6783,
      "घोड़ा": 6784,
      "टेन": 6785,
      "व्ही": 6786,
      "▁कॉर्ड": 6787,
      "▁बं": 6788,
      "▁एकजुट": 6789,
      "▁रैप": 6790,
      "▁च्यू": 6791,
      "▁चक्की": 6792,
      "िनय": 6793,
      "▁आड़ू": 6794,
      "▁तह": 6795,
      "क्ला": 6796,
      "रेज": 6797,
      "▁वासे": 6798,
      "साही": 6799,
      "जामा": 6800,
      "▁बैटर": 6801,
      "▁चाची": 6802,
      "▁जाएंगी": 6803,
      "▁बिंदु": 6804,
      "▁सुनाती": 6805,
      "▁बेहतरीन": 6806,
      "जेस": 6807,
      "जेमी": 6808,
      "ंधी": 6809,
      "▁फेंस": 6810,
      "▁आभू": 6811,
      "▁मिलीं": 6812,
      "▁खींचकर": 6813,
      "▁विश्वविद्यालय": 6814,
      "▁दीवारें": 6815,
      "▁चुनते": 6816,
      "महल": 6817,
      "धुपाना": 6818,
      "▁फेयर": 6819,
      "▁सतर्क": 6820,
      "▁आजमाना": 6821,
      "▁ईंटों": 6822,
      "ब्लॉक": 6823,
      "▁कृपा": 6824,
      "▁गरज": 6825,
      "▁बोरिंग": 6826,
      "परेशन": 6827,
      "▁आश्रय": 6828,
      "▁ग्लास": 6829,
      "दों": 6830,
      "नौ": 6831,
      "मॉम": 6832,
      "लिया": 6833,
      "यारी": 6834,
      "▁चूल्हे": 6835,
      "नीली": 6836,
      "लेन": 6837,
      "▁सकूं": 6838,
      "▁हमसे": 6839,
      "▁खानी": 6840,
      "▁जोई": 6841,
      "▁राफ्ट": 6842,
      "▁बिगड़": 6843,
      "▁खोजें": 6844,
      "▁गिरता": 6845,
      "जेट": 6846,
      "▁टोबी": 6847,
      "▁टोकरा": 6848,
      "▁पोते": 6849,
      "▁मेंढकों": 6850,
      "▁अभिनय": 6851,
      "▁जिनके": 6852,
      "▁बुलबुला": 6853,
      "▁उत्साही": 6854,
      "कहते": 6855,
      "ैम्पू": 6856,
      "▁कंघा": 6857,
      "▁एक्साइ": 6858,
      "चमकीली": 6859,
      "▁कॉस्ट्यूम": 6860,
      "▁सच्चाई": 6861,
      "▁सीखीं": 6862,
      "बार्बर": 6863,
      "साँप": 6864,
      "▁नाशपा": 6865,
      "कता": 6866,
      "थैंक": 6867,
      "पाँच": 6868,
      "यंट": 6869,
      "▁सॉक": 6870,
      "▁लक्": 6871,
      "▁स्क्विरल्स": 6872,
      "▁डू": 6873,
      "▁नाज़": 6874,
      "ंगना": 6875,
      "▁क्लो": 6876,
      "▁टिड्डी": 6877,
      "बाज़ी": 6878,
      "▁बताई": 6879,
      "बेट्सी": 6880,
      "ंडर": 6881,
      "▁सोची": 6882,
      "▁स्टॉल": 6883,
      "नियां": 6884,
      "▁कैट": 6885,
      "▁हिलता": 6886,
      "▁कराती": 6887,
      "▁कराएगा": 6888,
      "▁मार्बल": 6889,
      "▁लोमड़ा": 6890,
      "▁लोमड़े": 6891,
      "स्टीव": 6892,
      "▁धब्बा": 6893,
      "▁पदक": 6894,
      "लंबे": 6895,
      "▁शॉपिंग": 6896,
      "▁झुकाया": 6897,
      "▁हफ़्तों": 6898,
      "▁एनिमल्स": 6899,
      "▁मायने": 6900,
      "▁कंधों": 6901,
      "▁आभूषण": 6902,
      ",\"\n\n": 6903,
      "शक": 6904,
      "श्री": 6905,
      "ह्वेल": 6906,
      "▁चार्": 6907,
      "▁आत्मा": 6908,
      "▁जाऊँगी": 6909,
      "केवल": 6910,
      "▁खेली": 6911,
      "्यांगना": 6912,
      "▁कहकर": 6913,
      "▁प्यासे": 6914,
      "मुझ": 6915,
      "▁मेले": 6916,
      "▁तरबू": 6917,
      "जोए": 6918,
      "▁तैयारी": 6919,
      "▁एलि": 6920,
      "बात": 6921,
      "▁सुनाईं": 6922,
      "▁जंगलों": 6923,
      "▁खूबसूरती": 6924,
      "▁क्रिस": 6925,
      "▁धोए": 6926,
      "▁प्रिंटर": 6927,
      "▁शेयर": 6928,
      "▁चिपकाने": 6929,
      "▁सूटकेस": 6930,
      "ृत्यांगना": 6931,
      "चमकीले": 6932,
      "▁क्यूब्स": 6933,
      "▁हौसला": 6934,
      "▁आंसू": 6935,
      "▁क्रोकोडाइल": 6936,
      "अली": 6937,
      "कैंडी": 6938,
      "चु": 6939,
      "डिया": 6940,
      "रमी": 6941,
      "ैग": 6942,
      "▁मारे": 6943,
      "▁मंगलवार": 6944,
      "उसको": 6945,
      "▁लूंगा": 6946,
      "▁नरमी": 6947,
      "▁अप्र": 6948,
      "▁तने": 6949,
      "▁शैम्पू": 6950,
      "पायलट": 6951,
      "▁माथे": 6952,
      "सील": 6953,
      "▁राय": 6954,
      "▁चिप्स": 6955,
      "▁पंखे": 6956,
      "लिये": 6957,
      "▁अकेलापन": 6958,
      "▁मोली": 6959,
      "▁लहराई": 6960,
      "खुशकिस्मती": 6961,
      "▁उछलते": 6962,
      "▁ज़िंदगी": 6963,
      "स्पाइक": 6964,
      "▁विचारों": 6965,
      "▁हथौड़ा": 6966,
      "▁छलाँग": 6967,
      "दयालु": 6968,
      "आँ": 6969,
      "तुर": 6970,
      "फ्रि": 6971,
      "रॉकेट": 6972,
      "▁खर्च": 6973,
      "▁चतुर": 6974,
      "स्न": 6975,
      "▁डो": 6976,
      "▁वॉ": 6977,
      "म्बू": 6978,
      "फ़ी": 6979,
      "जोय": 6980,
      "▁निग": 6981,
      "छेद": 6982,
      "▁बैठक": 6983,
      "▁अनप": 6984,
      "▁तीनों": 6985,
      "▁टीना": 6986,
      "▁कैंडीज़": 6987,
      "▁दिलाती": 6988,
      "▁बाँटा": 6989,
      "▁बढ़ाकर": 6990,
      "▁भेड़ें": 6991,
      "▁बिल्ड": 6992,
      "▁पड़ोसियों": 6993,
      "▁रगड़ना": 6994,
      "▁लचीली": 6995,
      "स्नोवी": 6996,
      "▁सुहावना": 6997,
      "▁ट्रैफिक": 6998,
      "▁ब्लाउज": 6999,
      "▁बेहूदा": 7000,
      "▁नाज़ुक": 7001,
      "ग्रे": 7002,
      "टब": 7003,
      "ड्री": 7004,
      "फिया": 7005,
      "वकील": 7006,
      "ॉलो": 7007,
      "याधी": 7008,
      "▁खाल": 7009,
      "▁कीपर": 7010,
      "▁उब": 7011,
      "क्वी": 7012,
      "ज़िप": 7013,
      "▁स्कुल": 7014,
      "िल्में": 7015,
      "▁सबको": 7016,
      "▁कोशि": 7017,
      "▁फैशन": 7018,
      "▁बैल": 7019,
      "▁प्रणाम": 7020,
      "कोको": 7021,
      "▁पैदल": 7022,
      "बूटी": 7023,
      "▁फ़र्रा": 7024,
      "मैडी": 7025,
      "▁संवार": 7026,
      "▁खिंच": 7027,
      "▁मेहनती": 7028,
      "दानव": 7029,
      "▁बेचना": 7030,
      "▁फिसलना": 7031,
      "▁चखकर": 7032,
      "रियल": 7033,
      "नाविक": 7034,
      "▁फुला": 7035,
      "▁चबाया": 7036,
      "▁छुट्टी": 7037,
      "▁खतरा": 7038,
      "▁ढूँढ़ने": 7039,
      "▁गुर्राया": 7040,
      "▁सुहाव": 7041,
      "▁सिकुड़": 7042,
      "कागज़": 7043,
      "छिपकली": 7044,
      "याधीश": 7045,
      "पिं": 7046,
      "▁बलून": 7047,
      "ेंडी": 7048,
      "▁अंदा": 7049,
      "▁ग्री": 7050,
      "▁नेमो": 7051,
      "▁डाँ": 7052,
      "त्ता": 7053,
      "▁वादे": 7054,
      "इसकी": 7055,
      "ल्ट": 7056,
      "▁हां": 7057,
      "▁तरोता": 7058,
      "▁निय": 7059,
      "▁अनि": 7060,
      "▁फ़ोटो": 7061,
      "▁तीखे": 7062,
      "चिप": 7063,
      "▁उड़ाते": 7064,
      "▁हिलते": 7065,
      "▁ऑक्सीजन": 7066,
      "▁चिकन": 7067,
      "▁डाकिया": 7068,
      "▁फ्ले": 7069,
      "▁खुरपी": 7070,
      "▁क्लिक": 7071,
      "बालों": 7072,
      "अंधेरा": 7073,
      "▁बदतमीज़": 7074,
      "▁मांसपेशियों": 7075,
      "▁च्यूइंग": 7076,
      "इयाँ": 7077,
      "कंगारू": 7078,
      "जेली": 7079,
      "दृ": 7080,
      "भो": 7081,
      "मिला": 7082,
      "▁बबल्स": 7083,
      "▁पाजामा": 7084,
      "▁छुए": 7085,
      "च्छे": 7086,
      "▁बाइक्स": 7087,
      "▁नाख": 7088,
      "▁पेट्रोल": 7089,
      "▁हाथियों": 7090,
      "बेशक": 7091,
      "▁चढ़े": 7092,
      "चीज़": 7093,
      "▁गायें": 7094,
      "ड्डा": 7095,
      "▁असहम": 7096,
      "▁इच्छाएँ": 7097,
      "▁मोप": 7098,
      "खेत": 7099,
      "▁फिसलकर": 7100,
      "▁प्लेटें": 7101,
      "▁डाकघर": 7102,
      "▁फ्रेडी": 7103,
      "▁चिढ़ाना": 7104,
      "▁छल्ले": 7105,
      "झील": 7106,
      "▁बेहोश": 7107,
      "▁लक्जरी": 7108,
      "गै": 7109,
      "थॉमस": 7110,
      "म्याऊ": 7111,
      "लद": 7112,
      "वै": 7113,
      "▁कण": 7114,
      "▁लक": 7115,
      "ेंगी": 7116,
      "▁जैम": 7117,
      "▁एका": 7118,
      "▁रॉड": 7119,
      "स्टिंग": 7120,
      "▁बहरी": 7121,
      "▁परवर": 7122,
      "▁फॉक्स": 7123,
      "काई": 7124,
      "रेन": 7125,
      "▁श्री": 7126,
      "▁स्म": 7127,
      "तोता": 7128,
      "▁ओक": 7129,
      "▁खिले": 7130,
      "▁झगड़": 7131,
      "▁ट्रिक": 7132,
      "▁टेढ़ा": 7133,
      "▁बीवी": 7134,
      "▁स्प्रिंग": 7135,
      "▁मीमी": 7136,
      "लिब्रे": 7137,
      "▁सिखाती": 7138,
      "▁पलट": 7139,
      "▁कटोरी": 7140,
      "▁झींगा": 7141,
      "▁मूड": 7142,
      "▁गंजे": 7143,
      "▁पाइरेट": 7144,
      "▁छुएँ": 7145,
      "▁प्रदर्शित": 7146,
      "▁पिघलने": 7147,
      "▁सर्कस": 7148,
      "▁जुटाया": 7149,
      "मज़ेदार": 7150,
      "ंघरा": 7151,
      "मौसम": 7152,
      "सफेद": 7153,
      "▁न्योता": 7154,
      "▁नियंत्र": 7155,
      "दृश्य": 7156,
      "▁परवरिश": 7157,
      "अंग": 7158,
      "ऐसे": 7159,
      "घ्र": 7160,
      "नई": 7161,
      "रॉब": 7162,
      "ष्प": 7163,
      "हट": 7164,
      "▁पपी": 7165,
      "तेज़": 7166,
      "न्या": 7167,
      "▁शिकार": 7168,
      "फ़र": 7169,
      "▁बुझ": 7170,
      "▁कमज़ोर": 7171,
      "▁अंतिम": 7172,
      "▁छूते": 7173,
      "▁पड़ती": 7174,
      "▁कैप": 7175,
      "शीघ्र": 7176,
      "▁धोते": 7177,
      "▁खेलेगी": 7178,
      "▁पाइरेट्स": 7179,
      "▁मेलबॉक्स": 7180,
      "पुरा": 7181,
      "▁कानून": 7182,
      "जूली": 7183,
      "▁बिल्ल": 7184,
      "फ़ेयरी": 7185,
      "▁ड्राइंग्स": 7186,
      "▁तौलिये": 7187,
      "▁फव्वारा": 7188,
      "▁फावड़े": 7189,
      "खिम": 7190,
      "ज्ञानिक": 7191,
      "▁कछुआ": 7192,
      "▁नाशपाती": 7193,
      "ऑक्टोपस": 7194,
      "टियाँ": 7195,
      "नल": 7196,
      "्म": 7197,
      "नाच": 7198,
      "▁सायरन": 7199,
      "क्लेयर": 7200,
      "▁परो": 7201,
      "वाई": 7202,
      "तुम्हा": 7203,
      "▁सोफा": 7204,
      "ूलिया": 7205,
      "▁झर": 7206,
      "श्त": 7207,
      "▁गिरकर": 7208,
      "अबिगेल": 7209,
      "▁बुराई": 7210,
      "▁मैजिक": 7211,
      "लुलु": 7212,
      "▁डालता": 7213,
      "▁क्रॉल": 7214,
      "▁घुटना": 7215,
      "▁संतुष्टि": 7216,
      "▁मचाने": 7217,
      "▁मचाना": 7218,
      "▁मचाता": 7219,
      "जरेटर": 7220,
      "▁चबाने": 7221,
      "बैग": 7222,
      "▁कलाकार": 7223,
      "डाइनासोर": 7224,
      "मतौर": 7225,
      "▁रीफ़": 7226,
      "▁टहनियों": 7227,
      "▁कुर्सियों": 7228,
      "मुर्गी": 7229,
      "▁विकल्प": 7230,
      "▁एक्साइटेड": 7231,
      "फ्रिजरेटर": 7232,
      "▁अनपैक": 7233,
      "छड़ी": 7234,
      "जॉश": 7235,
      "तुरंत": 7236,
      "बिं": 7237,
      "मने": 7238,
      "शनी": 7239,
      "▁कड़ा": 7240,
      "▁बबल": 7241,
      "▁खाँ": 7242,
      "▁सेलिब्रे": 7243,
      "िनी": 7244,
      "▁कहानियां": 7245,
      "▁रहूँगा": 7246,
      "▁लेटा": 7247,
      "▁प्यासा": 7248,
      "▁गुलद": 7249,
      "▁नीम": 7250,
      "▁गाड़ियों": 7251,
      "▁बिताई": 7252,
      "▁पड़ने": 7253,
      "रोशनी": 7254,
      "▁निर्भर": 7255,
      "▁सामानों": 7256,
      "जिनके": 7257,
      "▁गैरेज": 7258,
      "▁तौर": 7259,
      "जैकी": 7260,
      "▁फ्रीजर": 7261,
      "▁स्नेही": 7262,
      "लंबी": 7263,
      "कार्ल": 7264,
      "गिस्ता": 7265,
      "उट": 7266,
      "कप्तान": 7267,
      "टैक्सी": 7268,
      "धक्का": 7269,
      "भौ": 7270,
      "शू": 7271,
      "ुओं": 7272,
      "ोड़ी": 7273,
      "▁आमतौर": 7274,
      "न्नी": 7275,
      "कीट": 7276,
      "गाने": 7277,
      "▁माँगे": 7278,
      "▁सुराग": 7279,
      "▁महंगे": 7280,
      "▁बनावट": 7281,
      "▁जोखिम": 7282,
      "▁वाह": 7283,
      "▁मेट्रो": 7284,
      "▁कोशिका": 7285,
      "▁बेट्सी": 7286,
      "▁उठाईं": 7287,
      "द्दा": 7288,
      "▁रोज़ी": 7289,
      "▁जीती": 7290,
      "चीत": 7291,
      "▁मनाना": 7292,
      "▁टूटने": 7293,
      "▁तोहफ़ा": 7294,
      "▁बुलाती": 7295,
      "गुड़िया": 7296,
      "▁लिखती": 7297,
      "डॉल्फिन": 7298,
      "▁संदूक": 7299,
      "▁उतारने": 7300,
      "▁मुर्गा": 7301,
      "बिलकुल": 7302,
      "▁ऊँची": 7303,
      "▁तितलियाँ": 7304,
      "व्हिस्कर्स": 7305,
      "▁फ़ायरप्लेस": 7306,
      "▁अक्षरों": 7307,
      "▁सिकोड़": 7308,
      "ष्पक्ष": 7309,
      "उदा": 7310,
      "तस्वी": 7311,
      "थी": 7312,
      "धवार": 7313,
      "पंख": 7314,
      "पॉपी": 7315,
      "पशु": 7316,
      "बटन": 7317,
      "मल": 7318,
      "लूस": 7319,
      "शर्": 7320,
      "ोपड़ी": 7321,
      "्लो": 7322,
      "▁हिली": 7323,
      "▁सैंडी": 7324,
      "▁गला": 7325,
      "लाइट": 7326,
      "▁घूँ": 7327,
      "ंगारी": 7328,
      "▁मुस्कुराना": 7329,
      "▁दिग्गज": 7330,
      "▁पेज": 7331,
      "▁बेकिंग": 7332,
      "▁झगड़ा": 7333,
      "▁मिलान": 7334,
      "▁चमकना": 7335,
      "▁सीखती": 7336,
      "▁गोलों": 7337,
      "टोपी": 7338,
      "▁ऑपरेशन": 7339,
      "▁चालाकी": 7340,
      "▁निकलीं": 7341,
      "इटर्स": 7342,
      "▁सुलझाना": 7343,
      "▁उछलता": 7344,
      "▁ऊर्जावान": 7345,
      "▁धुएं": 7346,
      "▁रेनडियर": 7347,
      "स्नोमैन": 7348,
      "▁सनग्लासेज़": 7349,
      "▁बुकशेल्फ़": 7350,
      "▁सर्फिंग": 7351,
      "▁गतिविधियों": 7352,
      "▁चमत्कार": 7353,
      "अंदा": 7354,
      "ओवन": 7355,
      "जंगली": 7356,
      "बों": 7357,
      "बैंग": 7358,
      "रह": 7359,
      "सनी": 7360,
      "▁दस्ताना": 7361,
      "▁फिल": 7362,
      "सेट": 7363,
      "▁शिशु": 7364,
      "ल्ला": 7365,
      "▁खोए": 7366,
      "▁निष्पक्ष": 7367,
      "▁घूमकर": 7368,
      "▁लिप": 7369,
      "सोफे": 7370,
      "मिट्ट": 7371,
      "▁सीखता": 7372,
      "▁रुकता": 7373,
      "▁स्पै": 7374,
      "▁झूलती": 7375,
      "दरवाज़": 7376,
      "▁लौटते": 7377,
      "▁छीं": 7378,
      "▁रिमोट": 7379,
      "▁कलम": 7380,
      "▁मोड़ना": 7381,
      "▁नियमित": 7382,
      "▁हटने": 7383,
      "खिलौनों": 7384,
      "▁चहचहाने": 7385,
      "▁जादूगरनी": 7386,
      "▁रेखाएँ": 7387,
      "खिड़की": 7388,
      "पतंग": 7389,
      "▁अक्षर": 7390,
      "▁हड्डियों": 7391,
      "ज़ोई": 7392,
      "▁चुटकुले": 7393,
      "▁सुगंधित": 7394,
      "▁तांबे": 7395,
      "▁घूँट": 7396,
      "अच्छे": 7397,
      "इंसान": 7398,
      "रें": 7399,
      "रिक": 7400,
      "वश्य": 7401,
      "▁मजे": 7402,
      "▁लू": 7403,
      "▁चश्": 7404,
      "▁आवश्य": 7405,
      "▁उतरना": 7406,
      "▁भले": 7407,
      "▁फोल्ड": 7408,
      "▁शै": 7409,
      "▁व्ही": 7410,
      "▁सबकुछ": 7411,
      "फ़्रेड": 7412,
      "▁हाई": 7413,
      "▁नीम्बू": 7414,
      "▁ताज़ी": 7415,
      "▁टिका": 7416,
      "बेथ": 7417,
      "जेसी": 7418,
      "▁ढूंढे": 7419,
      "▁रुको": 7420,
      "▁चूल्हा": 7421,
      "एँगे": 7422,
      "▁क्रेयॉन्स": 7423,
      "▁छिड़कना": 7424,
      "▁नौका": 7425,
      "▁कांटे": 7426,
      "▁मधुमक्खियाँ": 7427,
      "▁चंचल": 7428,
      "▁डिलीवरी": 7429,
      "सुरक्षित": 7430,
      "▁चूहों": 7431,
      "▁पेब्बल": 7432,
      "ंघराले": 7433,
      "गिस्तान": 7434,
      "उदास": 7435,
      "▁मजेदार": 7436,
      "आटा": 7437,
      "आलू": 7438,
      "उड़": 7439,
      "खच्चर": 7440,
      "नरम": 7441,
      "बद": 7442,
      "सॉ": 7443,
      "▁बूँ": 7444,
      "▁पट्टे": 7445,
      "▁साइ": 7446,
      "▁फॉलो": 7447,
      "▁समान": 7448,
      "शाला": 7449,
      "पाइ": 7450,
      "पाई": 7451,
      "▁ताज़े": 7452,
      "▁प्रयोग": 7453,
      "▁लाला": 7454,
      "▁सुनाने": 7455,
      "▁सुनाते": 7456,
      "िंडी": 7457,
      "▁स्टैक": 7458,
      "▁फेंके": 7459,
      "सैनिक": 7460,
      "▁हिम": 7461,
      "▁दौड़ाना": 7462,
      "▁प्रतिक्रिया": 7463,
      "▁चित्रकार": 7464,
      "मोमो": 7465,
      "▁घुमाती": 7466,
      "▁उतरे": 7467,
      "खुद": 7468,
      "▁सीटें": 7469,
      "वेलकम": 7470,
      "▁सब्जियां": 7471,
      "▁बांधने": 7472,
      "▁स्टील": 7473,
      "कामना": 7474,
      "▁पूर्व": 7475,
      "▁गांठ": 7476,
      "▁बुकशेल्फ": 7477,
      "▁स्विमिंग": 7478,
      "▁गुनगुना": 7479,
      "कं": 7480,
      "चॉक": 7481,
      "जें": 7482,
      "लैंप": 7483,
      "ूती": 7484,
      "▁जॉय": 7485,
      "▁खिसक": 7486,
      "तावरण": 7487,
      "▁नजरों": 7488,
      "स्सी": 7489,
      "काली": 7490,
      "▁लगाएगी": 7491,
      "▁नापसंद": 7492,
      "▁वातावरण": 7493,
      "ुरोध": 7494,
      "▁मांगा": 7495,
      "ूलर": 7496,
      "▁गुजरी": 7497,
      "▁तरंग": 7498,
      "▁बातचीत": 7499,
      "▁लीजिए": 7500,
      "▁सुनाना": 7501,
      "▁अनुरोध": 7502,
      "▁गिरती": 7503,
      "▁कपकेक": 7504,
      "▁पहुँचाया": 7505,
      "▁पहुँचते": 7506,
      "▁संभा": 7507,
      "▁चुनती": 7508,
      "▁किनारों": 7509,
      "▁विमानों": 7510,
      "व्यवस्थित": 7511,
      "▁सौभाग्य": 7512,
      "▁भेजने": 7513,
      "चित्रकार": 7514,
      "दरवाजे": 7515,
      "▁रेंजर": 7516,
      "▁खटखटाया": 7517,
      "▁तेंदुए": 7518,
      "▁उलट": 7519,
      "संकेत": 7520,
      "आँख": 7521,
      "कोट": 7522,
      "चम्मच": 7523,
      "फर्श": 7524,
      "ब्रा": 7525,
      "लियां": 7526,
      "शूरवीर": 7527,
      "हो": 7528,
      "ॉप्": 7529,
      "▁पन्ना": 7530,
      "▁पंप": 7531,
      "▁जरूरी": 7532,
      "▁रिंग": 7533,
      "▁सांता": 7534,
      "क्चर": 7535,
      "मीना": 7536,
      "▁लगाएगा": 7537,
      "▁वेटर": 7538,
      "▁झोपड़ी": 7539,
      "▁चुनाव": 7540,
      "▁फ़्र": 7541,
      "योना": 7542,
      "▁पहुँचना": 7543,
      "▁जेवर": 7544,
      "▁पढ़ता": 7545,
      "स्थ्य": 7546,
      "▁तोहफों": 7547,
      "▁जुड़ना": 7548,
      "दूध": 7549,
      "▁फैलाना": 7550,
      "▁क्रेयों": 7551,
      "▁चौंका": 7552,
      "▁संगत": 7553,
      "▁डेविड": 7554,
      "मछुआ": 7555,
      "▁जलाने": 7556,
      "▁बिल्लियाँ": 7557,
      "▁रचनात्मकता": 7558,
      "▁दिखीं": 7559,
      "▁कैंपिंग": 7560,
      "▁बक्सों": 7561,
      "▁स्वास्थ्य": 7562,
      "▁राज्य": 7563,
      "मधुमक्ख": 7564,
      "▁सदस्य": 7565,
      "▁कारनामे": 7566,
      "मूर्ख": 7567,
      "▁फ्रॉस्टिंग": 7568,
      "▁क्रिसमस": 7569,
      "आता": 7570,
      "टर्की": 7571,
      "तक": 7572,
      "त्या": 7573,
      "त्री": 7574,
      "पमान": 7575,
      "भकामना": 7576,
      "मक": 7577,
      "शित": 7578,
      "▁स्रो": 7579,
      "▁बचना": 7580,
      "▁अली": 7581,
      "▁ग्रामी": 7582,
      "▁कोना": 7583,
      "तीनों": 7584,
      "▁फटा": 7585,
      "सेना": 7586,
      "▁इसी": 7587,
      "रेस": 7588,
      "▁सीधा": 7589,
      "▁ओली": 7590,
      "▁धार": 7591,
      "▁सोता": 7592,
      "▁नीमू": 7593,
      "▁जगहें": 7594,
      "▁फ़र": 7595,
      "▁तीस": 7596,
      "▁रेफ्रिजरेटर": 7597,
      "▁छोड़ते": 7598,
      "▁चलेगा": 7599,
      "▁मजबूती": 7600,
      "▁भूलेंगे": 7601,
      "लिव": 7602,
      "▁कूड़े": 7603,
      "जुड़": 7604,
      "केकड़ा": 7605,
      "▁नोब": 7606,
      "▁चाहेंगी": 7607,
      "▁किरणों": 7608,
      "▁मिट्टेंस": 7609,
      "▁पढ़ाई": 7610,
      "▁कटवाने": 7611,
      "▁समझदारी": 7612,
      "▁छेड़ना": 7613,
      "▁ट्विग्स": 7614,
      "▁डिलीवर": 7615,
      "पहाड़ी": 7616,
      "▁दानव": 7617,
      "▁निगरानी": 7618,
      "▁बिल्लबोर्ड": 7619,
      "▁परोसा": 7620,
      "त्याशित": 7621,
      "▁स्रोत": 7622,
      "बज़": 7623,
      "रसाइ": 7624,
      "हत": 7625,
      "ृदु": 7626,
      "▁माह": 7627,
      "▁सेक": 7628,
      "रान": 7629,
      "ज़ूम": 7630,
      "वाल": 7631,
      "▁जायंट": 7632,
      "कास": 7633,
      "▁पाठ": 7634,
      "▁टनल": 7635,
      "▁श्र": 7636,
      "ैंसी": 7637,
      "चाकू": 7638,
      "▁व्रूम": 7639,
      "▁बाहरी": 7640,
      "▁मात्रा": 7641,
      "▁बेस": 7642,
      "▁यार्न": 7643,
      "▁निगल": 7644,
      "▁चिंगारी": 7645,
      "▁ठहर": 7646,
      "▁जेम्स": 7647,
      "▁समझना": 7648,
      "कृत": 7649,
      "▁फेंकती": 7650,
      "▁कैन": 7651,
      "लिख": 7652,
      "▁मारकर": 7653,
      "▁मोज़े": 7654,
      "▁कागज़ों": 7655,
      "गुफा": 7656,
      "▁पंजा": 7657,
      "▁दुर्भाग्य": 7658,
      "▁गुज़रने": 7659,
      "▁प्लास्टर": 7660,
      "ग्रह": 7661,
      "▁सवालों": 7662,
      "▁मोमबत्तियों": 7663,
      "रररररररररररररररररररररररररररररररररररररररररररररररररररररररररररररररररररररररररररररररररररररररररररररररररररररररररररररररररररररररररररररररर": 7664,
      "▁अप्रत्याशित": 7665,
      "▁फ्लेवर": 7666,
      "एन": 7667,
      "कैसा": 7668,
      "खत्म": 7669,
      "टकी": 7670,
      "तनों": 7671,
      "मॉ": 7672,
      "▁सड़": 7673,
      "▁मृदु": 7674,
      "▁जंग": 7675,
      "▁काटी": 7676,
      "▁भीगे": 7677,
      "कुर्सी": 7678,
      "▁वेटनरी": 7679,
      "ल्फ़": 7680,
      "पांडा": 7681,
      "▁क्व": 7682,
      "▁गाजरों": 7683,
      "▁ढे": 7684,
      "▁चलाती": 7685,
      "▁लीक": 7686,
      "▁बीन्स": 7687,
      "▁रोमांचों": 7688,
      "▁तालाबों": 7689,
      "▁स्प्र": 7690,
      "भागो": 7691,
      "▁दौड़ीं": 7692,
      "▁तोड़ते": 7693,
      "▁थककर": 7694,
      "▁पतले": 7695,
      "▁समस्याओं": 7696,
      "त्रिकोण": 7697,
      "धाई": 7698,
      "▁फेरा": 7699,
      "▁देंगी": 7700,
      "भूरे": 7701,
      "▁फड़फड़ाते": 7702,
      "▁रूबी": 7703,
      "जितनी": 7704,
      "ंजीर": 7705,
      "▁बुद्धिमानी": 7706,
      "▁ट्रैक्टर": 7707,
      "जहाज": 7708,
      "▁स्पैगेटी": 7709,
      "उंड": 7710,
      "जाल": 7711,
      "बिल्": 7712,
      "मत्ता": 7713,
      "यत": 7714,
      "लॉग": 7715,
      "▁कस": 7716,
      "▁पॉकेट": 7717,
      "▁जरूर": 7718,
      "स्के": 7719,
      "▁आपात": 7720,
      "▁फँ": 7721,
      "▁फूं": 7722,
      "▁स्कोर": 7723,
      "▁बाथ": 7724,
      "▁वेव": 7725,
      "▁कोशिशों": 7726,
      "माण": 7727,
      "▁प्रिय": 7728,
      "विटी": 7729,
      "▁खासकर": 7730,
      "प्प": 7731,
      "▁बजाकर": 7732,
      "▁फ़्लैश": 7733,
      "▁रेगिस्तान": 7734,
      "▁मनाते": 7735,
      "▁क्रै": 7736,
      "▁उतरी": 7737,
      "▁मांगनी": 7738,
      "▁जरूरतमंद": 7739,
      "▁जागता": 7740,
      "▁मेलोन": 7741,
      "▁चुराया": 7742,
      "▁लुढ़": 7743,
      "जूते": 7744,
      "▁ट्रीट्स": 7745,
      "▁जलता": 7746,
      "▁चालें": 7747,
      "▁खरीदीं": 7748,
      "▁दुर्घटनाएँ": 7749,
      "▁टाइम": 7750,
      "बंदूक": 7751,
      "▁व्हिप": 7752,
      "व्हूम": 7753,
      "मुस्कुराते": 7754,
      "ैबिट": 7755,
      "▁मुर्गियाँ": 7756,
      "▁टहनियाँ": 7757,
      "▁बॉसी": 7758,
      "▁अनिच्छा": 7759,
      "▁सेलिब्रेट": 7760,
      "आराम": 7761,
      "उंट": 7762,
      "कर्ता": 7763,
      "चिक": 7764,
      "चट्ट": 7765,
      "तारों": 7766,
      "थपथ": 7767,
      "रसी": 7768,
      "शिष्ट": 7769,
      "हनी": 7770,
      "▁लथपथ": 7771,
      "▁गूँ": 7772,
      "▁नेवी": 7773,
      "लाइ": 7774,
      "▁परोस": 7775,
      "▁दोगे": 7776,
      "▁घूं": 7777,
      "▁घेर": 7778,
      "ैंबर": 7779,
      "▁रोई": 7780,
      "जाज़": 7781,
      "▁क्वाक": 7782,
      "▁सबवे": 7783,
      "▁मेला": 7784,
      "▁चमड़े": 7785,
      "▁तापमान": 7786,
      "▁कार्र": 7787,
      "▁प्रदान": 7788,
      "श्यों": 7789,
      "▁ऐबी": 7790,
      "▁चाही": 7791,
      "▁हरकत": 7792,
      "▁सुनाया": 7793,
      "चीं": 7794,
      "▁सिपाही": 7795,
      "▁जेस": 7796,
      "▁डॉलर": 7797,
      "▁कैद": 7798,
      "▁रूमाल": 7799,
      "▁ऑन": 7800,
      "▁पड़ीं": 7801,
      "▁उतारी": 7802,
      "▁फैलाने": 7803,
      "▁दबाते": 7804,
      "▁जोड़ते": 7805,
      "▁मांगता": 7806,
      "▁मिठाइयों": 7807,
      "▁जहाजों": 7808,
      "▁कॉन्": 7809,
      "▁बांधना": 7810,
      "▁मोड़ने": 7811,
      "किताबों": 7812,
      "ृत्यु": 7813,
      "▁हटाने": 7814,
      "▁हटाया": 7815,
      "▁फूली": 7816,
      "कैटी": 7817,
      "▁लचीले": 7818,
      "▁कविताएँ": 7819,
      "▁दोहराया": 7820,
      "झूले": 7821,
      "▁कोयले": 7822,
      "माइकी": 7823,
      "▁पदार्थों": 7824,
      "▁बांटना": 7825,
      "पौधे": 7826,
      "▁वर्दी": 7827,
      "▁मेहमान": 7828,
      "▁क्वैक": 7829,
      "ंकि": 7830,
      "आलसी": 7831,
      "इंजन": 7832,
      "तृ": 7833,
      "निला": 7834,
      "बलों": 7835,
      "वस्त": 7836,
      "वैसे": 7837,
      "शट्रे": 7838,
      "हँ": 7839,
      "▁लूंगी": 7840,
      "▁गानों": 7841,
      "▁रैक": 7842,
      "▁बहनें": 7843,
      "लांकि": 7844,
      "ंद्र": 7845,
      "▁टाँग": 7846,
      "्याऊँ": 7847,
      "ैंच": 7848,
      "▁डैनी": 7849,
      "टिक": 7850,
      "!\",": 7851,
      "▁खोलो": 7852,
      "?\"\n": 7853,
      "▁दौड़ें": 7854,
      "▁प्रस्ता": 7855,
      "▁ढका": 7856,
      "▁खोजता": 7857,
      "▁बैठो": 7858,
      "यरिंग": 7859,
      "जेक्ट": 7860,
      "▁बीवर": 7861,
      "▁जेमी": 7862,
      "मैट": 7863,
      "▁रंगीनियों": 7864,
      "▁भूलने": 7865,
      "▁मानो": 7866,
      "▁मीटिंग": 7867,
      "लिज़ा": 7868,
      "▁भेजना": 7869,
      "▁आश्वस्त": 7870,
      "▁पत्तियां": 7871,
      "▁कराते": 7872,
      "▁घोष": 7873,
      "▁दबाना": 7874,
      "▁दृश्यों": 7875,
      "▁पहनीं": 7876,
      "▁उठते": 7877,
      "रियन": 7878,
      "▁बिखरा": 7879,
      "▁पहुंचने": 7880,
      "▁इनसे": 7881,
      "▁नजरअंदा": 7882,
      "▁पोंछने": 7883,
      "▁नमकीन": 7884,
      "▁बाँटने": 7885,
      "▁चिड़चिड़े": 7886,
      "▁प्रतिस्पर्धा": 7887,
      "▁निभाना": 7888,
      "▁पुस्तकें": 7889,
      "▁परिणामों": 7890,
      "▁फुसफुसाया": 7891,
      "हँसते": 7892,
      "क्लाउन": 7893,
      "▁बिल्डबोर्ड": 7894,
      "▁व्हील": 7895,
      "▁प्रस्ताव": 7896,
      "\"।": 7897,
      "कार्ड": 7898,
      "घंटी": 7899,
      "बंध": 7900,
      "लर": 7901,
      "▁सनी": 7902,
      "▁बज़": 7903,
      "▁बैंक": 7904,
      "▁मृत्यु": 7905,
      "▁अशिष्ट": 7906,
      "▁सागर": 7907,
      "▁माँगो": 7908,
      "▁टिश": 7909,
      "▁डेन": 7910,
      "▁डैन": 7911,
      "▁पहेल": 7912,
      "▁वॉश": 7913,
      "मुख": 7914,
      "झाड़ी": 7915,
      "▁गाड़ियाँ": 7916,
      "▁सुनहरे": 7917,
      "कोहरा": 7918,
      "बेटे": 7919,
      "▁चढ़ें": 7920,
      "▁मिलाते": 7921,
      "सोने": 7922,
      "ंधा": 7923,
      "▁बर्तनों": 7924,
      "दुनिया": 7925,
      "लूना": 7926,
      "मैकेनिक": 7927,
      "▁झूलता": 7928,
      "▁सिखाता": 7929,
      "▁बढ़ाने": 7930,
      "▁हंसाया": 7931,
      "▁एक्सरसाइ": 7932,
      "▁खोदने": 7933,
      "▁खोदकर": 7934,
      "▁जलाई": 7935,
      "▁उछलती": 7936,
      "तैर": 7937,
      "▁काँटा": 7938,
      "▁बजने": 7939,
      "▁सहला": 7940,
      "▁ट्वीट": 7941,
      "▁फ्रीज": 7942,
      "▁उछाला": 7943,
      "▁झोंके": 7944,
      "▁गुज़रे": 7945,
      "▁व्याख": 7946,
      "ब्रश": 7947,
      "पेंगुइन": 7948,
      "ंजेक्शन": 7949,
      "▁सुहावने": 7950,
      "▁टिशू": 7951,
      "इतनी": 7952,
      "चारी": 7953,
      "जेल": 7954,
      "जूर": 7955,
      "तारा": 7956,
      "ैरी": 7957,
      "▁कॉट": 7958,
      "▁बौ": 7959,
      "यात्रा": 7960,
      "▁लैब": 7961,
      "▁गिलहरी": 7962,
      "▁कर्म": 7963,
      "▁नेतृ": 7964,
      "▁नृत्यांगना": 7965,
      "▁त्या": 7966,
      "▁फूँ": 7967,
      "ुमाल": 7968,
      "▁छिल": 7969,
      "▁भीगा": 7970,
      "▁लगाएँ": 7971,
      "टिविटी": 7972,
      "चेरी": 7973,
      "इसी": 7974,
      "▁मामी": 7975,
      "▁सोया": 7976,
      "मुर्ग": 7977,
      "▁रखूँगी": 7978,
      "▁रखवाले": 7979,
      "▁अलमार": 7980,
      "बेट्टी": 7981,
      "▁सावधानीपूर्वक": 7982,
      "▁फ़िल्में": 7983,
      "▁सफर": 7984,
      "▁गिराने": 7985,
      "▁कौआ": 7986,
      "▁मालिकों": 7987,
      "सबको": 7988,
      "्यूक": 7989,
      "▁दबाए": 7990,
      "▁पड़ेगा": 7991,
      "▁रिदम": 7992,
      "▁मिठाइयाँ": 7993,
      "▁चूमते": 7994,
      "▁हेल्": 7995,
      "युक्त": 7996,
      "▁संभालना": 7997,
      "▁पिघला": 7998,
      "▁बेवकूफी": 7999,
      "▁लुटेरों": 8000,
      "▁ट्विस्ट": 8001,
      "▁पन्नों": 8002,
      "लोमड़े": 8003,
      "▁धुंधला": 8004,
      "मधुमक्खी": 8005,
      "जहाज़": 8006,
      "▁क्रीमी": 8007,
      "आआआआआआआआआआआआआआआआआआआआआआआआआआआआआआआआआआआआआआआआआआआआआआआआआआआआआआआआआआआआआआआआआआआआआआआआआआआआआआआआआआआआआआआआआआआआआआआआआआआआआआआआआआआआआआआआआआआआआआआआआआआआआआआआ": 8008,
      "▁वैसी": 8009,
      "▁ढीला": 8010,
      "प्रतिदिन": 8011,
      "▁ढेरों": 8012,
      "उंटेन": 8013,
      "▁नेतृत्व": 8014,
      "▁त्याग": 8015,
      "कून": 8016,
      "जल्स": 8017,
      "तित": 8018,
      "प्रिय": 8019,
      "बतख": 8020,
      "मम्म": 8021,
      "मक्खी": 8022,
      "समी": 8023,
      "▁रुमाल": 8024,
      "▁नेता": 8025,
      "▁नु": 8026,
      "▁आंधी": 8027,
      "▁बहने": 8028,
      "▁होज़": 8029,
      "लाला": 8030,
      "ज़ि": 8031,
      "▁खाएगा": 8032,
      "▁बनानी": 8033,
      "▁बैज": 8034,
      "ैकर्स": 8035,
      "▁ट्रू": 8036,
      "▁मिचौ": 8037,
      "▁ढूंढती": 8038,
      "जिराफ": 8039,
      "अगला": 8040,
      "▁परेशानियों": 8041,
      "▁मानचित्र": 8042,
      "▁पिच": 8043,
      "▁मालकिन": 8044,
      "ार्था": 8045,
      "बरद": 8046,
      "▁गलतियों": 8047,
      "▁फैलाई": 8048,
      "▁छाप": 8049,
      "▁रिवर्स": 8050,
      "डॉल्स": 8051,
      "▁रत्नों": 8052,
      "▁पैनकेक": 8053,
      "▁पोखरी": 8054,
      "▁लुटेरा": 8055,
      "▁घिनौनी": 8056,
      "बर्तन": 8057,
      "▁सामग्रियाँ": 8058,
      "▁न्यायाधीश": 8059,
      "▁गिफ्ट्स": 8060,
      "▁प्रतीक": 8061,
      "▁बर्फीली": 8062,
      "फ्लॉपी": 8063,
      "झूलों": 8064,
      "▁देवदूत": 8065,
      "▁डूबा": 8066,
      "▁डाँटा": 8067,
      "▁फ़्रॉक": 8068,
      "ंबर": 8069,
      "एल": 8070,
      "जूस": 8071,
      "डु": 8072,
      "तेंद": 8073,
      "बैंड": 8074,
      "हॉप": 8075,
      "▁हेनरी": 8076,
      "▁बंकर": 8077,
      "▁मशी": 8078,
      "▁लॉन्": 8079,
      "▁चैंबर": 8080,
      "▁नेक्टर": 8081,
      "▁आकृति": 8082,
      "▁छुट": 8083,
      "मीठा": 8084,
      "गाना": 8085,
      "▁इंजेक्शन": 8086,
      "▁घूर": 8087,
      "▁लड़े": 8088,
      "टिस्ट": 8089,
      "▁सीपा": 8090,
      "चांद": 8091,
      "▁कहें": 8092,
      "▁वृ": 8093,
      "▁प्यासी": 8094,
      "▁पीता": 8095,
      "▁ज़रूर": 8096,
      "▁ज़बरद": 8097,
      "▁खोजे": 8098,
      "▁बताए": 8099,
      "बेवकू": 8100,
      "द्दे": 8101,
      "▁बढ़कर": 8102,
      "▁रात्रि": 8103,
      "▁पढ़ीं": 8104,
      "▁दिलों": 8105,
      "▁डॉगी": 8106,
      "सरप्राइ": 8107,
      "▁हिलती": 8108,
      "▁दबाता": 8109,
      "हैरान": 8110,
      "▁मार्ग": 8111,
      "फ्त": 8112,
      "मच्छर": 8113,
      "▁चुराना": 8114,
      "▁क्षणों": 8115,
      "▁डालीं": 8116,
      "▁प्लेन": 8117,
      "▁हालत": 8118,
      "घूमकर": 8119,
      "▁हथौड़े": 8120,
      "चलकर": 8121,
      "▁मछुआरा": 8122,
      "▁खज़ाना": 8123,
      "▁सहानु": 8124,
      "▁माहौल": 8125,
      "▁छुटकारा": 8126,
      "ंव": 8127,
      "खिला": 8128,
      "ट्यूटर": 8129,
      "तारे": 8130,
      "तिलच": 8131,
      "मज़ा": 8132,
      "लॉ": 8133,
      "सत": 8134,
      "संग": 8135,
      "हंसे": 8136,
      "▁कच्": 8137,
      "▁दूँगी": 8138,
      "यार्ड": 8139,
      "▁अंजीर": 8140,
      "▁तकियों": 8141,
      "▁जागे": 8142,
      "▁पाओगे": 8143,
      "▁छह": 8144,
      "▁छवि": 8145,
      "▁छोड़ी": 8146,
      "▁शिष्ट": 8147,
      "▁लड़कियों": 8148,
      "गेट": 8149,
      "▁मिलनी": 8150,
      "▁कामया": 8151,
      "▁एशट्रे": 8152,
      "विक्रेता": 8153,
      "▁स्टूल": 8154,
      "सोच": 8155,
      "सोफिया": 8156,
      "▁बर्ड": 8157,
      "▁मैन": 8158,
      "बुरे": 8159,
      "▁पड़ना": 8160,
      "▁सिखाए": 8161,
      "▁गिनते": 8162,
      "▁जेबों": 8163,
      "▁सैंडबॉक्स": 8164,
      "▁मचाती": 8165,
      "स्थिति": 8166,
      "▁घंटे": 8167,
      "▁खोदते": 8168,
      "▁थैली": 8169,
      "▁हटकर": 8170,
      "▁जलती": 8171,
      "पत्ति": 8172,
      "शियर": 8173,
      "पिप्पा": 8174,
      "कैक्टस": 8175,
      "▁फ्रंट": 8176,
      "जैसी": 8177,
      "▁भटकता": 8178,
      "बक्सा": 8179,
      "▁झपकाई": 8180,
      "▁हफ़्ते": 8181,
      "▁होंठों": 8182,
      "श्श्श्श्श्श्श्श्श्श्श्श्श्श्श्श्श्श्श्श्श्श्श्श्श्श्श्श्श्श्श्श्श्श्श्श्श्श्श्श्श्श्श्श्श्श्श्श्श्श्श्श्श्श्श्श्श्श्श्श्श्श्श्श्श्श्श्श्श्श्श्श्श्श्श्श्श्श्श्श्श्श्श्श्श्श्श्श्श्श्श्श्श्श्श्श्श्श्श्श्श्श्श्श्श्श्श्श्श्श्श्श्श्श्श्श्श्श्श्श्श्श्श्श्श्श्श्श्": 8183,
      "छिपाने": 8184,
      "▁तरबूज": 8185,
      "शून्य": 8186,
      "▁कार्रवाई": 8187,
      "▁बौछ": 8188,
      "डल्स": 8189,
      "नै": 8190,
      "नक्": 8191,
      "बियाँ": 8192,
      "वैन": 8193,
      "शर्ट": 8194,
      "सैंड": 8195,
      "▁बिल्ला": 8196,
      "▁मही": 8197,
      "▁म्याऊँ": 8198,
      "▁दाल": 8199,
      "लेना": 8200,
      "▁देरी": 8201,
      "▁फो": 8202,
      "▁छक्के": 8203,
      "▁घिर": 8204,
      "ैंकी": 8205,
      "▁बाड़े": 8206,
      "▁सीटों": 8207,
      "ार्ट": 8208,
      "साफ": 8209,
      "दारी": 8210,
      "▁नामो": 8211,
      "▁माएँ": 8212,
      "▁हास्य": 8213,
      "▁बेर": 8214,
      "▁बेट्टी": 8215,
      "▁बेकरी": 8216,
      "▁बुधवार": 8217,
      "▁बोल्ट": 8218,
      "▁मिलवाया": 8219,
      "जोयी": 8220,
      "▁निगाह": 8221,
      "▁ऐन्ना": 8222,
      "▁जीते": 8223,
      "▁भरमार": 8224,
      "ंखला": 8225,
      "योद्धा": 8226,
      "▁टूल्स": 8227,
      "▁डालें": 8228,
      "▁संपत्ति": 8229,
      "▁जुड़वा": 8230,
      "▁निर्माण": 8231,
      "▁जिन्होंने": 8232,
      "▁चादरें": 8233,
      "▁गंजा": 8234,
      "▁बढ़ाते": 8235,
      "▁हंसाना": 8236,
      "▁उतरकर": 8237,
      "▁छिड़कने": 8238,
      "▁नौसेना": 8239,
      "▁परिदृश्य": 8240,
      "▁कबूतरों": 8241,
      "कहता": 8242,
      "▁संख्याएँ": 8243,
      "▁छल्ला": 8244,
      "▁हड्डियाँ": 8245,
      "▁गुब्बारा": 8246,
      "शांति": 8247,
      "▁ग्रोसरीज़": 8248,
      "▁फिलहाल": 8249,
      "चॉकलेट": 8250,
      "▁संभाला": 8251,
      "ॉप्सी": 8252,
      "गोरिल्ला": 8253,
      "डेन": 8254,
      "पिक": 8255,
      "पैन": 8256,
      "भारी": 8257,
      "रसोई": 8258,
      "वू": 8259,
      "ुष": 8260,
      "ोगी": 8261,
      "▁सियार": 8262,
      "▁बंधा": 8263,
      "▁जौ": 8264,
      "▁रैंच": 8265,
      "▁आहत": 8266,
      "कानों": 8267,
      "▁बाएं": 8268,
      "ार्की": 8269,
      "किचन": 8270,
      "।\"\n": 8271,
      "▁रखनी": 8272,
      "▁गुफ़ा": 8273,
      "जीप": 8274,
      "▁खोजकर्ता": 8275,
      "द्द": 8276,
      "▁रेमी": 8277,
      "▁ढूंढें": 8278,
      "▁ढूंढता": 8279,
      "▁पहुँचाता": 8280,
      "▁काटती": 8281,
      "मैदान": 8282,
      "▁छूट": 8283,
      "▁छूता": 8284,
      "▁शर्म": 8285,
      "▁मनाई": 8286,
      "▁सड़कों": 8287,
      "स्कार्फ": 8288,
      "बादलों": 8289,
      "▁फैलाकर": 8290,
      "▁दबाने": 8291,
      "▁दबाती": 8292,
      "पोली": 8293,
      "▁पेंटिंग्स": 8294,
      "▁रगड़ने": 8295,
      "▁कांपते": 8296,
      "दुर्घटना": 8297,
      "▁फ्लेक्स": 8298,
      "▁मिट्टन्स": 8299,
      "▁तुझे": 8300,
      "▁कड़वी": 8301,
      "▁निभाया": 8302,
      "चिल्लाते": 8303,
      "▁बुद्धिमत्ता": 8304,
      "स्पाइडर": 8305,
      "▁ब्लाउज़": 8306,
      "▁गूंज": 8307,
      "▁थपथपाया": 8308,
      "▁नेटवर्क": 8309,
      "▁शुभकामना": 8310,
      "मॉन्स्टर": 8311,
      "▁आपातकालीन": 8312,
      "▁बाथटब": 8313,
      "▁नजरअंदाज": 8314,
      "▁ज़बरदस्त": 8315,
      "▁बौछार": 8316,
      "कथा": 8317,
      "गम": 8318,
      "चले": 8319,
      "धि": 8320,
      "नर": 8321,
      "नोट": 8322,
      "विर": 8323,
      "हू": 8324,
      "▁कतार": 8325,
      "नेलो": 8326,
      "▁समी": 8327,
      "▁बची": 8328,
      "▁पजल्स": 8329,
      "▁थॉमस": 8330,
      "▁दूँगा": 8331,
      "▁एकत्र": 8332,
      "▁गली": 8333,
      "▁नेक": 8334,
      "हांत": 8335,
      "ुतिया": 8336,
      "राश": 8337,
      "राचेल": 8338,
      "▁स्क्वी": 8339,
      "▁स्काई": 8340,
      "▁ड्रे": 8341,
      "▁डस्ट": 8342,
      "▁वेनिला": 8343,
      "▁धमा": 8344,
      "म्बर": 8345,
      "▁नीचा": 8346,
      "▁दिखाएगा": 8347,
      "▁दिखाऊंगा": 8348,
      "▁सुनहरा": 8349,
      "▁छिटक": 8350,
      "▁फ़्ल": 8351,
      "▁कपों": 8352,
      "▁करीबी": 8353,
      "▁पूछें": 8354,
      "▁बर्गर": 8355,
      "▁मैथ": 8356,
      "▁स्पंज": 8357,
      "▁संवे": 8358,
      "▁जुलूस": 8359,
      "टोप": 8360,
      "▁टकराई": 8361,
      "▁टकराया": 8362,
      "▁स्नोबॉल": 8363,
      "बिजली": 8364,
      "मछलियाँ": 8365,
      "▁इमारतें": 8366,
      "▁रसीली": 8367,
      "डाकिया": 8368,
      "▁प्लेयर": 8369,
      "▁घुंघराले": 8370,
      "▁बीतता": 8371,
      "▁योग्य": 8372,
      "▁स्टाफ": 8373,
      "▁जिम्मेदारी": 8374,
      "▁सदस्": 8375,
      "फियोना": 8376,
      "▁गुलदस्ता": 8377,
      "▁आवश्यकता": 8378,
      "▁सेकंड": 8379,
      "सरप्राइज़": 8380,
      "▁सहानुभूति": 8381,
      "नैतिक": 8382,
      "ंकु": 8383,
      "अरे": 8384,
      "इन्हें": 8385,
      "एबी": 8386,
      "कनी": 8387,
      "खने": 8388,
      "घा": 8389,
      "घड़ी": 8390,
      "चाँद": 8391,
      "धनुष": 8392,
      "नहा": 8393,
      "पेंट": 8394,
      "परेड": 8395,
      "पंछी": 8396,
      "मज़": 8397,
      "मक्खन": 8398,
      "लय": 8399,
      "▁बोट": 8400,
      "▁मस्त": 8401,
      "▁पसी": 8402,
      "नाक": 8403,
      "▁खदान": 8404,
      "▁गुम": 8405,
      "स्नान": 8406,
      "▁साकार": 8407,
      "रेचेल": 8408,
      "र्यों": 8409,
      "▁घना": 8410,
      "▁वाइन": 8411,
      "!\"\n": 8412,
      "सात": 8413,
      "▁जोक्स": 8414,
      "▁सोती": 8415,
      "▁बेथ": 8416,
      "▁बेकर": 8417,
      "वरना": 8418,
      "बानी": 8419,
      "▁डराया": 8420,
      "त्रालय": 8421,
      "▁स्पार्क": 8422,
      "▁छूती": 8423,
      "▁बिताकर": 8424,
      "्रिच": 8425,
      "▁उपहार": 8426,
      "▁गेम्स": 8427,
      "▁बदलते": 8428,
      "▁बेचते": 8429,
      "▁स्वीट": 8430,
      "▁कलर": 8431,
      "▁ग्राह": 8432,
      "▁गुज़रता": 8433,
      "▁बिखरी": 8434,
      "▁छिड़कते": 8435,
      "पहला": 8436,
      "▁उदारता": 8437,
      "युवा": 8438,
      "फुल": 8439,
      "▁पंखुड़ी": 8440,
      "▁दफनाने": 8441,
      "▁इलाके": 8442,
      "▁पृष्ठ": 8443,
      "▁पार्टियों": 8444,
      "▁मछुआरे": 8445,
      "लहरें": 8446,
      "▁तरोताजा": 8447,
      "तुम्हागा": 8448,
      "▁घूंट": 8449,
      "▁अलमारियों": 8450,
      "आगे": 8451,
      "कद्दू": 8452,
      "फै": 8453,
      "मोटी": 8454,
      "वश": 8455,
      "वेंडी": 8456,
      "सौ": 8457,
      "▁बधाई": 8458,
      "▁पॉ": 8459,
      "▁अंडर": 8460,
      "▁रूलर": 8461,
      "▁चारा": 8462,
      "▁बहरे": 8463,
      "केली": 8464,
      "▁छाल": 8465,
      "▁इंग": 8466,
      "▁घि": 8467,
      "▁डोर": 8468,
      "ित्व": 8469,
      "▁बाय": 8470,
      "▁लेख": 8471,
      "▁मास्टर": 8472,
      "माया": 8473,
      "▁यात्री": 8474,
      "▁भाले": 8475,
      "▁तैरे": 8476,
      "▁एंड": 8477,
      "बाकी": 8478,
      "कोच": 8479,
      "लड़ना": 8480,
      "▁गिरना": 8481,
      "स्पे": 8482,
      "▁फ़्": 8483,
      "▁मिटा": 8484,
      "योजना": 8485,
      "▁आनंदित": 8486,
      "▁पोत": 8487,
      "▁छिपाया": 8488,
      "▁रसोईघर": 8489,
      "▁झाड़": 8490,
      "▁आश्चर्यों": 8491,
      "▁लाइट्स": 8492,
      "डेवी": 8493,
      "पोलिन": 8494,
      "▁चौड़े": 8495,
      "डॉगी": 8496,
      "▁गुज़रती": 8497,
      "▁हेलो": 8498,
      "▁फेफ": 8499,
      "▁बोलती": 8500,
      "▁उतरते": 8501,
      "▁रिकॉर्डिंग": 8502,
      "जूडी": 8503,
      "िंकल्स": 8504,
      "युक्ख": 8505,
      "▁झुकी": 8506,
      "▁भटकना": 8507,
      "▁दुर्घटनाग्रस्त": 8508,
      "▁चिड़चिड़ी": 8509,
      "▁सुनेंगे": 8510,
      "िसाव": 8511,
      "▁स्टिकर्स": 8512,
      "▁सप्ताहांत": 8513,
      "▁किरणें": 8514,
      "फूला": 8515,
      "▁पिछले": 8516,
      "▁हिचकिचाया": 8517,
      "▁लूना": 8518,
      "पाइप": 8519,
      "▁प्रयोगशाला": 8520,
      "▁वॉशिंग": 8521,
      "▁सदस्यों": 8522,
      ">\n": 8523,
      "आह": 8524,
      "इली": 8525,
      "रस्सी": 8526,
      "िज": 8527,
      "ृति": 8528,
      "नाश्": 8529,
      "▁\"\n\n": 8530,
      "वेल्स": 8531,
      "▁चाहने": 8532,
      "▁मुड़ा": 8533,
      "▁नाइ": 8534,
      "▁जोरों": 8535,
      "▁वज़न": 8536,
      "▁माम": 8537,
      "▁सोचे": 8538,
      "सीढ़ी": 8539,
      "▁रखूंगी": 8540,
      "▁गुड़": 8541,
      "▁पीड़ा": 8542,
      "टीम": 8543,
      "टीवी": 8544,
      "▁टिप": 8545,
      "लोए": 8546,
      "वीन": 8547,
      "मेड": 8548,
      "▁सोचें": 8549,
      "जेन्ना": 8550,
      "▁चिड़ियाँ": 8551,
      "▁बदस्वाद": 8552,
      "▁स्नग्ग": 8553,
      "▁खरीदते": 8554,
      "बुआ": 8555,
      "▁कौए": 8556,
      "▁कौवे": 8557,
      "▁जुड़ने": 8558,
      "सुना": 8559,
      "सुनो": 8560,
      "▁रुला": 8561,
      "▁भौंककर": 8562,
      "▁जिनका": 8563,
      "▁टकराती": 8564,
      "▁जोड़कर": 8565,
      "▁लहराता": 8566,
      "▁फायरफा": 8567,
      "▁स्वतंत्रता": 8568,
      "▁सफलतापूर्वक": 8569,
      "▁धीमे": 8570,
      "▁भावनाएँ": 8571,
      "▁स्ट्रिंग्स": 8572,
      "▁फड़फड़ाता": 8573,
      "▁चिपचिपे": 8574,
      "▁सनस्क्रीन": 8575,
      "▁ज़िपर": 8576,
      "▁अवत": 8577,
      "▁फ्लॉपी": 8578,
      "▁गालों": 8579,
      "▁क्लॉ": 8580,
      "▁प्रतीत": 8581,
      "▁बूंदों": 8582,
      "▁चौकस": 8583,
      "▁लॉन्ड्री": 8584,
      "▁स्नग्गल्स": 8585,
      "!'": 8586,
      "इटर": 8587,
      "कच": 8588,
      "टेंड": 8589,
      "दस": 8590,
      "निश्चित": 8591,
      "पूल": 8592,
      "फ्री": 8593,
      "लगा": 8594,
      "सूर्": 8595,
      "▁बरा": 8596,
      "▁मटका": 8597,
      "▁पिए": 8598,
      "▁पके": 8599,
      "▁अटक": 8600,
      "▁गैंड": 8601,
      "न्था": 8602,
      "वेन": 8603,
      "वासी": 8604,
      "वाकई": 8605,
      "▁पात्र": 8606,
      "गाजर": 8607,
      "▁डी": 8608,
      "▁रोवर": 8609,
      "▁दुप": 8610,
      "▁फैली": 8611,
      "▁चाबियाँ": 8612,
      "बाज़ार": 8613,
      "बूटियाँ": 8614,
      "▁भूली": 8615,
      "▁सकेगा": 8616,
      "टेप": 8617,
      "▁पूछो": 8618,
      "जियम": 8619,
      "▁पहुँचाएँ": 8620,
      "▁यात्राओं": 8621,
      "▁बिताती": 8622,
      "▁जुड़ी": 8623,
      "▁कार्पेट": 8624,
      "बोतल": 8625,
      "▁सरल": 8626,
      "▁कैंच": 8627,
      "▁मीलों": 8628,
      "▁असं": 8629,
      "▁कंबलों": 8630,
      "▁मौके": 8631,
      "▁रहस्यों": 8632,
      "▁बालकनी": 8633,
      "गुड": 8634,
      "▁दिलाना": 8635,
      "▁सम्मानित": 8636,
      "▁जागने": 8637,
      "प्रिं": 8638,
      "▁स्टीयरिंग": 8639,
      "▁लुलु": 8640,
      "▁सूँघता": 8641,
      "भगवान": 8642,
      "▁चीख़": 8643,
      "▁छींकने": 8644,
      "▁फ्रैंक": 8645,
      "▁ग्रहों": 8646,
      "▁खुशमिजाज़": 8647,
      "▁फ्रीज़र": 8648,
      "▁फ्लोर": 8649,
      "▁रीफ": 8650,
      "▁उगने": 8651,
      "अंधेरे": 8652,
      "भेड़िये": 8653,
      "▁फिगर": 8654,
      "▁आएँगे": 8655,
      "गुस्सैल": 8656,
      "जेसिका": 8657,
      "▁तरंगों": 8658,
      "▁गूँज": 8659,
      "पिकनिक": 8660,
      "▁बराबर": 8661,
      "ंठ": 8662,
      "कना": 8663,
      "जूलिया": 8664,
      "तकी": 8665,
      "दरों": 8666,
      "▁कुतिया": 8667,
      "▁पिला": 8668,
      "औरत": 8669,
      "▁अन्": 8670,
      "▁जहरी": 8671,
      "▁खजूर": 8672,
      "▁गह": 8673,
      "▁रिसाव": 8674,
      "ज़बरा": 8675,
      "वाही": 8676,
      "▁पहचा": 8677,
      "▁रोड": 8678,
      "▁बनाओ": 8679,
      "शाखा": 8680,
      "▁रखूंगा": 8681,
      "जोजो": 8682,
      "▁ढकी": 8683,
      "▁चादरों": 8684,
      "▁अनजाने": 8685,
      "▁विवाद": 8686,
      "▁फ़र्": 8687,
      "▁फ़री": 8688,
      "▁डराता": 8689,
      "▁रुकती": 8690,
      "▁चिड़ियाघर": 8691,
      "▁यात्राएँ": 8692,
      "▁पेंटर": 8693,
      "▁बिताता": 8694,
      "▁टीला": 8695,
      "▁हँसना": 8696,
      "▁मीट": 8697,
      "▁बुलाना": 8698,
      "रोवर": 8699,
      "▁मोल": 8700,
      "सूरजमुखी": 8701,
      "एंकर": 8702,
      "▁बोतलें": 8703,
      "पोशाक": 8704,
      "खेलना": 8705,
      "ैंपू": 8706,
      "▁आवाजें": 8707,
      "▁छुड़ा": 8708,
      "फ़्तर": 8709,
      "ज़ेबरा": 8710,
      "पूरी": 8711,
      "कहती": 8712,
      "ैम्पोलिन": 8713,
      "▁चिपचिपी": 8714,
      "एडम": 8715,
      "▁गुज़री": 8716,
      "साइमन": 8717,
      "मोटर": 8718,
      "मोटा": 8719,
      "साहब": 8720,
      "▁डॉग्स": 8721,
      "▁बिछाई": 8722,
      "▁सिकुड़ने": 8723,
      "▁एनिमल": 8724,
      "▁बरतेगा": 8725,
      "पत्तियों": 8726,
      "पर्वत": 8727,
      "▁ठहरने": 8728,
      "▁घोषणा": 8729,
      "तेंदुए": 8730,
      "▁घिरा": 8731,
      "उत्साहित": 8732,
      "चला": 8733,
      "छत": 8734,
      "टिल्ली": 8735,
      "टॉप": 8736,
      "बर्ट": 8737,
      "यस्क": 8738,
      "शश": 8739,
      "िपी": 8740,
      "▁हनी": 8741,
      "▁लैंड": 8742,
      "ेंटिस्ट": 8743,
      "▁चिन": 8744,
      "▁नट्स": 8745,
      "िन्न": 8746,
      "स्कृत": 8747,
      "▁बहती": 8748,
      "▁साइड": 8749,
      "▁जासूस": 8750,
      "▁स्मेल": 8751,
      "▁डॉली": 8752,
      "▁सुन्न": 8753,
      "▁मुबार": 8754,
      "▁बाग": 8755,
      "ार्फ़": 8756,
      "साम": 8757,
      "ल्यू": 8758,
      "▁चींटियाँ": 8759,
      "म्म्म": 8760,
      "▁बैक": 8761,
      "ैकबोर्ड": 8762,
      "▁चिंगार": 8763,
      "बाड़": 8764,
      "▁शालीन": 8765,
      "पीली": 8766,
      "▁ट्रैम्पोलिन": 8767,
      "ूबसूरत": 8768,
      "क्रिय": 8769,
      "▁मछलियां": 8770,
      "▁डाइव": 8771,
      "मिक्सर": 8772,
      "▁खरीदारी": 8773,
      "स्ट्रॉ": 8774,
      "▁पोती": 8775,
      "▁बदतर": 8776,
      "▁स्वर्ग": 8777,
      "▁गायन": 8778,
      "▁नाचता": 8779,
      "▁कार्ल": 8780,
      "▁उड़ाता": 8781,
      "लिज़": 8782,
      "प्यारा": 8783,
      "▁टकराकर": 8784,
      "▁पहनाया": 8785,
      "▁मांगती": 8786,
      "▁गुजरने": 8787,
      "▁संकेतों": 8788,
      "▁अनुभवों": 8789,
      "▁हंसाने": 8790,
      "क्रोको": 8791,
      "गेंदें": 8792,
      "▁मज़ाकिया": 8793,
      "▁निकलेगा": 8794,
      "ष्म": 8795,
      "▁रगड़ते": 8796,
      "▁बनेंगे": 8797,
      "बगीचा": 8798,
      "▁मंत्रालय": 8799,
      "चिल्लाया": 8800,
      "▁भूमिगत": 8801,
      "▁मिंट्स": 8802,
      "▁बांटा": 8803,
      "स्वार्थी": 8804,
      "▁आइसिंग": 8805,
      "▁अंदाजा": 8806,
      "▁ग्रीष्म": 8807,
      "▁बूँद": 8808,
      "जुड़वां": 8809,
      "▁स्प्रिंकल्स": 8810,
      "▁फ़्लैशलाइट": 8811,
      "दुर्घटनाएँ": 8812,
      "▁असंभव": 8813,
      "▁चिन्ह": 8814,
      "▁मुबारक": 8815,
      "ंकी": 8816,
      "अस": 8817,
      "अरों": 8818,
      "दियों": 8819,
      "बॉय": 8820,
      "मिन": 8821,
      "रस": 8822,
      "रती": 8823,
      "लग": 8824,
      "वैसा": 8825,
      "हंसी": 8826,
      "ियम": 8827,
      "ूनों": 8828,
      "▁कसा": 8829,
      "▁ब्": 8830,
      "▁पुत": 8831,
      "▁दफ़्तर": 8832,
      "▁जड़ों": 8833,
      "ारिश": 8834,
      "▁गये": 8835,
      "रास्ता": 8836,
      "टिड्डी": 8837,
      "क्षर": 8838,
      "किप": 8839,
      "▁दुष्ट": 8840,
      "माना": 8841,
      "▁टिड्डे": 8842,
      "▁प्रि": 8843,
      "▁निकट": 8844,
      "▁तैरी": 8845,
      "बीज": 8846,
      "बीन": 8847,
      "▁लोगे": 8848,
      "▁लाएगा": 8849,
      "बेका": 8850,
      "▁लिज़्ज़ी": 8851,
      "ट्वि": 8852,
      "दोस्ताना": 8853,
      "▁जेसी": 8854,
      "कृतियों": 8855,
      "बुरी": 8856,
      "▁जूली": 8857,
      "▁मीना": 8858,
      "लिंडा": 8859,
      "▁मोड़ा": 8860,
      "▁क्रैकर्स": 8861,
      "▁जीवों": 8862,
      "फ्तार": 8863,
      "प्रदान": 8864,
      "▁बोलते": 8865,
      "▁फुलाया": 8866,
      "▁छुओ": 8867,
      "▁बांधा": 8868,
      "▁लापरवाही": 8869,
      "बैठ": 8870,
      "बैल": 8871,
      "▁उतारकर": 8872,
      "▁पोंछना": 8873,
      "परीक्षा": 8874,
      "...\"": 8875,
      "चालक": 8876,
      "▁दफनाया": 8877,
      "▁आज़ादी": 8878,
      "▁चिढ़ाने": 8879,
      "▁पत्रों": 8880,
      "▁गुब्बारे": 8881,
      "स्टेला": 8882,
      "▁ज़ोई": 8883,
      "सुनिश्चित": 8884,
      "▁म्यूजिक": 8885,
      "डरावना": 8886,
      "▁बर्फ़ीले": 8887,
      "▁नाखून": 8888,
      "मनेड": 8889,
      "▁वाहन": 8890,
      "मिट्टेंस": 8891,
      "▁चश्मा": 8892,
      "▁श्रंखला": 8893,
      "चट्टान": 8894,
      "फैक्ट्री": 8895,
      ",\n\n\"": 8896,
      "एनी": 8897,
      "कैं": 8898,
      "टने": 8899,
      "ड्रेस": 8900,
      "पुर": 8901,
      "हिला": 8902,
      "ैट": 8903,
      "▁कक्ष": 8904,
      "▁सस्ते": 8905,
      "▁बट": 8906,
      "▁मरा": 8907,
      "▁लटके": 8908,
      "▁खर": 8909,
      "▁कोरल": 8910,
      "▁चम्म": 8911,
      "▁किरा": 8912,
      "हाउस": 8913,
      "▁आधे": 8914,
      "▁उचित": 8915,
      "क्वाक": 8916,
      "ज़ू": 8917,
      "▁काश": 8918,
      "केले": 8919,
      "केटी": 8920,
      "▁छोड़े": 8921,
      "▁दोगी": 8922,
      "▁डंठ": 8923,
      "ितिज": 8924,
      "▁नानी": 8925,
      "▁वाद्य": 8926,
      "▁खाएं": 8927,
      "िल्लों": 8928,
      "▁धरती": 8929,
      "▁दुर्ग": 8930,
      "▁क्रा": 8931,
      "▁पीती": 8932,
      "▁कार्यालय": 8933,
      "▁आपसे": 8934,
      "▁यंत्र": 8935,
      "▁चाटना": 8936,
      "▁रंगने": 8937,
      "▁पैड": 8938,
      "▁लिटिल": 8939,
      "ट्ठी": 8940,
      "▁मैगी": 8941,
      "▁पहुँचती": 8942,
      "मैटी": 8943,
      "▁कागजा": 8944,
      "▁ढूँढी": 8945,
      "▁तोहफ़े": 8946,
      "▁पोशाकें": 8947,
      "▁पंक्ति": 8948,
      "▁जिनमें": 8949,
      "▁फिसलता": 8950,
      "▁उठने": 8951,
      "▁जागते": 8952,
      "▁रेसिपी": 8953,
      "निराश": 8954,
      "जिनमें": 8955,
      "▁क्षितिज": 8956,
      "▁प्रोत्साह": 8957,
      "▁पुरस्कृत": 8958,
      "▁क्रिकेट": 8959,
      "कैट": 8960,
      "कमरा": 8961,
      "▁ट्यून": 8962,
      "बिरंगी": 8963,
      "▁आतिशबाज़ी": 8964,
      "▁क्रीक": 8965,
      "▁झरने": 8966,
      "मछुआरे": 8967,
      "स्पेगेटी": 8968,
      "▁अन्वे": 8969,
      "▁प्रिंस": 8970,
      "▁चम्मचों": 8971,
      "उदार": 8972,
      "उत्स": 8973,
      "घों": 8974,
      "घुम": 8975,
      "चार्": 8976,
      "डिंग": 8977,
      "पसी": 8978,
      "फारिश": 8979,
      "बशर्": 8980,
      "भिन्न": 8981,
      "रिए": 8982,
      "लकी": 8983,
      "लकड़ी": 8984,
      "वर्": 8985,
      "वटी": 8986,
      "सिंडी": 8987,
      "▁औ": 8988,
      "▁सड़ने": 8989,
      "▁दम": 8990,
      "▁लपट": 8991,
      "▁जम": 8992,
      "▁रॉब": 8993,
      "▁चचे": 8994,
      "▁आइए": 8995,
      "▁आऊंगा": 8996,
      "▁उड़े": 8997,
      "काले": 8998,
      "▁छल्ली": 8999,
      "▁शैंपू": 9000,
      "▁स्पी": 9001,
      "▁कुटी": 9002,
      "त्ति": 9003,
      "▁लगाएंगे": 9004,
      "▁रोकी": 9005,
      "शाम": 9006,
      "शादी": 9007,
      "▁माला": 9008,
      "▁क्लि": 9009,
      "▁बैलू": 9010,
      "▁गाढ़ा": 9011,
      "▁आपत्ति": 9012,
      "▁सिरेल": 9013,
      "▁एयर": 9014,
      "बाथर": 9015,
      "▁बताएगा": 9016,
      "ंडल": 9017,
      "ट्टियाँ": 9018,
      "टाई": 9019,
      "टायर": 9020,
      "▁दाएं": 9021,
      "▁बजानी": 9022,
      "ब्स": 9023,
      "▁सिफारिश": 9024,
      "▁स्लाइड्स": 9025,
      "जिट": 9026,
      "▁ब्लैकबोर्ड": 9027,
      "▁पहनो": 9028,
      "▁पोल": 9029,
      "लुकास": 9030,
      "▁टाइट": 9031,
      "▁स्कार्फ़": 9032,
      "▁कागज़ा": 9033,
      "वनियों": 9034,
      "▁झांक": 9035,
      "▁रहोगे": 9036,
      "▁कंटेन": 9037,
      "▁शिविर": 9038,
      "▁रस्स": 9039,
      "▁टकराता": 9040,
      "पोपी": 9041,
      "▁मुड़ते": 9042,
      "▁चौकोर": 9043,
      "कूदता": 9044,
      "▁ग्रॉस": 9045,
      "▁बढ़ाता": 9046,
      "▁हंसाता": 9047,
      "▁ज्वार": 9048,
      "▁शेल्स": 9049,
      "▁बचपन": 9050,
      "▁परियोजना": 9051,
      "▁प्रेटेंड": 9052,
      "▁खाएंगे": 9053,
      "▁सर्दी": 9054,
      "▁पुस्तकों": 9055,
      "लंबा": 9056,
      "▁बरतेंगे": 9057,
      "बत्तखें": 9058,
      "▁निचोड़ा": 9059,
      "▁बिछाया": 9060,
      "▁चुटकुला": 9061,
      "▁डुबोया": 9062,
      "▁तेंदुआ": 9063,
      "▁चित्री": 9064,
      "▁खज़ाने": 9065,
      "र्राहट": 9066,
      "▁म्यूजियम": 9067,
      "▁संवारना": 9068,
      "रॉबर्ट": 9069,
      "पुराना": 9070,
      "दरवाज़ा": 9071,
      "स्केलेटन": 9072,
      "▁नुकी": 9073,
      "▁नेकलेस": 9074,
      "▁पहचाना": 9075,
      "▁बैकयार्ड": 9076,
      "असली": 9077,
      "कैंची": 9078,
      "▁अन्वेषण": 9079,
      "बशर्ते": 9080,
      "▁ग्रॉसरी": 9081,
      "अध": 9082,
      "उड": 9083,
      "घं": 9084,
      "टेल": 9085,
      "दर्द": 9086,
      "पार": 9087,
      "फॉक्स": 9088,
      "बूम": 9089,
      "हें": 9090,
      "हन्ना": 9091,
      "▁कृत": 9092,
      "▁बगल": 9093,
      "▁पिल्लों": 9094,
      "ड़ाहट": 9095,
      "▁करु": 9096,
      "▁करूं": 9097,
      "▁चयन": 9098,
      "▁किसे": 9099,
      "स्कर": 9100,
      "▁आद": 9101,
      "ज़रा": 9102,
      "▁फेर": 9103,
      "▁छाँ": 9104,
      "▁खुज": 9105,
      "खासत": 9106,
      "चादर": 9107,
      "▁कहो": 9108,
      "▁जोए": 9109,
      "▁करतीं": 9110,
      "▁भाइयों": 9111,
      "▁लगना": 9112,
      "▁लगें": 9113,
      "▁तरल": 9114,
      "▁सिरियल": 9115,
      "▁झटके": 9116,
      "▁कूदें": 9117,
      "▁लाओ": 9118,
      "▁पकड़ें": 9119,
      "मेज़": 9120,
      "बेह": 9121,
      "लड़कों": 9122,
      "देना": 9123,
      "▁लालच": 9124,
      "▁रेश": 9125,
      "▁चोटों": 9126,
      "पेक्षित": 9127,
      "▁टूना": 9128,
      "▁पहुँचाऊँगा": 9129,
      "▁पोस्टर": 9130,
      "▁संभाव": 9131,
      "▁पिगी": 9132,
      "▁इशारे": 9133,
      "करीब": 9134,
      "किसने": 9135,
      "ज़्जी": 9136,
      "पॉपकॉर्न": 9137,
      "▁सूँघने": 9138,
      "▁नाराज़गी": 9139,
      "▁झुंड": 9140,
      "▁पोंछते": 9141,
      "कहना": 9142,
      "▁हथेली": 9143,
      "▁धकेला": 9144,
      "▁शंखों": 9145,
      "▁खरोंचा": 9146,
      "▁फ्रॉग": 9147,
      "▁चहचहाया": 9148,
      "▁बनाएँगे": 9149,
      "गायें": 9150,
      "▁सुनेगा": 9151,
      "▁घबराई": 9152,
      "▁व्हिस्कर्स": 9153,
      "▁व्हिस्टल": 9154,
      "जेलीफ़िश": 9155,
      "बिंकी": 9156,
      "▁खाँसी": 9157,
      "आँखें": 9158,
      "▁डस्टबिन": 9159,
      "▁बटनों": 9160,
      "▁प्रोत्साहन": 9161,
      "▁कंटेनर": 9162,
      "खासतौर": 9163,
      "my": 9164,
      "ऊंचे": 9165,
      "ड्रम": 9166,
      "पं": 9167,
      "यला": 9168,
      "रोर": 9169,
      "रयान": 9170,
      "लते": 9171,
      "हॉली": 9172,
      "हॉपी": 9173,
      "ायक": 9174,
      "ृद्ध": 9175,
      "ैपी": 9176,
      "▁मम्म": 9177,
      "▁जज": 9178,
      "▁रवाना": 9179,
      "▁नू": 9180,
      "िनो": 9181,
      "▁कीलों": 9182,
      "▁आदान": 9183,
      "▁होओ": 9184,
      "▁उबल": 9185,
      "▁तले": 9186,
      "राल्फ": 9187,
      "रेडियो": 9188,
      "▁रहूंगा": 9189,
      "▁सुव्यवस्थित": 9190,
      "▁महँ": 9191,
      "ल्ले": 9192,
      "▁गुडिया": 9193,
      "▁हाद": 9194,
      "▁ताड़": 9195,
      "बादाम": 9196,
      "▁जिद्द": 9197,
      "तुम्होंने": 9198,
      "▁पैकेट": 9199,
      "▁सोचो": 9200,
      "▁स्टॉप": 9201,
      "जेफ": 9202,
      "▁परिवारों": 9203,
      "देखिए": 9204,
      "फाइव": 9205,
      "▁ढूंढेंगे": 9206,
      "▁सिने": 9207,
      "▁डाइ": 9208,
      "▁पहुँचाए": 9209,
      "ॉर्डर": 9210,
      "ज्वल": 9211,
      "▁गिराकर": 9212,
      "▁भौहें": 9213,
      "▁ड्रेसर": 9214,
      "▁लंबाई": 9215,
      "▁झींगे": 9216,
      "▁पकाते": 9217,
      "▁लिखते": 9218,
      "▁दृष्टि": 9219,
      "▁कूच": 9220,
      "त्रियों": 9221,
      "▁बढ़ाती": 9222,
      "काय्ला": 9223,
      "▁बोलता": 9224,
      "▁निर्णायक": 9225,
      "▁सीढ़ियाँ": 9226,
      "▁प्रोजेक्ट": 9227,
      "▁सुलझाया": 9228,
      "▁स्ट्रॉबेरीज़": 9229,
      "▁नर्तकी": 9230,
      "▁स्टेबल": 9231,
      "▁फूड": 9232,
      "▁घुड़": 9233,
      "▁नमस्कार": 9234,
      "▁फ्रो": 9235,
      "▁दफन": 9236,
      "▁पंखुड़ियाँ": 9237,
      "समुद्री": 9238,
      "▁परफॉर्म": 9239,
      "जलाहट": 9240,
      "▁सुधारने": 9241,
      "मुस्कुराया": 9242,
      "लोमड़": 9243,
      "संगीतकार": 9244,
      "▁बर्फीले": 9245,
      "पत्तियाँ": 9246,
      "▁वैज्ञानिक": 9247,
      "▁सिसकते": 9248,
      "भोज": 9249,
      "▁असहमत": 9250,
      "▁लकड़ियों": 9251,
      "▁स्मृति": 9252,
      "▁बेसमेंट": 9253,
      "▁क्रैकर": 9254,
      "▁कर्मचारी": 9255,
      "सौभाग्य": 9256,
      "उत्सुक": 9257,
      "अंडा": 9258,
      "अस्पताल": 9259,
      "चली": 9260,
      "चारों": 9261,
      "चर्च": 9262,
      "बर्ड": 9263,
      "रिया": 9264,
      "हेलीकॉप्टर": 9265,
      "िना": 9266,
      "्यों": 9267,
      "ेंज": 9268,
      "▁अर्थ": 9269,
      "▁कोकून": 9270,
      "▁रैबिट": 9271,
      "▁कीलें": 9272,
      "▁फ्ला": 9273,
      "▁चाहूंगा": 9274,
      "▁खुजलाहट": 9275,
      "ूसर": 9276,
      "▁कुशन": 9277,
      "▁नारंग": 9278,
      "तोते": 9279,
      "▁लेमनेड": 9280,
      "▁सीपे": 9281,
      "▁सीधी": 9282,
      "▁हील": 9283,
      "▁नामों": 9284,
      "▁मानें": 9285,
      "▁दिखाएगी": 9286,
      "ूंछ": 9287,
      "जीना": 9288,
      "▁झूम": 9289,
      "जोआ": 9290,
      "मेग": 9291,
      "▁अबिगेल": 9292,
      "▁पत्ती": 9293,
      "▁मिलाई": 9294,
      "▁अनपेक्षित": 9295,
      "जेनेट": 9296,
      "क्रिस": 9297,
      "क्रिस्टल": 9298,
      "▁फ़ी": 9299,
      "▁फ़्रेड": 9300,
      "बहनों": 9301,
      "टेदार": 9302,
      "मिमी": 9303,
      "स्ट्रा": 9304,
      "▁तोड़ें": 9305,
      "▁तोड़ती": 9306,
      "▁दौड़ाते": 9307,
      "▁गिराना": 9308,
      "▁पड़ते": 9309,
      "यकर्ता": 9310,
      "▁बचाव": 9311,
      "▁बचाता": 9312,
      "▁कंचे": 9313,
      "दूरी": 9314,
      "▁भोज": 9315,
      "▁मोतियों": 9316,
      "समूह": 9317,
      "चूह": 9318,
      "▁जीतता": 9319,
      "▁नोट्स": 9320,
      "पोनी": 9321,
      "▁पहनाई": 9322,
      "फ्लाई": 9323,
      "िकाना": 9324,
      "▁चबाते": 9325,
      "▁निशानों": 9326,
      "फ़्लो": 9327,
      "▁क्षमा": 9328,
      "▁क्षति": 9329,
      "▁स्टीम": 9330,
      "▁सूँघना": 9331,
      "▁कलाकृति": 9332,
      "▁हेज": 9333,
      "▁चिपकाना": 9334,
      "पत्थरों": 9335,
      "▁रगड़ती": 9336,
      "▁कांपना": 9337,
      "▁कंघे": 9338,
      "▁कयाकिंग": 9339,
      "▁भगाने": 9340,
      "▁व्यापार": 9341,
      "▁फ़ायरवर्क": 9342,
      "▁पेब्बल्स": 9343,
      "▁कारनामा": 9344,
      "गुस्से": 9345,
      "▁खुरदरी": 9346,
      "▁हूटिंग": 9347,
      "▁लिफाफा": 9348,
      "▁चार्मिंग": 9349,
      "▁असहमति": 9350,
      "मधुमक्खियाँ": 9351,
      "बिल्लियों": 9352,
      "▁वृत्त": 9353,
      "स्ट्रॉबेरी": 9354,
      "क्रोकोडाइल": 9355,
      "आं": 9356,
      "ईस": 9357,
      "ईमानदार": 9358,
      "ऐसी": 9359,
      "ऐन्ना": 9360,
      "कने": 9361,
      "जवा": 9362,
      "टमाटर": 9363,
      "डेंट": 9364,
      "बॉ": 9365,
      "मजब": 9366,
      "मंदिर": 9367,
      "सलों": 9368,
      "ोल": 9369,
      "▁सक्रिय": 9370,
      "▁दंत": 9371,
      "▁लॉ": 9372,
      "▁लुक": 9373,
      "▁लटकी": 9374,
      "▁जंप": 9375,
      "ड़ित": 9376,
      "▁खान": 9377,
      "▁खजान": 9378,
      "▁रंच": 9379,
      "▁सेवक": 9380,
      "स्मार्ट": 9381,
      "तीर": 9382,
      "▁आठ": 9383,
      "▁आऊंगी": 9384,
      "कीड़ों": 9385,
      "▁हैंड": 9386,
      "राफ़": 9387,
      "▁सादा": 9388,
      "▁भद्दा": 9389,
      "वाउ": 9390,
      "▁फोटो": 9391,
      "▁पाम": 9392,
      "▁इंक": 9393,
[...]
