{
  "version": "1.0",
  "truncation": null,
  "padding": null,
  "added_tokens": [
    {
      "id": 0,
      "content": "<|PAD|>",
      "single_word": false,
      "lstrip": false,
      "rstrip": false,
      "normalized": false,
      "special": true
    },
    {
      "id": 1,
      "content": "<|BOS|>",
      "single_word": false,
      "lstrip": false,
      "rstrip": false,
      "normalized": false,
      "special": true
    },
    {
      "id": 2,
      "content": "<|EOS|>",
      "single_word": false,
      "lstrip": false,
      "rstrip": false,
      "normalized": false,
      "special": true
    },
    {
      "id": 3,
      "content": "<|UNK|>",
      "single_word": false,
      "lstrip": false,
      "rstrip": false,
      "normalized": false,
      "special": true
    }
  ],
  "normalizer": {
    "type": "NFKC"
  },
  "pre_tokenizer": {
    "type": "Metaspace",
    "replacement": "▁",
    "prepend_scheme": "never",
    "split": true
  },
  "post_processor": {
    "type": "TemplateProcessing",
    "single": [
      {
        "SpecialToken": {
          "id": "<|BOS|>",
          "type_id": 0
        }
      },
      {
        "Sequence": {
          "id": "A",
          "type_id": 0
        }
      },
      {
        "SpecialToken": {
          "id": "<|EOS|>",
          "type_id": 0
        }
      }
    ],
    "pair": [
      {
        "SpecialToken": {
          "id": "<|BOS|>",
          "type_id": 0
        }
      },
      {
        "Sequence": {
          "id": "A",
          "type_id": 0
        }
      },
      {
        "SpecialToken": {
          "id": "<|EOS|>",
          "type_id": 0
        }
      },
      {
        "SpecialToken": {
          "id": "<|BOS|>",
          "type_id": 1
        }
      },
      {
        "Sequence": {
          "id": "B",
          "type_id": 1
        }
      },
      {
        "SpecialToken": {
          "id": "<|EOS|>",
          "type_id": 1
        }
      }
    ],
    "special_tokens": {
      "<|BOS|>": {
        "id": "<|BOS|>",
        "ids": [
          1
        ],
        "tokens": [
          "<|BOS|>"
        ]
      },
      "<|EOS|>": {
        "id": "<|EOS|>",
        "ids": [
          2
        ],
        "tokens": [
          "<|EOS|>"
        ]
      }
    }
  },
  "decoder": {
    "type": "Metaspace",
    "replacement": "▁",
    "prepend_scheme": "never",
    "split": true
  },
  "model": {
    "type": "BPE",
    "dropout": null,
    "unk_token": "<|UNK|>",
    "continuing_subword_prefix": null,
    "end_of_word_suffix": null,
    "fuse_unk": false,
    "byte_fallback": false,
    "ignore_merges": false,
    "vocab": {
      "<|PAD|>": 0,
      "<|BOS|>": 1,
      "<|EOS|>": 2,
      "<|UNK|>": 3,
      "!": 4,
      "\"": 5,
      "$": 6,
      "%": 7,
      "&": 8,
      "'": 9,
      "(": 10,
      ")": 11,
      "*": 12,
      "+": 13,
      ",": 14,
      "-": 15,
      ".": 16,
      "/": 17,
      "0": 18,
      "1": 19,
      "2": 20,
      "3": 21,
      "4": 22,
      "5": 23,
      "6": 24,
      "7": 25,
      "8": 26,
      "9": 27,
      ":": 28,
      ";": 29,
      "=": 30,
      "?": 31,
      "a": 32,
      "A": 33,
      "b": 34,
      "B": 35,
      "c": 36,
      "C": 37,
      "d": 38,
      "D": 39,
      "e": 40,
      "E": 41,
      "f": 42,
      "F": 43,
      "g": 44,
      "G": 45,
      "h": 46,
      "H": 47,
      "i": 48,
      "I": 49,
      "j": 50,
      "J": 51,
      "k": 52,
      "K": 53,
      "l": 54,
      "L": 55,
      "m": 56,
      "M": 57,
      "n": 58,
      "N": 59,
      "o": 60,
      "O": 61,
      "p": 62,
      "P": 63,
      "q": 64,
      "Q": 65,
      "r": 66,
      "R": 67,
      "s": 68,
      "S": 69,
      "t": 70,
      "T": 71,
      "u": 72,
      "U": 73,
      "v": 74,
      "V": 75,
      "w": 76,
      "W": 77,
      "x": 78,
      "X": 79,
      "y": 80,
      "Y": 81,
      "z": 82,
      "Z": 83,
      "·": 84,
      "、": 85,
      "。": 86,
      "《": 87,
      "》": 88,
      "「": 89,
      "」": 90,
      "一": 91,
      "丁": 92,
      "七": 93,
      "万": 94,
      "丈": 95,
      "三": 96,
      "上": 97,
      "下": 98,
      "不": 99,
      "与": 100,
      "丑": 101,
      "专": 102,
      "且": 103,
      "世": 104,
      "丘": 105,
      "业": 106,
      "丛": 107,
      "东": 108,
      "丝": 109,
      "丢": 110,
      "两": 111,
      "严": 112,
      "丧": 113,
      "个": 114,
      "丫": 115,
      "中": 116,
      "丰": 117,
      "串": 118,
      "临": 119,
      "丸": 120,
      "丹": 121,
      "为": 122,
      "主": 123,
      "丽": 124,
      "举": 125,
      "乃": 126,
      "久": 127,
      "么": 128,
      "义": 129,
      "之": 130,
      "乌": 131,
      "乎": 132,
      "乏": 133,
      "乐": 134,
      "乔": 135,
      "乖": 136,
      "乘": 137,
      "九": 138,
      "乞": 139,
      "也": 140,
      "习": 141,
      "乡": 142,
      "书": 143,
      "买": 144,
      "乱": 145,
      "乳": 146,
      "了": 147,
      "予": 148,
      "争": 149,
      "事": 150,
      "二": 151,
      "于": 152,
      "亏": 153,
      "云": 154,
      "互": 155,
      "五": 156,
      "井": 157,
      "亚": 158,
      "些": 159,
      "亡": 160,
      "亢": 161,
      "交": 162,
      "亦": 163,
      "产": 164,
      "亨": 165,
      "享": 166,
      "亭": 167,
      "亮": 168,
      "亲": 169,
      "人": 170,
      "什": 171,
      "仁": 172,
      "仅": 173,
      "仆": 174,
      "仇": 175,
      "今": 176,
      "介": 177,
      "仍": 178,
      "从": 179,
      "仓": 180,
      "仔": 181,
      "他": 182,
      "仗": 183,
      "付": 184,
      "仙": 185,
      "代": 186,
      "令": 187,
      "以": 188,
      "仪": 189,
      "们": 190,
      "仰": 191,
      "件": 192,
      "价": 193,
      "任": 194,
      "份": 195,
      "仿": 196,
      "企": 197,
      "伊": 198,
      "伍": 199,
      "伎": 200,
      "伏": 201,
      "伐": 202,
      "休": 203,
      "众": 204,
      "优": 205,
      "伙": 206,
      "会": 207,
      "伞": 208,
      "伟": 209,
      "传": 210,
      "伤": 211,
      "伦": 212,
      "伪": 213,
      "伯": 214,
      "估": 215,
      "伴": 216,
      "伸": 217,
      "似": 218,
      "伽": 219,
      "但": 220,
      "位": 221,
      "低": 222,
      "住": 223,
      "佐": 224,
      "佑": 225,
      "体": 226,
      "何": 227,
      "余": 228,
      "佛": 229,
      "作": 230,
      "你": 231,
      "佩": 232,
      "佬": 233,
      "佳": 234,
      "使": 235,
      "侃": 236,
      "侄": 237,
      "侈": 238,
      "例": 239,
      "侍": 240,
      "侏": 241,
      "供": 242,
      "依": 243,
      "侠": 244,
      "侣": 245,
      "侦": 246,
      "侧": 247,
      "侵": 248,
      "便": 249,
      "促": 250,
      "俊": 251,
      "俏": 252,
      "俗": 253,
      "保": 254,
      "信": 255,
      "俩": 256,
      "修": 257,
      "俯": 258,
      "俱": 259,
      "倍": 260,
      "倒": 261,
      "候": 262,
      "借": 263,
      "倦": 264,
      "值": 265,
      "倾": 266,
      "假": 267,
      "偌": 268,
      "偎": 269,
      "偏": 270,
      "做": 271,
      "停": 272,
      "健": 273,
      "偶": 274,
      "偷": 275,
      "偿": 276,
      "傀": 277,
      "傅": 278,
      "傍": 279,
      "储": 280,
      "催": 281,
      "傲": 282,
      "傻": 283,
      "像": 284,
      "僵": 285,
      "僻": 286,
      "儒": 287,
      "儡": 288,
      "儿": 289,
      "允": 290,
      "元": 291,
      "兄": 292,
      "充": 293,
      "兆": 294,
      "先": 295,
      "光": 296,
      "克": 297,
      "免": 298,
      "兑": 299,
      "兔": 300,
      "党": 301,
      "兜": 302,
      "入": 303,
      "全": 304,
      "八": 305,
      "公": 306,
      "六": 307,
      "兮": 308,
      "兰": 309,
      "共": 310,
      "关": 311,
      "兴": 312,
      "兵": 313,
      "其": 314,
      "具": 315,
      "典": 316,
      "兹": 317,
      "养": 318,
      "兼": 319,
      "兽": 320,
      "内": 321,
      "冉": 322,
      "册": 323,
      "再": 324,
      "冒": 325,
      "写": 326,
      "军": 327,
      "农": 328,
      "冠": 329,
      "冥": 330,
      "冬": 331,
      "冰": 332,
      "冲": 333,
      "决": 334,
      "况": 335,
      "冷": 336,
      "冻": 337,
      "冽": 338,
      "净": 339,
      "准": 340,
      "凉": 341,
      "凌": 342,
      "减": 343,
      "凑": 344,
      "凛": 345,
      "凝": 346,
      "几": 347,
      "凡": 348,
      "凭": 349,
      "凯": 350,
      "凳": 351,
      "凶": 352,
      "凸": 353,
      "凹": 354,
      "出": 355,
      "击": 356,
      "函": 357,
      "刀": 358,
      "分": 359,
      "切": 360,
      "划": 361,
      "列": 362,
      "刘": 363,
      "则": 364,
      "刚": 365,
      "创": 366,
      "初": 367,
      "删": 368,
      "判": 369,
      "利": 370,
      "别": 371,
      "刮": 372,
      "到": 373,
      "制": 374,
      "刷": 375,
      "券": 376,
      "刹": 377,
      "刺": 378,
      "刻": 379,
      "剂": 380,
      "剃": 381,
      "削": 382,
      "前": 383,
      "剑": 384,
      "剔": 385,
      "剥": 386,
      "剧": 387,
      "剩": 388,
      "剪": 389,
      "副": 390,
      "割": 391,
      "劈": 392,
      "力": 393,
      "劝": 394,
      "办": 395,
      "功": 396,
      "加": 397,
      "务": 398,
      "劣": 399,
      "动": 400,
      "助": 401,
      "努": 402,
      "劫": 403,
      "励": 404,
      "劲": 405,
      "劳": 406,
      "势": 407,
      "勃": 408,
      "勇": 409,
      "勉": 410,
      "勋": 411,
      "勒": 412,
      "勤": 413,
      "勺": 414,
      "勾": 415,
      "勿": 416,
      "匀": 417,
      "包": 418,
      "匆": 419,
      "化": 420,
      "北": 421,
      "匙": 422,
      "匠": 423,
      "匣": 424,
      "匪": 425,
      "匹": 426,
      "区": 427,
      "医": 428,
      "匿": 429,
      "十": 430,
      "千": 431,
      "升": 432,
      "午": 433,
      "卉": 434,
      "半": 435,
      "华": 436,
      "协": 437,
      "卑": 438,
      "单": 439,
      "卖": 440,
      "南": 441,
      "博": 442,
      "卜": 443,
      "占": 444,
      "卡": 445,
      "卢": 446,
      "卦": 447,
      "卧": 448,
      "卫": 449,
      "印": 450,
      "危": 451,
      "即": 452,
      "却": 453,
      "卵": 454,
      "卷": 455,
      "卸": 456,
      "厂": 457,
      "厄": 458,
      "厅": 459,
      "历": 460,
      "厉": 461,
      "压": 462,
      "厌": 463,
      "厕": 464,
      "厚": 465,
      "原": 466,
      "厢": 467,
      "厦": 468,
      "厨": 469,
      "厩": 470,
      "去": 471,
      "参": 472,
      "又": 473,
      "叉": 474,
      "及": 475,
      "友": 476,
      "双": 477,
      "反": 478,
      "发": 479,
      "叔": 480,
      "取": 481,
      "受": 482,
      "变": 483,
      "叛": 484,
      "叠": 485,
      "口": 486,
      "古": 487,
      "句": 488,
      "另": 489,
      "只": 490,
      "叫": 491,
      "召": 492,
      "叭": 493,
      "叮": 494,
      "可": 495,
      "台": 496,
      "史": 497,
      "右": 498,
      "叶": 499,
      "号": 500,
      "司": 501,
      "叹": 502,
      "叼": 503,
      "叽": 504,
      "吁": 505,
      "吃": 506,
      "各": 507,
      "合": 508,
      "吉": 509,
      "吊": 510,
      "同": 511,
      "名": 512,
      "后": 513,
      "吐": 514,
      "向": 515,
      "吓": 516,
      "吗": 517,
      "吝": 518,
      "吞": 519,
      "吟": 520,
      "吠": 521,
      "否": 522,
      "吧": 523,
      "吩": 524,
      "含": 525,
      "听": 526,
      "吮": 527,
      "启": 528,
      "吱": 529,
      "吵": 530,
      "吸": 531,
      "吹": 532,
      "吻": 533,
      "吼": 534,
      "呀": 535,
      "呃": 536,
      "呆": 537,
      "呈": 538,
      "告": 539,
      "呕": 540,
      "员": 541,
      "呜": 542,
      "呢": 543,
      "周": 544,
      "呱": 545,
      "味": 546,
      "呵": 547,
      "呸": 548,
      "呻": 549,
      "呼": 550,
      "命": 551,
      "咀": 552,
      "咄": 553,
      "咆": 554,
      "和": 555,
      "咐": 556,
      "咒": 557,
      "咔": 558,
      "咕": 559,
      "咖": 560,
      "咙": 561,
      "咚": 562,
      "咧": 563,
      "咩": 564,
      "咪": 565,
      "咬": 566,
      "咯": 567,
      "咱": 568,
      "咳": 569,
      "咸": 570,
      "咽": 571,
      "哀": 572,
      "品": 573,
      "哄": 574,
      "哇": 575,
      "哈": 576,
      "响": 577,
      "哎": 578,
      "哑": 579,
      "哒": 580,
      "哔": 581,
      "哗": 582,
      "哝": 583,
      "哞": 584,
      "哟": 585,
      "哥": 586,
      "哦": 587,
      "哨": 588,
      "哪": 589,
      "哭": 590,
      "哮": 591,
      "哼": 592,
      "唇": 593,
      "唐": 594,
      "唤": 595,
      "唬": 596,
      "售": 597,
      "唯": 598,
      "唱": 599,
      "唷": 600,
      "啃": 601,
      "啄": 602,
      "商": 603,
      "啊": 604,
      "啡": 605,
      "啤": 606,
      "啥": 607,
      "啦": 608,
      "啪": 609,
      "啬": 610,
      "啸": 611,
      "喂": 612,
      "善": 613,
      "喇": 614,
      "喉": 615,
      "喊": 616,
      "喋": 617,
      "喏": 618,
      "喘": 619,
      "喙": 620,
      "喜": 621,
      "喝": 622,
      "喧": 623,
      "喱": 624,
      "喳": 625,
      "喵": 626,
      "喷": 627,
      "喽": 628,
      "嗅": 629,
      "嗒": 630,
      "嗓": 631,
      "嗖": 632,
      "嗝": 633,
      "嗡": 634,
      "嗨": 635,
      "嗬": 636,
      "嗯": 637,
      "嗽": 638,
      "嘀": 639,
      "嘈": 640,
      "嘉": 641,
      "嘎": 642,
      "嘘": 643,
      "嘟": 644,
      "嘭": 645,
      "嘱": 646,
      "嘲": 647,
      "嘴": 648,
      "嘶": 649,
      "嘻": 650,
      "嘿": 651,
      "噎": 652,
      "噗": 653,
      "噜": 654,
      "噢": 655,
      "器": 656,
      "噩": 657,
      "噪": 658,
      "噬": 659,
      "噼": 660,
      "嚎": 661,
      "嚏": 662,
      "嚓": 663,
      "嚣": 664,
      "嚷": 665,
      "嚼": 666,
      "囊": 667,
      "囔": 668,
      "囚": 669,
      "四": 670,
      "回": 671,
      "因": 672,
      "团": 673,
      "园": 674,
      "困": 675,
      "囱": 676,
      "围": 677,
      "固": 678,
      "国": 679,
      "图": 680,
      "圆": 681,
      "圈": 682,
      "土": 683,
      "圣": 684,
      "在": 685,
      "地": 686,
      "场": 687,
      "圾": 688,
      "址": 689,
      "均": 690,
      "坊": 691,
      "坎": 692,
      "坏": 693,
      "坐": 694,
      "坑": 695,
      "块": 696,
      "坚": 697,
      "坛": 698,
      "坝": 699,
      "坟": 700,
      "坠": 701,
      "坡": 702,
      "坦": 703,
      "坪": 704,
      "坷": 705,
      "垂": 706,
      "垃": 707,
      "型": 708,
      "垒": 709,
      "垢": 710,
      "垫": 711,
      "垮": 712,
      "埃": 713,
      "埋": 714,
      "城": 715,
      "域": 716,
      "培": 717,
      "基": 718,
      "堂": 719,
      "堆": 720,
      "堡": 721,
      "堪": 722,
      "堵": 723,
      "塌": 724,
      "塑": 725,
      "塔": 726,
      "塘": 727,
      "塞": 728,
      "填": 729,
      "境": 730,
      "墅": 731,
      "墓": 732,
      "墙": 733,
      "增": 734,
      "墟": 735,
      "墨": 736,
      "壁": 737,
      "壤": 738,
      "士": 739,
      "壮": 740,
      "声": 741,
      "壳": 742,
      "壶": 743,
      "处": 744,
      "备": 745,
      "复": 746,
      "夏": 747,
      "夕": 748,
      "外": 749,
      "多": 750,
      "夜": 751,
      "够": 752,
      "大": 753,
      "天": 754,
      "太": 755,
      "夫": 756,
      "央": 757,
      "失": 758,
      "头": 759,
      "夷": 760,
      "夸": 761,
      "夹": 762,
      "夺": 763,
      "奇": 764,
      "奈": 765,
      "奉": 766,
      "奋": 767,
      "奎": 768,
      "奏": 769,
      "契": 770,
      "奔": 771,
      "奖": 772,
      "套": 773,
      "奢": 774,
      "奥": 775,
      "女": 776,
      "奶": 777,
      "奸": 778,
      "她": 779,
      "好": 780,
      "如": 781,
      "妆": 782,
      "妇": 783,
      "妈": 784,
      "妒": 785,
      "妖": 786,
      "妙": 787,
      "妞": 788,
      "妥": 789,
      "妨": 790,
      "妮": 791,
      "妹": 792,
      "妻": 793,
      "姆": 794,
      "始": 795,
      "姐": 796,
      "姑": 797,
      "姓": 798,
      "委": 799,
      "姜": 800,
      "姨": 801,
      "姬": 802,
      "姻": 803,
      "姿": 804,
      "威": 805,
      "娃": 806,
      "娅": 807,
      "娇": 808,
      "娘": 809,
      "娜": 810,
      "娩": 811,
      "娱": 812,
      "娶": 813,
      "婆": 814,
      "婚": 815,
      "婪": 816,
      "婴": 817,
      "婶": 818,
      "媚": 819,
      "嫁": 820,
      "嫉": 821,
      "嫩": 822,
      "嬉": 823,
      "子": 824,
      "孔": 825,
      "孕": 826,
      "字": 827,
      "存": 828,
      "孙": 829,
      "孚": 830,
      "季": 831,
      "孤": 832,
      "学": 833,
      "孩": 834,
      "孵": 835,
      "宁": 836,
      "它": 837,
      "宅": 838,
      "宇": 839,
      "守": 840,
      "安": 841,
      "完": 842,
      "宏": 843,
      "官": 844,
      "宙": 845,
      "定": 846,
      "宜": 847,
      "宝": 848,
      "实": 849,
      "宠": 850,
      "审": 851,
      "客": 852,
      "宣": 853,
      "室": 854,
      "宫": 855,
      "害": 856,
      "宴": 857,
      "家": 858,
      "容": 859,
      "宽": 860,
      "宾": 861,
      "宿": 862,
      "寂": 863,
      "寄": 864,
      "密": 865,
      "富": 866,
      "寐": 867,
      "寒": 868,
      "寓": 869,
      "寝": 870,
      "察": 871,
      "寸": 872,
      "对": 873,
      "寺": 874,
      "寻": 875,
      "导": 876,
      "寿": 877,
      "封": 878,
      "射": 879,
      "将": 880,
      "尊": 881,
      "小": 882,
      "少": 883,
      "尔": 884,
      "尖": 885,
      "尘": 886,
      "尚": 887,
      "尝": 888,
      "尤": 889,
      "尬": 890,
      "就": 891,
      "尴": 892,
      "尸": 893,
      "尺": 894,
      "尼": 895,
      "尽": 896,
      "尾": 897,
      "尿": 898,
      "局": 899,
      "屁": 900,
      "层": 901,
      "居": 902,
      "屈": 903,
      "屉": 904,
      "屋": 905,
      "屎": 906,
      "屏": 907,
      "屑": 908,
      "展": 909,
      "属": 910,
      "屠": 911,
      "履": 912,
      "山": 913,
      "屹": 914,
      "屿": 915,
      "岁": 916,
      "岔": 917,
      "岖": 918,
      "岗": 919,
      "岛": 920,
      "岩": 921,
      "岭": 922,
      "岸": 923,
      "峦": 924,
      "峭": 925,
      "峰": 926,
      "峻": 927,
      "崇": 928,
      "崎": 929,
      "崔": 930,
      "崖": 931,
      "崛": 932,
      "崩": 933,
      "崭": 934,
      "崽": 935,
      "嵌": 936,
      "巅": 937,
      "川": 938,
      "巡": 939,
      "巢": 940,
      "工": 941,
      "左": 942,
      "巧": 943,
      "巨": 944,
      "巫": 945,
      "差": 946,
      "己": 947,
      "已": 948,
      "巴": 949,
      "巷": 950,
      "巾": 951,
      "币": 952,
      "市": 953,
      "布": 954,
      "帅": 955,
      "帆": 956,
      "师": 957,
      "希": 958,
      "帐": 959,
      "帕": 960,
      "帖": 961,
      "帘": 962,
      "帚": 963,
      "帜": 964,
      "帝": 965,
      "带": 966,
      "席": 967,
      "帮": 968,
      "帷": 969,
      "常": 970,
      "帽": 971,
      "幅": 972,
      "幕": 973,
      "干": 974,
      "平": 975,
      "年": 976,
      "并": 977,
      "幸": 978,
      "幻": 979,
      "幼": 980,
      "幽": 981,
      "广": 982,
      "庄": 983,
      "庆": 984,
      "庇": 985,
      "床": 986,
      "序": 987,
      "库": 988,
      "应": 989,
      "底": 990,
      "店": 991,
      "庙": 992,
      "府": 993,
      "庞": 994,
      "废": 995,
      "度": 996,
      "座": 997,
      "庭": 998,
      "康": 999,
      "庸": 1000,
      "廉": 1001,
      "廊": 1002,
      "延": 1003,
      "建": 1004,
      "开": 1005,
      "异": 1006,
      "弃": 1007,
      "弄": 1008,
      "弊": 1009,
      "式": 1010,
      "弓": 1011,
      "引": 1012,
      "弗": 1013,
      "弟": 1014,
      "张": 1015,
      "弥": 1016,
      "弦": 1017,
      "弧": 1018,
      "弯": 1019,
      "弱": 1020,
      "弹": 1021,
      "强": 1022,
      "归": 1023,
      "当": 1024,
      "录": 1025,
      "彗": 1026,
      "形": 1027,
      "彩": 1028,
      "彬": 1029,
      "彰": 1030,
      "影": 1031,
      "役": 1032,
      "彻": 1033,
      "彼": 1034,
      "往": 1035,
      "征": 1036,
      "径": 1037,
      "待": 1038,
      "很": 1039,
      "徊": 1040,
      "律": 1041,
      "徐": 1042,
      "徒": 1043,
      "得": 1044,
      "徘": 1045,
      "御": 1046,
      "循": 1047,
      "微": 1048,
      "德": 1049,
      "徽": 1050,
      "心": 1051,
      "必": 1052,
      "忆": 1053,
      "忍": 1054,
      "志": 1055,
      "忘": 1056,
      "忙": 1057,
      "忠": 1058,
      "忡": 1059,
      "忧": 1060,
      "忪": 1061,
      "快": 1062,
      "念": 1063,
      "忽": 1064,
      "怀": 1065,
      "态": 1066,
      "怂": 1067,
      "怎": 1068,
      "怒": 1069,
      "怕": 1070,
      "怖": 1071,
      "怜": 1072,
      "思": 1073,
      "怡": 1074,
      "急": 1075,
      "性": 1076,
      "怨": 1077,
      "怪": 1078,
      "怯": 1079,
      "总": 1080,
      "恋": 1081,
      "恐": 1082,
      "恒": 1083,
      "恕": 1084,
      "恙": 1085,
      "恢": 1086,
      "恤": 1087,
      "恨": 1088,
      "恩": 1089,
      "恭": 1090,
      "息": 1091,
      "恰": 1092,
      "恳": 1093,
      "恶": 1094,
      "恼": 1095,
      "恿": 1096,
      "悄": 1097,
      "悉": 1098,
      "悍": 1099,
      "悔": 1100,
      "悚": 1101,
      "悟": 1102,
      "悠": 1103,
      "患": 1104,
      "悦": 1105,
      "您": 1106,
      "悬": 1107,
      "悯": 1108,
      "悲": 1109,
      "情": 1110,
      "惊": 1111,
      "惑": 1112,
      "惕": 1113,
      "惜": 1114,
      "惠": 1115,
      "惦": 1116,
      "惧": 1117,
      "惨": 1118,
      "惩": 1119,
      "惫": 1120,
      "惯": 1121,
      "惰": 1122,
      "想": 1123,
      "惹": 1124,
      "惺": 1125,
      "愁": 1126,
      "愈": 1127,
      "愉": 1128,
      "意": 1129,
      "愚": 1130,
      "感": 1131,
      "愣": 1132,
      "愤": 1133,
      "愧": 1134,
      "愿": 1135,
      "慈": 1136,
      "慌": 1137,
      "慎": 1138,
      "慕": 1139,
      "慢": 1140,
      "慧": 1141,
      "慨": 1142,
      "慰": 1143,
      "慵": 1144,
      "慷": 1145,
      "憎": 1146,
      "憩": 1147,
      "憾": 1148,
      "懂": 1149,
      "懈": 1150,
      "懒": 1151,
      "戈": 1152,
      "戏": 1153,
      "成": 1154,
      "我": 1155,
      "戒": 1156,
      "或": 1157,
      "战": 1158,
      "截": 1159,
      "戳": 1160,
      "戴": 1161,
      "户": 1162,
      "房": 1163,
      "所": 1164,
      "扁": 1165,
      "扇": 1166,
      "扉": 1167,
      "手": 1168,
      "才": 1169,
      "扎": 1170,
      "扑": 1171,
      "打": 1172,
      "扔": 1173,
      "托": 1174,
      "扛": 1175,
      "扣": 1176,
      "执": 1177,
      "扩": 1178,
      "扫": 1179,
      "扬": 1180,
      "扭": 1181,
      "扮": 1182,
      "扯": 1183,
      "扰": 1184,
      "扳": 1185,
      "扶": 1186,
      "批": 1187,
      "找": 1188,
      "承": 1189,
      "技": 1190,
      "抄": 1191,
      "把": 1192,
      "抑": 1193,
      "抓": 1194,
      "投": 1195,
      "抖": 1196,
      "抗": 1197,
      "折": 1198,
      "抚": 1199,
      "抛": 1200,
      "抢": 1201,
      "护": 1202,
      "报": 1203,
      "披": 1204,
      "抬": 1205,
      "抱": 1206,
      "抵": 1207,
      "抹": 1208,
      "押": 1209,
      "抽": 1210,
      "抿": 1211,
      "拂": 1212,
      "拄": 1213,
      "担": 1214,
      "拆": 1215,
      "拇": 1216,
      "拉": 1217,
      "拌": 1218,
      "拍": 1219,
      "拎": 1220,
      "拐": 1221,
      "拒": 1222,
      "拔": 1223,
      "拖": 1224,
      "拙": 1225,
      "招": 1226,
      "拜": 1227,
      "拢": 1228,
      "拣": 1229,
      "拥": 1230,
      "拦": 1231,
      "拧": 1232,
      "拨": 1233,
      "择": 1234,
      "括": 1235,
      "拭": 1236,
      "拯": 1237,
      "拳": 1238,
      "拴": 1239,
      "拼": 1240,
      "拽": 1241,
      "拾": 1242,
      "拿": 1243,
      "持": 1244,
      "挂": 1245,
      "指": 1246,
      "按": 1247,
      "挑": 1248,
      "挖": 1249,
      "挠": 1250,
      "挡": 1251,
      "挣": 1252,
      "挤": 1253,
      "挥": 1254,
      "挨": 1255,
      "挪": 1256,
      "挫": 1257,
      "振": 1258,
      "挺": 1259,
      "挽": 1260,
      "捂": 1261,
      "捆": 1262,
      "捉": 1263,
      "捍": 1264,
      "捏": 1265,
      "捐": 1266,
      "捕": 1267,
      "捞": 1268,
      "损": 1269,
      "捡": 1270,
      "换": 1271,
      "捣": 1272,
      "捧": 1273,
      "据": 1274,
      "捷": 1275,
      "捺": 1276,
      "捻": 1277,
      "掀": 1278,
      "掂": 1279,
      "授": 1280,
      "掉": 1281,
      "掌": 1282,
      "掏": 1283,
      "掐": 1284,
      "排": 1285,
      "掖": 1286,
      "掘": 1287,
      "掠": 1288,
      "探": 1289,
      "接": 1290,
      "控": 1291,
      "推": 1292,
      "掩": 1293,
      "措": 1294,
      "掰": 1295,
      "掷": 1296,
      "掸": 1297,
      "揉": 1298,
      "描": 1299,
      "提": 1300,
      "插": 1301,
      "握": 1302,
      "揣": 1303,
      "揪": 1304,
      "揭": 1305,
      "援": 1306,
      "搀": 1307,
      "搁": 1308,
      "搂": 1309,
      "搅": 1310,
      "搏": 1311,
      "搐": 1312,
      "搓": 1313,
      "搜": 1314,
      "搞": 1315,
      "搡": 1316,
      "搬": 1317,
      "搭": 1318,
      "携": 1319,
      "摄": 1320,
      "摆": 1321,
      "摇": 1322,
      "摊": 1323,
      "摔": 1324,
      "摘": 1325,
      "摞": 1326,
      "摧": 1327,
      "摩": 1328,
      "摸": 1329,
      "撅": 1330,
      "撑": 1331,
      "撒": 1332,
      "撕": 1333,
      "撞": 1334,
      "撤": 1335,
      "撬": 1336,
      "播": 1337,
      "撮": 1338,
      "撼": 1339,
      "擀": 1340,
      "擂": 1341,
      "擅": 1342,
      "操": 1343,
      "擎": 1344,
      "擞": 1345,
      "擤": 1346,
      "擦": 1347,
      "攀": 1348,
      "攒": 1349,
      "攘": 1350,
      "支": 1351,
      "收": 1352,
      "改": 1353,
      "攻": 1354,
      "放": 1355,
      "政": 1356,
      "故": 1357,
      "效": 1358,
      "敌": 1359,
      "敏": 1360,
      "救": 1361,
      "教": 1362,
      "敞": 1363,
      "敢": 1364,
      "散": 1365,
      "敦": 1366,
      "敬": 1367,
      "数": 1368,
      "敲": 1369,
      "整": 1370,
      "敷": 1371,
      "文": 1372,
      "斑": 1373,
      "斓": 1374,
      "斗": 1375,
      "料": 1376,
      "斜": 1377,
      "斤": 1378,
      "斥": 1379,
      "斧": 1380,
      "斩": 1381,
      "断": 1382,
      "斯": 1383,
      "新": 1384,
      "方": 1385,
      "施": 1386,
      "旁": 1387,
      "旅": 1388,
      "旋": 1389,
      "族": 1390,
      "旗": 1391,
      "无": 1392,
      "既": 1393,
      "日": 1394,
      "旦": 1395,
      "旧": 1396,
      "旨": 1397,
      "早": 1398,
      "旱": 1399,
      "时": 1400,
      "旷": 1401,
      "旺": 1402,
      "昂": 1403,
      "昆": 1404,
      "明": 1405,
      "昏": 1406,
      "易": 1407,
      "昔": 1408,
      "星": 1409,
      "映": 1410,
      "春": 1411,
      "昨": 1412,
      "是": 1413,
      "昼": 1414,
      "显": 1415,
      "晃": 1416,
      "晒": 1417,
      "晓": 1418,
      "晕": 1419,
      "晚": 1420,
      "晨": 1421,
      "普": 1422,
      "景": 1423,
      "晰": 1424,
      "晴": 1425,
      "晶": 1426,
      "智": 1427,
      "晾": 1428,
      "暂": 1429,
      "暇": 1430,
      "暑": 1431,
      "暖": 1432,
      "暗": 1433,
      "暴": 1434,
      "曙": 1435,
      "曲": 1436,
      "曳": 1437,
      "更": 1438,
      "曼": 1439,
      "曾": 1440,
      "替": 1441,
      "最": 1442,
      "月": 1443,
      "有": 1444,
      "朋": 1445,
      "服": 1446,
      "朗": 1447,
      "望": 1448,
      "朝": 1449,
      "期": 1450,
      "木": 1451,
      "未": 1452,
      "末": 1453,
      "本": 1454,
      "术": 1455,
      "朱": 1456,
      "朴": 1457,
      "朵": 1458,
      "机": 1459,
      "杀": 1460,
      "杂": 1461,
      "权": 1462,
      "杆": 1463,
      "李": 1464,
      "材": 1465,
      "村": 1466,
      "杖": 1467,
      "杜": 1468,
      "束": 1469,
      "杠": 1470,
      "条": 1471,
      "来": 1472,
      "杯": 1473,
      "杰": 1474,
      "松": 1475,
      "板": 1476,
      "极": 1477,
      "构": 1478,
      "析": 1479,
      "枕": 1480,
      "林": 1481,
      "枚": 1482,
      "果": 1483,
      "枝": 1484,
      "枪": 1485,
      "枫": 1486,
      "枯": 1487,
      "架": 1488,
      "柄": 1489,
      "某": 1490,
      "染": 1491,
      "柔": 1492,
      "柜": 1493,
      "柠": 1494,
      "查": 1495,
      "柬": 1496,
      "柱": 1497,
      "柳": 1498,
      "柴": 1499,
      "柿": 1500,
      "栅": 1501,
      "标": 1502,
      "栈": 1503,
      "栋": 1504,
      "栏": 1505,
      "树": 1506,
      "栓": 1507,
      "栖": 1508,
      "栗": 1509,
      "校": 1510,
      "栩": 1511,
      "株": 1512,
      "样": 1513,
      "核": 1514,
      "根": 1515,
      "格": 1516,
      "桂": 1517,
      "桃": 1518,
      "桅": 1519,
      "框": 1520,
      "案": 1521,
      "桌": 1522,
      "桑": 1523,
      "档": 1524,
      "桥": 1525,
      "桨": 1526,
      "桩": 1527,
      "桶": 1528,
      "梁": 1529,
      "梅": 1530,
      "梦": 1531,
      "梧": 1532,
      "梨": 1533,
      "梭": 1534,
      "梯": 1535,
      "械": 1536,
      "梳": 1537,
      "检": 1538,
      "棉": 1539,
      "棋": 1540,
      "棍": 1541,
      "棒": 1542,
      "棕": 1543,
      "棘": 1544,
      "棚": 1545,
      "森": 1546,
      "棵": 1547,
      "椅": 1548,
      "植": 1549,
      "椒": 1550,
      "椭": 1551,
      "椰": 1552,
      "椴": 1553,
      "楚": 1554,
      "楼": 1555,
      "概": 1556,
      "榄": 1557,
      "榈": 1558,
      "榜": 1559,
      "榨": 1560,
      "槌": 1561,
      "槽": 1562,
      "模": 1563,
      "横": 1564,
      "樱": 1565,
      "樵": 1566,
      "橄": 1567,
      "橇": 1568,
      "橘": 1569,
      "橙": 1570,
      "橡": 1571,
      "橱": 1572,
      "檬": 1573,
      "欠": 1574,
      "次": 1575,
      "欢": 1576,
      "欣": 1577,
      "欧": 1578,
      "欲": 1579,
      "欺": 1580,
      "款": 1581,
      "歇": 1582,
      "歉": 1583,
      "歌": 1584,
      "止": 1585,
      "正": 1586,
      "此": 1587,
      "步": 1588,
      "武": 1589,
      "歧": 1590,
      "歪": 1591,
      "死": 1592,
      "殊": 1593,
      "残": 1594,
      "殖": 1595,
      "殴": 1596,
      "段": 1597,
      "殿": 1598,
      "毁": 1599,
      "毅": 1600,
      "母": 1601,
      "每": 1602,
      "毒": 1603,
      "比": 1604,
      "毕": 1605,
      "毙": 1606,
      "毛": 1607,
      "毫": 1608,
      "毯": 1609,
      "民": 1610,
      "氓": 1611,
      "气": 1612,
      "氛": 1613,
      "氧": 1614,
      "水": 1615,
      "永": 1616,
      "汀": 1617,
      "汁": 1618,
      "求": 1619,
      "汇": 1620,
      "汉": 1621,
      "汐": 1622,
      "汗": 1623,
      "池": 1624,
      "污": 1625,
      "汤": 1626,
      "汪": 1627,
      "汹": 1628,
      "汽": 1629,
      "沃": 1630,
      "沉": 1631,
      "沐": 1632,
      "沙": 1633,
      "沛": 1634,
      "沟": 1635,
      "没": 1636,
      "沥": 1637,
      "沫": 1638,
      "沮": 1639,
      "河": 1640,
      "沸": 1641,
      "油": 1642,
      "治": 1643,
      "沼": 1644,
      "沾": 1645,
      "沿": 1646,
      "泄": 1647,
      "泉": 1648,
      "泊": 1649,
      "法": 1650,
      "泛": 1651,
      "泞": 1652,
      "泡": 1653,
      "波": 1654,
      "泣": 1655,
      "泥": 1656,
      "注": 1657,
      "泪": 1658,
      "泰": 1659,
      "泳": 1660,
      "泵": 1661,
      "泻": 1662,
      "泼": 1663,
      "泽": 1664,
      "洁": 1665,
      "洋": 1666,
      "洒": 1667,
      "洗": 1668,
      "洛": 1669,
      "洞": 1670,
      "津": 1671,
      "洪": 1672,
      "洲": 1673,
      "活": 1674,
      "洼": 1675,
      "洽": 1676,
      "派": 1677,
      "流": 1678,
      "浅": 1679,
      "浆": 1680,
      "浇": 1681,
      "浊": 1682,
      "测": 1683,
      "济": 1684,
      "浏": 1685,
      "浑": 1686,
      "浓": 1687,
      "浣": 1688,
      "浩": 1689,
      "浪": 1690,
      "浮": 1691,
      "浴": 1692,
      "海": 1693,
      "浸": 1694,
      "涂": 1695,
      "消": 1696,
      "涉": 1697,
      "涌": 1698,
      "涎": 1699,
      "涕": 1700,
      "涛": 1701,
      "涟": 1702,
      "涡": 1703,
      "涤": 1704,
      "润": 1705,
      "涨": 1706,
      "涩": 1707,
      "液": 1708,
      "涸": 1709,
      "淆": 1710,
      "淇": 1711,
      "淋": 1712,
      "淌": 1713,
      "淘": 1714,
      "淡": 1715,
      "深": 1716,
      "混": 1717,
      "淹": 1718,
      "添": 1719,
      "清": 1720,
      "渊": 1721,
      "渍": 1722,
      "渐": 1723,
      "渔": 1724,
      "渗": 1725,
      "渡": 1726,
      "渣": 1727,
      "温": 1728,
      "港": 1729,
      "渴": 1730,
      "游": 1731,
      "渺": 1732,
      "湍": 1733,
      "湖": 1734,
      "湾": 1735,
      "湿": 1736,
      "溃": 1737,
      "溅": 1738,
      "源": 1739,
      "溜": 1740,
      "溢": 1741,
      "溪": 1742,
      "溶": 1743,
      "溺": 1744,
      "滋": 1745,
      "滑": 1746,
      "滕": 1747,
      "滚": 1748,
      "滞": 1749,
      "满": 1750,
      "滥": 1751,
      "滨": 1752,
      "滩": 1753,
      "滴": 1754,
      "漂": 1755,
      "漆": 1756,
      "漉": 1757,
      "漏": 1758,
      "演": 1759,
      "漠": 1760,
      "漩": 1761,
      "漪": 1762,
      "漫": 1763,
      "漱": 1764,
      "潘": 1765,
      "潜": 1766,
      "潭": 1767,
      "潮": 1768,
      "潺": 1769,
      "澈": 1770,
      "澜": 1771,
      "澡": 1772,
      "激": 1773,
      "瀑": 1774,
      "瀚": 1775,
      "灌": 1776,
      "火": 1777,
      "灭": 1778,
      "灯": 1779,
      "灰": 1780,
      "灵": 1781,
      "灶": 1782,
      "灼": 1783,
      "灾": 1784,
      "灿": 1785,
      "炉": 1786,
      "炎": 1787,
      "炒": 1788,
      "炖": 1789,
      "炙": 1790,
      "炫": 1791,
      "炭": 1792,
      "炮": 1793,
      "炸": 1794,
      "点": 1795,
      "炼": 1796,
      "炽": 1797,
      "烁": 1798,
      "烂": 1799,
      "烈": 1800,
      "烘": 1801,
      "烛": 1802,
      "烟": 1803,
      "烤": 1804,
      "烦": 1805,
      "烧": 1806,
      "烫": 1807,
      "烬": 1808,
      "热": 1809,
      "烹": 1810,
      "焕": 1811,
      "焙": 1812,
      "焦": 1813,
      "焰": 1814,
      "然": 1815,
      "煌": 1816,
      "煎": 1817,
      "煤": 1818,
      "煦": 1819,
      "照": 1820,
      "煮": 1821,
      "熄": 1822,
      "熊": 1823,
      "熏": 1824,
      "熔": 1825,
      "熙": 1826,
      "熟": 1827,
      "熨": 1828,
      "熬": 1829,
      "燃": 1830,
      "燕": 1831,
      "燥": 1832,
      "爆": 1833,
      "爪": 1834,
      "爬": 1835,
      "爱": 1836,
      "爵": 1837,
      "父": 1838,
      "爷": 1839,
      "爸": 1840,
      "爹": 1841,
      "爽": 1842,
      "片": 1843,
      "版": 1844,
      "牌": 1845,
      "牙": 1846,
      "牛": 1847,
      "牡": 1848,
      "牢": 1849,
      "牧": 1850,
      "物": 1851,
      "牲": 1852,
      "牵": 1853,
      "特": 1854,
      "牺": 1855,
      "犀": 1856,
      "犁": 1857,
      "犊": 1858,
      "犬": 1859,
      "犯": 1860,
      "状": 1861,
      "犷": 1862,
      "犹": 1863,
      "狂": 1864,
      "狈": 1865,
      "狐": 1866,
      "狗": 1867,
      "狠": 1868,
      "狡": 1869,
      "狩": 1870,
      "独": 1871,
      "狭": 1872,
      "狮": 1873,
      "狱": 1874,
      "狸": 1875,
      "狼": 1876,
      "猎": 1877,
      "猕": 1878,
      "猛": 1879,
      "猜": 1880,
      "猩": 1881,
      "猪": 1882,
      "猫": 1883,
      "猬": 1884,
      "献": 1885,
      "猴": 1886,
      "猾": 1887,
      "獭": 1888,
      "獾": 1889,
      "玄": 1890,
      "率": 1891,
      "玉": 1892,
      "王": 1893,
      "玛": 1894,
      "玩": 1895,
      "玫": 1896,
      "环": 1897,
      "现": 1898,
      "玻": 1899,
      "珀": 1900,
      "珊": 1901,
      "珍": 1902,
      "珠": 1903,
      "班": 1904,
      "球": 1905,
      "理": 1906,
      "琪": 1907,
      "琳": 1908,
      "琴": 1909,
      "琼": 1910,
      "瑚": 1911,
      "瑜": 1912,
      "瑞": 1913,
      "瑟": 1914,
      "瑰": 1915,
      "璀": 1916,
      "璃": 1917,
      "璨": 1918,
      "瓜": 1919,
      "瓢": 1920,
      "瓣": 1921,
      "瓦": 1922,
      "瓶": 1923,
      "瓷": 1924,
      "甘": 1925,
      "甚": 1926,
      "甜": 1927,
      "生": 1928,
      "用": 1929,
      "甩": 1930,
      "田": 1931,
      "由": 1932,
      "甲": 1933,
      "申": 1934,
      "电": 1935,
      "男": 1936,
      "甸": 1937,
      "画": 1938,
      "畅": 1939,
      "界": 1940,
      "畏": 1941,
      "留": 1942,
      "畜": 1943,
      "略": 1944,
      "番": 1945,
      "疏": 1946,
      "疑": 1947,
      "疗": 1948,
      "疙": 1949,
      "疚": 1950,
      "疤": 1951,
      "疫": 1952,
      "疯": 1953,
      "疲": 1954,
      "疹": 1955,
      "疼": 1956,
      "疾": 1957,
      "病": 1958,
      "症": 1959,
      "痊": 1960,
      "痒": 1961,
      "痕": 1962,
      "痛": 1963,
      "痣": 1964,
      "瘀": 1965,
      "瘙": 1966,
      "瘦": 1967,
      "瘩": 1968,
      "瘪": 1969,
      "瘫": 1970,
      "瘸": 1971,
      "登": 1972,
      "白": 1973,
      "百": 1974,
      "皂": 1975,
      "的": 1976,
      "皆": 1977,
      "皇": 1978,
      "皑": 1979,
      "皙": 1980,
      "皮": 1981,
      "皱": 1982,
      "盆": 1983,
      "盈": 1984,
      "益": 1985,
      "盎": 1986,
      "盏": 1987,
      "盐": 1988,
      "监": 1989,
      "盒": 1990,
      "盔": 1991,
      "盖": 1992,
      "盗": 1993,
      "盘": 1994,
      "盛": 1995,
      "目": 1996,
      "盯": 1997,
      "直": 1998,
      "相": 1999,
      "盹": 2000,
      "盼": 2001,
      "盾": 2002,
      "省": 2003,
      "眉": 2004,
      "看": 2005,
      "真": 2006,
      "眠": 2007,
      "眨": 2008,
      "眩": 2009,
      "眯": 2010,
      "眶": 2011,
      "眺": 2012,
      "眼": 2013,
      "着": 2014,
      "睁": 2015,
      "睛": 2016,
      "睡": 2017,
      "督": 2018,
      "睦": 2019,
      "睬": 2020,
      "睹": 2021,
      "睿": 2022,
      "瞄": 2023,
      "瞌": 2024,
      "瞒": 2025,
      "瞥": 2026,
      "瞧": 2027,
      "瞪": 2028,
      "瞬": 2029,
      "瞰": 2030,
      "瞳": 2031,
      "矗": 2032,
      "矛": 2033,
      "矢": 2034,
      "知": 2035,
      "矩": 2036,
      "短": 2037,
      "矮": 2038,
      "石": 2039,
      "矿": 2040,
      "码": 2041,
      "砂": 2042,
      "砌": 2043,
      "砍": 2044,
      "研": 2045,
      "砖": 2046,
      "砰": 2047,
      "破": 2048,
      "砸": 2049,
      "础": 2050,
      "硕": 2051,
      "硬": 2052,
      "确": 2053,
      "碌": 2054,
      "碍": 2055,
      "碎": 2056,
      "碗": 2057,
      "碟": 2058,
      "碧": 2059,
      "碰": 2060,
      "碾": 2061,
      "磁": 2062,
      "磅": 2063,
      "磨": 2064,
      "礁": 2065,
      "示": 2066,
      "礼": 2067,
      "社": 2068,
      "祈": 2069,
      "祖": 2070,
      "祝": 2071,
      "神": 2072,
      "祟": 2073,
      "祥": 2074,
      "票": 2075,
      "祭": 2076,
      "祷": 2077,
      "祸": 2078,
      "禀": 2079,
      "禁": 2080,
      "福": 2081,
      "离": 2082,
      "秀": 2083,
      "私": 2084,
      "秃": 2085,
      "秆": 2086,
      "秋": 2087,
      "种": 2088,
      "科": 2089,
      "秒": 2090,
      "秘": 2091,
      "租": 2092,
      "秤": 2093,
      "秩": 2094,
      "积": 2095,
      "称": 2096,
      "移": 2097,
      "稀": 2098,
      "程": 2099,
      "稍": 2100,
      "稠": 2101,
      "稣": 2102,
      "稳": 2103,
      "稻": 2104,
      "稼": 2105,
      "稽": 2106,
      "穆": 2107,
      "穗": 2108,
      "穴": 2109,
      "究": 2110,
      "穷": 2111,
      "空": 2112,
      "穿": 2113,
      "突": 2114,
      "窃": 2115,
      "窄": 2116,
      "窍": 2117,
      "窒": 2118,
      "窗": 2119,
      "窜": 2120,
      "窝": 2121,
      "窣": 2122,
      "窥": 2123,
      "窸": 2124,
      "立": 2125,
      "竖": 2126,
      "站": 2127,
      "竞": 2128,
      "竟": 2129,
      "章": 2130,
      "竣": 2131,
      "童": 2132,
      "竭": 2133,
      "端": 2134,
      "竹": 2135,
      "竿": 2136,
      "笆": 2137,
      "笑": 2138,
      "笔": 2139,
      "笛": 2140,
      "符": 2141,
      "笨": 2142,
      "第": 2143,
      "笼": 2144,
      "等": 2145,
      "筋": 2146,
      "筏": 2147,
      "筐": 2148,
      "筑": 2149,
      "筒": 2150,
      "答": 2151,
      "策": 2152,
      "筝": 2153,
      "筵": 2154,
      "筹": 2155,
      "签": 2156,
      "简": 2157,
      "箍": 2158,
      "箔": 2159,
      "箕": 2160,
      "算": 2161,
      "管": 2162,
      "箭": 2163,
      "箱": 2164,
      "篇": 2165,
      "篝": 2166,
      "篮": 2167,
      "篱": 2168,
      "篷": 2169,
      "簧": 2170,
      "簸": 2171,
      "簿": 2172,
      "籍": 2173,
      "米": 2174,
      "类": 2175,
      "籽": 2176,
      "粉": 2177,
      "粒": 2178,
      "粗": 2179,
      "粘": 2180,
      "粟": 2181,
      "粥": 2182,
      "粪": 2183,
      "粮": 2184,
      "粼": 2185,
      "精": 2186,
      "糊": 2187,
      "糕": 2188,
      "糖": 2189,
      "糙": 2190,
      "糟": 2191,
      "系": 2192,
      "素": 2193,
      "索": 2194,
      "紧": 2195,
      "紫": 2196,
      "累": 2197,
      "繁": 2198,
      "纠": 2199,
      "红": 2200,
      "纤": 2201,
      "约": 2202,
      "级": 2203,
      "纪": 2204,
      "纫": 2205,
      "纬": 2206,
      "纯": 2207,
      "纱": 2208,
      "纳": 2209,
      "纵": 2210,
      "纷": 2211,
      "纸": 2212,
      "纹": 2213,
      "纺": 2214,
      "纽": 2215,
      "线": 2216,
      "练": 2217,
      "组": 2218,
      "绅": 2219,
      "细": 2220,
      "织": 2221,
      "终": 2222,
      "绊": 2223,
      "绍": 2224,
      "经": 2225,
      "绑": 2226,
      "绒": 2227,
      "结": 2228,
      "绕": 2229,
      "绘": 2230,
      "给": 2231,
      "绚": 2232,
      "络": 2233,
      "绝": 2234,
      "绞": 2235,
      "统": 2236,
      "继": 2237,
      "绩": 2238,
      "绪": 2239,
      "续": 2240,
      "绳": 2241,
      "维": 2242,
      "绵": 2243,
      "绷": 2244,
      "绸": 2245,
      "绽": 2246,
      "绿": 2247,
      "缆": 2248,
      "缓": 2249,
      "缕": 2250,
      "编": 2251,
      "缘": 2252,
      "缚": 2253,
      "缝": 2254,
      "缠": 2255,
      "缤": 2256,
      "缩": 2257,
      "缪": 2258,
      "缭": 2259,
      "缮": 2260,
      "缰": 2261,
      "缸": 2262,
      "缺": 2263,
      "罂": 2264,
      "罐": 2265,
      "网": 2266,
      "罕": 2267,
      "罗": 2268,
      "罚": 2269,
      "罢": 2270,
      "罩": 2271,
      "罪": 2272,
      "置": 2273,
      "署": 2274,
      "羊": 2275,
      "美": 2276,
      "羔": 2277,
      "羞": 2278,
      "羡": 2279,
      "群": 2280,
      "羹": 2281,
      "羽": 2282,
      "翁": 2283,
      "翅": 2284,
      "翔": 2285,
      "翠": 2286,
      "翩": 2287,
      "翰": 2288,
      "翱": 2289,
      "翻": 2290,
      "翼": 2291,
      "耀": 2292,
      "老": 2293,
      "考": 2294,
      "者": 2295,
      "而": 2296,
      "耍": 2297,
      "耐": 2298,
      "耕": 2299,
      "耗": 2300,
      "耙": 2301,
      "耳": 2302,
      "耶": 2303,
      "耷": 2304,
      "耸": 2305,
      "耻": 2306,
      "耽": 2307,
      "聆": 2308,
      "聊": 2309,
      "聋": 2310,
      "职": 2311,
      "联": 2312,
      "聘": 2313,
      "聚": 2314,
      "聪": 2315,
      "肃": 2316,
      "肆": 2317,
      "肉": 2318,
      "肌": 2319,
      "肖": 2320,
      "肘": 2321,
      "肚": 2322,
      "肠": 2323,
      "股": 2324,
      "肢": 2325,
      "肤": 2326,
      "肥": 2327,
      "肩": 2328,
      "肪": 2329,
      "肮": 2330,
      "肯": 2331,
      "育": 2332,
      "肴": 2333,
      "肺": 2334,
      "肿": 2335,
      "胀": 2336,
      "胁": 2337,
      "胃": 2338,
      "胆": 2339,
      "背": 2340,
      "胎": 2341,
      "胖": 2342,
      "胜": 2343,
      "胞": 2344,
      "胡": 2345,
      "胳": 2346,
      "胶": 2347,
      "胸": 2348,
      "能": 2349,
      "脂": 2350,
      "脆": 2351,
      "脉": 2352,
      "脊": 2353,
      "脏": 2354,
      "脑": 2355,
      "脖": 2356,
      "脚": 2357,
      "脱": 2358,
      "脸": 2359,
      "脾": 2360,
      "腋": 2361,
      "腐": 2362,
      "腔": 2363,
      "腕": 2364,
      "腥": 2365,
      "腮": 2366,
      "腰": 2367,
      "腹": 2368,
      "腻": 2369,
      "腾": 2370,
      "腿": 2371,
      "膀": 2372,
      "膊": 2373,
      "膏": 2374,
      "膛": 2375,
      "膜": 2376,
      "膝": 2377,
      "膨": 2378,
      "膳": 2379,
      "臀": 2380,
      "臂": 2381,
      "臣": 2382,
      "自": 2383,
      "臭": 2384,
      "至": 2385,
      "致": 2386,
      "舀": 2387,
      "舅": 2388,
      "舌": 2389,
      "舍": 2390,
      "舐": 2391,
      "舒": 2392,
      "舔": 2393,
      "舞": 2394,
      "舟": 2395,
      "航": 2396,
      "般": 2397,
      "舰": 2398,
      "舱": 2399,
      "舵": 2400,
      "船": 2401,
      "艇": 2402,
      "艘": 2403,
      "良": 2404,
      "艰": 2405,
      "色": 2406,
      "艳": 2407,
      "艺": 2408,
      "艾": 2409,
      "节": 2410,
      "芒": 2411,
      "芙": 2412,
      "芝": 2413,
      "芥": 2414,
      "芦": 2415,
      "芬": 2416,
      "芭": 2417,
      "芯": 2418,
      "花": 2419,
      "芳": 2420,
      "芹": 2421,
      "芽": 2422,
      "苇": 2423,
      "苍": 2424,
      "苏": 2425,
      "苔": 2426,
      "苗": 2427,
      "苛": 2428,
      "若": 2429,
      "苦": 2430,
      "英": 2431,
      "苹": 2432,
      "茁": 2433,
      "茂": 2434,
      "范": 2435,
      "茄": 2436,
      "茅": 2437,
      "茉": 2438,
      "茎": 2439,
      "茛": 2440,
      "茜": 2441,
      "茧": 2442,
      "茨": 2443,
      "茫": 2444,
      "茵": 2445,
      "茶": 2446,
      "茸": 2447,
      "荆": 2448,
      "草": 2449,
      "荐": 2450,
      "荒": 2451,
      "荚": 2452,
      "荡": 2453,
      "荣": 2454,
      "荧": 2455,
      "荫": 2456,
      "药": 2457,
      "荷": 2458,
      "莉": 2459,
      "莎": 2460,
      "莓": 2461,
      "莫": 2462,
      "莱": 2463,
      "莲": 2464,
      "获": 2465,
      "莹": 2466,
      "莽": 2467,
      "菇": 2468,
      "菊": 2469,
      "菌": 2470,
      "菜": 2471,
      "菠": 2472,
      "菲": 2473,
      "萄": 2474,
      "萌": 2475,
      "萍": 2476,
      "萎": 2477,
      "萝": 2478,
      "萤": 2479,
      "营": 2480,
      "萨": 2481,
      "落": 2482,
      "著": 2483,
      "葡": 2484,
      "董": 2485,
      "葬": 2486,
      "葱": 2487,
      "葵": 2488,
      "蒂": 2489,
      "蒙": 2490,
      "蒜": 2491,
      "蒲": 2492,
      "蒸": 2493,
      "蓄": 2494,
      "蓉": 2495,
      "蓝": 2496,
      "蓬": 2497,
      "蔓": 2498,
      "蔚": 2499,
      "蔬": 2500,
      "蔷": 2501,
      "蔼": 2502,
      "蔽": 2503,
      "蕉": 2504,
      "蕴": 2505,
      "蕾": 2506,
      "薄": 2507,
      "薇": 2508,
      "薯": 2509,
      "薰": 2510,
      "藉": 2511,
      "藏": 2512,
      "藓": 2513,
      "藤": 2514,
      "藻": 2515,
      "蘑": 2516,
      "蘸": 2517,
      "虎": 2518,
      "虐": 2519,
      "虑": 2520,
      "虚": 2521,
      "虞": 2522,
      "虫": 2523,
      "虹": 2524,
      "虽": 2525,
      "虾": 2526,
      "蚁": 2527,
      "蚂": 2528,
      "蚊": 2529,
      "蚤": 2530,
      "蚪": 2531,
      "蚱": 2532,
      "蛀": 2533,
      "蛇": 2534,
      "蛋": 2535,
      "蛎": 2536,
      "蛙": 2537,
      "蛛": 2538,
      "蛤": 2539,
      "蛮": 2540,
      "蛰": 2541,
      "蜂": 2542,
      "蜇": 2543,
      "蜊": 2544,
      "蜍": 2545,
      "蜒": 2546,
      "蜓": 2547,
      "蜗": 2548,
      "蜘": 2549,
      "蜜": 2550,
      "蜡": 2551,
      "蜢": 2552,
      "蜥": 2553,
      "蜴": 2554,
      "蜷": 2555,
      "蜻": 2556,
      "蜿": 2557,
      "蝇": 2558,
      "蝌": 2559,
      "蝙": 2560,
      "蝠": 2561,
      "蝴": 2562,
      "蝶": 2563,
      "螃": 2564,
      "融": 2565,
      "螺": 2566,
      "蟀": 2567,
      "蟋": 2568,
      "蟹": 2569,
      "蟾": 2570,
      "蠕": 2571,
      "蠖": 2572,
      "蠢": 2573,
      "血": 2574,
      "衅": 2575,
      "行": 2576,
      "衔": 2577,
      "街": 2578,
      "衡": 2579,
      "衣": 2580,
      "补": 2581,
      "表": 2582,
      "衫": 2583,
      "衬": 2584,
      "衷": 2585,
      "袋": 2586,
      "袍": 2587,
      "袖": 2588,
      "袜": 2589,
      "被": 2590,
      "袭": 2591,
      "裁": 2592,
      "裂": 2593,
      "装": 2594,
      "裕": 2595,
      "裙": 2596,
      "裤": 2597,
      "裹": 2598,
      "裾": 2599,
      "褂": 2600,
      "褐": 2601,
      "褪": 2602,
      "褶": 2603,
      "西": 2604,
      "要": 2605,
      "覆": 2606,
      "见": 2607,
      "观": 2608,
      "规": 2609,
      "视": 2610,
      "览": 2611,
      "觉": 2612,
      "觑": 2613,
      "角": 2614,
      "解": 2615,
      "触": 2616,
      "言": 2617,
      "詹": 2618,
      "誉": 2619,
      "誓": 2620,
      "警": 2621,
      "计": 2622,
      "订": 2623,
      "认": 2624,
      "讨": 2625,
      "让": 2626,
      "训": 2627,
      "议": 2628,
      "讯": 2629,
      "记": 2630,
      "讲": 2631,
      "讶": 2632,
      "许": 2633,
      "论": 2634,
      "设": 2635,
      "访": 2636,
      "诀": 2637,
      "证": 2638,
      "评": 2639,
      "诅": 2640,
      "识": 2641,
      "诉": 2642,
      "诊": 2643,
      "词": 2644,
      "试": 2645,
      "诗": 2646,
      "诚": 2647,
      "话": 2648,
      "诞": 2649,
      "诡": 2650,
      "询": 2651,
      "该": 2652,
      "详": 2653,
      "诫": 2654,
      "语": 2655,
      "误": 2656,
      "诱": 2657,
      "诲": 2658,
      "说": 2659,
      "诵": 2660,
      "请": 2661,
      "诸": 2662,
      "诺": 2663,
      "读": 2664,
      "课": 2665,
      "谁": 2666,
      "调": 2667,
      "谅": 2668,
      "谈": 2669,
      "谊": 2670,
      "谋": 2671,
      "谍": 2672,
      "谎": 2673,
      "谐": 2674,
      "谓": 2675,
      "谜": 2676,
      "谢": 2677,
      "谦": 2678,
      "谨": 2679,
      "谱": 2680,
      "谷": 2681,
      "豆": 2682,
      "豌": 2683,
      "豚": 2684,
      "象": 2685,
      "豪": 2686,
      "豫": 2687,
      "豹": 2688,
      "貌": 2689,
      "贝": 2690,
      "负": 2691,
      "贡": 2692,
      "财": 2693,
      "责": 2694,
      "败": 2695,
      "账": 2696,
      "货": 2697,
      "质": 2698,
      "贩": 2699,
      "贪": 2700,
      "贫": 2701,
      "购": 2702,
      "贯": 2703,
      "贴": 2704,
      "贵": 2705,
      "贷": 2706,
      "贸": 2707,
      "费": 2708,
      "贺": 2709,
      "贼": 2710,
      "贾": 2711,
      "资": 2712,
      "赋": 2713,
      "赌": 2714,
      "赏": 2715,
      "赐": 2716,
      "赔": 2717,
      "赖": 2718,
      "赚": 2719,
      "赛": 2720,
      "赞": 2721,
      "赠": 2722,
      "赢": 2723,
      "赤": 2724,
      "赫": 2725,
      "走": 2726,
      "赴": 2727,
      "赶": 2728,
      "起": 2729,
      "趁": 2730,
      "超": 2731,
      "越": 2732,
      "趟": 2733,
      "趣": 2734,
      "足": 2735,
      "趴": 2736,
      "趾": 2737,
      "跃": 2738,
      "跄": 2739,
      "跋": 2740,
      "跌": 2741,
      "跑": 2742,
      "跚": 2743,
      "距": 2744,
      "跟": 2745,
      "跤": 2746,
      "跨": 2747,
      "跪": 2748,
      "路": 2749,
      "跳": 2750,
      "践": 2751,
      "跷": 2752,
      "跺": 2753,
      "踉": 2754,
      "踏": 2755,
      "踝": 2756,
      "踢": 2757,
      "踩": 2758,
      "踪": 2759,
      "踮": 2760,
      "踱": 2761,
      "蹄": 2762,
      "蹈": 2763,
      "蹑": 2764,
      "蹒": 2765,
      "蹦": 2766,
      "蹬": 2767,
      "蹭": 2768,
      "蹲": 2769,
      "蹼": 2770,
      "蹿": 2771,
      "躁": 2772,
      "身": 2773,
      "躬": 2774,
      "躯": 2775,
      "躲": 2776,
      "躺": 2777,
      "车": 2778,
      "轨": 2779,
      "转": 2780,
      "轮": 2781,
      "软": 2782,
      "轰": 2783,
      "轴": 2784,
      "轻": 2785,
      "载": 2786,
      "轿": 2787,
      "较": 2788,
      "辅": 2789,
      "辆": 2790,
      "辈": 2791,
      "辉": 2792,
      "辑": 2793,
      "输": 2794,
      "辙": 2795,
      "辛": 2796,
      "辜": 2797,
      "辞": 2798,
      "辟": 2799,
      "辣": 2800,
      "辨": 2801,
      "辩": 2802,
      "辫": 2803,
      "辰": 2804,
      "辱": 2805,
      "边": 2806,
      "达": 2807,
      "迄": 2808,
      "迅": 2809,
      "过": 2810,
      "迈": 2811,
      "迎": 2812,
      "运": 2813,
      "近": 2814,
      "返": 2815,
      "还": 2816,
      "这": 2817,
      "进": 2818,
      "远": 2819,
      "违": 2820,
      "连": 2821,
      "迟": 2822,
      "迢": 2823,
      "迦": 2824,
      "迪": 2825,
      "迫": 2826,
      "迭": 2827,
      "述": 2828,
      "迷": 2829,
      "迹": 2830,
      "追": 2831,
      "退": 2832,
      "送": 2833,
      "适": 2834,
      "逃": 2835,
      "逆": 2836,
      "选": 2837,
      "逊": 2838,
      "透": 2839,
      "逐": 2840,
      "递": 2841,
      "途": 2842,
      "逗": 2843,
      "通": 2844,
      "逛": 2845,
      "逝": 2846,
      "逞": 2847,
      "速": 2848,
      "造": 2849,
      "逢": 2850,
      "逮": 2851,
      "逸": 2852,
      "逼": 2853,
      "遇": 2854,
      "遍": 2855,
      "道": 2856,
      "遗": 2857,
      "遛": 2858,
      "遢": 2859,
      "遥": 2860,
      "遭": 2861,
      "遮": 2862,
      "遵": 2863,
      "避": 2864,
      "邀": 2865,
      "邃": 2866,
      "邋": 2867,
      "那": 2868,
      "邦": 2869,
      "邪": 2870,
      "邮": 2871,
      "邻": 2872,
      "郁": 2873,
      "郊": 2874,
      "郎": 2875,
      "部": 2876,
      "都": 2877,
      "鄙": 2878,
      "配": 2879,
      "酒": 2880,
      "酝": 2881,
      "酥": 2882,
      "酪": 2883,
      "酬": 2884,
      "酱": 2885,
      "酵": 2886,
      "酷": 2887,
      "酸": 2888,
      "酿": 2889,
      "醋": 2890,
      "醒": 2891,
      "采": 2892,
      "释": 2893,
      "里": 2894,
      "重": 2895,
      "野": 2896,
      "量": 2897,
      "金": 2898,
      "鉴": 2899,
      "针": 2900,
      "钉": 2901,
      "钓": 2902,
      "钝": 2903,
      "钞": 2904,
      "钟": 2905,
      "钢": 2906,
      "钥": 2907,
      "钦": 2908,
      "钧": 2909,
      "钩": 2910,
      "钮": 2911,
      "钱": 2912,
      "钳": 2913,
      "钻": 2914,
      "铁": 2915,
      "铃": 2916,
      "铅": 2917,
      "铐": 2918,
      "铛": 2919,
      "铜": 2920,
      "铠": 2921,
      "铭": 2922,
      "铲": 2923,
      "银": 2924,
      "铺": 2925,
      "链": 2926,
      "销": 2927,
      "锁": 2928,
      "锃": 2929,
      "锅": 2930,
      "锈": 2931,
      "锉": 2932,
      "锋": 2933,
      "锐": 2934,
      "错": 2935,
      "锚": 2936,
      "锤": 2937,
      "锥": 2938,
      "锦": 2939,
      "键": 2940,
      "锯": 2941,
      "锹": 2942,
      "锻": 2943,
      "镇": 2944,
      "镐": 2945,
      "镖": 2946,
      "镜": 2947,
      "镯": 2948,
      "镳": 2949,
      "镶": 2950,
      "长": 2951,
      "门": 2952,
      "闩": 2953,
      "闪": 2954,
      "闭": 2955,
      "问": 2956,
      "闯": 2957,
      "闲": 2958,
      "间": 2959,
      "闷": 2960,
      "闸": 2961,
      "闹": 2962,
      "闻": 2963,
      "阁": 2964,
      "阅": 2965,
      "阔": 2966,
      "队": 2967,
      "阱": 2968,
      "防": 2969,
      "阳": 2970,
      "阴": 2971,
      "阵": 2972,
      "阶": 2973,
      "阻": 2974,
      "阿": 2975,
      "陀": 2976,
      "附": 2977,
      "际": 2978,
      "陆": 2979,
      "陈": 2980,
      "陋": 2981,
      "陌": 2982,
      "降": 2983,
      "限": 2984,
      "陛": 2985,
      "陡": 2986,
      "院": 2987,
      "除": 2988,
      "陨": 2989,
      "险": 2990,
      "陪": 2991,
      "陶": 2992,
      "陷": 2993,
      "隆": 2994,
      "随": 2995,
      "隐": 2996,
      "隔": 2997,
      "隙": 2998,
      "障": 2999,
      "隧": 3000,
      "难": 3001,
      "雀": 3002,
      "雁": 3003,
      "雄": 3004,
      "雅": 3005,
      "集": 3006,
      "雇": 3007,
      "雏": 3008,
      "雕": 3009,
      "雨": 3010,
      "雪": 3011,
      "零": 3012,
      "雷": 3013,
      "雾": 3014,
      "需": 3015,
      "霄": 3016,
      "霆": 3017,
      "震": 3018,
      "霉": 3019,
      "霍": 3020,
      "霜": 3021,
      "露": 3022,
      "霸": 3023,
      "青": 3024,
      "静": 3025,
      "非": 3026,
      "靠": 3027,
      "面": 3028,
      "革": 3029,
      "靴": 3030,
      "靶": 3031,
      "鞋": 3032,
      "鞍": 3033,
      "鞠": 3034,
      "鞭": 3035,
      "韦": 3036,
      "韧": 3037,
      "音": 3038,
      "韵": 3039,
      "页": 3040,
      "顶": 3041,
      "项": 3042,
      "顺": 3043,
      "须": 3044,
      "顽": 3045,
      "顾": 3046,
      "顿": 3047,
      "颁": 3048,
      "预": 3049,
      "颅": 3050,
      "领": 3051,
      "颈": 3052,
      "颊": 3053,
      "频": 3054,
      "颖": 3055,
      "颗": 3056,
      "题": 3057,
      "颜": 3058,
      "额": 3059,
      "颠": 3060,
      "颤": 3061,
      "风": 3062,
      "飓": 3063,
      "飘": 3064,
      "飞": 3065,
      "食": 3066,
      "餐": 3067,
      "饥": 3068,
      "饪": 3069,
      "饭": 3070,
      "饮": 3071,
      "饰": 3072,
      "饱": 3073,
      "饲": 3074,
      "饵": 3075,
      "饶": 3076,
      "饼": 3077,
      "饿": 3078,
      "馅": 3079,
      "馆": 3080,
      "馈": 3081,
      "首": 3082,
      "香": 3083,
      "馨": 3084,
      "马": 3085,
      "驭": 3086,
      "驮": 3087,
      "驯": 3088,
      "驰": 3089,
      "驱": 3090,
      "驳": 3091,
      "驴": 3092,
      "驶": 3093,
      "驹": 3094,
      "驻": 3095,
      "驼": 3096,
      "驾": 3097,
      "骂": 3098,
      "骄": 3099,
      "骆": 3100,
      "骋": 3101,
      "验": 3102,
      "骑": 3103,
      "骗": 3104,
      "骚": 3105,
      "骡": 3106,
      "骤": 3107,
      "骨": 3108,
      "骰": 3109,
      "骷": 3110,
      "骸": 3111,
      "骼": 3112,
      "髅": 3113,
      "高": 3114,
      "髦": 3115,
      "鬃": 3116,
      "鬣": 3117,
      "鬼": 3118,
      "魁": 3119,
      "魂": 3120,
      "魅": 3121,
      "魏": 3122,
      "魔": 3123,
      "鱼": 3124,
      "鲁": 3125,
      "鲍": 3126,
      "鲜": 3127,
      "鲨": 3128,
      "鲸": 3129,
      "鳄": 3130,
      "鳍": 3131,
      "鳞": 3132,
      "鸟": 3133,
      "鸡": 3134,
      "鸣": 3135,
      "鸥": 3136,
      "鸦": 3137,
      "鸭": 3138,
      "鸵": 3139,
      "鸽": 3140,
      "鹅": 3141,
      "鹉": 3142,
      "鹊": 3143,
      "鹤": 3144,
      "鹦": 3145,
      "鹰": 3146,
      "鹿": 3147,
      "麦": 3148,
      "麻": 3149,
      "黄": 3150,
      "黎": 3151,
      "黏": 3152,
      "黑": 3153,
      "默": 3154,
      "黛": 3155,
      "黝": 3156,
      "黯": 3157,
      "鼓": 3158,
      "鼠": 3159,
      "鼬": 3160,
      "鼹": 3161,
      "鼻": 3162,
      "鼾": 3163,
      "齐": 3164,
      "齿": 3165,
      "龄": 3166,
      "龈": 3167,
      "龙": 3168,
      "龟": 3169,
      "▁": 3170,
      "\t": 3171,
      "\n": 3172,
      "▁!": 3173,
      "▁\"": 3174,
      "▁$": 3175,
      "▁%": 3176,
      "▁&": 3177,
      "▁'": 3178,
      "▁(": 3179,
      "▁)": 3180,
      "▁*": 3181,
      "▁+": 3182,
      "▁,": 3183,
      "▁-": 3184,
      "▁.": 3185,
      "▁/": 3186,
      "▁0": 3187,
      "▁1": 3188,
      "▁2": 3189,
      "▁3": 3190,
      "▁4": 3191,
      "▁5": 3192,
      "▁6": 3193,
      "▁7": 3194,
      "▁8": 3195,
      "▁9": 3196,
      "▁:": 3197,
      "▁;": 3198,
      "▁=": 3199,
      "▁?": 3200,
      "▁a": 3201,
      "▁A": 3202,
      "▁b": 3203,
      "▁B": 3204,
      "▁c": 3205,
      "▁C": 3206,
      "▁d": 3207,
      "▁D": 3208,
      "▁e": 3209,
      "▁E": 3210,
      "▁f": 3211,
      "▁F": 3212,
      "▁g": 3213,
      "▁G": 3214,
      "▁h": 3215,
      "▁H": 3216,
      "▁i": 3217,
      "▁I": 3218,
      "▁j": 3219,
      "▁J": 3220,
      "▁k": 3221,
      "▁K": 3222,
      "▁l": 3223,
      "▁L": 3224,
      "▁m": 3225,
      "▁M": 3226,
      "▁n": 3227,
      "▁N": 3228,
      "▁o": 3229,
      "▁O": 3230,
      "▁p": 3231,
      "▁P": 3232,
      "▁q": 3233,
      "▁Q": 3234,
      "▁r": 3235,
      "▁R": 3236,
      "▁s": 3237,
      "▁S": 3238,
      "▁t": 3239,
      "▁T": 3240,
      "▁u": 3241,
      "▁U": 3242,
      "▁v": 3243,
      "▁V": 3244,
      "▁w": 3245,
      "▁W": 3246,
      "▁x": 3247,
      "▁X": 3248,
      "▁y": 3249,
      "▁Y": 3250,
      "▁z": 3251,
      "▁Z": 3252,
      "▁·": 3253,
      "▁、": 3254,
      "▁。": 3255,
      "▁《": 3256,
      "▁》": 3257,
      "▁「": 3258,
      "▁」": 3259,
      "▁一": 3260,
      "▁丁": 3261,
      "▁七": 3262,
      "▁万": 3263,
      "▁丈": 3264,
      "▁三": 3265,
      "▁上": 3266,
      "▁下": 3267,
      "▁不": 3268,
      "▁与": 3269,
      "▁丑": 3270,
      "▁专": 3271,
      "▁且": 3272,
      "▁世": 3273,
      "▁丘": 3274,
      "▁业": 3275,
      "▁丛": 3276,
      "▁东": 3277,
      "▁丝": 3278,
      "▁丢": 3279,
      "▁两": 3280,
      "▁严": 3281,
      "▁丧": 3282,
      "▁个": 3283,
      "▁丫": 3284,
      "▁中": 3285,
      "▁丰": 3286,
      "▁串": 3287,
      "▁临": 3288,
      "▁丸": 3289,
      "▁丹": 3290,
      "▁为": 3291,
      "▁主": 3292,
      "▁丽": 3293,
      "▁举": 3294,
      "▁乃": 3295,
      "▁久": 3296,
      "▁么": 3297,
      "▁义": 3298,
      "▁之": 3299,
      "▁乌": 3300,
      "▁乎": 3301,
      "▁乏": 3302,
      "▁乐": 3303,
      "▁乔": 3304,
      "▁乖": 3305,
      "▁乘": 3306,
      "▁九": 3307,
      "▁乞": 3308,
      "▁也": 3309,
      "▁习": 3310,
      "▁乡": 3311,
      "▁书": 3312,
      "▁买": 3313,
      "▁乱": 3314,
      "▁乳": 3315,
      "▁了": 3316,
      "▁予": 3317,
      "▁争": 3318,
      "▁事": 3319,
      "▁二": 3320,
      "▁于": 3321,
      "▁亏": 3322,
      "▁云": 3323,
      "▁互": 3324,
      "▁五": 3325,
      "▁井": 3326,
      "▁亚": 3327,
      "▁些": 3328,
      "▁亡": 3329,
      "▁亢": 3330,
      "▁交": 3331,
      "▁亦": 3332,
      "▁产": 3333,
      "▁亨": 3334,
      "▁享": 3335,
      "▁亭": 3336,
      "▁亮": 3337,
      "▁亲": 3338,
      "▁人": 3339,
      "▁什": 3340,
      "▁仁": 3341,
      "▁仅": 3342,
      "▁仆": 3343,
      "▁仇": 3344,
      "▁今": 3345,
      "▁介": 3346,
      "▁仍": 3347,
      "▁从": 3348,
      "▁仓": 3349,
      "▁仔": 3350,
      "▁他": 3351,
      "▁仗": 3352,
      "▁付": 3353,
      "▁仙": 3354,
      "▁代": 3355,
      "▁令": 3356,
      "▁以": 3357,
      "▁仪": 3358,
      "▁们": 3359,
      "▁仰": 3360,
      "▁件": 3361,
      "▁价": 3362,
      "▁任": 3363,
      "▁份": 3364,
      "▁仿": 3365,
      "▁企": 3366,
      "▁伊": 3367,
      "▁伍": 3368,
      "▁伎": 3369,
      "▁伏": 3370,
      "▁伐": 3371,
      "▁休": 3372,
      "▁众": 3373,
      "▁优": 3374,
      "▁伙": 3375,
      "▁会": 3376,
      "▁伞": 3377,
      "▁伟": 3378,
      "▁传": 3379,
      "▁伤": 3380,
      "▁伦": 3381,
      "▁伪": 3382,
      "▁伯": 3383,
      "▁估": 3384,
      "▁伴": 3385,
      "▁伸": 3386,
      "▁似": 3387,
      "▁伽": 3388,
      "▁但": 3389,
      "▁位": 3390,
      "▁低": 3391,
      "▁住": 3392,
      "▁佐": 3393,
      "▁佑": 3394,
      "▁体": 3395,
      "▁何": 3396,
      "▁余": 3397,
      "▁佛": 3398,
      "▁作": 3399,
      "▁你": 3400,
      "▁佩": 3401,
      "▁佬": 3402,
      "▁佳": 3403,
      "▁使": 3404,
      "▁侃": 3405,
      "▁侄": 3406,
      "▁侈": 3407,
      "▁例": 3408,
      "▁侍": 3409,
      "▁侏": 3410,
      "▁供": 3411,
      "▁依": 3412,
      "▁侠": 3413,
      "▁侣": 3414,
      "▁侦": 3415,
      "▁侧": 3416,
      "▁侵": 3417,
      "▁便": 3418,
      "▁促": 3419,
      "▁俊": 3420,
      "▁俏": 3421,
      "▁俗": 3422,
      "▁保": 3423,
      "▁信": 3424,
      "▁俩": 3425,
      "▁修": 3426,
      "▁俯": 3427,
      "▁俱": 3428,
      "▁倍": 3429,
      "▁倒": 3430,
      "▁候": 3431,
      "▁借": 3432,
      "▁倦": 3433,
      "▁值": 3434,
      "▁倾": 3435,
      "▁假": 3436,
      "▁偌": 3437,
      "▁偎": 3438,
      "▁偏": 3439,
      "▁做": 3440,
      "▁停": 3441,
      "▁健": 3442,
      "▁偶": 3443,
      "▁偷": 3444,
      "▁偿": 3445,
      "▁傀": 3446,
      "▁傅": 3447,
      "▁傍": 3448,
      "▁储": 3449,
      "▁催": 3450,
      "▁傲": 3451,
      "▁傻": 3452,
      "▁像": 3453,
      "▁僵": 3454,
      "▁僻": 3455,
      "▁儒": 3456,
      "▁儡": 3457,
      "▁儿": 3458,
      "▁允": 3459,
      "▁元": 3460,
      "▁兄": 3461,
      "▁充": 3462,
      "▁兆": 3463,
      "▁先": 3464,
      "▁光": 3465,
      "▁克": 3466,
      "▁免": 3467,
      "▁兑": 3468,
      "▁兔": 3469,
      "▁党": 3470,
      "▁兜": 3471,
      "▁入": 3472,
      "▁全": 3473,
      "▁八": 3474,
      "▁公": 3475,
      "▁六": 3476,
      "▁兮": 3477,
      "▁兰": 3478,
      "▁共": 3479,
      "▁关": 3480,
      "▁兴": 3481,
      "▁兵": 3482,
      "▁其": 3483,
      "▁具": 3484,
      "▁典": 3485,
      "▁兹": 3486,
      "▁养": 3487,
      "▁兼": 3488,
      "▁兽": 3489,
      "▁内": 3490,
      "▁冉": 3491,
      "▁册": 3492,
      "▁再": 3493,
      "▁冒": 3494,
      "▁写": 3495,
      "▁军": 3496,
      "▁农": 3497,
      "▁冠": 3498,
      "▁冥": 3499,
      "▁冬": 3500,
      "▁冰": 3501,
      "▁冲": 3502,
      "▁决": 3503,
      "▁况": 3504,
      "▁冷": 3505,
      "▁冻": 3506,
      "▁冽": 3507,
      "▁净": 3508,
      "▁准": 3509,
      "▁凉": 3510,
      "▁凌": 3511,
      "▁减": 3512,
      "▁凑": 3513,
      "▁凛": 3514,
      "▁凝": 3515,
      "▁几": 3516,
      "▁凡": 3517,
      "▁凭": 3518,
      "▁凯": 3519,
      "▁凳": 3520,
      "▁凶": 3521,
      "▁凸": 3522,
      "▁凹": 3523,
      "▁出": 3524,
      "▁击": 3525,
      "▁函": 3526,
      "▁刀": 3527,
      "▁分": 3528,
      "▁切": 3529,
      "▁划": 3530,
      "▁列": 3531,
      "▁刘": 3532,
      "▁则": 3533,
      "▁刚": 3534,
      "▁创": 3535,
      "▁初": 3536,
      "▁删": 3537,
      "▁判": 3538,
      "▁利": 3539,
      "▁别": 3540,
      "▁刮": 3541,
      "▁到": 3542,
      "▁制": 3543,
      "▁刷": 3544,
      "▁券": 3545,
      "▁刹": 3546,
      "▁刺": 3547,
      "▁刻": 3548,
      "▁剂": 3549,
      "▁剃": 3550,
      "▁削": 3551,
      "▁前": 3552,
      "▁剑": 3553,
      "▁剔": 3554,
      "▁剥": 3555,
      "▁剧": 3556,
      "▁剩": 3557,
      "▁剪": 3558,
      "▁副": 3559,
      "▁割": 3560,
      "▁劈": 3561,
      "▁力": 3562,
      "▁劝": 3563,
      "▁办": 3564,
      "▁功": 3565,
      "▁加": 3566,
      "▁务": 3567,
      "▁劣": 3568,
      "▁动": 3569,
      "▁助": 3570,
      "▁努": 3571,
      "▁劫": 3572,
      "▁励": 3573,
      "▁劲": 3574,
      "▁劳": 3575,
      "▁势": 3576,
      "▁勃": 3577,
      "▁勇": 3578,
      "▁勉": 3579,
      "▁勋": 3580,
      "▁勒": 3581,
      "▁勤": 3582,
      "▁勺": 3583,
      "▁勾": 3584,
      "▁勿": 3585,
      "▁匀": 3586,
      "▁包": 3587,
      "▁匆": 3588,
      "▁化": 3589,
      "▁北": 3590,
      "▁匙": 3591,
      "▁匠": 3592,
      "▁匣": 3593,
      "▁匪": 3594,
      "▁匹": 3595,
      "▁区": 3596,
      "▁医": 3597,
      "▁匿": 3598,
      "▁十": 3599,
      "▁千": 3600,
      "▁升": 3601,
      "▁午": 3602,
      "▁卉": 3603,
      "▁半": 3604,
      "▁华": 3605,
      "▁协": 3606,
      "▁卑": 3607,
      "▁单": 3608,
      "▁卖": 3609,
      "▁南": 3610,
      "▁博": 3611,
      "▁卜": 3612,
      "▁占": 3613,
      "▁卡": 3614,
      "▁卢": 3615,
      "▁卦": 3616,
      "▁卧": 3617,
      "▁卫": 3618,
      "▁印": 3619,
      "▁危": 3620,
      "▁即": 3621,
      "▁却": 3622,
      "▁卵": 3623,
      "▁卷": 3624,
      "▁卸": 3625,
      "▁厂": 3626,
      "▁厄": 3627,
      "▁厅": 3628,
      "▁历": 3629,
      "▁厉": 3630,
      "▁压": 3631,
      "▁厌": 3632,
      "▁厕": 3633,
      "▁厚": 3634,
      "▁原": 3635,
      "▁厢": 3636,
      "▁厦": 3637,
      "▁厨": 3638,
      "▁厩": 3639,
      "▁去": 3640,
      "▁参": 3641,
      "▁又": 3642,
      "▁叉": 3643,
      "▁及": 3644,
      "▁友": 3645,
      "▁双": 3646,
      "▁反": 3647,
      "▁发": 3648,
      "▁叔": 3649,
      "▁取": 3650,
      "▁受": 3651,
      "▁变": 3652,
      "▁叛": 3653,
      "▁叠": 3654,
      "▁口": 3655,
      "▁古": 3656,
      "▁句": 3657,
      "▁另": 3658,
      "▁只": 3659,
      "▁叫": 3660,
      "▁召": 3661,
      "▁叭": 3662,
      "▁叮": 3663,
      "▁可": 3664,
      "▁台": 3665,
      "▁史": 3666,
      "▁右": 3667,
      "▁叶": 3668,
      "▁号": 3669,
      "▁司": 3670,
      "▁叹": 3671,
      "▁叼": 3672,
      "▁叽": 3673,
      "▁吁": 3674,
      "▁吃": 3675,
      "▁各": 3676,
      "▁合": 3677,
      "▁吉": 3678,
      "▁吊": 3679,
      "▁同": 3680,
      "▁名": 3681,
      "▁后": 3682,
      "▁吐": 3683,
      "▁向": 3684,
      "▁吓": 3685,
      "▁吗": 3686,
      "▁吝": 3687,
      "▁吞": 3688,
      "▁吟": 3689,
      "▁吠": 3690,
      "▁否": 3691,
      "▁吧": 3692,
      "▁吩": 3693,
      "▁含": 3694,
      "▁听": 3695,
      "▁吮": 3696,
      "▁启": 3697,
      "▁吱": 3698,
      "▁吵": 3699,
      "▁吸": 3700,
      "▁吹": 3701,
      "▁吻": 3702,
      "▁吼": 3703,
      "▁呀": 3704,
      "▁呃": 3705,
      "▁呆": 3706,
      "▁呈": 3707,
      "▁告": 3708,
      "▁呕": 3709,
      "▁员": 3710,
      "▁呜": 3711,
      "▁呢": 3712,
      "▁周": 3713,
      "▁呱": 3714,
      "▁味": 3715,
      "▁呵": 3716,
      "▁呸": 3717,
      "▁呻": 3718,
      "▁呼": 3719,
      "▁命": 3720,
      "▁咀": 3721,
      "▁咄": 3722,
      "▁咆": 3723,
      "▁和": 3724,
      "▁咐": 3725,
      "▁咒": 3726,
      "▁咔": 3727,
      "▁咕": 3728,
      "▁咖": 3729,
      "▁咙": 3730,
      "▁咚": 3731,
      "▁咧": 3732,
      "▁咩": 3733,
      "▁咪": 3734,
      "▁咬": 3735,
      "▁咯": 3736,
      "▁咱": 3737,
      "▁咳": 3738,
      "▁咸": 3739,
      "▁咽": 3740,
      "▁哀": 3741,
      "▁品": 3742,
      "▁哄": 3743,
      "▁哇": 3744,
      "▁哈": 3745,
      "▁响": 3746,
      "▁哎": 3747,
      "▁哑": 3748,
      "▁哒": 3749,
      "▁哔": 3750,
      "▁哗": 3751,
      "▁哝": 3752,
      "▁哞": 3753,
      "▁哟": 3754,
      "▁哥": 3755,
      "▁哦": 3756,
      "▁哨": 3757,
      "▁哪": 3758,
      "▁哭": 3759,
      "▁哮": 3760,
      "▁哼": 3761,
      "▁唇": 3762,
      "▁唐": 3763,
      "▁唤": 3764,
      "▁唬": 3765,
      "▁售": 3766,
      "▁唯": 3767,
      "▁唱": 3768,
      "▁唷": 3769,
      "▁啃": 3770,
      "▁啄": 3771,
      "▁商": 3772,
      "▁啊": 3773,
      "▁啡": 3774,
      "▁啤": 3775,
      "▁啥": 3776,
      "▁啦": 3777,
      "▁啪": 3778,
      "▁啬": 3779,
      "▁啸": 3780,
      "▁喂": 3781,
      "▁善": 3782,
      "▁喇": 3783,
      "▁喉": 3784,
      "▁喊": 3785,
      "▁喋": 3786,
      "▁喏": 3787,
      "▁喘": 3788,
      "▁喙": 3789,
      "▁喜": 3790,
      "▁喝": 3791,
      "▁喧": 3792,
      "▁喱": 3793,
      "▁喳": 3794,
      "▁喵": 3795,
      "▁喷": 3796,
      "▁喽": 3797,
      "▁嗅": 3798,
      "▁嗒": 3799,
      "▁嗓": 3800,
      "▁嗖": 3801,
      "▁嗝": 3802,
      "▁嗡": 3803,
      "▁嗨": 3804,
      "▁嗬": 3805,
      "▁嗯": 3806,
      "▁嗽": 3807,
      "▁嘀": 3808,
      "▁嘈": 3809,
      "▁嘉": 3810,
      "▁嘎": 3811,
      "▁嘘": 3812,
      "▁嘟": 3813,
      "▁嘭": 3814,
      "▁嘱": 3815,
      "▁嘲": 3816,
      "▁嘴": 3817,
      "▁嘶": 3818,
      "▁嘻": 3819,
      "▁嘿": 3820,
      "▁噎": 3821,
      "▁噗": 3822,
      "▁噜": 3823,
      "▁噢": 3824,
      "▁器": 3825,
      "▁噩": 3826,
      "▁噪": 3827,
      "▁噬": 3828,
      "▁噼": 3829,
      "▁嚎": 3830,
      "▁嚏": 3831,
      "▁嚓": 3832,
      "▁嚣": 3833,
      "▁嚷": 3834,
      "▁嚼": 3835,
      "▁囊": 3836,
      "▁囔": 3837,
      "▁囚": 3838,
      "▁四": 3839,
      "▁回": 3840,
      "▁因": 3841,
      "▁团": 3842,
      "▁园": 3843,
      "▁困": 3844,
      "▁囱": 3845,
      "▁围": 3846,
      "▁固": 3847,
      "▁国": 3848,
      "▁图": 3849,
      "▁圆": 3850,
      "▁圈": 3851,
      "▁土": 3852,
      "▁圣": 3853,
      "▁在": 3854,
      "▁地": 3855,
      "▁场": 3856,
      "▁圾": 3857,
      "▁址": 3858,
      "▁均": 3859,
      "▁坊": 3860,
      "▁坎": 3861,
      "▁坏": 3862,
      "▁坐": 3863,
      "▁坑": 3864,
      "▁块": 3865,
      "▁坚": 3866,
      "▁坛": 3867,
      "▁坝": 3868,
      "▁坟": 3869,
      "▁坠": 3870,
      "▁坡": 3871,
      "▁坦": 3872,
      "▁坪": 3873,
      "▁坷": 3874,
      "▁垂": 3875,
      "▁垃": 3876,
      "▁型": 3877,
      "▁垒": 3878,
      "▁垢": 3879,
      "▁垫": 3880,
      "▁垮": 3881,
      "▁埃": 3882,
      "▁埋": 3883,
      "▁城": 3884,
      "▁域": 3885,
      "▁培": 3886,
      "▁基": 3887,
      "▁堂": 3888,
      "▁堆": 3889,
      "▁堡": 3890,
      "▁堪": 3891,
      "▁堵": 3892,
      "▁塌": 3893,
      "▁塑": 3894,
      "▁塔": 3895,
      "▁塘": 3896,
      "▁塞": 3897,
      "▁填": 3898,
      "▁境": 3899,
      "▁墅": 3900,
      "▁墓": 3901,
      "▁墙": 3902,
      "▁增": 3903,
      "▁墟": 3904,
      "▁墨": 3905,
      "▁壁": 3906,
      "▁壤": 3907,
      "▁士": 3908,
      "▁壮": 3909,
      "▁声": 3910,
      "▁壳": 3911,
      "▁壶": 3912,
      "▁处": 3913,
      "▁备": 3914,
      "▁复": 3915,
      "▁夏": 3916,
      "▁夕": 3917,
      "▁外": 3918,
      "▁多": 3919,
      "▁夜": 3920,
      "▁够": 3921,
      "▁大": 3922,
      "▁天": 3923,
      "▁太": 3924,
      "▁夫": 3925,
      "▁央": 3926,
      "▁失": 3927,
      "▁头": 3928,
      "▁夷": 3929,
      "▁夸": 3930,
      "▁夹": 3931,
      "▁夺": 3932,
      "▁奇": 3933,
      "▁奈": 3934,
      "▁奉": 3935,
      "▁奋": 3936,
      "▁奎": 3937,
      "▁奏": 3938,
      "▁契": 3939,
      "▁奔": 3940,
      "▁奖": 3941,
      "▁套": 3942,
      "▁奢": 3943,
      "▁奥": 3944,
      "▁女": 3945,
      "▁奶": 3946,
      "▁奸": 3947,
      "▁她": 3948,
      "▁好": 3949,
      "▁如": 3950,
      "▁妆": 3951,
      "▁妇": 3952,
      "▁妈": 3953,
      "▁妒": 3954,
      "▁妖": 3955,
      "▁妙": 3956,
      "▁妞": 3957,
      "▁妥": 3958,
      "▁妨": 3959,
      "▁妮": 3960,
      "▁妹": 3961,
      "▁妻": 3962,
      "▁姆": 3963,
      "▁始": 3964,
      "▁姐": 3965,
      "▁姑": 3966,
      "▁姓": 3967,
      "▁委": 3968,
      "▁姜": 3969,
      "▁姨": 3970,
      "▁姬": 3971,
      "▁姻": 3972,
      "▁姿": 3973,
      "▁威": 3974,
      "▁娃": 3975,
      "▁娅": 3976,
      "▁娇": 3977,
      "▁娘": 3978,
      "▁娜": 3979,
      "▁娩": 3980,
      "▁娱": 3981,
      "▁娶": 3982,
      "▁婆": 3983,
      "▁婚": 3984,
      "▁婪": 3985,
      "▁婴": 3986,
      "▁婶": 3987,
      "▁媚": 3988,
      "▁嫁": 3989,
      "▁嫉": 3990,
      "▁嫩": 3991,
      "▁嬉": 3992,
      "▁子": 3993,
      "▁孔": 3994,
      "▁孕": 3995,
      "▁字": 3996,
      "▁存": 3997,
      "▁孙": 3998,
      "▁孚": 3999,
      "▁季": 4000,
      "▁孤": 4001,
      "▁学": 4002,
      "▁孩": 4003,
      "▁孵": 4004,
      "▁宁": 4005,
      "▁它": 4006,
      "▁宅": 4007,
      "▁宇": 4008,
      "▁守": 4009,
      "▁安": 4010,
      "▁完": 4011,
      "▁宏": 4012,
      "▁官": 4013,
      "▁宙": 4014,
      "▁定": 4015,
      "▁宜": 4016,
      "▁宝": 4017,
      "▁实": 4018,
      "▁宠": 4019,
      "▁审": 4020,
      "▁客": 4021,
      "▁宣": 4022,
      "▁室": 4023,
      "▁宫": 4024,
      "▁害": 4025,
      "▁宴": 4026,
      "▁家": 4027,
      "▁容": 4028,
      "▁宽": 4029,
      "▁宾": 4030,
      "▁宿": 4031,
      "▁寂": 4032,
      "▁寄": 4033,
      "▁密": 4034,
      "▁富": 4035,
      "▁寐": 4036,
      "▁寒": 4037,
      "▁寓": 4038,
      "▁寝": 4039,
      "▁察": 4040,
      "▁寸": 4041,
      "▁对": 4042,
      "▁寺": 4043,
      "▁寻": 4044,
      "▁导": 4045,
      "▁寿": 4046,
      "▁封": 4047,
      "▁射": 4048,
      "▁将": 4049,
      "▁尊": 4050,
      "▁小": 4051,
      "▁少": 4052,
      "▁尔": 4053,
      "▁尖": 4054,
      "▁尘": 4055,
      "▁尚": 4056,
      "▁尝": 4057,
      "▁尤": 4058,
      "▁尬": 4059,
      "▁就": 4060,
      "▁尴": 4061,
      "▁尸": 4062,
      "▁尺": 4063,
      "▁尼": 4064,
      "▁尽": 4065,
      "▁尾": 4066,
      "▁尿": 4067,
      "▁局": 4068,
      "▁屁": 4069,
      "▁层": 4070,
      "▁居": 4071,
      "▁屈": 4072,
      "▁屉": 4073,
      "▁屋": 4074,
      "▁屎": 4075,
      "▁屏": 4076,
      "▁屑": 4077,
      "▁展": 4078,
      "▁属": 4079,
      "▁屠": 4080,
      "▁履": 4081,
      "▁山": 4082,
      "▁屹": 4083,
      "▁屿": 4084,
      "▁岁": 4085,
      "▁岔": 4086,
      "▁岖": 4087,
      "▁岗": 4088,
      "▁岛": 4089,
      "▁岩": 4090,
      "▁岭": 4091,
      "▁岸": 4092,
      "▁峦": 4093,
      "▁峭": 4094,
      "▁峰": 4095,
      "▁峻": 4096,
      "▁崇": 4097,
      "▁崎": 4098,
      "▁崔": 4099,
      "▁崖": 4100,
      "▁崛": 4101,
      "▁崩": 4102,
      "▁崭": 4103,
      "▁崽": 4104,
      "▁嵌": 4105,
      "▁巅": 4106,
      "▁川": 4107,
      "▁巡": 4108,
      "▁巢": 4109,
      "▁工": 4110,
      "▁左": 4111,
      "▁巧": 4112,
      "▁巨": 4113,
      "▁巫": 4114,
      "▁差": 4115,
      "▁己": 4116,
      "▁已": 4117,
      "▁巴": 4118,
      "▁巷": 4119,
      "▁巾": 4120,
      "▁币": 4121,
      "▁市": 4122,
      "▁布": 4123,
      "▁帅": 4124,
      "▁帆": 4125,
      "▁师": 4126,
      "▁希": 4127,
      "▁帐": 4128,
      "▁帕": 4129,
      "▁帖": 4130,
      "▁帘": 4131,
      "▁帚": 4132,
      "▁帜": 4133,
      "▁帝": 4134,
      "▁带": 4135,
      "▁席": 4136,
      "▁帮": 4137,
      "▁帷": 4138,
      "▁常": 4139,
      "▁帽": 4140,
      "▁幅": 4141,
      "▁幕": 4142,
      "▁干": 4143,
      "▁平": 4144,
      "▁年": 4145,
      "▁并": 4146,
      "▁幸": 4147,
      "▁幻": 4148,
      "▁幼": 4149,
      "▁幽": 4150,
      "▁广": 4151,
      "▁庄": 4152,
      "▁庆": 4153,
      "▁庇": 4154,
      "▁床": 4155,
      "▁序": 4156,
      "▁库": 4157,
      "▁应": 4158,
      "▁底": 4159,
      "▁店": 4160,
      "▁庙": 4161,
      "▁府": 4162,
      "▁庞": 4163,
      "▁废": 4164,
      "▁度": 4165,
      "▁座": 4166,
      "▁庭": 4167,
      "▁康": 4168,
      "▁庸": 4169,
      "▁廉": 4170,
      "▁廊": 4171,
      "▁延": 4172,
      "▁建": 4173,
      "▁开": 4174,
      "▁异": 4175,
      "▁弃": 4176,
      "▁弄": 4177,
      "▁弊": 4178,
      "▁式": 4179,
      "▁弓": 4180,
      "▁引": 4181,
      "▁弗": 4182,
      "▁弟": 4183,
      "▁张": 4184,
      "▁弥": 4185,
      "▁弦": 4186,
      "▁弧": 4187,
      "▁弯": 4188,
      "▁弱": 4189,
      "▁弹": 4190,
      "▁强": 4191,
      "▁归": 4192,
      "▁当": 4193,
      "▁录": 4194,
      "▁彗": 4195,
      "▁形": 4196,
      "▁彩": 4197,
      "▁彬": 4198,
      "▁彰": 4199,
      "▁影": 4200,
      "▁役": 4201,
      "▁彻": 4202,
      "▁彼": 4203,
      "▁往": 4204,
      "▁征": 4205,
      "▁径": 4206,
      "▁待": 4207,
      "▁很": 4208,
      "▁徊": 4209,
      "▁律": 4210,
      "▁徐": 4211,
      "▁徒": 4212,
      "▁得": 4213,
      "▁徘": 4214,
      "▁御": 4215,
      "▁循": 4216,
      "▁微": 4217,
      "▁德": 4218,
      "▁徽": 4219,
      "▁心": 4220,
      "▁必": 4221,
      "▁忆": 4222,
      "▁忍": 4223,
      "▁志": 4224,
      "▁忘": 4225,
      "▁忙": 4226,
      "▁忠": 4227,
      "▁忡": 4228,
      "▁忧": 4229,
      "▁忪": 4230,
      "▁快": 4231,
      "▁念": 4232,
      "▁忽": 4233,
      "▁怀": 4234,
      "▁态": 4235,
      "▁怂": 4236,
      "▁怎": 4237,
      "▁怒": 4238,
      "▁怕": 4239,
      "▁怖": 4240,
      "▁怜": 4241,
      "▁思": 4242,
      "▁怡": 4243,
      "▁急": 4244,
      "▁性": 4245,
      "▁怨": 4246,
      "▁怪": 4247,
      "▁怯": 4248,
      "▁总": 4249,
      "▁恋": 4250,
      "▁恐": 4251,
      "▁恒": 4252,
      "▁恕": 4253,
      "▁恙": 4254,
      "▁恢": 4255,
      "▁恤": 4256,
      "▁恨": 4257,
      "▁恩": 4258,
      "▁恭": 4259,
      "▁息": 4260,
      "▁恰": 4261,
      "▁恳": 4262,
      "▁恶": 4263,
      "▁恼": 4264,
      "▁恿": 4265,
      "▁悄": 4266,
      "▁悉": 4267,
      "▁悍": 4268,
      "▁悔": 4269,
      "▁悚": 4270,
      "▁悟": 4271,
      "▁悠": 4272,
      "▁患": 4273,
      "▁悦": 4274,
      "▁您": 4275,
      "▁悬": 4276,
      "▁悯": 4277,
      "▁悲": 4278,
      "▁情": 4279,
      "▁惊": 4280,
      "▁惑": 4281,
      "▁惕": 4282,
      "▁惜": 4283,
      "▁惠": 4284,
      "▁惦": 4285,
      "▁惧": 4286,
      "▁惨": 4287,
      "▁惩": 4288,
      "▁惫": 4289,
      "▁惯": 4290,
      "▁惰": 4291,
      "▁想": 4292,
      "▁惹": 4293,
      "▁惺": 4294,
      "▁愁": 4295,
      "▁愈": 4296,
      "▁愉": 4297,
      "▁意": 4298,
      "▁愚": 4299,
      "▁感": 4300,
      "▁愣": 4301,
      "▁愤": 4302,
      "▁愧": 4303,
      "▁愿": 4304,
      "▁慈": 4305,
      "▁慌": 4306,
      "▁慎": 4307,
      "▁慕": 4308,
      "▁慢": 4309,
      "▁慧": 4310,
      "▁慨": 4311,
      "▁慰": 4312,
      "▁慵": 4313,
      "▁慷": 4314,
      "▁憎": 4315,
      "▁憩": 4316,
      "▁憾": 4317,
      "▁懂": 4318,
      "▁懈": 4319,
      "▁懒": 4320,
      "▁戈": 4321,
      "▁戏": 4322,
      "▁成": 4323,
      "▁我": 4324,
      "▁戒": 4325,
      "▁或": 4326,
      "▁战": 4327,
      "▁截": 4328,
      "▁戳": 4329,
      "▁戴": 4330,
      "▁户": 4331,
      "▁房": 4332,
      "▁所": 4333,
      "▁扁": 4334,
      "▁扇": 4335,
      "▁扉": 4336,
      "▁手": 4337,
      "▁才": 4338,
      "▁扎": 4339,
      "▁扑": 4340,
      "▁打": 4341,
      "▁扔": 4342,
      "▁托": 4343,
      "▁扛": 4344,
      "▁扣": 4345,
      "▁执": 4346,
      "▁扩": 4347,
      "▁扫": 4348,
      "▁扬": 4349,
      "▁扭": 4350,
      "▁扮": 4351,
      "▁扯": 4352,
      "▁扰": 4353,
      "▁扳": 4354,
      "▁扶": 4355,
      "▁批": 4356,
      "▁找": 4357,
      "▁承": 4358,
      "▁技": 4359,
      "▁抄": 4360,
      "▁把": 4361,
      "▁抑": 4362,
      "▁抓": 4363,
      "▁投": 4364,
      "▁抖": 4365,
      "▁抗": 4366,
      "▁折": 4367,
      "▁抚": 4368,
      "▁抛": 4369,
      "▁抢": 4370,
      "▁护": 4371,
      "▁报": 4372,
      "▁披": 4373,
      "▁抬": 4374,
      "▁抱": 4375,
      "▁抵": 4376,
      "▁抹": 4377,
      "▁押": 4378,
      "▁抽": 4379,
      "▁抿": 4380,
      "▁拂": 4381,
      "▁拄": 4382,
      "▁担": 4383,
      "▁拆": 4384,
      "▁拇": 4385,
      "▁拉": 4386,
      "▁拌": 4387,
      "▁拍": 4388,
      "▁拎": 4389,
      "▁拐": 4390,
      "▁拒": 4391,
      "▁拔": 4392,
      "▁拖": 4393,
      "▁拙": 4394,
      "▁招": 4395,
      "▁拜": 4396,
      "▁拢": 4397,
      "▁拣": 4398,
      "▁拥": 4399,
      "▁拦": 4400,
      "▁拧": 4401,
      "▁拨": 4402,
      "▁择": 4403,
      "▁括": 4404,
      "▁拭": 4405,
      "▁拯": 4406,
      "▁拳": 4407,
      "▁拴": 4408,
      "▁拼": 4409,
      "▁拽": 4410,
      "▁拾": 4411,
      "▁拿": 4412,
      "▁持": 4413,
      "▁挂": 4414,
      "▁指": 4415,
      "▁按": 4416,
      "▁挑": 4417,
      "▁挖": 4418,
      "▁挠": 4419,
      "▁挡": 4420,
      "▁挣": 4421,
      "▁挤": 4422,
      "▁挥": 4423,
      "▁挨": 4424,
      "▁挪": 4425,
      "▁挫": 4426,
      "▁振": 4427,
      "▁挺": 4428,
      "▁挽": 4429,
      "▁捂": 4430,
      "▁捆": 4431,
      "▁捉": 4432,
      "▁捍": 4433,
      "▁捏": 4434,
      "▁捐": 4435,
      "▁捕": 4436,
      "▁捞": 4437,
      "▁损": 4438,
      "▁捡": 4439,
      "▁换": 4440,
      "▁捣": 4441,
      "▁捧": 4442,
      "▁据": 4443,
      "▁捷": 4444,
      "▁捺": 4445,
      "▁捻": 4446,
      "▁掀": 4447,
      "▁掂": 4448,
      "▁授": 4449,
      "▁掉": 4450,
      "▁掌": 4451,
      "▁掏": 4452,
      "▁掐": 4453,
      "▁排": 4454,
      "▁掖": 4455,
      "▁掘": 4456,
      "▁掠": 4457,
      "▁探": 4458,
      "▁接": 4459,
      "▁控": 4460,
      "▁推": 4461,
      "▁掩": 4462,
      "▁措": 4463,
      "▁掰": 4464,
      "▁掷": 4465,
      "▁掸": 4466,
      "▁揉": 4467,
      "▁描": 4468,
      "▁提": 4469,
      "▁插": 4470,
      "▁握": 4471,
      "▁揣": 4472,
      "▁揪": 4473,
      "▁揭": 4474,
      "▁援": 4475,
      "▁搀": 4476,
      "▁搁": 4477,
      "▁搂": 4478,
      "▁搅": 4479,
      "▁搏": 4480,
      "▁搐": 4481,
      "▁搓": 4482,
      "▁搜": 4483,
      "▁搞": 4484,
      "▁搡": 4485,
      "▁搬": 4486,
      "▁搭": 4487,
      "▁携": 4488,
      "▁摄": 4489,
      "▁摆": 4490,
      "▁摇": 4491,
      "▁摊": 4492,
      "▁摔": 4493,
      "▁摘": 4494,
      "▁摞": 4495,
      "▁摧": 4496,
      "▁摩": 4497,
      "▁摸": 4498,
      "▁撅": 4499,
      "▁撑": 4500,
      "▁撒": 4501,
      "▁撕": 4502,
      "▁撞": 4503,
      "▁撤": 4504,
      "▁撬": 4505,
      "▁播": 4506,
      "▁撮": 4507,
      "▁撼": 4508,
      "▁擀": 4509,
      "▁擂": 4510,
      "▁擅": 4511,
      "▁操": 4512,
      "▁擎": 4513,
      "▁擞": 4514,
      "▁擤": 4515,
      "▁擦": 4516,
      "▁攀": 4517,
      "▁攒": 4518,
      "▁攘": 4519,
      "▁支": 4520,
      "▁收": 4521,
      "▁改": 4522,
      "▁攻": 4523,
      "▁放": 4524,
      "▁政": 4525,
      "▁故": 4526,
      "▁效": 4527,
      "▁敌": 4528,
      "▁敏": 4529,
      "▁救": 4530,
      "▁教": 4531,
      "▁敞": 4532,
      "▁敢": 4533,
      "▁散": 4534,
      "▁敦": 4535,
      "▁敬": 4536,
      "▁数": 4537,
      "▁敲": 4538,
      "▁整": 4539,
      "▁敷": 4540,
      "▁文": 4541,
      "▁斑": 4542,
      "▁斓": 4543,
      "▁斗": 4544,
      "▁料": 4545,
      "▁斜": 4546,
      "▁斤": 4547,
      "▁斥": 4548,
      "▁斧": 4549,
      "▁斩": 4550,
      "▁断": 4551,
      "▁斯": 4552,
      "▁新": 4553,
      "▁方": 4554,
      "▁施": 4555,
      "▁旁": 4556,
      "▁旅": 4557,
      "▁旋": 4558,
      "▁族": 4559,
      "▁旗": 4560,
      "▁无": 4561,
      "▁既": 4562,
      "▁日": 4563,
      "▁旦": 4564,
      "▁旧": 4565,
      "▁旨": 4566,
      "▁早": 4567,
      "▁旱": 4568,
      "▁时": 4569,
      "▁旷": 4570,
      "▁旺": 4571,
      "▁昂": 4572,
      "▁昆": 4573,
      "▁明": 4574,
      "▁昏": 4575,
      "▁易": 4576,
      "▁昔": 4577,
      "▁星": 4578,
      "▁映": 4579,
      "▁春": 4580,
      "▁昨": 4581,
      "▁是": 4582,
      "▁昼": 4583,
      "▁显": 4584,
      "▁晃": 4585,
      "▁晒": 4586,
      "▁晓": 4587,
      "▁晕": 4588,
      "▁晚": 4589,
      "▁晨": 4590,
      "▁普": 4591,
      "▁景": 4592,
      "▁晰": 4593,
      "▁晴": 4594,
      "▁晶": 4595,
      "▁智": 4596,
      "▁晾": 4597,
      "▁暂": 4598,
      "▁暇": 4599,
      "▁暑": 4600,
      "▁暖": 4601,
      "▁暗": 4602,
      "▁暴": 4603,
      "▁曙": 4604,
      "▁曲": 4605,
      "▁曳": 4606,
      "▁更": 4607,
      "▁曼": 4608,
      "▁曾": 4609,
      "▁替": 4610,
      "▁最": 4611,
      "▁月": 4612,
      "▁有": 4613,
      "▁朋": 4614,
      "▁服": 4615,
      "▁朗": 4616,
      "▁望": 4617,
      "▁朝": 4618,
      "▁期": 4619,
      "▁木": 4620,
      "▁未": 4621,
      "▁末": 4622,
      "▁本": 4623,
      "▁术": 4624,
      "▁朱": 4625,
      "▁朴": 4626,
      "▁朵": 4627,
      "▁机": 4628,
      "▁杀": 4629,
      "▁杂": 4630,
      "▁权": 4631,
      "▁杆": 4632,
      "▁李": 4633,
      "▁材": 4634,
      "▁村": 4635,
      "▁杖": 4636,
      "▁杜": 4637,
      "▁束": 4638,
      "▁杠": 4639,
      "▁条": 4640,
      "▁来": 4641,
      "▁杯": 4642,
      "▁杰": 4643,
      "▁松": 4644,
      "▁板": 4645,
      "▁极": 4646,
      "▁构": 4647,
      "▁析": 4648,
      "▁枕": 4649,
      "▁林": 4650,
      "▁枚": 4651,
      "▁果": 4652,
      "▁枝": 4653,
      "▁枪": 4654,
      "▁枫": 4655,
      "▁枯": 4656,
      "▁架": 4657,
      "▁柄": 4658,
      "▁某": 4659,
      "▁染": 4660,
      "▁柔": 4661,
      "▁柜": 4662,
      "▁柠": 4663,
      "▁查": 4664,
      "▁柬": 4665,
      "▁柱": 4666,
      "▁柳": 4667,
      "▁柴": 4668,
      "▁柿": 4669,
      "▁栅": 4670,
      "▁标": 4671,
      "▁栈": 4672,
      "▁栋": 4673,
      "▁栏": 4674,
      "▁树": 4675,
      "▁栓": 4676,
      "▁栖": 4677,
      "▁栗": 4678,
      "▁校": 4679,
      "▁栩": 4680,
      "▁株": 4681,
      "▁样": 4682,
      "▁核": 4683,
      "▁根": 4684,
      "▁格": 4685,
      "▁桂": 4686,
      "▁桃": 4687,
      "▁桅": 4688,
      "▁框": 4689,
      "▁案": 4690,
      "▁桌": 4691,
      "▁桑": 4692,
      "▁档": 4693,
      "▁桥": 4694,
      "▁桨": 4695,
      "▁桩": 4696,
      "▁桶": 4697,
      "▁梁": 4698,
      "▁梅": 4699,
      "▁梦": 4700,
      "▁梧": 4701,
      "▁梨": 4702,
      "▁梭": 4703,
      "▁梯": 4704,
      "▁械": 4705,
      "▁梳": 4706,
      "▁检": 4707,
      "▁棉": 4708,
      "▁棋": 4709,
      "▁棍": 4710,
      "▁棒": 4711,
      "▁棕": 4712,
      "▁棘": 4713,
      "▁棚": 4714,
      "▁森": 4715,
      "▁棵": 4716,
      "▁椅": 4717,
      "▁植": 4718,
      "▁椒": 4719,
      "▁椭": 4720,
      "▁椰": 4721,
      "▁椴": 4722,
      "▁楚": 4723,
      "▁楼": 4724,
      "▁概": 4725,
      "▁榄": 4726,
      "▁榈": 4727,
      "▁榜": 4728,
      "▁榨": 4729,
      "▁槌": 4730,
      "▁槽": 4731,
      "▁模": 4732,
      "▁横": 4733,
      "▁樱": 4734,
      "▁樵": 4735,
      "▁橄": 4736,
      "▁橇": 4737,
      "▁橘": 4738,
      "▁橙": 4739,
      "▁橡": 4740,
      "▁橱": 4741,
      "▁檬": 4742,
      "▁欠": 4743,
      "▁次": 4744,
      "▁欢": 4745,
      "▁欣": 4746,
      "▁欧": 4747,
      "▁欲": 4748,
      "▁欺": 4749,
      "▁款": 4750,
      "▁歇": 4751,
      "▁歉": 4752,
      "▁歌": 4753,
      "▁止": 4754,
      "▁正": 4755,
      "▁此": 4756,
      "▁步": 4757,
      "▁武": 4758,
      "▁歧": 4759,
      "▁歪": 4760,
      "▁死": 4761,
      "▁殊": 4762,
      "▁残": 4763,
      "▁殖": 4764,
      "▁殴": 4765,
      "▁段": 4766,
      "▁殿": 4767,
      "▁毁": 4768,
      "▁毅": 4769,
      "▁母": 4770,
      "▁每": 4771,
      "▁毒": 4772,
      "▁比": 4773,
      "▁毕": 4774,
      "▁毙": 4775,
      "▁毛": 4776,
      "▁毫": 4777,
      "▁毯": 4778,
      "▁民": 4779,
      "▁氓": 4780,
      "▁气": 4781,
      "▁氛": 4782,
      "▁氧": 4783,
      "▁水": 4784,
      "▁永": 4785,
      "▁汀": 4786,
      "▁汁": 4787,
      "▁求": 4788,
      "▁汇": 4789,
      "▁汉": 4790,
      "▁汐": 4791,
      "▁汗": 4792,
      "▁池": 4793,
      "▁污": 4794,
      "▁汤": 4795,
      "▁汪": 4796,
      "▁汹": 4797,
      "▁汽": 4798,
      "▁沃": 4799,
      "▁沉": 4800,
      "▁沐": 4801,
      "▁沙": 4802,
      "▁沛": 4803,
      "▁沟": 4804,
      "▁没": 4805,
      "▁沥": 4806,
      "▁沫": 4807,
      "▁沮": 4808,
      "▁河": 4809,
      "▁沸": 4810,
      "▁油": 4811,
      "▁治": 4812,
      "▁沼": 4813,
      "▁沾": 4814,
      "▁沿": 4815,
      "▁泄": 4816,
      "▁泉": 4817,
      "▁泊": 4818,
      "▁法": 4819,
      "▁泛": 4820,
      "▁泞": 4821,
      "▁泡": 4822,
      "▁波": 4823,
      "▁泣": 4824,
      "▁泥": 4825,
      "▁注": 4826,
      "▁泪": 4827,
      "▁泰": 4828,
      "▁泳": 4829,
      "▁泵": 4830,
      "▁泻": 4831,
      "▁泼": 4832,
      "▁泽": 4833,
      "▁洁": 4834,
      "▁洋": 4835,
      "▁洒": 4836,
      "▁洗": 4837,
      "▁洛": 4838,
      "▁洞": 4839,
      "▁津": 4840,
      "▁洪": 4841,
      "▁洲": 4842,
      "▁活": 4843,
      "▁洼": 4844,
      "▁洽": 4845,
      "▁派": 4846,
      "▁流": 4847,
      "▁浅": 4848,
      "▁浆": 4849,
      "▁浇": 4850,
      "▁浊": 4851,
      "▁测": 4852,
      "▁济": 4853,
      "▁浏": 4854,
      "▁浑": 4855,
      "▁浓": 4856,
      "▁浣": 4857,
      "▁浩": 4858,
      "▁浪": 4859,
      "▁浮": 4860,
      "▁浴": 4861,
      "▁海": 4862,
      "▁浸": 4863,
      "▁涂": 4864,
      "▁消": 4865,
      "▁涉": 4866,
      "▁涌": 4867,
      "▁涎": 4868,
      "▁涕": 4869,
      "▁涛": 4870,
      "▁涟": 4871,
      "▁涡": 4872,
      "▁涤": 4873,
      "▁润": 4874,
      "▁涨": 4875,
      "▁涩": 4876,
      "▁液": 4877,
      "▁涸": 4878,
      "▁淆": 4879,
      "▁淇": 4880,
      "▁淋": 4881,
      "▁淌": 4882,
      "▁淘": 4883,
      "▁淡": 4884,
      "▁深": 4885,
      "▁混": 4886,
      "▁淹": 4887,
      "▁添": 4888,
      "▁清": 4889,
      "▁渊": 4890,
      "▁渍": 4891,
      "▁渐": 4892,
      "▁渔": 4893,
      "▁渗": 4894,
      "▁渡": 4895,
      "▁渣": 4896,
      "▁温": 4897,
      "▁港": 4898,
      "▁渴": 4899,
      "▁游": 4900,
      "▁渺": 4901,
      "▁湍": 4902,
      "▁湖": 4903,
      "▁湾": 4904,
      "▁湿": 4905,
      "▁溃": 4906,
      "▁溅": 4907,
      "▁源": 4908,
      "▁溜": 4909,
      "▁溢": 4910,
      "▁溪": 4911,
      "▁溶": 4912,
      "▁溺": 4913,
      "▁滋": 4914,
      "▁滑": 4915,
      "▁滕": 4916,
      "▁滚": 4917,
      "▁滞": 4918,
      "▁满": 4919,
      "▁滥": 4920,
      "▁滨": 4921,
      "▁滩": 4922,
      "▁滴": 4923,
      "▁漂": 4924,
      "▁漆": 4925,
      "▁漉": 4926,
      "▁漏": 4927,
      "▁演": 4928,
      "▁漠": 4929,
      "▁漩": 4930,
      "▁漪": 4931,
      "▁漫": 4932,
      "▁漱": 4933,
      "▁潘": 4934,
      "▁潜": 4935,
      "▁潭": 4936,
      "▁潮": 4937,
      "▁潺": 4938,
      "▁澈": 4939,
      "▁澜": 4940,
      "▁澡": 4941,
      "▁激": 4942,
      "▁瀑": 4943,
      "▁瀚": 4944,
      "▁灌": 4945,
      "▁火": 4946,
      "▁灭": 4947,
      "▁灯": 4948,
      "▁灰": 4949,
      "▁灵": 4950,
      "▁灶": 4951,
      "▁灼": 4952,
      "▁灾": 4953,
      "▁灿": 4954,
      "▁炉": 4955,
      "▁炎": 4956,
      "▁炒": 4957,
      "▁炖": 4958,
      "▁炙": 4959,
      "▁炫": 4960,
      "▁炭": 4961,
      "▁炮": 4962,
      "▁炸": 4963,
      "▁点": 4964,
      "▁炼": 4965,
      "▁炽": 4966,
      "▁烁": 4967,
      "▁烂": 4968,
      "▁烈": 4969,
      "▁烘": 4970,
      "▁烛": 4971,
      "▁烟": 4972,
      "▁烤": 4973,
      "▁烦": 4974,
      "▁烧": 4975,
      "▁烫": 4976,
      "▁烬": 4977,
      "▁热": 4978,
      "▁烹": 4979,
      "▁焕": 4980,
      "▁焙": 4981,
      "▁焦": 4982,
      "▁焰": 4983,
      "▁然": 4984,
      "▁煌": 4985,
      "▁煎": 4986,
      "▁煤": 4987,
      "▁煦": 4988,
      "▁照": 4989,
      "▁煮": 4990,
      "▁熄": 4991,
      "▁熊": 4992,
      "▁熏": 4993,
      "▁熔": 4994,
      "▁熙": 4995,
      "▁熟": 4996,
      "▁熨": 4997,
      "▁熬": 4998,
      "▁燃": 4999,
      "▁燕": 5000,
      "▁燥": 5001,
      "▁爆": 5002,
      "▁爪": 5003,
      "▁爬": 5004,
      "▁爱": 5005,
      "▁爵": 5006,
      "▁父": 5007,
      "▁爷": 5008,
      "▁爸": 5009,
      "▁爹": 5010,
      "▁爽": 5011,
      "▁片": 5012,
      "▁版": 5013,
      "▁牌": 5014,
      "▁牙": 5015,
      "▁牛": 5016,
      "▁牡": 5017,
      "▁牢": 5018,
      "▁牧": 5019,
      "▁物": 5020,
      "▁牲": 5021,
      "▁牵": 5022,
      "▁特": 5023,
      "▁牺": 5024,
      "▁犀": 5025,
      "▁犁": 5026,
      "▁犊": 5027,
      "▁犬": 5028,
      "▁犯": 5029,
      "▁状": 5030,
      "▁犷": 5031,
      "▁犹": 5032,
      "▁狂": 5033,
      "▁狈": 5034,
      "▁狐": 5035,
      "▁狗": 5036,
      "▁狠": 5037,
      "▁狡": 5038,
      "▁狩": 5039,
      "▁独": 5040,
      "▁狭": 5041,
      "▁狮": 5042,
      "▁狱": 5043,
      "▁狸": 5044,
      "▁狼": 5045,
      "▁猎": 5046,
      "▁猕": 5047,
      "▁猛": 5048,
      "▁猜": 5049,
      "▁猩": 5050,
      "▁猪": 5051,
      "▁猫": 5052,
      "▁猬": 5053,
      "▁献": 5054,
      "▁猴": 5055,
      "▁猾": 5056,
      "▁獭": 5057,
      "▁獾": 5058,
      "▁玄": 5059,
      "▁率": 5060,
      "▁玉": 5061,
      "▁王": 5062,
      "▁玛": 5063,
      "▁玩": 5064,
      "▁玫": 5065,
      "▁环": 5066,
      "▁现": 5067,
      "▁玻": 5068,
      "▁珀": 5069,
      "▁珊": 5070,
      "▁珍": 5071,
      "▁珠": 5072,
      "▁班": 5073,
      "▁球": 5074,
      "▁理": 5075,
      "▁琪": 5076,
      "▁琳": 5077,
      "▁琴": 5078,
      "▁琼": 5079,
      "▁瑚": 5080,
      "▁瑜": 5081,
      "▁瑞": 5082,
      "▁瑟": 5083,
      "▁瑰": 5084,
      "▁璀": 5085,
      "▁璃": 5086,
      "▁璨": 5087,
      "▁瓜": 5088,
      "▁瓢": 5089,
      "▁瓣": 5090,
      "▁瓦": 5091,
      "▁瓶": 5092,
      "▁瓷": 5093,
      "▁甘": 5094,
      "▁甚": 5095,
      "▁甜": 5096,
      "▁生": 5097,
      "▁用": 5098,
      "▁甩": 5099,
      "▁田": 5100,
      "▁由": 5101,
      "▁甲": 5102,
      "▁申": 5103,
      "▁电": 5104,
      "▁男": 5105,
      "▁甸": 5106,
      "▁画": 5107,
      "▁畅": 5108,
      "▁界": 5109,
      "▁畏": 5110,
      "▁留": 5111,
      "▁畜": 5112,
      "▁略": 5113,
      "▁番": 5114,
      "▁疏": 5115,
      "▁疑": 5116,
      "▁疗": 5117,
      "▁疙": 5118,
      "▁疚": 5119,
      "▁疤": 5120,
      "▁疫": 5121,
      "▁疯": 5122,
      "▁疲": 5123,
      "▁疹": 5124,
      "▁疼": 5125,
      "▁疾": 5126,
      "▁病": 5127,
      "▁症": 5128,
      "▁痊": 5129,
      "▁痒": 5130,
      "▁痕": 5131,
      "▁痛": 5132,
      "▁痣": 5133,
      "▁瘀": 5134,
      "▁瘙": 5135,
      "▁瘦": 5136,
      "▁瘩": 5137,
      "▁瘪": 5138,
      "▁瘫": 5139,
      "▁瘸": 5140,
      "▁登": 5141,
      "▁白": 5142,
      "▁百": 5143,
      "▁皂": 5144,
      "▁的": 5145,
      "▁皆": 5146,
      "▁皇": 5147,
      "▁皑": 5148,
      "▁皙": 5149,
      "▁皮": 5150,
      "▁皱": 5151,
      "▁盆": 5152,
      "▁盈": 5153,
      "▁益": 5154,
      "▁盎": 5155,
      "▁盏": 5156,
      "▁盐": 5157,
      "▁监": 5158,
      "▁盒": 5159,
      "▁盔": 5160,
      "▁盖": 5161,
      "▁盗": 5162,
      "▁盘": 5163,
      "▁盛": 5164,
      "▁目": 5165,
      "▁盯": 5166,
      "▁直": 5167,
      "▁相": 5168,
      "▁盹": 5169,
      "▁盼": 5170,
      "▁盾": 5171,
      "▁省": 5172,
      "▁眉": 5173,
      "▁看": 5174,
      "▁真": 5175,
      "▁眠": 5176,
      "▁眨": 5177,
      "▁眩": 5178,
      "▁眯": 5179,
      "▁眶": 5180,
      "▁眺": 5181,
      "▁眼": 5182,
      "▁着": 5183,
      "▁睁": 5184,
      "▁睛": 5185,
      "▁睡": 5186,
      "▁督": 5187,
      "▁睦": 5188,
      "▁睬": 5189,
      "▁睹": 5190,
      "▁睿": 5191,
      "▁瞄": 5192,
      "▁瞌": 5193,
      "▁瞒": 5194,
      "▁瞥": 5195,
      "▁瞧": 5196,
      "▁瞪": 5197,
      "▁瞬": 5198,
      "▁瞰": 5199,
      "▁瞳": 5200,
      "▁矗": 5201,
      "▁矛": 5202,
      "▁矢": 5203,
      "▁知": 5204,
      "▁矩": 5205,
      "▁短": 5206,
      "▁矮": 5207,
      "▁石": 5208,
      "▁矿": 5209,
      "▁码": 5210,
      "▁砂": 5211,
      "▁砌": 5212,
      "▁砍": 5213,
      "▁研": 5214,
      "▁砖": 5215,
      "▁砰": 5216,
      "▁破": 5217,
      "▁砸": 5218,
      "▁础": 5219,
      "▁硕": 5220,
      "▁硬": 5221,
      "▁确": 5222,
      "▁碌": 5223,
      "▁碍": 5224,
      "▁碎": 5225,
      "▁碗": 5226,
      "▁碟": 5227,
      "▁碧": 5228,
      "▁碰": 5229,
      "▁碾": 5230,
      "▁磁": 5231,
      "▁磅": 5232,
      "▁磨": 5233,
      "▁礁": 5234,
      "▁示": 5235,
      "▁礼": 5236,
      "▁社": 5237,
      "▁祈": 5238,
      "▁祖": 5239,
      "▁祝": 5240,
      "▁神": 5241,
      "▁祟": 5242,
      "▁祥": 5243,
      "▁票": 5244,
      "▁祭": 5245,
      "▁祷": 5246,
      "▁祸": 5247,
      "▁禀": 5248,
      "▁禁": 5249,
      "▁福": 5250,
      "▁离": 5251,
      "▁秀": 5252,
      "▁私": 5253,
      "▁秃": 5254,
      "▁秆": 5255,
      "▁秋": 5256,
      "▁种": 5257,
      "▁科": 5258,
      "▁秒": 5259,
      "▁秘": 5260,
      "▁租": 5261,
      "▁秤": 5262,
      "▁秩": 5263,
      "▁积": 5264,
      "▁称": 5265,
      "▁移": 5266,
      "▁稀": 5267,
      "▁程": 5268,
      "▁稍": 5269,
      "▁稠": 5270,
      "▁稣": 5271,
      "▁稳": 5272,
      "▁稻": 5273,
      "▁稼": 5274,
      "▁稽": 5275,
      "▁穆": 5276,
      "▁穗": 5277,
      "▁穴": 5278,
      "▁究": 5279,
      "▁穷": 5280,
      "▁空": 5281,
      "▁穿": 5282,
      "▁突": 5283,
      "▁窃": 5284,
      "▁窄": 5285,
      "▁窍": 5286,
      "▁窒": 5287,
      "▁窗": 5288,
      "▁窜": 5289,
      "▁窝": 5290,
      "▁窣": 5291,
      "▁窥": 5292,
      "▁窸": 5293,
      "▁立": 5294,
      "▁竖": 5295,
      "▁站": 5296,
      "▁竞": 5297,
      "▁竟": 5298,
      "▁章": 5299,
      "▁竣": 5300,
      "▁童": 5301,
      "▁竭": 5302,
      "▁端": 5303,
      "▁竹": 5304,
      "▁竿": 5305,
      "▁笆": 5306,
      "▁笑": 5307,
      "▁笔": 5308,
      "▁笛": 5309,
      "▁符": 5310,
      "▁笨": 5311,
      "▁第": 5312,
      "▁笼": 5313,
      "▁等": 5314,
      "▁筋": 5315,
      "▁筏": 5316,
      "▁筐": 5317,
      "▁筑": 5318,
      "▁筒": 5319,
      "▁答": 5320,
      "▁策": 5321,
      "▁筝": 5322,
      "▁筵": 5323,
      "▁筹": 5324,
      "▁签": 5325,
      "▁简": 5326,
      "▁箍": 5327,
      "▁箔": 5328,
      "▁箕": 5329,
      "▁算": 5330,
      "▁管": 5331,
      "▁箭": 5332,
      "▁箱": 5333,
      "▁篇": 5334,
      "▁篝": 5335,
      "▁篮": 5336,
      "▁篱": 5337,
      "▁篷": 5338,
      "▁簧": 5339,
      "▁簸": 5340,
      "▁簿": 5341,
      "▁籍": 5342,
      "▁米": 5343,
      "▁类": 5344,
      "▁籽": 5345,
      "▁粉": 5346,
      "▁粒": 5347,
      "▁粗": 5348,
      "▁粘": 5349,
      "▁粟": 5350,
      "▁粥": 5351,
      "▁粪": 5352,
      "▁粮": 5353,
      "▁粼": 5354,
      "▁精": 5355,
      "▁糊": 5356,
      "▁糕": 5357,
      "▁糖": 5358,
      "▁糙": 5359,
      "▁糟": 5360,
      "▁系": 5361,
      "▁素": 5362,
      "▁索": 5363,
      "▁紧": 5364,
      "▁紫": 5365,
      "▁累": 5366,
      "▁繁": 5367,
      "▁纠": 5368,
      "▁红": 5369,
      "▁纤": 5370,
      "▁约": 5371,
      "▁级": 5372,
      "▁纪": 5373,
      "▁纫": 5374,
      "▁纬": 5375,
      "▁纯": 5376,
      "▁纱": 5377,
      "▁纳": 5378,
      "▁纵": 5379,
      "▁纷": 5380,
      "▁纸": 5381,
      "▁纹": 5382,
      "▁纺": 5383,
      "▁纽": 5384,
      "▁线": 5385,
      "▁练": 5386,
      "▁组": 5387,
      "▁绅": 5388,
      "▁细": 5389,
      "▁织": 5390,
      "▁终": 5391,
      "▁绊": 5392,
      "▁绍": 5393,
      "▁经": 5394,
      "▁绑": 5395,
      "▁绒": 5396,
      "▁结": 5397,
      "▁绕": 5398,
      "▁绘": 5399,
      "▁给": 5400,
      "▁绚": 5401,
      "▁络": 5402,
      "▁绝": 5403,
      "▁绞": 5404,
      "▁统": 5405,
      "▁继": 5406,
      "▁绩": 5407,
      "▁绪": 5408,
      "▁续": 5409,
      "▁绳": 5410,
      "▁维": 5411,
      "▁绵": 5412,
      "▁绷": 5413,
      "▁绸": 5414,
      "▁绽": 5415,
      "▁绿": 5416,
      "▁缆": 5417,
      "▁缓": 5418,
      "▁缕": 5419,
      "▁编": 5420,
      "▁缘": 5421,
      "▁缚": 5422,
      "▁缝": 5423,
      "▁缠": 5424,
      "▁缤": 5425,
      "▁缩": 5426,
      "▁缪": 5427,
      "▁缭": 5428,
      "▁缮": 5429,
      "▁缰": 5430,
      "▁缸": 5431,
      "▁缺": 5432,
      "▁罂": 5433,
      "▁罐": 5434,
      "▁网": 5435,
      "▁罕": 5436,
      "▁罗": 5437,
      "▁罚": 5438,
      "▁罢": 5439,
      "▁罩": 5440,
      "▁罪": 5441,
      "▁置": 5442,
      "▁署": 5443,
      "▁羊": 5444,
      "▁美": 5445,
      "▁羔": 5446,
      "▁羞": 5447,
      "▁羡": 5448,
      "▁群": 5449,
      "▁羹": 5450,
      "▁羽": 5451,
      "▁翁": 5452,
      "▁翅": 5453,
      "▁翔": 5454,
      "▁翠": 5455,
      "▁翩": 5456,
      "▁翰": 5457,
      "▁翱": 5458,
      "▁翻": 5459,
      "▁翼": 5460,
      "▁耀": 5461,
      "▁老": 5462,
      "▁考": 5463,
      "▁者": 5464,
      "▁而": 5465,
      "▁耍": 5466,
      "▁耐": 5467,
      "▁耕": 5468,
      "▁耗": 5469,
      "▁耙": 5470,
      "▁耳": 5471,
      "▁耶": 5472,
      "▁耷": 5473,
      "▁耸": 5474,
      "▁耻": 5475,
      "▁耽": 5476,
      "▁聆": 5477,
      "▁聊": 5478,
      "▁聋": 5479,
      "▁职": 5480,
      "▁联": 5481,
      "▁聘": 5482,
      "▁聚": 5483,
      "▁聪": 5484,
      "▁肃": 5485,
      "▁肆": 5486,
      "▁肉": 5487,
      "▁肌": 5488,
      "▁肖": 5489,
      "▁肘": 5490,
      "▁肚": 5491,
      "▁肠": 5492,
      "▁股": 5493,
      "▁肢": 5494,
      "▁肤": 5495,
      "▁肥": 5496,
      "▁肩": 5497,
      "▁肪": 5498,
      "▁肮": 5499,
      "▁肯": 5500,
      "▁育": 5501,
      "▁肴": 5502,
      "▁肺": 5503,
      "▁肿": 5504,
      "▁胀": 5505,
      "▁胁": 5506,
      "▁胃": 5507,
      "▁胆": 5508,
      "▁背": 5509,
      "▁胎": 5510,
      "▁胖": 5511,
      "▁胜": 5512,
      "▁胞": 5513,
      "▁胡": 5514,
      "▁胳": 5515,
      "▁胶": 5516,
      "▁胸": 5517,
      "▁能": 5518,
      "▁脂": 5519,
      "▁脆": 5520,
      "▁脉": 5521,
      "▁脊": 5522,
      "▁脏": 5523,
      "▁脑": 5524,
      "▁脖": 5525,
      "▁脚": 5526,
      "▁脱": 5527,
      "▁脸": 5528,
      "▁脾": 5529,
      "▁腋": 5530,
      "▁腐": 5531,
      "▁腔": 5532,
      "▁腕": 5533,
      "▁腥": 5534,
      "▁腮": 5535,
      "▁腰": 5536,
      "▁腹": 5537,
      "▁腻": 5538,
      "▁腾": 5539,
      "▁腿": 5540,
      "▁膀": 5541,
      "▁膊": 5542,
      "▁膏": 5543,
      "▁膛": 5544,
      "▁膜": 5545,
      "▁膝": 5546,
      "▁膨": 5547,
      "▁膳": 5548,
      "▁臀": 5549,
      "▁臂": 5550,
      "▁臣": 5551,
      "▁自": 5552,
      "▁臭": 5553,
      "▁至": 5554,
      "▁致": 5555,
      "▁舀": 5556,
      "▁舅": 5557,
      "▁舌": 5558,
      "▁舍": 5559,
      "▁舐": 5560,
      "▁舒": 5561,
      "▁舔": 5562,
      "▁舞": 5563,
      "▁舟": 5564,
      "▁航": 5565,
      "▁般": 5566,
      "▁舰": 5567,
      "▁舱": 5568,
      "▁舵": 5569,
      "▁船": 5570,
      "▁艇": 5571,
      "▁艘": 5572,
      "▁良": 5573,
      "▁艰": 5574,
      "▁色": 5575,
      "▁艳": 5576,
      "▁艺": 5577,
      "▁艾": 5578,
      "▁节": 5579,
      "▁芒": 5580,
      "▁芙": 5581,
      "▁芝": 5582,
      "▁芥": 5583,
      "▁芦": 5584,
      "▁芬": 5585,
      "▁芭": 5586,
      "▁芯": 5587,
      "▁花": 5588,
      "▁芳": 5589,
      "▁芹": 5590,
      "▁芽": 5591,
      "▁苇": 5592,
      "▁苍": 5593,
      "▁苏": 5594,
      "▁苔": 5595,
      "▁苗": 5596,
      "▁苛": 5597,
      "▁若": 5598,
      "▁苦": 5599,
      "▁英": 5600,
      "▁苹": 5601,
      "▁茁": 5602,
      "▁茂": 5603,
      "▁范": 5604,
      "▁茄": 5605,
      "▁茅": 5606,
      "▁茉": 5607,
      "▁茎": 5608,
      "▁茛": 5609,
      "▁茜": 5610,
      "▁茧": 5611,
      "▁茨": 5612,
      "▁茫": 5613,
      "▁茵": 5614,
      "▁茶": 5615,
      "▁茸": 5616,
      "▁荆": 5617,
      "▁草": 5618,
      "▁荐": 5619,
      "▁荒": 5620,
      "▁荚": 5621,
      "▁荡": 5622,
      "▁荣": 5623,
      "▁荧": 5624,
      "▁荫": 5625,
      "▁药": 5626,
      "▁荷": 5627,
      "▁莉": 5628,
      "▁莎": 5629,
      "▁莓": 5630,
      "▁莫": 5631,
      "▁莱": 5632,
      "▁莲": 5633,
      "▁获": 5634,
      "▁莹": 5635,
      "▁莽": 5636,
      "▁菇": 5637,
      "▁菊": 5638,
      "▁菌": 5639,
      "▁菜": 5640,
      "▁菠": 5641,
      "▁菲": 5642,
      "▁萄": 5643,
      "▁萌": 5644,
      "▁萍": 5645,
      "▁萎": 5646,
      "▁萝": 5647,
      "▁萤": 5648,
      "▁营": 5649,
      "▁萨": 5650,
      "▁落": 5651,
      "▁著": 5652,
      "▁葡": 5653,
      "▁董": 5654,
      "▁葬": 5655,
      "▁葱": 5656,
      "▁葵": 5657,
      "▁蒂": 5658,
      "▁蒙": 5659,
      "▁蒜": 5660,
      "▁蒲": 5661,
      "▁蒸": 5662,
      "▁蓄": 5663,
      "▁蓉": 5664,
      "▁蓝": 5665,
      "▁蓬": 5666,
      "▁蔓": 5667,
      "▁蔚": 5668,
      "▁蔬": 5669,
      "▁蔷": 5670,
      "▁蔼": 5671,
      "▁蔽": 5672,
      "▁蕉": 5673,
      "▁蕴": 5674,
      "▁蕾": 5675,
      "▁薄": 5676,
      "▁薇": 5677,
      "▁薯": 5678,
      "▁薰": 5679,
      "▁藉": 5680,
      "▁藏": 5681,
      "▁藓": 5682,
      "▁藤": 5683,
      "▁藻": 5684,
      "▁蘑": 5685,
      "▁蘸": 5686,
      "▁虎": 5687,
      "▁虐": 5688,
      "▁虑": 5689,
      "▁虚": 5690,
      "▁虞": 5691,
      "▁虫": 5692,
      "▁虹": 5693,
      "▁虽": 5694,
      "▁虾": 5695,
      "▁蚁": 5696,
      "▁蚂": 5697,
      "▁蚊": 5698,
      "▁蚤": 5699,
      "▁蚪": 5700,
      "▁蚱": 5701,
      "▁蛀": 5702,
      "▁蛇": 5703,
      "▁蛋": 5704,
      "▁蛎": 5705,
      "▁蛙": 5706,
      "▁蛛": 5707,
      "▁蛤": 5708,
      "▁蛮": 5709,
      "▁蛰": 5710,
      "▁蜂": 5711,
      "▁蜇": 5712,
      "▁蜊": 5713,
      "▁蜍": 5714,
      "▁蜒": 5715,
      "▁蜓": 5716,
      "▁蜗": 5717,
      "▁蜘": 5718,
      "▁蜜": 5719,
      "▁蜡": 5720,
      "▁蜢": 5721,
      "▁蜥": 5722,
      "▁蜴": 5723,
      "▁蜷": 5724,
      "▁蜻": 5725,
      "▁蜿": 5726,
      "▁蝇": 5727,
      "▁蝌": 5728,
      "▁蝙": 5729,
      "▁蝠": 5730,
      "▁蝴": 5731,
      "▁蝶": 5732,
      "▁螃": 5733,
      "▁融": 5734,
      "▁螺": 5735,
      "▁蟀": 5736,
      "▁蟋": 5737,
      "▁蟹": 5738,
      "▁蟾": 5739,
      "▁蠕": 5740,
      "▁蠖": 5741,
      "▁蠢": 5742,
      "▁血": 5743,
      "▁衅": 5744,
      "▁行": 5745,
      "▁衔": 5746,
      "▁街": 5747,
      "▁衡": 5748,
      "▁衣": 5749,
      "▁补": 5750,
      "▁表": 5751,
      "▁衫": 5752,
      "▁衬": 5753,
      "▁衷": 5754,
      "▁袋": 5755,
      "▁袍": 5756,
      "▁袖": 5757,
      "▁袜": 5758,
      "▁被": 5759,
      "▁袭": 5760,
      "▁裁": 5761,
      "▁裂": 5762,
      "▁装": 5763,
      "▁裕": 5764,
      "▁裙": 5765,
      "▁裤": 5766,
      "▁裹": 5767,
      "▁裾": 5768,
      "▁褂": 5769,
      "▁褐": 5770,
      "▁褪": 5771,
      "▁褶": 5772,
      "▁西": 5773,
      "▁要": 5774,
      "▁覆": 5775,
      "▁见": 5776,
      "▁观": 5777,
      "▁规": 5778,
      "▁视": 5779,
      "▁览": 5780,
      "▁觉": 5781,
      "▁觑": 5782,
      "▁角": 5783,
      "▁解": 5784,
      "▁触": 5785,
      "▁言": 5786,
      "▁詹": 5787,
      "▁誉": 5788,
      "▁誓": 5789,
      "▁警": 5790,
      "▁计": 5791,
      "▁订": 5792,
      "▁认": 5793,
      "▁讨": 5794,
      "▁让": 5795,
      "▁训": 5796,
      "▁议": 5797,
      "▁讯": 5798,
      "▁记": 5799,
      "▁讲": 5800,
      "▁讶": 5801,
      "▁许": 5802,
      "▁论": 5803,
      "▁设": 5804,
      "▁访": 5805,
      "▁诀": 5806,
      "▁证": 5807,
      "▁评": 5808,
      "▁诅": 5809,
      "▁识": 5810,
      "▁诉": 5811,
      "▁诊": 5812,
      "▁词": 5813,
      "▁试": 5814,
      "▁诗": 5815,
      "▁诚": 5816,
      "▁话": 5817,
      "▁诞": 5818,
      "▁诡": 5819,
      "▁询": 5820,
      "▁该": 5821,
      "▁详": 5822,
      "▁诫": 5823,
      "▁语": 5824,
      "▁误": 5825,
      "▁诱": 5826,
      "▁诲": 5827,
      "▁说": 5828,
      "▁诵": 5829,
      "▁请": 5830,
      "▁诸": 5831,
      "▁诺": 5832,
      "▁读": 5833,
      "▁课": 5834,
      "▁谁": 5835,
      "▁调": 5836,
      "▁谅": 5837,
      "▁谈": 5838,
      "▁谊": 5839,
      "▁谋": 5840,
      "▁谍": 5841,
      "▁谎": 5842,
      "▁谐": 5843,
      "▁谓": 5844,
      "▁谜": 5845,
      "▁谢": 5846,
      "▁谦": 5847,
      "▁谨": 5848,
      "▁谱": 5849,
      "▁谷": 5850,
      "▁豆": 5851,
      "▁豌": 5852,
      "▁豚": 5853,
      "▁象": 5854,
      "▁豪": 5855,
      "▁豫": 5856,
      "▁豹": 5857,
      "▁貌": 5858,
      "▁贝": 5859,
      "▁负": 5860,
      "▁贡": 5861,
      "▁财": 5862,
      "▁责": 5863,
      "▁败": 5864,
      "▁账": 5865,
      "▁货": 5866,
      "▁质": 5867,
      "▁贩": 5868,
      "▁贪": 5869,
      "▁贫": 5870,
      "▁购": 5871,
      "▁贯": 5872,
      "▁贴": 5873,
      "▁贵": 5874,
      "▁贷": 5875,
      "▁贸": 5876,
      "▁费": 5877,
      "▁贺": 5878,
      "▁贼": 5879,
      "▁贾": 5880,
      "▁资": 5881,
      "▁赋": 5882,
      "▁赌": 5883,
      "▁赏": 5884,
      "▁赐": 5885,
      "▁赔": 5886,
      "▁赖": 5887,
      "▁赚": 5888,
      "▁赛": 5889,
      "▁赞": 5890,
      "▁赠": 5891,
      "▁赢": 5892,
      "▁赤": 5893,
      "▁赫": 5894,
      "▁走": 5895,
      "▁赴": 5896,
      "▁赶": 5897,
      "▁起": 5898,
      "▁趁": 5899,
      "▁超": 5900,
      "▁越": 5901,
      "▁趟": 5902,
      "▁趣": 5903,
      "▁足": 5904,
      "▁趴": 5905,
      "▁趾": 5906,
      "▁跃": 5907,
      "▁跄": 5908,
      "▁跋": 5909,
      "▁跌": 5910,
      "▁跑": 5911,
      "▁跚": 5912,
      "▁距": 5913,
      "▁跟": 5914,
      "▁跤": 5915,
      "▁跨": 5916,
      "▁跪": 5917,
      "▁路": 5918,
      "▁跳": 5919,
      "▁践": 5920,
      "▁跷": 5921,
      "▁跺": 5922,
      "▁踉": 5923,
      "▁踏": 5924,
      "▁踝": 5925,
      "▁踢": 5926,
      "▁踩": 5927,
      "▁踪": 5928,
      "▁踮": 5929,
      "▁踱": 5930,
      "▁蹄": 5931,
      "▁蹈": 5932,
      "▁蹑": 5933,
      "▁蹒": 5934,
      "▁蹦": 5935,
      "▁蹬": 5936,
      "▁蹭": 5937,
      "▁蹲": 5938,
      "▁蹼": 5939,
      "▁蹿": 5940,
      "▁躁": 5941,
      "▁身": 5942,
      "▁躬": 5943,
      "▁躯": 5944,
      "▁躲": 5945,
      "▁躺": 5946,
      "▁车": 5947,
      "▁轨": 5948,
      "▁转": 5949,
      "▁轮": 5950,
      "▁软": 5951,
      "▁轰": 5952,
      "▁轴": 5953,
      "▁轻": 5954,
      "▁载": 5955,
      "▁轿": 5956,
      "▁较": 5957,
      "▁辅": 5958,
      "▁辆": 5959,
      "▁辈": 5960,
      "▁辉": 5961,
      "▁辑": 5962,
      "▁输": 5963,
      "▁辙": 5964,
      "▁辛": 5965,
      "▁辜": 5966,
      "▁辞": 5967,
      "▁辟": 5968,
      "▁辣": 5969,
      "▁辨": 5970,
      "▁辩": 5971,
      "▁辫": 5972,
      "▁辰": 5973,
      "▁辱": 5974,
      "▁边": 5975,
      "▁达": 5976,
      "▁迄": 5977,
      "▁迅": 5978,
      "▁过": 5979,
      "▁迈": 5980,
      "▁迎": 5981,
      "▁运": 5982,
      "▁近": 5983,
      "▁返": 5984,
      "▁还": 5985,
      "▁这": 5986,
      "▁进": 5987,
      "▁远": 5988,
      "▁违": 5989,
      "▁连": 5990,
      "▁迟": 5991,
      "▁迢": 5992,
      "▁迦": 5993,
      "▁迪": 5994,
      "▁迫": 5995,
      "▁迭": 5996,
      "▁述": 5997,
      "▁迷": 5998,
      "▁迹": 5999,
      "▁追": 6000,
      "▁退": 6001,
      "▁送": 6002,
      "▁适": 6003,
      "▁逃": 6004,
      "▁逆": 6005,
      "▁选": 6006,
      "▁逊": 6007,
      "▁透": 6008,
      "▁逐": 6009,
      "▁递": 6010,
      "▁途": 6011,
      "▁逗": 6012,
      "▁通": 6013,
      "▁逛": 6014,
      "▁逝": 6015,
      "▁逞": 6016,
      "▁速": 6017,
      "▁造": 6018,
      "▁逢": 6019,
      "▁逮": 6020,
      "▁逸": 6021,
      "▁逼": 6022,
      "▁遇": 6023,
      "▁遍": 6024,
      "▁道": 6025,
      "▁遗": 6026,
      "▁遛": 6027,
      "▁遢": 6028,
      "▁遥": 6029,
      "▁遭": 6030,
      "▁遮": 6031,
      "▁遵": 6032,
      "▁避": 6033,
      "▁邀": 6034,
      "▁邃": 6035,
      "▁邋": 6036,
      "▁那": 6037,
      "▁邦": 6038,
      "▁邪": 6039,
      "▁邮": 6040,
      "▁邻": 6041,
      "▁郁": 6042,
      "▁郊": 6043,
      "▁郎": 6044,
      "▁部": 6045,
      "▁都": 6046,
      "▁鄙": 6047,
      "▁配": 6048,
      "▁酒": 6049,
      "▁酝": 6050,
      "▁酥": 6051,
      "▁酪": 6052,
      "▁酬": 6053,
      "▁酱": 6054,
      "▁酵": 6055,
      "▁酷": 6056,
      "▁酸": 6057,
      "▁酿": 6058,
      "▁醋": 6059,
      "▁醒": 6060,
      "▁采": 6061,
      "▁释": 6062,
      "▁里": 6063,
      "▁重": 6064,
      "▁野": 6065,
      "▁量": 6066,
      "▁金": 6067,
      "▁鉴": 6068,
      "▁针": 6069,
      "▁钉": 6070,
      "▁钓": 6071,
      "▁钝": 6072,
      "▁钞": 6073,
      "▁钟": 6074,
      "▁钢": 6075,
      "▁钥": 6076,
      "▁钦": 6077,
      "▁钧": 6078,
      "▁钩": 6079,
      "▁钮": 6080,
      "▁钱": 6081,
      "▁钳": 6082,
      "▁钻": 6083,
      "▁铁": 6084,
      "▁铃": 6085,
      "▁铅": 6086,
      "▁铐": 6087,
      "▁铛": 6088,
      "▁铜": 6089,
      "▁铠": 6090,
      "▁铭": 6091,
      "▁铲": 6092,
      "▁银": 6093,
      "▁铺": 6094,
      "▁链": 6095,
      "▁销": 6096,
      "▁锁": 6097,
      "▁锃": 6098,
      "▁锅": 6099,
      "▁锈": 6100,
      "▁锉": 6101,
      "▁锋": 6102,
      "▁锐": 6103,
      "▁错": 6104,
      "▁锚": 6105,
      "▁锤": 6106,
      "▁锥": 6107,
      "▁锦": 6108,
      "▁键": 6109,
      "▁锯": 6110,
      "▁锹": 6111,
      "▁锻": 6112,
      "▁镇": 6113,
      "▁镐": 6114,
      "▁镖": 6115,
      "▁镜": 6116,
      "▁镯": 6117,
      "▁镳": 6118,
      "▁镶": 6119,
      "▁长": 6120,
      "▁门": 6121,
      "▁闩": 6122,
      "▁闪": 6123,
      "▁闭": 6124,
      "▁问": 6125,
      "▁闯": 6126,
      "▁闲": 6127,
      "▁间": 6128,
      "▁闷": 6129,
      "▁闸": 6130,
      "▁闹": 6131,
      "▁闻": 6132,
      "▁阁": 6133,
      "▁阅": 6134,
      "▁阔": 6135,
      "▁队": 6136,
      "▁阱": 6137,
      "▁防": 6138,
      "▁阳": 6139,
      "▁阴": 6140,
      "▁阵": 6141,
      "▁阶": 6142,
      "▁阻": 6143,
      "▁阿": 6144,
      "▁陀": 6145,
      "▁附": 6146,
      "▁际": 6147,
      "▁陆": 6148,
      "▁陈": 6149,
      "▁陋": 6150,
      "▁陌": 6151,
      "▁降": 6152,
      "▁限": 6153,
      "▁陛": 6154,
      "▁陡": 6155,
      "▁院": 6156,
      "▁除": 6157,
      "▁陨": 6158,
      "▁险": 6159,
      "▁陪": 6160,
      "▁陶": 6161,
      "▁陷": 6162,
      "▁隆": 6163,
      "▁随": 6164,
      "▁隐": 6165,
      "▁隔": 6166,
      "▁隙": 6167,
      "▁障": 6168,
      "▁隧": 6169,
      "▁难": 6170,
      "▁雀": 6171,
      "▁雁": 6172,
      "▁雄": 6173,
      "▁雅": 6174,
      "▁集": 6175,
      "▁雇": 6176,
      "▁雏": 6177,
      "▁雕": 6178,
      "▁雨": 6179,
      "▁雪": 6180,
      "▁零": 6181,
      "▁雷": 6182,
      "▁雾": 6183,
      "▁需": 6184,
      "▁霄": 6185,
      "▁霆": 6186,
      "▁震": 6187,
      "▁霉": 6188,
      "▁霍": 6189,
      "▁霜": 6190,
      "▁露": 6191,
      "▁霸": 6192,
      "▁青": 6193,
      "▁静": 6194,
      "▁非": 6195,
      "▁靠": 6196,
      "▁面": 6197,
      "▁革": 6198,
      "▁靴": 6199,
      "▁靶": 6200,
      "▁鞋": 6201,
      "▁鞍": 6202,
      "▁鞠": 6203,
      "▁鞭": 6204,
      "▁韦": 6205,
      "▁韧": 6206,
      "▁音": 6207,
      "▁韵": 6208,
      "▁页": 6209,
      "▁顶": 6210,
      "▁项": 6211,
      "▁顺": 6212,
      "▁须": 6213,
      "▁顽": 6214,
      "▁顾": 6215,
      "▁顿": 6216,
      "▁颁": 6217,
      "▁预": 6218,
      "▁颅": 6219,
      "▁领": 6220,
      "▁颈": 6221,
      "▁颊": 6222,
      "▁频": 6223,
      "▁颖": 6224,
      "▁颗": 6225,
      "▁题": 6226,
      "▁颜": 6227,
      "▁额": 6228,
      "▁颠": 6229,
      "▁颤": 6230,
      "▁风": 6231,
      "▁飓": 6232,
      "▁飘": 6233,
      "▁飞": 6234,
      "▁食": 6235,
      "▁餐": 6236,
      "▁饥": 6237,
      "▁饪": 6238,
      "▁饭": 6239,
      "▁饮": 6240,
      "▁饰": 6241,
      "▁饱": 6242,
      "▁饲": 6243,
      "▁饵": 6244,
      "▁饶": 6245,
      "▁饼": 6246,
      "▁饿": 6247,
      "▁馅": 6248,
      "▁馆": 6249,
      "▁馈": 6250,
      "▁首": 6251,
      "▁香": 6252,
      "▁馨": 6253,
      "▁马": 6254,
      "▁驭": 6255,
      "▁驮": 6256,
      "▁驯": 6257,
      "▁驰": 6258,
      "▁驱": 6259,
      "▁驳": 6260,
      "▁驴": 6261,
      "▁驶": 6262,
      "▁驹": 6263,
      "▁驻": 6264,
      "▁驼": 6265,
      "▁驾": 6266,
      "▁骂": 6267,
      "▁骄": 6268,
      "▁骆": 6269,
      "▁骋": 6270,
      "▁验": 6271,
      "▁骑": 6272,
      "▁骗": 6273,
      "▁骚": 6274,
      "▁骡": 6275,
      "▁骤": 6276,
      "▁骨": 6277,
      "▁骰": 6278,
      "▁骷": 6279,
      "▁骸": 6280,
      "▁骼": 6281,
      "▁髅": 6282,
      "▁高": 6283,
      "▁髦": 6284,
      "▁鬃": 6285,
      "▁鬣": 6286,
      "▁鬼": 6287,
      "▁魁": 6288,
      "▁魂": 6289,
      "▁魅": 6290,
      "▁魏": 6291,
      "▁魔": 6292,
      "▁鱼": 6293,
      "▁鲁": 6294,
      "▁鲍": 6295,
      "▁鲜": 6296,
      "▁鲨": 6297,
      "▁鲸": 6298,
      "▁鳄": 6299,
      "▁鳍": 6300,
      "▁鳞": 6301,
      "▁鸟": 6302,
      "▁鸡": 6303,
      "▁鸣": 6304,
      "▁鸥": 6305,
      "▁鸦": 6306,
      "▁鸭": 6307,
      "▁鸵": 6308,
      "▁鸽": 6309,
      "▁鹅": 6310,
      "▁鹉": 6311,
      "▁鹊": 6312,
      "▁鹤": 6313,
      "▁鹦": 6314,
      "▁鹰": 6315,
      "▁鹿": 6316,
      "▁麦": 6317,
      "▁麻": 6318,
      "▁黄": 6319,
      "▁黎": 6320,
      "▁黏": 6321,
      "▁黑": 6322,
      "▁默": 6323,
      "▁黛": 6324,
      "▁黝": 6325,
      "▁黯": 6326,
      "▁鼓": 6327,
      "▁鼠": 6328,
      "▁鼬": 6329,
      "▁鼹": 6330,
      "▁鼻": 6331,
      "▁鼾": 6332,
      "▁齐": 6333,
      "▁齿": 6334,
      "▁龄": 6335,
      "▁龈": 6336,
      "▁龙": 6337,
      "▁龟": 6338,
      "他们": 6339,
      "▁他们": 6340,
      "有一": 6341,
      "▁有一": 6342,
      "莉莉": 6343,
      "▁莉莉": 6344,
      "妈妈": 6345,
      "▁妈妈": 6346,
      "喜欢": 6347,
      "▁喜欢": 6348,
      "一个": 6349,
      "▁一个": 6350,
      "朋友": 6351,
      "▁朋友": 6352,
      "看到": 6353,
      "▁看到": 6354,
      "有一天": 6355,
      "▁有一天": 6356,
      "蒂姆": 6357,
      "▁蒂姆": 6358,
      "名叫": 6359,
      "▁名叫": 6360,
      "一起": 6361,
      "▁一起": 6362,
      "高兴": 6363,
      "▁高兴": 6364,
      "从前": 6365,
      "▁从前": 6366,
      "他的": 6367,
      "▁他的": 6368,
      "有一个": 6369,
      "▁有一个": 6370,
      "蒂米": 6371,
      "▁蒂米": 6372,
      "了一": 6373,
      "▁了一": 6374,
      "她的": 6375,
      "▁她的": 6376,
      "非常": 6377,
      "▁非常": 6378,
      "可以": 6379,
      "▁可以": 6380,
      "玩具": 6381,
      "▁玩具": 6382,
      "我们": 6383,
      "▁我们": 6384,
      "女孩": 6385,
      "▁女孩": 6386,
      "很高兴": 6387,
      "▁很高兴": 6388,
      "汤姆": 6389,
      "▁汤姆": 6390,
      "小女孩": 6391,
      "▁小女孩": 6392,
      "感到": 6393,
      "▁感到": 6394,
      "玩耍": 6395,
      "▁玩耍": 6396,
      "知道": 6397,
      "▁知道": 6398,
      "克斯": 6399,
      "▁克斯": 6400,
      "男孩": 6401,
      "▁男孩": 6402,
      "帮助": 6403,
      "▁帮助": 6404,
      "开始": 6405,
      "▁开始": 6406,
      "一只": 6407,
      "▁一只": 6408,
      "到了": 6409,
      "▁到了": 6410,
      "什么": 6411,
      "▁什么": 6412,
      "自己": 6413,
      "▁自己": 6414,
      "发现": 6415,
      "▁发现": 6416,
      "公园": 6417,
      "▁公园": 6418,
      "小鸟": 6419,
      "▁小鸟": 6420,
      "麦克斯": 6421,
      "▁麦克斯": 6422,
      "起来": 6423,
      "▁起来": 6424,
      "得很": 6425,
      "▁得很": 6426,
      "名叫莉莉": 6427,
      "▁名叫莉莉": 6428,
      "没有": 6429,
      "▁没有": 6430,
      "她妈妈": 6431,
      "▁她妈妈": 6432,
      "开心": 6433,
      "▁开心": 6434,
      "东西": 6435,
      "▁东西": 6436,
      "那天": 6437,
      "▁那天": 6438,
      "有一个小女孩": 6439,
      "▁有一个小女孩": 6440,
      "朋友们": 6441,
      "▁朋友们": 6442,
      "笑着": 6443,
      "▁笑着": 6444,
      "因为": 6445,
      "▁因为": 6446,
      "的妈妈": 6447,
      "▁的妈妈": 6448,
      "了一个": 6449,
      "▁了一个": 6450,
      "一起玩": 6451,
      "▁一起玩": 6452,
      "这个": 6453,
      "▁这个": 6454,
      "害怕": 6455,
      "▁害怕": 6456,
      "她喜欢": 6457,
      "▁她喜欢": 6458,
      "有一只": 6459,
      "▁有一只": 6460,
      "从那天": 6461,
      "▁从那天": 6462,
      "然后": 6463,
      "▁然后": 6464,
      "的朋友": 6465,
      "▁的朋友": 6466,
      "从那天起": 6467,
      "▁从那天起": 6468,
      "伤心": 6469,
      "▁伤心": 6470,
      "得很开心": 6471,
      "▁得很开心": 6472,
      "事情": 6473,
      "▁事情": 6474,
      "把它": 6475,
      "▁把它": 6476,
      "告诉": 6477,
      "▁告诉": 6478,
      "爸爸": 6479,
      "▁爸爸": 6480,
      "小男孩": 6481,
      "▁小男孩": 6482,
      "决定": 6483,
      "▁决定": 6484,
      "突然": 6485,
      "▁突然": 6486,
      "外面": 6487,
      "▁外面": 6488,
      "微笑着": 6489,
      "▁微笑着": 6490,
      "说道": 6491,
      "▁说道": 6492,
      "回家": 6493,
      "▁回家": 6494,
      "这是": 6495,
      "▁这是": 6496,
      "小心": 6497,
      "▁小心": 6498,
      "看到了": 6499,
      "▁看到了": 6500,
      "玩得很开心": 6501,
      "▁玩得很开心": 6502,
      "子里": 6503,
      "▁子里": 6504,
      "漂亮": 6505,
      "▁漂亮": 6506,
      "下来": 6507,
      "▁下来": 6508,
      "很多": 6509,
      "▁很多": 6510,
      "感觉": 6511,
      "▁感觉": 6512,
      "于是": 6513,
      "▁于是": 6514,
      "很伤心": 6515,
      "▁很伤心": 6516,
      "我的": 6517,
      "▁我的": 6518,
      "有趣": 6519,
      "▁有趣": 6520,
      "的事情": 6521,
      "▁的事情": 6522,
      "找到": 6523,
      "▁找到": 6524,
      "色的": 6525,
      "▁色的": 6526,
      "一些": 6527,
      "▁一些": 6528,
      "看着": 6529,
      "▁看着": 6530,
      "试图": 6531,
      "▁试图": 6532,
      "你的": 6533,
      "▁你的": 6534,
      "发生": 6535,
      "▁发生": 6536,
      "每天": 6537,
      "▁每天": 6538,
      "不到": 6539,
      "▁不到": 6540,
      "她说": 6541,
      "▁她说": 6542,
      "时候": 6543,
      "▁时候": 6544,
      "正在": 6545,
      "▁正在": 6546,
      "和他的": 6547,
      "▁和他的": 6548,
      "不知道": 6549,
      "▁不知道": 6550,
      "分享": 6551,
      "▁分享": 6552,
      "莉莉和": 6553,
      "▁莉莉和": 6554,
      "所有": 6555,
      "▁所有": 6556,
      "但他": 6557,
      "▁但他": 6558,
      "需要": 6559,
      "▁需要": 6560,
      "总是": 6561,
      "▁总是": 6562,
      "兔子": 6563,
      "▁兔子": 6564,
      "米娅": 6565,
      "▁米娅": 6566,
      "动物": 6567,
      "▁动物": 6568,
      "给了": 6569,
      "▁给了": 6570,
      "大的": 6571,
      "▁大的": 6572,
      "这只": 6573,
      "▁这只": 6574,
      "成了": 6575,
      "▁成了": 6576,
      "房间": 6577,
      "▁房间": 6578,
      "它们": 6579,
      "▁它们": 6580,
      "当他们": 6581,
      "▁当他们": 6582,
      "的东西": 6583,
      "▁的东西": 6584,
      "兴奋": 6585,
      "▁兴奋": 6586,
      "谢谢": 6587,
      "▁谢谢": 6588,
      "整天": 6589,
      "▁整天": 6590,
      "他想": 6591,
      "▁他想": 6592,
      "不想": 6593,
      "▁不想": 6594,
      "萨姆": 6595,
      "▁萨姆": 6596,
      "拥抱": 6597,
      "▁拥抱": 6598,
      "公园里": 6599,
      "▁公园里": 6600,
      "名叫蒂姆": 6601,
      "▁名叫蒂姆": 6602,
      "现在": 6603,
      "▁现在": 6604,
      "声音": 6605,
      "▁声音": 6606,
      "他们都": 6607,
      "▁他们都": 6608,
      "自己的": 6609,
      "▁自己的": 6610,
      "露西": 6611,
      "▁露西": 6612,
      "打开": 6613,
      "▁打开": 6614,
      "提米": 6615,
      "▁提米": 6616,
      "地上": 6617,
      "▁地上": 6618,
      "最好": 6619,
      "▁最好": 6620,
      "他妈妈": 6621,
      "▁他妈妈": 6622,
      "所以": 6623,
      "▁所以": 6624,
      "想要": 6625,
      "▁想要": 6626,
      "的一": 6627,
      "▁的一": 6628,
      "走了": 6629,
      "▁走了": 6630,
      "惊讶": 6631,
      "▁惊讶": 6632,
      "了解": 6633,
      "▁了解": 6634,
      "寻找": 6635,
      "▁寻找": 6636,
      "她看到": 6637,
      "▁她看到": 6638,
      "快乐": 6639,
      "▁快乐": 6640,
      "他看到": 6641,
      "▁他看到": 6642,
      "去公园": 6643,
      "▁去公园": 6644,
      "非常高兴": 6645,
      "▁非常高兴": 6646,
      "那是": 6647,
      "▁那是": 6648,
      "喜欢在": 6649,
      "▁喜欢在": 6650,
      "难过": 6651,
      "▁难过": 6652,
      "在一": 6653,
      "▁在一": 6654,
      "怎么": 6655,
      "▁怎么": 6656,
      "必须": 6657,
      "▁必须": 6658,
      "是的": 6659,
      "▁是的": 6660,
      "发现了一": 6661,
      "▁发现了一": 6662,
      "的玩具": 6663,
      "▁的玩具": 6664,
      "里面": 6665,
      "▁里面": 6666,
      "看看": 6667,
      "▁看看": 6668,
      "他说": 6669,
      "▁他说": 6670,
      "安全": 6671,
      "▁安全": 6672,
      "谢谢你": 6673,
      "▁谢谢你": 6674,
      "悲伤": 6675,
      "▁悲伤": 6676,
      "莉莉的妈妈": 6677,
      "▁莉莉的妈妈": 6678,
      "回答": 6679,
      "▁回答": 6680,
      "感谢": 6681,
      "▁感谢": 6682,
      "看起来": 6683,
      "▁看起来": 6684,
      "听到": 6685,
      "▁听到": 6686,
      "他们一起": 6687,
      "▁他们一起": 6688,
      "发生了": 6689,
      "▁发生了": 6690,
      "了解到": 6691,
      "▁了解到": 6692,
      "有一个小男孩": 6693,
      "▁有一个小男孩": 6694,
      "孩子": 6695,
      "▁孩子": 6696,
      "那只": 6697,
      "▁那只": 6698,
      "结束": 6699,
      "▁结束": 6700,
      "她想": 6701,
      "▁她想": 6702,
      "杰克": 6703,
      "▁杰克": 6704,
      "阳光": 6705,
      "▁阳光": 6706,
      "又大": 6707,
      "▁又大": 6708,
      "的时候": 6709,
      "▁的时候": 6710,
      "我可以": 6711,
      "▁我可以": 6712,
      "又大又": 6713,
      "▁又大又": 6714,
      "盒子": 6715,
      "▁盒子": 6716,
      "重要": 6717,
      "▁重要": 6718,
      "食物": 6719,
      "▁食物": 6720,
      "的小": 6721,
      "▁的小": 6722,
      "名叫蒂米": 6723,
      "▁名叫蒂米": 6724,
      "回到": 6725,
      "▁回到": 6726,
      "林里": 6727,
      "▁林里": 6728,
      "继续": 6729,
      "▁继续": 6730,
      "本尼": 6731,
      "▁本尼": 6732,
      "很害怕": 6733,
      "▁很害怕": 6734,
      "去了": 6735,
      "▁去了": 6736,
      "的大": 6737,
      "▁的大": 6738,
      "很快": 6739,
      "▁很快": 6740,
      "他的朋友": 6741,
      "▁他的朋友": 6742,
      "问道": 6743,
      "▁问道": 6744,
      "一个大": 6745,
      "▁一个大": 6746,
      "树上": 6747,
      "▁树上": 6748,
      "那里": 6749,
      "▁那里": 6750,
      "每天都": 6751,
      "▁每天都": 6752,
      "他们在": 6753,
      "▁他们在": 6754,
      "不再": 6755,
      "▁不再": 6756,
      "找到了": 6757,
      "▁找到了": 6758,
      "过来": 6759,
      "▁过来": 6760,
      "游戏": 6761,
      "▁游戏": 6762,
      "地方": 6763,
      "▁地方": 6764,
      "艾米": 6765,
      "▁艾米": 6766,
      "但她": 6767,
      "▁但她": 6768,
      "这样": 6769,
      "▁这样": 6770,
      "自豪": 6771,
      "▁自豪": 6772,
      "他们的": 6773,
      "▁他们的": 6774,
      "担心": 6775,
      "▁担心": 6776,
      "其他": 6777,
      "▁其他": 6778,
      "有很多": 6779,
      "▁有很多": 6780,
      "的小女孩": 6781,
      "▁的小女孩": 6782,
      "花园": 6783,
      "▁花园": 6784,
      "主意": 6785,
      "▁主意": 6786,
      "笑了": 6787,
      "▁笑了": 6788,
      "马克斯": 6789,
      "▁马克斯": 6790,
      "莉莉说": 6791,
      "▁莉莉说": 6792,
      "我们可以": 6793,
      "▁我们可以": 6794,
      "出来": 6795,
      "▁出来": 6796,
      "漂亮的": 6797,
      "▁漂亮的": 6798,
      "鲍勃": 6799,
      "▁鲍勃": 6800,
      "虫子": 6801,
      "▁虫子": 6802,
      "微笑着说": 6803,
      "▁微笑着说": 6804,
      "认为": 6805,
      "▁认为": 6806,
      "最喜欢": 6807,
      "▁最喜欢": 6808,
      "随后": 6809,
      "▁随后": 6810,
      "蒂姆和": 6811,
      "▁蒂姆和": 6812,
      "希望": 6813,
      "▁希望": 6814,
      "妈妈说": 6815,
      "▁妈妈说": 6816,
      "不是": 6817,
      "▁不是": 6818,
      "想不到": 6819,
      "▁想不到": 6820,
      "意想不到": 6821,
      "▁意想不到": 6822,
      "故事": 6823,
      "▁故事": 6824,
      "散步": 6825,
      "▁散步": 6826,
      "蛋糕": 6827,
      "▁蛋糕": 6828,
      "很好": 6829,
      "▁很好": 6830,
      "但随后": 6831,
      "▁但随后": 6832,
      "了一些": 6833,
      "▁了一些": 6834,
      "最好的朋友": 6835,
      "▁最好的朋友": 6836,
      "他喜欢": 6837,
      "▁他喜欢": 6838,
      "斯波": 6839,
      "▁斯波": 6840,
      "安娜": 6841,
      "▁安娜": 6842,
      "汽车": 6843,
      "▁汽车": 6844,
      "美丽": 6845,
      "▁美丽": 6846,
      "成为": 6847,
      "▁成为": 6848,
      "美味": 6849,
      "▁美味": 6850,
      "家人": 6851,
      "▁家人": 6852,
      "他们看到": 6853,
      "▁他们看到": 6854,
      "但是": 6855,
      "▁但是": 6856,
      "莉莉很高兴": 6857,
      "▁莉莉很高兴": 6858,
      "在一起": 6859,
      "▁在一起": 6860,
      "石头": 6861,
      "▁石头": 6862,
      "如何": 6863,
      "▁如何": 6864,
      "意想不到的事情": 6865,
      "▁意想不到的事情": 6866,
      "为什么": 6867,
      "▁为什么": 6868,
      "走到": 6869,
      "▁走到": 6870,
      "变得": 6871,
      "▁变得": 6872,
      "衣服": 6873,
      "▁衣服": 6874,
      "新朋友": 6875,
      "▁新朋友": 6876,
      "到达": 6877,
      "▁到达": 6878,
      "他的玩具": 6879,
      "▁他的玩具": 6880,
      "她的朋友": 6881,
      "▁她的朋友": 6882,
      "放在": 6883,
      "▁放在": 6884,
      "尝试": 6885,
      "▁尝试": 6886,
      "老鼠": 6887,
      "▁老鼠": 6888,
      "蝴蝶": 6889,
      "▁蝴蝶": 6890,
      "天空": 6891,
      "▁天空": 6892,
      "是否": 6893,
      "▁是否": 6894,
      "在公园里": 6895,
      "▁在公园里": 6896,
      "幸福": 6897,
      "▁幸福": 6898,
      "和他的朋友们": 6899,
      "▁和他的朋友们": 6900,
      "莎拉": 6901,
      "▁莎拉": 6902,
      "直到": 6903,
      "▁直到": 6904,
      "再次": 6905,
      "▁再次": 6906,
      "会儿": 6907,
      "▁会儿": 6908,
      "妈妈一起": 6909,
      "▁妈妈一起": 6910,
      "商店": 6911,
      "▁商店": 6912,
      "不能": 6913,
      "▁不能": 6914,
      "应该": 6915,
      "▁应该": 6916,
      "可能": 6917,
      "▁可能": 6918,
      "一样": 6919,
      "▁一样": 6920,
      "山姆": 6921,
      "▁山姆": 6922,
      "上了": 6923,
      "▁上了": 6924,
      "冒险": 6925,
      "▁冒险": 6926,
      "一下": 6927,
      "▁一下": 6928,
      "是一个": 6929,
      "▁是一个": 6930,
      "名叫蒂姆的": 6931,
      "▁名叫蒂姆的": 6932,
      "出去": 6933,
      "▁出去": 6934,
      "比利": 6935,
      "▁比利": 6936,
      "永远": 6937,
      "▁永远": 6938,
      "卡车": 6939,
      "▁卡车": 6940,
      "当她": 6941,
      "▁当她": 6942,
      "在外面": 6943,
      "▁在外面": 6944,
      "子上": 6945,
      "▁子上": 6946,
      "上面": 6947,
      "▁上面": 6948,
      "在这": 6949,
      "▁在这": 6950,
      "感觉好": 6951,
      "▁感觉好": 6952,
      "汤姆和": 6953,
      "▁汤姆和": 6954,
      "娃娃": 6955,
      "▁娃娃": 6956,
      "度过": 6957,
      "▁度过": 6958,
      "了一只": 6959,
      "▁了一只": 6960,
      "不喜欢": 6961,
      "▁不喜欢": 6962,
      "她妈妈说": 6963,
      "▁她妈妈说": 6964,
      "森林里": 6965,
      "▁森林里": 6966,
      "回来": 6967,
      "▁回来": 6968,
      "男人": 6969,
      "▁男人": 6970,
      "那个": 6971,
      "▁那个": 6972,
      "聪明": 6973,
      "▁聪明": 6974,
      "展示": 6975,
      "▁展示": 6976,
      "附近": 6977,
      "▁附近": 6978,
      "不会": 6979,
      "▁不会": 6980,
      "喜欢玩": 6981,
      "▁喜欢玩": 6982,
      "该怎么": 6983,
      "▁该怎么": 6984,
      "不要": 6985,
      "▁不要": 6986,
      "我会": 6987,
      "▁我会": 6988,
      "人都": 6989,
      "▁人都": 6990,
      "莉莉的": 6991,
      "▁莉莉的": 6992,
      "坐在": 6993,
      "▁坐在": 6994,
      "青蛙": 6995,
      "▁青蛙": 6996,
      "识到": 6997,
      "▁识到": 6998,
      "的地方": 6999,
      "▁的地方": 7000,
      "更多": 7001,
      "▁更多": 7002,
      "的一天": 7003,
      "▁的一天": 7004,
      "意想不到的事情发生了": 7005,
      "▁意想不到的事情发生了": 7006,
      "棵大": 7007,
      "▁棵大": 7008,
      "比赛": 7009,
      "▁比赛": 7010,
      "松鼠": 7011,
      "▁松鼠": 7012,
      "帮忙": 7013,
      "▁帮忙": 7014,
      "意识到": 7015,
      "▁意识到": 7016,
      "带着": 7017,
      "▁带着": 7018,
      "莎莉": 7019,
      "▁莎莉": 7020,
      "饼干": 7021,
      "▁饼干": 7022,
      "勇敢": 7023,
      "▁勇敢": 7024,
      "友善": 7025,
      "▁友善": 7026,
      "抓住": 7027,
      "▁抓住": 7028,
      "的话": 7029,
      "▁的话": 7030,
      "觉得": 7031,
      "▁觉得": 7032,
      "泰迪": 7033,
      "▁泰迪": 7034,
      "花园里": 7035,
      "▁花园里": 7036,
      "因为他": 7037,
      "▁因为他": 7038,
      "每个": 7039,
      "▁每个": 7040,
      "房子里": 7041,
      "▁房子里": 7042,
      "奶奶": 7043,
      "▁奶奶": 7044,
      "当他": 7045,
      "▁当他": 7046,
      "我想": 7047,
      "▁我想": 7048,
      "工作": 7049,
      "▁工作": 7050,
      "一只名叫": 7051,
      "▁一只名叫": 7052,
      "已经": 7053,
      "▁已经": 7054,
      "好朋友": 7055,
      "▁好朋友": 7056,
      "有时": 7057,
      "▁有时": 7058,
      "让她": 7059,
      "▁让她": 7060,
      "闪亮": 7061,
      "▁闪亮": 7062,
      "一个名叫蒂姆的": 7063,
      "▁一个名叫蒂姆的": 7064,
      "点头": 7065,
      "▁点头": 7066,
      "鸭子": 7067,
      "▁鸭子": 7068,
      "时间": 7069,
      "▁时间": 7070,
      "美味的": 7071,
      "▁美味的": 7072,
      "小狗": 7073,
      "▁小狗": 7074,
      "一位": 7075,
      "▁一位": 7076,
      "秋千": 7077,
      "▁秋千": 7078,
      "告诉她": 7079,
      "▁告诉她": 7080,
      "房子": 7081,
      "▁房子": 7082,
      "进去": 7083,
      "▁进去": 7084,
      "这只鸟": 7085,
      "▁这只鸟": 7086,
      "所有的": 7087,
      "▁所有的": 7088,
      "善良": 7089,
      "▁善良": 7090,
      "特别": 7091,
      "▁特别": 7092,
      "她的玩具": 7093,
      "▁她的玩具": 7094,
      "她问": 7095,
      "▁她问": 7096,
      "美丽的": 7097,
      "▁美丽的": 7098,
      "发现了一个": 7099,
      "▁发现了一个": 7100,
      "跳舞": 7101,
      "▁跳舞": 7102,
      "该怎么办": 7103,
      "▁该怎么办": 7104,
      "很重要": 7105,
      "▁很重要": 7106,
      "准备": 7107,
      "▁准备": 7108,
      "太阳": 7109,
      "▁太阳": 7110,
      "干净": 7111,
      "▁干净": 7112,
      "感到非常": 7113,
      "▁感到非常": 7114,
      "一起玩耍": 7115,
      "▁一起玩耍": 7116,
      "了一会儿": 7117,
      "▁了一会儿": 7118,
      "互相": 7119,
      "▁互相": 7120,
      "生气": 7121,
      "▁生气": 7122,
      "你们": 7123,
      "▁你们": 7124,
      "她的朋友们": 7125,
      "▁她的朋友们": 7126,
      "她在": 7127,
      "▁她在": 7128,
      "好的": 7129,
      "▁好的": 7130,
      "再也": 7131,
      "▁再也": 7132,
      "无法": 7133,
      "▁无法": 7134,
      "的人": 7135,
      "▁的人": 7136,
      "一边": 7137,
      "▁一边": 7138,
      "的狗": 7139,
      "▁的狗": 7140,
      "最喜欢的": 7141,
      "▁最喜欢的": 7142,
      "很有趣": 7143,
      "▁很有趣": 7144,
      "别担心": 7145,
      "▁别担心": 7146,
      "任何": 7147,
      "▁任何": 7148,
      "最后": 7149,
      "▁最后": 7150,
      "努力": 7151,
      "▁努力": 7152,
      "的猫": 7153,
      "▁的猫": 7154,
      "帽子": 7155,
      "▁帽子": 7156,
      "而且": 7157,
      "▁而且": 7158,
      "多了": 7159,
      "▁多了": 7160,
      "不起": 7161,
      "▁不起": 7162,
      "想玩": 7163,
      "▁想玩": 7164,
      "一直": 7165,
      "▁一直": 7166,
      "点点头": 7167,
      "▁点点头": 7168,
      "只是": 7169,
      "▁只是": 7170,
      "生活": 7171,
      "▁生活": 7172,
      "苹果": 7173,
      "▁苹果": 7174,
      "如果": 7175,
      "▁如果": 7176,
      "仍然": 7177,
      "▁仍然": 7178,
      "棵大树": 7179,
      "▁棵大树": 7180,
      "发出": 7181,
      "▁发出": 7182,
      "探索": 7183,
      "▁探索": 7184,
      "不知道该怎么办": 7185,
      "▁不知道该怎么办": 7186,
      "看到一": 7187,
      "▁看到一": 7188,
      "这个故事": 7189,
      "▁这个故事": 7190,
      "厨房": 7191,
      "▁厨房": 7192,
      "在一个": 7193,
      "▁在一个": 7194,
      "跑到": 7195,
      "▁跑到": 7196,
      "斑点": 7197,
      "▁斑点": 7198,
      "你能": 7199,
      "▁你能": 7200,
      "回家了": 7201,
      "▁回家了": 7202,
      "眼睛": 7203,
      "▁眼睛": 7204,
      "睡觉": 7205,
      "▁睡觉": 7206,
      "身边": 7207,
      "▁身边": 7208,
      "一个名叫": 7209,
      "▁一个名叫": 7210,
      "保持": 7211,
      "▁保持": 7212,
      "毛毛": 7213,
      "▁毛毛": 7214,
      "第二": 7215,
      "▁第二": 7216,
      "蒂米的妈妈": 7217,
      "▁蒂米的妈妈": 7218,
      "受伤": 7219,
      "▁受伤": 7220,
      "你可以": 7221,
      "▁你可以": 7222,
      "起了": 7223,
      "▁起了": 7224,
      "都会": 7225,
      "▁都会": 7226,
      "别人": 7227,
      "▁别人": 7228,
      "和朋友们": 7229,
      "▁和朋友们": 7230,
      "并不": 7231,
      "▁并不": 7232,
      "当然": 7233,
      "▁当然": 7234,
      "滑梯": 7235,
      "▁滑梯": 7236,
      "你好": 7237,
      "▁你好": 7238,
      "后来": 7239,
      "▁后来": 7240,
      "第二天": 7241,
      "▁第二天": 7242,
      "红色": 7243,
      "▁红色": 7244,
      "一天": 7245,
      "▁一天": 7246,
      "很惊讶": 7247,
      "▁很惊讶": 7248,
      "因为她": 7249,
      "▁因为她": 7250,
      "离开": 7251,
      "▁离开": 7252,
      "说话": 7253,
      "▁说话": 7254,
      "对不起": 7255,
      "▁对不起": 7256,
      "还是": 7257,
      "▁还是": 7258,
      "这个故事的": 7259,
      "▁这个故事的": 7260,
      "房间里": 7261,
      "▁房间里": 7262,
      "红色的": 7263,
      "▁红色的": 7264,
      "从此": 7265,
      "▁从此": 7266,
      "唱歌": 7267,
      "▁唱歌": 7268,
      "寓意": 7269,
      "▁寓意": 7270,
      "日子": 7271,
      "▁日子": 7272,
      "好了": 7273,
      "▁好了": 7274,
      "狮子": 7275,
      "▁狮子": 7276,
      "注意": 7277,
      "▁注意": 7278,
      "他在": 7279,
      "▁他在": 7280,
      "池塘": 7281,
      "▁池塘": 7282,
      "这个故事的寓意": 7283,
      "▁这个故事的寓意": 7284,
      "给她": 7285,
      "▁给她": 7286,
      "明媚": 7287,
      "▁明媚": 7288,
      "的声音": 7289,
      "▁的声音": 7290,
      "想和": 7291,
      "▁想和": 7292,
      "照片": 7293,
      "▁照片": 7294,
      "岩石": 7295,
      "▁岩石": 7296,
      "感到难过": 7297,
      "▁感到难过": 7298,
      "遇到": 7299,
      "▁遇到": 7300,
      "这个故事的寓意是": 7301,
      "▁这个故事的寓意是": 7302,
      "感到很": 7303,
      "▁感到很": 7304,
      "一次": 7305,
      "▁一次": 7306,
      "坏了": 7307,
      "▁坏了": 7308,
      "很高兴能": 7309,
      "▁很高兴能": 7310,
      "问题": 7311,
      "▁问题": 7312,
      "哪里": 7313,
      "▁哪里": 7314,
      "他们就": 7315,
      "▁他们就": 7316,
      "发光": 7317,
      "▁发光": 7318,
      "他把": 7319,
      "▁他把": 7320,
      "闪闪": 7321,
      "▁闪闪": 7322,
      "淇淋": 7323,
      "▁淇淋": 7324,
      "愉快": 7325,
      "▁愉快": 7326,
      "冰淇淋": 7327,
      "▁冰淇淋": 7328,
      "阳光明媚": 7329,
      "▁阳光明媚": 7330,
      "这么": 7331,
      "▁这么": 7332,
      "了一整天": 7333,
      "▁了一整天": 7334,
      "更加": 7335,
      "▁更加": 7336,
      "可怕": 7337,
      "▁可怕": 7338,
      "同意": 7339,
      "▁同意": 7340,
      "度过了": 7341,
      "▁度过了": 7342,
      "看到一只": 7343,
      "▁看到一只": 7344,
      "先生": 7345,
      "▁先生": 7346,
      "很兴奋": 7347,
      "▁很兴奋": 7348,
      "来到": 7349,
      "▁来到": 7350,
      "那只鸟": 7351,
      "▁那只鸟": 7352,
      "哭泣": 7353,
      "▁哭泣": 7354,
      "每个人都": 7355,
      "▁每个人都": 7356,
      "sp": 7357,
      "▁sp": 7358,
      "SP": 7359,
      "▁SP": 7360,
      "Sp": 7361,
      "▁Sp": 7362,
      "爬上": 7363,
      "▁爬上": 7364,
      "不小心": 7365,
      "▁不小心": 7366,
      "许多": 7367,
      "▁许多": 7368,
      "她把": 7369,
      "▁她把": 7370,
      "感觉好多了": 7371,
      "▁感觉好多了": 7372,
      "一点": 7373,
      "▁一点": 7374,
      "来了": 7375,
      "▁来了": 7376,
      "他的朋友们": 7377,
      "▁他的朋友们": 7378,
      "满了": 7379,
      "▁满了": 7380,
      "也许": 7381,
      "▁也许": 7382,
      "并且": 7383,
      "▁并且": 7384,
      "飞翔": 7385,
      "▁飞翔": 7386,
      "和爸爸": 7387,
      "▁和爸爸": 7388,
      "让他": 7389,
      "▁让他": 7390,
      "忘记": 7391,
      "▁忘记": 7392,
      "跑去": 7393,
      "▁跑去": 7394,
      "有趣的": 7395,
      "▁有趣的": 7396,
      "他的妈妈": 7397,
      "▁他的妈妈": 7398,
      "回答说": 7399,
      "▁回答说": 7400,
      "有一个大": 7401,
      "▁有一个大": 7402,
      "回答道": 7403,
      "▁回答道": 7404,
      "是一只": 7405,
      "▁是一只": 7406,
      "ot": 7407,
      "▁ot": 7408,
      "OT": 7409,
      "▁OT": 7410,
      "Ot": 7411,
      "▁Ot": 7412,
      "找不到": 7413,
      "▁找不到": 7414,
      "为自己": 7415,
      "▁为自己": 7416,
      "看了": 7417,
      "▁看了": 7418,
      "就在这": 7419,
      "▁就在这": 7420,
      "要小心": 7421,
      "▁要小心": 7422,
      "约翰": 7423,
      "▁约翰": 7424,
      "告诉他": 7425,
      "▁告诉他": 7426,
      "可爱": 7427,
      "▁可爱": 7428,
      "是一": 7429,
      "▁是一": 7430,
      "成了最好的朋友": 7431,
      "▁成了最好的朋友": 7432,
      "鸟儿": 7433,
      "▁鸟儿": 7434,
      "但他们": 7435,
      "▁但他们": 7436,
      "即使": 7437,
      "▁即使": 7438,
      "非常喜欢": 7439,
      "▁非常喜欢": 7440,
      "放进": 7441,
      "▁放进": 7442,
      "住着": 7443,
      "▁住着": 7444,
      "享受": 7445,
      "▁享受": 7446,
      "就在这时": 7447,
      "▁就在这时": 7448,
      "游泳": 7449,
      "▁游泳": 7450,
      "spot": 7451,
      "▁spot": 7452,
      "SPOT": 7453,
      "▁SPOT": 7454,
      "Spot": 7455,
      "▁Spot": 7456,
      "玩耍时": 7457,
      "▁玩耍时": 7458,
      "棵树": 7459,
      "▁棵树": 7460,
      "聚会": 7461,
      "▁聚会": 7462,
      "给你": 7463,
      "▁给你": 7464,
      "做什么": 7465,
      "▁做什么": 7466,
      "温暖": 7467,
      "▁温暖": 7468,
      "的女孩": 7469,
      "▁的女孩": 7470,
      "那天晚": 7471,
      "▁那天晚": 7472,
      "所以他": 7473,
      "▁所以他": 7474,
      "拿着": 7475,
      "▁拿着": 7476,
      "关系": 7477,
      "▁关系": 7478,
      "学会": 7479,
      "▁学会": 7480,
      "我也": 7481,
      "▁我也": 7482,
      "树枝": 7483,
      "▁树枝": 7484,
      "惊喜": 7485,
      "▁惊喜": 7486,
      "拿起": 7487,
      "▁拿起": 7488,
      "终于": 7489,
      "▁终于": 7490,
      "他们玩": 7491,
      "▁他们玩": 7492,
      "孩子们": 7493,
      "▁孩子们": 7494,
      "它的": 7495,
      "▁它的": 7496,
      "住了": 7497,
      "▁住了": 7498,
      "没关系": 7499,
      "▁没关系": 7500,
      "棍子": 7501,
      "▁棍子": 7502,
      "不同": 7503,
      "▁不同": 7504,
      "是什么": 7505,
      "▁是什么": 7506,
      "好吧": 7507,
      "▁好吧": 7508,
      "一声": 7509,
      "▁一声": 7510,
      "汤姆说": 7511,
      "▁汤姆说": 7512,
      "画画": 7513,
      "▁画画": 7514,
      "的日子": 7515,
      "▁的日子": 7516,
      "抱歉": 7517,
      "▁抱歉": 7518,
      "非常兴奋": 7519,
      "▁非常兴奋": 7520,
      "哭了": 7521,
      "▁哭了": 7522,
      "蒂姆说": 7523,
      "▁蒂姆说": 7524,
      "微笑": 7525,
      "▁微笑": 7526,
      "上的": 7527,
      "▁上的": 7528,
      "泰迪熊": 7529,
      "▁泰迪熊": 7530,
      "回到家": 7531,
      "▁回到家": 7532,
      "拥抱了": 7533,
      "▁拥抱了": 7534,
      "头鹰": 7535,
      "▁头鹰": 7536,
      "但它": 7537,
      "▁但它": 7538,
      "尾巴": 7539,
      "▁尾巴": 7540,
      "走进": 7541,
      "▁走进": 7542,
      "玩玩具": 7543,
      "▁玩玩具": 7544,
      "她很高兴": 7545,
      "▁她很高兴": 7546,
      "清理": 7547,
      "▁清理": 7548,
      "感到自豪": 7549,
      "▁感到自豪": 7550,
      "帮我": 7551,
      "▁帮我": 7552,
      "来说": 7553,
      "▁来说": 7554,
      "答应": 7555,
      "▁答应": 7556,
      "出了": 7557,
      "▁出了": 7558,
      "名叫莉莉的小女孩": 7559,
      "▁名叫莉莉的小女孩": 7560,
      "如此": 7561,
      "▁如此": 7562,
      "倒了": 7563,
      "▁倒了": 7564,
      "颜色": 7565,
      "▁颜色": 7566,
      "去找": 7567,
      "▁去找": 7568,
      "大家": 7569,
      "▁大家": 7570,
      "就会": 7571,
      "▁就会": 7572,
      "莉莉想": 7573,
      "▁莉莉想": 7574,
      "他会": 7575,
      "▁他会": 7576,
      "是否可以": 7577,
      "▁是否可以": 7578,
      "在那里": 7579,
      "▁在那里": 7580,
      "的男孩": 7581,
      "▁的男孩": 7582,
      "主人": 7583,
      "▁主人": 7584,
      "自行": 7585,
      "▁自行": 7586,
      "给他": 7587,
      "▁给他": 7588,
      "萝卜": 7589,
      "▁萝卜": 7590,
      "也很": 7591,
      "▁也很": 7592,
      "到了一个": 7593,
      "▁到了一个": 7594,
      "你为什么": 7595,
      "▁你为什么": 7596,
      "他们喜欢": 7597,
      "▁他们喜欢": 7598,
      "小兔子": 7599,
      "▁小兔子": 7600,
      "住在一": 7601,
      "▁住在一": 7602,
      "但后来": 7603,
      "▁但后来": 7604,
      "有一个男孩": 7605,
      "▁有一个男孩": 7606,
      "汤米": 7607,
      "▁汤米": 7608,
      "记得": 7609,
      "▁记得": 7610,
      "女士": 7611,
      "▁女士": 7612,
      "建造": 7613,
      "▁建造": 7614,
      "洋娃娃": 7615,
      "▁洋娃娃": 7616,
      "气球": 7617,
      "▁气球": 7618,
      "高兴了": 7619,
      "▁高兴了": 7620,
      "等待": 7621,
      "▁等待": 7622,
      "来越": 7623,
      "▁来越": 7624,
      "笑着说": 7625,
      "▁笑着说": 7626,
      "越来越": 7627,
      "▁越来越": 7628,
      "一条": 7629,
      "▁一条": 7630,
      "给了她": 7631,
      "▁给了她": 7632,
      "幸福的": 7633,
      "▁幸福的": 7634,
      "环顾": 7635,
      "▁环顾": 7636,
      "极了": 7637,
      "▁极了": 7638,
      "再也没有": 7639,
      "▁再也没有": 7640,
      "自行车": 7641,
      "▁自行车": 7642,
      "到处": 7643,
      "▁到处": 7644,
      "一块": 7645,
      "▁一块": 7646,
      "闪亮的": 7647,
      "▁闪亮的": 7648,
      "做了": 7649,
      "▁做了": 7650,
      "世界": 7651,
      "▁世界": 7652,
      "这些": 7653,
      "▁这些": 7654,
      "地板": 7655,
      "▁地板": 7656,
      "跑了": 7657,
      "▁跑了": 7658,
      "发现了": 7659,
      "▁发现了": 7660,
      "他们玩得很开心": 7661,
      "▁他们玩得很开心": 7662,
      "和妈妈一起": 7663,
      "▁和妈妈一起": 7664,
      "火车": 7665,
      "▁火车": 7666,
      "一个名叫蒂姆的小男孩": 7667,
      "▁一个名叫蒂姆的小男孩": 7668,
      "他们说": 7669,
      "▁他们说": 7670,
      "她很": 7671,
      "▁她很": 7672,
      "停止": 7673,
      "▁停止": 7674,
      "成了好朋友": 7675,
      "▁成了好朋友": 7676,
      "他们决定": 7677,
      "▁他们决定": 7678,
      "和本": 7679,
      "▁和本": 7680,
      "看起来很": 7681,
      "▁看起来很": 7682,
      "了想": 7683,
      "▁了想": 7684,
      "神奇": 7685,
      "▁神奇": 7686,
      "她喜欢在": 7687,
      "▁她喜欢在": 7688,
      "帮助他": 7689,
      "▁帮助他": 7690,
      "他们把": 7691,
      "▁他们把": 7692,
      "明白": 7693,
      "▁明白": 7694,
      "爸爸妈妈": 7695,
      "▁爸爸妈妈": 7696,
      "了下来": 7697,
      "▁了下来": 7698,
      "父母": 7699,
      "▁父母": 7700,
      "休息": 7701,
      "▁休息": 7702,
      "他们一起玩": 7703,
      "▁他们一起玩": 7704,
      "这是一个": 7705,
      "▁这是一个": 7706,
      "糖果": 7707,
      "▁糖果": 7708,
      "喊道": 7709,
      "▁喊道": 7710,
      "跑向": 7711,
      "▁跑向": 7712,
      "飞机": 7713,
      "▁飞机": 7714,
      "学会了": 7715,
      "▁学会了": 7716,
      "玩具车": 7717,
      "▁玩具车": 7718,
      "假装": 7719,
      "▁假装": 7720,
      "他们想": 7721,
      "▁他们想": 7722,
      "我喜欢": 7723,
      "▁我喜欢": 7724,
      "事物": 7725,
      "▁事物": 7726,
      "感激": 7727,
      "▁感激": 7728,
      "闪闪发光": 7729,
      "▁闪闪发光": 7730,
      "伤害": 7731,
      "▁伤害": 7732,
      "四周": 7733,
      "▁四周": 7734,
      "更好": 7735,
      "▁更好": 7736,
      "住在": 7737,
      "▁住在": 7738,
      "他们俩": 7739,
      "▁他们俩": 7740,
      "吃了": 7741,
      "▁吃了": 7742,
      "盒子里": 7743,
      "▁盒子里": 7744,
      "今天": 7745,
      "▁今天": 7746,
      "注意到": 7747,
      "▁注意到": 7748,
      "礼物": 7749,
      "▁礼物": 7750,
      "新的": 7751,
      "▁新的": 7752,
      "巨响": 7753,
      "▁巨响": 7754,
      "制作": 7755,
      "▁制作": 7756,
      "很大的": 7757,
      "▁很大的": 7758,
      "大狗": 7759,
      "▁大狗": 7760,
      "阳光下": 7761,
      "▁阳光下": 7762,
      "他问": 7763,
      "▁他问": 7764,
      "莉莉看到": 7765,
      "▁莉莉看到": 7766,
      "奇怪": 7767,
      "▁奇怪": 7768,
      "特殊": 7769,
      "▁特殊": 7770,
      "以前": 7771,
      "▁以前": 7772,
      "飞走了": 7773,
      "▁飞走了": 7774,
      "他很高兴": 7775,
      "▁他很高兴": 7776,
      "大了": 7777,
      "▁大了": 7778,
      "感到悲伤": 7779,
      "▁感到悲伤": 7780,
      "消失": 7781,
      "▁消失": 7782,
      "帮你": 7783,
      "▁帮你": 7784,
      "些时候": 7785,
      "▁些时候": 7786,
      "翅膀": 7787,
      "▁翅膀": 7788,
      "它是": 7789,
      "▁它是": 7790,
      "学习": 7791,
      "▁学习": 7792,
      "周围": 7793,
      "▁周围": 7794,
      "什么事": 7795,
      "▁什么事": 7796,
      "环顾四周": 7797,
      "▁环顾四周": 7798,
      "天空中": 7799,
      "▁天空中": 7800,
      "猫头鹰": 7801,
      "▁猫头鹰": 7802,
      "甚至": 7803,
      "▁甚至": 7804,
      "就是": 7805,
      "▁就是": 7806,
      "蒂米喜欢": 7807,
      "▁蒂米喜欢": 7808,
      "把它们": 7809,
      "▁把它们": 7810,
      "蒂米的": 7811,
      "▁蒂米的": 7812,
      "地说": 7813,
      "▁地说": 7814,
      "了起来": 7815,
      "▁了起来": 7816,
      "猴子": 7817,
      "▁猴子": 7818,
      "人们": 7819,
      "▁人们": 7820,
      "走着": 7821,
      "▁走着": 7822,
      "蚂蚁": 7823,
      "▁蚂蚁": 7824,
      "老人": 7825,
      "▁老人": 7826,
      "他知道": 7827,
      "▁他知道": 7828,
      "展示了": 7829,
      "▁展示了": 7830,
      "提供": 7831,
      "▁提供": 7832,
      "一起去": 7833,
      "▁一起去": 7834,
      "她知道": 7835,
      "▁她知道": 7836,
      "就像": 7837,
      "▁就像": 7838,
      "更多的": 7839,
      "▁更多的": 7840,
      "开始哭泣": 7841,
      "▁开始哭泣": 7842,
      "巨大的": 7843,
      "▁巨大的": 7844,
      "胡萝卜": 7845,
      "▁胡萝卜": 7846,
      "他很": 7847,
      "▁他很": 7848,
      "怪物": 7849,
      "▁怪物": 7850,
      "不及": 7851,
      "▁不及": 7852,
      "后面": 7853,
      "▁后面": 7854,
      "一根": 7855,
      "▁一根": 7856,
      "糟糕": 7857,
      "▁糟糕": 7858,
      "度过了愉快": 7859,
      "▁度过了愉快": 7860,
      "一辆": 7861,
      "▁一辆": 7862,
      "去公园玩": 7863,
      "▁去公园玩": 7864,
      "凯蒂": 7865,
      "▁凯蒂": 7866,
      "有了一个": 7867,
      "▁有了一个": 7868,
      "照顾": 7869,
      "▁照顾": 7870,
      "完成": 7871,
      "▁完成": 7872,
      "真是": 7873,
      "▁真是": 7874,
      "面前": 7875,
      "▁面前": 7876,
      "镇上": 7877,
      "▁镇上": 7878,
      "大声": 7879,
      "▁大声": 7880,
      "院子里": 7881,
      "▁院子里": 7882,
      "参加": 7883,
      "▁参加": 7884,
      "出去玩": 7885,
      "▁出去玩": 7886,
      "幸福的生活": 7887,
      "▁幸福的生活": 7888,
      "阳光明媚的日子": 7889,
      "▁阳光明媚的日子": 7890,
      "穿着": 7891,
      "▁穿着": 7892,
      "想帮助": 7893,
      "▁想帮助": 7894,
      "见了": 7895,
      "▁见了": 7896,
      "叶子": 7897,
      "▁叶子": 7898,
      "蓝色": 7899,
      "▁蓝色": 7900,
      "那么": 7901,
      "▁那么": 7902,
      "给我": 7903,
      "▁给我": 7904,
      "同意了": 7905,
      "▁同意了": 7906,
      "医生": 7907,
      "▁医生": 7908,
      "去看": 7909,
      "▁去看": 7910,
      "穿上": 7911,
      "▁穿上": 7912,
      "拥有": 7913,
      "▁拥有": 7914,
      "上去": 7915,
      "▁上去": 7916,
      "解释": 7917,
      "▁解释": 7918,
      "柔软": 7919,
      "▁柔软": 7920,
      "和莉莉": 7921,
      "▁和莉莉": 7922,
      "危险": 7923,
      "▁危险": 7924,
      "不好": 7925,
      "▁不好": 7926,
      "很大": 7927,
      "▁很大": 7928,
      "小猫": 7929,
      "▁小猫": 7930,
      "并感谢": 7931,
      "▁并感谢": 7932,
      "一声巨响": 7933,
      "▁一声巨响": 7934,
      "高兴极了": 7935,
      "▁高兴极了": 7936,
      "一场": 7937,
      "▁一场": 7938,
      "给了他": 7939,
      "▁给了他": 7940,
      "乐趣": 7941,
      "▁乐趣": 7942,
      "过了一会儿": 7943,
      "▁过了一会儿": 7944,
      "音乐": 7945,
      "▁音乐": 7946,
      "两个": 7947,
      "▁两个": 7948,
      "蒂姆的妈妈": 7949,
      "▁蒂姆的妈妈": 7950,
      "可能会": 7951,
      "▁可能会": 7952,
      "电话": 7953,
      "▁电话": 7954,
      "有什么": 7955,
      "▁有什么": 7956,
      "得太": 7957,
      "▁得太": 7958,
      "地板上": 7959,
      "▁地板上": 7960,
      "里的": 7961,
      "▁里的": 7962,
      "一个阳光明媚的日子": 7963,
      "▁一个阳光明媚的日子": 7964,
      "求帮助": 7965,
      "▁求帮助": 7966,
      "你是": 7967,
      "▁你是": 7968,
      "她的妈妈": 7969,
      "▁她的妈妈": 7970,
      "波波": 7971,
      "▁波波": 7972,
      "名叫麦克斯": 7973,
      "▁名叫麦克斯": 7974,
      "城堡": 7975,
      "▁城堡": 7976,
      "相信": 7977,
      "▁相信": 7978,
      "那天晚些时候": 7979,
      "▁那天晚些时候": 7980,
      "待地": 7981,
      "▁待地": 7982,
      "之前": 7983,
      "▁之前": 7984,
      "迫不及": 7985,
      "▁迫不及": 7986,
      "跑来": 7987,
      "▁跑来": 7988,
      "跟着": 7989,
      "▁跟着": 7990,
      "迫不及待地": 7991,
      "▁迫不及待地": 7992,
      "害怕了": 7993,
      "▁害怕了": 7994,
      "草地上": 7995,
      "▁草地上": 7996,
      "一切": 7997,
      "▁一切": 7998,
      "本说": 7999,
      "▁本说": 8000,
      "海滩": 8001,
      "▁海滩": 8002,
      "她决定": 8003,
      "▁她决定": 8004,
      "放弃": 8005,
      "▁放弃": 8006,
      "晚上": 8007,
      "▁晚上": 8008,
      "确保": 8009,
      "▁确保": 8010,
      "的事": 8011,
      "▁的事": 8012,
      "使用": 8013,
      "▁使用": 8014,
      "看到了一": 8015,
      "▁看到了一": 8016,
      "让我们": 8017,
      "▁让我们": 8018,
      "的小鸟": 8019,
      "▁的小鸟": 8020,
      "水里": 8021,
      "▁水里": 8022,
      "见过": 8023,
      "▁见过": 8024,
      "的是": 8025,
      "▁的是": 8026,
      "当他们到达": 8027,
      "▁当他们到达": 8028,
      "名字": 8029,
      "▁名字": 8030,
      "打扫": 8031,
      "▁打扫": 8032,
      "感觉很": 8033,
      "▁感觉很": 8034,
      "过去": 8035,
      "▁过去": 8036,
      "绳子": 8037,
      "▁绳子": 8038,
      "寻求帮助": 8039,
      "▁寻求帮助": 8040,
      "莉莉很伤心": 8041,
      "▁莉莉很伤心": 8042,
      "得不": 8043,
      "▁得不": 8044,
      "机器": 8045,
      "▁机器": 8046,
      "很好奇": 8047,
      "▁很好奇": 8048,
      "但没有": 8049,
      "▁但没有": 8050,
      "但莉莉": 8051,
      "▁但莉莉": 8052,
      "速度": 8053,
      "▁速度": 8054,
      "路上": 8055,
      "▁路上": 8056,
      "有一个主意": 8057,
      "▁有一个主意": 8058,
      "蜜蜂": 8059,
      "▁蜜蜂": 8060,
      "我很": 8061,
      "▁我很": 8062,
      "就可以": 8063,
      "▁就可以": 8064,
      "水果": 8065,
      "▁水果": 8066,
      "米滕": 8067,
      "▁米滕": 8068,
      "有一条": 8069,
      "▁有一条": 8070,
      "米滕斯": 8071,
      "▁米滕斯": 8072,
      "停下来": 8073,
      "▁停下来": 8074,
      "积木": 8075,
      "▁积木": 8076,
      "我们去": 8077,
      "▁我们去": 8078,
      "才能": 8079,
      "▁才能": 8080,
      "一个大大的": 8081,
      "▁一个大大的": 8082,
      "他们开始": 8083,
      "▁他们开始": 8084,
      "紧紧": 8085,
      "▁紧紧": 8086,
      "妈妈的话": 8087,
      "▁妈妈的话": 8088,
      "非常伤心": 8089,
      "▁非常伤心": 8090,
      "度过了愉快的一天": 8091,
      "▁度过了愉快的一天": 8092,
      "一张": 8093,
      "▁一张": 8094,
      "他妈妈说": 8095,
      "▁他妈妈说": 8096,
      "零食": 8097,
      "▁零食": 8098,
      "外面玩": 8099,
      "▁外面玩": 8100,
      "我们的": 8101,
      "▁我们的": 8102,
      "成了朋友": 8103,
      "▁成了朋友": 8104,
      "和他": 8105,
      "▁和他": 8106,
      "蜘蛛": 8107,
      "▁蜘蛛": 8108,
      "看到一个": 8109,
      "▁看到一个": 8110,
      "小房子里": 8111,
      "▁小房子里": 8112,
      "她最喜欢的": 8113,
      "▁她最喜欢的": 8114,
      "蒂姆很高兴": 8115,
      "▁蒂姆很高兴": 8116,
      "你必须": 8117,
      "▁你必须": 8118,
      "感到非常自豪": 8119,
      "▁感到非常自豪": 8120,
      "因为它": 8121,
      "▁因为它": 8122,
      "出现": 8123,
      "▁出现": 8124,
      "和你": 8125,
      "▁和你": 8126,
      "狐狸": 8127,
      "▁狐狸": 8128,
      "解决": 8129,
      "▁解决": 8130,
      "那人": 8131,
      "▁那人": 8132,
      "味道": 8133,
      "▁味道": 8134,
      "奔跑": 8135,
      "▁奔跑": 8136,
      "下了": 8137,
      "▁下了": 8138,
      "一阵": 8139,
      "▁一阵": 8140,
      "座大": 8141,
      "▁座大": 8142,
      "开了": 8143,
      "▁开了": 8144,
      "在地上": 8145,
      "▁在地上": 8146,
      "魔法": 8147,
      "▁魔法": 8148,
      "蒂姆的": 8149,
      "▁蒂姆的": 8150,
      "告别": 8151,
      "▁告别": 8152,
      "忘记了": 8153,
      "▁忘记了": 8154,
      "一定": 8155,
      "▁一定": 8156,
      "感到高兴": 8157,
      "▁感到高兴": 8158,
      "公主": 8159,
      "▁公主": 8160,
      "了一个大": 8161,
      "▁了一个大": 8162,
      "一个大大的拥抱": 8163,
      "▁一个大大的拥抱": 8164,
      "从未": 8165,
      "▁从未": 8166,
      "你在": 8167,
      "▁你在": 8168,
      "他们会": 8169,
      "▁他们会": 8170,
      "正在玩": 8171,
      "▁正在玩": 8172,
      "去散步": 8173,
      "▁去散步": 8174,
      "愿意": 8175,
      "▁愿意": 8176,
      "听到了": 8177,
      "▁听到了": 8178,
      "他们很": 8179,
      "▁他们很": 8180,
      "茸茸": 8181,
      "▁茸茸": 8182,
      "毛茸茸": 8183,
      "▁毛茸茸": 8184,
      "萨拉": 8185,
      "▁萨拉": 8186,
      "想了想": 8187,
      "▁想了想": 8188,
      "在外面玩耍": 8189,
      "▁在外面玩耍": 8190,
      "头发": 8191,
      "▁头发": 8192,
      "和她的": 8193,
      "▁和她的": 8194,
      "他们很高兴": 8195,
      "▁他们很高兴": 8196,
      "新玩具": 8197,
      "▁新玩具": 8198,
      "莉莉和本": 8199,
      "▁莉莉和本": 8200,
      "去商店": 8201,
      "▁去商店": 8202,
      "带来": 8203,
      "▁带来": 8204,
      "成功": 8205,
      "▁成功": 8206,
      "丢了": 8207,
      "▁丢了": 8208,
      "受伤了": 8209,
      "▁受伤了": 8210,
      "有一辆": 8211,
      "▁有一辆": 8212,
      "最好的": 8213,
      "▁最好的": 8214,
      "你看": 8215,
      "▁你看": 8216,
      "有点": 8217,
      "▁有点": 8218,
      "玩它": 8219,
      "▁玩它": 8220,
      "他决定": 8221,
      "▁他决定": 8222,
      "也很高兴": 8223,
      "▁也很高兴": 8224,
      "听了": 8225,
      "▁听了": 8226,
      "有一只小": 8227,
      "▁有一只小": 8228,
      "我们来": 8229,
      "▁我们来": 8230,
      "那是什么": 8231,
      "▁那是什么": 8232,
      "回家的": 8233,
      "▁回家的": 8234,
      "名叫汤姆": 8235,
      "▁名叫汤姆": 8236,
      "星星": 8237,
      "▁星星": 8238,
      "我是": 8239,
      "▁我是": 8240,
      "令人": 8241,
      "▁令人": 8242,
      "洞里": 8243,
      "▁洞里": 8244,
      "不得不": 8245,
      "▁不得不": 8246,
      "植物": 8247,
      "▁植物": 8248,
      "和汤姆": 8249,
      "▁和汤姆": 8250,
      "迫不及待地想": 8251,
      "▁迫不及待地想": 8252,
      "安静": 8253,
      "▁安静": 8254,
      "哥哥": 8255,
      "▁哥哥": 8256,
      "把球": 8257,
      "▁把球": 8258,
      "感到很难过": 8259,
      "▁感到很难过": 8260,
      "醒来": 8261,
      "▁醒来": 8262,
      "在一个小": 8263,
      "▁在一个小": 8264,
      "得到": 8265,
      "▁得到": 8266,
      "挥手": 8267,
      "▁挥手": 8268,
      "进了": 8269,
      "▁进了": 8270,
      "树叶": 8271,
      "▁树叶": 8272,
      "教训": 8273,
      "▁教训": 8274,
      "不见了": 8275,
      "▁不见了": 8276,
      "舒服": 8277,
      "▁舒服": 8278,
      "移动": 8279,
      "▁移动": 8280,
      "她把它": 8281,
      "▁她把它": 8282,
      "你想": 8283,
      "▁你想": 8284,
      "爱的": 8285,
      "▁爱的": 8286,
      "收拾": 8287,
      "▁收拾": 8288,
      "掉了": 8289,
      "▁掉了": 8290,
      "一件": 8291,
      "▁一件": 8292,
      "一只小鸟": 8293,
      "▁一只小鸟": 8294,
      "很快就": 8295,
      "▁很快就": 8296,
      "钥匙": 8297,
      "▁钥匙": 8298,
      "打开了": 8299,
      "▁打开了": 8300,
      "森林": 8301,
      "▁森林": 8302,
      "戴着": 8303,
      "▁戴着": 8304,
      "色的大": 8305,
      "▁色的大": 8306,
      "父亲": 8307,
      "▁父亲": 8308,
      "时光": 8309,
      "▁时光": 8310,
      "问妈妈": 8311,
      "▁问妈妈": 8312,
      "萨米": 8313,
      "▁萨米": 8314,
      "蒂米很高兴": 8315,
      "▁蒂米很高兴": 8316,
      "农场": 8317,
      "▁农场": 8318,
      "在了": 8319,
      "▁在了": 8320,
      "发生了什么事": 8321,
      "▁发生了什么事": 8322,
      "灌木": 8323,
      "▁灌木": 8324,
      "三明": 8325,
      "▁三明": 8326,
      "三明治": 8327,
      "▁三明治": 8328,
      "口气": 8329,
      "▁口气": 8330,
      "保证": 8331,
      "▁保证": 8332,
      "红球": 8333,
      "▁红球": 8334,
      "高兴地": 8335,
      "▁高兴地": 8336,
      "关于": 8337,
      "▁关于": 8338,
      "手套": 8339,
      "▁手套": 8340,
      "捡起": 8341,
      "▁捡起": 8342,
      "树下": 8343,
      "▁树下": 8344,
      "得更": 8345,
      "▁得更": 8346,
      "一个名叫莉莉的小女孩": 8347,
      "▁一个名叫莉莉的小女孩": 8348,
      "捉迷": 8349,
      "▁捉迷": 8350,
      "捉迷藏": 8351,
      "▁捉迷藏": 8352,
      "桌子上": 8353,
      "▁桌子上": 8354,
      "树林里": 8355,
      "▁树林里": 8356,
      "从那": 8357,
      "▁从那": 8358,
      "莉拉": 8359,
      "▁莉拉": 8360,
      "在一起玩耍": 8361,
      "▁在一起玩耍": 8362,
      "灌木丛": 8363,
      "▁灌木丛": 8364,
      "笑容": 8365,
      "▁笑容": 8366,
      "后院": 8367,
      "▁后院": 8368,
      "面包": 8369,
      "▁面包": 8370,
      "计划": 8371,
      "▁计划": 8372,
      "她会": 8373,
      "▁她会": 8374,
      "表示": 8375,
      "▁表示": 8376,
      "有一位": 8377,
      "▁有一位": 8378,
      "旅行": 8379,
      "▁旅行": 8380,
      "得很快": 8381,
      "▁得很快": 8382,
      "玩了一整天": 8383,
      "▁玩了一整天": 8384,
      "他们每天都": 8385,
      "▁他们每天都": 8386,
      "不听": 8387,
      "▁不听": 8388,
      "带回家": 8389,
      "▁带回家": 8390,
      "并没有": 8391,
      "▁并没有": 8392,
      "知道他": 8393,
      "▁知道他": 8394,
      "小鸟说": 8395,
      "▁小鸟说": 8396,
      "黛西": 8397,
      "▁黛西": 8398,
      "莉莉很": 8399,
      "▁莉莉很": 8400,
      "遇到了一只": 8401,
      "▁遇到了一只": 8402,
      "家里": 8403,
      "▁家里": 8404,
      "靠近": 8405,
      "▁靠近": 8406,
      "蜡笔": 8407,
      "▁蜡笔": 8408,
      "仙女": 8409,
      "▁仙女": 8410,
      "荡秋千": 8411,
      "▁荡秋千": 8412,
      "真是太": 8413,
      "▁真是太": 8414,
      "捡起来": 8415,
      "▁捡起来": 8416,
      "吃完": 8417,
      "▁吃完": 8418,
      "玩了": 8419,
      "▁玩了": 8420,
      "跑来跑去": 8421,
      "▁跑来跑去": 8422,
      "一起在": 8423,
      "▁一起在": 8424,
      "最喜欢的玩具": 8425,
      "▁最喜欢的玩具": 8426,
      "风吹": 8427,
      "▁风吹": 8428,
      "一个名叫蒂姆的男孩": 8429,
      "▁一个名叫蒂姆的男孩": 8430,
      "很长": 8431,
      "▁很长": 8432,
      "问她": 8433,
      "▁问她": 8434,
      "坐下来": 8435,
      "▁坐下来": 8436,
      "非常高兴和": 8437,
      "▁非常高兴和": 8438,
      "你能帮我": 8439,
      "▁你能帮我": 8440,
      "让它": 8441,
      "▁让它": 8442,
      "大鸟": 8443,
      "▁大鸟": 8444,
      "螃蟹": 8445,
      "▁螃蟹": 8446,
      "舒适": 8447,
      "▁舒适": 8448,
      "他们又": 8449,
      "▁他们又": 8450,
      "里玩耍": 8451,
      "▁里玩耍": 8452,
      "国王": 8453,
      "▁国王": 8454,
      "灿烂": 8455,
      "▁灿烂": 8456,
      "帮助她": 8457,
      "▁帮助她": 8458,
      "不高兴": 8459,
      "▁不高兴": 8460,
      "美好": 8461,
      "▁美好": 8462,
      "用它": 8463,
      "▁用它": 8464,
      "聪明的": 8465,
      "▁聪明的": 8466,
      "在公园里玩耍": 8467,
      "▁在公园里玩耍": 8468,
      "脸上": 8469,
      "▁脸上": 8470,
      "有了一个主意": 8471,
      "▁有了一个主意": 8472,
      "有人": 8473,
      "▁有人": 8474,
      "最终": 8475,
      "▁最终": 8476,
      "子和": 8477,
      "▁子和": 8478,
      "能够": 8479,
      "▁能够": 8480,
      "时起": 8481,
      "▁时起": 8482,
      "和她妈妈": 8483,
      "▁和她妈妈": 8484,
      "答应了": 8485,
      "▁答应了": 8486,
      "见到": 8487,
      "▁见到": 8488,
      "加入": 8489,
      "▁加入": 8490,
      "花朵": 8491,
      "▁花朵": 8492,
      "孤独": 8493,
      "▁孤独": 8494,
      "所以她": 8495,
      "▁所以她": 8496,
      "从那时起": 8497,
      "▁从那时起": 8498,
      "更加小心": 8499,
      "▁更加小心": 8500,
      "妈妈的": 8501,
      "▁妈妈的": 8502,
      "这时": 8503,
      "▁这时": 8504,
      "骄傲": 8505,
      "▁骄傲": 8506,
      "晚餐": 8507,
      "▁晚餐": 8508,
      "她问妈妈": 8509,
      "▁她问妈妈": 8510,
      "累了": 8511,
      "▁累了": 8512,
      "了出来": 8513,
      "▁了出来": 8514,
      "亲爱的": 8515,
      "▁亲爱的": 8516,
      "他非常": 8517,
      "▁他非常": 8518,
      "男子": 8519,
      "▁男子": 8520,
      "帮助别人": 8521,
      "▁帮助别人": 8522,
      "了一位": 8523,
      "▁了一位": 8524,
      "玩着": 8525,
      "▁玩着": 8526,
      "也想": 8527,
      "▁也想": 8528,
      "新事物": 8529,
      "▁新事物": 8530,
      "旋转": 8531,
      "▁旋转": 8532,
      "迷路": 8533,
      "▁迷路": 8534,
      "我不知道": 8535,
      "▁我不知道": 8536,
      "莉莉喜欢": 8537,
      "▁莉莉喜欢": 8538,
      "都是": 8539,
      "▁都是": 8540,
      "梦想": 8541,
      "▁梦想": 8542,
      "进行": 8543,
      "▁进行": 8544,
      "回到了": 8545,
      "▁回到了": 8546,
      "翼翼": 8547,
      "▁翼翼": 8548,
      "跳去": 8549,
      "▁跳去": 8550,
      "有些": 8551,
      "▁有些": 8552,
      "莉莉就": 8553,
      "▁莉莉就": 8554,
      "健康": 8555,
      "▁健康": 8556,
      "艾玛": 8557,
      "▁艾玛": 8558,
      "保护": 8559,
      "▁保护": 8560,
      "真的": 8561,
      "▁真的": 8562,
      "她对": 8563,
      "▁她对": 8564,
      "他认为": 8565,
      "▁他认为": 8566,
      "摔倒了": 8567,
      "▁摔倒了": 8568,
      "水坑": 8569,
      "▁水坑": 8570,
      "她喜欢玩": 8571,
      "▁她喜欢玩": 8572,
      "小心翼翼": 8573,
      "▁小心翼翼": 8574,
      "他试图": 8575,
      "▁他试图": 8576,
      "高高": 8577,
      "▁高高": 8578,
      "奶酪": 8579,
      "▁奶酪": 8580,
      "回到家时": 8581,
      "▁回到家时": 8582,
      "跳来": 8583,
      "▁跳来": 8584,
      "一起玩得很开心": 8585,
      "▁一起玩得很开心": 8586,
      "鼓掌": 8587,
      "▁鼓掌": 8588,
      "让我": 8589,
      "▁让我": 8590,
      "过上了": 8591,
      "▁过上了": 8592,
      "如果你": 8593,
      "▁如果你": 8594,
      "我们一起": 8595,
      "▁我们一起": 8596,
      "过上了幸福的生活": 8597,
      "▁过上了幸福的生活": 8598,
      "向妈妈": 8599,
      "▁向妈妈": 8600,
      "太大了": 8601,
      "▁太大了": 8602,
      "蒂米说": 8603,
      "▁蒂米说": 8604,
      "他就": 8605,
      "▁他就": 8606,
      "幸运": 8607,
      "▁幸运": 8608,
      "跳来跳去": 8609,
      "▁跳来跳去": 8610,
      "蒂姆喜欢": 8611,
      "▁蒂姆喜欢": 8612,
      "他对": 8613,
      "▁他对": 8614,
      "听到一声巨响": 8615,
      "▁听到一声巨响": 8616,
      "提供帮助": 8617,
      "▁提供帮助": 8618,
      "耐心": 8619,
      "▁耐心": 8620,
      "衬衫": 8621,
      "▁衬衫": 8622,
      "坚果": 8623,
      "▁坚果": 8624,
      "好吃": 8625,
      "▁好吃": 8626,
      "特殊的": 8627,
      "▁特殊的": 8628,
      "跳跃": 8629,
      "▁跳跃": 8630,
      "下雨": 8631,
      "▁下雨": 8632,
      "回了": 8633,
      "▁回了": 8634,
      "并将": 8635,
      "▁并将": 8636,
      "拿给": 8637,
      "▁拿给": 8638,
      "有多": 8639,
      "▁有多": 8640,
      "他用": 8641,
      "▁他用": 8642,
      "要去": 8643,
      "▁要去": 8644,
      "看了看": 8645,
      "▁看了看": 8646,
      "杯子": 8647,
      "▁杯子": 8648,
      "不应该": 8649,
      "▁不应该": 8650,
      "承诺": 8651,
      "▁承诺": 8652,
      "他们知道": 8653,
      "▁他们知道": 8654,
      "和玩耍": 8655,
      "▁和玩耍": 8656,
      "看上去": 8657,
      "▁看上去": 8658,
      "猫和": 8659,
      "▁猫和": 8660,
      "看到了一个": 8661,
      "▁看到了一个": 8662,
      "一起玩吗": 8663,
      "▁一起玩吗": 8664,
      "被困": 8665,
      "▁被困": 8666,
      "汤姆的": 8667,
      "▁汤姆的": 8668,
      "大象": 8669,
      "▁大象": 8670,
      "和她": 8671,
      "▁和她": 8672,
      "在玩": 8673,
      "▁在玩": 8674,
      "真正": 8675,
      "▁真正": 8676,
      "宝藏": 8677,
      "▁宝藏": 8678,
      "神奇的": 8679,
      "▁神奇的": 8680,
      "树木": 8681,
      "▁树木": 8682,
      "修理": 8683,
      "▁修理": 8684,
      "喜欢玩他的玩具": 8685,
      "▁喜欢玩他的玩具": 8686,
      "亮的": 8687,
      "▁亮的": 8688,
      "怎么了": 8689,
      "▁怎么了": 8690,
      "解释说": 8691,
      "▁解释说": 8692,
      "为他": 8693,
      "▁为他": 8694,
      "逃跑了": 8695,
      "▁逃跑了": 8696,
      "一看": 8697,
      "▁一看": 8698,
      "毯子": 8699,
      "▁毯子": 8700,
      "艾莉": 8701,
      "▁艾莉": 8702,
      "裙子": 8703,
      "▁裙子": 8704,
      "赢得": 8705,
      "▁赢得": 8706,
      "紧紧地": 8707,
      "▁紧紧地": 8708,
      "天气": 8709,
      "▁天气": 8710,
      "爪子": 8711,
      "▁爪子": 8712,
      "她感到": 8713,
      "▁她感到": 8714,
      "去了公园": 8715,
      "▁去了公园": 8716,
      "其他动物": 8717,
      "▁其他动物": 8718,
      "向她": 8719,
      "▁向她": 8720,
      "经历": 8721,
      "▁经历": 8722,
      "的所有": 8723,
      "▁的所有": 8724,
      "的歌": 8725,
      "▁的歌": 8726,
      "变成": 8727,
      "▁变成": 8728,
      "弟弟": 8729,
      "▁弟弟": 8730,
      "邻居": 8731,
      "▁邻居": 8732,
      "巴迪": 8733,
      "▁巴迪": 8734,
      "莉莉问道": 8735,
      "▁莉莉问道": 8736,
      "早上": 8737,
      "▁早上": 8738,
      "人的": 8739,
      "▁人的": 8740,
      "床上": 8741,
      "▁床上": 8742,
      "睡着": 8743,
      "▁睡着": 8744,
      "消失了": 8745,
      "▁消失了": 8746,
      "收集": 8747,
      "▁收集": 8748,
      "他开始": 8749,
      "▁他开始": 8750,
      "需要帮助": 8751,
      "▁需要帮助": 8752,
      "向他": 8753,
      "▁向他": 8754,
      "你想和": 8755,
      "▁你想和": 8756,
      "回去": 8757,
      "▁回去": 8758,
      "找到了一": 8759,
      "▁找到了一": 8760,
      "和她的朋友们": 8761,
      "▁和她的朋友们": 8762,
      "非常惊讶": 8763,
      "▁非常惊讶": 8764,
      "好事": 8765,
      "▁好事": 8766,
      "以前从未": 8767,
      "▁以前从未": 8768,
      "进来": 8769,
      "▁进来": 8770,
      "完美": 8771,
      "▁完美": 8772,
      "彼此": 8773,
      "▁彼此": 8774,
      "色彩": 8775,
      "▁色彩": 8776,
      "轮流": 8777,
      "▁轮流": 8778,
      "他们可以": 8779,
      "▁他们可以": 8780,
      "厨房里": 8781,
      "▁厨房里": 8782,
      "一把": 8783,
      "▁一把": 8784,
      "传来": 8785,
      "▁传来": 8786,
      "问他": 8787,
      "▁问他": 8788,
      "生日": 8789,
      "▁生日": 8790,
      "她看到了": 8791,
      "▁她看到了": 8792,
      "并说": 8793,
      "▁并说": 8794,
      "好心": 8795,
      "▁好心": 8796,
      "但就在这时": 8797,
      "▁但就在这时": 8798,
      "牛奶": 8799,
      "▁牛奶": 8800,
      "爱你": 8801,
      "▁爱你": 8802,
      "感到悲伤和": 8803,
      "▁感到悲伤和": 8804,
      "它很": 8805,
      "▁它很": 8806,
      "检查": 8807,
      "▁检查": 8808,
      "她发现": 8809,
      "▁她发现": 8810,
      "一个小女孩": 8811,
      "▁一个小女孩": 8812,
      "这位": 8813,
      "▁这位": 8814,
      "弗雷": 8815,
      "▁弗雷": 8816,
      "他们看到了": 8817,
      "▁他们看到了": 8818,
      "摇着": 8819,
      "▁摇着": 8820,
      "口袋": 8821,
      "▁口袋": 8822,
      "下次": 8823,
      "▁下次": 8824,
      "小心翼翼地": 8825,
      "▁小心翼翼地": 8826,
      "和朋友们一起": 8827,
      "▁和朋友们一起": 8828,
      "帮助你": 8829,
      "▁帮助你": 8830,
      "蒂姆想": 8831,
      "▁蒂姆想": 8832,
      "莉莉在": 8833,
      "▁莉莉在": 8834,
      "她非常": 8835,
      "▁她非常": 8836,
      "错误": 8837,
      "▁错误": 8838,
      "硬币": 8839,
      "▁硬币": 8840,
      "尼莫": 8841,
      "▁尼莫": 8842,
      "了他": 8843,
      "▁了他": 8844,
      "尽管": 8845,
      "▁尽管": 8846,
      "个好": 8847,
      "▁个好": 8848,
      "希望自己": 8849,
      "▁希望自己": 8850,
      "两人": 8851,
      "▁两人": 8852,
      "他看到了": 8853,
      "▁他看到了": 8854,
      "沮丧": 8855,
      "▁沮丧": 8856,
      "属于": 8857,
      "▁属于": 8858,
      "在树上": 8859,
      "▁在树上": 8860,
      "跑步": 8861,
      "▁跑步": 8862,
      "果汁": 8863,
      "▁果汁": 8864,
      "的小狗": 8865,
      "▁的小狗": 8866,
      "他们是": 8867,
      "▁他们是": 8868,
      "这很": 8869,
      "▁这很": 8870,
      "走过来": 8871,
      "▁走过来": 8872,
      "成为朋友": 8873,
      "▁成为朋友": 8874,
      "让你": 8875,
      "▁让你": 8876,
      "从此过上了幸福的生活": 8877,
      "▁从此过上了幸福的生活": 8878,
      "老师": 8879,
      "▁老师": 8880,
      "愚蠢": 8881,
      "▁愚蠢": 8882,
      "我们需要": 8883,
      "▁我们需要": 8884,
      "手臂": 8885,
      "▁手臂": 8886,
      "喜欢吃": 8887,
      "▁喜欢吃": 8888,
      "并开始": 8889,
      "▁并开始": 8890,
      "一棵大树": 8891,
      "▁一棵大树": 8892,
      "蓝色的": 8893,
      "▁蓝色的": 8894,
      "原谅": 8895,
      "▁原谅": 8896,
      "鞋子": 8897,
      "▁鞋子": 8898,
      "摇晃": 8899,
      "▁摇晃": 8900,
      "她就": 8901,
      "▁她就": 8902,
      "摇着尾巴": 8903,
      "▁摇着尾巴": 8904,
      "电视": 8905,
      "▁电视": 8906,
      "司机": 8907,
      "▁司机": 8908,
      "并在": 8909,
      "▁并在": 8910,
      "麦克斯的": 8911,
      "▁麦克斯的": 8912,
      "农夫": 8913,
      "▁农夫": 8914,
      "作为": 8915,
      "▁作为": 8916,
      "池塘里": 8917,
      "▁池塘里": 8918,
      "他们继续": 8919,
      "▁他们继续": 8920,
      "大笑": 8921,
      "▁大笑": 8922,
      "箱里": 8923,
      "▁箱里": 8924,
      "但有一天": 8925,
      "▁但有一天": 8926,
      "朵花": 8927,
      "▁朵花": 8928,
      "强壮": 8929,
      "▁强壮": 8930,
      "以来": 8931,
      "▁以来": 8932,
      "邀请": 8933,
      "▁邀请": 8934,
      "他把它": 8935,
      "▁他把它": 8936,
      "了又": 8937,
      "▁了又": 8938,
      "分享了": 8939,
      "▁分享了": 8940,
      "洗澡": 8941,
      "▁洗澡": 8942,
      "来到了": 8943,
      "▁来到了": 8944,
      "拒绝": 8945,
      "▁拒绝": 8946,
      "爸爸说": 8947,
      "▁爸爸说": 8948,
      "风筝": 8949,
      "▁风筝": 8950,
      "成为了": 8951,
      "▁成为了": 8952,
      "无聊": 8953,
      "▁无聊": 8954,
      "妹妹": 8955,
      "▁妹妹": 8956,
      "他可以": 8957,
      "▁他可以": 8958,
      "晚饭": 8959,
      "▁晚饭": 8960,
      "我们会": 8961,
      "▁我们会": 8962,
      "和家人": 8963,
      "▁和家人": 8964,
      "长凳": 8965,
      "▁长凳": 8966,
      "外套": 8967,
      "▁外套": 8968,
      "观察": 8969,
      "▁观察": 8970,
      "笑道": 8971,
      "▁笑道": 8972,
      "鼻子": 8973,
      "▁鼻子": 8974,
      "柔软的": 8975,
      "▁柔软的": 8976,
      "睡着了": 8977,
      "▁睡着了": 8978,
      "不敢": 8979,
      "▁不敢": 8980,
      "灿烂的": 8981,
      "▁灿烂的": 8982,
      "有史": 8983,
      "▁有史": 8984,
      "那只狗": 8985,
      "▁那只狗": 8986,
      "形状": 8987,
      "▁形状": 8988,
      "有史以来": 8989,
      "▁有史以来": 8990,
      "他们了解到": 8991,
      "▁他们了解到": 8992,
      "以及": 8993,
      "▁以及": 8994,
      "香蕉": 8995,
      "▁香蕉": 8996,
      "名叫苏": 8997,
      "▁名叫苏": 8998,
      "一种": 8999,
      "▁一种": 9000,
      "拿出": 9001,
      "▁拿出": 9002,
      "动物们": 9003,
      "▁动物们": 9004,
      "蒂姆和苏": 9005,
      "▁蒂姆和苏": 9006,
      "布朗": 9007,
      "▁布朗": 9008,
      "吃饭": 9009,
      "▁吃饭": 9010,
      "在这里": 9011,
      "▁在这里": 9012,
      "修复": 9013,
      "▁修复": 9014,
      "她有一个": 9015,
      "▁她有一个": 9016,
      "轻轻": 9017,
      "▁轻轻": 9018,
      "秘密": 9019,
      "▁秘密": 9020,
      "指着": 9021,
      "▁指着": 9022,
      "一座": 9023,
      "▁一座": 9024,
      "莉莉的朋友": 9025,
      "▁莉莉的朋友": 9026,
      "学校": 9027,
      "▁学校": 9028,
      "在一片": 9029,
      "▁在一片": 9030,
      "我很高兴": 9031,
      "▁我很高兴": 9032,
      "满意": 9033,
      "▁满意": 9034,
      "和他的朋友": 9035,
      "▁和他的朋友": 9036,
      "打开盒子": 9037,
      "▁打开盒子": 9038,
      "在他的": 9039,
      "▁在他的": 9040,
      "逃跑": 9041,
      "▁逃跑": 9042,
      "蒂米喜欢在": 9043,
      "▁蒂米喜欢在": 9044,
      "混合": 9045,
      "▁混合": 9046,
      "得开心": 9047,
      "▁得开心": 9048,
      "建议": 9049,
      "▁建议": 9050,
      "他们整天": 9051,
      "▁他们整天": 9052,
      "椅子": 9053,
      "▁椅子": 9054,
      "始终": 9055,
      "▁始终": 9056,
      "你想和我": 9057,
      "▁你想和我": 9058,
      "坚强": 9059,
      "▁坚强": 9060,
      "感到害怕": 9061,
      "▁感到害怕": 9062,
      "已晚": 9063,
      "▁已晚": 9064,
      "客气": 9065,
      "▁客气": 9066,
      "为时": 9067,
      "▁为时": 9068,
      "向他们": 9069,
      "▁向他们": 9070,
      "搅拌": 9071,
      "▁搅拌": 9072,
      "吸取": 9073,
      "▁吸取": 9074,
      "了很多": 9075,
      "▁了很多": 9076,
      "红色的大": 9077,
      "▁红色的大": 9078,
      "英雄": 9079,
      "▁英雄": 9080,
      "垃圾": 9081,
      "▁垃圾": 9082,
      "结识": 9083,
      "▁结识": 9084,
      "空中": 9085,
      "▁空中": 9086,
      "他们一起玩耍": 9087,
      "▁他们一起玩耍": 9088,
      "了一大": 9089,
      "▁了一大": 9090,
      "走去": 9091,
      "▁走去": 9092,
      "为时已晚": 9093,
      "▁为时已晚": 9094,
      "外面玩耍": 9095,
      "▁外面玩耍": 9096,
      "表演": 9097,
      "▁表演": 9098,
      "抓住了": 9099,
      "▁抓住了": 9100,
      "所有的朋友": 9101,
      "▁所有的朋友": 9102,
      "按钮": 9103,
      "▁按钮": 9104,
      "赶紧": 9105,
      "▁赶紧": 9106,
      "装饰": 9107,
      "▁装饰": 9108,
      "蒂姆和萨姆": 9109,
      "▁蒂姆和萨姆": 9110,
      "这棵树": 9111,
      "▁这棵树": 9112,
      "种子": 9113,
      "▁种子": 9114,
      "的鸟": 9115,
      "▁的鸟": 9116,
      "在外面玩": 9117,
      "▁在外面玩": 9118,
      "栅栏": 9119,
      "▁栅栏": 9120,
      "拿走了": 9121,
      "▁拿走了": 9122,
      "乐意": 9123,
      "▁乐意": 9124,
      "她告诉": 9125,
      "▁她告诉": 9126,
      "高了": 9127,
      "▁高了": 9128,
      "很喜欢": 9129,
      "▁很喜欢": 9130,
      "大利": 9131,
      "▁大利": 9132,
      "安娜和本": 9133,
      "▁安娜和本": 9134,
      "好奇": 9135,
      "▁好奇": 9136,
      "水中": 9137,
      "▁水中": 9138,
      "骨头": 9139,
      "▁骨头": 9140,
      "开车": 9141,
      "▁开车": 9142,
      "一只小": 9143,
      "▁一只小": 9144,
      "底下": 9145,
      "▁底下": 9146,
      "树枝上": 9147,
      "▁树枝上": 9148,
      "并与": 9149,
      "▁并与": 9150,
      "意大利": 9151,
      "▁意大利": 9152,
      "膝盖": 9153,
      "▁膝盖": 9154,
      "不同的": 9155,
      "▁不同的": 9156,
      "可以玩": 9157,
      "▁可以玩": 9158,
      "彩虹": 9159,
      "▁彩虹": 9160,
      "另一个": 9161,
      "▁另一个": 9162,
      "有一只小鸟": 9163,
      "▁有一只小鸟": 9164,
      "尝试一下": 9165,
      "▁尝试一下": 9166,
      "让他们": 9167,
      "▁让他们": 9168,
      "害羞": 9169,
      "▁害羞": 9170,
      "我可以帮你": 9171,
      "▁我可以帮你": 9172,
      "飞来": 9173,
      "▁飞来": 9174,
      "选择": 9175,
      "▁选择": 9176,
      "羽毛": 9177,
      "▁羽毛": 9178,
      "有一张": 9179,
      "▁有一张": 9180,
      "莉莉和她妈妈": 9181,
      "▁莉莉和她妈妈": 9182,
      "大家都": 9183,
      "▁大家都": 9184,
      "跳到": 9185,
      "▁跳到": 9186,
      "ee": 9187,
      "▁ee": 9188,
      "EE": 9189,
      "▁EE": 9190,
      "Ee": 9191,
      "▁Ee": 9192,
      "意大利面": 9193,
      "▁意大利面": 9194,
      "沙发": 9195,
      "▁沙发": 9196,
      "特别的": 9197,
      "▁特别的": 9198,
      "但为时已晚": 9199,
      "▁但为时已晚": 9200,
      "那是一个": 9201,
      "▁那是一个": 9202,
      "打电话": 9203,
      "▁打电话": 9204,
      "结束后": 9205,
      "▁结束后": 9206,
      "找到了一个": 9207,
      "▁找到了一个": 9208,
      "抬头": 9209,
      "▁抬头": 9210,
      "莉莉和汤姆": 9211,
      "▁莉莉和汤姆": 9212,
      "这只狗": 9213,
      "▁这只狗": 9214,
      "我知道": 9215,
      "▁我知道": 9216,
      "完成后": 9217,
      "▁完成后": 9218,
      "而感到自豪": 9219,
      "▁而感到自豪": 9220,
      "三岁": 9221,
      "▁三岁": 9222,
      "感到骄傲": 9223,
      "▁感到骄傲": 9224,
      "他们互相": 9225,
      "▁他们互相": 9226,
      "无论": 9227,
      "▁无论": 9228,
      "他人": 9229,
      "▁他人": 9230,
      "旁边": 9231,
      "▁旁边": 9232,
      "本书": 9233,
      "▁本书": 9234,
      "感到很高兴": 9235,
      "▁感到很高兴": 9236,
      "迷路了": 9237,
      "▁迷路了": 9238,
      "愤怒": 9239,
      "▁愤怒": 9240,
      "卑鄙": 9241,
      "▁卑鄙": 9242,
      "碎片": 9243,
      "▁碎片": 9244,
      "和他的妈妈": 9245,
      "▁和他的妈妈": 9246,
      "写着": 9247,
      "▁写着": 9248,
      "有一个女孩": 9249,
      "▁有一个女孩": 9250,
      "莉莉微笑着": 9251,
      "▁莉莉微笑着": 9252,
      "名叫斑点": 9253,
      "▁名叫斑点": 9254,
      "不客气": 9255,
      "▁不客气": 9256,
      "花园里玩耍": 9257,
      "▁花园里玩耍": 9258,
      "在一个小镇上": 9259,
      "▁在一个小镇上": 9260,
      "电影": 9261,
      "▁电影": 9262,
      "欢呼": 9263,
      "▁欢呼": 9264,
      "过来玩": 9265,
      "▁过来玩": 9266,
      "她试图": 9267,
      "▁她试图": 9268,
      "身上": 9269,
      "▁身上": 9270,
      "罐子": 9271,
      "▁罐子": 9272,
      "多么": 9273,
      "▁多么": 9274,
      "想吃": 9275,
      "▁想吃": 9276,
      "箱子": 9277,
      "▁箱子": 9278,
      "得很好": 9279,
      "▁得很好": 9280,
      "医院": 9281,
      "▁医院": 9282,
      "手里": 9283,
      "▁手里": 9284,
      "的帮助": 9285,
      "▁的帮助": 9286,
      "野餐": 9287,
      "▁野餐": 9288,
      "带她": 9289,
      "▁带她": 9290,
      "田野": 9291,
      "▁田野": 9292,
      "明天": 9293,
      "▁明天": 9294,
      "看到了一只": 9295,
      "▁看到了一只": 9296,
      "发现了一个大": 9297,
      "▁发现了一个大": 9298,
      "一会儿": 9299,
      "▁一会儿": 9300,
      "克力": 9301,
      "▁克力": 9302,
      "巧克力": 9303,
      "▁巧克力": 9304,
      "公园里玩耍": 9305,
      "▁公园里玩耍": 9306,
      "练习": 9307,
      "▁练习": 9308,
      "柠檬": 9309,
      "▁柠檬": 9310,
      "南瓜": 9311,
      "▁南瓜": 9312,
      "顽皮": 9313,
      "▁顽皮": 9314,
      "一大": 9315,
      "▁一大": 9316,
      "汤姆和莉莉": 9317,
      "▁汤姆和莉莉": 9318,
      "粉红色的": 9319,
      "▁粉红色的": 9320,
      "胡须": 9321,
      "▁胡须": 9322,
      "小熊": 9323,
      "▁小熊": 9324,
      "非常漂亮": 9325,
      "▁非常漂亮": 9326,
      "是朋友": 9327,
      "▁是朋友": 9328,
      "太太": 9329,
      "▁太太": 9330,
      "嘴里": 9331,
      "▁嘴里": 9332,
      "平静": 9333,
      "▁平静": 9334,
      "饿了": 9335,
      "▁饿了": 9336,
      "她看到一只": 9337,
      "▁她看到一只": 9338,
      "的小男孩": 9339,
      "▁的小男孩": 9340,
      "贝壳": 9341,
      "▁贝壳": 9342,
      "温柔": 9343,
      "▁温柔": 9344,
      "保留": 9345,
      "▁保留": 9346,
      "手中": 9347,
      "▁手中": 9348,
      "打开它": 9349,
      "▁打开它": 9350,
      "和蒂姆": 9351,
      "▁和蒂姆": 9352,
      "快了": 9353,
      "▁快了": 9354,
      "帮她": 9355,
      "▁帮她": 9356,
      "不舒服": 9357,
      "▁不舒服": 9358,
      "善待": 9359,
      "▁善待": 9360,
      "会说话": 9361,
      "▁会说话": 9362,
      "抓住它": 9363,
      "▁抓住它": 9364,
      "窗户": 9365,
      "▁窗户": 9366,
      "只要": 9367,
      "▁只要": 9368,
      "屋里": 9369,
      "▁屋里": 9370,
      "创造": 9371,
      "▁创造": 9372,
      "比如": 9373,
      "▁比如": 9374,
      "四处": 9375,
      "▁四处": 9376,
      "灿烂的笑容": 9377,
      "▁灿烂的笑容": 9378,
      "要求": 9379,
      "▁要求": 9380,
      "丢失": 9381,
      "▁丢失": 9382,
      "我不想": 9383,
      "▁我不想": 9384,
      "动物园": 9385,
      "▁动物园": 9386,
      "地上有一": 9387,
      "▁地上有一": 9388,
      "头上": 9389,
      "▁头上": 9390,
      "在里面": 9391,
      "▁在里面": 9392,
      "下面": 9393,
      "▁下面": 9394,
      "和妈妈": 9395,
      "▁和妈妈": 9396,
      "做饭": 9397,
      "▁做饭": 9398,
      "基蒂": 9399,
      "▁基蒂": 9400,
      "莉莉和麦克斯": 9401,
      "▁莉莉和麦克斯": 9402,
      "机器人": 9403,
      "▁机器人": 9404,
      "飞行": 9405,
      "▁飞行": 9406,
      "把他": 9407,
      "▁把他": 9408,
      "表示感谢": 9409,
      "▁表示感谢": 9410,
      "不明白": 9411,
      "▁不明白": 9412,
      "他们的妈妈": 9413,
      "▁他们的妈妈": 9414,
      "表现": 9415,
      "▁表现": 9416,
      "在她的": 9417,
      "▁在她的": 9418,
      "她喜欢玩玩具": 9419,
      "▁她喜欢玩玩具": 9420,
      "正确": 9421,
      "▁正确": 9422,
      "来看": 9423,
      "▁来看": 9424,
      "绿色的": 9425,
      "▁绿色的": 9426,
      "绕着": 9427,
      "▁绕着": 9428,
      "美味的食物": 9429,
      "▁美味的食物": 9430,
      "把玩具": 9431,
      "▁把玩具": 9432,
      "大石头": 9433,
      "▁大石头": 9434,
      "不过": 9435,
      "▁不过": 9436,
      "记住": 9437,
      "▁记住": 9438,
      "欢迎": 9439,
      "▁欢迎": 9440,
      "她非常喜欢": 9441,
      "▁她非常喜欢": 9442,
      "善良的": 9443,
      "▁善良的": 9444,
      "他发现": 9445,
      "▁他发现": 9446,
      "以为": 9447,
      "▁以为": 9448,
      "帮助了": 9449,
      "▁帮助了": 9450,
      "奥利": 9451,
      "▁奥利": 9452,
      "尖叫": 9453,
      "▁尖叫": 9454,
      "她开始": 9455,
      "▁她开始": 9456,
      "小鱼": 9457,
      "▁小鱼": 9458,
      "她有一": 9459,
      "▁她有一": 9460,
      "的球": 9461,
      "▁的球": 9462,
      "莉莉了解到": 9463,
      "▁莉莉了解到": 9464,
      "走开": 9465,
      "▁走开": 9466,
      "泥土": 9467,
      "▁泥土": 9468,
      "这里": 9469,
      "▁这里": 9470,
      "去拿": 9471,
      "▁去拿": 9472,
      "仔细": 9473,
      "▁仔细": 9474,
      "大鱼": 9475,
      "▁大鱼": 9476,
      "道歉": 9477,
      "▁道歉": 9478,
      "但这": 9479,
      "▁但这": 9480,
      "方式": 9481,
      "▁方式": 9482,
      "和小鸟": 9483,
      "▁和小鸟": 9484,
      "它会": 9485,
      "▁它会": 9486,
      "桌子": 9487,
      "▁桌子": 9488,
      "吸取了": 9489,
      "▁吸取了": 9490,
      "花瓶": 9491,
      "▁花瓶": 9492,
      "一颗": 9493,
      "▁一颗": 9494,
      "墙上": 9495,
      "▁墙上": 9496,
      "戴上": 9497,
      "▁戴上": 9498,
      "的家": 9499,
      "▁的家": 9500,
      "带他": 9501,
      "▁带他": 9502,
      "乐于": 9503,
      "▁乐于": 9504,
      "可怕的": 9505,
      "▁可怕的": 9506,
      "蒂姆很伤心": 9507,
      "▁蒂姆很伤心": 9508,
      "他们用": 9509,
      "▁他们用": 9510,
      "ti": 9511,
      "▁ti": 9512,
      "TI": 9513,
      "▁TI": 9514,
      "Ti": 9515,
      "▁Ti": 9516,
      "的照片": 9517,
      "▁的照片": 9518,
      "蜂蜜": 9519,
      "▁蜂蜜": 9520,
      "回来了": 9521,
      "▁回来了": 9522,
      "我要": 9523,
      "▁我要": 9524,
      "抓起": 9525,
      "▁抓起": 9526,
      "窗外": 9527,
      "▁窗外": 9528,
      "他没有": 9529,
      "▁他没有": 9530,
      "蔬菜": 9531,
      "▁蔬菜": 9532,
      "走来": 9533,
      "▁走来": 9534,
      "一阵大": 9535,
      "▁一阵大": 9536,
      "她用": 9537,
      "▁她用": 9538,
      "鳄鱼": 9539,
      "▁鳄鱼": 9540,
      "脾气": 9541,
      "▁脾气": 9542,
      "它又": 9543,
      "▁它又": 9544,
      "接球": 9545,
      "▁接球": 9546,
      "欣赏": 9547,
      "▁欣赏": 9548,
      "可靠": 9549,
      "▁可靠": 9550,
      "好吗": 9551,
      "▁好吗": 9552,
      "也想玩": 9553,
      "▁也想玩": 9554,
      "袋子": 9555,
      "▁袋子": 9556,
      "放回": 9557,
      "▁放回": 9558,
      "富有": 9559,
      "▁富有": 9560,
      "味着": 9561,
      "▁味着": 9562,
      "走近": 9563,
      "▁走近": 9564,
      "黄色": 9565,
      "▁黄色": 9566,
      "和爸爸妈妈一起": 9567,
      "▁和爸爸妈妈一起": 9568,
      "在森林里": 9569,
      "▁在森林里": 9570,
      "掉下来": 9571,
      "▁掉下来": 9572,
      "拿走": 9573,
      "▁拿走": 9574,
      "和一个": 9575,
      "▁和一个": 9576,
      "意味着": 9577,
      "▁意味着": 9578,
      "苏说": 9579,
      "▁苏说": 9580,
      "走到外面": 9581,
      "▁走到外面": 9582,
      "他喜欢在": 9583,
      "▁他喜欢在": 9584,
      "你需要": 9585,
      "▁你需要": 9586,
      "尤其": 9587,
      "▁尤其": 9588,
      "也可以": 9589,
      "▁也可以": 9590,
      "他的玩具车": 9591,
      "▁他的玩具车": 9592,
      "附近的": 9593,
      "▁附近的": 9594,
      "去商店买": 9595,
      "▁去商店买": 9596,
      "小了": 9597,
      "▁小了": 9598,
      "这条": 9599,
      "▁这条": 9600,
      "美好的一天": 9601,
      "▁美好的一天": 9602,
      "一个人": 9603,
      "▁一个人": 9604,
      "慢慢": 9605,
      "▁慢慢": 9606,
      "了一段": 9607,
      "▁了一段": 9608,
      "走着走着": 9609,
      "▁走着走着": 9610,
      "了一条": 9611,
      "▁了一条": 9612,
      "你很": 9613,
      "▁你很": 9614,
      "来的": 9615,
      "▁来的": 9616,
      "会很有趣": 9617,
      "▁会很有趣": 9618,
      "吸取了教训": 9619,
      "▁吸取了教训": 9620,
      "萨姆说": 9621,
      "▁萨姆说": 9622,
      "尤其是": 9623,
      "▁尤其是": 9624,
      "自己的房间": 9625,
      "▁自己的房间": 9626,
      "不太": 9627,
      "▁不太": 9628,
      "不知道如何": 9629,
      "▁不知道如何": 9630,
      "不能再": 9631,
      "▁不能再": 9632,
      "听妈妈的话": 9633,
      "▁听妈妈的话": 9634,
      "询问": 9635,
      "▁询问": 9636,
      "飞到": 9637,
      "▁飞到": 9638,
      "为她": 9639,
      "▁为她": 9640,
      "他们去": 9641,
      "▁他们去": 9642,
      "他不想": 9643,
      "▁他不想": 9644,
      "玩吧": 9645,
      "▁玩吧": 9646,
      "风雨": 9647,
      "▁风雨": 9648,
      "和我": 9649,
      "▁和我": 9650,
      "了口气": 9651,
      "▁了口气": 9652,
      "tw": 9653,
      "▁tw": 9654,
      "TW": 9655,
      "▁TW": 9656,
      "Tw": 9657,
      "▁Tw": 9658,
      "浆果": 9659,
      "▁浆果": 9660,
      "救了": 9661,
      "▁救了": 9662,
      "噪音": 9663,
      "▁噪音": 9664,
      "鸽子": 9665,
      "▁鸽子": 9666,
      "闭上": 9667,
      "▁闭上": 9668,
      "乐于助": 9669,
      "▁乐于助": 9670,
      "莉莉知道": 9671,
      "▁莉莉知道": 9672,
      "演奏": 9673,
      "▁演奏": 9674,
      "鸡蛋": 9675,
      "▁鸡蛋": 9676,
      "以后": 9677,
      "▁以后": 9678,
      "海里": 9679,
      "▁海里": 9680,
      "送给": 9681,
      "▁送给": 9682,
      "太高兴了": 9683,
      "▁太高兴了": 9684,
      "咪咪": 9685,
      "▁咪咪": 9686,
      "大喊": 9687,
      "▁大喊": 9688,
      "她的洋娃娃": 9689,
      "▁她的洋娃娃": 9690,
      "轻轻地": 9691,
      "▁轻轻地": 9692,
      "地面": 9693,
      "▁地面": 9694,
      "那里时": 9695,
      "▁那里时": 9696,
      "女儿": 9697,
      "▁女儿": 9698,
      "但她妈妈": 9699,
      "▁但她妈妈": 9700,
      "他向": 9701,
      "▁他向": 9702,
      "情况": 9703,
      "▁情况": 9704,
      "得好": 9705,
      "▁得好": 9706,
      "她可以": 9707,
      "▁她可以": 9708,
      "温暖的": 9709,
      "▁温暖的": 9710,
      "一片": 9711,
      "▁一片": 9712,
      "勺子": 9713,
      "▁勺子": 9714,
      "山顶": 9715,
      "▁山顶": 9716,
      "一定要": 9717,
      "▁一定要": 9718,
      "招呼": 9719,
      "▁招呼": 9720,
      "我们必须": 9721,
      "▁我们必须": 9722,
      "婴儿": 9723,
      "▁婴儿": 9724,
      "她了解到": 9725,
      "▁她了解到": 9726,
      "想看看": 9727,
      "▁想看看": 9728,
      "困惑": 9729,
      "▁困惑": 9730,
      "很生气": 9731,
      "▁很生气": 9732,
      "杰瑞": 9733,
      "▁杰瑞": 9734,
      "口袋里": 9735,
      "▁口袋里": 9736,
      "闭上眼睛": 9737,
      "▁闭上眼睛": 9738,
      "身体": 9739,
      "▁身体": 9740,
      "雪人": 9741,
      "▁雪人": 9742,
      "衣柜": 9743,
      "▁衣柜": 9744,
      "但她知道": 9745,
      "▁但她知道": 9746,
      "但当": 9747,
      "▁但当": 9748,
      "暴风雨": 9749,
      "▁暴风雨": 9750,
      "黑暗": 9751,
      "▁黑暗": 9752,
      "真正的": 9753,
      "▁真正的": 9754,
      "一份": 9755,
      "▁一份": 9756,
      "的时光": 9757,
      "▁的时光": 9758,
      "猫说": 9759,
      "▁猫说": 9760,
      "他们没有": 9761,
      "▁他们没有": 9762,
      "适合": 9763,
      "▁适合": 9764,
      "这辆": 9765,
      "▁这辆": 9766,
      "抱住": 9767,
      "▁抱住": 9768,
      "twee": 9769,
      "▁twee": 9770,
      "TWEE": 9771,
      "▁TWEE": 9772,
      "Twee": 9773,
      "▁Twee": 9774,
      "感到惊讶": 9775,
      "▁感到惊讶": 9776,
      "贝拉": 9777,
      "▁贝拉": 9778,
      "老太太": 9779,
      "▁老太太": 9780,
      "落山": 9781,
      "▁落山": 9782,
      "观看": 9783,
      "▁观看": 9784,
      "很好吃": 9785,
      "▁很好吃": 9786,
      "他最喜欢的": 9787,
      "▁他最喜欢的": 9788,
      "落在": 9789,
      "▁落在": 9790,
      "了一场": 9791,
      "▁了一场": 9792,
      "拒绝了": 9793,
      "▁拒绝了": 9794,
      "从树上": 9795,
      "▁从树上": 9796,
      "他们俩都": 9797,
      "▁他们俩都": 9798,
      "客厅": 9799,
      "▁客厅": 9800,
      "暴躁": 9801,
      "▁暴躁": 9802,
      "擅长": 9803,
      "▁擅长": 9804,
      "很快就会": 9805,
      "▁很快就会": 9806,
      "对的": 9807,
      "▁对的": 9808,
      "给他们": 9809,
      "▁给他们": 9810,
      "棵树上": 9811,
      "▁棵树上": 9812,
      "当然可以": 9813,
      "▁当然可以": 9814,
      "感觉很糟糕": 9815,
      "▁感觉很糟糕": 9816,
      "欢笑": 9817,
      "▁欢笑": 9818,
      "牙齿": 9819,
      "▁牙齿": 9820,
      "项链": 9821,
      "▁项链": 9822,
      "但当她": 9823,
      "▁但当她": 9824,
      "他们喜欢在": 9825,
      "▁他们喜欢在": 9826,
      "他总是": 9827,
      "▁他总是": 9828,
      "他能": 9829,
      "▁他能": 9830,
      "住在一个": 9831,
      "▁住在一个": 9832,
      "绿色": 9833,
      "▁绿色": 9834,
      "玩球": 9835,
      "▁玩球": 9836,
      "想到了一个": 9837,
      "▁想到了一个": 9838,
      "心里": 9839,
      "▁心里": 9840,
      "泡泡": 9841,
      "▁泡泡": 9842,
      "那天晚上": 9843,
      "▁那天晚上": 9844,
      "感受": 9845,
      "▁感受": 9846,
      "长凳上": 9847,
      "▁长凳上": 9848,
      "翠蒂": 9849,
      "▁翠蒂": 9850,
      "口哨": 9851,
      "▁口哨": 9852,
      "穿过": 9853,
      "▁穿过": 9854,
      "消防": 9855,
      "▁消防": 9856,
      "装满了": 9857,
      "▁装满了": 9858,
      "得很高": 9859,
      "▁得很高": 9860,
      "的男人": 9861,
      "▁的男人": 9862,
      "她听到": 9863,
      "▁她听到": 9864,
      "了一张": 9865,
      "▁了一张": 9866,
      "而不是": 9867,
      "▁而不是": 9868,
      "完后": 9869,
      "▁完后": 9870,
      "这是我的": 9871,
      "▁这是我的": 9872,
      "认识": 9873,
      "▁认识": 9874,
      "你不能": 9875,
      "▁你不能": 9876,
      "所小房子里": 9877,
      "▁所小房子里": 9878,
      "在哪里": 9879,
      "▁在哪里": 9880,
      "一个名叫苏": 9881,
      "▁一个名叫苏": 9882,
      "冰箱": 9883,
      "▁冰箱": 9884,
      "了一件": 9885,
      "▁了一件": 9886,
      "发现了一块": 9887,
      "▁发现了一块": 9888,
      "飞去": 9889,
      "▁飞去": 9890,
      "在一起玩": 9891,
      "▁在一起玩": 9892,
      "警察": 9893,
      "▁警察": 9894,
      "到外面": 9895,
      "▁到外面": 9896,
      "跑回": 9897,
      "▁跑回": 9898,
      "里面有很多": 9899,
      "▁里面有很多": 9900,
      "其中": 9901,
      "▁其中": 9902,
      "莉莉的妈妈说": 9903,
      "▁莉莉的妈妈说": 9904,
      "披萨": 9905,
      "▁披萨": 9906,
      "莉莉和她的朋友们": 9907,
      "▁莉莉和她的朋友们": 9908,
      "开着": 9909,
      "▁开着": 9910,
      "诚实": 9911,
      "▁诚实": 9912,
      "独自": 9913,
      "▁独自": 9914,
      "的大狗": 9915,
      "▁的大狗": 9916,
      "也喜欢": 9917,
      "▁也喜欢": 9918,
      "闪闪发光的": 9919,
      "▁闪闪发光的": 9920,
      "她妈妈微笑着说": 9921,
      "▁她妈妈微笑着说": 9922,
      "床睡觉": 9923,
      "▁床睡觉": 9924,
      "在公园": 9925,
      "▁在公园": 9926,
      "以前从未见过": 9927,
      "▁以前从未见过": 9928,
      "这块": 9929,
      "▁这块": 9930,
      "她意识到": 9931,
      "▁她意识到": 9932,
      "不动": 9933,
      "▁不动": 9934,
      "打开门": 9935,
      "▁打开门": 9936,
      "警告": 9937,
      "▁警告": 9938,
      "航行": 9939,
      "▁航行": 9940,
      "他们从此过上了幸福的生活": 9941,
      "▁他们从此过上了幸福的生活": 9942,
      "对她": 9943,
      "▁对她": 9944,
      "了一口": 9945,
      "▁了一口": 9946,
      "挂着": 9947,
      "▁挂着": 9948,
      "爷爷": 9949,
      "▁爷爷": 9950,
      "他们必须": 9951,
      "▁他们必须": 9952,
      "失去了": 9953,
      "▁失去了": 9954,
      "莫莉": 9955,
      "▁莫莉": 9956,
      "缤纷": 9957,
      "▁缤纷": 9958,
      "宠物": 9959,
      "▁宠物": 9960,
      "蒂姆看到": 9961,
      "▁蒂姆看到": 9962,
      "它并": 9963,
      "▁它并": 9964,
      "钱包": 9965,
      "▁钱包": 9966,
      "胞胎": 9967,
      "▁胞胎": 9968,
      "双胞胎": 9969,
      "▁双胞胎": 9970,
      "遇到了": 9971,
      "▁遇到了": 9972,
      "住着一只": 9973,
      "▁住着一只": 9974,
      "觉得这": 9975,
      "▁觉得这": 9976,
      "普通": 9977,
      "▁普通": 9978,
      "蒂米和": 9979,
      "▁蒂米和": 9980,
      "之后": 9981,
      "▁之后": 9982,
      "锋利": 9983,
      "▁锋利": 9984,
      "飞下来": 9985,
      "▁飞下来": 9986,
      "风吹来": 9987,
      "▁风吹来": 9988,
      "太高了": 9989,
      "▁太高了": 9990,
      "告诉妈妈": 9991,
      "▁告诉妈妈": 9992,
      "随着": 9993,
      "▁随着": 9994,
      "快乐的": 9995,
      "▁快乐的": 9996,
      "很难": 9997,
      "▁很难": 9998,
      "那只猫": 9999,
      "▁那只猫": 10000,
      "地毯": 10001,
      "▁地毯": 10002,
      "爬上树": 10003,
      "▁爬上树": 10004,
      "听起来": 10005,
      "▁听起来": 10006,
      "脾气暴躁": 10007,
      "▁脾气暴躁": 10008,
      "的时间": 10009,
      "▁的时间": 10010,
      "玩得开心": 10011,
      "▁玩得开心": 10012,
      "高高的": 10013,
      "▁高高的": 10014,
      "两个朋友": 10015,
      "▁两个朋友": 10016,
      "乌龟": 10017,
      "▁乌龟": 10018,
      "发现了一只": 10019,
      "▁发现了一只": 10020,
      "对他": 10021,
      "▁对他": 10022,
      "他们总是": 10023,
      "▁他们总是": 10024,
      "追赶": 10025,
      "▁追赶": 10026,
      "吠叫": 10027,
      "▁吠叫": 10028,
      "色彩缤纷": 10029,
      "▁色彩缤纷": 10030,
      "看到他": 10031,
      "▁看到他": 10032,
      "很长时间": 10033,
      "▁很长时间": 10034,
      "整理": 10035,
      "▁整理": 10036,
      "做了一个": 10037,
      "▁做了一个": 10038,
      "你会": 10039,
      "▁你会": 10040,
      "学到了": 10041,
      "▁学到了": 10042,
      "互相帮助": 10043,
      "▁互相帮助": 10044,
      "一名": 10045,
      "▁一名": 10046,
      "这件": 10047,
      "▁这件": 10048,
      "打架": 10049,
      "▁打架": 10050,
      "意思": 10051,
      "▁意思": 10052,
      "手指": 10053,
      "▁手指": 10054,
      "自私": 10055,
      "▁自私": 10056,
      "的玩具车": 10057,
      "▁的玩具车": 10058,
      "会发生": 10059,
      "▁会发生": 10060,
      "周围的": 10061,
      "▁周围的": 10062,
      "有一些": 10063,
      "▁有一些": 10064,
      "足够": 10065,
      "▁足够": 10066,
      "那样": 10067,
      "▁那样": 10068,
      "但我": 10069,
      "▁但我": 10070,
      "走进了": 10071,
      "▁走进了": 10072,
      "他是": 10073,
      "▁他是": 10074,
      "每天都会": 10075,
      "▁每天都会": 10076,
      "你的玩具": 10077,
      "▁你的玩具": 10078,
      "恶心": 10079,
      "▁恶心": 10080,
      "她必须": 10081,
      "▁她必须": 10082,
      "他的球": 10083,
      "▁他的球": 10084,
      "帮助他们": 10085,
      "▁帮助他们": 10086,
      "不小心把": 10087,
      "▁不小心把": 10088,
      "愿望": 10089,
      "▁愿望": 10090,
      "从来": 10091,
      "▁从来": 10092,
      "约翰尼": 10093,
      "▁约翰尼": 10094,
      "那是一只": 10095,
      "▁那是一只": 10096,
      "咯咯": 10097,
      "▁咯咯": 10098,
      "交谈": 10099,
      "▁交谈": 10100,
      "床底下": 10101,
      "▁床底下": 10102,
      "天鹅": 10103,
      "▁天鹅": 10104,
      "为了": 10105,
      "▁为了": 10106,
      "斯波特": 10107,
      "▁斯波特": 10108,
      "宝石": 10109,
      "▁宝石": 10110,
      "但当他": 10111,
      "▁但当他": 10112,
      "抚摸": 10113,
      "▁抚摸": 10114,
      "他听到": 10115,
      "▁他听到": 10116,
      "他又": 10117,
      "▁他又": 10118,
      "理发": 10119,
      "▁理发": 10120,
      "出来了": 10121,
      "▁出来了": 10122,
      "其他孩子": 10123,
      "▁其他孩子": 10124,
      "发生的事情": 10125,
      "▁发生的事情": 10126,
      "整天都": 10127,
      "▁整天都": 10128,
      "你喜欢": 10129,
      "▁你喜欢": 10130,
      "他想要": 10131,
      "▁他想要": 10132,
      "安全了": 10133,
      "▁安全了": 10134,
      "他意识到": 10135,
      "▁他意识到": 10136,
      "感到高兴和": 10137,
      "▁感到高兴和": 10138,
      "做的": 10139,
      "▁做的": 10140,
      "那辆": 10141,
      "▁那辆": 10142,
      "我的玩具": 10143,
      "▁我的玩具": 10144,
      "兴奋了": 10145,
      "▁兴奋了": 10146,
      "再见": 10147,
      "▁再见": 10148,
      "在天空中": 10149,
      "▁在天空中": 10150,
      "有一只大": 10151,
      "▁有一只大": 10152,
      "困难": 10153,
      "▁困难": 10154,
      "她不想": 10155,
      "▁她不想": 10156,
      "了她": 10157,
      "▁了她": 10158,
      "没有找到": 10159,
      "▁没有找到": 10160,
      "快地": 10161,
      "▁快地": 10162,
      "你在做什么": 10163,
      "▁你在做什么": 10164,
      "有一个小": 10165,
      "▁有一个小": 10166,
      "但蒂米": 10167,
      "▁但蒂米": 10168,
      "当他们回到家时": 10169,
      "▁当他们回到家时": 10170,
      "准备好": 10171,
      "▁准备好": 10172,
      "骑自行车": 10173,
      "▁骑自行车": 10174,
      "沿着": 10175,
      "▁沿着": 10176,
      "她的新": 10177,
      "▁她的新": 10178,
      "这种": 10179,
      "▁这种": 10180,
      "名叫本尼": 10181,
      "▁名叫本尼": 10182,
      "玛丽": 10183,
      "▁玛丽": 10184,
      "整洁": 10185,
      "▁整洁": 10186,
      "紧张": 10187,
      "▁紧张": 10188,
      "留在": 10189,
      "▁留在": 10190,
      "思考": 10191,
      "▁思考": 10192,
      "他感到": 10193,
      "▁他感到": 10194,
      "就成了最好的朋友": 10195,
      "▁就成了最好的朋友": 10196,
      "小睡": 10197,
      "▁小睡": 10198,
      "尴尬": 10199,
      "▁尴尬": 10200,
      "他不知道": 10201,
      "▁他不知道": 10202,
      "爬上去": 10203,
      "▁爬上去": 10204,
      "梯子": 10205,
      "▁梯子": 10206,
      "隐藏": 10207,
      "▁隐藏": 10208,
      "她认为": 10209,
      "▁她认为": 10210,
      "拼图": 10211,
      "▁拼图": 10212,
      "停止了": 10213,
      "▁停止了": 10214,
      "艾米丽": 10215,
      "▁艾米丽": 10216,
      "吃掉": 10217,
      "▁吃掉": 10218,
      "飞来飞去": 10219,
      "▁飞来飞去": 10220,
      "我们应该": 10221,
      "▁我们应该": 10222,
      "一个小": 10223,
      "▁一个小": 10224,
      "用力": 10225,
      "▁用力": 10226,
      "喜欢整天": 10227,
      "▁喜欢整天": 10228,
      "自由": 10229,
      "▁自由": 10230,
      "枕头": 10231,
      "▁枕头": 10232,
      "太小了": 10233,
      "▁太小了": 10234,
      "她爸爸": 10235,
      "▁她爸爸": 10236,
      "蒂米的朋友": 10237,
      "▁蒂米的朋友": 10238,
      "当蒂姆": 10239,
      "▁当蒂姆": 10240,
      "游行": 10241,
      "▁游行": 10242,
      "所有的动物": 10243,
      "▁所有的动物": 10244,
      "把她": 10245,
      "▁把她": 10246,
      "真好": 10247,
      "▁真好": 10248,
      "太重": 10249,
      "▁太重": 10250,
      "非常难过": 10251,
      "▁非常难过": 10252,
      "乐于助人": 10253,
      "▁乐于助人": 10254,
      "回家的路": 10255,
      "▁回家的路": 10256,
      "拉链": 10257,
      "▁拉链": 10258,
      "充满了": 10259,
      "▁充满了": 10260,
      "躲在": 10261,
      "▁躲在": 10262,
      "慢跑": 10263,
      "▁慢跑": 10264,
      "每个人": 10265,
      "▁每个人": 10266,
      "就能": 10267,
      "▁就能": 10268,
      "飞过": 10269,
      "▁飞过": 10270,
      "闪闪发": 10271,
      "▁闪闪发": 10272,
      "吃点": 10273,
      "▁吃点": 10274,
      "明白了": 10275,
      "▁明白了": 10276,
      "虽然": 10277,
      "▁虽然": 10278,
      "吉尔": 10279,
      "▁吉尔": 10280,
      "天上": 10281,
      "▁天上": 10282,
      "地里": 10283,
      "▁地里": 10284,
      "玩的时候": 10285,
      "▁玩的时候": 10286,
      "工具": 10287,
      "▁工具": 10288,
      "上床睡觉": 10289,
      "▁上床睡觉": 10290,
      "盘子": 10291,
      "▁盘子": 10292,
      "出现了": 10293,
      "▁出现了": 10294,
      "下去": 10295,
      "▁下去": 10296,
      "宝宝": 10297,
      "▁宝宝": 10298,
      "午餐": 10299,
      "▁午餐": 10300,
      "恐龙": 10301,
      "▁恐龙": 10302,
      "面前说": 10303,
      "▁面前说": 10304,
      "触摸": 10305,
      "▁触摸": 10306,
      "他们很开心": 10307,
      "▁他们很开心": 10308,
      "肚子": 10309,
      "▁肚子": 10310,
      "图画": 10311,
      "▁图画": 10312,
      "雷米": 10313,
      "▁雷米": 10314,
      "丽莎": 10315,
      "▁丽莎": 10316,
      "我只是": 10317,
      "▁我只是": 10318,
      "痛苦": 10319,
      "▁痛苦": 10320,
      "烤箱": 10321,
      "▁烤箱": 10322,
      "毛茸茸的": 10323,
      "▁毛茸茸的": 10324,
      "大卡车": 10325,
      "▁大卡车": 10326,
      "咆哮": 10327,
      "▁咆哮": 10328,
      "当莉莉": 10329,
      "▁当莉莉": 10330,
      "的一切": 10331,
      "▁的一切": 10332,
      "是啊": 10333,
      "▁是啊": 10334,
      "没有人": 10335,
      "▁没有人": 10336,
      "我的朋友": 10337,
      "▁我的朋友": 10338,
      "莉莉又": 10339,
      "▁莉莉又": 10340,
      "那些": 10341,
      "▁那些": 10342,
      "布朗尼": 10343,
      "▁布朗尼": 10344,
      "一家人": 10345,
      "▁一家人": 10346,
      "她很伤心": 10347,
      "▁她很伤心": 10348,
      "喜欢和他的朋友们": 10349,
      "▁喜欢和他的朋友们": 10350,
      "整个": 10351,
      "▁整个": 10352,
      "玩捉迷藏": 10353,
      "▁玩捉迷藏": 10354,
      "很抱歉": 10355,
      "▁很抱歉": 10356,
      "跑得": 10357,
      "▁跑得": 10358,
      "打印": 10359,
      "▁打印": 10360,
      "尽力": 10361,
      "▁尽力": 10362,
      "神秘": 10363,
      "▁神秘": 10364,
      "她向": 10365,
      "▁她向": 10366,
      "讲述": 10367,
      "▁讲述": 10368,
      "倾听": 10369,
      "▁倾听": 10370,
      "图片": 10371,
      "▁图片": 10372,
      "做一些": 10373,
      "▁做一些": 10374,
      "修好了": 10375,
      "▁修好了": 10376,
      "非常重要": 10377,
      "▁非常重要": 10378,
      "遇到了一位": 10379,
      "▁遇到了一位": 10380,
      "他们拥抱": 10381,
      "▁他们拥抱": 10382,
      "莉莉对": 10383,
      "▁莉莉对": 10384,
      "他们非常高兴": 10385,
      "▁他们非常高兴": 10386,
      "一个小男孩": 10387,
      "▁一个小男孩": 10388,
      "玩耍和": 10389,
      "▁玩耍和": 10390,
      "他们走": 10391,
      "▁他们走": 10392,
      "她总是": 10393,
      "▁她总是": 10394,
      "这个玩具": 10395,
      "▁这个玩具": 10396,
      "姐姐": 10397,
      "▁姐姐": 10398,
      "她还": 10399,
      "▁她还": 10400,
      "是不": 10401,
      "▁是不": 10402,
      "经常": 10403,
      "▁经常": 10404,
      "太兴奋了": 10405,
      "▁太兴奋了": 10406,
      "行驶": 10407,
      "▁行驶": 10408,
      "他们成了好朋友": 10409,
      "▁他们成了好朋友": 10410,
      "容易": 10411,
      "▁容易": 10412,
      "但没有找到": 10413,
      "▁但没有找到": 10414,
      "离开了": 10415,
      "▁离开了": 10416,
      "他们希望": 10417,
      "▁他们希望": 10418,
      "马克": 10419,
      "▁马克": 10420,
      "玩他的玩具": 10421,
      "▁玩他的玩具": 10422,
      "帮妈妈": 10423,
      "▁帮妈妈": 10424,
      "在阳光下": 10425,
      "▁在阳光下": 10426,
      "火箭": 10427,
      "▁火箭": 10428,
      "为自己的": 10429,
      "▁为自己的": 10430,
      "但还是": 10431,
      "▁但还是": 10432,
      "莉莉点点头": 10433,
      "▁莉莉点点头": 10434,
      "玩具和": 10435,
      "▁玩具和": 10436,
      "嫉妒": 10437,
      "▁嫉妒": 10438,
      "他的新": 10439,
      "▁他的新": 10440,
      "做到了": 10441,
      "▁做到了": 10442,
      "抬起": 10443,
      "▁抬起": 10444,
      "看到她": 10445,
      "▁看到她": 10446,
      "感谢了": 10447,
      "▁感谢了": 10448,
      "王子": 10449,
      "▁王子": 10450,
      "每次": 10451,
      "▁每次": 10452,
      "蒂米很伤心": 10453,
      "▁蒂米很伤心": 10454,
      "过着": 10455,
      "▁过着": 10456,
      "读书": 10457,
      "▁读书": 10458,
      "干燥": 10459,
      "▁干燥": 10460,
      "在花园里": 10461,
      "▁在花园里": 10462,
      "他了解到": 10463,
      "▁他了解到": 10464,
      "平衡": 10465,
      "▁平衡": 10466,
      "他们听到": 10467,
      "▁他们听到": 10468,
      "坚持": 10469,
      "▁坚持": 10470,
      "这不是": 10471,
      "▁这不是": 10472,
      "tie": 10473,
      "▁tie": 10474,
      "TIE": 10475,
      "▁TIE": 10476,
      "Tie": 10477,
      "▁Tie": 10478,
      "发现了一些": 10479,
      "▁发现了一些": 10480,
      "回家的时候": 10481,
      "▁回家的时候": 10482,
      "蒂米喜欢玩他的玩具": 10483,
      "▁蒂米喜欢玩他的玩具": 10484,
      "聪明的老": 10485,
      "▁聪明的老": 10486,
      "tweetie": 10487,
      "▁tweetie": 10488,
      "TWEETIE": 10489,
      "▁TWEETIE": 10490,
      "Tweetie": 10491,
      "▁Tweetie": 10492,
      "他都会": 10493,
      "▁他都会": 10494,
      "深刻": 10495,
      "▁深刻": 10496,
      "橡皮": 10497,
      "▁橡皮": 10498,
      "粗鲁": 10499,
      "▁粗鲁": 10500,
      "在一棵大树": 10501,
      "▁在一棵大树": 10502,
      "印象": 10503,
      "▁印象": 10504,
      "那位": 10505,
      "▁那位": 10506,
      "每天都在一起玩耍": 10507,
      "▁每天都在一起玩耍": 10508,
      "看着它": 10509,
      "▁看着它": 10510,
      "动了": 10511,
      "▁动了": 10512,
      "想象": 10513,
      "▁想象": 10514,
      "文件": 10515,
      "▁文件": 10516,
      "弗雷德": 10517,
      "▁弗雷德": 10518,
      "毛巾": 10519,
      "▁毛巾": 10520,
      "名叫露西": 10521,
      "▁名叫露西": 10522,
      "下雨了": 10523,
      "▁下雨了": 10524,
      "她拿起": 10525,
      "▁她拿起": 10526,
      "浴缸": 10527,
      "▁浴缸": 10528,
      "太多": 10529,
      "▁太多": 10530,
      "麦克斯说": 10531,
      "▁麦克斯说": 10532,
      "麻烦": 10533,
      "▁麻烦": 10534,
      "兄弟": 10535,
      "▁兄弟": 10536,
      "很开心": 10537,
      "▁很开心": 10538,
      "去了商店": 10539,
      "▁去了商店": 10540,
      "拍手": 10541,
      "▁拍手": 10542,
      "不断": 10543,
      "▁不断": 10544,
      "了她的": 10545,
      "▁了她的": 10546,
      "陌生": 10547,
      "▁陌生": 10548,
      "的速度": 10549,
      "▁的速度": 10550,
      "在外面的": 10551,
      "▁在外面的": 10552,
      "远离": 10553,
      "▁远离": 10554,
      "光滑": 10555,
      "▁光滑": 10556,
      "她又": 10557,
      "▁她又": 10558,
      "微笑着说道": 10559,
      "▁微笑着说道": 10560,
      "握住": 10561,
      "▁握住": 10562,
      "和他的妈妈一起": 10563,
      "▁和他的妈妈一起": 10564,
      "这只猫": 10565,
      "▁这只猫": 10566,
      "爬树": 10567,
      "▁爬树": 10568,
      "享受乐趣": 10569,
      "▁享受乐趣": 10570,
      "她有一只": 10571,
      "▁她有一只": 10572,
      "就说": 10573,
      "▁就说": 10574,
      "感觉好一点": 10575,
      "▁感觉好一点": 10576,
      "对方": 10577,
      "▁对方": 10578,
      "我想要": 10579,
      "▁我想要": 10580,
      "这次": 10581,
      "▁这次": 10582,
      "黄色的": 10583,
      "▁黄色的": 10584,
      "她喜欢在外面玩耍": 10585,
      "▁她喜欢在外面玩耍": 10586,
      "日记": 10587,
      "▁日记": 10588,
      "上面写着": 10589,
      "▁上面写着": 10590,
      "没有听": 10591,
      "▁没有听": 10592,
      "醒来时": 10593,
      "▁醒来时": 10594,
      "我正在": 10595,
      "▁我正在": 10596,
      "从此他们": 10597,
      "▁从此他们": 10598,
      "莉莉的妈妈让她": 10599,
      "▁莉莉的妈妈让她": 10600,
      "有一只小狗": 10601,
      "▁有一只小狗": 10602,
      "一团": 10603,
      "▁一团": 10604,
      "知道他必须": 10605,
      "▁知道他必须": 10606,
      "毛毛虫": 10607,
      "▁毛毛虫": 10608,
      "他也": 10609,
      "▁他也": 10610,
      "并向": 10611,
      "▁并向": 10612,
      "一天晚上": 10613,
      "▁一天晚上": 10614,
      "太重了": 10615,
      "▁太重了": 10616,
      "的食物": 10617,
      "▁的食物": 10618,
      "发出很大的": 10619,
      "▁发出很大的": 10620,
      "鲨鱼": 10621,
      "▁鲨鱼": 10622,
      "一阵大风吹来": 10623,
      "▁一阵大风吹来": 10624,
      "你还": 10625,
      "▁你还": 10626,
      "的好": 10627,
      "▁的好": 10628,
      "仍然可以": 10629,
      "▁仍然可以": 10630,
      "我们一起玩": 10631,
      "▁我们一起玩": 10632,
      "河边": 10633,
      "▁河边": 10634,
      "找啊": 10635,
      "▁找啊": 10636,
      "跑得很快": 10637,
      "▁跑得很快": 10638,
      "和麦克斯": 10639,
      "▁和麦克斯": 10640,
      "到处寻找": 10641,
      "▁到处寻找": 10642,
      "他有一": 10643,
      "▁他有一": 10644,
      "在大": 10645,
      "▁在大": 10646,
      "座位": 10647,
      "▁座位": 10648,
      "馅饼": 10649,
      "▁馅饼": 10650,
      "帮助我": 10651,
      "▁帮助我": 10652,
      "一只鸟": 10653,
      "▁一只鸟": 10654,
      "可爱的": 10655,
      "▁可爱的": 10656,
      "和悲伤": 10657,
      "▁和悲伤": 10658,
      "变成了": 10659,
      "▁变成了": 10660,
      "并将其": 10661,
      "▁并将其": 10662,
      "莉莉很害怕": 10663,
      "▁莉莉很害怕": 10664,
      "袜子": 10665,
      "▁袜子": 10666,
      "想念": 10667,
      "▁想念": 10668,
      "去玩": 10669,
      "▁去玩": 10670,
      "很有": 10671,
      "▁很有": 10672,
      "享用": 10673,
      "▁享用": 10674,
      "举办": 10675,
      "▁举办": 10676,
      "上玩耍": 10677,
      "▁上玩耍": 10678,
      "又大又红": 10679,
      "▁又大又红": 10680,
      "了他的": 10681,
      "▁了他的": 10682,
      "她走到": 10683,
      "▁她走到": 10684,
      "发现了一根": 10685,
      "▁发现了一根": 10686,
      "最快": 10687,
      "▁最快": 10688,
      "我希望": 10689,
      "▁我希望": 10690,
      "莉莉决定": 10691,
      "▁莉莉决定": 10692,
      "但他知道": 10693,
      "▁但他知道": 10694,
      "妈妈笑着说": 10695,
      "▁妈妈笑着说": 10696,
      "足球": 10697,
      "▁足球": 10698,
      "汽车和": 10699,
      "▁汽车和": 10700,
      "行李": 10701,
      "▁行李": 10702,
      "该男子": 10703,
      "▁该男子": 10704,
      "莉莉很高兴能": 10705,
      "▁莉莉很高兴能": 10706,
      "有一个名叫莉莉的小女孩": 10707,
      "▁有一个名叫莉莉的小女孩": 10708,
      "生气了": 10709,
      "▁生气了": 10710,
      "尽可能": 10711,
      "▁尽可能": 10712,
      "笑得很开心": 10713,
      "▁笑得很开心": 10714,
      "包裹": 10715,
      "▁包裹": 10716,
      "方法": 10717,
      "▁方法": 10718,
      "一开始": 10719,
      "▁一开始": 10720,
      "干得好": 10721,
      "▁干得好": 10722,
      "不敢相信": 10723,
      "▁不敢相信": 10724,
      "梦想着": 10725,
      "▁梦想着": 10726,
      "但她妈妈说": 10727,
      "▁但她妈妈说": 10728,
      "午饭": 10729,
      "▁午饭": 10730,
      "来玩": 10731,
      "▁来玩": 10732,
      "谈论": 10733,
      "▁谈论": 10734,
      "她都会": 10735,
      "▁她都会": 10736,
      "他问妈妈": 10737,
      "▁他问妈妈": 10738,
      "礼貌": 10739,
      "▁礼貌": 10740,
      "这是一": 10741,
      "▁这是一": 10742,
      "个好主意": 10743,
      "▁个好主意": 10744,
      "过着幸福的生活": 10745,
      "▁过着幸福的生活": 10746,
      "在她": 10747,
      "▁在她": 10748,
      "摇头": 10749,
      "▁摇头": 10750,
      "水坑里": 10751,
      "▁水坑里": 10752,
      "看起来像": 10753,
      "▁看起来像": 10754,
      "莉莉不想": 10755,
      "▁莉莉不想": 10756,
      "来吧": 10757,
      "▁来吧": 10758,
      "有趣的事情": 10759,
      "▁有趣的事情": 10760,
      "非常害怕": 10761,
      "▁非常害怕": 10762,
      "永远不会": 10763,
      "▁永远不会": 10764,
      "他们也": 10765,
      "▁他们也": 10766,
      "了一块": 10767,
      "▁了一块": 10768,
      "并承诺": 10769,
      "▁并承诺": 10770,
      "特别的东西": 10771,
      "▁特别的东西": 10772,
      "他们需要": 10773,
      "▁他们需要": 10774,
      "获得": 10775,
      "▁获得": 10776,
      "有很多朋友": 10777,
      "▁有很多朋友": 10778,
      "装满": 10779,
      "▁装满": 10780,
      "她的房间": 10781,
      "▁她的房间": 10782,
      "结束时": 10783,
      "▁结束时": 10784,
      "舒适的": 10785,
      "▁舒适的": 10786,
      "请求": 10787,
      "▁请求": 10788,
      "首先": 10789,
      "▁首先": 10790,
      "感觉自己": 10791,
      "▁感觉自己": 10792,
      "通过": 10793,
      "▁通过": 10794,
      "新东西": 10795,
      "▁新东西": 10796,
      "这位女士": 10797,
      "▁这位女士": 10798,
      "这样做": 10799,
      "▁这样做": 10800,
      "车子": 10801,
      "▁车子": 10802,
      "想法": 10803,
      "▁想法": 10804,
      "他们在一起玩得很开心": 10805,
      "▁他们在一起玩得很开心": 10806,
      "本和": 10807,
      "▁本和": 10808,
      "这一次": 10809,
      "▁这一次": 10810,
      "想到了一个主意": 10811,
      "▁想到了一个主意": 10812,
      "但蒂姆": 10813,
      "▁但蒂姆": 10814,
      "毁了": 10815,
      "▁毁了": 10816,
      "咬了一口": 10817,
      "▁咬了一口": 10818,
      "的树": 10819,
      "▁的树": 10820,
      "巴兹": 10821,
      "▁巴兹": 10822,
      "给它": 10823,
      "▁给它": 10824,
      "肥皂": 10825,
      "▁肥皂": 10826,
      "故意": 10827,
      "▁故意": 10828,
      "她希望": 10829,
      "▁她希望": 10830,
      "能找到": 10831,
      "▁能找到": 10832,
      "你的朋友": 10833,
      "▁你的朋友": 10834,
[...]
