{
  "version": "1.0",
  "truncation": null,
  "padding": null,
  "added_tokens": [
    {
      "id": 0,
      "content": "<|PAD|>",
      "single_word": false,
      "lstrip": false,
      "rstrip": false,
      "normalized": false,
      "special": true
    },
    {
      "id": 1,
      "content": "<|BOS|>",
      "single_word": false,
      "lstrip": false,
      "rstrip": false,
      "normalized": false,
      "special": true
    },
    {
      "id": 2,
      "content": "<|EOS|>",
      "single_word": false,
      "lstrip": false,
      "rstrip": false,
      "normalized": false,
      "special": true
    },
    {
      "id": 3,
      "content": "<|UNK|>",
      "single_word": false,
      "lstrip": false,
      "rstrip": false,
      "normalized": false,
      "special": true
    }
  ],
  "normalizer": {
    "type": "NFKC"
  },
  "pre_tokenizer": {
    "type": "Sequence",
    "pretokenizers": [
      {
        "type": "UnicodeScripts"
      },
      {
        "type": "Digits",
        "individual_digits": true
      },
      {
        "type": "Metaspace",
        "replacement": "▁",
        "prepend_scheme": "never",
        "split": true
      }
    ]
  },
  "post_processor": {
    "type": "TemplateProcessing",
    "single": [
      {
        "SpecialToken": {
          "id": "<|BOS|>",
          "type_id": 0
        }
      },
      {
        "Sequence": {
          "id": "A",
          "type_id": 0
        }
      },
      {
        "SpecialToken": {
          "id": "<|EOS|>",
          "type_id": 0
        }
      }
    ],
    "pair": [
      {
        "SpecialToken": {
          "id": "<|BOS|>",
          "type_id": 0
        }
      },
      {
        "Sequence": {
          "id": "A",
          "type_id": 0
        }
      },
      {
        "SpecialToken": {
          "id": "<|EOS|>",
          "type_id": 0
        }
      },
      {
        "SpecialToken": {
          "id": "<|BOS|>",
          "type_id": 1
        }
      },
      {
        "Sequence": {
          "id": "B",
          "type_id": 1
        }
      },
      {
        "SpecialToken": {
          "id": "<|EOS|>",
          "type_id": 1
        }
      }
    ],
    "special_tokens": {
      "<|BOS|>": {
        "id": "<|BOS|>",
        "ids": [
          1
        ],
        "tokens": [
          "<|BOS|>"
        ]
      },
      "<|EOS|>": {
        "id": "<|EOS|>",
        "ids": [
          2
        ],
        "tokens": [
          "<|EOS|>"
        ]
      }
    }
  },
  "decoder": {
    "type": "Metaspace",
    "replacement": "▁",
    "prepend_scheme": "never",
    "split": true
  },
  "model": {
    "type": "BPE",
    "dropout": null,
    "unk_token": "<|UNK|>",
    "continuing_subword_prefix": null,
    "end_of_word_suffix": null,
    "fuse_unk": false,
    "byte_fallback": false,
    "ignore_merges": false,
    "vocab": {
      "<|PAD|>": 0,
      "<|BOS|>": 1,
      "<|EOS|>": 2,
      "<|UNK|>": 3,
      "!": 4,
      "\"": 5,
      "$": 6,
      "%": 7,
      "&": 8,
      "'": 9,
      "(": 10,
      ")": 11,
      "*": 12,
      "+": 13,
      ",": 14,
      "-": 15,
      ".": 16,
      "/": 17,
      "0": 18,
      "1": 19,
      "2": 20,
      "3": 21,
      "4": 22,
      "5": 23,
      "6": 24,
      "7": 25,
      "8": 26,
      "9": 27,
      ":": 28,
      ";": 29,
      "<": 30,
      "=": 31,
      ">": 32,
      "?": 33,
      "A": 34,
      "B": 35,
      "C": 36,
      "D": 37,
      "E": 38,
      "F": 39,
      "G": 40,
      "H": 41,
      "I": 42,
      "J": 43,
      "K": 44,
      "L": 45,
      "M": 46,
      "N": 47,
      "O": 48,
      "P": 49,
      "Q": 50,
      "R": 51,
      "S": 52,
      "T": 53,
      "U": 54,
      "V": 55,
      "W": 56,
      "X": 57,
      "Y": 58,
      "Z": 59,
      "\\": 60,
      "]": 61,
      "^": 62,
      "_": 63,
      "a": 64,
      "b": 65,
      "c": 66,
      "d": 67,
      "e": 68,
      "f": 69,
      "g": 70,
      "h": 71,
      "i": 72,
      "j": 73,
      "k": 74,
      "l": 75,
      "m": 76,
      "n": 77,
      "o": 78,
      "p": 79,
      "q": 80,
      "r": 81,
      "s": 82,
      "t": 83,
      "u": 84,
      "v": 85,
      "w": 86,
      "x": 87,
      "y": 88,
      "z": 89,
      "|": 90,
      "Ä": 91,
      "Ö": 92,
      "Ü": 93,
      "ß": 94,
      "ä": 95,
      "ö": 96,
      "ü": 97,
      "▁": 98,
      "en": 99,
      "er": 100,
      "ch": 101,
      "in": 102,
      "▁s": 103,
      "ie": 104,
      "te": 105,
      "nd": 106,
      "▁d": 107,
      "und": 108,
      "ein": 109,
      "▁w": 110,
      "▁und": 111,
      "es": 112,
      "ar": 113,
      "au": 114,
      "ich": 115,
      "as": 116,
      "▁g": 117,
      "▁ein": 118,
      "an": 119,
      "▁i": 120,
      "▁war": 121,
      "▁n": 122,
      "zu": 123,
      "▁h": 124,
      "▁zu": 125,
      "hr": 126,
      "al": 127,
      "ten": 128,
      "▁er": 129,
      "el": 130,
      "▁k": 131,
      "▁M": 132,
      "▁v": 133,
      "ag": 134,
      "▁sie": 135,
      "▁b": 136,
      "▁m": 137,
      "▁B": 138,
      "▁S": 139,
      "em": 140,
      "▁T": 141,
      "ter": 142,
      "ei": 143,
      "am": 144,
      "▁l": 145,
      "ass": 146,
      "▁F": 147,
      "▁au": 148,
      "ck": 149,
      "▁f": 150,
      "ach": 151,
      "at": 152,
      "Er": 153,
      "Sie": 154,
      "on": 155,
      "▁die": 156,
      "▁den": 157,
      "ss": 158,
      "sch": 159,
      "it": 160,
      "iel": 161,
      "▁H": 162,
      "ber": 163,
      "▁sein": 164,
      "dass": 165,
      "mm": 166,
      "gen": 167,
      "un": 168,
      "▁in": 169,
      "▁W": 170,
      "st": 171,
      "lich": 172,
      "▁sich": 173,
      "▁hat": 174,
      "der": 175,
      "ehr": 176,
      "▁sch": 177,
      "ol": 178,
      "re": 179,
      "▁auf": 180,
      "▁\"": 181,
      "ann": 182,
      "or": 183,
      "▁der": 184,
      "ah": 185,
      "de": 186,
      "ig": 187,
      "icht": 188,
      "▁K": 189,
      "um": 190,
      "▁ihr": 191,
      "ro": 192,
      "den": 193,
      "and": 194,
      "▁es": 195,
      "▁ih": 196,
      "ax": 197,
      "▁sehr": 198,
      "▁A": 199,
      "▁E": 200,
      "▁Tag": 201,
      "▁hatte": 202,
      "▁G": 203,
      "le": 204,
      "▁L": 205,
      "▁mit": 206,
      "ück": 207,
      "agte": 208,
      "ing": 209,
      "▁t": 210,
      "▁wu": 211,
      "lte": 212,
      "lein": 213,
      "▁ver": 214,
      "▁dem": 215,
      "▁an": 216,
      "▁sp": 217,
      "▁nicht": 218,
      "ür": 219,
      "et": 220,
      "ben": 221,
      "ut": 222,
      "▁klein": 223,
      "eh": 224,
      "ier": 225,
      "▁so": 226,
      "▁einen": 227,
      "il": 228,
      "chen": 229,
      "aus": 230,
      "▁wie": 231,
      "eg": 232,
      "--": 233,
      "▁das": 234,
      "▁al": 235,
      "Der": 236,
      "▁sah": 237,
      "roß": 238,
      "▁ihn": 239,
      "och": 240,
      "▁Sch": 241,
      "reund": 242,
      "▁groß": 243,
      "onn": 244,
      "▁spiel": 245,
      "lück": 246,
      "Ein": 247,
      "Es": 248,
      "sste": 249,
      "ge": 250,
      "ald": 251,
      "fen": 252,
      "▁wieder": 253,
      "lo": 254,
      "aber": 255,
      "eu": 256,
      "▁ging": 257,
      "▁Freund": 258,
      "▁r": 259,
      "▁V": 260,
      "▁Max": 261,
      "▁Z": 262,
      "ab": 263,
      "mmer": 264,
      "▁P": 265,
      "rau": 266,
      "▁eine": 267,
      "ur": 268,
      "lücklich": 269,
      "▁Tages": 270,
      "▁st": 271,
      "▁viel": 272,
      "amen": 273,
      "was": 274,
      "▁waren": 275,
      "▁Wald": 276,
      "▁konn": 277,
      "▁von": 278,
      "aum": 279,
      ".\"": 280,
      "ehen": 281,
      "▁einem": 282,
      "▁Haus": 283,
      "▁im": 284,
      "bte": 285,
      "▁glücklich": 286,
      "ir": 287,
      "esch": 288,
      "Max": 289,
      "mal": 290,
      "gel": 291,
      "Eines": 292,
      "▁nach": 293,
      "Die": 294,
      "über": 295,
      "▁J": 296,
      "\",": 297,
      "▁wusste": 298,
      "ör": 299,
      "▁R": 300,
      "▁D": 301,
      "ollte": 302,
      "utter": 303,
      "▁konnte": 304,
      "tern": 305,
      "om": 306,
      "ne": 307,
      "achte": 308,
      "▁über": 309,
      "äh": 310,
      "▁immer": 311,
      "▁seine": 312,
      "sen": 313,
      "als": 314,
      "▁Mutter": 315,
      "▁le": 316,
      "Ich": 317,
      "▁ge": 318,
      "▁Baum": 319,
      "amm": 320,
      "▁p": 321,
      "▁Sp": 322,
      "▁noch": 323,
      "aß": 324,
      "uch": 325,
      "ön": 326,
      "amens": 327,
      "▁namens": 328,
      "äch": 329,
      "▁lie": 330,
      "▁sagte": 331,
      "▁ihm": 332,
      "die": 333,
      "tz": 334,
      "▁ist": 335,
      "is": 336,
      "▁j": 337,
      "▁aus": 338,
      "lie": 339,
      "sagte": 340,
      "▁einmal": 341,
      "▁St": 342,
      "▁wür": 343,
      "▁El": 344,
      "▁seinen": 345,
      "▁wollte": 346,
      "▁wur": 347,
      "ank": 348,
      "▁be": 349,
      "im": 350,
      "mma": 351,
      "eit": 352,
      "▁nie": 353,
      "▁N": 354,
      "ern": 355,
      "Das": 356,
      "ang": 357,
      "anz": 358,
      "Al": 359,
      "ander": 360,
      "ff": 361,
      "▁großen": 362,
      "▁ihre": 363,
      "▁vor": 364,
      "ogel": 365,
      "▁un": 366,
      "üh": 367,
      "▁um": 368,
      "▁Hause": 369,
      "▁Vogel": 370,
      "ingen": 371,
      "isch": 372,
      "rig": 373,
      "pf": 374,
      "▁Jun": 375,
      "▁rann": 376,
      "▁bes": 377,
      "▁würde": 378,
      "▁Eltern": 379,
      "all": 380,
      "▁Freunde": 381,
      "ell": 382,
      "Als": 383,
      "ia": 384,
      "eine": 385,
      "wie": 386,
      "▁zur": 387,
      "zäh": 388,
      "▁des": 389,
      "▁Bl": 390,
      "▁am": 391,
      "Aber": 392,
      "▁für": 393,
      "imm": 394,
      "▁neu": 395,
      "▁trau": 396,
      "elte": 397,
      "oll": 398,
      "▁tr": 399,
      "se": 400,
      "▁traurig": 401,
      "lu": 402,
      "lö": 403,
      "loss": 404,
      "▁zum": 405,
      "▁spielen": 406,
      "ammen": 407,
      "▁auch": 408,
      "▁wurde": 409,
      "nen": 410,
      "▁Mann": 411,
      "tzlich": 412,
      "▁kam": 413,
      "ft": 414,
      "war": 415,
      "▁du": 416,
      "▁ges": 417,
      "▁viele": 418,
      "lötzlich": 419,
      "▁her": 420,
      "▁z": 421,
      "▁hör": 422,
      "das": 423,
      "▁fr": 424,
      "▁erzäh": 425,
      "▁hin": 426,
      "ung": 427,
      "▁rannte": 428,
      "▁beg": 429,
      "ob": 430,
      "▁An": 431,
      "▁Hund": 432,
      "▁kleiner": 433,
      "▁Mä": 434,
      "▁Junge": 435,
      "▁liebte": 436,
      "▁ander": 437,
      "sammen": 438,
      "ste": 439,
      "etwas": 440,
      "▁zurück": 441,
      "▁en": 442,
      "▁kleinen": 443,
      "▁wei": 444,
      "etz": 445,
      "▁Kin": 446,
      "▁ihren": 447,
      "▁zusammen": 448,
      "▁lebte": 449,
      "usch": 450,
      "▁da": 451,
      "▁hatten": 452,
      "▁etwas": 453,
      "sten": 454,
      "▁Gesch": 455,
      "rach": 456,
      "▁Tier": 457,
      "dchen": 458,
      "▁Mädchen": 459,
      "▁schn": 460,
      "▁Au": 461,
      "▁ganz": 462,
      "omm": 463,
      "▁Bä": 464,
      "ckte": 465,
      "erm": 466,
      "ort": 467,
      "▁mehr": 468,
      "▁ger": 469,
      "▁je": 470,
      "enn": 471,
      "elt": 472,
      "ill": 473,
      "▁all": 474,
      "rie": 475,
      "wei": 476,
      "▁seinem": 477,
      "ark": 478,
      "be": 479,
      "▁bei": 480,
      "oh": 481,
      "arten": 482,
      "▁Geschich": 483,
      "▁Le": 484,
      "▁gab": 485,
      "▁seiner": 486,
      "erman": 487,
      "---": 488,
      "▁--": 489,
      "▁-----": 490,
      "German": 491,
      "unden": 492,
      "zen": 493,
      "▁kleines": 494,
      "▁mu": 495,
      "▁spielten": 496,
      "▁spielte": 497,
      "ster": 498,
      "ßen": 499,
      "▁schnell": 500,
      "▁dur": 501,
      "pp": 502,
      "Emma": 503,
      "äusch": 504,
      "▁hörte": 505,
      "▁erzählte": 506,
      "▁besch": 507,
      "uh": 508,
      "▁vers": 509,
      "▁nah": 510,
      "gst": 511,
      "▁gingen": 512,
      "atz": 513,
      "▁alle": 514,
      "Und": 515,
      "inn": 516,
      "angen": 517,
      "▁läch": 518,
      "▁einer": 519,
      "aben": 520,
      "▁Flu": 521,
      "▁Aben": 522,
      "▁schw": 523,
      "▁begann": 524,
      "▁ent": 525,
      "ahr": 526,
      "▁hel": 527,
      "▁füh": 528,
      "essen": 529,
      "▁Emma": 530,
      "iert": 531,
      "cht": 532,
      "Am": 533,
      "cken": 534,
      "▁Ger": 535,
      "ll": 536,
      "ina": 537,
      "Tom": 538,
      "▁durch": 539,
      "Plötzlich": 540,
      "▁o": 541,
      "!\"": 542,
      "lau": 543,
      "▁Garten": 544,
      "▁helfen": 545,
      "▁nahm": 546,
      "▁Augen": 547,
      "ommen": 548,
      "▁Tom": 549,
      "ras": 550,
      "▁Spiel": 551,
      "sah": 552,
      "▁gef": 553,
      "▁lächelte": 554,
      "uchte": 555,
      "▁Kinder": 556,
      "schen": 557,
      "uchen": 558,
      "▁O": 559,
      "▁näch": 560,
      "auf": 561,
      "orf": 562,
      "▁mach": 563,
      "ot": 564,
      "fer": 565,
      "▁dar": 566,
      "▁Bo": 567,
      "▁dies": 568,
      "tete": 569,
      "ssen": 570,
      "eln": 571,
      "ind": 572,
      "▁Blum": 573,
      "▁Dorf": 574,
      "▁Freunden": 575,
      "ater": 576,
      "▁Spaß": 577,
      "igen": 578,
      "▁anderen": 579,
      "sam": 580,
      "▁beschloss": 581,
      "▁Geschichte": 582,
      "▁Angst": 583,
      "▁ins": 584,
      "hör": 585,
      "▁sehen": 586,
      "▁kleine": 587,
      "asser": 588,
      "▁ich": 589,
      "▁ihnen": 590,
      "▁stand": 591,
      "▁nächsten": 592,
      "▁schön": 593,
      "bis": 594,
      "▁schlie": 595,
      "ger": 596,
      "ange": 597,
      "▁wer": 598,
      "rü": 599,
      "▁Geräusch": 600,
      "▁lau": 601,
      "▁wir": 602,
      "Tim": 603,
      "▁Wasser": 604,
      "▁ihrer": 605,
      "Mia": 606,
      "▁große": 607,
      "▁ste": 608,
      "abe": 609,
      "▁kann": 610,
      "iger": 611,
      "▁als": 612,
      "▁weiter": 613,
      "▁ihrem": 614,
      "▁gehen": 615,
      "inden": 616,
      "ug": 617,
      "ily": 618,
      "tter": 619,
      "einen": 620,
      "ien": 621,
      "▁Mia": 622,
      "?\"": 623,
      "▁man": 624,
      "ett": 625,
      "tein": 626,
      "▁jeden": 627,
      "est": 628,
      "▁bin": 629,
      "▁fühlte": 630,
      "▁unter": 631,
      "fe": 632,
      "öff": 633,
      "▁flo": 634,
      "▁geh": 635,
      "uer": 636,
      "ond": 637,
      "▁Fluss": 638,
      "▁tun": 639,
      "▁erle": 640,
      "▁bi": 641,
      "lei": 642,
      "▁gesehen": 643,
      "▁Ball": 644,
      "▁habe": 645,
      "fr": 646,
      "öh": 647,
      "ser": 648,
      "▁mü": 649,
      "▁Vater": 650,
      "▁Tiere": 651,
      "ee": 652,
      "▁dachte": 653,
      "ak": 654,
      "nde": 655,
      "▁kön": 656,
      "ieren": 657,
      "ichtig": 658,
      "▁dann": 659,
      "kommen": 660,
      "▁haben": 661,
      "▁gen": 662,
      "▁fand": 663,
      "gte": 664,
      "hren": 665,
      "zeu": 666,
      "under": 667,
      "aul": 668,
      "ssten": 669,
      "▁weg": 670,
      "▁öff": 671,
      "▁Tim": 672,
      "bar": 673,
      "ru": 674,
      "von": 675,
      "▁Men": 676,
      "amil": 677,
      "▁dank": 678,
      "hen": 679,
      "▁eines": 680,
      "▁musste": 681,
      "orgen": 682,
      "reich": 683,
      "▁nur": 684,
      "tes": 685,
      "rei": 686,
      "Du": 687,
      "▁gel": 688,
      "na": 689,
      "▁erk": 690,
      "nete": 691,
      "▁Famil": 692,
      "▁U": 693,
      "len": 694,
      "eich": 695,
      "ink": 696,
      "ßlich": 697,
      "▁finden": 698,
      "▁Ar": 699,
      "▁Kä": 700,
      "▁Bär": 701,
      "▁sahen": 702,
      "▁dich": 703,
      "▁verg": 704,
      "▁Familie": 705,
      "bten": 706,
      "▁Abente": 707,
      "▁dir": 708,
      "▁flog": 709,
      "ade": 710,
      "inge": 711,
      "▁setz": 712,
      "Nach": 713,
      "mit": 714,
      "▁Stein": 715,
      "▁alles": 716,
      "unk": 717,
      "▁aß": 718,
      "olz": 719,
      "▁pass": 720,
      "ack": 721,
      "▁davon": 722,
      "kam": 723,
      "acht": 724,
      "▁Zeit": 725,
      "tet": 726,
      "än": 727,
      "▁Bett": 728,
      "immer": 729,
      "itz": 730,
      "▁lang": 731,
      "os": 732,
      "▁sollte": 733,
      "br": 734,
      "är": 735,
      "vor": 736,
      "▁Ben": 737,
      "Dann": 738,
      "wenn": 739,
      "▁Menschen": 740,
      "gier": 741,
      "ek": 742,
      "▁kle": 743,
      "la": 744,
      "▁Wol": 745,
      "▁spr": 746,
      "▁essen": 747,
      "weil": 748,
      "▁Tür": 749,
      "ap": 750,
      "▁fragte": 751,
      "Seine": 752,
      "agen": 753,
      "▁diesem": 754,
      "▁versch": 755,
      "▁öffnete": 756,
      "cker": 757,
      "▁sei": 758,
      "erk": 759,
      "auber": 760,
      "bt": 761,
      "Ben": 762,
      "▁wunder": 763,
      "chte": 764,
      "▁Welt": 765,
      "▁lern": 766,
      "nte": 767,
      "egen": 768,
      "fragte": 769,
      "ama": 770,
      "▁wurden": 771,
      "▁überras": 772,
      "▁Park": 773,
      "▁ganzen": 774,
      "▁Fisch": 775,
      "▁Blumen": 776,
      "bei": 777,
      "▁br": 778,
      "Qu": 779,
      "▁Boden": 780,
      "▁Abenteuer": 781,
      "pfel": 782,
      "rosch": 783,
      "▁Ende": 784,
      "Ihr": 785,
      "etzt": 786,
      "▁Bäum": 787,
      "raußen": 788,
      "▁re": 789,
      "▁rie": 790,
      "immel": 791,
      "ad": 792,
      "äum": 793,
      "ande": 794,
      "▁Sonn": 795,
      "▁Frosch": 796,
      "▁Lie": 797,
      "achten": 798,
      "▁Bau": 799,
      "ast": 800,
      "ige": 801,
      "▁Schw": 802,
      "▁neugier": 803,
      "Doch": 804,
      "▁Dinge": 805,
      "▁Leben": 806,
      "▁Er": 807,
      "▁plötzlich": 808,
      "aft": 809,
      "▁wussten": 810,
      "▁dass": 811,
      "▁ber": 812,
      "▁saß": 813,
      "▁Hand": 814,
      "▁lange": 815,
      "men": 816,
      "▁Himmel": 817,
      "▁gem": 818,
      "▁dankbar": 819,
      "reh": 820,
      "▁herum": 821,
      "▁überrascht": 822,
      "▁machen": 823,
      "ffen": 824,
      "▁I": 825,
      "zeug": 826,
      "▁setzte": 827,
      "▁stolz": 828,
      "▁bist": 829,
      "ner": 830,
      "egte": 831,
      "▁Lu": 832,
      "▁ersch": 833,
      "▁Ge": 834,
      "nchen": 835,
      "rank": 836,
      "▁wundersch": 837,
      "An": 838,
      "ick": 839,
      "▁Fel": 840,
      "▁Eich": 841,
      "▁Wei": 842,
      "▁keine": 843,
      "▁müde": 844,
      "egt": 845,
      "?\",": 846,
      "▁zei": 847,
      "sp": 848,
      "reu": 849,
      "Sch": 850,
      "▁alte": 851,
      "▁voll": 852,
      "illy": 853,
      "▁mir": 854,
      "▁dreh": 855,
      "ün": 856,
      "atze": 857,
      "ollten": 858,
      "Was": 859,
      "▁gerne": 860,
      "bl": 861,
      "aar": 862,
      "▁Schl": 863,
      "▁gesch": 864,
      "che": 865,
      "reundlich": 866,
      "Le": 867,
      "▁Fen": 868,
      "assen": 869,
      "hörnchen": 870,
      "▁Weg": 871,
      "▁wein": 872,
      "rt": 873,
      "▁neuen": 874,
      "erte": 875,
      "fort": 876,
      "▁Lina": 877,
      "ello": 878,
      "roh": 879,
      "sie": 880,
      "agten": 881,
      "▁versuchte": 882,
      "▁Katze": 883,
      "▁Fenster": 884,
      "▁großes": 885,
      "▁konnten": 886,
      "unter": 887,
      "▁gew": 888,
      "▁sofort": 889,
      "▁Morgen": 890,
      "▁stark": 891,
      "me": 892,
      "ät": 893,
      "sehen": 894,
      "▁aufger": 895,
      "▁Eichhörnchen": 896,
      "tterte": 897,
      "Lina": 898,
      "▁schließlich": 899,
      "▁Sonne": 900,
      "▁passiert": 901,
      "gt": 902,
      "▁dort": 903,
      "ik": 904,
      "amit": 905,
      "Ihre": 906,
      "▁sind": 907,
      "▁blie": 908,
      "▁Frau": 909,
      "▁aufgeregt": 910,
      "wo": 911,
      "▁Drach": 912,
      "▁freundlich": 913,
      "llte": 914,
      "tig": 915,
      "▁wunderschön": 916,
      "ckt": 917,
      "▁Fr": 918,
      "▁gut": 919,
      "▁drehte": 920,
      "of": 921,
      "▁draußen": 922,
      "▁Schm": 923,
      "▁froh": 924,
      "eer": 925,
      "▁sprang": 926,
      "▁hal": 927,
      "esen": 928,
      "▁werden": 929,
      "onder": 930,
      "▁Kuchen": 931,
      "▁legte": 932,
      "üt": 933,
      "arm": 934,
      "▁Waldes": 935,
      "▁Aut": 936,
      "▁kamen": 937,
      "▁Ä": 938,
      "▁jetzt": 939,
      "▁Fl": 940,
      "opf": 941,
      "▁verl": 942,
      "eben": 943,
      "▁schloss": 944,
      "▁Ber": 945,
      "ühr": 946,
      "▁Ges": 947,
      "▁vergessen": 948,
      "att": 949,
      "brach": 950,
      "▁Bäume": 951,
      "▁zuvor": 952,
      "▁Weile": 953,
      "▁weinte": 954,
      "▁neue": 955,
      "▁machte": 956,
      "▁Str": 957,
      "gar": 958,
      "▁schönen": 959,
      "ase": 960,
      "▁Lö": 961,
      "ih": 962,
      "▁schon": 963,
      "▁näh": 964,
      "ahn": 965,
      "▁ab": 966,
      "▁großer": 967,
      "▁pf": 968,
      "euer": 969,
      "issen": 970,
      "art": 971,
      "heit": 972,
      "▁neugierig": 973,
      "▁Abend": 974,
      "aute": 975,
      "▁weiß": 976,
      "bst": 977,
      "dlich": 978,
      "dem": 979,
      "opp": 980,
      "▁hinter": 981,
      "ant": 982,
      "sich": 983,
      "▁fiel": 984,
      "▁kletterte": 985,
      "▁bew": 986,
      "▁voller": 987,
      "Wir": 988,
      "Einmal": 989,
      "üß": 990,
      "▁Zauber": 991,
      "▁Her": 992,
      "▁sogar": 993,
      "▁rannten": 994,
      "ud": 995,
      "▁Jungen": 996,
      "▁hoch": 997,
      "▁vom": 998,
      "lten": 999,
      "▁Löw": 1000,
      "Lily": 1001,
      "▁gu": 1002,
      "▁Kind": 1003,
      "▁Bien": 1004,
      "ähren": 1005,
      "rieden": 1006,
      "ed": 1007,
      "zin": 1008,
      "▁ro": 1009,
      "sst": 1010,
      "▁lecker": 1011,
      "▁besser": 1012,
      "achen": 1013,
      "▁Zimmer": 1014,
      "▁beob": 1015,
      "▁träum": 1016,
      "ze": 1017,
      "ilfe": 1018,
      "▁werde": 1019,
      "ährend": 1020,
      "▁gerade": 1021,
      "ken": 1022,
      "▁hast": 1023,
      "apa": 1024,
      "▁Buch": 1025,
      "immy": 1026,
      "▁lebten": 1027,
      "▁beste": 1028,
      "▁Feuer": 1029,
      "▁dunk": 1030,
      "▁schrie": 1031,
      "▁lernte": 1032,
      "liegen": 1033,
      "▁erf": 1034,
      "▁Lily": 1035,
      "▁Br": 1036,
      "Finn": 1037,
      "kt": 1038,
      "aufen": 1039,
      "iep": 1040,
      "aff": 1041,
      "dank": 1042,
      "▁Auto": 1043,
      "ohn": 1044,
      "▁schlief": 1045,
      "▁Spielzeug": 1046,
      "▁Schu": 1047,
      "▁Jahr": 1048,
      "▁würden": 1049,
      "▁Ver": 1050,
      "▁Teich": 1051,
      "▁verste": 1052,
      "▁näher": 1053,
      "▁können": 1054,
      "ettet": 1055,
      "▁erkunden": 1056,
      "In": 1057,
      "▁andere": 1058,
      "▁Bello": 1059,
      "aden": 1060,
      "▁gefunden": 1061,
      "▁stehen": 1062,
      "▁Höh": 1063,
      "▁Rande": 1064,
      "▁gerettet": 1065,
      "aszin": 1066,
      "▁Ort": 1067,
      "▁Hilfe": 1068,
      "▁Blume": 1069,
      "▁faszin": 1070,
      "af": 1071,
      "▁bald": 1072,
      "▁vors": 1073,
      "ok": 1074,
      "▁Stern": 1075,
      "rö": 1076,
      "▁oder": 1077,
      "▁Apfel": 1078,
      "▁Finn": 1079,
      "▁Rei": 1080,
      "▁darauf": 1081,
      "ickte": 1082,
      "▁paar": 1083,
      "▁mich": 1084,
      "▁Qu": 1085,
      "▁träumte": 1086,
      "▁los": 1087,
      "▁lei": 1088,
      "frieden": 1089,
      "äl": 1090,
      "ielt": 1091,
      "▁fasziniert": 1092,
      "zt": 1093,
      "uchs": 1094,
      "lef": 1095,
      "▁versp": 1096,
      "ögel": 1097,
      "eister": 1098,
      "▁heraus": 1099,
      "▁alten": 1100,
      "▁Mal": 1101,
      "itt": 1102,
      "allen": 1103,
      "üten": 1104,
      "üss": 1105,
      "▁get": 1106,
      "▁Höhle": 1107,
      "denn": 1108,
      "▁glau": 1109,
      "▁vielen": 1110,
      "latz": 1111,
      "ent": 1112,
      "ingt": 1113,
      "▁mö": 1114,
      "uchten": 1115,
      "▁fest": 1116,
      "▁fing": 1117,
      "▁nichts": 1118,
      "ust": 1119,
      "Von": 1120,
      "▁Pf": 1121,
      "▁hinein": 1122,
      "▁Fuchs": 1123,
      "▁Su": 1124,
      "ernt": 1125,
      "▁verschw": 1126,
      "▁Licht": 1127,
      "alten": 1128,
      "▁Ufer": 1129,
      "▁allein": 1130,
      "adt": 1131,
      "▁hol": 1132,
      "▁Kr": 1133,
      "▁Maus": 1134,
      "ierte": 1135,
      "▁Zug": 1136,
      "▁Geschichten": 1137,
      "▁Vögel": 1138,
      "oppel": 1139,
      "▁blieb": 1140,
      "az": 1141,
      "▁vorsichtig": 1142,
      "▁suchte": 1143,
      "▁Wind": 1144,
      "▁Elef": 1145,
      "elten": 1146,
      "▁trug": 1147,
      "wit": 1148,
      "hof": 1149,
      "▁langen": 1150,
      "▁Kopf": 1151,
      "schte": 1152,
      "ke": 1153,
      "pfte": 1154,
      "▁besonder": 1155,
      "▁lag": 1156,
      "ischen": 1157,
      "▁Stadt": 1158,
      "▁sagten": 1159,
      "▁Tage": 1160,
      "Mama": 1161,
      "▁Kü": 1162,
      "dy": 1163,
      "▁Anna": 1164,
      "agt": 1165,
      "itte": 1166,
      "una": 1167,
      "▁bis": 1168,
      "illi": 1169,
      "ütz": 1170,
      "▁uns": 1171,
      "▁Kek": 1172,
      "▁unbe": 1173,
      "ennen": 1174,
      "▁kaum": 1175,
      "ler": 1176,
      "Paul": 1177,
      "eiten": 1178,
      "▁Berg": 1179,
      "▁Paul": 1180,
      "ßer": 1181,
      "▁Stimm": 1182,
      "utz": 1183,
      "ess": 1184,
      "▁brachte": 1185,
      "▁damit": 1186,
      "▁vorbei": 1187,
      "▁zufrieden": 1188,
      "▁tie": 1189,
      "▁beschlossen": 1190,
      "schie": 1191,
      "▁C": 1192,
      "▁hier": 1193,
      "he": 1194,
      "lang": 1195,
      "▁Mom": 1196,
      "▁bedank": 1197,
      "▁Stimme": 1198,
      "elbst": 1199,
      "▁wollten": 1200,
      "▁Wolf": 1201,
      "off": 1202,
      "ührte": 1203,
      "Anna": 1204,
      "änd": 1205,
      "▁erreich": 1206,
      "ion": 1207,
      "▁fol": 1208,
      "▁fliegen": 1209,
      "▁Mama": 1210,
      "▁Nacht": 1211,
      "▁Jahre": 1212,
      "▁Schne": 1213,
      "▁Tisch": 1214,
      "schwar": 1215,
      "ahren": 1216,
      "▁lachte": 1217,
      "▁En": 1218,
      "dingt": 1219,
      "ihn": 1220,
      "▁selt": 1221,
      "Also": 1222,
      "▁unbedingt": 1223,
      "▁einf": 1224,
      "▁umarm": 1225,
      "▁endlich": 1226,
      "▁Sand": 1227,
      "▁gesund": 1228,
      "▁ans": 1229,
      "tel": 1230,
      "witsch": 1231,
      "og": 1232,
      "ara": 1233,
      "etter": 1234,
      "ild": 1235,
      "▁lautes": 1236,
      "lex": 1237,
      "wor": 1238,
      "ver": 1239,
      "auen": 1240,
      "lichen": 1241,
      "▁wüten": 1242,
      "▁wachte": 1243,
      "eistert": 1244,
      "itzen": 1245,
      "ock": 1246,
      "▁oft": 1247,
      "▁schwamm": 1248,
      "▁begeistert": 1249,
      "▁verbrach": 1250,
      "▁hei": 1251,
      "eute": 1252,
      "▁Leo": 1253,
      "▁Luft": 1254,
      "Ja": 1255,
      "▁Schlange": 1256,
      "glücklich": 1257,
      "▁gelernt": 1258,
      "▁Raum": 1259,
      "allo": 1260,
      "▁Regen": 1261,
      "ppe": 1262,
      "▁selbst": 1263,
      "lug": 1264,
      "▁grü": 1265,
      "▁Flug": 1266,
      "▁Bes": 1267,
      "▁weinen": 1268,
      "okol": 1269,
      "uhr": 1270,
      "▁geg": 1271,
      "▁stellte": 1272,
      "▁mag": 1273,
      "iff": 1274,
      "▁Essen": 1275,
      "Je": 1276,
      "op": 1277,
      "Hallo": 1278,
      "▁See": 1279,
      "ische": 1280,
      "▁zeigte": 1281,
      "haus": 1282,
      "▁Land": 1283,
      "wir": 1284,
      "▁Spin": 1285,
      "üll": 1286,
      "▁brau": 1287,
      "du": 1288,
      "ört": 1289,
      "▁biss": 1290,
      "▁lachten": 1291,
      "isa": 1292,
      "lafen": 1293,
      "äu": 1294,
      "▁Eis": 1295,
      "urm": 1296,
      "▁Zauberer": 1297,
      "▁ließ": 1298,
      "rief": 1299,
      "▁könnte": 1300,
      "inz": 1301,
      "▁Ei": 1302,
      "▁lust": 1303,
      "zusehen": 1304,
      "igk": 1305,
      "immen": 1306,
      "▁wütend": 1307,
      "▁samm": 1308,
      "▁schneller": 1309,
      "anan": 1310,
      "▁wartete": 1311,
      "ücke": 1312,
      "▁half": 1313,
      "▁will": 1314,
      "▁pflück": 1315,
      "annte": 1316,
      "erkte": 1317,
      "▁erzählten": 1318,
      "▁gegen": 1319,
      "ollen": 1320,
      "achtete": 1321,
      "füh": 1322,
      "..": 1323,
      "▁Mond": 1324,
      "▁entde": 1325,
      "Leo": 1326,
      "▁Schokol": 1327,
      "▁wichtig": 1328,
      "▁dunkel": 1329,
      "ätter": 1330,
      "alt": 1331,
      "▁jem": 1332,
      "▁Tiger": 1333,
      "des": 1334,
      "oren": 1335,
      "▁Papa": 1336,
      "ling": 1337,
      "▁fer": 1338,
      "▁kannst": 1339,
      "ehmen": 1340,
      "olle": 1341,
      "rocken": 1342,
      "▁Mu": 1343,
      "▁stie": 1344,
      "▁einfach": 1345,
      "woh": 1346,
      "ungen": 1347,
      "▁Ast": 1348,
      "tr": 1349,
      "▁Schule": 1350,
      "her": 1351,
      "▁tanz": 1352,
      "▁Käse": 1353,
      "▁Wie": 1354,
      "hörte": 1355,
      "eld": 1356,
      "▁sicher": 1357,
      "anke": 1358,
      "▁Loch": 1359,
      "itter": 1360,
      "▁fertig": 1361,
      "atur": 1362,
      "cke": 1363,
      "▁Schmetter": 1364,
      "öne": 1365,
      "▁freu": 1366,
      "ähr": 1367,
      "▁Pfer": 1368,
      "ause": 1369,
      "Danke": 1370,
      "ichter": 1371,
      "▁bedankte": 1372,
      "▁Boot": 1373,
      "▁langsam": 1374,
      "▁ei": 1375,
      "▁neues": 1376,
      "ließlich": 1377,
      "▁Timmy": 1378,
      "▁hü": 1379,
      "▁laut": 1380,
      "▁Zäh": 1381,
      "▁alt": 1382,
      "▁erinn": 1383,
      "orden": 1384,
      "inken": 1385,
      "rot": 1386,
      "▁nun": 1387,
      "▁überall": 1388,
      "▁Drache": 1389,
      "klich": 1390,
      "ging": 1391,
      "kamen": 1392,
      "▁Banan": 1393,
      "Lilly": 1394,
      "▁sang": 1395,
      "anden": 1396,
      "▁ries": 1397,
      "uß": 1398,
      "▁Lilly": 1399,
      "▁rief": 1400,
      "pfen": 1401,
      "▁oben": 1402,
      "▁Drachen": 1403,
      "▁gl": 1404,
      "dru": 1405,
      "▁blei": 1406,
      "üch": 1407,
      "▁Schn": 1408,
      "▁wird": 1409,
      "Schließlich": 1410,
      "▁Tieren": 1411,
      "oo": 1412,
      "▁schien": 1413,
      "▁bet": 1414,
      "ochte": 1415,
      "während": 1416,
      "wortete": 1417,
      "ses": 1418,
      "▁erwar": 1419,
      "aten": 1420,
      "▁Mil": 1421,
      "▁hörten": 1422,
      "▁beim": 1423,
      "▁grö": 1424,
      "eim": 1425,
      "▁Ide": 1426,
      "▁Gras": 1427,
      "▁gehol": 1428,
      "achsen": 1429,
      "oss": 1430,
      "▁geb": 1431,
      "▁spaz": 1432,
      "rechen": 1433,
      "▁verbr": 1434,
      "▁Kindern": 1435,
      "▁mein": 1436,
      "▁wunderschönen": 1437,
      "▁Spinne": 1438,
      "▁Kn": 1439,
      "teten": 1440,
      "▁Meer": 1441,
      "chten": 1442,
      "▁hielt": 1443,
      "▁te": 1444,
      "▁geholfen": 1445,
      "▁Idee": 1446,
      "▁Blätter": 1447,
      "▁ganze": 1448,
      "schaft": 1449,
      "▁bun": 1450,
      "▁Tr": 1451,
      "▁Bauch": 1452,
      "reude": 1453,
      "▁woh": 1454,
      "rte": 1455,
      "▁mal": 1456,
      "Au": 1457,
      "ix": 1458,
      "eil": 1459,
      "▁beein": 1460,
      "ügel": 1461,
      "▁lande": 1462,
      "▁trank": 1463,
      "aut": 1464,
      "▁Blatt": 1465,
      "▁Fuß": 1466,
      "also": 1467,
      "arbei": 1468,
      "▁beeindru": 1469,
      "dig": 1470,
      "▁gemacht": 1471,
      "▁Feld": 1472,
      "▁bl": 1473,
      "letz": 1474,
      "▁Käfer": 1475,
      "▁Freude": 1476,
      "▁weit": 1477,
      "▁verloren": 1478,
      "▁bleiben": 1479,
      "▁Löwe": 1480,
      "▁Gesicht": 1481,
      "wer": 1482,
      "sche": 1483,
      "Lu": 1484,
      "▁versprach": 1485,
      "▁Nud": 1486,
      "lanz": 1487,
      "▁Bären": 1488,
      "anten": 1489,
      "▁zer": 1490,
      "▁holte": 1491,
      "mil": 1492,
      "fte": 1493,
      "ochen": 1494,
      "▁wün": 1495,
      "▁sitzen": 1496,
      "▁Wolke": 1497,
      "▁musst": 1498,
      "Ell": 1499,
      "▁Lichtung": 1500,
      "▁Küche": 1501,
      "▁machten": 1502,
      "▁Zahn": 1503,
      "uhl": 1504,
      "ena": 1505,
      "enny": 1506,
      "▁erlebt": 1507,
      "▁Bauern": 1508,
      "▁Trau": 1509,
      "uhause": 1510,
      "▁beeindruckt": 1511,
      "Lea": 1512,
      "▁Pferd": 1513,
      "▁streich": 1514,
      "ieden": 1515,
      "▁Laden": 1516,
      "äter": 1517,
      "liches": 1518,
      "▁Sie": 1519,
      "önig": 1520,
      "geben": 1521,
      "▁Milch": 1522,
      "äre": 1523,
      "▁schwar": 1524,
      "bo": 1525,
      "▁hell": 1526,
      "unn": 1527,
      "witscher": 1528,
      "▁umarmte": 1529,
      "ichtert": 1530,
      "chmal": 1531,
      "ütte": 1532,
      "auk": 1533,
      "▁erleichtert": 1534,
      "▁Zoo": 1535,
      "▁verschwunden": 1536,
      "▁Schmetterling": 1537,
      "▁Piep": 1538,
      "llen": 1539,
      "▁möchte": 1540,
      "▁verschieden": 1541,
      "▁verletz": 1542,
      "platz": 1543,
      "emerkte": 1544,
      "▁nickte": 1545,
      "▁Zuhause": 1546,
      "▁weich": 1547,
      "▁darüber": 1548,
      "▁Bienen": 1549,
      "▁Strand": 1550,
      "▁sollten": 1551,
      "asen": 1552,
      "inchen": 1553,
      "▁Brot": 1554,
      "▁mi": 1555,
      "▁wäre": 1556,
      "gend": 1557,
      "▁Krank": 1558,
      "▁neben": 1559,
      "ängst": 1560,
      "▁aufw": 1561,
      "ihr": 1562,
      "▁niem": 1563,
      "warum": 1564,
      "!\",": 1565,
      "ucht": 1566,
      "▁beide": 1567,
      "ücken": 1568,
      "orgt": 1569,
      "▁Ze": 1570,
      "▁schwimmen": 1571,
      "▁zog": 1572,
      "echt": 1573,
      "▁fanden": 1574,
      "▁landete": 1575,
      "▁seltsam": 1576,
      "▁süß": 1577,
      "▁Mon": 1578,
      "▁fröh": 1579,
      "▁star": 1580,
      "▁wenn": 1581,
      "▁spazieren": 1582,
      "▁tat": 1583,
      "▁Schnee": 1584,
      "ton": 1585,
      "▁Lied": 1586,
      "ttern": 1587,
      "sahen": 1588,
      "old": 1589,
      "▁krank": 1590,
      "unde": 1591,
      "▁erwarten": 1592,
      "reckte": 1593,
      "laufen": 1594,
      "Jeden": 1595,
      "▁Zähne": 1596,
      "▁Stück": 1597,
      "▁größer": 1598,
      "Sp": 1599,
      "▁Biene": 1600,
      "▁wissen": 1601,
      "▁Hase": 1602,
      "▁besorgt": 1603,
      "War": 1604,
      "▁Stuhl": 1605,
      "▁schaute": 1606,
      "zimmer": 1607,
      "▁Löwen": 1608,
      "ball": 1609,
      "▁fangen": 1610,
      "▁daran": 1611,
      "urst": 1612,
      "▁ankam": 1613,
      "▁Lea": 1614,
      "▁hören": 1615,
      "▁gi": 1616,
      "▁Luna": 1617,
      "▁hät": 1618,
      "üssel": 1619,
      "ip": 1620,
      "▁bekam": 1621,
      "▁Wiese": 1622,
      "aninchen": 1623,
      "garten": 1624,
      "iges": 1625,
      "▁schle": 1626,
      "▁schar": 1627,
      "iz": 1628,
      "▁was": 1629,
      "▁folgte": 1630,
      "ützen": 1631,
      "Su": 1632,
      "▁Brücke": 1633,
      "uss": 1634,
      "▁beobachten": 1635,
      "grü": 1636,
      "▁kü": 1637,
      "▁gefähr": 1638,
      "heo": 1639,
      "auer": 1640,
      "▁verm": 1641,
      "täusch": 1642,
      "▁verz": 1643,
      "▁Arm": 1644,
      "▁gemein": 1645,
      "▁Beer": 1646,
      "nung": 1647,
      "▁erschrocken": 1648,
      "ul": 1649,
      "dern": 1650,
      "▁mut": 1651,
      "▁Frü": 1652,
      "▁herunter": 1653,
      "eni": 1654,
      "▁Fil": 1655,
      "▁Nest": 1656,
      "leid": 1657,
      "▁mochte": 1658,
      "äm": 1659,
      "▁dr": 1660,
      "▁Äpfel": 1661,
      "▁bö": 1662,
      "qu": 1663,
      "▁enttäusch": 1664,
      "amie": 1665,
      "bling": 1666,
      "ay": 1667,
      "▁sagen": 1668,
      "▁Baumst": 1669,
      "fand": 1670,
      "unnel": 1671,
      "▁Schokolade": 1672,
      "▁glauben": 1673,
      "nis": 1674,
      "ähe": 1675,
      "dete": 1676,
      "▁eigen": 1677,
      "▁allen": 1678,
      "sel": 1679,
      "▁arbei": 1680,
      "▁tief": 1681,
      "▁Tunnel": 1682,
      "▁Quak": 1683,
      "▁später": 1684,
      "▁aufwachte": 1685,
      "annt": 1686,
      "aun": 1687,
      "▁bel": 1688,
      "▁wen": 1689,
      "▁Bru": 1690,
      "▁Nase": 1691,
      "▁überglücklich": 1692,
      "Auf": 1693,
      "eite": 1694,
      "▁Spielplatz": 1695,
      "oph": 1696,
      "Warum": 1697,
      "▁In": 1698,
      "▁enttäuscht": 1699,
      "▁Traum": 1700,
      "arie": 1701,
      "▁kommen": 1702,
      "▁schme": 1703,
      "▁Schwanz": 1704,
      "▁Kindergarten": 1705,
      "▁niemand": 1706,
      "▁kaufen": 1707,
      "kas": 1708,
      "▁Mitte": 1709,
      "▁hoh": 1710,
      "▁teil": 1711,
      "▁vergaß": 1712,
      "▁Schmer": 1713,
      "▁gefährlich": 1714,
      "▁Liebling": 1715,
      "▁di": 1716,
      "▁Kaninchen": 1717,
      "▁fuhr": 1718,
      "▁ret": 1719,
      "▁warf": 1720,
      "▁Natur": 1721,
      "öpf": 1722,
      "rachten": 1723,
      "▁zwei": 1724,
      "▁Alex": 1725,
      "afen": 1726,
      "öher": 1727,
      "üster": 1728,
      "▁Far": 1729,
      "▁streckte": 1730,
      "▁schl": 1731,
      "abei": 1732,
      "▁gegessen": 1733,
      "▁gewesen": 1734,
      "Ella": 1735,
      "▁Hoppel": 1736,
      "▁Un": 1737,
      "▁Kaff": 1738,
      "▁Gr": 1739,
      "▁kl": 1740,
      "kehr": 1741,
      "▁suchen": 1742,
      "rob": 1743,
      "▁Ella": 1744,
      "▁höher": 1745,
      "damit": 1746,
      "bur": 1747,
      "▁Kranken": 1748,
      "ipp": 1749,
      "▁begannen": 1750,
      "▁wiederzusehen": 1751,
      "▁schm": 1752,
      "▁Groß": 1753,
      "▁heiß": 1754,
      "abt": 1755,
      "▁Elefanten": 1756,
      "▁trinken": 1757,
      "▁lernen": 1758,
      "lt": 1759,
      "▁Straß": 1760,
      "▁ant": 1761,
      "▁Elefant": 1762,
      "spiel": 1763,
      "▁muss": 1764,
      "▁Erde": 1765,
      "▁gibt": 1766,
      "hin": 1767,
      "▁Nähe": 1768,
      "per": 1769,
      "▁gute": 1770,
      "nach": 1771,
      "▁Arzt": 1772,
      "las": 1773,
      "▁schöne": 1774,
      "▁lassen": 1775,
      "▁Beeren": 1776,
      "▁auss": 1777,
      "▁singen": 1778,
      "auch": 1779,
      "▁führte": 1780,
      "▁Bäumen": 1781,
      "für": 1782,
      "Hoppel": 1783,
      "▁König": 1784,
      "▁sauber": 1785,
      "▁schlug": 1786,
      "▁Reis": 1787,
      "▁Monster": 1788,
      "▁verbrachte": 1789,
      "▁zeigen": 1790,
      "Da": 1791,
      "▁schwer": 1792,
      "hol": 1793,
      "▁Verste": 1794,
      "▁kr": 1795,
      "▁diesen": 1796,
      "▁schlafen": 1797,
      "▁Sam": 1798,
      "▁ankamen": 1799,
      "Piep": 1800,
      "▁gehört": 1801,
      "▁diese": 1802,
      "▁Keks": 1803,
      "▁aßen": 1804,
      "▁Mund": 1805,
      "uhig": 1806,
      "iss": 1807,
      "weg": 1808,
      "▁neugieriger": 1809,
      "tt": 1810,
      "Über": 1811,
      "▁dabei": 1812,
      "▁wuch": 1813,
      "▁Wurst": 1814,
      "seum": 1815,
      "▁bewegen": 1816,
      "▁wink": 1817,
      "▁Pr": 1818,
      "▁anf": 1819,
      "Oh": 1820,
      "▁Moment": 1821,
      "▁beobachtete": 1822,
      "▁bede": 1823,
      "▁besuchen": 1824,
      "▁ben": 1825,
      "▁kein": 1826,
      "▁wirklich": 1827,
      "ex": 1828,
      "▁verw": 1829,
      "▁Bauernhof": 1830,
      "umm": 1831,
      "▁Nach": 1832,
      "▁freute": 1833,
      "öst": 1834,
      "schwarzen": 1835,
      "stück": 1836,
      "▁Bahn": 1837,
      "gehen": 1838,
      "onas": 1839,
      "eddy": 1840,
      "so": 1841,
      "▁Tee": 1842,
      "▁Dsch": 1843,
      "doch": 1844,
      "▁blau": 1845,
      "ungel": 1846,
      "▁bitter": 1847,
      "▁Film": 1848,
      "ackte": 1849,
      "▁verlassen": 1850,
      "▁Dschungel": 1851,
      "▁Museum": 1852,
      "▁Ente": 1853,
      "▁nehmen": 1854,
      "ophie": 1855,
      "cy": 1856,
      "▁anders": 1857,
      "▁Lehr": 1858,
      "▁einige": 1859,
      "▁Schatz": 1860,
      "▁hinaus": 1861,
      "▁Kaffee": 1862,
      "▁heran": 1863,
      "egal": 1864,
      "▁lief": 1865,
      "▁Tal": 1866,
      "gef": 1867,
      "▁erreichen": 1868,
      "▁dieser": 1869,
      "rak": 1870,
      "▁san": 1871,
      "auten": 1872,
      "▁spür": 1873,
      "▁besten": 1874,
      "uno": 1875,
      "▁leben": 1876,
      "▁verbrachten": 1877,
      "▁hätte": 1878,
      "▁bringen": 1879,
      "▁bekommen": 1880,
      "▁wiedersehen": 1881,
      "▁erinnerte": 1882,
      "ren": 1883,
      "▁dein": 1884,
      "Dort": 1885,
      "wieder": 1886,
      "▁pflückte": 1887,
      "▁roten": 1888,
      "▁Pl": 1889,
      "ohne": 1890,
      "stand": 1891,
      "▁Blitz": 1892,
      "teinander": 1893,
      "Sein": 1894,
      "glich": 1895,
      "baum": 1896,
      "▁gesp": 1897,
      "▁jemand": 1898,
      "▁Glück": 1899,
      "▁Früchte": 1900,
      "▁Krankenhaus": 1901,
      "lär": 1902,
      "ert": 1903,
      "▁Jä": 1904,
      "Alle": 1905,
      "▁Rücken": 1906,
      "▁Schloss": 1907,
      "El": 1908,
      "▁Früh": 1909,
      "▁antwortete": 1910,
      "us": 1911,
      "▁hung": 1912,
      "▁genug": 1913,
      "tzchen": 1914,
      "▁Kl": 1915,
      "eter": 1916,
      "ekt": 1917,
      "▁stieg": 1918,
      "lossen": 1919,
      "▁erst": 1920,
      "▁Spielzeu": 1921,
      "▁Fee": 1922,
      "▁gehabt": 1923,
      "▁miteinander": 1924,
      "ht": 1925,
      "ker": 1926,
      "änzen": 1927,
      "▁müssen": 1928,
      "ücher": 1929,
      "halten": 1930,
      "▁Zebr": 1931,
      "▁streichelte": 1932,
      "▁erw": 1933,
      "asche": 1934,
      "rekt": 1935,
      "ation": 1936,
      "▁beh": 1937,
      "▁sangen": 1938,
      "▁klettern": 1939,
      "leicht": 1940,
      "▁vermi": 1941,
      "▁traf": 1942,
      "▁Nudeln": 1943,
      "abschie": 1944,
      "▁Bruder": 1945,
      "▁Sorgen": 1946,
      "▁Bahnhof": 1947,
      "▁hungrig": 1948,
      "▁Abendessen": 1949,
      "▁darin": 1950,
      "▁kn": 1951,
      "▁verk": 1952,
      "▁Jäger": 1953,
      "euch": 1954,
      "▁retten": 1955,
      "Wie": 1956,
      "▁wander": 1957,
      "▁Baumes": 1958,
      "▁starb": 1959,
      "acken": 1960,
      "▁Sturm": 1961,
      "▁gest": 1962,
      "itzer": 1963,
      "asse": 1964,
      "▁verbracht": 1965,
      "▁getan": 1966,
      "▁leises": 1967,
      "▁Kekse": 1968,
      "▁betr": 1969,
      "Quak": 1970,
      "▁las": 1971,
      "▁köst": 1972,
      "Viel": 1973,
      "Bello": 1974,
      "öpft": 1975,
      "▁hob": 1976,
      "▁entkommen": 1977,
      "itten": 1978,
      "leisch": 1979,
      "bär": 1980,
      "weif": 1981,
      "▁manchmal": 1982,
      "▁Haar": 1983,
      "iehen": 1984,
      "▁Kuh": 1985,
      "▁erschöpft": 1986,
      "▁verletzt": 1987,
      "üßen": 1988,
      "klein": 1989,
      "▁Seite": 1990,
      "▁dafür": 1991,
      "einander": 1992,
      "▁Lisa": 1993,
      "▁erlebten": 1994,
      "ände": 1995,
      "igkeiten": 1996,
      "▁mussten": 1997,
      "tag": 1998,
      "wur": 1999,
      "▁hart": 2000,
      "▁verabschie": 2001,
      "auso": 2002,
      "▁besie": 2003,
      "igkeit": 2004,
      "▁winkte": 2005,
      "▁Herz": 2006,
      "▁Bild": 2007,
      "▁gefangen": 2008,
      "seine": 2009,
      "▁Schön": 2010,
      "▁Kätzchen": 2011,
      "draußen": 2012,
      "Sue": 2013,
      "voll": 2014,
      "▁guter": 2015,
      "oral": 2016,
      "▁gemeinsam": 2017,
      "▁bat": 2018,
      "▁genoss": 2019,
      "zählte": 2020,
      "▁Baumstamm": 2021,
      "innen": 2022,
      "▁erzählen": 2023,
      "▁geben": 2024,
      "▁beiden": 2025,
      "ester": 2026,
      "▁Kino": 2027,
      "ogen": 2028,
      "▁sprechen": 2029,
      "▁Geschen": 2030,
      "▁Reise": 2031,
      "Luna": 2032,
      "▁Gefüh": 2033,
      "red": 2034,
      "ist": 2035,
      "atten": 2036,
      "▁drei": 2037,
      "▁Gef": 2038,
      "▁Saft": 2039,
      "▁sprach": 2040,
      "▁Teddy": 2041,
      "▁neugieriges": 2042,
      "▁flogen": 2043,
      "▁Flugzeug": 2044,
      "Timmy": 2045,
      "▁wenig": 2046,
      "▁bemerkte": 2047,
      "Wenn": 2048,
      "geg": 2049,
      "▁bereit": 2050,
      "Kann": 2051,
      "▁Felsen": 2052,
      "ühren": 2053,
      "Man": 2054,
      "ießen": 2055,
      "▁Wolken": 2056,
      "**": 2057,
      "zte": 2058,
      "▁grünen": 2059,
      "Papa": 2060,
      "▁ru": 2061,
      "▁bisschen": 2062,
      "rochen": 2063,
      "▁erschrak": 2064,
      "▁ja": 2065,
      "teress": 2066,
      "▁reich": 2067,
      "urch": 2068,
      "▁Pu": 2069,
      "▁frei": 2070,
      "▁hinunter": 2071,
      "Sam": 2072,
      "▁Verstecken": 2073,
      "Überras": 2074,
      "▁Liebe": 2075,
      "▁laufen": 2076,
      "▁verzweif": 2077,
      "ieß": 2078,
      "▁Spielen": 2079,
      "▁bauen": 2080,
      "▁Aff": 2081,
      "▁kümmer": 2082,
      "▁hoff": 2083,
      "▁schwach": 2084,
      "▁aufzu": 2085,
      "▁erleben": 2086,
      "atür": 2087,
      "▁Fische": 2088,
      "schied": 2089,
      "▁früh": 2090,
      "...": 2091,
      "▁warm": 2092,
      "▁kauf": 2093,
      "▁Kar": 2094,
      "▁Schauk": 2095,
      "uhe": 2096,
      "uhn": 2097,
      "ges": 2098,
      "arzt": 2099,
      "▁baute": 2100,
      "pt": 2101,
      "▁Leute": 2102,
      "▁Am": 2103,
      "eitig": 2104,
      "▁wünschte": 2105,
      "▁entsch": 2106,
      "▁Auf": 2107,
      "▁Gem": 2108,
      "▁Flügel": 2109,
      "▁lesen": 2110,
      "▁verschiedene": 2111,
      "▁Prinz": 2112,
      "affen": 2113,
      "leich": 2114,
      "▁Schmerz": 2115,
      "▁unters": 2116,
      "▁Jan": 2117,
      "▁kennen": 2118,
      "▁schlecht": 2119,
      "▁Sue": 2120,
      "det": 2121,
      "▁suchten": 2122,
      "bel": 2123,
      "eist": 2124,
      "▁Hasen": 2125,
      "nten": 2126,
      "▁zerst": 2127,
      "▁Schwein": 2128,
      "▁Zebra": 2129,
      "ächeln": 2130,
      "▁Farben": 2131,
      "▁heute": 2132,
      "kle": 2133,
      "arkt": 2134,
      "gten": 2135,
      "olden": 2136,
      "▁Fleisch": 2137,
      "▁Affen": 2138,
      "▁stär": 2139,
      "▁Herzen": 2140,
      "▁bunten": 2141,
      "▁erklär": 2142,
      "▁hüpfte": 2143,
      "▁Frühstück": 2144,
      "samen": 2145,
      "▁käm": 2146,
      "ja": 2147,
      "obold": 2148,
      "lausch": 2149,
      "▁Huhn": 2150,
      "▁Bücher": 2151,
      "▁schmeckte": 2152,
      "▁Lächeln": 2153,
      "ias": 2154,
      "▁Gru": 2155,
      "atürlich": 2156,
      "▁fressen": 2157,
      "▁weh": 2158,
      "abel": 2159,
      "▁Lebens": 2160,
      "hören": 2161,
      "▁Affe": 2162,
      "▁tro": 2163,
      "inka": 2164,
      "beit": 2165,
      "▁fühlen": 2166,
      "▁Geh": 2167,
      "▁verzweifelt": 2168,
      "orben": 2169,
      "bracht": 2170,
      "▁versuchten": 2171,
      "▁Straße": 2172,
      "▁klang": 2173,
      "utzen": 2174,
      "entde": 2175,
      "▁fl": 2176,
      "▁Platz": 2177,
      "▁direkt": 2178,
      "▁interess": 2179,
      "los": 2180,
      "▁blieben": 2181,
      "▁lauter": 2182,
      "Nein": 2183,
      "▁spürte": 2184,
      "igt": 2185,
      "ckten": 2186,
      "Während": 2187,
      "▁einsam": 2188,
      "▁wanderte": 2189,
      "▁Müll": 2190,
      "▁entdecken": 2191,
      "▁hohen": 2192,
      "▁wuchs": 2193,
      "Jan": 2194,
      "▁Kleid": 2195,
      "▁durfte": 2196,
      "obi": 2197,
      "▁Zwitscher": 2198,
      "▁gar": 2199,
      "mily": 2200,
      "unsch": 2201,
      "robieren": 2202,
      "▁gemüt": 2203,
      "▁Banane": 2204,
      "äss": 2205,
      "▁trö": 2206,
      "▁setzten": 2207,
      "▁gesagt": 2208,
      "▁leer": 2209,
      "uhren": 2210,
      "▁genau": 2211,
      "▁Bananen": 2212,
      "▁Geld": 2213,
      "Alex": 2214,
      "olly": 2215,
      "wohner": 2216,
      "pe": 2217,
      "▁verf": 2218,
      "▁lustig": 2219,
      "▁berührte": 2220,
      "mein": 2221,
      "urrte": 2222,
      "▁Ad": 2223,
      "▁deine": 2224,
      "▁genauso": 2225,
      "Lisa": 2226,
      "▁liebe": 2227,
      "▁ängst": 2228,
      "▁Be": 2229,
      "ump": 2230,
      "kay": 2231,
      "▁verwir": 2232,
      "▁Arme": 2233,
      "▁Wunsch": 2234,
      "▁packte": 2235,
      "id": 2236,
      "▁klo": 2237,
      "legte": 2238,
      "▁machst": 2239,
      "▁erreichte": 2240,
      "▁stärker": 2241,
      "gang": 2242,
      "▁Kobold": 2243,
      "pfer": 2244,
      "▁düster": 2245,
      "si": 2246,
      "laf": 2247,
      "▁befand": 2248,
      "▁ü": 2249,
      "orb": 2250,
      "geb": 2251,
      "Mutter": 2252,
      "▁Or": 2253,
      "▁jedes": 2254,
      "▁brachten": 2255,
      "▁entdeckte": 2256,
      "▁teilen": 2257,
      "▁Wohn": 2258,
      "orn": 2259,
      "▁gelang": 2260,
      "▁Lena": 2261,
      "gesch": 2262,
      "▁geworden": 2263,
      "▁ängstlich": 2264,
      "zer": 2265,
      "▁Arbeit": 2266,
      "▁Aus": 2267,
      "gew": 2268,
      "▁Glas": 2269,
      "▁gekommen": 2270,
      "▁überw": 2271,
      "da": 2272,
      "▁Sohn": 2273,
      "▁sanft": 2274,
      "▁Benny": 2275,
      "▁Geschenk": 2276,
      "▁mutig": 2277,
      "dunk": 2278,
      "ine": 2279,
      "▁dieses": 2280,
      "▁fahren": 2281,
      "▁glücklicher": 2282,
      "▁Gefühl": 2283,
      "imi": 2284,
      "iv": 2285,
      "▁hinauf": 2286,
      "uche": 2287,
      "▁fröhlich": 2288,
      "▁Jamie": 2289,
      "uern": 2290,
      "ellen": 2291,
      "Wo": 2292,
      "bes": 2293,
      "▁glänzen": 2294,
      "▁ir": 2295,
      "Im": 2296,
      "ella": 2297,
      "▁Sonnen": 2298,
      "▁Pflanz": 2299,
      "▁unten": 2300,
      "▁tut": 2301,
      "▁Se": 2302,
      "nerwar": 2303,
      "leiß": 2304,
      "▁glückliches": 2305,
      "ihre": 2306,
      "▁halten": 2307,
      "merk": 2308,
      "ppen": 2309,
      "od": 2310,
      "▁verlie": 2311,
      "▁sagt": 2312,
      "▁bellte": 2313,
      "▁worden": 2314,
      "▁Pil": 2315,
      "sond": 2316,
      "▁leckeren": 2317,
      "▁Gruppe": 2318,
      "sondern": 2319,
      "▁sammeln": 2320,
      "arah": 2321,
      "Emil": 2322,
      "anach": 2323,
      "▁fast": 2324,
      "holen": 2325,
      "▁Flusses": 2326,
      "ossen": 2327,
      "▁Bach": 2328,
      "grünen": 2329,
      "▁Fahr": 2330,
      "flo": 2331,
      "mutter": 2332,
      "tell": 2333,
      "Jetzt": 2334,
      "▁sammelte": 2335,
      "▁dür": 2336,
      "▁Holz": 2337,
      "▁tot": 2338,
      "▁Abenteuern": 2339,
      "▁Emil": 2340,
      "mals": 2341,
      "▁Fe": 2342,
      "merksam": 2343,
      "utzte": 2344,
      "▁meine": 2345,
      "▁Quack": 2346,
      "▁Schaf": 2347,
      "▁wohl": 2348,
      "▁einsch": 2349,
      "entdeckte": 2350,
      "Anton": 2351,
      "▁passierte": 2352,
      "üsse": 2353,
      "▁aussah": 2354,
      "▁anfing": 2355,
      "▁seltsamen": 2356,
      "▁zw": 2357,
      "▁dankte": 2358,
      "finden": 2359,
      "ost": 2360,
      "▁rut": 2361,
      "▁jeder": 2362,
      "▁schütte": 2363,
      "▁versuchen": 2364,
      "Lena": 2365,
      "kann": 2366,
      "▁Felix": 2367,
      "▁liebten": 2368,
      "aby": 2369,
      "äuschen": 2370,
      "▁fallen": 2371,
      "▁Hon": 2372,
      "▁leu": 2373,
      "▁seines": 2374,
      "▁erkunde": 2375,
      "ittag": 2376,
      "▁seltsames": 2377,
      "uschel": 2378,
      "end": 2379,
      "▁Freundin": 2380,
      "▁De": 2381,
      "▁schwammen": 2382,
      "äume": 2383,
      "aur": 2384,
      "▁unser": 2385,
      "▁Fer": 2386,
      "geh": 2387,
      "keit": 2388,
      "▁riesigen": 2389,
      "▁macht": 2390,
      "▁stimm": 2391,
      "▁richtig": 2392,
      "lust": 2393,
      "ahl": 2394,
      "▁wahr": 2395,
      "▁liegen": 2396,
      "▁Dorfbe": 2397,
      "▁Freundschaft": 2398,
      ".\\": 2399,
      "ättern": 2400,
      "▁Schiff": 2401,
      "deten": 2402,
      "▁getro": 2403,
      "▁Wohnzimmer": 2404,
      "▁Berges": 2405,
      "▁dün": 2406,
      "mer": 2407,
      "▁Bein": 2408,
      "ule": 2409,
      "▁Ch": 2410,
      "mmas": 2411,
      "wür": 2412,
      "▁springen": 2413,
      "gendwo": 2414,
      "durch": 2415,
      "▁Schwester": 2416,
      "▁jedoch": 2417,
      "▁Sterne": 2418,
      "▁verd": 2419,
      "▁Steine": 2420,
      "▁gr": 2421,
      "Wer": 2422,
      "asch": 2423,
      "▁Hütte": 2424,
      "▁ersten": 2425,
      "Fel": 2426,
      "▁besonders": 2427,
      "▁fleiß": 2428,
      "▁entf": 2429,
      "▁versteckte": 2430,
      "▁Ent": 2431,
      "▁Adler": 2432,
      "inter": 2433,
      "ernen": 2434,
      "Theo": 2435,
      "▁schöner": 2436,
      "▁qu": 2437,
      "▁Netz": 2438,
      "oten": 2439,
      "Lass": 2440,
      "▁getroffen": 2441,
      "▁Fell": 2442,
      "änden": 2443,
      "▁auszu": 2444,
      "ips": 2445,
      "▁Äste": 2446,
      "▁kalt": 2447,
      "inner": 2448,
      "▁leid": 2449,
      "▁schrei": 2450,
      "eien": 2451,
      "▁schock": 2452,
      "▁Stunden": 2453,
      "▁Schnabel": 2454,
      "▁Um": 2455,
      "▁toll": 2456,
      "▁verschwand": 2457,
      "▁schmutz": 2458,
      "▁Wochen": 2459,
      "▁bauten": 2460,
      "ilf": 2461,
      "▁Ein": 2462,
      "▁tragen": 2463,
      "eltsam": 2464,
      "▁ob": 2465,
      "▁zurückkehr": 2466,
      "▁klar": 2467,
      "aja": 2468,
      "Willi": 2469,
      "▁saßen": 2470,
      "Dies": 2471,
      "ce": 2472,
      "▁keinen": 2473,
      "▁aber": 2474,
      "▁gegens": 2475,
      "▁Gen": 2476,
      "ila": 2477,
      "Leni": 2478,
      "▁Willi": 2479,
      "teuer": 2480,
      "▁Stock": 2481,
      "▁Neu": 2482,
      "▁Herr": 2483,
      "▁erwachsen": 2484,
      "▁Held": 2485,
      "▁Schaukel": 2486,
      "waren": 2487,
      "▁Bauer": 2488,
      "▁Anton": 2489,
      "▁Honig": 2490,
      "eimnis": 2491,
      "fall": 2492,
      "lief": 2493,
      "▁tolle": 2494,
      "▁gegenseitig": 2495,
      "▁offen": 2496,
      "ma": 2497,
      "▁Sor": 2498,
      "hal": 2499,
      "▁Geb": 2500,
      "Quack": 2501,
      "▁beruhig": 2502,
      "▁nass": 2503,
      "▁Hut": 2504,
      "▁Spielzeuge": 2505,
      "▁Schatten": 2506,
      "▁schüttelte": 2507,
      "▁Pol": 2508,
      "▁lachen": 2509,
      "▁magischen": 2510,
      "▁euch": 2511,
      "▁pflücken": 2512,
      "▁eigenen": 2513,
      "▁doch": 2514,
      "▁Seltsam": 2515,
      "Felix": 2516,
      "▁Ru": 2517,
      "▁tanzen": 2518,
      "antwortete": 2519,
      "itze": 2520,
      "▁Zu": 2521,
      "▁Dingen": 2522,
      "▁Küh": 2523,
      "▁Hände": 2524,
      "▁Recht": 2525,
      "▁Schlaf": 2526,
      "stete": 2527,
      "▁beschützen": 2528,
      "▁Seltsames": 2529,
      "▁ohne": 2530,
      "eller": 2531,
      "▁aben": 2532,
      "▁trotz": 2533,
      "ihm": 2534,
      "▁niemals": 2535,
      "▁anderes": 2536,
      "▁holen": 2537,
      "uhen": 2538,
      "fühlte": 2539,
      "afft": 2540,
      "▁Kör": 2541,
      "▁köstlich": 2542,
      "▁Großmutter": 2543,
      "▁reg": 2544,
      "mann": 2545,
      "▁Box": 2546,
      "▁geschah": 2547,
      "Mom": 2548,
      "▁Überras": 2549,
      "▁aufmerksam": 2550,
      "▁sonn": 2551,
      "sk": 2552,
      "perte": 2553,
      "otte": 2554,
      "▁Hügel": 2555,
      "Natürlich": 2556,
      "▁hieß": 2557,
      "ehrte": 2558,
      "▁geschafft": 2559,
      "▁Häuschen": 2560,
      "▁Bank": 2561,
      "reck": 2562,
      "ältig": 2563,
      "erten": 2564,
      "spr": 2565,
      "stern": 2566,
      "▁Bart": 2567,
      "▁Besonder": 2568,
      "▁Theo": 2569,
      "▁trat": 2570,
      "ischer": 2571,
      "▁Spaz": 2572,
      "Spot": 2573,
      "▁rei": 2574,
      "▁Eier": 2575,
      "▁nahmen": 2576,
      "mittag": 2577,
      "▁Teil": 2578,
      "▁schwarzen": 2579,
      "▁erkannte": 2580,
      "atte": 2581,
      "emann": 2582,
      "▁vermisste": 2583,
      "▁standen": 2584,
      "▁verstecken": 2585,
      "▁Prinzess": 2586,
      "▁freundlicher": 2587,
      "▁klopfte": 2588,
      "▁Pro": 2589,
      "zun": 2590,
      "▁erfüll": 2591,
      "▁Schönheit": 2592,
      "▁Auss": 2593,
      "▁fuhren": 2594,
      "▁Blättern": 2595,
      "▁nir": 2596,
      "dachte": 2597,
      "▁erh": 2598,
      "▁lernten": 2599,
      "▁fü": 2600,
      "▁Leni": 2601,
      "▁Pap": 2602,
      "▁Marie": 2603,
      "▁Erinner": 2604,
      "▁Enten": 2605,
      "▁Poliz": 2606,
      "terben": 2607,
      "hafen": 2608,
      "▁gleich": 2609,
      "ilder": 2610,
      "wurde": 2611,
      "▁komm": 2612,
      "▁geschehen": 2613,
      "▁spät": 2614,
      "ika": 2615,
      "▁leckte": 2616,
      "li": 2617,
      "▁tanzte": 2618,
      "▁Süß": 2619,
      "▁sterben": 2620,
      "Diesmal": 2621,
      "St": 2622,
      "quer": 2623,
      "ers": 2624,
      "äft": 2625,
      "stellen": 2626,
      "▁Flughafen": 2627,
      "Komm": 2628,
      "olperte": 2629,
      "▁Besonderes": 2630,
      "ommi": 2631,
      "erzählte": 2632,
      "▁Kre": 2633,
      "ami": 2634,
      "▁Korb": 2635,
      "fl": 2636,
      "▁gaben": 2637,
      "unge": 2638,
      "▁Mut": 2639,
      "▁trotzdem": 2640,
      "▁wunderschönes": 2641,
      "süß": 2642,
      "sse": 2643,
      "▁fragten": 2644,
      "▁gek": 2645,
      "itty": 2646,
      "ommy": 2647,
      "▁Spot": 2648,
      "enrie": 2649,
      "urz": 2650,
      "▁müsse": 2651,
      "▁Dorfbewohner": 2652,
      "▁scharfen": 2653,
      "▁Sophie": 2654,
      "▁befr": 2655,
      "▁Bob": 2656,
      "▁möglich": 2657,
      "So": 2658,
      "▁unterging": 2659,
      "▁Bruno": 2660,
      "▁erklärte": 2661,
      "▁Fußball": 2662,
      "gingen": 2663,
      "reifen": 2664,
      "▁Krallen": 2665,
      "▁vert": 2666,
      "icher": 2667,
      "▁Ballon": 2668,
      "äll": 2669,
      "▁bewegte": 2670,
      "▁Schokoladen": 2671,
      "EE": 2672,
      "▁verfol": 2673,
      "▁tau": 2674,
      "▁Igel": 2675,
      "▁fröhliches": 2676,
      "cky": 2677,
      "▁Tasche": 2678,
      "offnung": 2679,
      "eiden": 2680,
      "egten": 2681,
      "stehen": 2682,
      "▁golden": 2683,
      "net": 2684,
      "laub": 2685,
      "▁Nachmittag": 2686,
      "▁betrachtete": 2687,
      "▁wohnte": 2688,
      "Bl": 2689,
      "▁winz": 2690,
      "▁entlang": 2691,
      "egel": 2692,
      "▁könne": 2693,
      "▁böse": 2694,
      "ührt": 2695,
      "▁Lieder": 2696,
      "schw": 2697,
      "▁Sandbur": 2698,
      "▁nett": 2699,
      "weiß": 2700,
      "ückte": 2701,
      "▁erstaun": 2702,
      "ften": 2703,
      "▁umarmten": 2704,
      "▁Prinzessin": 2705,
      "▁aufhören": 2706,
      "▁bedeu": 2707,
      "apfer": 2708,
      "gekommen": 2709,
      "▁genießen": 2710,
      "▁kaufte": 2711,
      "▁schockiert": 2712,
      "Marie": 2713,
      "ub": 2714,
      "▁brü": 2715,
      "▁Hoffnung": 2716,
      "▁öffnen": 2717,
      "bemerkte": 2718,
      "Zwitscher": 2719,
      "brau": 2720,
      "ierten": 2721,
      "ktion": 2722,
      "▁Lieblings": 2723,
      "▁Häu": 2724,
      "▁besuchte": 2725,
      "par": 2726,
      "Keine": 2727,
      "rah": 2728,
      "▁Samen": 2729,
      "▁Küken": 2730,
      "ante": 2731,
      "Bob": 2732,
      "standen": 2733,
      "roch": 2734,
      "co": 2735,
      "tterten": 2736,
      "▁verschiedenen": 2737,
      "kel": 2738,
      "▁sieht": 2739,
      "▁berühren": 2740,
      "▁warteten": 2741,
      "▁wed": 2742,
      "rand": 2743,
      "▁So": 2744,
      "▁verb": 2745,
      "▁lieben": 2746,
      "icherheit": 2747,
      "▁tre": 2748,
      "reddy": 2749,
      "▁leuchten": 2750,
      "echtigkeit": 2751,
      "▁Sicherheit": 2752,
      "▁hoffte": 2753,
      "▁süßen": 2754,
      "ammy": 2755,
      "▁alleine": 2756,
      "▁aufgeben": 2757,
      "Jonas": 2758,
      "▁genossen": 2759,
      "▁erfuhr": 2760,
      "▁Rau": 2761,
      "▁Geschw": 2762,
      "▁verwirrt": 2763,
      "▁Gerechtigkeit": 2764,
      "▁entschied": 2765,
      "▁könnten": 2766,
      "▁best": 2767,
      "ssss": 2768,
      "ruhen": 2769,
      "▁Suche": 2770,
      "▁hüb": 2771,
      "▁saft": 2772,
      "alle": 2773,
      "setz": 2774,
      "▁wirst": 2775,
      "▁Jonas": 2776,
      "▁faul": 2777,
      "▁Sachen": 2778,
      "umpf": 2779,
      "▁heiße": 2780,
      "▁Grab": 2781,
      "▁wunderschöne": 2782,
      "▁Minka": 2783,
      "▁ern": 2784,
      "tem": 2785,
      "av": 2786,
      "▁nein": 2787,
      "▁Müller": 2788,
      "Eine": 2789,
      "▁erlebte": 2790,
      "▁blickte": 2791,
      "▁überquer": 2792,
      "ielten": 2793,
      "▁Wür": 2794,
      "▁weglaufen": 2795,
      "Vielleicht": 2796,
      "▁nirgendwo": 2797,
      "▁abenteuer": 2798,
      "▁halfen": 2799,
      "▁Plan": 2800,
      "▁tapfer": 2801,
      "ri": 2802,
      "▁häss": 2803,
      "▁Lehre": 2804,
      "▁behalten": 2805,
      "▁Händen": 2806,
      "▁einz": 2807,
      "▁gemütlichen": 2808,
      "ans": 2809,
      "▁beruhigte": 2810,
      "▁Wor": 2811,
      "fig": 2812,
      "▁verstand": 2813,
      "Lucy": 2814,
      "▁Frem": 2815,
      "bogen": 2816,
      "▁seg": 2817,
      "▁Überrasch": 2818,
      "▁Pflanzen": 2819,
      "▁e": 2820,
      "ätz": 2821,
      "telle": 2822,
      "▁schaffen": 2823,
      "iki": 2824,
      "▁Eule": 2825,
      "▁okay": 2826,
      "dul": 2827,
      "▁Turm": 2828,
      "ron": 2829,
      "zogen": 2830,
      "▁getr": 2831,
      "▁knurrte": 2832,
      "unger": 2833,
      "▁gelie": 2834,
      "oralische": 2835,
      "liche": 2836,
      "▁Spazier": 2837,
      "▁lö": 2838,
      "▁pflanz": 2839,
      "▁Mittag": 2840,
      "▁besonderen": 2841,
      "ziehen": 2842,
      "▁Wesen": 2843,
      "üff": 2844,
      "▁dürfe": 2845,
      "seinen": 2846,
      "▁nannte": 2847,
      "▁zeigt": 2848,
      "▁Lehrer": 2849,
      "▁Hex": 2850,
      "▁Autos": 2851,
      "▁tanzten": 2852,
      "▁unglücklich": 2853,
      "Schau": 2854,
      "akob": 2855,
      "▁Sorge": 2856,
      "schten": 2857,
      "age": 2858,
      "▁Teddybär": 2859,
      "alg": 2860,
      "▁weißen": 2861,
      "▁Med": 2862,
      "▁Nudel": 2863,
      "ostalg": 2864,
      "▁leise": 2865,
      "\".": 2866,
      "▁erkundete": 2867,
      "▁Stelle": 2868,
      "▁Du": 2869,
      "gab": 2870,
      "▁wachsen": 2871,
      "wehr": 2872,
      "blem": 2873,
      "oet": 2874,
      "▁wedelte": 2875,
      "▁zäh": 2876,
      "merzen": 2877,
      "><": 2878,
      "▁glaube": 2879,
      "Benny": 2880,
      "▁scharfe": 2881,
      "▁Polizei": 2882,
      "kleiner": 2883,
      "▁Lektion": 2884,
      "atzen": 2885,
      "▁Mö": 2886,
      "▁Kreatur": 2887,
      "Jamie": 2888,
      "▁danach": 2889,
      "Seit": 2890,
      "hörten": 2891,
      "▁Tagen": 2892,
      "Br": 2893,
      "▁Lucy": 2894,
      "erst": 2895,
      "▁Neues": 2896,
      "nah": 2897,
      "▁Ab": 2898,
      "span": 2899,
      "▁schauk": 2900,
      "▁ihres": 2901,
      "enriett": 2902,
      "oben": 2903,
      "▁freundlichen": 2904,
      "mack": 2905,
      "▁genauer": 2906,
      "▁lächelten": 2907,
      "▁meinen": 2908,
      "▁mäch": 2909,
      "▁grün": 2910,
      "ächlich": 2911,
      "▁Geschwis": 2912,
      "anna": 2913,
      "▁arbeitete": 2914,
      "▁gespielt": 2915,
      "▁still": 2916,
      "andelte": 2917,
      "Gern": 2918,
      ".<": 2919,
      "lara": 2920,
      "▁Gest": 2921,
      "▁verabschiedete": 2922,
      "pften": 2923,
      "▁untersuchte": 2924,
      "▁Ohren": 2925,
      "▁Schneemann": 2926,
      "▁Regenbogen": 2927,
      "▁probieren": 2928,
      "wann": 2929,
      "sächlich": 2930,
      "▁Fuße": 2931,
      "annten": 2932,
      "▁Topf": 2933,
      "▁tollen": 2934,
      "ally": 2935,
      "▁bittersüß": 2936,
      "▁Zeiten": 2937,
      "▁Schlüssel": 2938,
      "▁Hüh": 2939,
      "ame": 2940,
      "▁Frucht": 2941,
      "▁kusch": 2942,
      "sachen": 2943,
      "▁aller": 2944,
      "beg": 2945,
      "sein": 2946,
      "arty": 2947,
      "▁langes": 2948,
      "iet": 2949,
      "Sophie": 2950,
      "▁fühlten": 2951,
      "▁wunderschöner": 2952,
      "▁Decke": 2953,
      "enrietta": 2954,
      "▁Stall": 2955,
      "▁Gu": 2956,
      "▁Apfelbaum": 2957,
      "tlich": 2958,
      "▁nostalg": 2959,
      "▁steckte": 2960,
      "▁zukommen": 2961,
      "alz": 2962,
      "▁rein": 2963,
      "unkel": 2964,
      "▁at": 2965,
      "▁Erf": 2966,
      "▁abenteuerlust": 2967,
      "▁stimmte": 2968,
      "▁denen": 2969,
      "▁gefallen": 2970,
      "rub": 2971,
      "▁Problem": 2972,
      "▁Jack": 2973,
      "▁Tasse": 2974,
      "▁rennen": 2975,
      "▁anzu": 2976,
      "▁Dach": 2977,
      "app": 2978,
      "schmerzen": 2979,
      "▁glückliche": 2980,
      "▁repar": 2981,
      "wohl": 2982,
      "▁Haare": 2983,
      "dar": 2984,
      "neu": 2985,
      "▁Hexe": 2986,
      "▁Mit": 2987,
      "▁Süßigkeiten": 2988,
      "▁hinterher": 2989,
      "weise": 2990,
      "▁Wand": 2991,
      "nie": 2992,
      "▁tiefen": 2993,
      "▁fal": 2994,
      "▁kroch": 2995,
      "▁Berge": 2996,
      "umen": 2997,
      "▁zerstört": 2998,
      "▁Frö": 2999,
      "▁denn": 3000,
      "▁Besitzer": 3001,
      "afe": 3002,
      "▁legten": 3003,
      "iste": 3004,
      "▁hilf": 3005,
      "▁brei": 3006,
      "▁Gegen": 3007,
      "▁malte": 3008,
      "err": 3009,
      "▁erfahren": 3010,
      "▁verängst": 3011,
      "▁Körper": 3012,
      "isten": 3013,
      "dann": 3014,
      "abb": 3015,
      "▁wiederkommen": 3016,
      "▁Fest": 3017,
      "oetische": 3018,
      "kuchen": 3019,
      "▁Zwei": 3020,
      "tetes": 3021,
      "▁tö": 3022,
      "uff": 3023,
      "▁bösen": 3024,
      "▁Überraschung": 3025,
      "▁Gestalt": 3026,
      "▁schmutzig": 3027,
      "▁erstaunt": 3028,
      "▁Schild": 3029,
      "▁Bilder": 3030,
      "zei": 3031,
      "bringen": 3032,
      "ai": 3033,
      "▁Not": 3034,
      "▁zwischen": 3035,
      "Fl": 3036,
      "▁Namen": 3037,
      "▁Unerwar": 3038,
      "oritz": 3039,
      "▁lauten": 3040,
      "bevor": 3041,
      "▁Aussicht": 3042,
      "▁Spaziergang": 3043,
      "▁Peter": 3044,
      "▁weitere": 3045,
      "▁Tei": 3046,
      "fiel": 3047,
      "▁schwarze": 3048,
      "dunklen": 3049,
      "neten": 3050,
      "▁verängstigt": 3051,
      "Schn": 3052,
      "aput": 3053,
      "▁Lukas": 3054,
      "ändern": 3055,
      "ose": 3056,
      "▁hing": 3057,
      "▁Unter": 3058,
      "▁Unerwartetes": 3059,
      "▁Geschmack": 3060,
      "▁goss": 3061,
      "▁Sof": 3062,
      "▁Häuser": 3063,
      "▁warten": 3064,
      "▁sor": 3065,
      "▁ak": 3066,
      "▁Spielsachen": 3067,
      "▁rutschte": 3068,
      "▁Zahnarzt": 3069,
      "▁Mie": 3070,
      "esp": 3071,
      "ahrung": 3072,
      "▁Baby": 3073,
      "ierend": 3074,
      "▁wack": 3075,
      "▁Brief": 3076,
      "▁herumzu": 3077,
      "Lilli": 3078,
      "▁willst": 3079,
      "▁Ästen": 3080,
      "▁Rand": 3081,
      "▁Toms": 3082,
      "▁Kraft": 3083,
      "▁tatsächlich": 3084,
      "▁Nuss": 3085,
      "Bruno": 3086,
      "Lukas": 3087,
      "▁bunte": 3088,
      "▁kaput": 3089,
      "schl": 3090,
      "▁Käfig": 3091,
      "▁jagte": 3092,
      "▁gestorben": 3093,
      "enden": 3094,
      "wel": 3095,
      "▁Nüsse": 3096,
      "▁Duft": 3097,
      "▁geht": 3098,
      "ochter": 3099,
      "▁Fing": 3100,
      "▁Schul": 3101,
      "▁versteckt": 3102,
      "▁nostalgisch": 3103,
      "▁Emily": 3104,
      "▁dumm": 3105,
      "▁starker": 3106,
      "▁Rut": 3107,
      "▁gebracht": 3108,
      "▁Män": 3109,
      "isse": 3110,
      "reut": 3111,
      "▁Tochter": 3112,
      "▁Sup": 3113,
      "halb": 3114,
      "duldig": 3115,
      "auto": 3116,
      "▁Quaki": 3117,
      "▁Gi": 3118,
      "▁Wel": 3119,
      "▁drückte": 3120,
      "Mit": 3121,
      "▁fingen": 3122,
      "▁soll": 3123,
      "▁folgen": 3124,
      "▁denken": 3125,
      "zept": 3126,
      "▁zuerst": 3127,
      "▁Ferne": 3128,
      "▁brauchte": 3129,
      "geist": 3130,
      "Will": 3131,
      "▁Blick": 3132,
      "▁fei": 3133,
      "Dieser": 3134,
      "▁endete": 3135,
      "ühm": 3136,
      "▁Sees": 3137,
      "icken": 3138,
      "▁Mittagessen": 3139,
      "llten": 3140,
      "espekt": 3141,
      "▁überle": 3142,
      "▁Ord": 3143,
      "▁backen": 3144,
      "älter": 3145,
      "ichtiger": 3146,
      "cher": 3147,
      "▁betrachten": 3148,
      "derte": 3149,
      "▁recht": 3150,
      "▁Hof": 3151,
      "▁schönes": 3152,
      "üse": 3153,
      "▁kletterten": 3154,
      "▁herein": 3155,
      "▁Sarah": 3156,
      "▁Te": 3157,
      "hang": 3158,
      "▁Superm": 3159,
      "▁einzu": 3160,
      "mittel": 3161,
      "orm": 3162,
      "eration": 3163,
      "olg": 3164,
      "▁Sofa": 3165,
      "▁frisch": 3166,
      "▁passieren": 3167,
      "zum": 3168,
      "▁Lilli": 3169,
      "▁Feh": 3170,
      "▁Generation": 3171,
      "we": 3172,
      "▁morgen": 3173,
      "▁Brun": 3174,
      "▁weichen": 3175,
      "Weil": 3176,
      "Tobi": 3177,
      "▁Ofen": 3178,
      "iump": 3179,
      "▁Finny": 3180,
      "zes": 3181,
      "▁Supermarkt": 3182,
      "▁alter": 3183,
      "▁verstehen": 3184,
      "▁berühm": 3185,
      "Moralische": 3186,
      "ele": 3187,
      "▁Bäcker": 3188,
      "les": 3189,
      "▁Al": 3190,
      "▁streicheln": 3191,
      "▁rollte": 3192,
      "Nachdem": 3193,
      "▁Mimi": 3194,
      "▁Rauch": 3195,
      "▁lieb": 3196,
      "▁Kam": 3197,
      "▁hö": 3198,
      "iere": 3199,
      "▁entschul": 3200,
      "dessen": 3201,
      "Manchmal": 3202,
      "Zu": 3203,
      "▁Hauses": 3204,
      "▁zurückzu": 3205,
      "rad": 3206,
      "▁Eim": 3207,
      "▁Rie": 3208,
      "undenlang": 3209,
      "▁lustige": 3210,
      "Bald": 3211,
      "▁drehten": 3212,
      "wagen": 3213,
      "konn": 3214,
      "komm": 3215,
      "enk": 3216,
      "▁Mensch": 3217,
      "▁Ruhe": 3218,
      "▁besonderes": 3219,
      "▁verspiel": 3220,
      "▁Bella": 3221,
      "▁roch": 3222,
      "▁überwältig": 3223,
      "eichen": 3224,
      "üstern": 3225,
      "schwarze": 3226,
      "blau": 3227,
      "ta": 3228,
      "örte": 3229,
      "urren": 3230,
      "lassen": 3231,
      "▁rote": 3232,
      "▁lustigen": 3233,
      "iumph": 3234,
      "▁jemals": 3235,
      "lass": 3236,
      "▁Ordnung": 3237,
      "▁Emmas": 3238,
      "uten": 3239,
      "Einige": 3240,
      "▁schliefen": 3241,
      "nahm": 3242,
      "uhigen": 3243,
      "ba": 3244,
      "▁wollen": 3245,
      "▁brüllte": 3246,
      "▁letz": 3247,
      "▁tiefer": 3248,
      "▁Ku": 3249,
      "▁überwältigt": 3250,
      "▁deinen": 3251,
      "▁Ohr": 3252,
      "▁Gold": 3253,
      "▁Regal": 3254,
      "▁Eimer": 3255,
      "flog": 3256,
      "▁freundliche": 3257,
      "▁sauer": 3258,
      "schein": 3259,
      "indem": 3260,
      "Wow": 3261,
      "▁beschütz": 3262,
      "stes": 3263,
      "▁zurückkehren": 3264,
      "ette": 3265,
      "▁dünn": 3266,
      "▁dunklen": 3267,
      "▁jemanden": 3268,
      "ache": 3269,
      "▁Engel": 3270,
      "Jeder": 3271,
      "▁solle": 3272,
      "▁Nachts": 3273,
      "▁krabb": 3274,
      "▁Obst": 3275,
      "▁Reh": 3276,
      "logen": 3277,
      "▁stundenlang": 3278,
      "▁einschlief": 3279,
      "▁Pieps": 3280,
      "▁Fehler": 3281,
      "▁erinnern": 3282,
      "wegs": 3283,
      "▁Zaun": 3284,
      "je": 3285,
      "▁blüh": 3286,
      "▁<": 3287,
      "▁besiegen": 3288,
      "▁Vor": 3289,
      "▁dazu": 3290,
      "▁summ": 3291,
      "▁Tierarzt": 3292,
      "▁Richt": 3293,
      "▁Vogels": 3294,
      "▁begrü": 3295,
      "▁stiegen": 3296,
      "▁Tims": 3297,
      "▁Kater": 3298,
      "▁guten": 3299,
      "ndlich": 3300,
      "utig": 3301,
      "▁schrieb": 3302,
      "▁Lecker": 3303,
      "▁Maul": 3304,
      "▁sprangen": 3305,
      "▁lauschte": 3306,
      "▁besondere": 3307,
      "▁Kiste": 3308,
      "▁satt": 3309,
      "endung": 3310,
      "▁beobachte": 3311,
      "Ger": 3312,
      "dich": 3313,
      "▁Bauchschmerzen": 3314,
      "roten": 3315,
      "▁starken": 3316,
      "▁Heim": 3317,
      "zeit": 3318,
      "▁gefr": 3319,
      "horn": 3320,
      "stchen": 3321,
      "▁gutes": 3322,
      "▁verkaufen": 3323,
      "▁besiegt": 3324,
      "▁Hühner": 3325,
      "scht": 3326,
      "▁Gipfel": 3327,
      "stein": 3328,
      "▁Mar": 3329,
      "▁Tobi": 3330,
      "▁Brunnen": 3331,
      "▁triumph": 3332,
      "▁Tor": 3333,
      "▁Oma": 3334,
      "ote": 3335,
      "bre": 3336,
      "▁bef": 3337,
      "▁Schüssel": 3338,
      "Quaki": 3339,
      "▁schützen": 3340,
      "ochten": 3341,
      "eid": 3342,
      "▁Rest": 3343,
      "▁Puppe": 3344,
      "▁verir": 3345,
      "▁reden": 3346,
      "▁tröstete": 3347,
      "▁Gemäl": 3348,
      "▁einigen": 3349,
      "▁vielleicht": 3350,
      "▁erzählt": 3351,
      "▁Gemüse": 3352,
      "▁werfen": 3353,
      "gl": 3354,
      "▁Gefahr": 3355,
      "▁blauen": 3356,
      "▁Haufen": 3357,
      "▁bedeckt": 3358,
      "▁Insel": 3359,
      "▁Wendung": 3360,
      "▁Bienenst": 3361,
      "enni": 3362,
      "▁Fangen": 3363,
      "▁riefen": 3364,
      "▁befreien": 3365,
      "üchtern": 3366,
      "▁leckere": 3367,
      "▁breit": 3368,
      "▁Dorfes": 3369,
      "inde": 3370,
      "▁sammelten": 3371,
      "▁Worte": 3372,
      "▁trocken": 3373,
      "nicht": 3374,
      "▁kehrte": 3375,
      "▁Mias": 3376,
      "▁rot": 3377,
      "äche": 3378,
      "egenen": 3379,
      "▁Blüten": 3380,
      "▁arbeiteten": 3381,
      "▁schnitt": 3382,
      "▁tauchte": 3383,
      "dacht": 3384,
      "▁Baumhaus": 3385,
      "▁bewunder": 3386,
      "▁dorthin": 3387,
      "Ze": 3388,
      "▁liefen": 3389,
      "▁Lucky": 3390,
      "▁überqueren": 3391,
      "▁kannte": 3392,
      "ente": 3393,
      "▁erfüllen": 3394,
      "▁wunderbar": 3395,
      "▁schwier": 3396,
      "▁ziehen": 3397,
      "▁sol": 3398,
      "Emily": 3399,
      "gebracht": 3400,
      "emein": 3401,
      "Kannst": 3402,
      "▁c": 3403,
      "▁aufgew": 3404,
      "▁Moral": 3405,
      "▁Spielzeugauto": 3406,
      "▁stolperte": 3407,
      "ere": 3408,
      "▁Lara": 3409,
      "konnte": 3410,
      "artig": 3411,
      "ören": 3412,
      "▁Gesang": 3413,
      "▁fort": 3414,
      "▁wach": 3415,
      "▁Ecke": 3416,
      "▁Beine": 3417,
      "▁freundliches": 3418,
      "▁zählen": 3419,
      "▁Mag": 3420,
      "▁Party": 3421,
      "▁strah": 3422,
      "▁Amei": 3423,
      "Lara": 3424,
      "chende": 3425,
      "reis": 3426,
      "nehmen": 3427,
      "kun": 3428,
      "andelt": 3429,
      "ider": 3430,
      "▁Schmerzen": 3431,
      "ry": 3432,
      "▁diesmal": 3433,
      "Dieses": 3434,
      "▁Flüstern": 3435,
      "▁Sommer": 3436,
      "teil": 3437,
      "sber": 3438,
      "▁Haut": 3439,
      "sik": 3440,
      "▁warmen": 3441,
      "stag": 3442,
      "bew": 3443,
      "▁abzu": 3444,
      "udi": 3445,
      "Hier": 3446,
      "▁poetische": 3447,
      "▁kaputt": 3448,
      "nes": 3449,
      "▁Gemälde": 3450,
      "▁Papier": 3451,
      "Peter": 3452,
      "ib": 3453,
      "▁per": 3454,
      "▁schaff": 3455,
      "icky": 3456,
      "▁Geruch": 3457,
      "▁unterwegs": 3458,
      "▁quak": 3459,
      "▁Bissen": 3460,
      "anne": 3461,
      "▁darf": 3462,
      "gie": 3463,
      "Finny": 3464,
      "▁Bienenstock": 3465,
      "▁malen": 3466,
      "aub": 3467,
      "▁Mitleid": 3468,
      "ift": 3469,
      "Bitte": 3470,
      "inas": 3471,
      "▁Rüssel": 3472,
      "▁verfolgte": 3473,
      "kunft": 3474,
      "▁magische": 3475,
      "▁benutzen": 3476,
      "Toms": 3477,
      "äumen": 3478,
      "▁gebaut": 3479,
      "▁kümmerte": 3480,
      "▁wär": 3481,
      "legen": 3482,
      "▁Musik": 3483,
      "▁Ann": 3484,
      "▁besseren": 3485,
      "▁Suppe": 3486,
      "▁Straßen": 3487,
      "oß": 3488,
      "wohin": 3489,
      "▁Sandburgen": 3490,
      "iedlich": 3491,
      "▁Dunkel": 3492,
      "▁perfe": 3493,
      "raben": 3494,
      "▁jede": 3495,
      "▁töten": 3496,
      "▁Sack": 3497,
      "cks": 3498,
      "▁Re": 3499,
      "reg": 3500,
      "▁Erd": 3501,
      "▁dick": 3502,
      "▁Sy": 3503,
      "▁Waldrand": 3504,
      "▁friedlich": 3505,
      "▁kümmern": 3506,
      "▁Frösche": 3507,
      "tellt": 3508,
      "spielten": 3509,
      "immt": 3510,
      "▁pflegte": 3511,
      "▁Felder": 3512,
      "▁Lieblingss": 3513,
      "ey": 3514,
      "gefunden": 3515,
      "ffy": 3516,
      "üllte": 3517,
      "▁Mami": 3518,
      "▁respekt": 3519,
      "▁Spitze": 3520,
      "▁Vögeln": 3521,
      "▁Geheimnis": 3522,
      "▁Co": 3523,
      "▁Zü": 3524,
      "▁Bade": 3525,
      "▁fleißig": 3526,
      "▁Pfoten": 3527,
      "▁grüne": 3528,
      "ickn": 3529,
      "▁kochen": 3530,
      "isy": 3531,
      "▁Arten": 3532,
      "▁angekommen": 3533,
      "▁ruhig": 3534,
      "▁rech": 3535,
      "neut": 3536,
      "▁fragen": 3537,
      "neue": 3538,
      "▁verkauf": 3539,
      "önnen": 3540,
      "▁wünschen": 3541,
      "▁krabbelte": 3542,
      "▁kochte": 3543,
      "ahre": 3544,
      "Vater": 3545,
      "▁Schrank": 3546,
      "digen": 3547,
      "zug": 3548,
      "▁Schlu": 3549,
      "▁Schlimm": 3550,
      "▁erneut": 3551,
      "▁riesiger": 3552,
      "▁kämpfte": 3553,
      "▁Träume": 3554,
      "attdessen": 3555,
      "andeln": 3556,
      "dr": 3557,
      "▁stieß": 3558,
      "▁Kle": 3559,
      "▁gehei": 3560,
      "▁Bug": 3561,
      "▁Frieden": 3562,
      "onst": 3563,
      "lig": 3564,
      "▁Nachbar": 3565,
      "▁Spielzeugen": 3566,
      "▁bedeutet": 3567,
      "▁Feuerwehr": 3568,
      "▁irgend": 3569,
      "▁erlö": 3570,
      "Tims": 3571,
      "▁begrüß": 3572,
      "mmen": 3573,
      "unken": 3574,
      "▁Dunkelheit": 3575,
      "▁Winter": 3576,
      "esser": 3577,
      "atzte": 3578,
      "inder": 3579,
      "get": 3580,
      "uck": 3581,
      "▁Tro": 3582,
      "▁älter": 3583,
      "ballon": 3584,
      "▁Freddy": 3585,
      "ität": 3586,
      "▁gebrochen": 3587,
      "Fr": 3588,
      "▁Finger": 3589,
      "liff": 3590,
      "▁näherte": 3591,
      "▁seltsame": 3592,
      "▁saftig": 3593,
      "Amy": 3594,
      "begann": 3595,
      "▁arbeiten": 3596,
      "▁verließ": 3597,
      "▁trafen": 3598,
      "▁Lebensmittel": 3599,
      "▁weiten": 3600,
      "stab": 3601,
      "üttel": 3602,
      "erv": 3603,
      "edes": 3604,
      "▁verdorben": 3605,
      "▁Richtung": 3606,
      "▁Markt": 3607,
      "gern": 3608,
      "gegeben": 3609,
      "▁Kugel": 3610,
      "antel": 3611,
      "▁Lachen": 3612,
      "lernen": 3613,
      "▁Klo": 3614,
      "▁Rutsche": 3615,
      "▁kurz": 3616,
      "▁Spiele": 3617,
      "▁geliebt": 3618,
      "▁hu": 3619,
      "▁erleuchten": 3620,
      "▁Erinnerung": 3621,
      "schrank": 3622,
      "schwarzes": 3623,
      "▁interessante": 3624,
      "üffel": 3625,
      "▁regnen": 3626,
      "▁treffen": 3627,
      "ektar": 3628,
      "▁helfe": 3629,
      "▁ließen": 3630,
      "Mimi": 3631,
      "▁einiger": 3632,
      "▁gegangen": 3633,
      "▁flie": 3634,
      "sa": 3635,
      "ichten": 3636,
      "▁früher": 3637,
      "▁funk": 3638,
      "▁Ur": 3639,
      "▁triumphierend": 3640,
      "onders": 3641,
      "▁Farbe": 3642,
      "Tommi": 3643,
      "reunde": 3644,
      "ippi": 3645,
      "▁reparieren": 3646,
      "flug": 3647,
      "▁meinem": 3648,
      "mb": 3649,
      "bun": 3650,
      "reiben": 3651,
      "▁Zukunft": 3652,
      "burt": 3653,
      "eckte": 3654,
      "üte": 3655,
      "emeinsam": 3656,
      "▁Flasche": 3657,
      "▁bester": 3658,
      "gegen": 3659,
      "kasten": 3660,
      "▁Gutes": 3661,
      "▁Auge": 3662,
      "▁Armen": 3663,
      "▁geduldig": 3664,
      "matz": 3665,
      "ly": 3666,
      "by": 3667,
      "▁anzusehen": 3668,
      "▁Besuch": 3669,
      "änen": 3670,
      "▁merkte": 3671,
      "▁Sammy": 3672,
      "arb": 3673,
      "weißen": 3674,
      "▁hübsch": 3675,
      "zugehen": 3676,
      "Jahre": 3677,
      "ohnt": 3678,
      "usste": 3679,
      "▁dankten": 3680,
      "iegel": 3681,
      "▁bedankten": 3682,
      "▁seien": 3683,
      "icknick": 3684,
      "▁Momente": 3685,
      "ilte": 3686,
      "▁dachten": 3687,
      "▁teilten": 3688,
      "▁Bi": 3689,
      "ins": 3690,
      "ow": 3691,
      "eide": 3692,
      "▁Puppen": 3693,
      "▁altes": 3694,
      "▁Geburt": 3695,
      "stark": 3696,
      "ält": 3697,
      "aschen": 3698,
      "▁Füßen": 3699,
      "laden": 3700,
      "zung": 3701,
      "▁besonderer": 3702,
      "▁klu": 3703,
      "▁verlieren": 3704,
      "▁verlaufen": 3705,
      "▁redeten": 3706,
      "▁Fle": 3707,
      "▁erreichten": 3708,
      "▁allem": 3709,
      "▁trösten": 3710,
      "▁beruhigen": 3711,
      "üsch": 3712,
      "▁Teiches": 3713,
      "besch": 3714,
      "▁heißt": 3715,
      "gr": 3716,
      "▁zö": 3717,
      "▁sonnigen": 3718,
      "▁erlau": 3719,
      "Endlich": 3720,
      "nt": 3721,
      "▁Kreaturen": 3722,
      "nden": 3723,
      "Willst": 3724,
      "klettern": 3725,
      "ino": 3726,
      "▁akzept": 3727,
      "oni": 3728,
      "Sarah": 3729,
      "▁Pilze": 3730,
      "kl": 3731,
      "auft": 3732,
      "▁wuchsen": 3733,
      "▁Kitty": 3734,
      "hatte": 3735,
      "zie": 3736,
      "▁pl": 3737,
      "mbol": 3738,
      "▁Nektar": 3739,
      "ra": 3740,
      "▁glänzend": 3741,
      "▁grau": 3742,
      "▁Zauberstab": 3743,
      "▁leckeres": 3744,
      "▁Baumstumpf": 3745,
      "elle": 3746,
      "▁bem": 3747,
      "▁schr": 3748,
      "▁leicht": 3749,
      "▁Schr": 3750,
      "▁zwitsch": 3751,
      "ickt": 3752,
      "ße": 3753,
      "▁Luftballon": 3754,
      "gierig": 3755,
      "chter": 3756,
      "üsterte": 3757,
      "▁geheimnis": 3758,
      "▁weise": 3759,
      "▁Schmetterl": 3760,
      "▁zukam": 3761,
      "▁geschlossen": 3762,
      "▁glaubte": 3763,
      "▁wider": 3764,
      "▁kom": 3765,
      "▁Art": 3766,
      "▁Symbol": 3767,
      "▁Tod": 3768,
      "probieren": 3769,
      "▁atme": 3770,
      "anderen": 3771,
      "▁tranken": 3772,
      "saft": 3773,
      "icker": 3774,
      "hek": 3775,
      "▁weiterhin": 3776,
      "ützlich": 3777,
      "ällt": 3778,
      "kk": 3779,
      "▁jedem": 3780,
      "▁Picknick": 3781,
      "fliegen": 3782,
      "▁schreiben": 3783,
      "Sara": 3784,
      "fi": 3785,
      "ihren": 3786,
      "▁schüchtern": 3787,
      "▁Stücke": 3788,
      "▁gegeben": 3789,
      "schn": 3790,
      "▁ek": 3791,
      "zukommen": 3792,
      "▁einander": 3793,
      "▁brach": 3794,
      "▁fielen": 3795,
      "▁Maja": 3796,
      "▁Rennen": 3797,
      "Neu": 3798,
      "▁zogen": 3799,
      "▁fraß": 3800,
      "▁Raupe": 3801,
      "=\"": 3802,
      "Eltern": 3803,
      "▁Ellie": 3804,
      "iem": 3805,
      "▁Atem": 3806,
      "▁Wäl": 3807,
      "▁Knie": 3808,
      "▁rund": 3809,
      "stellte": 3810,
      "▁Aufg": 3811,
      "▁junge": 3812,
      "ormal": 3813,
      "▁Job": 3814,
      "▁stellten": 3815,
      "▁Tommy": 3816,
      "▁Ritter": 3817,
      "▁feierten": 3818,
      "▁Einhorn": 3819,
      "onnen": 3820,
      "▁Dank": 3821,
      "summ": 3822,
      "▁wiedergefunden": 3823,
      "▁Min": 3824,
      "atter": 3825,
      "äng": 3826,
      "▁Pips": 3827,
      "▁nahe": 3828,
      "eren": 3829,
      "eki": 3830,
      "▁Hel": 3831,
      "▁Zähnen": 3832,
      "▁freuten": 3833,
      "▁Är": 3834,
      "▁Gebäu": 3835,
      "oche": 3836,
      "▁Lehrerin": 3837,
      "zeigt": 3838,
      "▁öffneten": 3839,
      "▁blaue": 3840,
      "zeuge": 3841,
      "▁klug": 3842,
      "▁Sternen": 3843,
      "alter": 3844,
      "Unerwar": 3845,
      "rannte": 3846,
      "öl": 3847,
      "ickten": 3848,
      "▁Teller": 3849,
      "pass": 3850,
      "▁Knurren": 3851,
      "spielen": 3852,
      "▁falsch": 3853,
      "aust": 3854,
      "▁dicken": 3855,
      "▁zählte": 3856,
      "▁Kindheit": 3857,
      "▁warum": 3858,
      "▁Mantel": 3859,
      "Ann": 3860,
      "▁glaubten": 3861,
      "Unerwartet": 3862,
      "▁kauften": 3863,
      "Emmas": 3864,
      "Mach": 3865,
      "Jack": 3866,
      "Ellie": 3867,
      "▁gezeigt": 3868,
      "▁arm": 3869,
      "schwarzer": 3870,
      "ssisten": 3871,
      "▁neuer": 3872,
      "▁Jahren": 3873,
      "ischte": 3874,
      "iot": 3875,
      "ahlen": 3876,
      "▁Schrei": 3877,
      "▁jung": 3878,
      "▁lud": 3879,
      "pen": 3880,
      "▁während": 3881,
      "▁Fahrrad": 3882,
      "▁Erinnerungen": 3883,
      "▁Wellen": 3884,
      "▁Schwert": 3885,
      "▁kon": 3886,
      "▁kratzte": 3887,
      "greifen": 3888,
      "▁mochten": 3889,
      "▁Mün": 3890,
      "▁Spinnen": 3891,
      "Minka": 3892,
      "gf": 3893,
      "gerte": 3894,
      "EEEE": 3895,
      "▁ausruhen": 3896,
      "gestellt": 3897,
      "▁waschen": 3898,
      "▁erste": 3899,
      "üße": 3900,
      "ehren": 3901,
      "▁Wissen": 3902,
      "▁veränd": 3903,
      "▁Klopfen": 3904,
      "▁grub": 3905,
      "mmel": 3906,
      "ont": 3907,
      "Iron": 3908,
      "▁hätten": 3909,
      "▁Königin": 3910,
      "▁vermisst": 3911,
      "▁Kiki": 3912,
      "nacken": 3913,
      "▁schwe": 3914,
      "wirklich": 3915,
      "▁Kühe": 3916,
      "▁starke": 3917,
      "▁Schluck": 3918,
      "holte": 3919,
      "▁verirrt": 3920,
      "▁entgegen": 3921,
      "Diese": 3922,
      "▁einholen": 3923,
      "▁Beste": 3924,
      "zufrieden": 3925,
      "▁miaute": 3926,
      "▁glatt": 3927,
      "uscheln": 3928,
      "änger": 3929,
      "▁küsste": 3930,
      "olgreich": 3931,
      "▁goldenen": 3932,
      "unst": 3933,
      "▁benutzte": 3934,
      "würde": 3935,
      "schiff": 3936,
      "utzt": 3937,
      "▁hielten": 3938,
      "▁Raumes": 3939,
      "ts": 3940,
      "annen": 3941,
      "▁Busch": 3942,
      "Kitty": 3943,
      "▁KI": 3944,
      "ennt": 3945,
      "▁gespannt": 3946,
      "▁Mannes": 3947,
      "▁Erle": 3948,
      "▁außer": 3949,
      "▁schreien": 3950,
      "▁schmal": 3951,
      "▁runter": 3952,
      "▁mutiger": 3953,
      "▁Geist": 3954,
      "haf": 3955,
      "▁Tränen": 3956,
      "▁Hals": 3957,
      "ikamen": 3958,
      "▁Messer": 3959,
      "ächer": 3960,
      "▁erfolgreich": 3961,
      "▁verletzen": 3962,
      "▁Tommi": 3963,
      "▁Medikamen": 3964,
      "Nun": 3965,
      "▁unsere": 3966,
      "uffi": 3967,
      "sagten": 3968,
      "ütze": 3969,
      "▁Wiesen": 3970,
      "Neugierig": 3971,
      "▁Geräusche": 3972,
      "▁liebsten": 3973,
      "▁or": 3974,
      "▁putzte": 3975,
      "Hi": 3976,
      "piel": 3977,
      "▁Geburtstag": 3978,
      "▁hervor": 3979,
      "▁normal": 3980,
      "▁Vögelchen": 3981,
      "▁Bur": 3982,
      "ackten": 3983,
      "olli": 3984,
      "blick": 3985,
      "Beide": 3986,
      "▁erfüllte": 3987,
      "vollen": 3988,
      "▁Sna": 3989,
      "lichkeit": 3990,
      "schauen": 3991,
      "▁Schlamm": 3992,
      "▁hässlich": 3993,
      "buch": 3994,
      "▁frische": 3995,
      "pa": 3996,
      "rehen": 3997,
      "▁Schafe": 3998,
      "▁Stamm": 3999,
      "▁Amy": 4000,
      "band": 4001,
      "▁nützlich": 4002,
      "▁kämpfen": 4003,
      "otten": 4004,
      "zufinden": 4005,
      "Seitdem": 4006,
      "Maja": 4007,
      "▁atmete": 4008,
      "▁kommt": 4009,
      "▁riesige": 4010,
      "volle": 4011,
      "\">": 4012,
      "inos": 4013,
      "del": 4014,
      "▁Hü": 4015,
      "ssssssss": 4016,
      "Herr": 4017,
      "▁Hunger": 4018,
      "▁Gebäude": 4019,
      "Okay": 4020,
      "▁Flausch": 4021,
      "▁wusch": 4022,
      "▁Zeb": 4023,
      "▁heller": 4024,
      "▁Urlaub": 4025,
      "groß": 4026,
      "▁Inner": 4027,
      "falls": 4028,
      "▁Kleidung": 4029,
      "liffhang": 4030,
      "Timo": 4031,
      "▁verkaufte": 4032,
      "▁Hu": 4033,
      "▁Flammen": 4034,
      "▁größ": 4035,
      "▁versprachen": 4036,
      "▁bek": 4037,
      "▁köstlichen": 4038,
      "ate": 4039,
      "▁erschien": 4040,
      "freundlich": 4041,
      "eten": 4042,
      "▁Del": 4043,
      "liffhanger": 4044,
      "▁Federn": 4045,
      "▁Leon": 4046,
      "▁Brü": 4047,
      "aura": 4048,
      "▁untersuchen": 4049,
      "ute": 4050,
      "Kl": 4051,
      "▁Flo": 4052,
      "▁Keller": 4053,
      "▁mächtig": 4054,
      "din": 4055,
      "▁Grö": 4056,
      "grüne": 4057,
      "▁verdien": 4058,
      "▁Woche": 4059,
      "dreh": 4060,
      "▁blinz": 4061,
      "▁App": 4062,
      "▁herausfinden": 4063,
      "isches": 4064,
      "ira": 4065,
      "fie": 4066,
      "fahren": 4067,
      "osen": 4068,
      "▁Wunde": 4069,
      "▁Schönes": 4070,
      "▁raus": 4071,
      "rieben": 4072,
      "▁Henrietta": 4073,
      "eiter": 4074,
      "▁Lila": 4075,
      "▁fröhlicher": 4076,
      "▁Quacki": 4077,
      "▁dau": 4078,
      "▁ruderte": 4079,
      "▁zurückkommen": 4080,
      "kehren": 4081,
      "▁erlösen": 4082,
      "▁schwarz": 4083,
      "▁Kunst": 4084,
      "▁Jakob": 4085,
      "vers": 4086,
      "▁versucht": 4087,
      "▁Enkel": 4088,
      "anst": 4089,
      "▁entschuldig": 4090,
      "euchtete": 4091,
      "jeden": 4092,
      "▁Teig": 4093,
      "zi": 4094,
      "▁sort": 4095,
      "▁wild": 4096,
      "▁nahegel": 4097,
      "▁folgten": 4098,
      "▁nannten": 4099,
      "▁hilfsber": 4100,
      "ständ": 4101,
      "ise": 4102,
      "▁fühle": 4103,
      "Blumen": 4104,
      "▁langweil": 4105,
      "▁geheimen": 4106,
      "hn": 4107,
      "▁Kuss": 4108,
      "▁üpp": 4109,
      "▁Mat": 4110,
      "▁schnar": 4111,
      "▁höch": 4112,
      "▁schnurrte": 4113,
      "röte": 4114,
      "▁weinten": 4115,
      "▁Inse": 4116,
      "▁Fremde": 4117,
      "annes": 4118,
      "▁Schlafen": 4119,
      "aurier": 4120,
      "fin": 4121,
      "Tommy": 4122,
      "▁stür": 4123,
      "▁jagen": 4124,
      "ale": 4125,
      "▁eben": 4126,
      "dent": 4127,
      "▁Ener": 4128,
      "▁Summen": 4129,
      "▁nieder": 4130,
      "inosaurier": 4131,
      "dinand": 4132,
      "pfeln": 4133,
      "▁unterst": 4134,
      "▁pflanzte": 4135,
      "mel": 4136,
      "▁Geschwister": 4137,
      "ilber": 4138,
      "▁Früchten": 4139,
      "▁Energie": 4140,
      "▁fütterte": 4141,
      "fläche": 4142,
      "▁Pir": 4143,
      "▁gedacht": 4144,
      "▁legen": 4145,
      "▁pr": 4146,
      "▁kuschelte": 4147,
      "bitte": 4148,
      "uren": 4149,
      "ormen": 4150,
      "▁Flügeln": 4151,
      "pr": 4152,
      "hst": 4153,
      "▁winzigen": 4154,
      "golden": 4155,
      "▁Schwier": 4156,
      "▁bez": 4157,
      "▁Ant": 4158,
      "▁gepf": 4159,
      "▁riesig": 4160,
      "Jakob": 4161,
      "▁Badezimmer": 4162,
      "▁riechen": 4163,
      "▁Füße": 4164,
      "▁erheben": 4165,
      "▁Schwierigkeiten": 4166,
      "▁Klei": 4167,
      "setzen": 4168,
      "ehn": 4169,
      "▁Bens": 4170,
      "ird": 4171,
      "▁Kühl": 4172,
      "euf": 4173,
      "▁gebacken": 4174,
      "▁Gir": 4175,
      "▁hän": 4176,
      "▁Dad": 4177,
      "▁jub": 4178,
      "▁sä": 4179,
      "zog": 4180,
      "riffen": 4181,
      "▁Sandkasten": 4182,
      "▁wichtige": 4183,
      "▁Zut": 4184,
      "weit": 4185,
      "▁Wichtig": 4186,
      "▁Wunder": 4187,
      "weet": 4188,
      "armen": 4189,
      "äumt": 4190,
      "▁teilte": 4191,
      "Viele": 4192,
      "▁Würstchen": 4193,
      "▁Hunde": 4194,
      "▁verbringen": 4195,
      "▁Mieze": 4196,
      "wort": 4197,
      "kten": 4198,
      "tau": 4199,
      "▁Segel": 4200,
      "▁flausch": 4201,
      "▁sonniger": 4202,
      "▁schaffte": 4203,
      "xu": 4204,
      "▁putzen": 4205,
      "rieda": 4206,
      "▁unzufrieden": 4207,
      "▁warfen": 4208,
      "▁he": 4209,
      "reten": 4210,
      "nisse": 4211,
      "▁spu": 4212,
      "▁schlimm": 4213,
      "▁Dinosaurier": 4214,
      "obten": 4215,
      "▁Versteck": 4216,
      "sprang": 4217,
      "bliot": 4218,
      "bliothek": 4219,
      "▁**": 4220,
      "▁erfr": 4221,
      "▁Sally": 4222,
      "▁Gl": 4223,
      "alles": 4224,
      "▁Tru": 4225,
      "usst": 4226,
      "arry": 4227,
      "▁wehte": 4228,
      "▁Knacken": 4229,
      "▁entfern": 4230,
      "▁Schreck": 4231,
      "▁Rück": 4232,
      "akt": 4233,
      "sprechen": 4234,
      "Lotte": 4235,
      "let": 4236,
      "▁reichte": 4237,
      "ake": 4238,
      "▁Moritz": 4239,
      "▁schlich": 4240,
      "▁abenteuerlustiger": 4241,
      "▁aufre": 4242,
      "▁drinnen": 4243,
      "Pips": 4244,
      "▁kur": 4245,
      "▁bunt": 4246,
      "▁schwebte": 4247,
      "▁solltest": 4248,
      "▁nahegelegenen": 4249,
      "▁Schuhe": 4250,
      "▁brauner": 4251,
      "äfte": 4252,
      "ille": 4253,
      "▁schauten": 4254,
      "▁Zutaten": 4255,
      "mchen": 4256,
      "▁Dame": 4257,
      "▁Elly": 4258,
      "▁Inneren": 4259,
      "▁Bibliothek": 4260,
      "genau": 4261,
      "▁verstanden": 4262,
      "▁leuchtete": 4263,
      "ütteln": 4264,
      "etit": 4265,
      "üttern": 4266,
      "▁Geschwistern": 4267,
      "machen": 4268,
      "▁Timo": 4269,
      "▁dunkler": 4270,
      "verg": 4271,
      "besonders": 4272,
      "▁Stach": 4273,
      "lle": 4274,
      "▁Muscheln": 4275,
      "werk": 4276,
      "deutig": 4277,
      "▁salz": 4278,
      "▁Kühlschrank": 4279,
      "iko": 4280,
      "Gerade": 4281,
      "▁wil": 4282,
      "▁großem": 4283,
      "Lie": 4284,
      "▁weiße": 4285,
      "▁seid": 4286,
      "▁Bei": 4287,
      "▁frem": 4288,
      "▁zuzu": 4289,
      "essel": 4290,
      "▁Ausflug": 4291,
      "▁Futter": 4292,
      "zentr": 4293,
      "▁Bö": 4294,
      "llung": 4295,
      "▁deinem": 4296,
      "ichtige": 4297,
      "▁irgendwann": 4298,
      "▁schlu": 4299,
      "▁Riese": 4300,
      "wachsen": 4301,
      "▁Kart": 4302,
      "▁Ziel": 4303,
      "▁fä": 4304,
      "rauen": 4305,
      "rok": 4306,
      "Lila": 4307,
      "▁bitte": 4308,
      "könig": 4309,
      "▁Zwitsch": 4310,
      "glaub": 4311,
      "ätzen": 4312,
      "oder": 4313,
      "feld": 4314,
      "▁sprachen": 4315,
      "bö": 4316,
      "▁Spiegel": 4317,
      "witter": 4318,
      "brett": 4319,
      "▁Bür": 4320,
      "▁Richtige": 4321,
      "▁schwächer": 4322,
      "eedy": 4323,
      "vater": 4324,
      "licher": 4325,
      "Mein": 4326,
      "▁Lotte": 4327,
      "▁rau": 4328,
      "stolperte": 4329,
      "▁angef": 4330,
      "skar": 4331,
      "ichte": 4332,
      "▁schreck": 4333,
      "▁Bü": 4334,
      "Nur": 4335,
      "kannst": 4336,
      "▁Wün": 4337,
      "▁verschlossen": 4338,
      "▁Krab": 4339,
      "▁seit": 4340,
      "▁Menge": 4341,
      "▁Pilz": 4342,
      "▁mei": 4343,
      "▁Tre": 4344,
      "▁Steinen": 4345,
      "▁süßer": 4346,
      "Mie": 4347,
      "▁Pers": 4348,
      "▁handelte": 4349,
      "▁mächt": 4350,
      "Danach": 4351,
      "▁Pflanze": 4352,
      "▁hinzu": 4353,
      "▁schaukelte": 4354,
      "▁Erdbe": 4355,
      "▁Knochen": 4356,
      "▁Schwan": 4357,
      "tisch": 4358,
      "▁Macht": 4359,
      "▁graben": 4360,
      "▁prob": 4361,
      "▁Kissen": 4362,
      "▁Nahrung": 4363,
      "▁Äpfeln": 4364,
      "</": 4365,
      "fallen": 4366,
      "viel": 4367,
      "denken": 4368,
      "▁Appetit": 4369,
      "ascheln": 4370,
      "▁erschre": 4371,
      "ischerweise": 4372,
      "hielten": 4373,
      "▁küh": 4374,
      "▁Molly": 4375,
      "Mias": 4376,
      "ehl": 4377,
      "▁Züge": 4378,
      "▁iron": 4379,
      "eint": 4380,
      "▁Bergen": 4381,
      "▁Entde": 4382,
      "▁Sav": 4383,
      "▁Schmetterlinge": 4384,
      "Geh": 4385,
      "äufer": 4386,
      "bewer": 4387,
      "gest": 4388,
      "fee": 4389,
      "ettbewer": 4390,
      "▁begeg": 4391,
      "▁also": 4392,
      "▁floss": 4393,
      "▁komme": 4394,
      "erkten": 4395,
      "pel": 4396,
      "▁höchsten": 4397,
      "vogel": 4398,
      "▁eigenes": 4399,
      "▁Zeichen": 4400,
      "▁Karotten": 4401,
      "raum": 4402,
      "▁Gew": 4403,
      "sichtig": 4404,
      "▁vorsichtiger": 4405,
      "▁ritt": 4406,
      "mä": 4407,
      "ief": 4408,
      "Pieps": 4409,
      "▁To": 4410,
      "▁Geheim": 4411,
      "sagt": 4412,
      "zulernen": 4413,
      "ammer": 4414,
      "ungs": 4415,
      "hielt": 4416,
      "ugen": 4417,
      "▁trü": 4418,
      "Bella": 4419,
      "if": 4420,
      "▁Haust": 4421,
      "boden": 4422,
      "▁hüpfen": 4423,
      "▁Abschied": 4424,
      "▁kennenzulernen": 4425,
      "▁kich": 4426,
      "▁beobachteten": 4427,
      "Henrietta": 4428,
      "▁kaute": 4429,
      "▁erfüllt": 4430,
      "stig": 4431,
      "boot": 4432,
      "▁nächstes": 4433,
      "▁schnapp": 4434,
      "öffel": 4435,
      "▁backte": 4436,
      "▁Gel": 4437,
      "▁Schildk": 4438,
      "undern": 4439,
      "▁Fin": 4440,
      "▁Verk": 4441,
      "▁rosa": 4442,
      "kleines": 4443,
      "▁gern": 4444,
      "ätze": 4445,
      "▁entschlossen": 4446,
      "Kar": 4447,
      "▁junger": 4448,
      "ohlen": 4449,
      "▁schob": 4450,
      "▁blies": 4451,
      "Quacki": 4452,
      "ftig": 4453,
      "ickerchen": 4454,
      "▁blinzelte": 4455,
      "▁Sh": 4456,
      "▁Erk": 4457,
      "▁Fischen": 4458,
      "▁beschäft": 4459,
      "▁herbei": 4460,
      "▁entsp": 4461,
      "▁Savanne": 4462,
      "rote": 4463,
      "▁Fragen": 4464,
      "▁füreinander": 4465,
      "öhn": 4466,
      "▁Pfote": 4467,
      "▁Schulter": 4468,
      "▁starrte": 4469,
      "▁Schlafzimmer": 4470,
      "▁Krok": 4471,
      "ume": 4472,
      "alte": 4473,
      "zunehmen": 4474,
      "▁segelte": 4475,
      "▁Nickerchen": 4476,
      "üllt": 4477,
      "▁Fensterbrett": 4478,
      "▁versteckten": 4479,
      "man": 4480,
      "▁Werk": 4481,
      "▁trugen": 4482,
      "▁schauen": 4483,
      "▁erleuchte": 4484,
      "▁Hai": 4485,
      "Mami": 4486,
      "▁schwang": 4487,
      "▁überlebt": 4488,
      "▁sorgf": 4489,
      "kn": 4490,
      "Moritz": 4491,
      "▁Wünsche": 4492,
      "ettbewerb": 4493,
      "nern": 4494,
      "▁verabschiedeten": 4495,
      "▁wolle": 4496,
      "arben": 4497,
      "▁weinst": 4498,
      "▁Gewitter": 4499,
      "▁lobten": 4500,
      "▁strahlte": 4501,
      "ora": 4502,
      "▁riss": 4503,
      "Alles": 4504,
      "▁Geschle": 4505,
      "▁setzen": 4506,
      "▁kämpften": 4507,
      "▁anst": 4508,
      "rümel": 4509,
      "▁hinüber": 4510,
      "▁tiefsten": 4511,
      "Kä": 4512,
      "gelernt": 4513,
      "▁schlagen": 4514,
      "di": 4515,
      "rem": 4516,
      "gegriffen": 4517,
      "öcke": 4518,
      "▁Klaus": 4519,
      "ssistent": 4520,
      "▁Sandburg": 4521,
      "Vor": 4522,
      "▁stap": 4523,
      "ki": 4524,
      "▁taten": 4525,
      "▁aussehen": 4526,
      "Ironischerweise": 4527,
      "▁Schuppen": 4528,
      "▁Umarm": 4529,
      "Sammy": 4530,
      "▁führen": 4531,
      "▁glücklichen": 4532,
      "▁schrien": 4533,
      "▁Kleider": 4534,
      "▁Rascheln": 4535,
      "ehnte": 4536,
      "▁angegriffen": 4537,
      "reder": 4538,
      "gy": 4539,
      "▁zitter": 4540,
      "▁erre": 4541,
      "▁eng": 4542,
      "▁Person": 4543,
      "▁Tanz": 4544,
      "ege": 4545,
      "eines": 4546,
      "▁schlü": 4547,
      "▁schwierig": 4548,
      "mte": 4549,
      "▁gelangen": 4550,
      "▁kennengelernt": 4551,
      "▁zwitscherte": 4552,
      "weety": 4553,
      "Freddy": 4554,
      "tro": 4555,
      "▁Di": 4556,
      "▁vorher": 4557,
      "▁begraben": 4558,
      "▁weitergegeben": 4559,
      "▁Formen": 4560,
      "aschine": 4561,
      "ocht": 4562,
      "▁Eiche": 4563,
      "▁angreifen": 4564,
      "▁mögen": 4565,
      "Denn": 4566,
      "▁Linas": 4567,
      "zustellen": 4568,
      "dest": 4569,
      "▁erwartet": 4570,
      "▁Magie": 4571,
      "▁ändern": 4572,
      "gezogen": 4573,
      "▁-": 4574,
      "rauß": 4575,
      "trank": 4576,
      "▁Wagen": 4577,
      "▁Planeten": 4578,
      "Hey": 4579,
      "▁umgeben": 4580,
      "sehr": 4581,
      "▁spüren": 4582,
      "▁spuckte": 4583,
      "▁ebenfalls": 4584,
      "▁veranst": 4585,
      "▁Katzen": 4586,
      "▁Beispiel": 4587,
      "▁Sache": 4588,
      "setzt": 4589,
      "▁widerstehen": 4590,
      "wink": 4591,
      "▁Abends": 4592,
      "Ab": 4593,
      "▁bestr": 4594,
      "richt": 4595,
      "▁Piraten": 4596,
      "▁verabschieden": 4597,
      "▁schnappte": 4598,
      "▁Lieblingsspiel": 4599,
      "▁Da": 4600,
      "▁fühlt": 4601,
      "▁eigene": 4602,
      "▁weißt": 4603,
      "▁Name": 4604,
      "▁zeich": 4605,
      "▁sorgfältig": 4606,
      "▁ernst": 4607,
      "Gemeinsam": 4608,
      "Molly": 4609,
      "▁nutz": 4610,
      "▁Krokod": 4611,
      "▁getrunken": 4612,
      "gehört": 4613,
      "braunen": 4614,
      "▁Lilys": 4615,
      "▁davor": 4616,
      "kä": 4617,
      "ager": 4618,
      "unny": 4619,
      "▁Anblick": 4620,
      "▁wert": 4621,
      "▁Ruder": 4622,
      "weißes": 4623,
      "▁Schaukeln": 4624,
      "▁wackelte": 4625,
      "▁Daisy": 4626,
      "▁bereits": 4627,
      "▁Gefahren": 4628,
      "Hanna": 4629,
      "▁Klara": 4630,
      "▁bittersüße": 4631,
      "glichen": 4632,
      "rück": 4633,
      "ünkt": 4634,
      "▁verstehe": 4635,
      "bauen": 4636,
      "wartet": 4637,
      "Nud": 4638,
      "gende": 4639,
      "ammelt": 4640,
      "▁gewonnen": 4641,
      "▁langweilig": 4642,
      "▁hindurch": 4643,
      "ockt": 4644,
      "aupt": 4645,
      "▁Delfin": 4646,
      "▁fern": 4647,
      "▁Krankheit": 4648,
      "▁entfernt": 4649,
      "ue": 4650,
      "▁unh": 4651,
      "bern": 4652,
      "▁bevor": 4653,
      "▁hellen": 4654,
      "achtel": 4655,
      "▁Get": 4656,
      "▁gefällt": 4657,
      "▁Fritz": 4658,
      "▁schwank": 4659,
      "offen": 4660,
      "▁Freundlichkeit": 4661,
      "drehte": 4662,
      "brig": 4663,
      "ilbur": 4664,
      "▁Aufgabe": 4665,
      "kr": 4666,
      "▁Ärzte": 4667,
      "▁beißen": 4668,
      "jekt": 4669,
      "kletterte": 4670,
      "Sally": 4671,
      "ließen": 4672,
      "ichtigen": 4673,
      "ischt": 4674,
      "▁Erfahrung": 4675,
      "▁Schildkröte": 4676,
      "hnen": 4677,
      "inky": 4678,
      "▁Sonnenbl": 4679,
      "▁wäh": 4680,
      "▁anderer": 4681,
      "otta": 4682,
      "▁gehörte": 4683,
      "▁Ameisen": 4684,
      "baby": 4685,
      "äf": 4686,
      "▁Männer": 4687,
      "▁schönsten": 4688,
      "leiten": 4689,
      "▁Reisen": 4690,
      "▁nerv": 4691,
      "olin": 4692,
      "▁niemanden": 4693,
      "regung": 4694,
      "▁Wort": 4695,
      "▁sprachlos": 4696,
      "▁Löffel": 4697,
      "verstanden": 4698,
      "John": 4699,
      "enkte": 4700,
      "▁fällen": 4701,
      "▁Weide": 4702,
      "▁Haaren": 4703,
      "hü": 4704,
      "oe": 4705,
      "einem": 4706,
      "▁Medikamente": 4707,
      "▁Großvater": 4708,
      "▁Beg": 4709,
      "▁mitten": 4710,
      "▁füllte": 4711,
      "▁summte": 4712,
      "ermeister": 4713,
      "▁abenteuerlustiges": 4714,
      "ance": 4715,
      "▁süße": 4716,
      "up": 4717,
      "▁aufgeg": 4718,
      "▁umher": 4719,
      "▁bunter": 4720,
      "▁flüsterte": 4721,
      "▁schaukeln": 4722,
      "ebt": 4723,
      "▁füttern": 4724,
      "▁vorstellen": 4725,
      "▁verzauber": 4726,
      "▁klat": 4727,
      "ech": 4728,
      "▁Fred": 4729,
      "▁sollen": 4730,
      "▁lächeln": 4731,
      "▁geflogen": 4732,
      "schau": 4733,
      "rigen": 4734,
      "▁jungen": 4735,
      "änge": 4736,
      "▁stellen": 4737,
      "erkwür": 4738,
      "Gesch": 4739,
      "ord": 4740,
      "▁wären": 4741,
      "Un": 4742,
      "▁schlossen": 4743,
      "▁zerstören": 4744,
      "Benni": 4745,
      "runden": 4746,
      "▁verließen": 4747,
      "▁gemütlich": 4748,
      "▁Heimweg": 4749,
      "▁Erleb": 4750,
      "führ": 4751,
      "uddy": 4752,
      "▁dichten": 4753,
      "Später": 4754,
      "▁letzten": 4755,
      "scheinlich": 4756,
      "ös": 4757,
      "apel": 4758,
      "▁verwandelte": 4759,
      "▁auszuruhen": 4760,
      "setzte": 4761,
      "▁Erwachsen": 4762,
      "▁konzentr": 4763,
      "▁Ring": 4764,
      "▁berühmter": 4765,
      "brei": 4766,
      "▁Susi": 4767,
      "▁Schachtel": 4768,
      "rederik": 4769,
      "samm": 4770,
      "▁Stoff": 4771,
      "▁Möglich": 4772,
      "▁Außer": 4773,
      "▁Umarmung": 4774,
      "kte": 4775,
      "wich": 4776,
      "▁besuchten": 4777,
      "izin": 4778,
      "▁Feen": 4779,
      "▁besteigen": 4780,
      "▁Schlimmes": 4781,
      "▁Knall": 4782,
      "▁zwink": 4783,
      "▁perfekt": 4784,
      "schar": 4785,
      "Freunde": 4786,
      "▁überwinden": 4787,
      "▁beschäftigt": 4788,
      "ließ": 4789,
      "▁geschockt": 4790,
      "Mittag": 4791,
      "▁Versprechen": 4792,
      "▁akzeptieren": 4793,
      "▁Snack": 4794,
      "ttert": 4795,
      "ain": 4796,
      "▁Kreis": 4797,
      "▁löschen": 4798,
      "▁Fluffy": 4799,
      "▁verging": 4800,
      "▁Burg": 4801,
      "▁Salz": 4802,
      "▁einverstanden": 4803,
      "▁bewundern": 4804,
      "▁Flugzeuge": 4805,
      "darunter": 4806,
      "▁Rabe": 4807,
      "▁hopp": 4808,
      "▁brauche": 4809,
      "▁erlösend": 4810,
      "▁regnete": 4811,
      "Stattdessen": 4812,
      "▁Eink": 4813,
      "▁rufen": 4814,
      "▁Königreich": 4815,
      "▁Geheimnisse": 4816,
      "▁Orte": 4817,
      "▁Aufregung": 4818,
      "▁dauerte": 4819,
      "Kiki": 4820,
      "▁dam": 4821,
      "▁Möbel": 4822,
      "▁ruh": 4823,
      "Ver": 4824,
      "▁zweideutig": 4825,
      "▁geheimnisvoll": 4826,
      "gelaufen": 4827,
      "▁Krokodil": 4828,
      ":**": 4829,
      "berfläche": 4830,
      "ünd": 4831,
      "▁Bad": 4832,
      "genommen": 4833,
      "etten": 4834,
      "▁Spr": 4835,
      "▁wehren": 4836,
      "inki": 4837,
      "▁erreicht": 4838,
      "▁respektieren": 4839,
      "▁Kir": 4840,
      "▁Vase": 4841,
      "▁geträumt": 4842,
      "▁Taschen": 4843,
      "tion": 4844,
      "▁Grund": 4845,
      "▁bekannt": 4846,
      "aunte": 4847,
      "▁magischer": 4848,
      "derten": 4849,
      "▁Rob": 4850,
      "fing": 4851,
      "llig": 4852,
      "▁aufgeweckte": 4853,
      "▁durstig": 4854,
      "▁Gegenstand": 4855,
      "ächen": 4856,
      "▁Hir": 4857,
      "ünktchen": 4858,
      "lung": 4859,
      "gefallen": 4860,
      "schrie": 4861,
      "▁gefragt": 4862,
      "▁steigen": 4863,
      "▁Truck": 4864,
      "▁ertr": 4865,
      "▁tas": 4866,
      "chteten": 4867,
      "▁egal": 4868,
      "▁Enkelk": 4869,
      "danken": 4870,
      "▁verspielter": 4871,
      "▁Medizin": 4872,
      "Ohne": 4873,
      "▁Größe": 4874,
      "diges": 4875,
      "▁kicherte": 4876,
      "▁Wälder": 4877,
      "▁aufgewecktes": 4878,
      "freund": 4879,
      "▁quakte": 4880,
      "fahr": 4881,
      "▁em": 4882,
      "germeister": 4883,
      "lst": 4884,
      "▁Ju": 4885,
      "atsch": 4886,
      "▁Oze": 4887,
      "▁zurückkehrte": 4888,
      "▁trauriger": 4889,
      "▁stecken": 4890,
      "tella": 4891,
      "▁wahrscheinlich": 4892,
      "▁Opa": 4893,
      "▁Rucks": 4894,
      "indern": 4895,
      "▁drehen": 4896,
      "▁vergingen": 4897,
      "▁Sommertag": 4898,
      "▁a": 4899,
      "▁packten": 4900,
      "▁dunkle": 4901,
      "▁Verg": 4902,
      "▁Herrn": 4903,
      "▁selten": 4904,
      "Leon": 4905,
      "affe": 4906,
      "▁Bürgermeister": 4907,
      "äschen": 4908,
      "▁Ausste": 4909,
      "▁Fahrt": 4910,
      "ärm": 4911,
      "▁Gebüsch": 4912,
      "▁lieber": 4913,
      "▁scharf": 4914,
      "▁rettete": 4915,
      "▁entfernten": 4916,
      "▁unglaub": 4917,
      "itzte": 4918,
      "▁Pfad": 4919,
      "ala": 4920,
      "▁Fäh": 4921,
      "▁blühten": 4922,
      "▁seuf": 4923,
      "▁jagten": 4924,
      "▁rudern": 4925,
      "▁Clara": 4926,
      "▁Leiter": 4927,
      "aßen": 4928,
      "enne": 4929,
      "gem": 4930,
      "zieher": 4931,
      "▁vertreiben": 4932,
      "▁Raumschiff": 4933,
      "▁Koff": 4934,
      "▁gewinnen": 4935,
      "▁gelangte": 4936,
      "▁segeln": 4937,
      "Teddy": 4938,
      "räumen": 4939,
      "endlich": 4940,
      "fäll": 4941,
      "▁spazierte": 4942,
      "▁brannte": 4943,
      "▁beschützte": 4944,
      "▁är": 4945,
      "▁möchtest": 4946,
      "▁Schweinchen": 4947,
      "endet": 4948,
      "weiße": 4949,
      "▁co": 4950,
      "Fin": 4951,
      "irm": 4952,
      "wand": 4953,
      "▁endet": 4954,
      "ppi": 4955,
      "mäß": 4956,
      "▁Seil": 4957,
      "▁Vaters": 4958,
      "▁meisten": 4959,
      "str": 4960,
      "▁Zucker": 4961,
      "▁Alter": 4962,
      "▁Entdeck": 4963,
      "Sei": 4964,
      "▁Spinn": 4965,
      "üchern": 4966,
      "▁unzer": 4967,
      "ächst": 4968,
      "läch": 4969,
      "▁warme": 4970,
      "ippen": 4971,
      "▁verlor": 4972,
      "▁glänzenden": 4973,
      "▁erkundeten": 4974,
      "rut": 4975,
      "▁daraus": 4976,
      "▁nervös": 4977,
      "▁einschlafen": 4978,
      "itu": 4979,
      "wn": 4980,
      "▁entscheiden": 4981,
      "▁hohe": 4982,
      "arte": 4983,
      "▁Pip": 4984,
      "▁Wal": 4985,
      "änder": 4986,
      "Mö": 4987,
      "▁Klein": 4988,
      "▁Zebras": 4989,
      "lagen": 4990,
      "▁übergeben": 4991,
      "▁unterhielten": 4992,
      "▁Timmys": 4993,
      "▁bewunderte": 4994,
      "▁isst": 4995,
      "glänzen": 4996,
      "▁länger": 4997,
      "▁Wahr": 4998,
      "▁Piepmatz": 4999,
      "▁gelesen": 5000,
      "▁Ihnen": 5001,
      "▁verändert": 5002,
      "woher": 5003,
      "axi": 5004,
      "▁Leckereien": 5005,
      "nkel": 5006,
      "▁Hor": 5007,
      "trenn": 5008,
      "▁Landschaft": 5009,
      "rik": 5010,
      "Wür": 5011,
      "▁Außerird": 5012,
      "▁genommen": 5013,
      "▁Schreckliches": 5014,
      "▁hustete": 5015,
      "▁Flur": 5016,
      "äck": 5017,
      "ruben": 5018,
      "▁vergaßen": 5019,
      "ari": 5020,
      "▁gelebt": 5021,
      "▁gelegt": 5022,
      "▁messen": 5023,
      "▁Rudi": 5024,
      "▁breitete": 5025,
      "ieg": 5026,
      "▁geschickt": 5027,
      "▁Benni": 5028,
      "ons": 5029,
      "▁Fliegen": 5030,
      "▁Fremden": 5031,
      "▁brauchen": 5032,
      "▁süßes": 5033,
      "use": 5034,
      "▁Stä": 5035,
      "passen": 5036,
      "▁unzertrenn": 5037,
      "will": 5038,
      "▁Husten": 5039,
      "▁Beinen": 5040,
      "oko": 5041,
      "▁heilen": 5042,
      "▁aufgegessen": 5043,
      "heben": 5044,
      "▁nächste": 5045,
      "▁überraschende": 5046,
      "Banan": 5047,
      "▁Erzieher": 5048,
      "▁jubelten": 5049,
      "iete": 5050,
      "▁strei": 5051,
      "▁üppigen": 5052,
      "iegen": 5053,
      "▁verspieltes": 5054,
      "Flausch": 5055,
      "▁Mi": 5056,
      "führer": 5057,
      "Flu": 5058,
      "▁Hanna": 5059,
      "▁weht": 5060,
      "Frau": 5061,
      "zwei": 5062,
      "▁winkten": 5063,
      "▁Rucksack": 5064,
      "▁Mü": 5065,
      "▁Pfütze": 5066,
      "Überraschende": 5067,
      "▁Ali": 5068,
      "▁Küchen": 5069,
      "Emilia": 5070,
      "▁auszuprobieren": 5071,
      "Können": 5072,
      "machte": 5073,
      "ßt": 5074,
      "ücht": 5075,
      "Des": 5076,
      "▁Brüllen": 5077,
      "▁betrat": 5078,
      "jedes": 5079,
      "aos": 5080,
      "mö": 5081,
      "wischen": 5082,
      "▁böser": 5083,
      "▁Heimat": 5084,
      "▁Seiten": 5085,
      "▁entsetzt": 5086,
      "▁einzig": 5087,
      "▁eklig": 5088,
      "▁wegzu": 5089,
      "▁cool": 5090,
      "Spiel": 5091,
      "▁heißen": 5092,
      "▁vermissen": 5093,
      "istall": 5094,
      "▁Schmutz": 5095,
      "▁Chance": 5096,
      "blätter": 5097,
      "quem": 5098,
      "▁meiner": 5099,
      "ilft": 5100,
      "▁Hinter": 5101,
      "lin": 5102,
      "▁Schnüffel": 5103,
      "▁seufzte": 5104,
      "▁Chaos": 5105,
      "▁Gartens": 5106,
      "▁hinge": 5107,
      "▁lo": 5108,
      "▁übte": 5109,
      "Clara": 5110,
      "▁entschuldigte": 5111,
      "▁überlegte": 5112,
      "▁Geschlecht": 5113,
      "Pip": 5114,
      "wär": 5115,
      "▁landeten": 5116,
      "agel": 5117,
      "▁Mädchens": 5118,
      "obwohl": 5119,
      "▁lebendig": 5120,
      "▁großart": 5121,
      "▁weiche": 5122,
      "▁dah": 5123,
      "gelte": 5124,
      "ippe": 5125,
      "▁bellen": 5126,
      "ühlt": 5127,
      "▁gefüllt": 5128,
      "▁hierher": 5129,
      "▁Schneeflo": 5130,
      "aya": 5131,
      "▁wel": 5132,
      "▁bedeutete": 5133,
      "imba": 5134,
      "osa": 5135,
      "▁beschützt": 5136,
      "Deshalb": 5137,
      "▁verändern": 5138,
      "▁gerührt": 5139,
      "▁weiches": 5140,
      "▁Horiz": 5141,
      "ona": 5142,
      "ppich": 5143,
      "ituation": 5144,
      "▁Horizont": 5145,
      "ügen": 5146,
      "▁freuen": 5147,
      "▁Emilia": 5148,
      "Bäume": 5149,
      "▁gesucht": 5150,
      "▁willkommen": 5151,
      "▁belie": 5152,
      "▁hoffe": 5153,
      "▁Zunge": 5154,
      "▁Welpe": 5155,
      "▁Schnar": 5156,
      "▁Schlangen": 5157,
      "▁atmen": 5158,
      "rom": 5159,
      "▁Lärm": 5160,
      "▁langer": 5161,
      "welt": 5162,
      "ötet": 5163,
      "▁versprechen": 5164,
      "▁Minuten": 5165,
      "Cliffhanger": 5166,
      "aunen": 5167,
      "▁kuschelten": 5168,
      "kleine": 5169,
      "▁Welpen": 5170,
      "▁fernen": 5171,
      "Wirklich": 5172,
      "▁hilfsbereit": 5173,
      "Auch": 5174,
      "wusste": 5175,
      "▁ironisch": 5176,
      "afel": 5177,
      "▁Männchen": 5178,
      "▁Situation": 5179,
      "▁Helden": 5180,
      "▁goldene": 5181,
      "ico": 5182,
      "ziel": 5183,
      "land": 5184,
      "nur": 5185,
      "▁Wär": 5186,
      "▁schließen": 5187,
      "Dein": 5188,
      "wurf": 5189,
      "▁gefressen": 5190,
      "schi": 5191,
      "ummi": 5192,
      "gebung": 5193,
      "▁gehor": 5194,
      "▁umarmen": 5195,
      "▁darfst": 5196,
      "▁zitterte": 5197,
      "▁damals": 5198,
      "ott": 5199,
      "Eich": 5200,
      "ustr": 5201,
      "▁reiste": 5202,
      "▁getötet": 5203,
      "▁ar": 5204,
      "▁schmer": 5205,
      "|>": 5206,
      "tier": 5207,
      "chtes": 5208,
      "▁flatter": 5209,
      "ds": 5210,
      "for": 5211,
      "eilt": 5212,
      "▁Filme": 5213,
      "▁reiten": 5214,
      "▁frustr": 5215,
      "▁Lager": 5216,
      "ihnen": 5217,
      "▁Schneeball": 5218,
      "anders": 5219,
      "runde": 5220,
      "▁ex": 5221,
      "▁Form": 5222,
      "vorsichtig": 5223,
      "▁Wahrheit": 5224,
      "Kek": 5225,
      "▁Oberfläche": 5226,
      "▁gelben": 5227,
      "pl": 5228,
      "mmi": 5229,
      "▁einfarb": 5230,
      "▁zurückzukehren": 5231,
      "▁zurückkam": 5232,
      "▁Fleck": 5233,
      "▁Sandwich": 5234,
      "▁Antwort": 5235,
      "elnd": 5236,
      "▁Frühling": 5237,
      "▁Gär": 5238,
      "▁griff": 5239,
      "▁Kamin": 5240,
      "eltern": 5241,
      "▁Zweige": 5242,
      "▁orden": 5243,
      "▁Frei": 5244,
      "▁zuzusehen": 5245,
      "▁erfrischen": 5246,
      "indet": 5247,
      "leben": 5248,
      "▁Eing": 5249,
      "▁Koffer": 5250,
      "dün": 5251,
      "▁liebevoll": 5252,
      "▁blu": 5253,
      "▁gewann": 5254,
      "▁Stapel": 5255,
      "▁Nachbarn": 5256,
      "▁empf": 5257,
      "▁Verkäufer": 5258,
      "öllig": 5259,
      "▁auftau": 5260,
      "▁Edel": 5261,
      "▁leuchteten": 5262,
      "erzäh": 5263,
      "▁Ameise": 5264,
      "▁herz": 5265,
      "▁Kampf": 5266,
      "bunten": 5267,
      "▁Sei": 5268,
      "haupt": 5269,
      "bald": 5270,
      "▁gras": 5271,
      "▁anger": 5272,
      "▁erinnerten": 5273,
      "ive": 5274,
      "▁Treppe": 5275,
      ",\"": 5276,
      "▁Angel": 5277,
      "▁Farm": 5278,
      "schirm": 5279,
      "chst": 5280,
      "▁Butter": 5281,
      "▁schütteln": 5282,
      "▁Teppich": 5283,
      "schaute": 5284,
      "flich": 5285,
      "▁klebte": 5286,
      "▁zögerte": 5287,
      "▁unterstützen": 5288,
      "▁kalten": 5289,
      "▁Strö": 5290,
      "one": 5291,
      "icks": 5292,
      "▁rotes": 5293,
      "▁Gehege": 5294,
      "ili": 5295,
      "Mar": 5296,
      "▁gefreut": 5297,
      "ido": 5298,
      "▁funktion": 5299,
      "▁Wuschel": 5300,
      "▁rieb": 5301,
      "▁Wurm": 5302,
      "ieber": 5303,
      "▁to": 5304,
      "öcken": 5305,
      "▁völlig": 5306,
      "▁Kap": 5307,
      "▁hilft": 5308,
      "▁Harry": 5309,
      "▁heira": 5310,
      "Bobo": 5311,
      "▁rächen": 5312,
      "▁Pferde": 5313,
      "▁Eingang": 5314,
      "▁schäm": 5315,
      "wen": 5316,
      "▁Assistent": 5317,
      "▁Fischer": 5318,
      "▁Entsch": 5319,
      "fuhr": 5320,
      "licht": 5321,
      "▁zwar": 5322,
      "▁zwinkerte": 5323,
      "▁bitten": 5324,
      "▁aufs": 5325,
      "chtest": 5326,
      "▁bestimmt": 5327,
      "▁Gewehr": 5328,
      "irk": 5329,
      "unkt": 5330,
      "▁Büchern": 5331,
      "▁Maulwurf": 5332,
      "▁Vort": 5333,
      "▁Pipp": 5334,
      "usty": 5335,
      "tropfen": 5336,
      "▁wick": 5337,
      "▁gekauft": 5338,
      "Jedes": 5339,
      "blaue": 5340,
      "▁Rückweg": 5341,
      "▁Häschen": 5342,
      "irn": 5343,
      "ops": 5344,
      "▁uner": 5345,
      "Luis": 5346,
      "▁feu": 5347,
      "▁lagen": 5348,
      "Guten": 5349,
      "dort": 5350,
      "▁Schlitten": 5351,
      "springen": 5352,
      "▁Klang": 5353,
      "Ende": 5354,
      "▁Feder": 5355,
      "▁Heu": 5356,
      "Nudel": 5357,
      "▁erholte": 5358,
      "▁Po": 5359,
      "▁pickte": 5360,
      "itzi": 5361,
      "▁Lieblingsspielzeug": 5362,
      "▁kauen": 5363,
      "▁füll": 5364,
      "▁Lust": 5365,
      "ieben": 5366,
      "zeugen": 5367,
      "▁probierte": 5368,
      "▁Prin": 5369,
      "inus": 5370,
      "▁liebt": 5371,
      "▁schlugen": 5372,
      "ehrt": 5373,
      "▁schönste": 5374,
      "braune": 5375,
      "▁eingesch": 5376,
      "▁ziem": 5377,
      "▁erfor": 5378,
      "▁beobachtet": 5379,
      "▁schneiden": 5380,
      "berei": 5381,
      "▁Band": 5382,
      "▁schmeckt": 5383,
      "Vielen": 5384,
      "gelmäß": 5385,
      "Ali": 5386,
      "▁Ozean": 5387,
      "▁Ding": 5388,
      "▁Zo": 5389,
      "Schatz": 5390,
      "▁aufstehen": 5391,
      "▁wanderten": 5392,
      "▁Weise": 5393,
      "▁braunen": 5394,
      "sücht": 5395,
      "▁Bewohner": 5396,
      "brochen": 5397,
      "▁Großeltern": 5398,
      "▁zuzuhören": 5399,
      "▁verwandelt": 5400,
      "▁rührte": 5401,
      "frau": 5402,
      "▁Zweig": 5403,
      "kommt": 5404,
      "▁Wärme": 5405,
      "▁ernten": 5406,
      "ehrten": 5407,
      "▁danken": 5408,
      "▁Ste": 5409,
      "arf": 5410,
      "▁Schoß": 5411,
      "▁winzige": 5412,
      "flausch": 5413,
      "ehe": 5414,
      "gert": 5415,
      "lock": 5416,
      "▁Pippi": 5417,
      "▁überhaupt": 5418,
      "▁class": 5419,
      "iftung": 5420,
      "Elly": 5421,
      "jung": 5422,
      "▁heu": 5423,
      "▁Rasen": 5424,
      "schieden": 5425,
      "Zebr": 5426,
      "▁interessant": 5427,
      "▁kickte": 5428,
      "▁weiser": 5429,
      "brechen": 5430,
      "zz": 5431,
      "ässt": 5432,
      "abrik": 5433,
      "▁Zwitschern": 5434,
      "pft": 5435,
      "▁begrüßte": 5436,
      "uldig": 5437,
      "▁Wissenschaft": 5438,
      "▁wand": 5439,
      "▁entschuldigen": 5440,
      "lächelte": 5441,
      "stet": 5442,
      "Eichhörnchen": 5443,
      "▁voneinander": 5444,
      "▁Schweine": 5445,
      "▁Münze": 5446,
      "▁Sal": 5447,
      "▁gebe": 5448,
      "▁brauchten": 5449,
      "▁pflückten": 5450,
      "▁John": 5451,
      "▁Alice": 5452,
      "set": 5453,
      "▁sonst": 5454,
      "▁deiner": 5455,
      "▁Couch": 5456,
      "gi": 5457,
      "▁erklärten": 5458,
      "▁Bus": 5459,
      "▁Pauls": 5460,
      "▁Erlebnis": 5461,
      "▁gegenüber": 5462,
      "xual": 5463,
      "ampe": 5464,
      "▁berührt": 5465,
      "▁Müh": 5466,
      "▁leeren": 5467,
      "▁wackeln": 5468,
      "teilt": 5469,
      "enken": 5470,
      "▁möglichen": 5471,
      "▁fleißiger": 5472,
      "Hilfe": 5473,
      "▁Genuss": 5474,
      "form": 5475,
      "▁Riesen": 5476,
      "oßen": 5477,
      "▁Prinzen": 5478,
      "▁toller": 5479,
      "steten": 5480,
      "▁beibringen": 5481,
      "▁Mot": 5482,
      "▁Male": 5483,
      "rän": 5484,
      "▁regelmäß": 5485,
      "haft": 5486,
      "▁tastete": 5487,
      "▁sicheren": 5488,
      "▁stürzte": 5489,
      "upp": 5490,
      "▁sau": 5491,
      "▁Mahl": 5492,
      "ühlen": 5493,
      "▁großartig": 5494,
      "ohnern": 5495,
      "Mmm": 5496,
      "▁verletzte": 5497,
      "▁Fahrer": 5498,
      "zten": 5499,
      "▁spe": 5500,
      "▁Türen": 5501,
      "können": 5502,
      "▁spitzen": 5503,
      "▁laute": 5504,
      "▁schoss": 5505,
      "▁Zeki": 5506,
      "klichen": 5507,
      "▁niesen": 5508,
      "idolin": 5509,
      "eis": 5510,
      "▁Kon": 5511,
      "▁Speedy": 5512,
      "stoß": 5513,
      "▁Fern": 5514,
      "▁Karte": 5515,
      "Schnüffel": 5516,
      "▁Bälle": 5517,
      "▁Morgens": 5518,
      "▁bitterlich": 5519,
      "Nuss": 5520,
      "besitzer": 5521,
      "Fluffy": 5522,
      "Paula": 5523,
      "▁gestohlen": 5524,
      "orfen": 5525,
      "▁Leu": 5526,
      "▁holten": 5527,
      "keln": 5528,
      "▁Pause": 5529,
      "ünst": 5530,
      "▁Worten": 5531,
      "▁Wasserfall": 5532,
      "▁zeigten": 5533,
      "alu": 5534,
      "▁Ho": 5535,
      "rün": 5536,
      "▁erleuchtend": 5537,
      "▁stopp": 5538,
      "tner": 5539,
      "▁schätzen": 5540,
      "▁erlaubten": 5541,
      "aj": 5542,
      "▁passte": 5543,
      "▁berei": 5544,
      "▁herauszufinden": 5545,
      "▁Paula": 5546,
      "aurant": 5547,
      "▁Schlimmste": 5548,
      "häng": 5549,
      "▁Nachmittags": 5550,
      "▁solche": 5551,
      "Zeki": 5552,
      "▁reichen": 5553,
      "▁lösen": 5554,
      "lebte": 5555,
      "▁Lippen": 5556,
      "▁frischen": 5557,
      "Toni": 5558,
      "▁irgendwo": 5559,
      "locke": 5560,
      "▁fühlst": 5561,
      "▁Seer": 5562,
      "riechen": 5563,
      "▁schnarchte": 5564,
      "meine": 5565,
      "steigen": 5566,
      "▁ziemlich": 5567,
      "▁lehnte": 5568,
      "▁Rose": 5569,
      "▁braun": 5570,
      "▁Ferdinand": 5571,
      "▁toben": 5572,
      "ller": 5573,
      "passierte": 5574,
      "tuch": 5575,
      "welche": 5576,
      "gan": 5577,
      "▁mitspielen": 5578,
      "reise": 5579,
      "ackt": 5580,
      "ohnen": 5581,
      "▁schenkte": 5582,
      "▁Rex": 5583,
      "▁Zweigen": 5584,
      "Oma": 5585,
      "traf": 5586,
      "Susi": 5587,
      "▁Bobo": 5588,
      "acher": 5589,
      "▁Wolle": 5590,
      "▁Onkel": 5591,
      "gewöhn": 5592,
      "▁leb": 5593,
      "▁Tafel": 5594,
      "▁Luis": 5595,
      "▁Teddybären": 5596,
      "▁akt": 5597,
      "igte": 5598,
      "▁mitnehmen": 5599,
      "▁Tunnels": 5600,
      "halt": 5601,
      "▁weiteren": 5602,
      "ärgert": 5603,
      "▁gebissen": 5604,
      "klar": 5605,
      "▁frustriert": 5606,
      "▁natürlich": 5607,
      "▁Mr": 5608,
      "▁verwenden": 5609,
      "▁Herd": 5610,
      "▁offenen": 5611,
      "Manche": 5612,
      "Kr": 5613,
      "EEEEEEEE": 5614,
      "rieb": 5615,
      "xt": 5616,
      "▁aufgehört": 5617,
      "Dinge": 5618,
      "▁Hans": 5619,
      "▁spielt": 5620,
      "▁Becher": 5621,
      "ittern": 5622,
      "▁Geschäft": 5623,
      "▁herumzulaufen": 5624,
      "werfen": 5625,
      "süchtig": 5626,
      "ümchen": 5627,
      "▁Wange": 5628,
      "▁lustiger": 5629,
      "▁Keksen": 5630,
      "Möchtest": 5631,
      "oter": 5632,
      "ächter": 5633,
      "▁Umgebung": 5634,
      "▁Hirsch": 5635,
      "▁dicht": 5636,
      "öffnete": 5637,
      "▁Annas": 5638,
      "üssen": 5639,
      "▁lasen": 5640,
      "▁Rinde": 5641,
      "eli": 5642,
      "schön": 5643,
      "irp": 5644,
      "umbo": 5645,
      "uschen": 5646,
      "▁wilden": 5647,
      "Klara": 5648,
      "üg": 5649,
      "▁Tante": 5650,
      "ity": 5651,
      "▁Wöl": 5652,
      "▁Legende": 5653,
      "▁Würste": 5654,
      "selbst": 5655,
      "▁baten": 5656,
      "▁Rett": 5657,
      "chenkt": 5658,
      "öffnet": 5659,
      "▁interessiert": 5660,
      "▁speziel": 5661,
      "▁Tweety": 5662,
      "▁reinigen": 5663,
      "vergiftung": 5664,
      "deut": 5665,
      "▁(": 5666,
      "▁leuchtend": 5667,
      "▁Juwel": 5668,
      "Unter": 5669,
      "add": 5670,
      "▁behandelt": 5671,
      "wohnern": 5672,
      "gebrochen": 5673,
      "▁Zwer": 5674,
      "blatt": 5675,
      "Pauls": 5676,
      "▁Windstoß": 5677,
      "▁dürfen": 5678,
      "ophia": 5679,
      "rotes": 5680,
      "Oder": 5681,
      "▁weil": 5682,
      "▁Familien": 5683,
      "äuber": 5684,
      "▁darum": 5685,
      "start": 5686,
      "▁träumten": 5687,
      "musste": 5688,
      "▁schlän": 5689,
      "jähr": 5690,
      "▁Elfie": 5691,
      "▁verzaubert": 5692,
      "▁erfrischend": 5693,
      "Ch": 5694,
      "▁eigentlich": 5695,
      "▁Quiet": 5696,
      "exu": 5697,
      "erkwürdiges": 5698,
      "▁heben": 5699,
      "▁verwirklichen": 5700,
      "▁geworfen": 5701,
      "▁wichtiger": 5702,
      "▁Insekten": 5703,
      "▁geschenkt": 5704,
      "▁Zaubertrank": 5705,
      "▁Wieder": 5706,
      "▁kratzen": 5707,
      "Rudi": 5708,
      "▁weniger": 5709,
      "▁fliehen": 5710,
      "▁Flie": 5711,
      "▁Wände": 5712,
      "▁Diam": 5713,
      "▁heulte": 5714,
      "▁toten": 5715,
      "▁lehrte": 5716,
      "Piepmatz": 5717,
      "eiben": 5718,
      "ürte": 5719,
      "▁ritten": 5720,
      "rachen": 5721,
      "▁Enkeln": 5722,
      "aunten": 5723,
      "anda": 5724,
      "zusammen": 5725,
      "▁Falle": 5726,
      "grünes": 5727,
      "▁Mel": 5728,
      "ches": 5729,
      "▁nutzte": 5730,
      "▁braune": 5731,
      "▁herzlich": 5732,
      "▁bekamen": 5733,
      "Alice": 5734,
      "▁Frieda": 5735,
      "▁Knopf": 5736,
      "▁Schutz": 5737,
      "mt": 5738,
      "▁hingen": 5739,
      "altes": 5740,
      "▁Restaurant": 5741,
      "▁Klasse": 5742,
      "▁unzertrennlich": 5743,
      "▁Laura": 5744,
      "▁gleichen": 5745,
      "nee": 5746,
      "▁erkl": 5747,
      "▁nachzusehen": 5748,
      "pflanz": 5749,
      "amp": 5750,
      "▁Schnur": 5751,
      "blauen": 5752,
      "▁Holzfäll": 5753,
      "▁Waldgeist": 5754,
      "schiedlich": 5755,
      "▁reiche": 5756,
      "▁Städ": 5757,
      "▁Gar": 5758,
      "Fritz": 5759,
      "▁Wissenschaftler": 5760,
      "beln": 5761,
      "▁einst": 5762,
      "▁Miauen": 5763,
      "▁Muschel": 5764,
      "himmel": 5765,
      "▁Stand": 5766,
      "▁plan": 5767,
      "▁heftig": 5768,
      "▁Ex": 5769,
      "Daisy": 5770,
      "▁bestraft": 5771,
      "his": 5772,
      "itän": 5773,
      "▁zauber": 5774,
      "▁beginnen": 5775,
      "▁Hundes": 5776,
      "wird": 5777,
      "▁kluger": 5778,
      "iemand": 5779,
      "▁verst": 5780,
      ".\",": 5781,
      "▁bequem": 5782,
      "▁Kräfte": 5783,
      "gih": 5784,
      "▁Tuch": 5785,
      "Niemand": 5786,
      "gihgih": 5787,
      "izz": 5788,
      "▁Maschine": 5789,
      "genauso": 5790,
      "▁verur": 5791,
      "▁vorne": 5792,
      "▁unterschiedlich": 5793,
      "ies": 5794,
      "ssssssssssssssss": 5795,
      "▁Gedanken": 5796,
      "▁wünsche": 5797,
      "Elef": 5798,
      "llll": 5799,
      "erkel": 5800,
      "voller": 5801,
      "▁Sonnenunter": 5802,
      "▁achtete": 5803,
      "reundet": 5804,
      "▁Motor": 5805,
      "▁Wurz": 5806,
      "▁Dachboden": 5807,
      "▁Durst": 5808,
      "ganis": 5809,
      "▁Bäckerei": 5810,
      "Dad": 5811,
      "weichen": 5812,
      "erklär": 5813,
      "▁veranstal": 5814,
      "▁Rat": 5815,
      "▁Clo": 5816,
      "▁rollen": 5817,
      "Heute": 5818,
      "mutig": 5819,
      "ssch": 5820,
      "▁einzige": 5821,
      "▁Erfolg": 5822,
      "▁Ausstellung": 5823,
      "▁Oper": 5824,
      "▁zerstörte": 5825,
      "zuklettern": 5826,
      "mut": 5827,
      "▁breiten": 5828,
      "▁solchen": 5829,
      "smann": 5830,
      "▁schä": 5831,
      "▁Krümel": 5832,
      "▁wehtun": 5833,
      "▁erklimmen": 5834,
      "feuer": 5835,
      "beschloss": 5836,
      "▁Schätze": 5837,
      "▁nachzu": 5838,
      "Tiger": 5839,
      "▁beu": 5840,
      "▁vier": 5841,
      "▁belohnt": 5842,
      "möglich": 5843,
      "▁Preis": 5844,
      "▁umdrehte": 5845,
      "▁Mäuse": 5846,
      "eig": 5847,
      "▁bewunderten": 5848,
      "agd": 5849,
      "▁sorgte": 5850,
      "▁lustiges": 5851,
      "▁lu": 5852,
      "fühlen": 5853,
      "▁Küchentisch": 5854,
      "bekommen": 5855,
      "Hab": 5856,
      "▁entdeckt": 5857,
      "▁düsteren": 5858,
      "kkkk": 5859,
      "▁freut": 5860,
      "lesen": 5861,
      "▁Hüter": 5862,
      "Klein": 5863,
      "andere": 5864,
      "▁Bellen": 5865,
      "ünf": 5866,
      "Laura": 5867,
      "▁Magen": 5868,
      "werden": 5869,
      "▁Stär": 5870,
      "gegangen": 5871,
      "▁Ernte": 5872,
      "▁schmecken": 5873,
      "▁Th": 5874,
      "▁gesammelt": 5875,
      "▁reisen": 5876,
      "sern": 5877,
      "▁spann": 5878,
      "lern": 5879,
      "ührten": 5880,
      "▁Klippe": 5881,
      "▁Toni": 5882,
      "▁Frederik": 5883,
      "liefen": 5884,
      "▁mache": 5885,
      "▁größte": 5886,
      "Pipp": 5887,
      "abhäng": 5888,
      "▁leider": 5889,
      "gs": 5890,
      "▁Fot": 5891,
      "schlafen": 5892,
      "▁Pin": 5893,
      "▁gestern": 5894,
      "▁gießen": 5895,
      "legten": 5896,
      "▁Nina": 5897,
      "undert": 5898,
      "amilie": 5899,
      "▁Nussi": 5900,
      "▁Kessel": 5901,
      "▁weisen": 5902,
      "ivers": 5903,
      "▁Fal": 5904,
      "▁Entlein": 5905,
      "getan": 5906,
      "▁schämte": 5907,
      "▁Zirk": 5908,
      "▁Sonnenuntergang": 5909,
      "▁staunte": 5910,
      "▁regelmäßig": 5911,
      "▁pflegen": 5912,
      "gesehen": 5913,
      "▁Micky": 5914,
      "errte": 5915,
      "▁Wichtigste": 5916,
      "▁anstren": 5917,
      "erzählten": 5918,
      "ieht": 5919,
      "▁ruderten": 5920,
      "▁gerannt": 5921,
      "▁versamm": 5922,
      "▁Flüsse": 5923,
      "umpel": 5924,
      "▁tolles": 5925,
      "▁salzig": 5926,
      "▁begrüßten": 5927,
      "▁denke": 5928,
      "▁meinte": 5929,
      "Mu": 5930,
      "▁nutzen": 5931,
      "▁staub": 5932,
      "▁sanften": 5933,
      "mung": 5934,
      "▁stattdessen": 5935,
      "▁brauchst": 5936,
      "▁geboren": 5937,
      "▁gehe": 5938,
      "ierig": 5939,
      "▁Stirn": 5940,
      "Wird": 5941,
      "▁ärgern": 5942,
      "fanden": 5943,
      "▁bot": 5944,
      "▁Holzfäller": 5945,
      "▁Giraffen": 5946,
      "▁hübschen": 5947,
      "ieder": 5948,
      "▁Wolli": 5949,
      "▁Schritt": 5950,
      "agelang": 5951,
      "sonst": 5952,
      "▁fürchten": 5953,
      "▁wachten": 5954,
      "▁Künst": 5955,
      "▁folgt": 5956,
      "▁benutzt": 5957,
      "drig": 5958,
      "scher": 5959,
      "egeln": 5960,
      "▁kümmerten": 5961,
      "telligen": 5962,
      "▁brechen": 5963,
      "▁herr": 5964,
      "▁mehrere": 5965,
      "aften": 5966,
      "▁Vortag": 5967,
      "▁Gefühle": 5968,
      "▁Münzen": 5969,
      "▁Stat": 5970,
      "stieg": 5971,
      "▁Mäuschen": 5972,
      "▁geborgen": 5973,
      "▁untern": 5974,
      "Schw": 5975,
      "▁Museums": 5976,
      "▁verband": 5977,
      "▁wickelte": 5978,
      "geln": 5979,
      "▁Geschenke": 5980,
      "▁Karl": 5981,
      "spitzen": 5982,
      "▁einzigartig": 5983,
      "sicht": 5984,
      "▁glänzende": 5985,
      "▁erhoben": 5986,
      "▁ordentlich": 5987,
      "▁freue": 5988,
      "▁Haustier": 5989,
      "▁handeln": 5990,
      "▁herab": 5991,
      "Mieze": 5992,
      "wasser": 5993,
      "▁aufhörte": 5994,
      "▁Weihn": 5995,
      "▁schlängelte": 5996,
      "▁Wilbur": 5997,
      "▁Joh": 5998,
      "üsslich": 5999,
      "älle": 6000,
      "ecken": 6001,
      "▁echt": 6002,
      "leuchten": 6003,
      "trau": 6004,
      "vier": 6005,
      "▁echter": 6006,
      "▁wunderbaren": 6007,
      "▁Karton": 6008,
      "haben": 6009,
      "eier": 6010,
      "▁aussahen": 6011,
      "▁vertrau": 6012,
      "Annika": 6013,
      "pu": 6014,
      "▁ansah": 6015,
      "▁anfangen": 6016,
      "erklärte": 6017,
      "▁schenken": 6018,
      "▁Krabbel": 6019,
      "▁Univers": 6020,
      "▁sortieren": 6021,
      "eckt": 6022,
      "▁gezogen": 6023,
      "▁Seerosen": 6024,
      "gelben": 6025,
      "▁falschen": 6026,
      "▁zeichnen": 6027,
      "eck": 6028,
      "ars": 6029,
      "Mika": 6030,
      "rich": 6031,
      "▁Erzieherin": 6032,
      "▁Teilen": 6033,
      "Nina": 6034,
      "ende": 6035,
      "lapp": 6036,
      "▁glitzer": 6037,
      "rift": 6038,
      "▁padd": 6039,
      "▁begrub": 6040,
      "▁verschwinden": 6041,
      "▁Char": 6042,
      "▁genüsslich": 6043,
      "ackung": 6044,
      "▁Finns": 6045,
      "sol": 6046,
      "Bis": 6047,
      "▁finde": 6048,
      "▁pflanzten": 6049,
      "ic": 6050,
      "▁verte": 6051,
      "▁Zirkus": 6052,
      "alen": 6053,
      "▁Bestes": 6054,
      "Überall": 6055,
      "▁Länder": 6056,
      "gelbe": 6057,
      "▁habt": 6058,
      "▁Flauschi": 6059,
      "▁Schnarchen": 6060,
      "▁kehrten": 6061,
      "▁intelligen": 6062,
      "▁schwingen": 6063,
      "spielte": 6064,
      "▁bestand": 6065,
      "▁Annika": 6066,
      "asten": 6067,
      "Gerne": 6068,
      "Bru": 6069,
      "egenheit": 6070,
      "▁geschm": 6071,
      "▁ausprobieren": 6072,
      "▁pflanzen": 6073,
      "▁Ton": 6074,
      "▁Staub": 6075,
      "▁Truhe": 6076,
      "▁Per": 6077,
      "▁gefühlt": 6078,
      "Für": 6079,
      "▁Unfall": 6080,
      "▁Mo": 6081,
      "tzeitig": 6082,
      "▁hofften": 6083,
      "äfchen": 6084,
      "Fer": 6085,
      "ng": 6086,
      "▁tagelang": 6087,
      "▁Monaten": 6088,
      "▁Tropfen": 6089,
      "▁schweren": 6090,
      "Blitz": 6091,
      "ächtig": 6092,
      "▁traurige": 6093,
      "sheit": 6094,
      "▁nette": 6095,
      "gaben": 6096,
      "antas": 6097,
      "▁Herrchen": 6098,
      "▁dicke": 6099,
      "▁mitgebracht": 6100,
      "▁bedeckte": 6101,
      "eun": 6102,
      "aube": 6103,
      "▁Schale": 6104,
      "▁beigebracht": 6105,
      "▁komisch": 6106,
      "▁warst": 6107,
      "▁versehen": 6108,
      "▁flatterte": 6109,
      "Bär": 6110,
      "Fred": 6111,
      "▁knab": 6112,
      "▁Wiedersehen": 6113,
      "▁bed": 6114,
      "hisker": 6115,
      "Bes": 6116,
      "▁ansehen": 6117,
      "▁anfassen": 6118,
      "▁stimmten": 6119,
      "▁vorzu": 6120,
      "▁Blütenblätter": 6121,
      "üler": 6122,
      "umpfen": 6123,
      "▁umgefallen": 6124,
      "elly": 6125,
      "reme": 6126,
      "▁lebhaf": 6127,
      "ieten": 6128,
      "▁Elli": 6129,
      "▁gelbe": 6130,
      "▁letzte": 6131,
      "schlu": 6132,
      "▁Gärtner": 6133,
      "schlag": 6134,
      "▁Billy": 6135,
      "▁besucht": 6136,
      "▁Büschen": 6137,
      "▁angerannt": 6138,
      "▁gekocht": 6139,
      "Wei": 6140,
      "hlen": 6141,
      "starken": 6142,
      "ieb": 6143,
      "▁Gefieder": 6144,
      "▁wütender": 6145,
      "▁verkauft": 6146,
      "lückt": 6147,
      "reuen": 6148,
      "▁strahlen": 6149,
      "fon": 6150,
      "▁oper": 6151,
      "▁Klassen": 6152,
      "itron": 6153,
      "▁Geträn": 6154,
      "tte": 6155,
      "▁riesiges": 6156,
      "▁rechtzeitig": 6157,
      "▁Donn": 6158,
      "Mr": 6159,
      "▁siehst": 6160,
      "eiert": 6161,
      "▁unge": 6162,
      "▁Kaffe": 6163,
      "setzung": 6164,
      "▁Die": 6165,
      "▁Heldin": 6166,
      "▁zun": 6167,
      "▁Sara": 6168,
      "▁Insekt": 6169,
      "▁wo": 6170,
      "immi": 6171,
      "▁Feldes": 6172,
      "dankte": 6173,
      "▁echten": 6174,
      "direkt": 6175,
      "▁luden": 6176,
      "▁Sa": 6177,
      "▁erfülltes": 6178,
      "▁nickten": 6179,
      "▁quet": 6180,
      "spürte": 6181,
      "▁Lebensmittelvergiftung": 6182,
      "▁Erwachsenen": 6183,
      "▁Ähn": 6184,
      "▁rutschen": 6185,
      "ucki": 6186,
      "▁schmalen": 6187,
      "▁erleuchtet": 6188,
      "▁Rettung": 6189,
      "▁Kom": 6190,
      "▁richtigen": 6191,
      "▁weißes": 6192,
      "Pippi": 6193,
      "bi": 6194,
      "▁Gelegenheit": 6195,
      "omen": 6196,
      "▁trock": 6197,
      "▁begegnet": 6198,
      "dert": 6199,
      "▁entschieden": 6200,
      "▁zerbrochen": 6201,
      "lachten": 6202,
      "lieben": 6203,
      "▁Frage": 6204,
      "▁Weisheit": 6205,
      "▁müssten": 6206,
      "▁schlüpfte": 6207,
      "▁Nie": 6208,
      "hiskers": 6209,
      "ruhig": 6210,
      "▁leuchtenden": 6211,
      "▁</": 6212,
      "brachte": 6213,
      "▁Maria": 6214,
      "▁warmes": 6215,
      "onie": 6216,
      "▁dersel": 6217,
      "▁größten": 6218,
      "▁Clown": 6219,
      "erweise": 6220,
      "▁Feldern": 6221,
      "▁nieste": 6222,
      "weiter": 6223,
      "▁Kräu": 6224,
      "▁erschreckt": 6225,
      "▁Kapitän": 6226,
      "schaften": 6227,
      "▁Puschel": 6228,
      "▁pro": 6229,
      "diese": 6230,
      "▁Stift": 6231,
      "▁Uhr": 6232,
      "Elli": 6233,
      "▁schlechten": 6234,
      "▁Ähnliches": 6235,
      "Tomi": 6236,
      "▁überraschen": 6237,
      "▁Künstler": 6238,
      "▁Back": 6239,
      "▁Pop": 6240,
      "▁Roboter": 6241,
      "▁nachts": 6242,
      "ortsetzung": 6243,
      "▁entdeckten": 6244,
      "verk": 6245,
      "▁nennen": 6246,
      "eits": 6247,
      "öpfe": 6248,
      "farben": 6249,
      "rennen": 6250,
      "jagt": 6251,
      "haufen": 6252,
      "ufer": 6253,
      "schließen": 6254,
      "steine": 6255,
      "▁niedrig": 6256,
      "▁gelegenen": 6257,
      "▁unheim": 6258,
      "▁gefeiert": 6259,
      "▁Rauschen": 6260,
      "Kinder": 6261,
      "▁bemerkten": 6262,
      "reche": 6263,
      "▁Lagerfeuer": 6264,
      "seh": 6265,
      "noch": 6266,
      "▁stumpf": 6267,
      "bert": 6268,
      "Klaus": 6269,
      "▁duf": 6270,
      "▁geschrieben": 6271,
      "▁Strömung": 6272,
      "▁gesessen": 6273,
      "tto": 6274,
      "Joh": 6275,
      "geladen": 6276,
      "ca": 6277,
      "▁train": 6278,
      "▁wundervollen": 6279,
      "▁Wettbewerb": 6280,
      "▁Strauß": 6281,
      "arbeitet": 6282,
      "▁wohnen": 6283,
      "▁lächelnd": 6284,
      "▁weiteres": 6285,
      "▁Umhang": 6286,
      "Meine": 6287,
      "raten": 6288,
      "▁Hahn": 6289,
      "▁mitzunehmen": 6290,
      "▁Dorfbewohnern": 6291,
      "▁schim": 6292,
      "jo": 6293,
      "▁Oskar": 6294,
      "jen": 6295,
      "bereiten": 6296,
      "▁unseren": 6297,
      "▁heißer": 6298,
      "▁schlechte": 6299,
      "Immer": 6300,
      "▁För": 6301,
      "▁Schneeflocke": 6302,
      "blume": 6303,
      "tchen": 6304,
      "▁Ihr": 6305,
      "▁Wassers": 6306,
      "▁Mause": 6307,
      "▁Gegend": 6308,
      "▁husten": 6309,
      "Ent": 6310,
      "bahn": 6311,
      "▁Streifen": 6312,
      "▁Gute": 6313,
      "▁klaren": 6314,
      "▁saftigen": 6315,
      "fern": 6316,
      "▁Sonnenschein": 6317,
      "▁befreundet": 6318,
      "ragen": 6319,
      "Würstchen": 6320,
      "sogar": 6321,
      "ats": 6322,
      "antasie": 6323,
      "box": 6324,
      "geht": 6325,
      "▁feucht": 6326,
      "▁nutzlos": 6327,
      "▁gepflückt": 6328,
      "▁Operation": 6329,
      "wi": 6330,
      "▁frühstück": 6331,
      "Kn": 6332,
      "gemeinsam": 6333,
      "ildet": 6334,
      "▁Schauf": 6335,
      "▁staubig": 6336,
      "our": 6337,
      "ollt": 6338,
      "▁versehentlich": 6339,
      "▁Pal": 6340,
      "▁Trinken": 6341,
      "grüner": 6342,
      "▁geöffnet": 6343,
      "▁trösteten": 6344,
      "▁düsterer": 6345,
      "▁wegen": 6346,
      "▁seltsamer": 6347,
      "geschah": 6348,
      "▁Pool": 6349,
      "▁klingt": 6350,
      "▁magisches": 6351,
      "▁treten": 6352,
      "Linas": 6353,
      "rten": 6354,
      "▁verwandeln": 6355,
      "Mil": 6356,
      "▁Verlust": 6357,
      "▁zunächst": 6358,
      "▁fremden": 6359,
      "reie": 6360,
      "▁gefiel": 6361,
      "▁Schritte": 6362,
      "▁Giraffe": 6363,
      "▁stehlen": 6364,
      "▁Hem": 6365,
      "rache": 6366,
      "Gib": 6367,
      "fel": 6368,
      "▁überwunden": 6369,
      "corn": 6370,
      "▁Meerjung": 6371,
      "▁niemandem": 6372,
      "drei": 6373,
      "▁wiederfinden": 6374,
      "▁herumt": 6375,
      "▁ehr": 6376,
      "▁mitmachen": 6377,
      "▁Besitzerin": 6378,
      "Aben": 6379,
      "mehr": 6380,
      "▁erkennen": 6381,
      "worten": 6382,
      "▁verbunden": 6383,
      "ückt": 6384,
      "Stach": 6385,
      "viele": 6386,
      "▁Ker": 6387,
      "▁Zitron": 6388,
      "ätsel": 6389,
      "Ferdinand": 6390,
      "▁Näch": 6391,
      "▁flauschig": 6392,
      "▁darunter": 6393,
      "▁Buddy": 6394,
      "▁hört": 6395,
      "trö": 6396,
      "▁Mehl": 6397,
      "▁Last": 6398,
      "▁jemandem": 6399,
      "▁Karotte": 6400,
      "▁Vorb": 6401,
      "▁Blöcke": 6402,
      "itzt": 6403,
      "▁Parks": 6404,
      "▁hängen": 6405,
      "▁Sonnenblumen": 6406,
      "Na": 6407,
      "▁säen": 6408,
      "▁frisches": 6409,
      "▁Zügen": 6410,
      "▁erwachte": 6411,
      "▁rechnen": 6412,
      "▁Großes": 6413,
      "▁Weihnacht": 6414,
      "erinn": 6415,
      "▁schieben": 6416,
      "▁staunten": 6417,
      "rä": 6418,
      "▁gierig": 6419,
      "▁steil": 6420,
      "▁Verlet": 6421,
      "Frieda": 6422,
      "Fortsetzung": 6423,
      "deine": 6424,
      "ängstigen": 6425,
      "reide": 6426,
      "arbeiten": 6427,
      "▁übrig": 6428,
      "▁Kletter": 6429,
      "ständig": 6430,
      "▁zust": 6431,
      "elbe": 6432,
      "▁herauskam": 6433,
      "▁Orangen": 6434,
      "▁herauskommen": 6435,
      "▁entspannen": 6436,
      "frig": 6437,
      "griff": 6438,
      "fang": 6439,
      "▁War": 6440,
      "Aus": 6441,
      "▁schwere": 6442,
      "▁Ausgang": 6443,
      "▁feiern": 6444,
      "▁junges": 6445,
      "Micky": 6446,
      "▁wehrte": 6447,
      "▁Pfützen": 6448,
      "seln": 6449,
      "▁bestellte": 6450,
      "▁quaken": 6451,
      "Krab": 6452,
      "▁abends": 6453,
      "ha": 6454,
      "▁Förster": 6455,
      "asst": 6456,
      "▁trüb": 6457,
      "▁stoppen": 6458,
      "▁zögern": 6459,
      "kaufen": 6460,
      "ys": 6461,
      "▁wich": 6462,
      "▁Aqu": 6463,
      "Elfie": 6464,
      "Tiere": 6465,
      "▁schlau": 6466,
      "▁Puppenhaus": 6467,
      "▁Seife": 6468,
      "And": 6469,
      "ian": 6470,
      "ple": 6471,
      "ächt": 6472,
      "uffel": 6473,
      "▁Zwerg": 6474,
      "▁Wuffi": 6475,
      "▁dünnen": 6476,
      "ete": 6477,
      "▁Rake": 6478,
      "itzel": 6479,
      "▁eifrig": 6480,
      "▁Wäldern": 6481,
      "▁Segelboot": 6482,
      "▁wagte": 6483,
      "▁Kür": 6484,
      "▁Stärke": 6485,
      "▁Vorbild": 6486,
      "▁Frie": 6487,
      "chendes": 6488,
      "▁zittern": 6489,
      "▁besiegte": 6490,
      "Elefanten": 6491,
      "ussten": 6492,
      "▁berühmte": 6493,
      "▁neid": 6494,
      "▁Tomaten": 6495,
      "▁Ö": 6496,
      "▁traurigen": 6497,
      "steig": 6498,
      "einige": 6499,
      "▁Bre": 6500,
      "▁Axt": 6501,
      "▁Scheun": 6502,
      "▁schmutzigen": 6503,
      "▁Fingern": 6504,
      "brech": 6505,
      "▁erlaubte": 6506,
      "äumte": 6507,
      "Oskar": 6508,
      "aa": 6509,
      "örter": 6510,
      "▁Schwimmen": 6511,
      "▁langwei": 6512,
      "▁glän": 6513,
      "▁Stachel": 6514,
      "▁Außerirdischen": 6515,
      "etti": 6516,
      "Bens": 6517,
      "▁Fliege": 6518,
      "▁Samm": 6519,
      "▁Rätsel": 6520,
      "▁Fels": 6521,
      "nachdem": 6522,
      "▁Statue": 6523,
      "▁gleiten": 6524,
      "▁Team": 6525,
      "▁Mühe": 6526,
      "Weißt": 6527,
      "▁erholen": 6528,
      "▁Pinsel": 6529,
      "▁hässlichen": 6530,
      "Bücher": 6531,
      "ufen": 6532,
      "▁Regenbogens": 6533,
      "ienen": 6534,
      "▁brav": 6535,
      "▁Schreibt": 6536,
      "Ist": 6537,
      "berte": 6538,
      "▁gewachsen": 6539,
      "starker": 6540,
      "▁link": 6541,
      "käfer": 6542,
      "icket": 6543,
      "▁vorbeiziehen": 6544,
      "▁kluge": 6545,
      "zubringen": 6546,
      "scharfe": 6547,
      "▁bedanken": 6548,
      "▁Glücks": 6549,
      "flogen": 6550,
      "ojo": 6551,
      "▁denkt": 6552,
      "▁ziel": 6553,
      "▁überleben": 6554,
      "yle": 6555,
      "▁Popcorn": 6556,
      "elz": 6557,
      "Billy": 6558,
      "▁Überraschendes": 6559,
      "zeigte": 6560,
      "▁Kunstwerk": 6561,
      "Hast": 6562,
      "weich": 6563,
      "dies": 6564,
      "▁Ladenbesitzer": 6565,
      "▁ernähren": 6566,
      "▁neidisch": 6567,
      "mar": 6568,
      "danke": 6569,
      "▁Spazieren": 6570,
      "flüsterte": 6571,
      "▁Ged": 6572,
      "▁zerbrach": 6573,
      "▁Freiheit": 6574,
      "gelassen": 6575,
      "▁Handtuch": 6576,
      "inen": 6577,
      "▁Täl": 6578,
      "▁<|": 6579,
      "▁Wichtiges": 6580,
      "arium": 6581,
      "▁zurückgeben": 6582,
      "▁zehn": 6583,
      "▁spritzte": 6584,
      "Geschichten": 6585,
      "▁Y": 6586,
      "ähne": 6587,
      "kehrt": 6588,
      "▁unmöglich": 6589,
      "▁Sitz": 6590,
      "▁Stella": 6591,
      "▁ident": 6592,
      "▁geschn": 6593,
      "▁gewartet": 6594,
      "▁hinten": 6595,
      "fragten": 6596,
      "▁Tüte": 6597,
      "amas": 6598,
      "▁braucht": 6599,
      "▁verfolgen": 6600,
      "▁krei": 6601,
      "▁Pünktchen": 6602,
      "▁gleiche": 6603,
      "▁Leuten": 6604,
      "▁gemalt": 6605,
      "stücke": 6606,
      "▁segelten": 6607,
      "▁Hinterhof": 6608,
      "▁verh": 6609,
      "▁geliebten": 6610,
      "rutschte": 6611,
      "▁heiratete": 6612,
      "chi": 6613,
      "Lilys": 6614,
      "▁Harm": 6615,
      "▁zuckte": 6616,
      "▁Schreibtisch": 6617,
      "stieß": 6618,
      "große": 6619,
      "▁beugte": 6620,
      "recken": 6621,
      "utzten": 6622,
      "verl": 6623,
      "▁Mika": 6624,
      "▁Bord": 6625,
      "▁Wasch": 6626,
      "wärts": 6627,
      "▁Scheune": 6628,
      "Freund": 6629,
      "Nicht": 6630,
      "▁Tele": 6631,
      "▁Häl": 6632,
      "▁Rad": 6633,
      "▁müder": 6634,
      "▁drin": 6635,
      "▁schmeckten": 6636,
      "▁köstliche": 6637,
      "Käse": 6638,
      "▁Entdeckung": 6639,
      "esten": 6640,
      "▁weggelaufen": 6641,
      "▁Edelstein": 6642,
      "Krabbel": 6643,
      "Zuer": 6644,
      "▁Fall": 6645,
      "seite": 6646,
      "▁gewün": 6647,
      "▁erfuhren": 6648,
      "Zuerst": 6649,
      "ildern": 6650,
      "▁gelb": 6651,
      "▁Flussufer": 6652,
      "manchmal": 6653,
      "kind": 6654,
      "▁Ob": 6655,
      "▁Sonnenlicht": 6656,
      "▁Brust": 6657,
      "▁Sk": 6658,
      "▁Reihe": 6659,
      "▁Traurig": 6660,
      "▁Fantasie": 6661,
      "▁organis": 6662,
      "anik": 6663,
      "Willkommen": 6664,
      "▁erschrecken": 6665,
      "▁Spazierengehen": 6666,
      "fisch": 6667,
      "▁Jungs": 6668,
      "▁Fabrik": 6669,
      "▁Kammer": 6670,
      "▁betreten": 6671,
      "auben": 6672,
      "agh": 6673,
      "ständnis": 6674,
      "Nele": 6675,
      "do": 6676,
      "▁traute": 6677,
      "▁herumlaufen": 6678,
      "Zusammen": 6679,
      "Lotta": 6680,
      "raut": 6681,
      "ährt": 6682,
      "▁Schokoladenkuchen": 6683,
      "▁Hemd": 6684,
      "▁verrück": 6685,
      "▁Kartoff": 6686,
      "igh": 6687,
      "änner": 6688,
      "▁verdient": 6689,
      "▁Diamanten": 6690,
      "▁Dr": 6691,
      "▁Herde": 6692,
      "▁hässliche": 6693,
      "▁Gegenst": 6694,
      "▁Baumgeist": 6695,
      "illa": 6696,
      "▁vorgestellt": 6697,
      "▁verbrei": 6698,
      "▁ragte": 6699,
      "▁Regentropfen": 6700,
      "klettert": 6701,
      ">\"": 6702,
      "▁Rock": 6703,
      "hän": 6704,
      "▁jederzeit": 6705,
      "▁versammelten": 6706,
      "▁ungeduldig": 6707,
      "▁Sternchen": 6708,
      "gleich": 6709,
      "▁Pass": 6710,
      "flu": 6711,
      "▁Löcher": 6712,
      "▁Zebri": 6713,
      "einer": 6714,
      "zuhalten": 6715,
      "▁Lastwagen": 6716,
      "lecker": 6717,
      "▁flach": 6718,
      "regal": 6719,
      "▁wischte": 6720,
      "light": 6721,
      "▁echte": 6722,
      "▁Packung": 6723,
      "▁wählte": 6724,
      "▁blutete": 6725,
      "▁richtige": 6726,
      "sauer": 6727,
      "▁Ol": 6728,
      "▁Beere": 6729,
      "▁Welle": 6730,
      "▁geschlafen": 6731,
      "▁Wunden": 6732,
      "desto": 6733,
      "blo": 6734,
      "▁the": 6735,
      "▁gelassen": 6736,
      "▁eingeb": 6737,
      "▁blo": 6738,
      "▁runden": 6739,
      "Wolli": 6740,
      "▁kriechen": 6741,
      "▁Hotel": 6742,
      "dentität": 6743,
      "erinnerte": 6744,
      "bild": 6745,
      "▁aneinander": 6746,
      "▁Weges": 6747,
      "▁ängstlicher": 6748,
      "▁verärgert": 6749,
      "▁aufging": 6750,
      "▁kurze": 6751,
      "endete": 6752,
      "▁Zeba": 6753,
      "▁verwel": 6754,
      "▁Lieblingsp": 6755,
      "▁treuer": 6756,
      "▁orange": 6757,
      "▁Zwill": 6758,
      "▁Elfen": 6759,
      "▁Zelt": 6760,
      "▁Miez": 6761,
      "▁Schaufel": 6762,
      "aghetti": 6763,
      "eht": 6764,
      "▁Lillys": 6765,
      "▁Telefon": 6766,
      "Lucky": 6767,
      "▁Bobby": 6768,
      "▁gewünscht": 6769,
      "Be": 6770,
      "gedacht": 6771,
      "▁trieb": 6772,
      "▁Cliffhanger": 6773,
      "▁eilte": 6774,
      "forder": 6775,
      "▁wandern": 6776,
      "Sh": 6777,
      "▁Cafe": 6778,
      "▁Bel": 6779,
      "▁erinnert": 6780,
      "asste": 6781,
      "▁fau": 6782,
      "▁hoher": 6783,
      "▁sprechenden": 6784,
      "▁Pon": 6785,
      "hob": 6786,
      "▁deshalb": 6787,
      "▁lächelt": 6788,
      "▁Marm": 6789,
      "▁aufhalten": 6790,
      "▁beängstigen": 6791,
      "▁glatten": 6792,
      "ao": 6793,
      "busch": 6794,
      "ativ": 6795,
      "▁Leos": 6796,
      "▁schwind": 6797,
      "▁Probleme": 6798,
      "▁angeflogen": 6799,
      "▁Hunden": 6800,
      "▁wilde": 6801,
      "▁schweben": 6802,
      "▁mischte": 6803,
      "ehm": 6804,
      "▁gep": 6805,
      "▁bessere": 6806,
      "▁repariert": 6807,
      "▁Hannes": 6808,
      "andet": 6809,
      "▁Räume": 6810,
      "▁befreite": 6811,
      "Deine": 6812,
      "▁Schuh": 6813,
      "▁liegt": 6814,
      "reißen": 6815,
      "▁vertrauen": 6816,
      "Pl": 6817,
      "apf": 6818,
      "lieb": 6819,
      "▁Ne": 6820,
      "▁Mahlzeit": 6821,
      "▁Fieber": 6822,
      "▁Harmonie": 6823,
      "ya": 6824,
      "▁gehalten": 6825,
      "▁Roll": 6826,
      "▁Nele": 6827,
      "▁hält": 6828,
      "▁Stru": 6829,
      "▁Meeres": 6830,
      "geflogen": 6831,
      "ndes": 6832,
      "▁Wahl": 6833,
      "▁Rusty": 6834,
      "▁wünschten": 6835,
      "▁Ihre": 6836,
      "olke": 6837,
      "▁Dunk": 6838,
      "saß": 6839,
      "Poetische": 6840,
      "▁neugierige": 6841,
      "▁überallhin": 6842,
      "▁verbrannt": 6843,
      "Keks": 6844,
      "fahrt": 6845,
      "kanne": 6846,
      "▁Ro": 6847,
      "aufzu": 6848,
      "▁prass": 6849,
      "▁aufregend": 6850,
      "▁Punkt": 6851,
      "Bist": 6852,
      "lachen": 6853,
      "kehrte": 6854,
      "Lasst": 6855,
      "Men": 6856,
      "äten": 6857,
      "elig": 6858,
      "▁aufpassen": 6859,
      "▁Streich": 6860,
      "▁Elfe": 6861,
      "lli": 6862,
      "▁zerbrech": 6863,
      "▁einzigen": 6864,
      "holz": 6865,
      "wald": 6866,
      "▁achten": 6867,
      "▁Vorf": 6868,
      "ph": 6869,
      "digt": 6870,
      "▁Papag": 6871,
      "▁Täler": 6872,
      "▁gesprochen": 6873,
      "lever": 6874,
      "weisen": 6875,
      "▁Knis": 6876,
      "▁Böse": 6877,
      "Mause": 6878,
      "▁Besen": 6879,
      "regen": 6880,
      "▁hinweg": 6881,
      "▁blauer": 6882,
      "▁Fro": 6883,
      "▁brennen": 6884,
      "sammelte": 6885,
      "orten": 6886,
      "▁Meerjungfrau": 6887,
      "Vögel": 6888,
      "▁Lok": 6889,
      "▁Jane": 6890,
      "ändler": 6891,
      "▁Sä": 6892,
      "wurden": 6893,
      "▁Fersen": 6894,
      "Sand": 6895,
      "▁Heraus": 6896,
      "▁hübsche": 6897,
      "▁schrecklich": 6898,
      "▁Rakete": 6899,
      "schlug": 6900,
      "▁Häusern": 6901,
      "bereitet": 6902,
      "▁findet": 6903,
      "dunkel": 6904,
      "solange": 6905,
      "Maus": 6906,
      "▁Bedeut": 6907,
      "gekehrt": 6908,
      "▁gedie": 6909,
      "▁Troll": 6910,
      "Zum": 6911,
      "laster": 6912,
      "iver": 6913,
      "richten": 6914,
      "▁Wänden": 6915,
      "arrte": 6916,
      "▁liebevolle": 6917,
      "▁Lein": 6918,
      "▁Neugier": 6919,
      "creme": 6920,
      "blickte": 6921,
      "entdeckten": 6922,
      "▁unterstütz": 6923,
      "▁Koch": 6924,
      "gewor": 6925,
      "▁klopften": 6926,
      "▁Leckeres": 6927,
      "Jahren": 6928,
      "erin": 6929,
      "▁Traurigkeit": 6930,
      "waschen": 6931,
      "▁voraus": 6932,
      "▁kennenlernen": 6933,
      "▁frühstückte": 6934,
      "lag": 6935,
      "▁lässt": 6936,
      "▁Schüler": 6937,
      "Gen": 6938,
      "▁Nu": 6939,
      "▁Herausforder": 6940,
      "gerissen": 6941,
      "▁Fröschen": 6942,
      "Hannes": 6943,
      "stlich": 6944,
      "▁Lesen": 6945,
      "esselt": 6946,
      "Hans": 6947,
      "▁Paar": 6948,
      "▁verspreche": 6949,
      "▁verwundert": 6950,
      "ighlight": 6951,
      "gek": 6952,
      "▁Fenstern": 6953,
      "▁Dschungels": 6954,
      "Zeba": 6955,
      "▁netter": 6956,
      "tröstlich": 6957,
      "air": 6958,
      "▁moralische": 6959,
      "berg": 6960,
      "annis": 6961,
      "▁gehst": 6962,
      "estern": 6963,
      "▁untröstlich": 6964,
      "▁style": 6965,
      "▁schlimmer": 6966,
      "Liebe": 6967,
      "▁Backen": 6968,
      "upperte": 6969,
      "Gute": 6970,
      "strauß": 6971,
      "▁Verb": 6972,
      "▁wenige": 6973,
      "▁klamm": 6974,
      ".</": 6975,
      "ike": 6976,
      "▁brüllen": 6977,
      "▁Schlei": 6978,
      "▁eilten": 6979,
      "▁Gefäng": 6980,
      "▁entfernen": 6981,
      "▁clever": 6982,
      "▁Bildern": 6983,
      "▁gefesselt": 6984,
      "▁lauschten": 6985,
      "▁Kristall": 6986,
      "▁Aufgaben": 6987,
      "kühlen": 6988,
      "▁Wetter": 6989,
      "▁blühen": 6990,
      "▁zwitschern": 6991,
      "▁zielte": 6992,
      "stuhl": 6993,
      "rauch": 6994,
      "▁traten": 6995,
      "▁begruben": 6996,
      "▁helles": 6997,
      "▁Knistern": 6998,
      "▁Bedeutung": 6999,
      "Hand": 7000,
      "Kaninchen": 7001,
      "Mats": 7002,
      "ürzt": 7003,
      "▁Tomi": 7004,
      "Jede": 7005,
      "bunte": 7006,
      "wollte": 7007,
      "▁Hafen": 7008,
      "▁Blitze": 7009,
      "affy": 7010,
      "dunkle": 7011,
      "abhängig": 7012,
      "kchen": 7013,
      "▁Raben": 7014,
      "▁flachen": 7015,
      "Karl": 7016,
      "▁wertvoll": 7017,
      "▁dreck": 7018,
      "▁Schä": 7019,
      "▁weigerte": 7020,
      "▁sanfte": 7021,
      "▁Fähigkeiten": 7022,
      "▁kahl": 7023,
      "▁Wörter": 7024,
      "▁stimmt": 7025,
      "▁Notiz": 7026,
      "▁unglaublich": 7027,
      "blei": 7028,
      "▁träumen": 7029,
      "▁entführt": 7030,
      "▁for": 7031,
      "reta": 7032,
      "▁harte": 7033,
      "▁bleibt": 7034,
      "▁erhebende": 7035,
      "Menschen": 7036,
      "keine": 7037,
      "▁erntete": 7038,
      "▁Universum": 7039,
      "▁Spaghetti": 7040,
      "▁bewegten": 7041,
      "▁Pilot": 7042,
      "▁bezah": 7043,
      "▁Umwelt": 7044,
      "▁erleuchtende": 7045,
      "▁Enkelkinder": 7046,
      "▁Zahlen": 7047,
      "▁Post": 7048,
      "▁fragt": 7049,
      "Jane": 7050,
      "▁üben": 7051,
      "▁mischen": 7052,
      "▁Kochen": 7053,
      "▁Quelle": 7054,
      "▁dicker": 7055,
      "mün": 7056,
      "sh": 7057,
      "▁Kak": 7058,
      "▁Esel": 7059,
      "highlight": 7060,
      "▁ig": 7061,
      "pferd": 7062,
      "Klick": 7063,
      "brot": 7064,
      "▁kenne": 7065,
      "▁Fido": 7066,
      "▁Sunny": 7067,
      "bekam": 7068,
      "▁verdorbenen": 7069,
      "▁erforschen": 7070,
      "Schnee": 7071,
      "ohnung": 7072,
      "▁Donner": 7073,
      "▁innen": 7074,
      "▁Kürbis": 7075,
      "zurück": 7076,
      "üttete": 7077,
      "agegen": 7078,
      "▁Bir": 7079,
      "▁Kälte": 7080,
      "▁außerhalb": 7081,
      "▁Einkauf": 7082,
      "▁Ah": 7083,
      "ult": 7084,
      "äftig": 7085,
      "ou": 7086,
      "▁Ferkel": 7087,
      "▁Gummi": 7088,
      "leitete": 7089,
      "▁Fridolin": 7090,
      "ipper": 7091,
      "▁summen": 7092,
      "Nussi": 7093,
      "th": 7094,
      "▁dagegen": 7095,
      "▁Marien": 7096,
      "fj": 7097,
      "▁Flamm": 7098,
      "▁gesunde": 7099,
      "ationen": 7100,
      "Flauschi": 7101,
      "▁nod": 7102,
      "▁de": 7103,
      "emänner": 7104,
      "▁weitergehen": 7105,
      "▁Brand": 7106,
      "▁vorbeikam": 7107,
      "▁Fähigkeit": 7108,
      "dsk": 7109,
      "▁Bogen": 7110,
      "▁Aussehen": 7111,
      "▁Ros": 7112,
      "▁niedlich": 7113,
      "aken": 7114,
      "▁bringe": 7115,
      "fjdsk": 7116,
      "eckter": 7117,
      "▁zustimmen": 7118,
      "fjdskfjdsk": 7119,
      "üst": 7120,
      "hron": 7121,
      "▁vereint": 7122,
      "▁obwohl": 7123,
      "▁Aquarium": 7124,
      "Gut": 7125,
      "▁Brie": 7126,
      "▁Wild": 7127,
      "▁stapelte": 7128,
      "annkuchen": 7129,
      "▁Blumenstrauß": 7130,
      "user": 7131,
      "▁Zeich": 7132,
      "▁tiefe": 7133,
      "▁Nachricht": 7134,
      "▁aufgeweckter": 7135,
      "▁Deck": 7136,
      "▁Räuber": 7137,
      "Ach": 7138,
      "▁geschw": 7139,
      "▁wunderbare": 7140,
      "▁Kirschen": 7141,
      "▁eingeschlafen": 7142,
      "▁aussieht": 7143,
      "▁kniete": 7144,
      "▁Erdbeeren": 7145,
      "merkte": 7146,
      "▁Grün": 7147,
      "▁Wut": 7148,
      "eutel": 7149,
      "grund": 7150,
      "Ob": 7151,
      "zeich": 7152,
      "▁Gän": 7153,
      "▁Stor": 7154,
      "▁Kräuter": 7155,
      "▁Über": 7156,
      "stellung": 7157,
      "▁weite": 7158,
      "▁wahre": 7159,
      "▁unheimlich": 7160,
      "▁stud": 7161,
      "udd": 7162,
      "▁faulen": 7163,
      "▁Nachbarschaft": 7164,
      "erlin": 7165,
      "▁harten": 7166,
      "▁bil": 7167,
      "▁roter": 7168,
      "▁Krabbe": 7169,
      "▁mächtiger": 7170,
      "▁Hammer": 7171,
      "▁aufeinander": 7172,
      "▁Ehren": 7173,
      "▁lebe": 7174,
      "▁schwierigen": 7175,
      "▁Wander": 7176,
      "▁Salat": 7177,
      "▁schickte": 7178,
      "▁veränderte": 7179,
      "▁riecht": 7180,
      "▁grüner": 7181,
      "▁sehe": 7182,
      "▁vollständig": 7183,
      "▁tauchen": 7184,
      "achteten": 7185,
      "reute": 7186,
      "▁dünner": 7187,
      "▁bezahlen": 7188,
      "▁Witz": 7189,
      "▁Höhlen": 7190,
      "Kleiner": 7191,
      "aras": 7192,
      "▁Mär": 7193,
      "ais": 7194,
      "!\".": 7195,
      "▁wohne": 7196,
      "Speedy": 7197,
      "▁Bahnhofs": 7198,
      "▁zwitscher": 7199,
      "▁Regenschirm": 7200,
      "▁Glocke": 7201,
      "▁Marienkäfer": 7202,
      "hoch": 7203,
      "junge": 7204,
      "ummel": 7205,
      "▁insp": 7206,
      "ettes": 7207,
      "▁wahrer": 7208,
      "zwischen": 7209,
      "auce": 7210,
      "▁kna": 7211,
      "▁ständ": 7212,
      "nAls": 7213,
      "▁feh": 7214,
      "warf": 7215,
      "▁Glei": 7216,
      "ähnte": 7217,
      "▁erklären": 7218,
      "jektiv": 7219,
      "▁prasselte": 7220,
      "▁Biss": 7221,
      "▁Kö": 7222,
      "▁Pflaster": 7223,
      "▁sauberen": 7224,
      "▁eingeladen": 7225,
      "amin": 7226,
      "▁Miezi": 7227,
      "▁anfühlte": 7228,
      "▁gesungen": 7229,
      "öhlich": 7230,
      "▁Simba": 7231,
      "▁bewegt": 7232,
      "▁Trakt": 7233,
      "▁benannt": 7234,
      "▁'": 7235,
      "hinein": 7236,
      "▁höflich": 7237,
      "▁auftauchte": 7238,
      "▁Bro": 7239,
      "▁Thron": 7240,
      "▁funkelten": 7241,
      "▁Lotta": 7242,
      "▁mächtigen": 7243,
      "hei": 7244,
      "▁Nüssen": 7245,
      "bares": 7246,
      "▁Krone": 7247,
      "▁spannend": 7248,
      "hung": 7249,
      "▁geklettert": 7250,
      "▁geweckt": 7251,
      "ley": 7252,
      "▁Pe": 7253,
      "▁paddelte": 7254,
      "Vogel": 7255,
      "▁Blüte": 7256,
      "▁fauler": 7257,
      "▁Feuerwehrle": 7258,
      "fter": 7259,
      "hahn": 7260,
      "▁fürs": 7261,
      "ütten": 7262,
      "▁operiert": 7263,
      "esse": 7264,
      "▁verschlu": 7265,
      "wert": 7266,
      "▁Quaken": 7267,
      "schm": 7268,
      "▁Super": 7269,
      "izza": 7270,
      "▁Gedicht": 7271,
      "▁munter": 7272,
      "▁ausbrei": 7273,
      "▁kurzen": 7274,
      "▁Singen": 7275,
      "▁zusammenzu": 7276,
      "▁rechts": 7277,
      "Sieh": 7278,
      "▁Wächter": 7279,
      "▁Beweg": 7280,
      "enriette": 7281,
      "aket": 7282,
      "▁schütz": 7283,
      "ackel": 7284,
      "▁Sonnenblume": 7285,
      "Feuer": 7286,
      "aste": 7287,
      "▁Sieg": 7288,
      "Darf": 7289,
      "pflück": 7290,
      "estät": 7291,
      "▁bewusst": 7292,
      "▁Inter": 7293,
      "öscht": 7294,
      "öpfchen": 7295,
      "braunes": 7296,
      "▁hoppte": 7297,
      "mond": 7298,
      "▁Pul": 7299,
      "▁fleißige": 7300,
      "▁Dieb": 7301,
      "▁Märchen": 7302,
      "elie": 7303,
      "▁aufwachten": 7304,
      "freunden": 7305,
      "▁Ph": 7306,
      "▁schwankte": 7307,
      "pi": 7308,
      "▁silber": 7309,
      "▁hüpften": 7310,
      "schwimmen": 7311,
      "▁Enkelkindern": 7312,
      "üm": 7313,
      "▁kalte": 7314,
      "▁fliegt": 7315,
      "bösen": 7316,
      "▁würdest": 7317,
      "▁frischem": 7318,
      "▁reicher": 7319,
      "▁gekü": 7320,
      "▁konzentrieren": 7321,
      "machten": 7322,
      "▁Weihnachtsmann": 7323,
      "▁Flüss": 7324,
      "▁küssen": 7325,
      "perrt": 7326,
      "▁eingebildet": 7327,
      "kü": 7328,
      "wiesen": 7329,
      "Buddy": 7330,
      "▁erkannten": 7331,
      "▁Zeitung": 7332,
      "▁umarmt": 7333,
      "▁Mats": 7334,
      "üge": 7335,
      "▁Eiern": 7336,
      "▁Seerosenblatt": 7337,
      "familie": 7338,
      "este": 7339,
      "emy": 7340,
      "imon": 7341,
      "▁glaubt": 7342,
      "▁vermissten": 7343,
      "▁Ahnung": 7344,
      "▁Tat": 7345,
      "asta": 7346,
      "sodass": 7347,
      "merksamkeit": 7348,
      "ganz": 7349,
      "▁Wurzeln": 7350,
      "▁nachzudenken": 7351,
      "▁leckerer": 7352,
      "Puschel": 7353,
      "▁Mauer": 7354,
      "▁gefahren": 7355,
      "▁Zauberers": 7356,
      "▁erhalten": 7357,
      "ils": 7358,
      "▁gesam": 7359,
      "▁Rutschen": 7360,
      "▁verrückt": 7361,
      "Groß": 7362,
      "▁arme": 7363,
      "▁gelöscht": 7364,
      "▁Maxs": 7365,
      "bin": 7366,
      "fuhren": 7367,
      "keiten": 7368,
      "▁Weinen": 7369,
      "▁beizubringen": 7370,
      "indest": 7371,
      "▁unserem": 7372,
      "▁derselbe": 7373,
      "Pünktchen": 7374,
      "▁Veranda": 7375,
      "▁Show": 7376,
      "▁fleißiges": 7377,
      "bau": 7378,
      "▁el": 7379,
      "wartete": 7380,
      "▁Goldmün": 7381,
      "▁klatschten": 7382,
      "schönen": 7383,
      "▁veranstalteten": 7384,
      "▁mutiges": 7385,
      ";\">": 7386,
      "nor": 7387,
      "lötz": 7388,
      "▁geführt": 7389,
      "▁füllen": 7390,
      "▁Lampe": 7391,
      "▁gemeinen": 7392,
      "▁gelandet": 7393,
      "druck": 7394,
      "▁gedieh": 7395,
      "Wel": 7396,
      "▁Blöcken": 7397,
      "xualität": 7398,
      "▁inspir": 7399,
      "hund": 7400,
      "Besonders": 7401,
      "belte": 7402,
      "▁Pfei": 7403,
      "▁Benj": 7404,
      "▁unhö": 7405,
      "▁Zwillinge": 7406,
      "Hinter": 7407,
      "▁Tals": 7408,
      "▁Pfannkuchen": 7409,
      "▁Gefängnis": 7410,
      "▁Fig": 7411,
      "▁zurückgekehrt": 7412,
      "▁Dunkeln": 7413,
      "▁Aufmerksamkeit": 7414,
      "setzten": 7415,
      "Wasser": 7416,
      "▁trennen": 7417,
      "▁aufgegeben": 7418,
      "▁spitz": 7419,
      "▁nirgend": 7420,
      "ition": 7421,
      "▁Windes": 7422,
      "▁ko": 7423,
      "▁spannen": 7424,
      "▁schnupperte": 7425,
      "troll": 7426,
      "▁mutige": 7427,
      "▁nassen": 7428,
      "▁geteilt": 7429,
      "io": 7430,
      "▁läu": 7431,
      "▁trauriges": 7432,
      "erkeit": 7433,
      "Tr": 7434,
      "▁Schal": 7435,
      "▁stören": 7436,
      "ühle": 7437,
      "xuell": 7438,
      "▁vorbeikamen": 7439,
      "▁Trans": 7440,
      "▁heft": 7441,
      "bchen": 7442,
      "▁verbl": 7443,
      "▁wiederzukommen": 7444,
      "▁Leinwand": 7445,
      "Mira": 7446,
      "▁ausger": 7447,
      "apferkeit": 7448,
      "▁Bed": 7449,
      "aufgaben": 7450,
      "▁gründlich": 7451,
      "▁atem": 7452,
      "▁spiele": 7453,
      "▁Freundes": 7454,
      "▁Grä": 7455,
      "pflanzen": 7456,
      "▁verurs": 7457,
      "▁Saal": 7458,
      "heiten": 7459,
      "▁Mähne": 7460,
      "▁bedroh": 7461,
      "▁Niesen": 7462,
      "ard": 7463,
      "starb": 7464,
      "▁behandeln": 7465,
      "▁gearbeitet": 7466,
      "▁lila": 7467,
      "umsi": 7468,
      "▁langweilte": 7469,
      "▁Belohnung": 7470,
      "▁ignor": 7471,
      "pfle": 7472,
      "▁Eisen": 7473,
      "bewesen": 7474,
      "▁Maya": 7475,
      "▁Polly": 7476,
      "goldenen": 7477,
      "▁maß": 7478,
      "▁Hen": 7479,
      "urcht": 7480,
      "▁geblieben": 7481,
      "Zeit": 7482,
      "▁Anzug": 7483,
      "▁dünne": 7484,
      "▁Flecken": 7485,
      "wick": 7486,
      "zchen": 7487,
      "▁lebt": 7488,
      "▁Kühen": 7489,
      "▁fügte": 7490,
      "dorf": 7491,
      "eibe": 7492,
      "sy": 7493,
      "▁säte": 7494,
      "▁streifte": 7495,
      "▁Maler": 7496,
      "▁Superh": 7497,
      "ilfsber": 7498,
      "▁erfolgreicher": 7499,
      "ile": 7500,
      "▁wildes": 7501,
      "▁Pizza": 7502,
      "Luise": 7503,
      "▁weine": 7504,
      "▁funkel": 7505,
      "▁fünf": 7506,
      "ruh": 7507,
      "▁ungewöhn": 7508,
      "▁ganzes": 7509,
      "teilen": 7510,
      "▁großartige": 7511,
      "▁Papagei": 7512,
      "Jona": 7513,
      "stadt": 7514,
      "▁Port": 7515,
      "▁Rä": 7516,
      "▁ausp": 7517,
      "▁Lebewesen": 7518,
      "▁starkes": 7519,
      "rat": 7520,
      "▁Li": 7521,
      "▁Zimmers": 7522,
      "▁verschwanden": 7523,
      "▁sperrte": 7524,
      "▁Äng": 7525,
      "eisen": 7526,
      "ahmen": 7527,
      "▁verliebt": 7528,
      "▁Socken": 7529,
      "▁hingezogen": 7530,
      "▁Städte": 7531,
      "▁Kletterger": 7532,
      "▁verspielt": 7533,
      "ifiz": 7534,
      "dünnen": 7535,
      "▁scheu": 7536,
      "nungen": 7537,
      "▁Kisten": 7538,
      "▁abzuholen": 7539,
      "▁ekl": 7540,
      "▁Ü": 7541,
      "▁nirgends": 7542,
      "▁Jumbo": 7543,
      "angenheit": 7544,
      "Zebra": 7545,
      "Frosch": 7546,
      "▁dritten": 7547,
      "▁tötete": 7548,
      "▁Trank": 7549,
      "▁vergeben": 7550,
      "▁Schneemänner": 7551,
      "▁Vergangenheit": 7552,
      "▁Linus": 7553,
      "▁Stöcke": 7554,
      "atti": 7555,
      "▁quiet": 7556,
      "Stein": 7557,
      "▁zuflog": 7558,
      "▁Tapferkeit": 7559,
      "▁Fremder": 7560,
      "▁gefährliche": 7561,
      "▁unerwartet": 7562,
      "Ar": 7563,
      "▁zupfte": 7564,
      "▁streifen": 7565,
      "Elias": 7566,
      "▁Palast": 7567,
      "▁suche": 7568,
      "▁Kasse": 7569,
      "▁Len": 7570,
      "▁Dör": 7571,
      "▁könntest": 7572,
      "▁wag": 7573,
      "antes": 7574,
      "▁zart": 7575,
      "gebaut": 7576,
      "▁einladen": 7577,
      "▁Jagd": 7578,
      "▁kochten": 7579,
      "▁Mamas": 7580,
      "▁Gips": 7581,
      "▁weiterging": 7582,
      "▁Verband": 7583,
      "▁fröhliche": 7584,
      "▁eins": 7585,
      "stour": 7586,
      "▁verfolgt": 7587,
      "▁Flocke": 7588,
      "artes": 7589,
      "▁einge": 7590,
      "▁baden": 7591,
      "▁Paket": 7592,
      "▁Fried": 7593,
      "▁dahinter": 7594,
      "oom": 7595,
      "weißer": 7596,
      "darin": 7597,
      "staben": 7598,
      "▁Pant": 7599,
      "▁Gesichter": 7600,
      "▁Krähe": 7601,
      "▁größeren": 7602,
      "▁herumzut": 7603,
      "▁schnarchen": 7604,
      "Stella": 7605,
      "▁schwarzes": 7606,
      "▁verdienen": 7607,
      "▁Spinnchen": 7608,
      "▁Türme": 7609,
      "▁leisten": 7610,
      "▁Bef": 7611,
      "▁beruhigten": 7612,
      "▁Trom": 7613,
      "▁Rumpel": 7614,
      "▁Träumen": 7615,
      "▁drücken": 7616,
      "▁bemerk": 7617,
      "▁stapeln": 7618,
      "Mittagessen": 7619,
      "▁Nala": 7620,
      "sicher": 7621,
      "kletterten": 7622,
      "▁befreit": 7623,
      "Abenteuer": 7624,
      "▁Durch": 7625,
      "▁zustimmend": 7626,
      "Wilbur": 7627,
      "▁pflegten": 7628,
      "verletz": 7629,
      "▁Taten": 7630,
      "iggy": 7631,
      "▁Bücherregal": 7632,
      "▁glänzendes": 7633,
      "▁zwitscherten": 7634,
      "▁Mütze": 7635,
      "weis": 7636,
      "▁gemeine": 7637,
      "▁schafften": 7638,
      "▁Stachi": 7639,
      "wäh": 7640,
      "▁Ticket": 7641,
      "▁scheinen": 7642,
      "▁Jona": 7643,
      "▁real": 7644,
      "▁Berta": 7645,
      "echs": 7646,
      "▁Lieblingsplatz": 7647,
      "hur": 7648,
      "aug": 7649,
      "▁Met": 7650,
      "▁Mira": 7651,
      "▁verwendet": 7652,
      "▁Möglichkeit": 7653,
      "Fürchte": 7654,
      "▁Kakao": 7655,
      "▁atember": 7656,
      "▁zusehen": 7657,
      "Maya": 7658,
      "Rüssel": 7659,
      "undes": 7660,
      "▁nimmt": 7661,
      "Ges": 7662,
      "▁Kor": 7663,
      "▁beendet": 7664,
      "▁Pony": 7665,
      "▁Flüssigkeit": 7666,
      "zeitig": 7667,
      "▁verbar": 7668,
      "zungen": 7669,
      "▁Hühnern": 7670,
      "▁Schmetterlingen": 7671,
      "▁atemberauben": 7672,
      "▁Dor": 7673,
      "▁gesundes": 7674,
      "▁konzentrierte": 7675,
      "▁Panther": 7676,
      "maus": 7677,
      "▁Kie": 7678,
      "ego": 7679,
      "▁Grashal": 7680,
      "▁Feeli": 7681,
      "▁Rosa": 7682,
      "Dav": 7683,
      "ünder": 7684,
      "▁Mausebär": 7685,
      "▁Orangensaft": 7686,
      "▁identifiz": 7687,
      "▁Bu": 7688,
      "▁manche": 7689,
      "▁mutigen": 7690,
      "▁aufzubauen": 7691,
      "▁Objekt": 7692,
      "geworfen": 7693,
      "ittens": 7694,
      "hoh": 7695,
      "Außer": 7696,
      "begeg": 7697,
      "▁Sophia": 7698,
      "▁Wolly": 7699,
      "▁Lauf": 7700,
      "▁Freundinnen": 7701,
      "▁loszu": 7702,
      "verlassen": 7703,
      "▁schienen": 7704,
      "▁Respekt": 7705,
      "▁Eiscreme": 7706,
      "▁morgens": 7707,
      "drücken": 7708,
      "böser": 7709,
      "▁Balu": 7710,
      "▁verständnis": 7711,
      "▁veranstalten": 7712,
      "legt": 7713,
      "▁sowie": 7714,
      "▁Kratzen": 7715,
      "KW": 7716,
      "▁Ellas": 7717,
      "▁vorzustellen": 7718,
      "▁geschaffen": 7719,
      "olf": 7720,
      "▁Vers": 7721,
      "▁gruben": 7722,
      "▁fährt": 7723,
      "Draußen": 7724,
      "▁Beute": 7725,
      "▁Froschkönig": 7726,
      "▁gewöh": 7727,
      "▁beängstigend": 7728,
      "Obwohl": 7729,
      "sf": 7730,
      "silber": 7731,
      "▁nennt": 7732,
      "▁Pfeil": 7733,
      "duld": 7734,
      "▁The": 7735,
      "mitten": 7736,
      "▁kühlen": 7737,
      "▁Dav": 7738,
      "appen": 7739,
      "▁Blut": 7740,
      "Schokol": 7741,
      "▁blühte": 7742,
      "▁aufbew": 7743,
      "▁durchs": 7744,
      "▁vergab": 7745,
      "▁löste": 7746,
      "emo": 7747,
      "orge": 7748,
      "ings": 7749,
      "Linus": 7750,
      "▁Vogelbaby": 7751,
      "lauch": 7752,
      "urchter": 7753,
      "▁sollst": 7754,
      "▁aufzugeben": 7755,
      "▁tobte": 7756,
      "▁Storch": 7757,
      "züg": 7758,
      "attern": 7759,
      "öhle": 7760,
      "▁Schwimm": 7761,
      "onen": 7762,
      "▁Kult": 7763,
      "▁trink": 7764,
      "Luisa": 7765,
      "Maria": 7766,
      "heim": 7767,
      "▁Tie": 7768,
      "gender": 7769,
      "▁pein": 7770,
      "▁Schultern": 7771,
      "Wolle": 7772,
      "tie": 7773,
      "▁armen": 7774,
      "kör": 7775,
      "▁Moos": 7776,
      "▁bringt": 7777,
      "▁Luise": 7778,
      "▁Entscheid": 7779,
      "azu": 7780,
      "▁aufräumen": 7781,
      "boten": 7782,
      "▁Stofftier": 7783,
      "blieb": 7784,
      "▁Wege": 7785,
      "▁zurückkehrten": 7786,
      "▁hilflos": 7787,
      "▁Schlafengehen": 7788,
      "Pia": 7789,
      "strah": 7790,
      "▁Herbst": 7791,
      "▁Amule": 7792,
      "▁Snacks": 7793,
      "▁fegte": 7794,
      "▁Sport": 7795,
      "üllung": 7796,
      "▁Klassenzimmer": 7797,
      "bleiben": 7798,
      "col": 7799,
      "becher": 7800,
      "▁blickten": 7801,
      "▁einges": 7802,
      "▁treiben": 7803,
      "antwort": 7804,
      "schwacher": 7805,
      "▁befest": 7806,
      "▁kontroll": 7807,
      "arren": 7808,
      "▁vergif": 7809,
      "▁Landes": 7810,
      "▁teuer": 7811,
      "▁gepflanz": 7812,
      "▁betraten": 7813,
      "▁Einkaufs": 7814,
      "ischten": 7815,
      "steller": 7816,
      "ilfsbereit": 7817,
      "▁fair": 7818,
      "▁reißen": 7819,
      "ängt": 7820,
      "▁Talent": 7821,
      "Außerdem": 7822,
      "▁Sn": 7823,
      "▁ausst": 7824,
      "▁LKW": 7825,
      "recht": 7826,
      "▁Panik": 7827,
      "blicken": 7828,
      "▁Krankenwagen": 7829,
      "▁zuhören": 7830,
      "onb": 7831,
      "▁Arbei": 7832,
      "autos": 7833,
      "▁giftig": 7834,
      "erry": 7835,
      "▁duftete": 7836,
      "wig": 7837,
      "▁Staunen": 7838,
      "▁schlechter": 7839,
      "▁schimpfte": 7840,
      "▁Traktor": 7841,
      "Siehst": 7842,
      "obald": 7843,
      "▁Rezept": 7844,
      "kinder": 7845,
      "rannten": 7846,
      "▁Weizen": 7847,
      "üttelt": 7848,
      "stellten": 7849,
      "▁verwirklich": 7850,
      "▁Baches": 7851,
      "meckt": 7852,
      "ämpfen": 7853,
      "▁unternehmen": 7854,
      "▁gepflanzt": 7855,
      "Simba": 7856,
      "▁knabberte": 7857,
      "▁Beh": 7858,
      "▁Leid": 7859,
      "ingu": 7860,
      "▁passen": 7861,
      "▁erhebend": 7862,
      "▁Goldmünzen": 7863,
      "isas": 7864,
      "▁Buchstaben": 7865,
      "worteten": 7866,
      "▁Getreide": 7867,
      "▁Amulett": 7868,
      "▁kling": 7869,
      "▁Hausaufgaben": 7870,
      "ulia": 7871,
      "ippy": 7872,
      "▁peinlich": 7873,
      "▁sorgen": 7874,
      "aib": 7875,
      "uppe": 7876,
      "vom": 7877,
      "▁Hops": 7878,
      "stoff": 7879,
      "▁verletzten": 7880,
      "▁schrecklichen": 7881,
      "glänzenden": 7882,
      "▁Feuerwehrleute": 7883,
      "▁verständnisvoll": 7884,
      "▁übel": 7885,
      "▁trüben": 7886,
      "▁klammerte": 7887,
      "▁Rosen": 7888,
      "▁erschreckte": 7889,
      "▁Identität": 7890,
      "▁links": 7891,
      "▁geraten": 7892,
      "ssistenten": 7893,
      "▁Nebel": 7894,
      "▁ertrinken": 7895,
      "gal": 7896,
      "ichtern": 7897,
      "▁Sicht": 7898,
      "▁Stief": 7899,
      "riefen": 7900,
      "▁langem": 7901,
      "▁eifer": 7902,
      "verläss": 7903,
      "▁gru": 7904,
      "▁schade": 7905,
      "reckten": 7906,
      "▁geheilt": 7907,
      "▁hübsches": 7908,
      "zahn": 7909,
      "einf": 7910,
      "▁älteren": 7911,
      "▁streiten": 7912,
      "▁platz": 7913,
      "▁festhalten": 7914,
      "▁anzuschauen": 7915,
      "▁zerbrechlich": 7916,
      "▁backt": 7917,
      "▁Gänse": 7918,
      "bälle": 7919,
      "dein": 7920,
      "▁sortierte": 7921,
      "▁ehrlich": 7922,
      "▁Gegenstände": 7923,
      "▁verbarg": 7924,
      "wack": 7925,
      "▁Luisa": 7926,
      "▁erfreut": 7927,
      "▁überquerte": 7928,
      "▁Teile": 7929,
      "ray": 7930,
      "▁Leas": 7931,
      "üssi": 7932,
      "wettbewerb": 7933,
      "▁Seemann": 7934,
      "freundlichen": 7935,
      "▁fremde": 7936,
      "▁Verletzungen": 7937,
      "▁waggte": 7938,
      "Tweety": 7939,
      "▁Taube": 7940,
      "▁summten": 7941,
      "▁Tanzen": 7942,
      "Wuschel": 7943,
      "▁tapferer": 7944,
      "▁Nächte": 7945,
      "zeiten": 7946,
      "▁serv": 7947,
      "alien": 7948,
      "▁Pit": 7949,
      "▁Raja": 7950,
      "▁gestanden": 7951,
      "▁geheimnisvollen": 7952,
      "▁Einkaufen": 7953,
      "Mü": 7954,
      "zulaufen": 7955,
      "leiter": 7956,
      "bären": 7957,
      "▁füllten": 7958,
      "▁landen": 7959,
      "▁Zahnfee": 7960,
      "▁starben": 7961,
      "▁Pia": 7962,
      "▁überre": 7963,
      "▁helle": 7964,
      "ajestät": 7965,
      "EEEEEEEEEEEEEEEE": 7966,
      "▁quetschte": 7967,
      "Str": 7968,
      "blich": 7969,
      "ämm": 7970,
      "ichts": 7971,
      "▁Fluch": 7972,
      "▁anfingen": 7973,
      "▁Elias": 7974,
      "▁erschießen": 7975,
      "▁erschraken": 7976,
      "ilet": 7977,
      "▁Schrift": 7978,
      "zählt": 7979,
      "▁erwachsener": 7980,
      "▁klugen": 7981,
      "▁Schock": 7982,
      "▁Mila": 7983,
      "yn": 7984,
      "Quiet": 7985,
      "▁Orten": 7986,
      "▁gleichzeitig": 7987,
      "▁Befehl": 7988,
      "▁wegging": 7989,
      "▁langsamer": 7990,
      "erseits": 7991,
      "▁bitteren": 7992,
      "▁dauern": 7993,
      "▁anb": 7994,
      "▁wiederzufinden": 7995,
      "äuch": 7996,
      "▁wiegen": 7997,
      "▁drän": 7998,
      "▁rutschten": 7999,
      "▁Juwelen": 8000,
      "▁Weich": 8001,
      "OK": 8002,
      "▁ruhigen": 8003,
      "▁Nachthimmel": 8004,
      "winkte": 8005,
      "freunde": 8006,
      "▁Nachttisch": 8007,
      "▁erfrischt": 8008,
      "▁Gep": 8009,
      "gesund": 8010,
      "Annas": 8011,
      "iol": 8012,
      "mussten": 8013,
      "▁fassen": 8014,
      "schloss": 8015,
      "▁vollen": 8016,
      "umps": 8017,
      "▁Getränk": 8018,
      "Niko": 8019,
      "ämmer": 8020,
      "▁kuschel": 8021,
      "▁Gabe": 8022,
      "mü": 8023,
      "▁Büh": 8024,
      "▁Hin": 8025,
      "▁Hütten": 8026,
      "▁schläf": 8027,
      "irps": 8028,
      "▁dreckig": 8029,
      "Dabei": 8030,
      "Ge": 8031,
      "Lili": 8032,
      "Rex": 8033,
      "▁weckte": 8034,
      "▁warnte": 8035,
      "▁Schafen": 8036,
      "▁Elf": 8037,
      "ifft": 8038,
      "▁Wohnung": 8039,
      "▁Klettern": 8040,
      "uel": 8041,
      "▁wilder": 8042,
      "lied": 8043,
      "▁hängte": 8044,
      "▁läuft": 8045,
      "ilfsbereitschaft": 8046,
      "Woh": 8047,
      "▁merkwürdiges": 8048,
      "▁Kasten": 8049,
      "stecken": 8050,
      "▁Flitzi": 8051,
      "▁Pfanne": 8052,
      "▁aktiv": 8053,
      "▁Sessel": 8054,
      "▁Lili": 8055,
      "Eins": 8056,
      "▁erleuchtete": 8057,
      "eres": 8058,
      "▁wundervolle": 8059,
      "▁versprochen": 8060,
      "▁vertrieben": 8061,
      "udert": 8062,
      "Zwitsch": 8063,
      "▁Schwar": 8064,
      "▁versammelt": 8065,
      "▁Toilet": 8066,
      "▁eifersüchtig": 8067,
      "Lö": 8068,
      "ork": 8069,
      "▁Tin": 8070,
      "▁Elfi": 8071,
      "▁keiner": 8072,
      "Mut": 8073,
      "ifi": 8074,
      "ath": 8075,
      "▁Wert": 8076,
      "▁Unterschied": 8077,
      "party": 8078,
      "undheit": 8079,
      "▁statt": 8080,
      "direktor": 8081,
      "emand": 8082,
      "▁rollten": 8083,
      "▁jün": 8084,
      "▁einfarbig": 8085,
      "▁schämen": 8086,
      "astik": 8087,
      "▁hilfst": 8088,
      "▁extr": 8089,
      "Gir": 8090,
      "▁Merkwürdiges": 8091,
      "▁Mais": 8092,
      "▁mel": 8093,
      "▁verde": 8094,
      "▁geschmeckt": 8095,
      "blättern": 8096,
      "pelz": 8097,
      "▁Metall": 8098,
      "▁Tän": 8099,
      "▁könnt": 8100,
      "Spinn": 8101,
      "▁aufzuhalten": 8102,
      "getragen": 8103,
      "▁Erkält": 8104,
      "▁zeichnete": 8105,
      "hh": 8106,
      "▁ch": 8107,
      "▁klapp": 8108,
      "losen": 8109,
      "▁unruhig": 8110,
      "▁zeige": 8111,
      "▁aktiver": 8112,
      "sei": 8113,
      "stall": 8114,
      "äuser": 8115,
      "beschlossen": 8116,
      "iek": 8117,
      "▁gähnte": 8118,
      "iene": 8119,
      "▁erwischt": 8120,
      "▁Unterricht": 8121,
      "▁üppig": 8122,
      "istallklar": 8123,
      "häss": 8124,
      "▁eu": 8125,
      "▁Stöcken": 8126,
      "▁Anfang": 8127,
      "▁glänzte": 8128,
      "pfleger": 8129,
      "▁Dornen": 8130,
      "▁verwirklicht": 8131,
      "ersch": 8132,
      "▁Leiden": 8133,
      "▁Burgen": 8134,
      "allein": 8135,
      "▁angen": 8136,
      "Baum": 8137,
      "▁gejagt": 8138,
      "▁David": 8139,
      "▁Miss": 8140,
      "▁Verhalten": 8141,
      "▁Bahnsteig": 8142,
      "▁Bühne": 8143,
      "ussell": 8144,
      "Spielen": 8145,
      "Pit": 8146,
      "morgen": 8147,
      "▁Schnucki": 8148,
      "▁crem": 8149,
      "▁angefangen": 8150,
      "▁farben": 8151,
      "▁gewaschen": 8152,
      "▁gewohnt": 8153,
      "▁kluges": 8154,
      "▁Tem": 8155,
      "onster": 8156,
      "▁unsicht": 8157,
      "▁schwor": 8158,
      "wurz": 8159,
      "gihgihgihgih": 8160,
      "▁Struppi": 8161,
      "▁majestät": 8162,
      "bereit": 8163,
      "▁str": 8164,
      "elli": 8165,
      "▁Körner": 8166,
      "herum": 8167,
      "▁Puzz": 8168,
      "Bobby": 8169,
      "▁Friedhof": 8170,
      "mus": 8171,
      "▁zugleich": 8172,
      "elade": 8173,
      "▁Krie": 8174,
      "▁mitfühlen": 8175,
      "▁Strol": 8176,
      "▁Trauben": 8177,
      "▁fröhlichen": 8178,
      "ssssssssssssssssssssssssssssssss": 8179,
      "!<": 8180,
      "hält": 8181,
      "▁Ländern": 8182,
      "▁Erkältung": 8183,
      "llllllll": 8184,
      "▁gossen": 8185,
      "▁Gleich": 8186,
      "▁Reich": 8187,
      "▁unsichtbar": 8188,
      "dige": 8189,
      "hat": 8190,
      "▁Horn": 8191,
      "▁klebrig": 8192,
      "▁Quaxi": 8193,
      "David": 8194,
      "traurig": 8195,
      "Co": 8196,
      "▁gewusst": 8197,
      "▁sinken": 8198,
      "▁kre": 8199,
      "▁Gericht": 8200,
      "▁glüh": 8201,
      "uli": 8202,
      "uf": 8203,
      "▁ausgel": 8204,
      "▁blaues": 8205,
      "▁berühmt": 8206,
      "▁Mögliche": 8207,
      "▁welche": 8208,
      "▁farbenf": 8209,
      "▁Schneeballschl": 8210,
      "Ol": 8211,
      "ho": 8212,
      "wanne": 8213,
      "welchen": 8214,
      "▁Spielzeugautos": 8215,
      "schlagen": 8216,
      "Ironisch": 8217,
      "Eier": 8218,
      "▁ange": 8219,
      "▁Schäfchen": 8220,
      "▁gewöhn": 8221,
      "▁lobte": 8222,
      "▁verwelkt": 8223,
      "Aut": 8224,
      "▁Flö": 8225,
      "rauf": 8226,
      "▁Monate": 8227,
      "ipes": 8228,
      "▁fließen": 8229,
      "▁ständig": 8230,
      "brocken": 8231,
      "▁schuldig": 8232,
      "omas": 8233,
      "▁kühl": 8234,
      "▁Fernseh": 8235,
      "isst": 8236,
      "▁anschauen": 8237,
      "▁rasch": 8238,
      "▁vornahm": 8239,
      "▁gesünder": 8240,
      "▁Eicheln": 8241,
      "▁herumzutollen": 8242,
      "klötz": 8243,
      "▁verpass": 8244,
      "▁Zehen": 8245,
      "wirst": 8246,
      "▁siehe": 8247,
      "▁Coco": 8248,
      "vielleicht": 8249,
      "tür": 8250,
      "ahrungen": 8251,
      "blumen": 8252,
      "▁glatte": 8253,
      "▁Erfahrungen": 8254,
      "▁perfekte": 8255,
      "▁zueinander": 8256,
      "▁Bällen": 8257,
      "▁magisch": 8258,
      "▁Reisfeld": 8259,
      "▁Papas": 8260,
      "drehen": 8261,
      "lachte": 8262,
      "rollen": 8263,
      "▁Sinn": 8264,
      "▁geschlagen": 8265,
      "Krümel": 8266,
      "▁Mark": 8267,
      "▁Merlin": 8268,
      "örten": 8269,
      "▁Blümchen": 8270,
      "▁betro": 8271,
      "idt": 8272,
      "▁winzig": 8273,
      "Frederik": 8274,
      "jetzt": 8275,
      "ägt": 8276,
      "ierter": 8277,
      "▁netten": 8278,
      "▁zuverläss": 8279,
      "▁bieten": 8280,
      "▁Gate": 8281,
      "▁müsst": 8282,
      "erkannte": 8283,
      "appy": 8284,
      "▁schmerzte": 8285,
      "kkkkkkkk": 8286,
      "Stern": 8287,
      "▁Block": 8288,
      "unabhängig": 8289,
      "▁beschä": 8290,
      "ndete": 8291,
      "römte": 8292,
      "Mausebär": 8293,
      "▁Toilette": 8294,
      "anc": 8295,
      "mmy": 8296,
      "▁Scheibe": 8297,
      "▁Dien": 8298,
      "▁engen": 8299,
      "▁vorbeifahren": 8300,
      "▁beeindrucken": 8301,
      "neugier": 8302,
      "▁Garage": 8303,
      "▁Sammlung": 8304,
      "Opa": 8305,
      "bter": 8306,
      "Zucker": 8307,
      "chtete": 8308,
      "▁benutzten": 8309,
      "▁schub": 8310,
      "▁Van": 8311,
      "▁gegraben": 8312,
      "▁Badewanne": 8313,
      "schnitt": 8314,
      "exual": 8315,
      "reisen": 8316,
      "ippte": 8317,
      "▁Sams": 8318,
      "riff": 8319,
      "▁Krachen": 8320,
      "▁angeln": 8321,
      "ützung": 8322,
      "▁Gepäck": 8323,
      "stützung": 8324,
      "▁Lil": 8325,
      "Einen": 8326,
      "▁gespr": 8327,
      "aschinen": 8328,
      "jenigen": 8329,
      "ynn": 8330,
      "Mila": 8331,
      "▁Kreu": 8332,
      "▁vorwärts": 8333,
      "ellschaft": 8334,
      "etzger": 8335,
      "▁weiterleben": 8336,
      "Geschichte": 8337,
      "▁and": 8338,
      "▁wü": 8339,
      "▁bückte": 8340,
      "▁umkehren": 8341,
      "▁aufzuräumen": 8342,
      "▁Gemein": 8343,
      "bäume": 8344,
      "▁einkaufen": 8345,
      "trat": 8346,
      "zumachen": 8347,
      "äge": 8348,
      "äne": 8349,
      "▁schießen": 8350,
      "▁Kalle": 8351,
      "▁reichten": 8352,
      "▁Deckel": 8353,
      "wind": 8354,
      "▁vieles": 8355,
      "▁gezählt": 8356,
      "▁entlassen": 8357,
      "ateri": 8358,
      "▁planschen": 8359,
      "ähmt": 8360,
      "▁sauren": 8361,
      "Nüsse": 8362,
      "fangen": 8363,
      "nlich": 8364,
      "▁umzu": 8365,
      "▁Karussell": 8366,
      "▁Metzger": 8367,
      "genden": 8368,
      "▁gelähmt": 8369,
      "mächtig": 8370,
      "uchzte": 8371,
      "▁Plastik": 8372,
      "▁funktionierte": 8373,
      "▁verbreitete": 8374,
      "roter": 8375,
      "sexualität": 8376,
      "▁Atemzug": 8377,
      "äbe": 8378,
      "▁steht": 8379,
      "▁kuscheln": 8380,
      "▁He": 8381,
      "▁mitgerissen": 8382,
      "▁begleiten": 8383,
      "immern": 8384,
      "▁Muff": 8385,
      "▁ewig": 8386,
      "korn": 8387,
      "ox": 8388,
      "ztin": 8389,
      "▁heruntergekommen": 8390,
      "▁unhöflich": 8391,
      "▁Eiswagen": 8392,
      "Schnell": 8393,
      "scharfen": 8394,
      "▁band": 8395,
      "▁untergegangen": 8396,
      "▁verlorenen": 8397,
      "Elfi": 8398,
      "▁winziges": 8399,
      "▁sehnte": 8400,
      "▁scheint": 8401,
      "tzünd": 8402,
      "▁zwischendurch": 8403,
      "summsumm": 8404,
      "▁schläfrig": 8405,
      "netz": 8406,
      "aumen": 8407,
      "▁verschrieb": 8408,
      "▁Handvoll": 8409,
      "kept": 8410,
      "▁Biber": 8411,
      "▁herrlich": 8412,
      "▁Gott": 8413,
      "goldenes": 8414,
      "Fangen": 8415,
      "eilen": 8416,
      "▁Laib": 8417,
      "tragen": 8418,
      "Milch": 8419,
      "ohl": 8420,
      "ktiv": 8421,
      "▁Seen": 8422,
      "▁Regale": 8423,
      "▁davonflog": 8424,
      "▁geheime": 8425,
      "▁Mümmel": 8426,
      "!\\": 8427,
      "treten": 8428,
      "▁At": 8429,
      "bart": 8430,
      "▁Unterstützung": 8431,
      "▁Gewicht": 8432,
      "natürlich": 8433,
      "süßen": 8434,
      "▁freudig": 8435,
      "▁Tricks": 8436,
      "),": 8437,
      "Nala": 8438,
      "▁ertragen": 8439,
      "▁Foto": 8440,
      "Wolly": 8441,
      "meister": 8442,
      "▁Silber": 8443,
      "rech": 8444,
      "▁überzeug": 8445,
      "▁bewahr": 8446,
      "fleisch": 8447,
      "ide": 8448,
      "▁lass": 8449,
      "unas": 8450,
      "▁Wä": 8451,
      "▁begleitete": 8452,
      "▁herumliefen": 8453,
      "▁stießen": 8454,
      "▁Otto": 8455,
      "▁abkühlen": 8456,
      "▁Gender": 8457,
      "▁gehorchen": 8458,
      "bem": 8459,
      "▁Minki": 8460,
      "▁grasen": 8461,
      "Sophia": 8462,
      "nügen": 8463,
      "olzen": 8464,
      "▁trauen": 8465,
      "▁kristallklar": 8466,
      "▁Adjektiv": 8467,
      "▁köstlicher": 8468,
      "Flitzi": 8469,
      "▁Wölkchen": 8470,
      "Harry": 8471,
      "nder": 8472,
      "▁kannten": 8473,
      "▁Wochenende": 8474,
      "alent": 8475,
      "igten": 8476,
      "▁sowohl": 8477,
      "▁zurückgekommen": 8478,
      "▁beliebt": 8479,
      "▁extra": 8480,
      "Kik": 8481,
      "sangen": 8482,
      "Gehen": 8483,
      "Pe": 8484,
      "orsch": 8485,
      "▁Apfelkuchen": 8486,
      "gehol": 8487,
      "Egal": 8488,
      "ötig": 8489,
      "▁ohn": 8490,
      "▁Pingu": 8491,
      "▁Feuers": 8492,
      "▁Bösen": 8493,
      "▁Fotos": 8494,
      "▁bewusstlos": 8495,
      "runder": 8496,
      "▁Afr": 8497,
      "▁Niko": 8498,
      "▁durften": 8499,
      "▁Eu": 8500,
      "▁Schmidt": 8501,
      "▁Richtungen": 8502,
      "▁auftauchen": 8503,
      "▁Leidenschaft": 8504,
      "▁erhielt": 8505,
      "bett": 8506,
      "tieren": 8507,
      "ausend": 8508,
      "egas": 8509,
      "▁Viel": 8510,
      "▁Stühle": 8511,
      "eisterung": 8512,
      "quet": 8513,
      "▁Decken": 8514,
      "▁Quietschi": 8515,
      "▁kontrollieren": 8516,
      "▁schüttete": 8517,
      "orgte": 8518,
      "▁liebst": 8519,
      "lauf": 8520,
      "Benj": 8521,
      "ohnten": 8522,
      "▁startete": 8523,
      "ussel": 8524,
      "▁Passag": 8525,
      "uschelt": 8526,
      "▁verschm": 8527,
      "Warte": 8528,
      "▁gefährlichen": 8529,
      "▁gefährlicher": 8530,
      "▁grin": 8531,
      "▁schlüpfen": 8532,
      "bank": 8533,
      "nein": 8534,
      "▁fällt": 8535,
      "▁weggehen": 8536,
      "▁verfl": 8537,
      "brü": 8538,
      "▁sehn": 8539,
      "ückten": 8540,
      "▁treuen": 8541,
      "▁genannt": 8542,
      "▁interessanten": 8543,
      "▁gebrochenen": 8544,
      "▁Erkund": 8545,
      "keptisch": 8546,
      "Wuffi": 8547,
      "bs": 8548,
      "stür": 8549,
      "▁Lichter": 8550,
      "Giraffen": 8551,
      "älte": 8552,
      "▁Henny": 8553,
      "▁Hilfsbereitschaft": 8554,
      "ierendes": 8555,
      "▁Tagebuch": 8556,
      "▁anzugreifen": 8557,
      "▁sank": 8558,
      "Sure": 8559,
      "▁Begeisterung": 8560,
      "▁geschnitten": 8561,
      "▁Bäche": 8562,
      ".\"<": 8563,
      "▁hättest": 8564,
      "▁Unterholz": 8565,
      "▁Puzzle": 8566,
      "ichtet": 8567,
      "▁backten": 8568,
      "▁beenden": 8569,
      "▁ausprob": 8570,
      "▁skeptisch": 8571,
      "illis": 8572,
      "▁Teichs": 8573,
      "▁Ausruhen": 8574,
      "▁dadurch": 8575,
      "▁erlöst": 8576,
      "alie": 8577,
      "▁malten": 8578,
      "▁Regeln": 8579,
      "klo": 8580,
      "▁Hose": 8581,
      "▁Henne": 8582,
      "▁Polizist": 8583,
      "▁Medikament": 8584,
      "▁Exp": 8585,
      "ahm": 8586,
      "▁Gor": 8587,
      "omot": 8588,
      "▁versuche": 8589,
      "uldigung": 8590,
      "wolke": 8591,
      "▁Schaden": 8592,
      "▁kür": 8593,
      "▁Whiskers": 8594,
      "▁glitz": 8595,
      "▁schlechtes": 8596,
      "▁Falke": 8597,
      "▁gelaufen": 8598,
      "affee": 8599,
      "▁gebannt": 8600,
      "▁ohnmächtig": 8601,
      "nissen": 8602,
      "▁Maschinen": 8603,
      "▁schicken": 8604,
      "▁Tierpfleger": 8605,
      "▁schnüff": 8606,
      "ikum": 8607,
      "▁Brise": 8608,
      "▁Entchen": 8609,
      "▁echtes": 8610,
      "▁Glüh": 8611,
      "Balu": 8612,
      "tanz": 8613,
      "▁bekommt": 8614,
      "lad": 8615,
      "gemüt": 8616,
      "wenden": 8617,
      "▁angezogen": 8618,
      "▁berührten": 8619,
      "▁tiefes": 8620,
      "▁wehgetan": 8621,
      "bissen": 8622,
      "fle": 8623,
      "▁Krug": 8624,
      "▁erfolgreiche": 8625,
      "▁Fein": 8626,
      "▁zerk": 8627,
      "mahl": 8628,
      "va": 8629,
      "▁liest": 8630,
      "▁Trauer": 8631,
      "schwer": 8632,
      "▁Gang": 8633,
      "▁Nomen": 8634,
      "irpy": 8635,
      "schmutz": 8636,
      "▁hoffen": 8637,
      "▁Händler": 8638,
      "decke": 8639,
      "offt": 8640,
      "laubnis": 8641,
      "▁letztes": 8642,
      "kiste": 8643,
      "ens": 8644,
      "▁Graben": 8645,
      "▁vertie": 8646,
      "▁rechnete": 8647,
      "▁Schriftsteller": 8648,
      "ini": 8649,
      "▁Feuerwehrmann": 8650,
      "gfalt": 8651,
      "kek": 8652,
      "▁Erlaubnis": 8653,
      "▁nähern": 8654,
      "▁schwarzer": 8655,
      "▁Rufen": 8656,
      "▁Straßenrand": 8657,
      "drigen": 8658,
      "mi": 8659,
      "▁aufstand": 8660,
      "▁stach": 8661,
      "▁ausruh": 8662,
      "▁dasselbe": 8663,
      "ährte": 8664,
      "▁Seele": 8665,
      "gänge": 8666,
      "▁herauszu": 8667,
      "▁Sorgfalt": 8668,
      "▁Entscheidung": 8669,
      "▁Mik": 8670,
      "▁packen": 8671,
      "▁Gesundheit": 8672,
      "▁sauberes": 8673,
      "äste": 8674,
      "▁beschwer": 8675,
      "▁küssten": 8676,
      "ven": 8677,
      "▁Ha": 8678,
      "ola": 8679,
      "Schön": 8680,
      "aries": 8681,
      "▁schaukelten": 8682,
      "▁entschuldigten": 8683,
      "ckchen": 8684,
      "werde": 8685,
      "▁miauen": 8686,
      "▁interessierte": 8687,
      "gibt": 8688,
      "plett": 8689,
      "▁wiederher": 8690,
      "weite": 8691,
      "▁Lieblingsk": 8692,
      "▁hasste": 8693,
      "egasus": 8694,
      "Fe": 8695,
      "▁Männern": 8696,
      "▁Böses": 8697,
      "▁Taschenl": 8698,
      "indung": 8699,
      "leihen": 8700,
      "▁Kette": 8701,
      "▁Flitz": 8702,
      "▁Bennys": 8703,
      "buntes": 8704,
      "strahlen": 8705,
      "▁Erst": 8706,
      "▁Plüsch": 8707,
      "▁Überraschungen": 8708,
      "▁unterstützten": 8709,
      "ichtete": 8710,
      "▁wegfliegen": 8711,
      "▁sauberer": 8712,
      "▁schüttelten": 8713,
      "▁änd": 8714,
      "▁droh": 8715,
      "Einer": 8716,
      "▁Films": 8717,
      "▁Prinzessinnen": 8718,
      "▁Ballons": 8719,
      "▁getrennt": 8720,
      "▁esse": 8721,
      "▁Strom": 8722,
      "▁Höhe": 8723,
      "▁flattern": 8724,
      "▁tapferen": 8725,
      "▁Vorstellung": 8726,
      "▁Perle": 8727,
      "▁Zitrone": 8728,
      "▁Klettergerüst": 8729,
      "▁Dörfer": 8730,
      "schließlich": 8731,
      "holt": 8732,
      "▁Jacke": 8733,
      "darauf": 8734,
      "ungslos": 8735,
      "▁vorzulesen": 8736,
      "▁Marmelade": 8737,
      "▁Kiesel": 8738,
      "fügen": 8739,
      "▁furchter": 8740,
      "▁tä": 8741,
      "▁nachgedacht": 8742,
      "▁spannende": 8743,
      "sty": 8744,
      "▁verbrannte": 8745,
      "▁einschüchtern": 8746,
      "▁Luftballons": 8747,
      "▁verdiente": 8748,
      "▁flauschigen": 8749,
      "iu": 8750,
      "▁Sir": 8751,
      "▁Käsekuchen": 8752,
      "Kommt": 8753,
      "sung": 8754,
      "schig": 8755,
      "angsam": 8756,
      "▁Mausel": 8757,
      "nahmen": 8758,
      "▁Bewegung": 8759,
      "Gem": 8760,
      "ve": 8761,
      "▁merkwür": 8762,
      "▁Terr": 8763,
      "▁nachden": 8764,
      "▁Frosches": 8765,
      "▁Planet": 8766,
      "Steine": 8767,
      "▁Korallen": 8768,
      "▁drauf": 8769,
      "▁großzüg": 8770,
      "▁heiraten": 8771,
      "bauten": 8772,
      "itel": 8773,
      "wesen": 8774,
      "▁Bonb": 8775,
      "▁enge": 8776,
      "▁Kratz": 8777,
      "▁Schnuffi": 8778,
      "hinter": 8779,
      "▁wärmte": 8780,
      "Genau": 8781,
      "Mir": 8782,
      "▁unverg": 8783,
      "unt": 8784,
      "▁überzeugen": 8785,
      "▁besaß": 8786,
      "▁Erfüllung": 8787,
      "nDie": 8788,
      "▁Gänge": 8789,
      "▁ragten": 8790,
      "▁Interess": 8791,
      "▁komplett": 8792,
      "▁Tänzer": 8793,
      "Weine": 8794,
      "▁Betten": 8795,
      "diger": 8796,
      "▁Hal": 8797,
      "▁mitgenommen": 8798,
      "rakt": 8799,
      "▁ruhte": 8800,
      "▁Brote": 8801,
      "▁Wimmern": 8802,
      "dieses": 8803,
      "▁Kaffeeb": 8804,
      "▁gemütliches": 8805,
      "▁Bohnen": 8806,
      "▁Kindes": 8807,
      "▁reisten": 8808,
      "Assistent": 8809,
      "Kuchen": 8810,
      "höl": 8811,
      "▁zugehört": 8812,
      "ichtum": 8813,
      "ffi": 8814,
      "▁Handsch": 8815,
      "▁vergiftet": 8816,
      "geholt": 8817,
      "▁merkten": 8818,
      "▁Com": 8819,
      "arbeiter": 8820,
      "▁Ruderboot": 8821,
      "mutigen": 8822,
      "▁Bienchen": 8823,
      "▁Sorten": 8824,
      "goldener": 8825,
      "hatten": 8826,
      "▁hattest": 8827,
      "▁reif": 8828,
      "▁Spinnennetz": 8829,
      "Banane": 8830,
      "Pr": 8831,
      "▁wächst": 8832,
      "▁betrachteten": 8833,
      "▁aufzustehen": 8834,
      "▁leere": 8835,
      "▁Babys": 8836,
      "▁begrüßt": 8837,
      "hüpfte": 8838,
      "▁unvergess": 8839,
      "Whiskers": 8840,
      "nVon": 8841,
      "▁Koko": 8842,
      "▁Sprache": 8843,
      "▁Cray": 8844,
      "▁Edelsteine": 8845,
      "▁Drak": 8846,
      "▁Gespr": 8847,
      "▁Sandwiches": 8848,
      "flas": 8849,
      "prü": 8850,
      "▁Rot": 8851,
      "▁anderem": 8852,
      "Quaxi": 8853,
      "▁nachsehen": 8854,
      "▁Felsbrocken": 8855,
      "Fido": 8856,
      "eise": 8857,
      "icki": 8858,
      "▁blä": 8859,
      "▁befanden": 8860,
      "Mümmel": 8861,
      "▁betrogen": 8862,
      "▁zuhörte": 8863,
      "▁redete": 8864,
      "spitze": 8865,
      "▁Apfelsaft": 8866,
      "▁eis": 8867,
      "▁weicher": 8868,
      "▁friedlichen": 8869,
      "enzen": 8870,
      "▁überblicken": 8871,
      "ffer": 8872,
      "▁hohes": 8873,
      "▁trockenen": 8874,
      "▁stren": 8875,
      "▁getragen": 8876,
      "▁bereitete": 8877,
      "▁deut": 8878,
      "sauber": 8879,
      "▁furcht": 8880,
      "▁Haken": 8881,
      "btes": 8882,
      "Rosa": 8883,
      "ensch": 8884,
      "▁stechen": 8885,
      "icke": 8886,
      "olken": 8887,
      "▁fürchtete": 8888,
      "▁Käs": 8889,
      "▁Orange": 8890,
      "▁Zebi": 8891,
      "▁kicken": 8892,
      "ehens": 8893,
      "▁weitermachen": 8894,
      "▁Bauklötz": 8895,
      "▁Ungeh": 8896,
      "▁Grube": 8897,
      "sprangen": 8898,
      "▁zauberte": 8899,
      "▁Kartoffeln": 8900,
      "pflückte": 8901,
      "Timmi": 8902,
      "hem": 8903,
      "▁wichtigen": 8904,
      "▁hingehen": 8905,
      "küken": 8906,
      "Fee": 8907,
      "vin": 8908,
      "▁män": 8909,
      "▁Rolle": 8910,
      "▁Mary": 8911,
      "▁schwanken": 8912,
      "▁Kleiner": 8913,
      "rollte": 8914,
      "▁erblickte": 8915,
      "▁Bub": 8916,
      "▁verhalten": 8917,
      "▁gestellt": 8918,
      "llt": 8919,
      "▁Schlosses": 8920,
      "▁wählen": 8921,
      "Ig": 8922,
      "Wurst": 8923,
      "fü": 8924,
      "plötzlich": 8925,
      "ragte": 8926,
      "▁Sm": 8927,
      "▁Timmi": 8928,
      "▁aufzuheben": 8929,
      "▁mächtige": 8930,
      "wissen": 8931,
      "▁Lisas": 8932,
      "▁Joe": 8933,
      "ätsch": 8934,
      "▁Bildschirm": 8935,
      "Fridolin": 8936,
      "schluss": 8937,
      "Joe": 8938,
      "▁Köpfe": 8939,
      "▁gesunden": 8940,
      "▁Flipper": 8941,
      "▁hineingehen": 8942,
      "trolle": 8943,
      "▁Karam": 8944,
      "Miez": 8945,
      "▁Fernseher": 8946,
      "nEines": 8947,
      "▁Waff": 8948,
      "▁Käses": 8949,
      "▁hoppelte": 8950,
      "ole": 8951,
      "▁Sues": 8952,
      "▁aufge": 8953,
      "lover": 8954,
      "▁Flugzeugen": 8955,
      "flauschigen": 8956,
      "▁ausbreitete": 8957,
      "bunter": 8958,
      "arter": 8959,
      "▁Tassen": 8960,
      "▁glücklichste": 8961,
      "▁Stiel": 8962,
      "▁Bleist": 8963,
      "▁schwachen": 8964,
      "Überraschen": 8965,
      "▁winken": 8966,
      "▁Zie": 8967,
      "▁Tierchen": 8968,
[...]
