{
  "version": "1.0",
  "truncation": null,
  "padding": null,
  "added_tokens": [
    {
      "id": 0,
      "content": "<|PAD|>",
      "single_word": false,
      "lstrip": false,
      "rstrip": false,
      "normalized": false,
      "special": true
    },
    {
      "id": 1,
      "content": "<|BOS|>",
      "single_word": false,
      "lstrip": false,
      "rstrip": false,
      "normalized": false,
      "special": true
    },
    {
      "id": 2,
      "content": "<|EOS|>",
      "single_word": false,
      "lstrip": false,
      "rstrip": false,
      "normalized": false,
      "special": true
    },
    {
      "id": 3,
      "content": "<|UNK|>",
      "single_word": false,
      "lstrip": false,
      "rstrip": false,
      "normalized": false,
      "special": true
    }
  ],
  "normalizer": {
    "type": "NFKC"
  },
  "pre_tokenizer": {
    "type": "Sequence",
    "pretokenizers": [
      {
        "type": "UnicodeScripts"
      },
      {
        "type": "Digits",
        "individual_digits": true
      },
      {
        "type": "Metaspace",
        "replacement": "▁",
        "prepend_scheme": "never",
        "split": true
      }
    ]
  },
  "post_processor": {
    "type": "TemplateProcessing",
    "single": [
      {
        "SpecialToken": {
          "id": "<|BOS|>",
          "type_id": 0
        }
      },
      {
        "Sequence": {
          "id": "A",
          "type_id": 0
        }
      },
      {
        "SpecialToken": {
          "id": "<|EOS|>",
          "type_id": 0
        }
      }
    ],
    "pair": [
      {
        "SpecialToken": {
          "id": "<|BOS|>",
          "type_id": 0
        }
      },
      {
        "Sequence": {
          "id": "A",
          "type_id": 0
        }
      },
      {
        "SpecialToken": {
          "id": "<|EOS|>",
          "type_id": 0
        }
      },
      {
        "SpecialToken": {
          "id": "<|BOS|>",
          "type_id": 1
        }
      },
      {
        "Sequence": {
          "id": "B",
          "type_id": 1
        }
      },
      {
        "SpecialToken": {
          "id": "<|EOS|>",
          "type_id": 1
        }
      }
    ],
    "special_tokens": {
      "<|BOS|>": {
        "id": "<|BOS|>",
        "ids": [
          1
        ],
        "tokens": [
          "<|BOS|>"
        ]
      },
      "<|EOS|>": {
        "id": "<|EOS|>",
        "ids": [
          2
        ],
        "tokens": [
          "<|EOS|>"
        ]
      }
    }
  },
  "decoder": {
    "type": "Metaspace",
    "replacement": "▁",
    "prepend_scheme": "never",
    "split": true
  },
  "model": {
    "type": "BPE",
    "dropout": null,
    "unk_token": "<|UNK|>",
    "continuing_subword_prefix": null,
    "end_of_word_suffix": null,
    "fuse_unk": false,
    "byte_fallback": false,
    "ignore_merges": false,
    "vocab": {
      "<|PAD|>": 0,
      "<|BOS|>": 1,
      "<|EOS|>": 2,
      "<|UNK|>": 3,
      "\n": 4,
      "!": 5,
      "\"": 6,
      "$": 7,
      "%": 8,
      "&": 9,
      "'": 10,
      "(": 11,
      ")": 12,
      "*": 13,
      "+": 14,
      ",": 15,
      "-": 16,
      ".": 17,
      "/": 18,
      "0": 19,
      "1": 20,
      "2": 21,
      "3": 22,
      "4": 23,
      "5": 24,
      "6": 25,
      "7": 26,
      "8": 27,
      "9": 28,
      ":": 29,
      ";": 30,
      "=": 31,
      "?": 32,
      "A": 33,
      "B": 34,
      "C": 35,
      "D": 36,
      "E": 37,
      "F": 38,
      "G": 39,
      "H": 40,
      "I": 41,
      "J": 42,
      "K": 43,
      "L": 44,
      "M": 45,
      "N": 46,
      "O": 47,
      "P": 48,
      "Q": 49,
      "R": 50,
      "S": 51,
      "T": 52,
      "U": 53,
      "V": 54,
      "W": 55,
      "X": 56,
      "Y": 57,
      "Z": 58,
      "]": 59,
      "a": 60,
      "b": 61,
      "c": 62,
      "d": 63,
      "e": 64,
      "f": 65,
      "g": 66,
      "h": 67,
      "i": 68,
      "j": 69,
      "k": 70,
      "l": 71,
      "m": 72,
      "n": 73,
      "o": 74,
      "p": 75,
      "q": 76,
      "r": 77,
      "s": 78,
      "t": 79,
      "u": 80,
      "v": 81,
      "w": 82,
      "x": 83,
      "y": 84,
      "z": 85,
      "À": 86,
      "Á": 87,
      "Â": 88,
      "Ã": 89,
      "Í": 90,
      "Ô": 91,
      "Ù": 92,
      "Ú": 93,
      "Ý": 94,
      "à": 95,
      "á": 96,
      "â": 97,
      "ã": 98,
      "è": 99,
      "ê": 100,
      "ì": 101,
      "í": 102,
      "ò": 103,
      "ó": 104,
      "ô": 105,
      "õ": 106,
      "ù": 107,
      "ú": 108,
      "ý": 109,
      "Ă": 110,
      "ă": 111,
      "Đ": 112,
      "đ": 113,
      "ĩ": 114,
      "ũ": 115,
      "Ơ": 116,
      "ơ": 117,
      "Ư": 118,
      "ư": 119,
      "Ạ": 120,
      "ạ": 121,
      "Ả": 122,
      "ả": 123,
      "Ấ": 124,
      "ấ": 125,
      "ầ": 126,
      "Ẩ": 127,
      "ẩ": 128,
      "ẫ": 129,
      "Ậ": 130,
      "ậ": 131,
      "ắ": 132,
      "ằ": 133,
      "ẳ": 134,
      "ẵ": 135,
      "ặ": 136,
      "ẹ": 137,
      "ẻ": 138,
      "ẽ": 139,
      "Ế": 140,
      "ế": 141,
      "ề": 142,
      "ể": 143,
      "ễ": 144,
      "ệ": 145,
      "ỉ": 146,
      "ị": 147,
      "ọ": 148,
      "ỏ": 149,
      "Ố": 150,
      "ố": 151,
      "Ồ": 152,
      "ồ": 153,
      "Ổ": 154,
      "ổ": 155,
      "ỗ": 156,
      "Ộ": 157,
      "ộ": 158,
      "Ớ": 159,
      "ớ": 160,
      "ờ": 161,
      "Ở": 162,
      "ở": 163,
      "ỡ": 164,
      "ợ": 165,
      "ụ": 166,
      "ủ": 167,
      "ứ": 168,
      "Ừ": 169,
      "ừ": 170,
      "ử": 171,
      "ữ": 172,
      "ự": 173,
      "ỳ": 174,
      "ỵ": 175,
      "ỷ": 176,
      "ỹ": 177,
      "▁": 178,
      "▁c": 179,
      "ng": 180,
      "▁t": 181,
      "▁n": 182,
      "▁v": 183,
      "▁đ": 184,
      "▁m": 185,
      "▁b": 186,
      "▁ch": 187,
      "▁l": 188,
      "▁th": 189,
      "nh": 190,
      "▁nh": 191,
      "▁và": 192,
      "ột": 193,
      "▁h": 194,
      "▁ng": 195,
      "▁k": 196,
      "▁r": 197,
      "▁kh": 198,
      "▁tr": 199,
      "▁g": 200,
      "▁s": 201,
      "▁một": 202,
      "ên": 203,
      "▁nó": 204,
      "▁x": 205,
      "on": 206,
      "ày": 207,
      "ông": 208,
      "ấy": 209,
      "ất": 210,
      "ơi": 211,
      "ời": 212,
      "▁là": 213,
      "im": 214,
      "ới": 215,
      "iế": 216,
      ".\n": 217,
      "▁chơi": 218,
      "▁thấy": 219,
      "ch": 220,
      "ủa": 221,
      "▁của": 222,
      "▁có": 223,
      "▁ngày": 224,
      "▁nói": 225,
      "▁con": 226,
      "▁gi": 227,
      "qu": 228,
      "▁qu": 229,
      "▁không": 230,
      "uố": 231,
      "▁p": 232,
      "▁ph": 233,
      "ười": 234,
      "ình": 235,
      "▁rất": 236,
      "▁d": 237,
      "▁với": 238,
      "Tim": 239,
      "anh": 240,
      "▁đi": 241,
      "▁\"": 242,
      "▁cá": 243,
      "úng": 244,
      "au": 245,
      "ôi": 246,
      "ạn": 247,
      "▁mình": 248,
      "ong": 249,
      "▁be": 250,
      "▁cả": 251,
      "ậu": 252,
      "Ch": 253,
      "▁đó": 254,
      "ều": 255,
      "▁bạn": 256,
      "▁ta": 257,
      "ây": 258,
      "Họ": 259,
      "ích": 260,
      "ui": 261,
      "▁đã": 262,
      "ìn": 263,
      "uốn": 264,
      "ưng": 265,
      "▁vui": 266,
      "▁cô": 267,
      "ại": 268,
      "Cô": 269,
      "▁đư": 270,
      "ến": 271,
      "▁nhìn": 272,
      "▁muốn": 273,
      "ly": 274,
      "Nó": 275,
      "▁họ": 276,
      "iếc": 277,
      "▁cho": 278,
      "▁thể": 279,
      "Một": 280,
      "▁lớ": 281,
      "▁lớn": 282,
      "▁đến": 283,
      "▁trong": 284,
      "▁ra": 285,
      "Con": 286,
      "ửa": 287,
      "Li": 288,
      "ùng": 289,
      "▁thích": 290,
      "ang": 291,
      "ững": 292,
      "▁người": 293,
      "Lily": 294,
      "ợc": 295,
      "om": 296,
      "Ng": 297,
      "ướ": 298,
      "▁chiếc": 299,
      "ơn": 300,
      "▁làm": 301,
      "ay": 302,
      "▁tên": 303,
      "▁những": 304,
      "Tom": 305,
      "iên": 306,
      "▁nhau": 307,
      "▁đồ": 308,
      "ầu": 309,
      "uy": 310,
      "▁lại": 311,
      "▁được": 312,
      "ưa": 313,
      "▁ngh": 314,
      "▁cái": 315,
      "▁cùng": 316,
      "▁lên": 317,
      "ìm": 318,
      "▁mẹ": 319,
      "▁xe": 320,
      "▁tìm": 321,
      "iệ": 322,
      "ồi": 323,
      "▁cây": 324,
      "úp": 325,
      "▁anh": 326,
      "úc": 327,
      "▁cậu": 328,
      "ật": 329,
      "▁nhà": 330,
      "▁nọ": 331,
      "▁để": 332,
      "▁khi": 333,
      "Anh": 334,
      "Chúng": 335,
      "ăn": 336,
      "▁vào": 337,
      "ắt": 338,
      "ai": 339,
      "Ngày": 340,
      "ằng": 341,
      "ần": 342,
      "ạnh": 343,
      "ài": 344,
      "óng": 345,
      "▁nhỏ": 346,
      "ừng": 347,
      "ước": 348,
      "▁cười": 349,
      "▁chim": 350,
      "ao": 351,
      "ào": 352,
      "▁trên": 353,
      "ữa": 354,
      "▁xưa": 355,
      "▁Tim": 356,
      "▁xửa": 357,
      "!\"": 358,
      "ặt": 359,
      ".\"": 360,
      "▁cảm": 361,
      "▁giúp": 362,
      "▁to": 363,
      "▁sẽ": 364,
      "▁S": 365,
      "▁đang": 366,
      "Nh": 367,
      "ỏi": 368,
      "▁vẻ": 369,
      "ải": 370,
      "▁gì": 371,
      "▁mà": 372,
      "▁về": 373,
      "▁đầu": 374,
      "▁chúng": 375,
      "ảy": 376,
      "một": 377,
      "ồn": 378,
      "có": 379,
      "▁bu": 380,
      "▁bóng": 381,
      "▁biế": 382,
      "▁chạ": 383,
      "▁quả": 384,
      "ia": 385,
      "▁này": 386,
      "▁trở": 387,
      "àn": 388,
      "▁chú": 389,
      "èo": 390,
      "iều": 391,
      "ác": 392,
      "ũng": 393,
      "Cậu": 394,
      "an": 395,
      "ôm": 396,
      "ái": 397,
      "en": 398,
      "▁tố": 399,
      "▁nữa": 400,
      "▁buồn": 401,
      "ậy": 402,
      "Mẹ": 403,
      "▁bắt": 404,
      "ành": 405,
      "▁ăn": 406,
      "Kh": 407,
      "▁chạy": 408,
      "ắng": 409,
      "▁rằng": 410,
      "▁biết": 411,
      "âu": 412,
      "▁viên": 413,
      "▁rồi": 414,
      "ân": 415,
      "ết": 416,
      "uyệ": 417,
      "Nhưng": 418,
      "▁chó": 419,
      "▁hơn": 420,
      "Ma": 421,
      "ue": 422,
      "ãi": 423,
      "ận": 424,
      "ánh": 425,
      "am": 426,
      "eo": 427,
      "Tôi": 428,
      "àng": 429,
      "▁tôi": 430,
      "▁công": 431,
      "▁thứ": 432,
      "▁mèo": 433,
      "▁nhiều": 434,
      "▁vì": 435,
      "▁phúc": 436,
      "▁phải": 437,
      "▁hạnh": 438,
      "uống": 439,
      "▁cũng": 440,
      "▁lấy": 441,
      "Max": 442,
      "?\"": 443,
      "nhưng": 444,
      "ống": 445,
      "▁bè": 446,
      "▁tốt": 447,
      "ỗi": 448,
      "▁sá": 449,
      "▁đều": 450,
      "▁ở": 451,
      "ẹp": 452,
      "Ben": 453,
      "▁sợ": 454,
      "òng": 455,
      "êu": 456,
      "▁Lily": 457,
      "▁đá": 458,
      "▁màu": 459,
      "▁điều": 460,
      "▁ấy": 461,
      "▁vậy": 462,
      "in": 463,
      "▁hỏi": 464,
      "▁xuống": 465,
      "▁ho": 466,
      "▁Tom": 467,
      "▁nghĩ": 468,
      "▁trời": 469,
      "ấu": 470,
      "ãy": 471,
      "▁mới": 472,
      "òn": 473,
      "▁nghe": 474,
      "▁cố": 475,
      "ọi": 476,
      "ỉm": 477,
      "▁đẹp": 478,
      "▁mỉm": 479,
      "▁học": 480,
      "em": 481,
      "▁thành": 482,
      "ờng": 483,
      "ùa": 484,
      "▁ngo": 485,
      "▁bay": 486,
      "▁y": 487,
      "▁ơn": 488,
      "▁nhảy": 489,
      "▁nhưng": 490,
      "▁sau": 491,
      "▁tiế": 492,
      "▁'": 493,
      "▁khác": 494,
      "▁từ": 495,
      "ón": 496,
      "át": 497,
      "áo": 498,
      "▁xem": 499,
      "▁nước": 500,
      "Khi": 501,
      "▁hôm": 502,
      "ươ": 503,
      "ôn": 504,
      "và": 505,
      "ot": 506,
      "▁mặt": 507,
      "▁quá": 508,
      "▁đỡ": 509,
      "▁đùa": 510,
      "óc": 511,
      "▁hộ": 512,
      "▁tay": 513,
      "▁bị": 514,
      ".\n\"": 515,
      "▁hai": 516,
      "ương": 517,
      "uyện": 518,
      "▁ông": 519,
      "ắm": 520,
      "▁như": 521,
      "pot": 522,
      "ấn": 523,
      "ẩn": 524,
      ".\"\n": 525,
      "▁nên": 526,
      "▁món": 527,
      "▁nhiên": 528,
      "ứa": 529,
      "inh": 530,
      "ạc": 531,
      "▁bên": 532,
      "▁độ": 533,
      "▁hộp": 534,
      "iể": 535,
      "▁quy": 536,
      "Bà": 537,
      "Cả": 538,
      "▁vật": 539,
      "ặc": 540,
      "ổi": 541,
      "ức": 542,
      "iệc": 543,
      "ẫn": 544,
      "my": 545,
      "▁bánh": 546,
      "▁tư": 547,
      "▁chuyện": 548,
      "▁yêu": 549,
      "con": 550,
      "ọn": 551,
      "▁các": 552,
      "ắc": 553,
      "cô": 554,
      "▁ngoài": 555,
      "Lu": 556,
      "▁mừng": 557,
      "▁ý": 558,
      "▁sáng": 559,
      "ối": 560,
      "Sue": 561,
      "ắn": 562,
      "họ": 563,
      "▁giờ": 564,
      "ua": 565,
      "▁phòng": 566,
      "▁cửa": 567,
      "Chú": 568,
      "▁bã": 569,
      "▁nhất": 570,
      "Mia": 571,
      "▁sống": 572,
      "▁còn": 573,
      "Sau": 574,
      "▁gần": 575,
      "ob": 576,
      "▁chỉ": 577,
      "▁nào": 578,
      "ưới": 579,
      "Luc": 580,
      "ấm": 581,
      "ởng": 582,
      "Lucy": 583,
      "ảo": 584,
      "uôn": 585,
      "▁thật": 586,
      "rong": 587,
      "▁mọi": 588,
      "▁Sue": 589,
      "▁quyết": 590,
      "ạo": 591,
      "ầm": 592,
      "Đó": 593,
      "▁đưa": 594,
      "▁cao": 595,
      "ung": 596,
      "ọng": 597,
      "▁quanh": 598,
      "▁đị": 599,
      "▁nhanh": 600,
      "ền": 601,
      "▁định": 602,
      "▁Ben": 603,
      "▁hãi": 604,
      "iệt": 605,
      "▁đỏ": 606,
      "▁chia": 607,
      "nó": 608,
      "▁bất": 609,
      "uộ": 610,
      "uyệt": 611,
      "▁thì": 612,
      "▁lo": 613,
      "▁tất": 614,
      "▁Sam": 615,
      "Bob": 616,
      "▁việc": 617,
      "▁Max": 618,
      "▁sẻ": 619,
      "▁đứa": 620,
      "▁tiếng": 621,
      "▁tuyệt": 622,
      "▁dưới": 623,
      "▁mãi": 624,
      "▁ngôi": 625,
      "ăng": 626,
      "iến": 627,
      "▁mở": 628,
      "nn": 629,
      "Hãy": 630,
      "▁gắng": 631,
      "▁sao": 632,
      "Tất": 633,
      "ặp": 634,
      "áy": 635,
      "▁cứ": 636,
      "▁theo": 637,
      "▁đàn": 638,
      "Sam": 639,
      "▁ôm": 640,
      "ar": 641,
      "▁luôn": 642,
      "▁động": 643,
      "▁bao": 644,
      "▁thân": 645,
      "▁biệt": 646,
      "Ông": 647,
      "▁gái": 648,
      "▁lời": 649,
      "uối": 650,
      "▁cần": 651,
      "lly": 652,
      "út": 653,
      "▁lúc": 654,
      "▁cách": 655,
      "▁đất": 656,
      "Không": 657,
      "êm": 658,
      "Th": 659,
      "▁tự": 660,
      "▁mất": 661,
      "▁thế": 662,
      "Và": 663,
      "▁kho": 664,
      "uộc": 665,
      "et": 666,
      "Ann": 667,
      "Người": 668,
      "▁xanh": 669,
      "▁quay": 670,
      "▁gặp": 671,
      "ượ": 672,
      "ường": 673,
      "▁vị": 674,
      "▁xảy": 675,
      "▁gh": 676,
      "▁hoa": 677,
      "ụng": 678,
      "▁khỏi": 679,
      "▁bộ": 680,
      "▁em": 681,
      "▁bố": 682,
      "▁bằng": 683,
      "▁đu": 684,
      "▁đồng": 685,
      "Vì": 686,
      "▁vời": 687,
      "iện": 688,
      "▁thú": 689,
      "▁đây": 690,
      "▁ngon": 691,
      "Spot": 692,
      "!\"\n": 693,
      "Có": 694,
      "▁vẫn": 695,
      "Amy": 696,
      "▁ngạc": 697,
      "▁hàng": 698,
      "▁bảo": 699,
      "▁nơi": 700,
      "▁trò": 701,
      "▁chu": 702,
      "▁bỏ": 703,
      "▁mang": 704,
      "Anna": 705,
      "ực": 706,
      "▁câu": 707,
      "▁lá": 708,
      "ara": 709,
      "ồng": 710,
      "▁bà": 711,
      "ập": 712,
      "▁thận": 713,
      "▁dài": 714,
      "▁sự": 715,
      "mẹ": 716,
      "▁đâu": 717,
      "▁trước": 718,
      "▁phấn": 719,
      "ốc": 720,
      "▁tưởng": 721,
      "▁thức": 722,
      "ục": 723,
      "ướng": 724,
      "Chiếc": 725,
      "▁cẩn": 726,
      "▁thương": 727,
      "▁ngờ": 728,
      "Cảm": 729,
      "▁ngồi": 730,
      "▁đặt": 731,
      "ạch": 732,
      "▁rừng": 733,
      "▁chỗ": 734,
      "▁khích": 735,
      "▁đường": 736,
      "Bạn": 737,
      "chúng": 738,
      "▁nhận": 739,
      "ảng": 740,
      "▁cuộc": 741,
      "Hai": 742,
      "▁tử": 743,
      "▁áo": 744,
      "▁mạnh": 745,
      "▁lần": 746,
      "▁mỗi": 747,
      "ềm": 748,
      "▁trẻ": 749,
      "▁bọ": 750,
      "▁cầu": 751,
      ",\"": 752,
      "▁J": 753,
      "âm": 754,
      "ầy": 755,
      "▁Spot": 756,
      "ược": 757,
      "▁lỗi": 758,
      "ộn": 759,
      "▁qua": 760,
      "▁gấu": 761,
      "▁hào": 762,
      "án": 763,
      "▁lắng": 764,
      "▁toàn": 765,
      "Từ": 766,
      "▁thỏ": 767,
      "ính": 768,
      "▁tới": 769,
      "▁cánh": 770,
      "▁an": 771,
      "kh": 772,
      "▁gia": 773,
      "ượt": 774,
      "▁đặc": 775,
      "tôi": 776,
      "▁lắm": 777,
      "▁trông": 778,
      "?\"\n": 779,
      "trong": 780,
      "ắp": 781,
      "▁quan": 782,
      "▁vư": 783,
      "▁khu": 784,
      "iển": 785,
      "▁ngủ": 786,
      "uyền": 787,
      "cậu": 788,
      "uốt": 789,
      "▁dùng": 790,
      "▁bông": 791,
      "▁chào": 792,
      "▁xin": 793,
      "ạt": 794,
      "Tr": 795,
      "!\n": 796,
      "iếm": 797,
      "ờn": 798,
      "áu": 799,
      "ám": 800,
      "▁khóc": 801,
      "▁mũ": 802,
      "▁B": 803,
      "▁vườn": 804,
      "▁cú": 805,
      "'\n": 806,
      "Được": 807,
      "áp": 808,
      "▁chuy": 809,
      "▁khó": 810,
      "▁xa": 811,
      "▁bước": 812,
      "▁bài": 813,
      "ọc": 814,
      "▁đôi": 815,
      "▁sách": 816,
      "▁máy": 817,
      "▁hiể": 818,
      "ck": 819,
      "▁giữ": 820,
      "ẳng": 821,
      "▁trả": 822,
      "âng": 823,
      "▁thị": 824,
      "▁hát": 825,
      "Cuối": 826,
      "▁sân": 827,
      "▁tiếp": 828,
      "▁thôi": 829,
      "ấp": 830,
      "▁tạo": 831,
      "ếu": 832,
      "▁Mia": 833,
      "àu": 834,
      "▁thư": 835,
      "Gi": 836,
      "▁ai": 837,
      "▁bức": 838,
      "▁hãy": 839,
      "ty": 840,
      "▁xấu": 841,
      "▁thuyền": 842,
      "ăm": 843,
      "▁mắt": 844,
      "Sara": 845,
      "ít": 846,
      "▁keo": 847,
      "Trong": 848,
      "ếp": 849,
      "▁hết": 850,
      "it": 851,
      "▁đầy": 852,
      "▁bầu": 853,
      "la": 854,
      "▁thử": 855,
      "▁hình": 856,
      "▁di": 857,
      "▁khiến": 858,
      "▁biển": 859,
      "ậm": 860,
      "▁đình": 861,
      "▁à": 862,
      "▁giận": 863,
      "ếch": 864,
      "ứng": 865,
      "úi": 866,
      "▁lâu": 867,
      ".\n-": 868,
      "▁vòng": 869,
      "▁suốt": 870,
      "▁trượt": 871,
      "ặng": 872,
      "▁'\n": 873,
      "▁chuột": 874,
      "▁bàn": 875,
      "ển": 876,
      "▁phá": 877,
      "▁sóc": 878,
      "ally": 879,
      "▁rơi": 880,
      "▁nắng": 881,
      "▁xinh": 882,
      "▁thời": 883,
      "▁thêm": 884,
      "▁vẽ": 885,
      "▁kia": 886,
      "▁tò": 887,
      "Gã": 888,
      "iệu": 889,
      "▁chân": 890,
      "▁gian": 891,
      "ẩy": 892,
      "▁trọng": 893,
      "ep": 894,
      "▁bữa": 895,
      "▁Lucy": 896,
      "iếng": 897,
      "▁trái": 898,
      "ách": 899,
      "Kit": 900,
      "Đột": 901,
      "▁ghế": 902,
      "Em": 903,
      "▁nhặt": 904,
      "▁kiếm": 905,
      "▁hơi": 906,
      "▁ấm": 907,
      "ảnh": 908,
      "Kitty": 909,
      "th": 910,
      "▁tấm": 911,
      "Vâng": 912,
      "ẫy": 913,
      "▁lành": 914,
      "▁bơi": 915,
      "ảm": 916,
      "▁biến": 917,
      "Chào": 918,
      "▁sắc": 919,
      "▁dữ": 920,
      "▁đánh": 921,
      "▁ếch": 922,
      "▁nhớ": 923,
      "▁dễ": 924,
      "▁bình": 925,
      "▁hay": 926,
      "▁đáng": 927,
      "▁tổ": 928,
      "▁gật": 929,
      "▁bụng": 930,
      "▁trấn": 931,
      "▁lạnh": 932,
      "dy": 933,
      "▁cầm": 934,
      "iết": 935,
      "▁tục": 936,
      "ộng": 937,
      "▁dạo": 938,
      "chú": 939,
      "▁kẹ": 940,
      "▁tối": 941,
      "▁nỗi": 942,
      "▁cuốn": 943,
      "iền": 944,
      "▁Bob": 945,
      "▁thu": 946,
      "▁tế": 947,
      "▁mua": 948,
      "▁thông": 949,
      "vì": 950,
      "▁nhẹ": 951,
      "ack": 952,
      "▁het": 953,
      "▁ơi": 954,
      "ỏng": 955,
      "▁kỳ": 956,
      "▁nảy": 957,
      "▁dây": 958,
      "iêu": 959,
      "▁chuyển": 960,
      "▁mặc": 961,
      "▁vẫy": 962,
      "Đừng": 963,
      "▁hồ": 964,
      "▁bê": 965,
      "Xin": 966,
      "▁số": 967,
      "▁-": 968,
      "ịch": 969,
      "er": 970,
      "ie": 971,
      "▁kể": 972,
      "▁chờ": 973,
      "ợi": 974,
      "▁trang": 975,
      "▁bếp": 976,
      "▁túi": 977,
      "▁hiện": 978,
      "ệt": 979,
      "▁cỏ": 980,
      "ướt": 981,
      "▁lẽ": 982,
      "Những": 983,
      "▁F": 984,
      "▁gọi": 985,
      "ìa": 986,
      "▁chị": 987,
      "ốn": 988,
      "▁vài": 989,
      "▁leo": 990,
      "▁ít": 991,
      "ía": 992,
      "Tại": 993,
      "▁búp": 994,
      "▁sửa": 995,
      "▁miếng": 996,
      "▁cổ": 997,
      "▁tải": 998,
      "▁táo": 999,
      "▁dũng": 1000,
      "ừa": 1001,
      "▁phát": 1002,
      "▁tranh": 1003,
      "▁lư": 1004,
      "▁đua": 1005,
      "▁mò": 1006,
      "Qu": 1007,
      "▁chạm": 1008,
      "▁thay": 1009,
      "▁đấy": 1010,
      "▁tàu": 1011,
      "▁chút": 1012,
      "▁băng": 1013,
      "▁vỗ": 1014,
      "▁bí": 1015,
      "ởi": 1016,
      "▁rộng": 1017,
      "▁ánh": 1018,
      "▁thanh": 1019,
      "▁mệt": 1020,
      "▁nhờ": 1021,
      "▁mềm": 1022,
      "▁đống": 1023,
      "ội": 1024,
      "▁sư": 1025,
      "▁lỗ": 1026,
      "▁trốn": 1027,
      "▁nay": 1028,
      "àm": 1029,
      "▁tho": 1030,
      "bạn": 1031,
      "▁đẩy": 1032,
      "▁sạch": 1033,
      "Jo": 1034,
      "▁chặt": 1035,
      "ạm": 1036,
      "▁thường": 1037,
      "▁xu": 1038,
      "▁cơn": 1039,
      "▁phía": 1040,
      "▁hành": 1041,
      "▁gậy": 1042,
      "▁khăn": 1043,
      "Mỗi": 1044,
      "▁hiểu": 1045,
      "▁vọng": 1046,
      "iềm": 1047,
      "▁sinh": 1048,
      "tr": 1049,
      "▁tiệc": 1050,
      "▁sợi": 1051,
      "▁dụng": 1052,
      "▁niềm": 1053,
      "Rồi": 1054,
      "▁ước": 1055,
      "▁lửa": 1056,
      "▁tảng": 1057,
      "▁vàng": 1058,
      "Cái": 1059,
      "▁càng": 1060,
      "Các": 1061,
      "▁tin": 1062,
      "ạp": 1063,
      "ện": 1064,
      "▁cứu": 1065,
      "ặn": 1066,
      "▁thực": 1067,
      "▁thổi": 1068,
      "▁rút": 1069,
      "▁giấy": 1070,
      "▁giả": 1071,
      "▁Amy": 1072,
      "khi": 1073,
      "ỉnh": 1074,
      "ẵn": 1075,
      "▁xích": 1076,
      "▁đợi": 1077,
      "ằm": 1078,
      "▁kết": 1079,
      "Quả": 1080,
      "Nàng": 1081,
      "▁gió": 1082,
      "▁uống": 1083,
      ".'\n": 1084,
      "▁nem": 1085,
      "▁minh": 1086,
      "▁đau": 1087,
      "Bố": 1088,
      "▁tệ": 1089,
      "▁dừng": 1090,
      "▁âm": 1091,
      "Nhìn": 1092,
      "▁áp": 1093,
      "▁giường": 1094,
      "Bài": 1095,
      "áng": 1096,
      "▁chẳng": 1097,
      "ll": 1098,
      "▁ngoan": 1099,
      "▁trèo": 1100,
      "▁vịt": 1101,
      "▁kem": 1102,
      "Đây": 1103,
      "▁chưa": 1104,
      "▁lưu": 1105,
      "▁nóng": 1106,
      "Mọi": 1107,
      "ựa": 1108,
      "uyết": 1109,
      "▁banh": 1110,
      "▁khám": 1111,
      "▁hoàn": 1112,
      "▁dọn": 1113,
      "▁hỏng": 1114,
      "▁đồi": 1115,
      "iệng": 1116,
      "ản": 1117,
      "▁mưa": 1118,
      "ót": 1119,
      "▁phiêu": 1120,
      "▁giống": 1121,
      "▁M": 1122,
      "Giờ": 1123,
      "▁loại": 1124,
      "ọt": 1125,
      "▁bẩn": 1126,
      "▁bò": 1127,
      "gi": 1128,
      "hãy": 1129,
      "▁nếu": 1130,
      "▁cún": 1131,
      "▁ngừng": 1132,
      "▁ngọn": 1133,
      "▁tiền": 1134,
      "▁đài": 1135,
      "▁thiện": 1136,
      "ói": 1137,
      "▁miệng": 1138,
      "▁lạ": 1139,
      "▁bọn": 1140,
      "▁đọc": 1141,
      "úa": 1142,
      "▁quần": 1143,
      "\"\n": 1144,
      "ùi": 1145,
      "▁tiên": 1146,
      "▁sàn": 1147,
      "ụi": 1148,
      "hn": 1149,
      "▁khối": 1150,
      "ướm": 1151,
      "ane": 1152,
      "▁dạ": 1153,
      "▁mì": 1154,
      "Sally": 1155,
      "▁lông": 1156,
      "▁sổ": 1157,
      "▁ngay": 1158,
      "▁đuôi": 1159,
      "▁căn": 1160,
      "▁sức": 1161,
      "▁bướm": 1162,
      "▁thắng": 1163,
      "▁cháu": 1164,
      "▁sâu": 1165,
      "▁thúc": 1166,
      "▁chí": 1167,
      "▁ngã": 1168,
      "▁chóng": 1169,
      "▁nữ": 1170,
      "▁vô": 1171,
      "▁vỡ": 1172,
      "▁lái": 1173,
      "▁tu": 1174,
      "▁cha": 1175,
      "▁thuật": 1176,
      "▁sử": 1177,
      "▁tròn": 1178,
      "▁ạ": 1179,
      "▁đói": 1180,
      "▁quên": 1181,
      "▁kiến": 1182,
      "▁xong": 1183,
      "▁sàng": 1184,
      "▁ong": 1185,
      "ốt": 1186,
      "bà": 1187,
      "▁xí": 1188,
      "▁đẽ": 1189,
      "▁tắm": 1190,
      "ow": 1191,
      "▁kêu": 1192,
      "▁chứ": 1193,
      "ấc": 1194,
      "▁ảnh": 1195,
      "▁mỏi": 1196,
      "▁sĩ": 1197,
      "▁ướt": 1198,
      "người": 1199,
      "Jack": 1200,
      "▁đội": 1201,
      "▁váy": 1202,
      "▁chăm": 1203,
      "▁khắp": 1204,
      "▁mẻ": 1205,
      "▁xo": 1206,
      "▁tuyết": 1207,
      "▁dậy": 1208,
      "▁tính": 1209,
      "ddy": 1210,
      "▁đứng": 1211,
      "▁gốc": 1212,
      "lu": 1213,
      "▁Anna": 1214,
      "▁khổ": 1215,
      "▁cạnh": 1216,
      "▁ngọt": 1217,
      "▁hứa": 1218,
      "▁cũ": 1219,
      "▁tủ": 1220,
      "▁cành": 1221,
      "▁liệu": 1222,
      "ỏe": 1223,
      "ếm": 1224,
      "Cây": 1225,
      "▁tập": 1226,
      "▁hòn": 1227,
      "▁ngắm": 1228,
      "▁xung": 1229,
      "▁lăn": 1230,
      "▁hồng": 1231,
      "▁hiểm": 1232,
      "▁tại": 1233,
      "▁đo": 1234,
      "▁tạm": 1235,
      "▁ồn": 1236,
      "▁giải": 1237,
      "Lila": 1238,
      "ff": 1239,
      "▁nướng": 1240,
      "▁mật": 1241,
      "▁kẹo": 1242,
      "▁thưởng": 1243,
      "▁sẵn": 1244,
      "▁vừa": 1245,
      "▁quà": 1246,
      "▁đám": 1247,
      "▁đuổi": 1248,
      "Thế": 1249,
      "▁phụ": 1250,
      "▁tâm": 1251,
      "▁khóa": 1252,
      "un": 1253,
      "▁trai": 1254,
      "ão": 1255,
      "▁nặng": 1256,
      "▁kế": 1257,
      "▁cà": 1258,
      "▁dẹp": 1259,
      "▁khỏe": 1260,
      "▁nhạc": 1261,
      "▁xắn": 1262,
      "▁rỡ": 1263,
      "Bây": 1264,
      "▁mái": 1265,
      "▁tướng": 1266,
      "▁nổi": 1267,
      "▁tham": 1268,
      "▁yên": 1269,
      "oi": 1270,
      "▁cát": 1271,
      "▁nằm": 1272,
      "▁T": 1273,
      "▁đừng": 1274,
      "Mar": 1275,
      "▁cảnh": 1276,
      "▁lẫn": 1277,
      "▁dự": 1278,
      "▁phep": 1279,
      "ợng": 1280,
      "▁đúng": 1281,
      "▁ao": 1282,
      "▁hư": 1283,
      "▁nụ": 1284,
      "▁gầm": 1285,
      "▁tượng": 1286,
      "Mặt": 1287,
      "▁ba": 1288,
      "▁già": 1289,
      "▁tớ": 1290,
      "▁tóc": 1291,
      "▁khoảng": 1292,
      "▁mấy": 1293,
      "▁khô": 1294,
      "▁cốc": 1295,
      "▁cắt": 1296,
      "▁bút": 1297,
      "▁diễ": 1298,
      "Tớ": 1299,
      "?\n": 1300,
      "▁sát": 1301,
      "▁trại": 1302,
      "▁đạp": 1303,
      "▁giọng": 1304,
      "▁ma": 1305,
      "iếu": 1306,
      "èn": 1307,
      "▁bản": 1308,
      "▁ngựa": 1309,
      "▁chịu": 1310,
      "!'": 1311,
      "▁cuối": 1312,
      "▁đào": 1313,
      "▁vờ": 1314,
      "▁sủa": 1315,
      "ớm": 1316,
      "▁nghỉ": 1317,
      "▁nắm": 1318,
      "chiếc": 1319,
      "▁ổ": 1320,
      "▁D": 1321,
      "▁đối": 1322,
      "▁bãi": 1323,
      "sy": 1324,
      "▁lòng": 1325,
      "ffy": 1326,
      "▁mại": 1327,
      "▁trung": 1328,
      "▁Sally": 1329,
      "▁sớm": 1330,
      "▁từng": 1331,
      "▁Sara": 1332,
      "▁mẽ": 1333,
      "▁giỏi": 1334,
      "▁dành": 1335,
      "▁đổ": 1336,
      "▁vũ": 1337,
      "▁rối": 1338,
      "ĩa": 1339,
      "òi": 1340,
      "luffy": 1341,
      "▁hổ": 1342,
      "▁kẹt": 1343,
      "▁hạt": 1344,
      "▁suy": 1345,
      "▁lau": 1346,
      "▁sướng": 1347,
      "▁thần": 1348,
      "▁giới": 1349,
      "▁mát": 1350,
      "▁thiết": 1351,
      "John": 1352,
      "▁tồi": 1353,
      "illy": 1354,
      "▁R": 1355,
      "▁khúc": 1356,
      "▁đen": 1357,
      "▁lạc": 1358,
      "cảm": 1359,
      "▁loài": 1360,
      "▁thang": 1361,
      "▁bụi": 1362,
      "▁ẩn": 1363,
      "Thật": 1364,
      "▁đơn": 1365,
      "▁đêm": 1366,
      "▁tường": 1367,
      "▁lặn": 1368,
      "▁tình": 1369,
      "▁gã": 1370,
      "▁múa": 1371,
      "▁buổi": 1372,
      "▁mây": 1373,
      "▁mắc": 1374,
      "▁điện": 1375,
      "▁cắn": 1376,
      "aisy": 1377,
      "▁giá": 1378,
      "không": 1379,
      "uddy": 1380,
      "▁giác": 1381,
      "▁rửa": 1382,
      "▁lão": 1383,
      "ny": 1384,
      "Chẳng": 1385,
      "▁chiến": 1386,
      ".'": 1387,
      "▁cối": 1388,
      "▁gỗ": 1389,
      "▁dương": 1390,
      "▁lồ": 1391,
      "▁mơ": 1392,
      "▁khổng": 1393,
      "uyên": 1394,
      "ẩu": 1395,
      "▁báo": 1396,
      "▁xây": 1397,
      "ạng": 1398,
      "▁ích": 1399,
      "olly": 1400,
      "▁mảnh": 1401,
      "▁giày": 1402,
      "ủng": 1403,
      "▁chậm": 1404,
      "▁tháp": 1405,
      "Đúng": 1406,
      "▁nàng": 1407,
      "▁lắc": 1408,
      "▁vang": 1409,
      "▁hái": 1410,
      "▁chiếu": 1411,
      "ãn": 1412,
      "▁nhật": 1413,
      "▁rực": 1414,
      "▁dân": 1415,
      "▁viết": 1416,
      "Bên": 1417,
      "▁chọn": 1418,
      "zz": 1419,
      "▁trắng": 1420,
      "▁Kitty": 1421,
      "tất": 1422,
      "▁ổn": 1423,
      "Ôi": 1424,
      "▁dẫn": 1425,
      "▁hy": 1426,
      "rồi": 1427,
      "▁chữa": 1428,
      "▁dạy": 1429,
      "▁tươi": 1430,
      "▁nấu": 1431,
      "▁la": 1432,
      "▁mũi": 1433,
      "lla": 1434,
      "▁chắn": 1435,
      "Điều": 1436,
      "▁đề": 1437,
      "Ngay": 1438,
      "▁hôn": 1439,
      "ợp": 1440,
      "ill": 1441,
      "▁Fluffy": 1442,
      "Làm": 1443,
      "▁đóng": 1444,
      "▁quái": 1445,
      "▁tây": 1446,
      "▁chua": 1447,
      "▁củ": 1448,
      "▁hố": 1449,
      "▁chuyến": 1450,
      "▁nhộn": 1451,
      "▁nút": 1452,
      "▁chìa": 1453,
      "▁xương": 1454,
      "▁phần": 1455,
      "▁hoạch": 1456,
      "▁gối": 1457,
      "▁đèn": 1458,
      "ýt": 1459,
      "▁lịch": 1460,
      "py": 1461,
      "▁ngăn": 1462,
      "▁rời": 1463,
      "▁ô": 1464,
      "▁kìa": 1465,
      "▁tô": 1466,
      "▁nhe": 1467,
      "▁nghịch": 1468,
      "▁súp": 1469,
      "▁nhẫn": 1470,
      "▁đếm": 1471,
      "▁Jo": 1472,
      "▁ngốc": 1473,
      "▁mùi": 1474,
      "▁Jack": 1475,
      "▁quý": 1476,
      "▁bát": 1477,
      "▁thăm": 1478,
      "Trên": 1479,
      "▁lộn": 1480,
      "▁P": 1481,
      "▁cơ": 1482,
      "▁đáp": 1483,
      "▁tuổi": 1484,
      "ửi": 1485,
      "▁tờ": 1486,
      "▁lấp": 1487,
      "▁kiên": 1488,
      "Timmy": 1489,
      "▁nhàng": 1490,
      "nhìn": 1491,
      "▁lò": 1492,
      "ớt": 1493,
      "▁voi": 1494,
      "Cha": 1495,
      "re": 1496,
      "▁bù": 1497,
      "▁rồng": 1498,
      "▁đổi": 1499,
      "▁đeo": 1500,
      "▁tung": 1501,
      "▁xoay": 1502,
      "▁xíu": 1503,
      "▁mức": 1504,
      "Jane": 1505,
      "▁cáo": 1506,
      "iệm": 1507,
      "ir": 1508,
      "▁kiể": 1509,
      "▁bán": 1510,
      "▁hại": 1511,
      "▁chính": 1512,
      "▁trộn": 1513,
      "▁chốc": 1514,
      "▁bây": 1515,
      "▁trường": 1516,
      "▁kinh": 1517,
      "▁giấc": 1518,
      "▁nông": 1519,
      "▁trưa": 1520,
      "▁vua": 1521,
      "▁thả": 1522,
      "▁hót": 1523,
      "▁tặng": 1524,
      "óm": 1525,
      "▁ống": 1526,
      "▁khách": 1527,
      "uộn": 1528,
      "▁chắc": 1529,
      "Wow": 1530,
      "làm": 1531,
      "▁xuất": 1532,
      "Fin": 1533,
      "▁thậm": 1534,
      "▁đỉnh": 1535,
      "▁hoặc": 1536,
      "▁ngơi": 1537,
      "Kết": 1538,
      "▁trống": 1539,
      "▁ngu": 1540,
      "▁đủ": 1541,
      "▁bờ": 1542,
      "▁khoác": 1543,
      "▁cất": 1544,
      "Bobo": 1545,
      "▁lánh": 1546,
      "▁bùn": 1547,
      "▁phiên": 1548,
      "▁khá": 1549,
      "is": 1550,
      "▁độc": 1551,
      "▁hưởng": 1552,
      "▁sở": 1553,
      "▁sắp": 1554,
      "▁sông": 1555,
      "ĩnh": 1556,
      "▁ào": 1557,
      "▁đảm": 1558,
      "▁diễn": 1559,
      "Hôm": 1560,
      "▁khôn": 1561,
      "▁rắn": 1562,
      "▁vũng": 1563,
      "▁đĩa": 1564,
      "op": 1565,
      "▁chì": 1566,
      "▁phố": 1567,
      "▁cam": 1568,
      "▁tận": 1569,
      "\".\n": 1570,
      "▁nguy": 1571,
      "ứt": 1572,
      "▁đại": 1573,
      "Tên": 1574,
      "▁hề": 1575,
      ".-": 1576,
      "▁do": 1577,
      "▁diệu": 1578,
      "▁trình": 1579,
      "▁tòa": 1580,
      "▁lập": 1581,
      "ỗng": 1582,
      "cả": 1583,
      "▁nhân": 1584,
      "ry": 1585,
      "ằn": 1586,
      "▁trí": 1587,
      ".\n'": 1588,
      "▁xử": 1589,
      "▁sữa": 1590,
      "▁cãi": 1591,
      "▁tra": 1592,
      "\".": 1593,
      "imi": 1594,
      "▁kiểm": 1595,
      "▁chăn": 1596,
      "▁dựng": 1597,
      "êng": 1598,
      "▁đậu": 1599,
      "những": 1600,
      "▁ve": 1601,
      "▁lọ": 1602,
      "▁tĩnh": 1603,
      "iêng": 1604,
      "▁gãy": 1605,
      "at": 1606,
      "Bọn": 1607,
      "▁hối": 1608,
      "▁vệ": 1609,
      "gg": 1610,
      "▁hoàng": 1611,
      "▁bác": 1612,
      "ộc": 1613,
      "▁chủ": 1614,
      "▁sáo": 1615,
      "▁sơn": 1616,
      "▁thùng": 1617,
      "▁rào": 1618,
      "▁xộn": 1619,
      "▁sai": 1620,
      "▁thủ": 1621,
      "▁ngào": 1622,
      "▁cụ": 1623,
      "▁khỉ": 1624,
      "ic": 1625,
      "▁ghi": 1626,
      "▁may": 1627,
      "▁hảo": 1628,
      "▁gây": 1629,
      "đó": 1630,
      "▁chanh": 1631,
      "ỉu": 1632,
      "Cháu": 1633,
      "▁hoạt": 1634,
      "▁thỉu": 1635,
      "ím": 1636,
      "▁nhện": 1637,
      "▁cờ": 1638,
      "ưỡ": 1639,
      "▁đập": 1640,
      "▁sang": 1641,
      "ữu": 1642,
      "▁khuôn": 1643,
      ",'": 1644,
      "iệp": 1645,
      "▁hữu": 1646,
      "▁báu": 1647,
      "▁C": 1648,
      "▁tức": 1649,
      "▁tổn": 1650,
      "▁chuông": 1651,
      "Gấu": 1652,
      "▁dù": 1653,
      "▁cua": 1654,
      "\n\"": 1655,
      "▁nâu": 1656,
      "iểu": 1657,
      "▁lưng": 1658,
      "▁kim": 1659,
      "▁cung": 1660,
      "▁diều": 1661,
      "Be": 1662,
      "!'\n": 1663,
      "▁tài": 1664,
      "▁xếp": 1665,
      "▁thịt": 1666,
      "▁cứng": 1667,
      "▁bồn": 1668,
      "▁chán": 1669,
      "▁bật": 1670,
      "bố": 1671,
      "ke": 1672,
      "▁ngoại": 1673,
      "Trông": 1674,
      "sa": 1675,
      "Nếu": 1676,
      "▁ván": 1677,
      "▁Timmy": 1678,
      "na": 1679,
      "▁trứng": 1680,
      "▁riêng": 1681,
      "▁thô": 1682,
      "▁lực": 1683,
      "các": 1684,
      "▁khoá": 1685,
      "▁vỏ": 1686,
      "▁vòi": 1687,
      "▁Jane": 1688,
      "▁du": 1689,
      "▁tỏ": 1690,
      "uốc": 1691,
      "▁phục": 1692,
      "ip": 1693,
      "Wh": 1694,
      "?'": 1695,
      "ộp": 1696,
      "▁gà": 1697,
      "▁thoát": 1698,
      "▁làng": 1699,
      "▁mai": 1700,
      "▁sỡ": 1701,
      "by": 1702,
      "▁rốt": 1703,
      "▁tím": 1704,
      "▁que": 1705,
      "▁bắn": 1706,
      "▁giấu": 1707,
      "nên": 1708,
      "▁đằng": 1709,
      "▁phóng": 1710,
      "Tommy": 1711,
      "▁bởi": 1712,
      "quả": 1713,
      "▁kỹ": 1714,
      "ma": 1715,
      "▁hang": 1716,
      "▁điể": 1717,
      "▁nón": 1718,
      "hai": 1719,
      "▁côn": 1720,
      "▁len": 1721,
      "▁răng": 1722,
      "▁tinh": 1723,
      "▁khủng": 1724,
      "▁phim": 1725,
      "▁chức": 1726,
      "▁tiến": 1727,
      "▁ngón": 1728,
      "▁hợp": 1729,
      "▁ca": 1730,
      "ịt": 1731,
      "cái": 1732,
      "▁lều": 1733,
      "▁thoại": 1734,
      "▁L": 1735,
      "▁mời": 1736,
      "ượn": 1737,
      "▁thuộc": 1738,
      "▁hu": 1739,
      "emy": 1740,
      "Whis": 1741,
      "▁dàng": 1742,
      "ers": 1743,
      "▁khí": 1744,
      "▁lặng": 1745,
      "▁hài": 1746,
      "nny": 1747,
      "▁hức": 1748,
      "▁ngô": 1749,
      "▁thở": 1750,
      "Daisy": 1751,
      "▁bột": 1752,
      "▁giàu": 1753,
      "▁tim": 1754,
      "Emma": 1755,
      "▁sóng": 1756,
      "Whisk": 1757,
      "▁mắn": 1758,
      "Lisa": 1759,
      "▁mỏ": 1760,
      "Whiskers": 1761,
      "▁cải": 1762,
      "Lần": 1763,
      "▁rắc": 1764,
      "▁giáo": 1765,
      "▁sặc": 1766,
      "llie": 1767,
      "▁chai": 1768,
      "▁kệ": 1769,
      "Này": 1770,
      "\",": 1771,
      "▁vết": 1772,
      "▁vồng": 1773,
      "lue": 1774,
      "Joe": 1775,
      "▁bão": 1776,
      "Đi": 1777,
      "vui": 1778,
      "▁hận": 1779,
      "▁mày": 1780,
      "▁khoẻ": 1781,
      "▁năng": 1782,
      "▁rung": 1783,
      "Thằng": 1784,
      "▁kỷ": 1785,
      "Mark": 1786,
      "▁thất": 1787,
      "▁núi": 1788,
      "▁lũ": 1789,
      "▁xám": 1790,
      "▁đạc": 1791,
      "▁dán": 1792,
      "▁cay": 1793,
      "▁so": 1794,
      "▁bận": 1795,
      "▁Ch": 1796,
      "▁nhót": 1797,
      "còn": 1798,
      "▁tan": 1799,
      "▁chúa": 1800,
      "▁vấn": 1801,
      "Buddy": 1802,
      "đến": 1803,
      "▁thuốc": 1804,
      "ụp": 1805,
      "▁xô": 1806,
      "▁nở": 1807,
      "▁tốn": 1808,
      "red": 1809,
      "Sao": 1810,
      "▁thìa": 1811,
      "▁chung": 1812,
      "he": 1813,
      "Trước": 1814,
      "Ho": 1815,
      "▁súng": 1816,
      "▁da": 1817,
      "ẩm": 1818,
      "▁vầ": 1819,
      "Ta": 1820,
      "Sarah": 1821,
      "▁trùng": 1822,
      "▁lớp": 1823,
      "▁nhấc": 1824,
      "▁dần": 1825,
      "▁tha": 1826,
      "ky": 1827,
      "▁dòng": 1828,
      "▁bong": 1829,
      "▁thợ": 1830,
      "▁thiên": 1831,
      "▁Bobo": 1832,
      "▁chọc": 1833,
      "▁rùa": 1834,
      "▁chảy": 1835,
      "cười": 1836,
      "▁nhắm": 1837,
      "▁đột": 1838,
      "▁treo": 1839,
      "▁đáo": 1840,
      "▁hùng": 1841,
      "ưỡng": 1842,
      "▁Fin": 1843,
      "▁thơ": 1844,
      "▁san": 1845,
      "ggy": 1846,
      "Chỉ": 1847,
      "▁tiếc": 1848,
      "▁ngang": 1849,
      "▁lính": 1850,
      "ượng": 1851,
      "ngay": 1852,
      "▁vùng": 1853,
      "▁háo": 1854,
      "▁tội": 1855,
      "▁Buddy": 1856,
      "▁nắp": 1857,
      "ệnh": 1858,
      "unny": 1859,
      "Billy": 1860,
      "▁nồi": 1861,
      "le": 1862,
      "▁thăng": 1863,
      "▁muộn": 1864,
      "nhảy": 1865,
      "▁đảo": 1866,
      "▁thảm": 1867,
      "▁ớt": 1868,
      "▁vụ": 1869,
      "▁cậy": 1870,
      "▁ban": 1871,
      "▁ghen": 1872,
      "Jim": 1873,
      "▁môi": 1874,
      "▁điểm": 1875,
      "▁kính": 1876,
      "▁A": 1877,
      "▁vi": 1878,
      "▁ký": 1879,
      "ợn": 1880,
      "▁đố": 1881,
      "Đôi": 1882,
      "▁vải": 1883,
      "▁ốc": 1884,
      "▁gói": 1885,
      "▁chuẩn": 1886,
      "▁ngẩn": 1887,
      "▁in": 1888,
      "Mary": 1889,
      "Công": 1890,
      "ợm": 1891,
      "đừng": 1892,
      "Hắn": 1893,
      "▁bơ": 1894,
      "▁chụp": 1895,
      "ươu": 1896,
      "▁tỉnh": 1897,
      "Gió": 1898,
      "▁tị": 1899,
      "▁tràn": 1900,
      "▁điên": 1901,
      "▁bối": 1902,
      "▁dã": 1903,
      "?'\n": 1904,
      "▁ngớ": 1905,
      "▁găng": 1906,
      "oo": 1907,
      "▁ngợm": 1908,
      "▁sói": 1909,
      "▁trăng": 1910,
      "▁rác": 1911,
      "▁hò": 1912,
      "ớn": 1913,
      "▁giỏ": 1914,
      "▁lưới": 1915,
      "ịp": 1916,
      "▁khẩu": 1917,
      "sie": 1918,
      "uổi": 1919,
      "erry": 1920,
      "▁chằm": 1921,
      "▁mong": 1922,
      "Chị": 1923,
      "▁đoàn": 1924,
      "▁gửi": 1925,
      "▁lê": 1926,
      "mặt": 1927,
      "▁yếu": 1928,
      "uông": 1929,
      "iếp": 1930,
      "ạy": 1931,
      "obot": 1932,
      "oom": 1933,
      "▁dạng": 1934,
      "▁Daisy": 1935,
      "điều": 1936,
      "▁tai": 1937,
      "▁sơ": 1938,
      "▁run": 1939,
      "chim": 1940,
      "▁hội": 1941,
      "▁biểu": 1942,
      "▁can": 1943,
      "▁chộp": 1944,
      "đi": 1945,
      "▁thoải": 1946,
      "▁dâu": 1947,
      "▁cục": 1948,
      "▁hứng": 1949,
      "▁hỗ": 1950,
      "▁chầm": 1951,
      "▁mạng": 1952,
      "cky": 1953,
      "▁ngước": 1954,
      "Chắc": 1955,
      "▁xà": 1956,
      "▁im": 1957,
      "ich": 1958,
      "▁nấp": 1959,
      "▁phun": 1960,
      "ớp": 1961,
      "enny": 1962,
      "▁vuốt": 1963,
      "Nước": 1964,
      "▁buộc": 1965,
      "cây": 1966,
      "▁Be": 1967,
      "▁huýt": 1968,
      "▁hoang": 1969,
      "Mimi": 1970,
      "'.\n": 1971,
      "▁giành": 1972,
      "ừu": 1973,
      "▁rẩy": 1974,
      "▁trà": 1975,
      "▁chương": 1976,
      "▁cân": 1977,
      "▁khởi": 1978,
      "irpy": 1979,
      "Luna": 1980,
      "▁đông": 1981,
      "▁lóc": 1982,
      "▁chất": 1983,
      "▁rạng": 1984,
      "▁phù": 1985,
      "Món": 1986,
      "▁chóc": 1987,
      "▁vương": 1988,
      "▁sấu": 1989,
      "iêm": 1990,
      "▁đấu": 1991,
      "▁chợ": 1992,
      "Molly": 1993,
      "trên": 1994,
      "▁thằng": 1995,
      "▁Sarah": 1996,
      "Vào": 1997,
      "▁mọc": 1998,
      "▁ấn": 1999,
      "▁lồng": 2000,
      "▁nhẹn": 2001,
      "Gia": 2002,
      "▁rau": 2003,
      "▁rộn": 2004,
      "▁dao": 2005,
      "..": 2006,
      "▁bạc": 2007,
      "▁hiệu": 2008,
      "▁tránh": 2009,
      "▁vở": 2010,
      "▁hươu": 2011,
      "Nghe": 2012,
      "▁diễu": 2013,
      "▁robot": 2014,
      "Chà": 2015,
      "▁dấu": 2016,
      "ồm": 2017,
      "▁rãi": 2018,
      "▁hướng": 2019,
      "▁John": 2020,
      "ho": 2021,
      "dw": 2022,
      "▁cừu": 2023,
      "▁mượn": 2024,
      "Ollie": 2025,
      "ra": 2026,
      "▁lý": 2027,
      "▁buýt": 2028,
      "dwich": 2029,
      "▁mùa": 2030,
      "cho": 2031,
      "Nhà": 2032,
      "▁su": 2033,
      "▁sandwich": 2034,
      "▁đớn": 2035,
      "▁giữa": 2036,
      "▁cháy": 2037,
      "▁mập": 2038,
      "omo": 2039,
      "Remy": 2040,
      "▁nếm": 2041,
      "oggy": 2042,
      "▁Joe": 2043,
      "▁choàng": 2044,
      "▁bốc": 2045,
      "sau": 2046,
      "Mình": 2047,
      "▁nghĩa": 2048,
      "▁gương": 2049,
      "▁nho": 2050,
      "▁thái": 2051,
      "▁nhai": 2052,
      "andy": 2053,
      "Thỏ": 2054,
      "▁ngửi": 2055,
      "▁màn": 2056,
      "▁viện": 2057,
      "▁khiêm": 2058,
      "▁tác": 2059,
      "▁nhát": 2060,
      "▁lu": 2061,
      "▁Billy": 2062,
      "▁điệ": 2063,
      "mọi": 2064,
      "▁bỏng": 2065,
      "óe": 2066,
      "▁thừng": 2067,
      "Thay": 2068,
      "li": 2069,
      "▁cúi": 2070,
      "ph": 2071,
      "▁chuối": 2072,
      "ee": 2073,
      "chạy": 2074,
      "▁lầm": 2075,
      "▁nhút": 2076,
      "▁triển": 2077,
      "▁tạp": 2078,
      "▁set": 2079,
      "▁phiền": 2080,
      "▁H": 2081,
      "▁trận": 2082,
      "Để": 2083,
      "▁móc": 2084,
      "▁ngộ": 2085,
      "▁mu": 2086,
      "▁thủy": 2087,
      "▁khói": 2088,
      "▁nghĩnh": 2089,
      "▁bảng": 2090,
      "▁ep": 2091,
      "▁thầm": 2092,
      "izz": 2093,
      "▁bừa": 2094,
      "chỉ": 2095,
      "▁sò": 2096,
      "▁nhóm": 2097,
      "▁tách": 2098,
      "▁lười": 2099,
      "▁bó": 2100,
      "hạnh": 2101,
      "▁pin": 2102,
      "▁giật": 2103,
      "▁chết": 2104,
      "▁bệnh": 2105,
      "▁vuông": 2106,
      "▁lối": 2107,
      "▁dính": 2108,
      "▁hỗn": 2109,
      "ũa": 2110,
      "▁thắt": 2111,
      "▁pho": 2112,
      "▁toà": 2113,
      "▁ráo": 2114,
      "▁sồi": 2115,
      "▁tia": 2116,
      "▁xế": 2117,
      "uôi": 2118,
      "▁bộn": 2119,
      "▁pha": 2120,
      "▁dáng": 2121,
      "▁đũa": 2122,
      "▁nhọn": 2123,
      "▁ga": 2124,
      "',": 2125,
      "▁Whiskers": 2126,
      "Với": 2127,
      "Ph": 2128,
      "▁K": 2129,
      "ướp": 2130,
      "Đứa": 2131,
      "▁phủ": 2132,
      "mèo": 2133,
      "▁lượng": 2134,
      "▁tôn": 2135,
      "▁nguyện": 2136,
      "ộm": 2137,
      "▁còi": 2138,
      "▁vặt": 2139,
      "▁ví": 2140,
      "▁Tommy": 2141,
      "đây": 2142,
      "▁trộm": 2143,
      "để": 2144,
      "nói": 2145,
      "▁gọn": 2146,
      "giống": 2147,
      "▁reo": 2148,
      "▁hà": 2149,
      "▁tuần": 2150,
      "▁khát": 2151,
      "▁chuồng": 2152,
      "▁khuấy": 2153,
      "với": 2154,
      "▁long": 2155,
      "▁gõ": 2156,
      "▁vai": 2157,
      "izza": 2158,
      "tuổi": 2159,
      "▁lang": 2160,
      "▁Mướt": 2161,
      "▁gàng": 2162,
      "▁mứt": 2163,
      "▁tắt": 2164,
      "▁sô": 2165,
      "▁phong": 2166,
      "▁ngoãn": 2167,
      "▁manh": 2168,
      "▁ghep": 2169,
      "▁bi": 2170,
      "▁cọ": 2171,
      "▁liếm": 2172,
      "▁xúc": 2173,
      "▁mi": 2174,
      "▁cư": 2175,
      "ốm": 2176,
      "▁cưng": 2177,
      "▁cột": 2178,
      "iny": 2179,
      "▁hách": 2180,
      "▁lẽo": 2181,
      "▁dẻ": 2182,
      "▁quế": 2183,
      "▁nghiệp": 2184,
      "Blue": 2185,
      "▁đắt": 2186,
      "tớ": 2187,
      "▁mọng": 2188,
      "ựng": 2189,
      "Ella": 2190,
      "▁cẩu": 2191,
      "og": 2192,
      "▁hắt": 2193,
      "▁mỏng": 2194,
      "ndy": 2195,
      "▁miện": 2196,
      "tại": 2197,
      "▁vấp": 2198,
      "▁rậm": 2199,
      "▁luyện": 2200,
      "▁lao": 2201,
      "cha": 2202,
      "▁phút": 2203,
      "▁ru": 2204,
      "▁hải": 2205,
      "▁vẹ": 2206,
      "xin": 2207,
      "uzz": 2208,
      "Viên": 2209,
      "▁biếng": 2210,
      "Cẩn": 2211,
      "▁Z": 2212,
      "▁pizza": 2213,
      "ve": 2214,
      "▁nhiệt": 2215,
      "▁hiếm": 2216,
      "Lũ": 2217,
      "▁vặn": 2218,
      "▁kịp": 2219,
      "▁giơ": 2220,
      "▁j": 2221,
      "▁cướp": 2222,
      "▁lợn": 2223,
      "▁bồ": 2224,
      "▁thập": 2225,
      "▁tóe": 2226,
      "óa": 2227,
      "▁đoán": 2228,
      "▁góc": 2229,
      "▁chớp": 2230,
      "như": 2231,
      "▁xịt": 2232,
      "▁xóm": 2233,
      "▁heo": 2234,
      "▁gắt": 2235,
      "▁đựng": 2236,
      "▁dầu": 2237,
      "▁chợp": 2238,
      "▁tỏa": 2239,
      "▁tăng": 2240,
      "▁nghị": 2241,
      "▁sỏi": 2242,
      "oppy": 2243,
      "▁buồm": 2244,
      "chơi": 2245,
      "▁xách": 2246,
      "▁nghiệm": 2247,
      "▁nhắc": 2248,
      "sáng": 2249,
      "ina": 2250,
      "ệm": 2251,
      "ex": 2252,
      "▁Mimi": 2253,
      "õm": 2254,
      "▁cúng": 2255,
      "▁vội": 2256,
      "el": 2257,
      "▁nuôi": 2258,
      "▁thơm": 2259,
      "ol": 2260,
      "rất": 2261,
      "▁cặp": 2262,
      "▁săn": 2263,
      "Fred": 2264,
      "▁giẻ": 2265,
      "▁lượt": 2266,
      "đã": 2267,
      "▁khoe": 2268,
      "▁chổi": 2269,
      "▁tiết": 2270,
      "▁râm": 2271,
      "ốp": 2272,
      "Tấm": 2273,
      "▁pháo": 2274,
      "ike": 2275,
      "▁nến": 2276,
      "▁cuộn": 2277,
      "▁trì": 2278,
      "▁trải": 2279,
      "▁cổng": 2280,
      "giúp": 2281,
      "Trời": 2282,
      "▁hói": 2283,
      "▁dày": 2284,
      "▁đón": 2285,
      "▁che": 2286,
      "▁hầm": 2287,
      "Ai": 2288,
      "▁nhấn": 2289,
      "▁lùng": 2290,
      "▁trồng": 2291,
      "▁lội": 2292,
      "Jimmy": 2293,
      "▁chối": 2294,
      "Jill": 2295,
      "▁gấp": 2296,
      "ag": 2297,
      "▁kẻ": 2298,
      "▁trôi": 2299,
      "Ngôi": 2300,
      "▁giặt": 2301,
      "▁nội": 2302,
      "▁quân": 2303,
      "▁vẹt": 2304,
      "▁nhàm": 2305,
      ".\"\n\"": 2306,
      "vi": 2307,
      "ẫm": 2308,
      "▁vụng": 2309,
      "▁ốm": 2310,
      "▁trị": 2311,
      "▁Lila": 2312,
      "cố": 2313,
      "▁mù": 2314,
      "ucky": 2315,
      "▁nhõm": 2316,
      "▁sưởi": 2317,
      "▁chữ": 2318,
      "▁khuyên": 2319,
      "▁phân": 2320,
      "▁gỏng": 2321,
      "▁nga": 2322,
      "▁điệu": 2323,
      "Nhiều": 2324,
      "▁túc": 2325,
      "▁hắn": 2326,
      "▁nghiêm": 2327,
      "▁lát": 2328,
      "Bác": 2329,
      "Bella": 2330,
      "Su": 2331,
      "trời": 2332,
      "▁hạch": 2333,
      "es": 2334,
      "▁ruồi": 2335,
      "▁cấp": 2336,
      "ũi": 2337,
      "▁chạp": 2338,
      "Đêm": 2339,
      "▁Jerry": 2340,
      "▁giãn": 2341,
      "▁rẻ": 2342,
      "ỏa": 2343,
      "▁cắp": 2344,
      "▁ngập": 2345,
      "▁hít": 2346,
      "▁khung": 2347,
      "▁Br": 2348,
      "tìm": 2349,
      "▁dê": 2350,
      "▁gạch": 2351,
      "Leo": 2352,
      "▁hước": 2353,
      "▁cởi": 2354,
      "▁hoảng": 2355,
      "▁chàng": 2356,
      "Mưa": 2357,
      "▁cau": 2358,
      "▁hỏa": 2359,
      "▁chui": 2360,
      "xe": 2361,
      "▁quấn": 2362,
      "▁quạ": 2363,
      "ãng": 2364,
      "ởm": 2365,
      "ứu": 2366,
      "▁mê": 2367,
      "▁rầu": 2368,
      "▁tắc": 2369,
      "▁ti": 2370,
      "gã": 2371,
      "Mèo": 2372,
      "▁rách": 2373,
      "▁bấm": 2374,
      "▁ngữ": 2375,
      "▁sốt": 2376,
      "▁ngắt": 2377,
      "▁bế": 2378,
      "own": 2379,
      "▁khấu": 2380,
      "▁quất": 2381,
      "▁G": 2382,
      "▁nhạt": 2383,
      "ake": 2384,
      "▁tăm": 2385,
      "▁beo": 2386,
      "▁dưa": 2387,
      "▁khoai": 2388,
      "▁nâng": 2389,
      "▁thi": 2390,
      "▁đắng": 2391,
      "thích": 2392,
      "ti": 2393,
      "▁Emma": 2394,
      "▁linh": 2395,
      "▁tởm": 2396,
      "▁chảo": 2397,
      "Pet": 2398,
      "▁nguyên": 2399,
      "Hàng": 2400,
      "▁hung": 2401,
      "▁phẩm": 2402,
      "Momo": 2403,
      "▁rõ": 2404,
      "▁ngậm": 2405,
      "▁phi": 2406,
      "cháu": 2407,
      "luôn": 2408,
      "▁làn": 2409,
      "▁vút": 2410,
      "▁bể": 2411,
      "▁ngọc": 2412,
      "nếu": 2413,
      "▁dị": 2414,
      "▁kích": 2415,
      "▁W": 2416,
      "ily": 2417,
      "Chúc": 2418,
      "▁mòn": 2419,
      "▁Bella": 2420,
      "▁nề": 2421,
      "▁duyên": 2422,
      "▁nạ": 2423,
      "▁độn": 2424,
      "Bobby": 2425,
      "▁ngưỡng": 2426,
      "ủi": 2427,
      "▁xôi": 2428,
      "▁Blue": 2429,
      "Cơn": 2430,
      "▁cào": 2431,
      "▁luật": 2432,
      "▁Fred": 2433,
      "▁gừ": 2434,
      "▁Luna": 2435,
      "▁va": 2436,
      "▁gắn": 2437,
      "Sư": 2438,
      "Tiếng": 2439,
      "▁Brown": 2440,
      "▁châm": 2441,
      "▁ly": 2442,
      "arl": 2443,
      "èm": 2444,
      "▁trêu": 2445,
      "▁rương": 2446,
      "▁trơn": 2447,
      "Emily": 2448,
      "eep": 2449,
      "▁mực": 2450,
      "▁búa": 2451,
      "▁Jim": 2452,
      "oàn": 2453,
      "st": 2454,
      "Lilly": 2455,
      "▁năm": 2456,
      "▁Jen": 2457,
      "▁nhiêu": 2458,
      "▁hôi": 2459,
      "▁Leo": 2460,
      "inky": 2461,
      "khiến": 2462,
      "Bông": 2463,
      "▁vượt": 2464,
      "▁suối": 2465,
      "▁dường": 2466,
      "▁lơ": 2467,
      "▁súc": 2468,
      "▁ray": 2469,
      "▁ủng": 2470,
      "▁Lisa": 2471,
      "▁Ann": 2472,
      "▁thảo": 2473,
      "▁chứa": 2474,
      "nơi": 2475,
      "xanh": 2476,
      "ed": 2477,
      "đồ": 2478,
      "ipp": 2479,
      "sao": 2480,
      "▁Ro": 2481,
      "▁vĩ": 2482,
      "▁khắc": 2483,
      "▁Jill": 2484,
      "▁mạch": 2485,
      "▁đời": 2486,
      "▁văn": 2487,
      "▁Chirpy": 2488,
      "▁nghếch": 2489,
      "Cat": 2490,
      "▁gác": 2491,
      "trông": 2492,
      "▁sương": 2493,
      "▁việt": 2494,
      "▁lặp": 2495,
      "ưởng": 2496,
      "▁cương": 2497,
      "▁Molly": 2498,
      "se": 2499,
      "▁vã": 2500,
      "▁phê": 2501,
      "▁lằn": 2502,
      "mỗi": 2503,
      "▁mô": 2504,
      "▁tán": 2505,
      "▁xù": 2506,
      "▁nấm": 2507,
      "▁đinh": 2508,
      "ịn": 2509,
      "▁vạt": 2510,
      "▁nơ": 2511,
      "Cùng": 2512,
      "Kể": 2513,
      "chó": 2514,
      "▁\"\n": 2515,
      "▁no": 2516,
      "Dừng": 2517,
      "Bầu": 2518,
      "▁nhích": 2519,
      "▁chồng": 2520,
      "▁dải": 2521,
      "▁nhắn": 2522,
      "Cuộc": 2523,
      "▁giao": 2524,
      "▁thiếp": 2525,
      "▁dịu": 2526,
      "▁jeep": 2527,
      "▁chải": 2528,
      "!\n\"": 2529,
      "?\n-": 2530,
      "ig": 2531,
      "▁ngũ": 2532,
      "Ngọn": 2533,
      "▁lược": 2534,
      "?\n\"": 2535,
      "▁ủi": 2536,
      "▁bám": 2537,
      "▁quạt": 2538,
      "▁bốn": 2539,
      "▁lùi": 2540,
      "▁thằn": 2541,
      "▁nhiệm": 2542,
      "xi": 2543,
      "we": 2544,
      "Sp": 2545,
      "um": 2546,
      "▁bì": 2547,
      "▁ngỗng": 2548,
      "▁tầm": 2549,
      "▁nhúc": 2550,
      "bởi": 2551,
      "ượu": 2552,
      "▁buông": 2553,
      "▁xuyên": 2554,
      "mà": 2555,
      "ice": 2556,
      "▁khăng": 2557,
      "▁hậu": 2558,
      "▁chôn": 2559,
      "▁lúa": 2560,
      "Fluffy": 2561,
      "▁diêm": 2562,
      "▁hè": 2563,
      "hoa": 2564,
      "▁sa": 2565,
      "Hoa": 2566,
      "▁nam": 2567,
      "▁cảng": 2568,
      "▁thuỷ": 2569,
      "▁thước": 2570,
      "Giúp": 2571,
      "tar": 2572,
      "▁ưa": 2573,
      "▁te": 2574,
      "▁bẫy": 2575,
      "▁thẳng": 2576,
      "▁chấp": 2577,
      "True": 2578,
      "?\"\n\"": 2579,
      "ẳn": 2580,
      "▁Remy": 2581,
      "▁tem": 2582,
      "▁TV": 2583,
      "Lúc": 2584,
      "het": 2585,
      "bầu": 2586,
      "▁lễ": 2587,
      "▁trúc": 2588,
      "weet": 2589,
      "▁bỉnh": 2590,
      "▁hiền": 2591,
      "▁mã": 2592,
      "azz": 2593,
      "▁cáp": 2594,
      "ce": 2595,
      "▁móng": 2596,
      "Đầu": 2597,
      "▁đâm": 2598,
      "▁hóa": 2599,
      "▁bướng": 2600,
      "Andy": 2601,
      "▁hẳn": 2602,
      "Đồ": 2603,
      "▁chùi": 2604,
      "▁taxi": 2605,
      "▁tam": 2606,
      "lice": 2607,
      "▁ngược": 2608,
      "▁Mark": 2609,
      "▁hấp": 2610,
      "▁tốc": 2611,
      "▁ghet": 2612,
      "Chirpy": 2613,
      "ro": 2614,
      "▁quàng": 2615,
      "▁lục": 2616,
      "od": 2617,
      "Mày": 2618,
      "▁than": 2619,
      "ẫu": 2620,
      "▁dì": 2621,
      "Lulu": 2622,
      "ún": 2623,
      "▁tôm": 2624,
      "▁rượu": 2625,
      "thấy": 2626,
      "▁lượn": 2627,
      "▁trụ": 2628,
      "▁giây": 2629,
      "▁hoả": 2630,
      "▁bắp": 2631,
      "▁veo": 2632,
      "▁khay": 2633,
      "▁nứt": 2634,
      "▁nhẵn": 2635,
      "▁Sp": 2636,
      "▁ngứa": 2637,
      "▁lờ": 2638,
      "▁tá": 2639,
      "▁tù": 2640,
      "▁lừa": 2641,
      "ín": 2642,
      "▁tẩy": 2643,
      "▁dám": 2644,
      "Ro": 2645,
      "▁chặn": 2646,
      "ươi": 2647,
      "▁điếc": 2648,
      "▁Bunny": 2649,
      "Jen": 2650,
      "pet": 2651,
      "▁liền": 2652,
      "▁cạo": 2653,
      "▁hống": 2654,
      "▁dịch": 2655,
      "▁thờ": 2656,
      "▁ngáp": 2657,
      "▁nhở": 2658,
      "▁Mary": 2659,
      "▁toe": 2660,
      "\n-": 2661,
      "▁Gấu": 2662,
      "biết": 2663,
      "Jenny": 2664,
      "▁tàn": 2665,
      "▁thạch": 2666,
      "Mặc": 2667,
      "▁chuyền": 2668,
      "▁tao": 2669,
      "cuối": 2670,
      "thậm": 2671,
      "▁Rex": 2672,
      "▁trao": 2673,
      "▁mận": 2674,
      "irdy": 2675,
      "Benny": 2676,
      "mặc": 2677,
      "tay": 2678,
      "▁thiệp": 2679,
      "uyến": 2680,
      "úm": 2681,
      "Đám": 2682,
      "▁nát": 2683,
      "▁toán": 2684,
      "▁xoa": 2685,
      "▁phạm": 2686,
      "▁phương": 2687,
      "▁rổ": 2688,
      "▁rì": 2689,
      "▁mộ": 2690,
      "▁Doggy": 2691,
      "▁tráng": 2692,
      "oga": 2693,
      "được": 2694,
      "gấu": 2695,
      "▁phản": 2696,
      "đẹp": 2697,
      "▁tiêu": 2698,
      "▁chèo": 2699,
      "ưỡi": 2700,
      "▁gỡ": 2701,
      "Zoom": 2702,
      "▁nổ": 2703,
      "▁trực": 2704,
      "▁dọc": 2705,
      "▁tưới": 2706,
      "aghet": 2707,
      "aghetti": 2708,
      "ủy": 2709,
      "▁sốc": 2710,
      "▁lam": 2711,
      "▁thấp": 2712,
      "▁rỉ": 2713,
      "▁thuyết": 2714,
      "▁chà": 2715,
      "▁màng": 2716,
      "▁kèn": 2717,
      "▁mộng": 2718,
      "▁dế": 2719,
      "▁gạt": 2720,
      "cao": 2721,
      "▁vằn": 2722,
      "▁Su": 2723,
      "Trái": 2724,
      "nàng": 2725,
      "Cánh": 2726,
      "...": 2727,
      "▁gội": 2728,
      "▁chet": 2729,
      "▁Benny": 2730,
      "▁ẩm": 2731,
      "Tiny": 2732,
      "▁giếng": 2733,
      "fa": 2734,
      "▁sắm": 2735,
      "▁lướt": 2736,
      "▁Pet": 2737,
      "▁rồ": 2738,
      "▁ngắn": 2739,
      "!\n-": 2740,
      "paghetti": 2741,
      "▁chìm": 2742,
      "Đến": 2743,
      "▁cắm": 2744,
      "▁sũng": 2745,
      "▁tuộc": 2746,
      "▁hạ": 2747,
      "▁phạt": 2748,
      "▁đạt": 2749,
      "▁ập": 2750,
      "▁nĩa": 2751,
      "▁lầy": 2752,
      "▁muỗi": 2753,
      "▁dục": 2754,
      "▁sofa": 2755,
      "▁mĩ": 2756,
      "Sammy": 2757,
      "▁mĩm": 2758,
      "Cứu": 2759,
      "Tạm": 2760,
      "▁spaghetti": 2761,
      "▁ngừ": 2762,
      "Buzz": 2763,
      "▁lốp": 2764,
      "▁bành": 2765,
      "▁hồn": 2766,
      "nhà": 2767,
      "▁sầm": 2768,
      "▁mũm": 2769,
      "▁cưới": 2770,
      "▁vâng": 2771,
      "▁sấm": 2772,
      "etty": 2773,
      "▁E": 2774,
      "ssie": 2775,
      "Vị": 2776,
      "▁vận": 2777,
      "▁muối": 2778,
      "!-": 2779,
      "▁mục": 2780,
      "lên": 2781,
      "thỏ": 2782,
      "Lo": 2783,
      "▁rạp": 2784,
      "▁đệm": 2785,
      "▁Cat": 2786,
      "Bức": 2787,
      "▁cụt": 2788,
      "ian": 2789,
      "▁quyển": 2790,
      "ọa": 2791,
      "hy": 2792,
      "eddy": 2793,
      "▁quầy": 2794,
      "Cửa": 2795,
      "▁bóp": 2796,
      "▁chúc": 2797,
      "▁trợ": 2798,
      "▁ầm": 2799,
      "▁vợ": 2800,
      "▁quảng": 2801,
      "Bất": 2802,
      "▁dọa": 2803,
      "▁duỗi": 2804,
      "Nào": 2805,
      "▁hiển": 2806,
      "đôi": 2807,
      "▁bẻ": 2808,
      "▁mịn": 2809,
      "▁tháo": 2810,
      "▁cưỡi": 2811,
      "▁(": 2812,
      "ippin": 2813,
      "▁thám": 2814,
      "▁quen": 2815,
      "Ướ": 2816,
      "▁yoga": 2817,
      "Ước": 2818,
      "▁trưởng": 2819,
      "▁chiều": 2820,
      "▁dội": 2821,
      "thưa": 2822,
      "olf": 2823,
      "Mụ": 2824,
      "▁tàng": 2825,
      "▁sưu": 2826,
      "▁đền": 2827,
      "▁phô": 2828,
      "Tuyệt": 2829,
      "▁thù": 2830,
      "Cuốn": 2831,
      "▁quãng": 2832,
      "▁hồi": 2833,
      "▁hô": 2834,
      "Xe": 2835,
      "Đoàn": 2836,
      "▁chen": 2837,
      "▁quỳ": 2838,
      "▁thối": 2839,
      "▁xoắn": 2840,
      "▁cúp": 2841,
      "▁thẻ": 2842,
      "▁mic": 2843,
      "Bánh": 2844,
      "▁ảo": 2845,
      "▁roi": 2846,
      "▁sứa": 2847,
      "▁bìa": 2848,
      "trượt": 2849,
      "▁sạn": 2850,
      "▁truyện": 2851,
      "Bộ": 2852,
      "▁vươn": 2853,
      "▁yến": 2854,
      "▁bạch": 2855,
      "▁đắn": 2856,
      "▁chũi": 2857,
      "uitar": 2858,
      "▁huy": 2859,
      "▁nàn": 2860,
      "lad": 2861,
      "▁X": 2862,
      "gió": 2863,
      "!\"\n\"": 2864,
      "ser": 2865,
      "▁chở": 2866,
      "▁tiểu": 2867,
      "bb": 2868,
      "▁hiệp": 2869,
      "▁muỗng": 2870,
      "Giọng": 2871,
      "đang": 2872,
      "▁mep": 2873,
      "▁bọt": 2874,
      "▁bớt": 2875,
      "▁nghèo": 2876,
      "▁rỗng": 2877,
      "▁u": 2878,
      "▁hương": 2879,
      "▁nhãn": 2880,
      "▁mút": 2881,
      "sẵn": 2882,
      "đúng": 2883,
      "▁golf": 2884,
      "Ducky": 2885,
      "▁kín": 2886,
      "▁guitar": 2887,
      "▁neo": 2888,
      "▁thụ": 2889,
      "▁ngầm": 2890,
      "Jerry": 2891,
      "nước": 2892,
      "▁Tiny": 2893,
      "▁trúng": 2894,
      "▁ác": 2895,
      "▁xay": 2896,
      "▁mạo": 2897,
      "cũng": 2898,
      "Tảng": 2899,
      "▁bày": 2900,
      "▁chồn": 2901,
      "▁ria": 2902,
      "Cá": 2903,
      "▁cử": 2904,
      "▁li": 2905,
      "▁mớ": 2906,
      "▁lựa": 2907,
      "▁ĩ": 2908,
      "▁khiếp": 2909,
      "▁Ollie": 2910,
      "▁xet": 2911,
      "▁sắt": 2912,
      "to": 2913,
      "▁nhún": 2914,
      "▁đốt": 2915,
      "▁tết": 2916,
      "▁xì": 2917,
      "bọn": 2918,
      "▁salad": 2919,
      "▁đức": 2920,
      "aya": 2921,
      "▁rèm": 2922,
      "▁hàu": 2923,
      "Máy": 2924,
      "▁chín": 2925,
      "ễn": 2926,
      "▁xác": 2927,
      "▁đoạn": 2928,
      "thật": 2929,
      "▁giọt": 2930,
      "deo": 2931,
      "▁đáy": 2932,
      "Căn": 2933,
      "giờ": 2934,
      "Oli": 2935,
      "Đáng": 2936,
      "Chó": 2937,
      "▁ngài": 2938,
      "▁trôm": 2939,
      "▁trômpet": 2940,
      "ổng": 2941,
      "▁khiên": 2942,
      "▁nực": 2943,
      "▁hủy": 2944,
      "▁N": 2945,
      "▁ruy": 2946,
      "▁xẻ": 2947,
      "▁gầy": 2948,
      "▁bít": 2949,
      "Hòn": 2950,
      "mềm": 2951,
      "Ban": 2952,
      "▁trừng": 2953,
      "ox": 2954,
      "▁lộc": 2955,
      "▁chày": 2956,
      "iano": 2957,
      "keo": 2958,
      "bánh": 2959,
      "▁đích": 2960,
      "▁điển": 2961,
      "▁Mẹ": 2962,
      "▁rìu": 2963,
      "▁mười": 2964,
      "sh": 2965,
      "▁phớt": 2966,
      "Peter": 2967,
      "▁rải": 2968,
      "▁thiệu": 2969,
      "▁piano": 2970,
      "▁video": 2971,
      "▁lưỡ": 2972,
      "▁mụ": 2973,
      "▁tắn": 2974,
      "▁om": 2975,
      "dừng": 2976,
      "▁lộ": 2977,
      "oby": 2978,
      "▁micro": 2979,
      "lo": 2980,
      "▁êm": 2981,
      "▁nhắt": 2982,
      "▁đà": 2983,
      "▁Bobby": 2984,
      "oph": 2985,
      "▁chừng": 2986,
      "gia": 2987,
      "arry": 2988,
      "▁khẽ": 2989,
      "▁tê": 2990,
      "▁đầm": 2991,
      "màu": 2992,
      "▁chói": 2993,
      "Tốt": 2994,
      "▁vest": 2995,
      "▁rói": 2996,
      "▁ghim": 2997,
      "▁giun": 2998,
      "▁Momo": 2999,
      "▁V": 3000,
      "▁dối": 3001,
      "▁máu": 3002,
      "Bunny": 3003,
      "Đã": 3004,
      "Ba": 3005,
      "Chim": 3006,
      "thân": 3007,
      "▁nê": 3008,
      "tên": 3009,
      "mỉm": 3010,
      "Dưới": 3011,
      "▁vớ": 3012,
      "ợt": 3013,
      "▁bíp": 3014,
      "▁lử": 3015,
      "uột": 3016,
      "▁lốc": 3017,
      "di": 3018,
      "đưa": 3019,
      "Alice": 3020,
      "▁rễ": 3021,
      "▁nhẹp": 3022,
      "▁dề": 3023,
      "Hoàng": 3024,
      "▁khâu": 3025,
      "▁thủng": 3026,
      "▁phí": 3027,
      "▁hàm": 3028,
      "▁khoái": 3029,
      "▁phàn": 3030,
      ".'\n\"": 3031,
      "▁nhào": 3032,
      "thì": 3033,
      "▁nháy": 3034,
      "õi": 3035,
      "ta": 3036,
      "▁co": 3037,
      "Doggy": 3038,
      "Thậm": 3039,
      "▁kịch": 3040,
      "▁củi": 3041,
      "ge": 3042,
      "▁dập": 3043,
      "Jake": 3044,
      "tạo": 3045,
      "▁tiệm": 3046,
      "▁hiên": 3047,
      "ậc": 3048,
      "▁Li": 3049,
      "▁xát": 3050,
      "ầng": 3051,
      "▁văng": 3052,
      "Da": 3053,
      "▁non": 3054,
      "bay": 3055,
      "▁nệm": 3056,
      "▁sờ": 3057,
      "▁thách": 3058,
      "▁laser": 3059,
      "▁Buzz": 3060,
      "▁dưỡng": 3061,
      "era": 3062,
      "▁siêu": 3063,
      "▁duy": 3064,
      "Chờ": 3065,
      "▁dõi": 3066,
      "Sáng": 3067,
      "▁cơm": 3068,
      "▁xuân": 3069,
      "▁phộng": 3070,
      "▁ráp": 3071,
      "ea": 3072,
      "▁rái": 3073,
      "▁vách": 3074,
      "cá": 3075,
      "Dan": 3076,
      "▁thí": 3077,
      "▁xăng": 3078,
      "▁điểu": 3079,
      "▁cưỡng": 3080,
      "▁tông": 3081,
      "▁vững": 3082,
      "▁bậc": 3083,
      "▁thiếu": 3084,
      "▁trần": 3085,
      "▁'\n-": 3086,
      "Câu": 3087,
      "or": 3088,
      "Hằng": 3089,
      "▁tóm": 3090,
      "▁song": 3091,
      "▁lẻ": 3092,
      "Chơi": 3093,
      "▁Ella": 3094,
      "▁chống": 3095,
      "Như": 3096,
      "ngôi": 3097,
      "▁kiện": 3098,
      "reddy": 3099,
      "▁lan": 3100,
      "▁cúc": 3101,
      "ayak": 3102,
      "te": 3103,
      "chị": 3104,
      "Ếch": 3105,
      "ùm": 3106,
      "Chủ": 3107,
      "sách": 3108,
      "Chấm": 3109,
      "▁kayak": 3110,
      "▁cống": 3111,
      "▁cáu": 3112,
      "▁vả": 3113,
      "▁mẫu": 3114,
      "ẳm": 3115,
      "▁thẳm": 3116,
      "íu": 3117,
      "ik": 3118,
      "▁dựa": 3119,
      "▁\n": 3120,
      "nic": 3121,
      "▁'\n\"": 3122,
      "▁khoáng": 3123,
      "icnic": 3124,
      "▁tuân": 3125,
      "▁picnic": 3126,
      "▁thet": 3127,
      "▁nản": 3128,
      "co": 3129,
      "now": 3130,
      "▁ngươi": 3131,
      "▁kỉnh": 3132,
      "▁Lee": 3133,
      "▁Andy": 3134,
      "Mướt": 3135,
      "eor": 3136,
      "▁đốm": 3137,
      "▁há": 3138,
      "Tuy": 3139,
      "▁hòm": 3140,
      "▁lôi": 3141,
      "▁thò": 3142,
      "▁mắng": 3143,
      "▁Sammy": 3144,
      "Bóng": 3145,
      "▁Jimmy": 3146,
      "Poppy": 3147,
      "▁nhựa": 3148,
      "Sẽ": 3149,
      "room": 3150,
      "Khu": 3151,
      "▁lũng": 3152,
      "▁Ducky": 3153,
      "▁tích": 3154,
      "▁tẻ": 3155,
      "▁vỉ": 3156,
      "chẳng": 3157,
      "▁bến": 3158,
      "▁bọc": 3159,
      "▁xẻng": 3160,
      "▁rũ": 3161,
      "▁thoảng": 3162,
      "▁cong": 3163,
      "▁ló": 3164,
      "be": 3165,
      "▁pháp": 3166,
      "▁đem": 3167,
      "▁bực": 3168,
      "eorge": 3169,
      "▁má": 3170,
      "▁cật": 3171,
      "▁xốp": 3172,
      "▁lạch": 3173,
      "Tụi": 3174,
      "ẹo": 3175,
      "cùng": 3176,
      "▁vung": 3177,
      "▁khiêu": 3178,
      "▁rít": 3179,
      "▁cỡ": 3180,
      "san": 3181,
      "Đưa": 3182,
      "▁bự": 3183,
      "▁thỏi": 3184,
      "Rex": 3185,
      "uồn": 3186,
      "▁Đ": 3187,
      "▁liên": 3188,
      "▁tương": 3189,
      "▁ngôn": 3190,
      "▁nhạo": 3191,
      "▁lỡ": 3192,
      "trái": 3193,
      "lại": 3194,
      "▁luận": 3195,
      "Còn": 3196,
      "Zip": 3197,
      "▁mến": 3198,
      "▁Th": 3199,
      "Olive": 3200,
      "vào": 3201,
      "▁nè": 3202,
      "▁nhăn": 3203,
      "▁Bà": 3204,
      "từ": 3205,
      "thằng": 3206,
      "▁sừng": 3207,
      "bên": 3208,
      "nhiều": 3209,
      "oun": 3210,
      "▁loáng": 3211,
      "▁nôn": 3212,
      "les": 3213,
      "▁Jenny": 3214,
      "lông": 3215,
      "ird": 3216,
      "Bằng": 3217,
      "▁rữa": 3218,
      "Hy": 3219,
      "▁giẫm": 3220,
      "▁trú": 3221,
      "▁niệm": 3222,
      "ba": 3223,
      "▁lưỡi": 3224,
      "▁dốt": 3225,
      "▁lui": 3226,
      "▁quốc": 3227,
      "Susie": 3228,
      "▁ấp": 3229,
      "▁Rose": 3230,
      "▁kiểu": 3231,
      ").\n": 3232,
      "as": 3233,
      "▁nhịp": 3234,
      "Pete": 3235,
      "iki": 3236,
      "▁chi": 3237,
      "Sợi": 3238,
      "ẹn": 3239,
      "▁ghê": 3240,
      "Mắt": 3241,
      "▁mượt": 3242,
      "▁Kim": 3243,
      "ngh": 3244,
      "▁mối": 3245,
      "▁vít": 3246,
      "Bỗng": 3247,
      "Bessie": 3248,
      "Mùi": 3249,
      "Will": 3250,
      "race": 3251,
      "chờ": 3252,
      "▁lẻn": 3253,
      "lex": 3254,
      "▁thung": 3255,
      "▁trắc": 3256,
      "đá": 3257,
      "▁tít": 3258,
      "Vài": 3259,
      "Sẵn": 3260,
      "▁tụ": 3261,
      "Pippin": 3262,
      "▁khuyến": 3263,
      "Phải": 3264,
      "▁vất": 3265,
      "đứa": 3266,
      "▁nhet": 3267,
      "▁xoáy": 3268,
      "bất": 3269,
      "búp": 3270,
      "▁đạo": 3271,
      "Cho": 3272,
      "bông": 3273,
      "bây": 3274,
      "▁hám": 3275,
      "da": 3276,
      "Lá": 3277,
      "▁Lulu": 3278,
      "▁rộ": 3279,
      "aul": 3280,
      "▁hút": 3281,
      "▁hoãn": 3282,
      "▁giản": 3283,
      "▁quyền": 3284,
      "▁chật": 3285,
      "▁tầng": 3286,
      "▁thao": 3287,
      "▁kẹp": 3288,
      "Chuyện": 3289,
      "tiếng": 3290,
      "Thứ": 3291,
      "▁Birdy": 3292,
      "▁ngợi": 3293,
      "!'.\n": 3294,
      "▁chấm": 3295,
      "▁chế": 3296,
      "per": 3297,
      "igg": 3298,
      "▁hốc": 3299,
      "▁nhổ": 3300,
      "công": 3301,
      "giọng": 3302,
      "lấy": 3303,
      "Lẽ": 3304,
      "muốn": 3305,
      "cánh": 3306,
      "ophie": 3307,
      "mơ": 3308,
      "▁chứng": 3309,
      "Nữ": 3310,
      "kể": 3311,
      "Chia": 3312,
      "ngày": 3313,
      "▁liu": 3314,
      "▁khoảnh": 3315,
      "Giá": 3316,
      "▁đạm": 3317,
      "zag": 3318,
      "▁Jake": 3319,
      "Hạt": 3320,
      "▁lật": 3321,
      "Tài": 3322,
      "▁rạn": 3323,
      "▁Zoom": 3324,
      "Sunny": 3325,
      "▁chậu": 3326,
      "▁quyến": 3327,
      "▁ngùng": 3328,
      "▁tro": 3329,
      "opera": 3330,
      "Mandy": 3331,
      "▁đụng": 3332,
      "bắt": 3333,
      "chia": 3334,
      "Hoặc": 3335,
      "▁ngực": 3336,
      "▁thep": 3337,
      "▁Polly": 3338,
      "arlie": 3339,
      "▁thảy": 3340,
      "▁cưa": 3341,
      "▁Fr": 3342,
      "đặt": 3343,
      "nghe": 3344,
      "Trò": 3345,
      "bước": 3346,
      "▁mẩu": 3347,
      "uồng": 3348,
      "Polly": 3349,
      "ãnh": 3350,
      "quang": 3351,
      "Thôi": 3352,
      "oài": 3353,
      "▁ảm": 3354,
      "▁rên": 3355,
      "Ánh": 3356,
      "▁*": 3357,
      "Hộp": 3358,
      "▁bới": 3359,
      "▁dong": 3360,
      "▁Tina": 3361,
      "▁điệp": 3362,
      "▁coi": 3363,
      "ate": 3364,
      "▁rò": 3365,
      "▁lãng": 3366,
      "▁opera": 3367,
      "▁lắp": 3368,
      "▁cấu": 3369,
      "▁nốt": 3370,
      "Rob": 3371,
      "▁Tweet": 3372,
      "▁huỷ": 3373,
      "viên": 3374,
      "Chân": 3375,
      "cẩn": 3376,
      "▁rúc": 3377,
      "▁nghiên": 3378,
      "▁dỡ": 3379,
      "▁triều": 3380,
      "enry": 3381,
      "▁nhỉ": 3382,
      "▁rót": 3383,
      "sư": 3384,
      "▁họp": 3385,
      "Rất": 3386,
      "▁Ba": 3387,
      "Cáo": 3388,
      "▁Emily": 3389,
      "Sự": 3390,
      "Ru": 3391,
      "▁lệnh": 3392,
      "Pandy": 3393,
      "Dù": 3394,
      "!\",": 3395,
      "Trả": 3396,
      "▁thầy": 3397,
      "▁dẻo": 3398,
      "olin": 3399,
      "▁nhập": 3400,
      "▁nạn": 3401,
      "dio": 3402,
      "đội": 3403,
      "hôm": 3404,
      "òa": 3405,
      "▁Ma": 3406,
      "▁nghệ": 3407,
      "▁*\n": 3408,
      "▁phán": 3409,
      "vẫy": 3410,
      "▁ám": 3411,
      "▁nghiệt": 3412,
      "hát": 3413,
      "▁lô": 3414,
      "▁Peter": 3415,
      "uch": 3416,
      "Ra": 3417,
      "cy": 3418,
      "▁nhủ": 3419,
      "Lucky": 3420,
      "▁rong": 3421,
      "▁họa": 3422,
      "▁meo": 3423,
      "ụt": 3424,
      "▁toet": 3425,
      "▁nửa": 3426,
      "hnny": 3427,
      "eedy": 3428,
      "de": 3429,
      "cứu": 3430,
      "Giáo": 3431,
      "▁tía": 3432,
      "▁Betty": 3433,
      "▁hong": 3434,
      "ngon": 3435,
      "▁khôi": 3436,
      "Maria": 3437,
      "uội": 3438,
      "▁ngượng": 3439,
      "▁and": 3440,
      "Hình": 3441,
      "▁hòa": 3442,
      "▁nghía": 3443,
      "Vịt": 3444,
      "May": 3445,
      "háo": 3446,
      "igzag": 3447,
      "▁líu": 3448,
      "'.": 3449,
      "▁Gi": 3450,
      "Thiên": 3451,
      "▁dốc": 3452,
      "▁hằng": 3453,
      "▁Bu": 3454,
      ",-": 3455,
      "bóng": 3456,
      "thay": 3457,
      "▁chiêm": 3458,
      "▁sung": 3459,
      "món": 3460,
      "giả": 3461,
      "▁ghe": 3462,
      "Tina": 3463,
      "ames": 3464,
      "▁ái": 3465,
      "▁vo": 3466,
      "Vậy": 3467,
      "Ouch": 3468,
      "▁nhấp": 3469,
      "Vui": 3470,
      "▁cũi": 3471,
      ").": 3472,
      "Bow": 3473,
      "illie": 3474,
      "mình": 3475,
      "▁núm": 3476,
      "▁quát": 3477,
      "tận": 3478,
      "▁radio": 3479,
      "Ha": 3480,
      "▁Tr": 3481,
      "vẫn": 3482,
      "thế": 3483,
      "quay": 3484,
      "if": 3485,
      "ony": 3486,
      "Màu": 3487,
      "▁trưng": 3488,
      "vàng": 3489,
      "quea": 3490,
      "nowy": 3491,
      "▁khả": 3492,
      "▁rinh": 3493,
      "▁lệ": 3494,
      "▁nguội": 3495,
      "▁Chú": 3496,
      "▁cản": 3497,
      "▁miễn": 3498,
      "Chàng": 3499,
      "▁Rob": 3500,
      "▁Teddy": 3501,
      "lũ": 3502,
      "ưu": 3503,
      "Đồng": 3504,
      "Birdy": 3505,
      "▁sếu": 3506,
      "▁xuôi": 3507,
      "▁trầm": 3508,
      "▁tát": 3509,
      "quần": 3510,
      "Ăn": 3511,
      "Bữa": 3512,
      "▁tợn": 3513,
      "▁hệt": 3514,
      "Mike": 3515,
      ")\n": 3516,
      "Tweet": 3517,
      "▁vạch": 3518,
      "▁phết": 3519,
      "xo": 3520,
      "▁hển": 3521,
      "khóc": 3522,
      "▁hổn": 3523,
      "Lão": 3524,
      "▁ngụ": 3525,
      "▁vầng": 3526,
      "▁thua": 3527,
      "▁ngâm": 3528,
      "ỡn": 3529,
      "ick": 3530,
      "▁vực": 3531,
      "Spike": 3532,
      "oe": 3533,
      "▁giỡn": 3534,
      "▁giòn": 3535,
      "▁jazz": 3536,
      "▁ngẫm": 3537,
      "▁Lo": 3538,
      "Cứ": 3539,
      "bỏ": 3540,
      "▁violin": 3541,
      "Binky": 3542,
      "Bởi": 3543,
      "▁lung": 3544,
      "Bod": 3545,
      "cầm": 3546,
      "▁danh": 3547,
      "Dave": 3548,
      "đẩy": 3549,
      "▁bầy": 3550,
      "▁ngại": 3551,
      "▁dặn": 3552,
      "▁O": 3553,
      "▁đứt": 3554,
      "▁z": 3555,
      "▁dĩa": 3556,
      "ặm": 3557,
      "▁hoi": 3558,
      "▁bội": 3559,
      "▁Will": 3560,
      "vài": 3561,
      "▁cuồng": 3562,
      "hung": 3563,
      "▁đòi": 3564,
      "▁não": 3565,
      "▁xỉ": 3566,
      "▁sọ": 3567,
      "Dì": 3568,
      "dưới": 3569,
      "▁Pete": 3570,
      "Toby": 3571,
      "đầy": 3572,
      "ul": 3573,
      "Phòng": 3574,
      "▁cài": 3575,
      "▁gạo": 3576,
      "▁khinh": 3577,
      "cầu": 3578,
      "▁Ru": 3579,
      "▁nai": 3580,
      "sẽ": 3581,
      "▁nguậy": 3582,
      "Cảnh": 3583,
      "do": 3584,
      "khỏe": 3585,
      "▁tẩu": 3586,
      "Thị": 3587,
      "▁môn": 3588,
      "▁tháng": 3589,
      "cơn": 3590,
      "▁mộc": 3591,
      "▁uốn": 3592,
      "▁nhợt": 3593,
      "ing": 3594,
      "ifi": 3595,
      "bby": 3596,
      "zy": 3597,
      "tự": 3598,
      "▁lách": 3599,
      "lần": 3600,
      "phấn": 3601,
      "▁dang": 3602,
      "dù": 3603,
      "▁giục": 3604,
      "sợ": 3605,
      "Tay": 3606,
      "▁dắt": 3607,
      "▁mướt": 3608,
      "▁vắt": 3609,
      "▁Dan": 3610,
      "▁hãnh": 3611,
      "Cl": 3612,
      "▁sên": 3613,
      "▁Da": 3614,
      "?\"\n-": 3615,
      "▁gara": 3616,
      "xem": 3617,
      "▁nhầm": 3618,
      "▁râu": 3619,
      "Zoomy": 3620,
      "▁Spike": 3621,
      "▁vãi": 3622,
      "▁vứt": 3623,
      "ngắm": 3624,
      "ggie": 3625,
      "Vừa": 3626,
      "ink": 3627,
      "▁ngọ": 3628,
      "▁ngụm": 3629,
      "Bàn": 3630,
      "▁kiệm": 3631,
      "tt": 3632,
      "▁nhung": 3633,
      "mưa": 3634,
      "nem": 3635,
      "▁giầy": 3636,
      "Là": 3637,
      "nhanh": 3638,
      "▁True": 3639,
      "buồn": 3640,
      "▁cỗ": 3641,
      "▁thắp": 3642,
      "queaky": 3643,
      "Teddy": 3644,
      "Betty": 3645,
      "▁bưu": 3646,
      "Ngài": 3647,
      "ver": 3648,
      "▁gồm": 3649,
      "▁đùng": 3650,
      "▁thỉnh": 3651,
      "iggly": 3652,
      "▁nhồi": 3653,
      "nắm": 3654,
      "▁Fox": 3655,
      "▁khớp": 3656,
      "Pat": 3657,
      "Boo": 3658,
      "il": 3659,
      "Ellie": 3660,
      "ươm": 3661,
      "▁xứng": 3662,
      "▁Sm": 3663,
      "vừa": 3664,
      "zzy": 3665,
      "▁Sunny": 3666,
      "▁kang": 3667,
      "▁nghiêng": 3668,
      "▁tụi": 3669,
      "▁ràng": 3670,
      "vỗ": 3671,
      "▁vụn": 3672,
      "xấu": 3673,
      "▁rẽ": 3674,
      "▁nỗ": 3675,
      "▁ngầu": 3676,
      "▁Poppy": 3677,
      "đáng": 3678,
      "▁tạnh": 3679,
      "▁Nh": 3680,
      "đường": 3681,
      "Yum": 3682,
      "▁ắp": 3683,
      "ith": 3684,
      "lá": 3685,
      "mở": 3686,
      "▁gót": 3687,
      "▁ức": 3688,
      "xuống": 3689,
      "▁xước": 3690,
      "Freddy": 3691,
      "▁cù": 3692,
      "▁huyền": 3693,
      "hình": 3694,
      "▁gai": 3695,
      "▁cằn": 3696,
      "Fr": 3697,
      "tốt": 3698,
      "▁vá": 3699,
      "Lola": 3700,
      "Chạy": 3701,
      "▁Tư": 3702,
      "▁mỳ": 3703,
      "OK": 3704,
      "▁nhụi": 3705,
      "Mà": 3706,
      "▁cám": 3707,
      "▁Susie": 3708,
      "Rose": 3709,
      "▁Chủ": 3710,
      "Jazz": 3711,
      "lợn": 3712,
      "va": 3713,
      "▁dại": 3714,
      "George": 3715,
      "oco": 3716,
      "▁náu": 3717,
      "mày": 3718,
      "▁gươm": 3719,
      "Việc": 3720,
      "xy": 3721,
      "▁Chúa": 3722,
      "sóc": 3723,
      "▁canh": 3724,
      "Nơi": 3725,
      "icky": 3726,
      "▁dược": 3727,
      "Kem": 3728,
      "▁vèo": 3729,
      "ippy": 3730,
      "▁rừ": 3731,
      "▁gào": 3732,
      "Buổi": 3733,
      "▁lầu": 3734,
      "Joey": 3735,
      "▁ghề": 3736,
      "Ana": 3737,
      "Đau": 3738,
      "Danny": 3739,
      "hoặc": 3740,
      "▁túp": 3741,
      "▁cộ": 3742,
      "▁nhường": 3743,
      "Động": 3744,
      "▁khen": 3745,
      "▁Bod": 3746,
      "Johnny": 3747,
      "▁bốt": 3748,
      "aroo": 3749,
      "mắt": 3750,
      "▁nhánh": 3751,
      "ino": 3752,
      "▁sập": 3753,
      "▁diện": 3754,
      "▁Mr": 3755,
      "▁bỗng": 3756,
      "▁bổng": 3757,
      "choo": 3758,
      "Grace": 3759,
      "▁Smith": 3760,
      "▁thuổng": 3761,
      "giáo": 3762,
      "Sinh": 3763,
      "của": 3764,
      "▁túm": 3765,
      "▁Ellie": 3766,
      "đằng": 3767,
      "▁vắng": 3768,
      "lide": 3769,
      "Bill": 3770,
      "▁gò": 3771,
      "▁ú": 3772,
      "ess": 3773,
      "Kiki": 3774,
      "Thu": 3775,
      "▁ha": 3776,
      "▁vãn": 3777,
      "▁bèn": 3778,
      "mm": 3779,
      "động": 3780,
      "▁rang": 3781,
      "lăn": 3782,
      "căn": 3783,
      "▁Bill": 3784,
      "▁nguồn": 3785,
      "Dolly": 3786,
      "đoàn": 3787,
      "▁hoá": 3788,
      "▁phẫu": 3789,
      "▁Alice": 3790,
      "Harry": 3791,
      "Tao": 3792,
      "ail": 3793,
      "càng": 3794,
      "epper": 3795,
      "▁kangaroo": 3796,
      "Henry": 3797,
      "▁Ra": 3798,
      "?\n'": 3799,
      "dd": 3800,
      "Sophie": 3801,
      "▁thẩm": 3802,
      "xoay": 3803,
      "vịt": 3804,
      "Bu": 3805,
      "kho": 3806,
      "trò": 3807,
      "▁nôi": 3808,
      "nghĩ": 3809,
      "Paul": 3810,
      "khu": 3811,
      "▁sản": 3812,
      "khỉ": 3813,
      "Charlie": 3814,
      "Buzzy": 3815,
      "chuột": 3816,
      "là": 3817,
      "▁Zip": 3818,
      "Nói": 3819,
      "▁chiên": 3820,
      "Carl": 3821,
      "▁Carl": 3822,
      "Alex": 3823,
      "▁trách": 3824,
      "▁dâng": 3825,
      "ank": 3826,
      "ĩu": 3827,
      "▁toạc": 3828,
      "Thấy": 3829,
      "▁thóc": 3830,
      "▁căng": 3831,
      "Chuột": 3832,
      "oxy": 3833,
      "▁slide": 3834,
      "▁lỏng": 3835,
      "▁giảng": 3836,
      "▁rống": 3837,
      "bác": 3838,
      "Khuôn": 3839,
      "▁siết": 3840,
      "Âm": 3841,
      "Annie": 3842,
      "us": 3843,
      "▁gãi": 3844,
      "▁gieo": 3845,
      "ark": 3846,
      "▁lợi": 3847,
      "lúc": 3848,
      "▁vỉa": 3849,
      "?\",": 3850,
      "máy": 3851,
      "▁lon": 3852,
      "▁bừng": 3853,
      "▁nhức": 3854,
      "▁ngáy": 3855,
      "Kim": 3856,
      "hỏi": 3857,
      "▁đúc": 3858,
      "▁Bessie": 3859,
      "▁cọc": 3860,
      "▁Susan": 3861,
      "illa": 3862,
      "▁doạ": 3863,
      "▁vây": 3864,
      "sặc": 3865,
      "▁gợi": 3866,
      "▁phổi": 3867,
      "▁trân": 3868,
      "Hoppy": 3869,
      "eow": 3870,
      "▁Pippin": 3871,
      "▁vồ": 3872,
      "▁hạn": 3873,
      "▁khe": 3874,
      "▁tivi": 3875,
      "hay": 3876,
      "▁khoắn": 3877,
      "▁đuối": 3878,
      "tuyệt": 3879,
      "Bong": 3880,
      "Bí": 3881,
      "đột": 3882,
      "▁chang": 3883,
      "đu": 3884,
      "cker": 3885,
      "▁đe": 3886,
      "▁rô": 3887,
      "oof": 3888,
      "▁nhúng": 3889,
      "▁gập": 3890,
      "Mi": 3891,
      "▁lim": 3892,
      "ffin": 3893,
      "Zara": 3894,
      "Cầu": 3895,
      "▁át": 3896,
      "Mở": 3897,
      "▁Pat": 3898,
      "Vòng": 3899,
      "▁trượng": 3900,
      "cửa": 3901,
      "▁trạng": 3902,
      "ppy": 3903,
      "mang": 3904,
      "chứ": 3905,
      "vid": 3906,
      "▁váng": 3907,
      "Miếng": 3908,
      "▁tí": 3909,
      "▁Bird": 3910,
      "đỏ": 3911,
      "James": 3912,
      "hắn": 3913,
      "Thầy": 3914,
      "Bụng": 3915,
      "▁ngư": 3916,
      "Speedy": 3917,
      "▁lường": 3918,
      "▁Mike": 3919,
      "bảo": 3920,
      "▁lùa": 3921,
      "!\".\n": 3922,
      "Boun": 3923,
      "▁truyền": 3924,
      "xa": 3925,
      "teve": 3926,
      "▁lút": 3927,
      "ley": 3928,
      "rr": 3929,
      "▁giai": 3930,
      "phòng": 3931,
      "▁eo": 3932,
      "▁ghem": 3933,
      "Hop": 3934,
      "Tiếp": 3935,
      "▁bênh": 3936,
      ":\n\"": 3937,
      "Quay": 3938,
      "hạt": 3939,
      "▁nhói": 3940,
      "itt": 3941,
      "Đường": 3942,
      "thuyền": 3943,
      "bbles": 3944,
      "dùng": 3945,
      "▁khẩn": 3946,
      "phải": 3947,
      "▁trạm": 3948,
      "▁bập": 3949,
      "▁hăng": 3950,
      "▁chợt": 3951,
      "▁địa": 3952,
      "oto": 3953,
      "▁beng": 3954,
      "▁khiển": 3955,
      "▁Toby": 3956,
      "ừm": 3957,
      "▁say": 3958,
      "Sandy": 3959,
      "▁Ted": 3960,
      "▁xua": 3961,
      "đuổi": 3962,
      "thức": 3963,
      "▁phẳng": 3964,
      "gần": 3965,
      "▁trịa": 3966,
      "atie": 3967,
      "▁chĩa": 3968,
      "Penny": 3969,
      "▁bại": 3970,
      "▁đóa": 3971,
      "Khối": 3972,
      "▁tước": 3973,
      "▁bạo": 3974,
      "▁tuột": 3975,
      "Biển": 3976,
      "▁Nhỏ": 3977,
      "orilla": 3978,
      "▁án": 3979,
      "đặc": 3980,
      "chủ": 3981,
      "ngồi": 3982,
      "gh": 3983,
      "hòn": 3984,
      "Susan": 3985,
      "đồng": 3986,
      "aw": 3987,
      "lớn": 3988,
      "▁thui": 3989,
      "big": 3990,
      "trước": 3991,
      "▁bùa": 3992,
      "▁Lola": 3993,
      "xinh": 3994,
      "Đợi": 3995,
      "Tòa": 3996,
      "vroom": 3997,
      "▁nặn": 3998,
      "▁kiêu": 3999,
      "bigail": 4000,
      "▁khuy": 4001,
      "Meow": 4002,
      "▁dứt": 4003,
      "chel": 4004,
      "Thời": 4005,
      "Tuyết": 4006,
      "đầu": 4007,
      "▁lóe": 4008,
      "Thuyền": 4009,
      "▁rụng": 4010,
      "Tàu": 4011,
      "đám": 4012,
      "ey": 4013,
      "Đạo": 4014,
      ".\"\n-": 4015,
      "▁nuốt": 4016,
      "▁thèm": 4017,
      "eth": 4018,
      "Finny": 4019,
      "ngọn": 4020,
      "bin": 4021,
      "▁ro": 4022,
      "▁rủ": 4023,
      "Ngoài": 4024,
      "▁dai": 4025,
      "chuyện": 4026,
      "trở": 4027,
      "▁lọi": 4028,
      "itten": 4029,
      "cỏ": 4030,
      "Củ": 4031,
      "Tho": 4032,
      "bàn": 4033,
      "Pip": 4034,
      "▁rú": 4035,
      "Tilly": 4036,
      "Ted": 4037,
      "▁dãy": 4038,
      "▁giông": 4039,
      "Bird": 4040,
      "Pinky": 4041,
      "ittens": 4042,
      "Millie": 4043,
      "chân": 4044,
      "▁soát": 4045,
      "▁Dolly": 4046,
      "mạnh": 4047,
      "ast": 4048,
      "▁đực": 4049,
      "Bluey": 4050,
      "Trang": 4051,
      "▁sáu": 4052,
      "ticker": 4053,
      "▁Snowy": 4054,
      "▁bôi": 4055,
      "▁hả": 4056,
      "▁nức": 4057,
      ".\n\n": 4058,
      "?'\n\"": 4059,
      "▁mền": 4060,
      "▁Mandy": 4061,
      "Red": 4062,
      "▁vẩy": 4063,
      "▁cóng": 4064,
      "Qua": 4065,
      "▁Người": 4066,
      "▁Cl": 4067,
      "tấm": 4068,
      "▁gorilla": 4069,
      "▁phận": 4070,
      "Maggie": 4071,
      "bbit": 4072,
      "ree": 4073,
      "Finn": 4074,
      "ew": 4075,
      "Cần": 4076,
      "▁Con": 4077,
      "anna": 4078,
      "Bụi": 4079,
      "▁quang": 4080,
      "▁bặm": 4081,
      "▁Freddy": 4082,
      "Thức": 4083,
      "▁lai": 4084,
      "Hóa": 4085,
      "ụa": 4086,
      "lạnh": 4087,
      "▁Họ": 4088,
      "▁lụt": 4089,
      "cà": 4090,
      "Thoạt": 4091,
      "▁thình": 4092,
      "▁sticker": 4093,
      "chuối": 4094,
      "▁ket": 4095,
      "ine": 4096,
      "Gigi": 4097,
      "thu": 4098,
      "ippa": 4099,
      "▁mổ": 4100,
      "Hành": 4101,
      "Mũi": 4102,
      "Tối": 4103,
      "▁Hop": 4104,
      "▁Red": 4105,
      "▁tặc": 4106,
      "▁bào": 4107,
      "nhặt": 4108,
      "▁kìm": 4109,
      "▁quản": 4110,
      "▁ganh": 4111,
      "Hồ": 4112,
      "Đằng": 4113,
      "▁hoà": 4114,
      "vâng": 4115,
      "ngạc": 4116,
      "ngoài": 4117,
      "Rùa": 4118,
      "Tony": 4119,
      "mũ": 4120,
      "▁cuốc": 4121,
      "▁xỏ": 4122,
      "▁gồ": 4123,
      "▁Squeaky": 4124,
      "▁Thỏ": 4125,
      "iggy": 4126,
      "ero": 4127,
      "To": 4128,
      "▁thỏa": 4129,
      "Bình": 4130,
      "▁giam": 4131,
      "Woof": 4132,
      "▁Dave": 4133,
      "Dây": 4134,
      "cứ": 4135,
      "▁George": 4136,
      "▁Pandy": 4137,
      "Tờ": 4138,
      "Chuyến": 4139,
      "Lại": 4140,
      "Clara": 4141,
      "▁mãn": 4142,
      "ogo": 4143,
      "ath": 4144,
      "elv": 4145,
      "▁đắp": 4146,
      "Khâu": 4147,
      "▁Buzzy": 4148,
      "ca": 4149,
      "▁múc": 4150,
      "Giống": 4151,
      "▁cự": 4152,
      "▁hoại": 4153,
      "▁hẹp": 4154,
      "▁tành": 4155,
      "Dòng": 4156,
      "vòng": 4157,
      "Ow": 4158,
      "▁sọc": 4159,
      "tròn": 4160,
      "▁khịt": 4161,
      "▁khuất": 4162,
      "Ruby": 4163,
      "\n'": 4164,
      "▁toả": 4165,
      "Dường": 4166,
      "Sân": 4167,
      "▁vệt": 4168,
      "Bee": 4169,
      "bọ": 4170,
      "Kate": 4171,
      "▁Finny": 4172,
      "▁loạn": 4173,
      "▁Lilly": 4174,
      "elvet": 4175,
      "▁suýt": 4176,
      "Achoo": 4177,
      "Wiggly": 4178,
      "▁phao": 4179,
      "trả": 4180,
      "Kho": 4181,
      "Tìm": 4182,
      "▁kiệt": 4183,
      "Elly": 4184,
      "sợi": 4185,
      "▁tiêm": 4186,
      "▁sen": 4187,
      "Fifi": 4188,
      "▁cực": 4189,
      "Tổ": 4190,
      "▁đẫm": 4191,
      "Linh": 4192,
      "▁Alex": 4193,
      "▁dịp": 4194,
      "▁Finn": 4195,
      "▁bịa": 4196,
      "mi": 4197,
      "▁Olive": 4198,
      "▁Harry": 4199,
      "ert": 4200,
      "▁gạc": 4201,
      "▁kì": 4202,
      "umpet": 4203,
      "▁trùm": 4204,
      "omas": 4205,
      "vị": 4206,
      "▁van": 4207,
      "Nhanh": 4208,
      "đau": 4209,
      "Tin": 4210,
      "Theo": 4211,
      "bơi": 4212,
      "ena": 4213,
      "▁xỉn": 4214,
      "▁mờ": 4215,
      "▁Bow": 4216,
      "▁nài": 4217,
      "al": 4218,
      "hoàng": 4219,
      "nie": 4220,
      "▁trumpet": 4221,
      "▁àh": 4222,
      "mệt": 4223,
      "Mmm": 4224,
      "!\"\n-": 4225,
      "▁Mar": 4226,
      "Tia": 4227,
      "▁vùi": 4228,
      "▁gìn": 4229,
      "ulie": 4230,
      "hươu": 4231,
      "ur": 4232,
      "▁xiếc": 4233,
      "▁nghề": 4234,
      "tha": 4235,
      "are": 4236,
      "▁Kate": 4237,
      "▁hũ": 4238,
      "Hẹn": 4239,
      "băng": 4240,
      "▁Hoppy": 4241,
      "▁tưng": 4242,
      "▁đai": 4243,
      "chào": 4244,
      "học": 4245,
      "▁ngân": 4246,
      "▁hoan": 4247,
      "Loại": 4248,
      "Luôn": 4249,
      "▁Paul": 4250,
      "ita": 4251,
      "▁Ho": 4252,
      "bức": 4253,
      "▁thiêu": 4254,
      "Tủ": 4255,
      "▁sáp": 4256,
      "indy": 4257,
      "▁nhóc": 4258,
      "▁past": 4259,
      "côla": 4260,
      "▁Cú": 4261,
      "▁gom": 4262,
      "chắc": 4263,
      "▁Chim": 4264,
      "▁xở": 4265,
      "▁Grace": 4266,
      "▁dora": 4267,
      "▁dorado": 4268,
      "▁Binky": 4269,
      "tối": 4270,
      "▁Bee": 4271,
      "▁bàng": 4272,
      "Gần": 4273,
      "Quần": 4274,
      "vẽ": 4275,
      "ac": 4276,
      "arky": 4277,
      "trèo": 4278,
      "▁rìa": 4279,
      "!',": 4280,
      "Mùa": 4281,
      "bộ": 4282,
      "tạm": 4283,
      "▁Tilly": 4284,
      "ngài": 4285,
      "▁hổng": 4286,
      "Tóc": 4287,
      "▁Maria": 4288,
      "cún": 4289,
      "▁oxy": 4290,
      "▁nhị": 4291,
      "reen": 4292,
      "▁Lucky": 4293,
      "▁rặng": 4294,
      "khối": 4295,
      "▁Boun": 4296,
      "▁óc": 4297,
      "▁khoăn": 4298,
      "▁Froggy": 4299,
      "Suzy": 4300,
      "ùn": 4301,
      "Lò": 4302,
      "▁bề": 4303,
      "trứng": 4304,
      "▁sụp": 4305,
      "tụi": 4306,
      "▁chep": 4307,
      "quy": 4308,
      "▁Bubbles": 4309,
      "sự": 4310,
      "bị": 4311,
      "▁tọc": 4312,
      "▁Bự": 4313,
      "▁khơi": 4314,
      "Wally": 4315,
      "▁Liz": 4316,
      "ưởi": 4317,
      "bò": 4318,
      "bí": 4319,
      "sống": 4320,
      "▁nối": 4321,
      "▁nồng": 4322,
      "▁xiết": 4323,
      "?'.\n": 4324,
      "ira": 4325,
      "ze": 4326,
      "▁quet": 4327,
      "▁quê": 4328,
      "bài": 4329,
      "▁the": 4330,
      "?\".\n": 4331,
      "▁Annie": 4332,
      "▁trịch": 4333,
      "▁Sophie": 4334,
      "từng": 4335,
      "▁rưởi": 4336,
      "lle": 4337,
      "▁cabin": 4338,
      "▁cạn": 4339,
      "Lên": 4340,
      "▁Zoe": 4341,
      "ones": 4342,
      "Car": 4343,
      "Cà": 4344,
      "amie": 4345,
      "loe": 4346,
      "giơ": 4347,
      "▁Coco": 4348,
      "▁sôcôla": 4349,
      "ngựa": 4350,
      "Sh": 4351,
      "Br": 4352,
      "Về": 4353,
      "▁xăm": 4354,
      "Của": 4355,
      "Ngỗng": 4356,
      "Cành": 4357,
      "khăn": 4358,
      "Al": 4359,
      "▁Kiki": 4360,
      "▁thánh": 4361,
      "mũi": 4362,
      "dam": 4363,
      "rằng": 4364,
      "ica": 4365,
      "▁lình": 4366,
      "▁rock": 4367,
      "Hay": 4368,
      "ơm": 4369,
      "▁nóc": 4370,
      "▁I": 4371,
      "Mo": 4372,
      "▁đỗ": 4373,
      "ờm": 4374,
      "umpy": 4375,
      "▁trầy": 4376,
      "annah": 4377,
      "▁cán": 4378,
      "▁Cu": 4379,
      "▁đắm": 4380,
      "▁nháp": 4381,
      "▁tựa": 4382,
      "▁Rosie": 4383,
      "Cũng": 4384,
      "▁băn": 4385,
      "▁Jazz": 4386,
      "nhẹ": 4387,
      "▁giậm": 4388,
      "đọc": 4389,
      "Trận": 4390,
      "▁Charlie": 4391,
      "Milly": 4392,
      "▁vroom": 4393,
      "▁Zoomy": 4394,
      "▁trĩu": 4395,
      "khám": 4396,
      "▁No": 4397,
      "▁hốt": 4398,
      "▁đậy": 4399,
      "Snowy": 4400,
      "▁dỗ": 4401,
      "gà": 4402,
      "▁chăng": 4403,
      "▁rền": 4404,
      "giận": 4405,
      "ửng": 4406,
      "▁buồng": 4407,
      "▁Ruby": 4408,
      "ris": 4409,
      "dễ": 4410,
      "▁huống": 4411,
      "hàng": 4412,
      "▁ruột": 4413,
      "cuốn": 4414,
      "liu": 4415,
      ":\n": 4416,
      "Mấy": 4417,
      "cam": 4418,
      "Súp": 4419,
      "bie": 4420,
      "sữa": 4421,
      "về": 4422,
      "nảy": 4423,
      "▁thốt": 4424,
      "▁).": 4425,
      "▁xáo": 4426,
      "▁quấy": 4427,
      "đảm": 4428,
      "Trẻ": 4429,
      "▁lửng": 4430,
      "Zigzag": 4431,
      "Dino": 4432,
      "▁tấn": 4433,
      "▁nhịn": 4434,
      "▁lưỡng": 4435,
      "▁sưng": 4436,
      "▁Mo": 4437,
      "ẫng": 4438,
      "▁toanh": 4439,
      "▁cẫng": 4440,
      "▁rầy": 4441,
      "Băng": 4442,
      "▁thuận": 4443,
      "▁Fifi": 4444,
      "ỵt": 4445,
      "Dân": 4446,
      "đánh": 4447,
      "▁nhốt": 4448,
      "▁Penny": 4449,
      "▁Danny": 4450,
      "▁hiếu": 4451,
      "▁toáng": 4452,
      "aire": 4453,
      "▁chỉnh": 4454,
      "▁Speedy": 4455,
      "▁nhột": 4456,
      "tàu": 4457,
      "▁xốt": 4458,
      "Liz": 4459,
      "▁Gigi": 4460,
      "iểm": 4461,
      "die": 4462,
      "▁chao": 4463,
      "nữ": 4464,
      "giữ": 4465,
      "Sương": 4466,
      "▁tám": 4467,
      "▁Một": 4468,
      "▁bờm": 4469,
      "▁nạt": 4470,
      "Phần": 4471,
      "▁khít": 4472,
      "▁ben": 4473,
      "▁xao": 4474,
      "▁Toto": 4475,
      "Beep": 4476,
      "uck": 4477,
      "ngọt": 4478,
      "lau": 4479,
      "▁đong": 4480,
      "mừng": 4481,
      "▁thềm": 4482,
      "▁re": 4483,
      "củ": 4484,
      "Coi": 4485,
      "▁nhái": 4486,
      "▁vân": 4487,
      "Đống": 4488,
      "▁toa": 4489,
      "Mũ": 4490,
      "▁ư": 4491,
      "▁hẹn": 4492,
      "bi": 4493,
      "up": 4494,
      "tảng": 4495,
      "▁chước": 4496,
      "Kẹo": 4497,
      "Quên": 4498,
      "▁tuệ": 4499,
      "▁nuông": 4500,
      "quên": 4501,
      "▁dung": 4502,
      "▁kèm": 4503,
      "▁chiếm": 4504,
      "bẩn": 4505,
      "▁thoa": 4506,
      "▁lân": 4507,
      "sâu": 4508,
      "▁khăm": 4509,
      "▁Elly": 4510,
      "David": 4511,
      "▁rớt": 4512,
      "mụ": 4513,
      "▁Trái": 4514,
      "đổ": 4515,
      "▁zigzag": 4516,
      "▁nỉ": 4517,
      "Cỏ": 4518,
      "▁loanh": 4519,
      "▁Mittens": 4520,
      "▁sôi": 4521,
      "▁Pip": 4522,
      "▁dụi": 4523,
      "Nhờ": 4524,
      "uẩn": 4525,
      "Bãi": 4526,
      "Xem": 4527,
      "▁hoạ": 4528,
      "Am": 4529,
      "thú": 4530,
      "▁ắc": 4531,
      "▁dơ": 4532,
      "miệng": 4533,
      "chàng": 4534,
      "Rachel": 4535,
      "kem": 4536,
      "Miệng": 4537,
      "athy": 4538,
      "Katie": 4539,
      "▁nghiền": 4540,
      "sạch": 4541,
      "▁muffin": 4542,
      "Luke": 4543,
      "essie": 4544,
      "cách": 4545,
      "theo": 4546,
      "▁Bluey": 4547,
      "hôn": 4548,
      "mới": 4549,
      "Muốn": 4550,
      "ean": 4551,
      "bắn": 4552,
      "▁mạc": 4553,
      "▁Pinky": 4554,
      "▁nhớp": 4555,
      "nhờ": 4556,
      "▁net": 4557,
      "đeo": 4558,
      "▁Tony": 4559,
      "quyết": 4560,
      "▁Mi": 4561,
      "▁Henry": 4562,
      "hộp": 4563,
      "ut": 4564,
      "Abigail": 4565,
      "Lâu": 4566,
      "▁khoang": 4567,
      "▁óng": 4568,
      "▁thịnh": 4569,
      "▁vảy": 4570,
      "eff": 4571,
      "Buồn": 4572,
      "▁thề": 4573,
      "▁nhụa": 4574,
      "Rosie": 4575,
      "tóc": 4576,
      "▁ngoèo": 4577,
      "▁đỗi": 4578,
      "▁Star": 4579,
      "▁thịch": 4580,
      "▁bệ": 4581,
      "▁phóc": 4582,
      "▁James": 4583,
      "▁Joey": 4584,
      "▁binh": 4585,
      "voi": 4586,
      "▁chít": 4587,
      "▁lĩnh": 4588,
      "Suốt": 4589,
      "▁hổi": 4590,
      "▁xóa": 4591,
      "Thực": 4592,
      "Pippa": 4593,
      "▁Rocky": 4594,
      "đậu": 4595,
      "▁cập": 4596,
      "Ừm": 4597,
      "nda": 4598,
      "▁Vuốt": 4599,
      "Dĩ": 4600,
      "▁cộc": 4601,
      "▁nhầy": 4602,
      "▁họng": 4603,
      "Ngón": 4604,
      "Quack": 4605,
      "Thang": 4606,
      "▁bồi": 4607,
      "acob": 4608,
      "▁Ông": 4609,
      "▁Sky": 4610,
      "eg": 4611,
      "▁Wally": 4612,
      "Thư": 4613,
      "▁ngoằn": 4614,
      "Rốt": 4615,
      "▁đậm": 4616,
      "▁laze": 4617,
      "Thử": 4618,
      "essica": 4619,
      "Coco": 4620,
      "Táo": 4621,
      "Rocky": 4622,
      "Steve": 4623,
      "cứng": 4624,
      "bút": 4625,
      "sty": 4626,
      "▁hầu": 4627,
      "▁Sh": 4628,
      "Đội": 4629,
      "yêu": 4630,
      "▁thưa": 4631,
      "Pepper": 4632,
      "▁com": 4633,
      "▁khốn": 4634,
      "Cú": 4635,
      "▁Zara": 4636,
      "▁han": 4637,
      "lão": 4638,
      "ion": 4639,
      "▁hông": 4640,
      "▁choạng": 4641,
      "▁Gr": 4642,
      "▁e": 4643,
      "▁biếc": 4644,
      "▁xúp": 4645,
      "đứng": 4646,
      "tránh": 4647,
      "Tình": 4648,
      "Luật": 4649,
      "▁Millie": 4650,
      "▁thính": 4651,
      "▁chùm": 4652,
      "Tam": 4653,
      "▁Y": 4654,
      "Vẫn": 4655,
      "sủa": 4656,
      "▁sà": 4657,
      "▁ôliu": 4658,
      "ayla": 4659,
      "nặng": 4660,
      "▁loạng": 4661,
      "▁ghẹo": 4662,
      "lắng": 4663,
      "▁soạn": 4664,
      "ddle": 4665,
      "▁mòng": 4666,
      "▁xuồng": 4667,
      "Lửa": 4668,
      "Ngươi": 4669,
      "kelly": 4670,
      "miễn": 4671,
      "cành": 4672,
      "chậm": 4673,
      "▁phơi": 4674,
      "▁Sau": 4675,
      "thử": 4676,
      "kẹo": 4677,
      "▁vành": 4678,
      "▁cộng": 4679,
      "▁phím": 4680,
      "cổ": 4681,
      "bèn": 4682,
      "▁Frank": 4683,
      "▁hở": 4684,
      "▁giảm": 4685,
      "elly": 4686,
      "▁quỷ": 4687,
      "▁trễ": 4688,
      "Whee": 4689,
      "▁hon": 4690,
      "Lời": 4691,
      "Ray": 4692,
      "uần": 4693,
      "ibbit": 4694,
      "Sa": 4695,
      "▁đính": 4696,
      "▁đấm": 4697,
      "zie": 4698,
      "pho": 4699,
      "▁Sandy": 4700,
      "Quan": 4701,
      "▁Green": 4702,
      "▁Ana": 4703,
      "Jan": 4704,
      "▁bảy": 4705,
      "▁Ph": 4706,
      "Bounce": 4707,
      "▁doggy": 4708,
      "▁Wiggly": 4709,
      "Dần": 4710,
      "bướm": 4711,
      "▁thống": 4712,
      "Càng": 4713,
      "▁gián": 4714,
      "▁sảng": 4715,
      "chuẩn": 4716,
      "Nina": 4717,
      "lắc": 4718,
      "▁đóm": 4719,
      "▁Noel": 4720,
      "▁bịt": 4721,
      "▁)\n": 4722,
      "une": 4723,
      "▁dời": 4724,
      "▁vù": 4725,
      "kêu": 4726,
      "thô": 4727,
      "ddie": 4728,
      "côn": 4729,
      "of": 4730,
      "vậy": 4731,
      "▁lộng": 4732,
      "▁trán": 4733,
      "thiên": 4734,
      "▁huệ": 4735,
      "thôi": 4736,
      "etsy": 4737,
      "Khúc": 4738,
      "wink": 4739,
      "Bạch": 4740,
      "Đèn": 4741,
      "tình": 4742,
      "▁cốp": 4743,
      "ulia": 4744,
      "▁giằng": 4745,
      "▁cợt": 4746,
      "▁châu": 4747,
      "Thỉnh": 4748,
      "nhỏ": 4749,
      "Chính": 4750,
      "Chuông": 4751,
      "táo": 4752,
      "tho": 4753,
      "▁niên": 4754,
      "Suỵt": 4755,
      "Bouncy": 4756,
      "▁Ha": 4757,
      "Mira": 4758,
      "Đo": 4759,
      "Josh": 4760,
      "Lizzy": 4761,
      "▁đục": 4762,
      "Sữa": 4763,
      "odo": 4764,
      "▁thấu": 4765,
      "xích": 4766,
      "nhóc": 4767,
      "ggles": 4768,
      "Bọ": 4769,
      "Gogo": 4770,
      "Nút": 4771,
      "mọng": 4772,
      "▁bạt": 4773,
      "Bột": 4774,
      "Keo": 4775,
      "▁Jones": 4776,
      "cần": 4777,
      "Hươu": 4778,
      "Đàn": 4779,
      "Thomas": 4780,
      "qua": 4781,
      "Ối": 4782,
      "thứ": 4783,
      "▁Cuddle": 4784,
      "cuộc": 4785,
      "▁hấu": 4786,
      "ish": 4787,
      "mùi": 4788,
      "Moo": 4789,
      "▁phích": 4790,
      ":\n-": 4791,
      "nhắm": 4792,
      "uộng": 4793,
      "chuông": 4794,
      "▁huân": 4795,
      "Joy": 4796,
      "▁mệnh": 4797,
      "Oliver": 4798,
      "winkle": 4799,
      "▁tồn": 4800,
      "▁ríu": 4801,
      "▁Clara": 4802,
      "cua": 4803,
      "Vật": 4804,
      "▁phổ": 4805,
      "Squeaky": 4806,
      "▁chuyên": 4807,
      "Ok": 4808,
      "Vroom": 4809,
      "hành": 4810,
      "▁gam": 4811,
      "nhớ": 4812,
      "Nhảy": 4813,
      "▁mãnh": 4814,
      "▁đan": 4815,
      "nu": 4816,
      "▁Al": 4817,
      "Ew": 4818,
      "▁nheo": 4819,
      "▁cốm": 4820,
      "Chương": 4821,
      "Velvet": 4822,
      "▁mặn": 4823,
      "▁ngời": 4824,
      "▁Hoot": 4825,
      "▁chích": 4826,
      "Lena": 4827,
      "Chưa": 4828,
      "▁nua": 4829,
      "òm": 4830,
      "▁trút": 4831,
      "cắt": 4832,
      "!\n'": 4833,
      "Robby": 4834,
      "▁Xanh": 4835,
      "vô": 4836,
      "Olly": 4837,
      "giật": 4838,
      "izzy": 4839,
      "▁chẽ": 4840,
      "▁Suzy": 4841,
      "▁vali": 4842,
      "Robot": 4843,
      "▁cò": 4844,
      "ophia": 4845,
      "▁gay": 4846,
      "dì": 4847,
      "▁quán": 4848,
      "trốn": 4849,
      "▁gũi": 4850,
      "▁Steve": 4851,
      "câu": 4852,
      "Đứng": 4853,
      "bíp": 4854,
      "Nguy": 4855,
      "An": 4856,
      "việc": 4857,
      "uffin": 4858,
      "nuggles": 4859,
      "▁Boo": 4860,
      "giày": 4861,
      "aws": 4862,
      "dây": 4863,
      "▁rùng": 4864,
      "▁trọc": 4865,
      "bbie": 4866,
      "Hippy": 4867,
      "▁he": 4868,
      "▁rụi": 4869,
      "bằng": 4870,
      "▁ghita": 4871,
      "▁Bounce": 4872,
      "Ava": 4873,
      "▁choáng": 4874,
      "▁đô": 4875,
      "▁Chó": 4876,
      "▁Spark": 4877,
      "▁zoom": 4878,
      "bel": 4879,
      "▁Cá": 4880,
      "õng": 4881,
      "▁mánh": 4882,
      "▁buốt": 4883,
      "Bl": 4884,
      "Beth": 4885,
      "▁giũ": 4886,
      "▁phú": 4887,
      "▁khiếm": 4888,
      "▁Pepper": 4889,
      "▁Tây": 4890,
      "Abby": 4891,
      "▁chuồn": 4892,
      "kip": 4893,
      "▁Dino": 4894,
      "▁ngấu": 4895,
      "ary": 4896,
      "▁nom": 4897,
      "▁lâm": 4898,
      "ễu": 4899,
      "▁phào": 4900,
      "ido": 4901,
      "đuôi": 4902,
      "Chai": 4903,
      "▁lè": 4904,
      "▁Johnny": 4905,
      "▁hâm": 4906,
      "đen": 4907,
      "quan": 4908,
      "Adam": 4909,
      "kết": 4910,
      "▁Lizzy": 4911,
      "Đang": 4912,
      "▁mạp": 4913,
      "nghĩa": 4914,
      "tô": 4915,
      "zzie": 4916,
      "▁ôxy": 4917,
      "quá": 4918,
      "▁trào": 4919,
      "bình": 4920,
      "▁đãng": 4921,
      "Julie": 4922,
      "▁xoăn": 4923,
      "cừu": 4924,
      "▁núp": 4925,
      "▁f": 4926,
      "Kế": 4927,
      "▁Car": 4928,
      "Pháo": 4929,
      "▁tùng": 4930,
      "▁cỗi": 4931,
      "Bop": 4932,
      "▁viễn": 4933,
      "▁phối": 4934,
      "▁Khâu": 4935,
      "▁chùa": 4936,
      "▁chuỗi": 4937,
      "ring": 4938,
      "irp": 4939,
      "issy": 4940,
      "Frank": 4941,
      "▁ngát": 4942,
      "mấy": 4943,
      "▁đom": 4944,
      "uyển": 4945,
      "Thùng": 4946,
      "oa": 4947,
      "ud": 4948,
      "Khói": 4949,
      "▁chẻ": 4950,
      "Catty": 4951,
      "▁David": 4952,
      "▁ứng": 4953,
      "Thủy": 4954,
      "Đặt": 4955,
      "Đốm": 4956,
      "Bree": 4957,
      "lái": 4958,
      "▁bầm": 4959,
      "cảnh": 4960,
      "Vũ": 4961,
      "lash": 4962,
      "thả": 4963,
      "nhận": 4964,
      "▁ôi": 4965,
      "▁cận": 4966,
      "▁May": 4967,
      "ook": 4968,
      "▁nha": 4969,
      "▁toang": 4970,
      "Nhân": 4971,
      "mây": 4972,
      "▁Ray": 4973,
      "Froggy": 4974,
      "ttle": 4975,
      "Chợt": 4976,
      "Chloe": 4977,
      "Lớp": 4978,
      "Chìa": 4979,
      "Giấc": 4980,
      "▁'\n'": 4981,
      "Màn": 4982,
      "đóng": 4983,
      "▁ren": 4984,
      "Jamie": 4985,
      "▁tái": 4986,
      "▁quạc": 4987,
      "Hu": 4988,
      "rơi": 4989,
      "Đuôi": 4990,
      "▁bĩu": 4991,
      "Chiến": 4992,
      "Số": 4993,
      "▁khán": 4994,
      "▁Tầm": 4995,
      "▁sót": 4996,
      "Vết": 4997,
      "gây": 4998,
      "đèn": 4999,
      "▁bùng": 5000,
      "Học": 5001,
      "Hannah": 5002,
      "ẽo": 5003,
      "▁lẫy": 5004,
      "tella": 5005,
      "▁nen": 5006,
      "▁Bong": 5007,
      "▁lay": 5008,
      "Lúa": 5009,
      "?\"\n'": 5010,
      "kinh": 5011,
      "▁trữ": 5012,
      "ana": 5013,
      "Bắp": 5014,
      "▁mồ": 5015,
      "▁trẻo": 5016,
      "Hơi": 5017,
      "▁thải": 5018,
      "one": 5019,
      "ườn": 5020,
      "?'\n-": 5021,
      "▁Cây": 5022,
      "Dầu": 5023,
      "▁mầm": 5024,
      "Ngựa": 5025,
      "Dog": 5026,
      "▁khóe": 5027,
      "▁bền": 5028,
      "Ống": 5029,
      "cắn": 5030,
      "▁đạn": 5031,
      "Đất": 5032,
      "đập": 5033,
      "thông": 5034,
      "vầ": 5035,
      "▁thản": 5036,
      "▁rocket": 5037,
      "Thuốc": 5038,
      "Zoe": 5039,
      "▁dep": 5040,
      "▁khoa": 5041,
      "▁mồi": 5042,
      "una": 5043,
      "ẹt": 5044,
      "▁dở": 5045,
      "▁quác": 5046,
      "nap": 5047,
      "Yêu": 5048,
      "Nhóm": 5049,
      "rosty": 5050,
      "Xong": 5051,
      "▁tuyến": 5052,
      "aser": 5053,
      "▁phức": 5054,
      "Ong": 5055,
      "thời": 5056,
      "Nam": 5057,
      "rửa": 5058,
      "▁lăng": 5059,
      "Anne": 5060,
      "Cám": 5061,
      "gầm": 5062,
      "▁búng": 5063,
      "onny": 5064,
      "▁pasta": 5065,
      "▁ỏi": 5066,
      "▁bóc": 5067,
      "▁Brownie": 5068,
      "Mái": 5069,
      "bốn": 5070,
      "▁nuối": 5071,
      "▁vốn": 5072,
      "▁tơ": 5073,
      "▁bổ": 5074,
      "▁dẳng": 5075,
      "ghế": 5076,
      "Birdie": 5077,
      "aren": 5078,
      "lòng": 5079,
      "thìa": 5080,
      "Qui": 5081,
      "Gù": 5082,
      "Bỏ": 5083,
      "▁Milly": 5084,
      "Chỗ": 5085,
      "▁nghi": 5086,
      "▁Birdie": 5087,
      "Quái": 5088,
      "▁Frog": 5089,
      "Hope": 5090,
      "▁Trời": 5091,
      "▁ráy": 5092,
      "▁Robby": 5093,
      "Claire": 5094,
      "uỗi": 5095,
      "chìa": 5096,
      "▁khoanh": 5097,
      "Khách": 5098,
      "lấp": 5099,
      "▁mảng": 5100,
      "ora": 5101,
      "ss": 5102,
      "bụi": 5103,
      "giấy": 5104,
      "?',": 5105,
      "sương": 5106,
      "▁Ngài": 5107,
      "Thanh": 5108,
      "Kẻ": 5109,
      "yl": 5110,
      "▁trâm": 5111,
      "Bò": 5112,
      "▁tạ": 5113,
      "▁đốn": 5114,
      "▁Sương": 5115,
      "▁Maggie": 5116,
      "▁vác": 5117,
      "▁rượt": 5118,
      "Chew": 5119,
      "Lông": 5120,
      "tter": 5121,
      "tò": 5122,
      "▁nhím": 5123,
      "▁giậu": 5124,
      "▁Zigzag": 5125,
      "aura": 5126,
      "▁kếp": 5127,
      "▁Katie": 5128,
      "and": 5129,
      "Đài": 5130,
      "▁vẹn": 5131,
      "▁ửng": 5132,
      "▁Bree": 5133,
      "▁Kể": 5134,
      "▁lanh": 5135,
      "▁Đất": 5136,
      "▁đẻ": 5137,
      "▁Snuggles": 5138,
      "khoẻ": 5139,
      "Bồ": 5140,
      "Jilly": 5141,
      "mịn": 5142,
      "Tiên": 5143,
      "▁nền": 5144,
      "ster": 5145,
      "phóng": 5146,
      "Đánh": 5147,
      "▁khứ": 5148,
      "▁ướp": 5149,
      "yan": 5150,
      "▁Bo": 5151,
      "El": 5152,
      "▁inh": 5153,
      "▁bắc": 5154,
      "Ally": 5155,
      "▁đềm": 5156,
      "try": 5157,
      "Jessie": 5158,
      "▁hóc": 5159,
      "▁chãi": 5160,
      "astry": 5161,
      "ẩng": 5162,
      "Bo": 5163,
      "Ca": 5164,
      "▁Abigail": 5165,
      "Bíp": 5166,
      "Hồn": 5167,
      "St": 5168,
      "▁Thủ": 5169,
      "tử": 5170,
      "váy": 5171,
      "▁sào": 5172,
      "▁sếp": 5173,
      "▁vet": 5174,
      "leo": 5175,
      "Xung": 5176,
      "▁Squ": 5177,
      "khuôn": 5178,
      "gọi": 5179,
      "Nắng": 5180,
      "Sách": 5181,
      "rộng": 5182,
      "Mảnh": 5183,
      ".'\n-": 5184,
      "lâu": 5185,
      "▁Mặt": 5186,
      "▁chốt": 5187,
      "bột": 5188,
      "Tháp": 5189,
      "▁Sa": 5190,
      "Túi": 5191,
      "▁Joy": 5192,
      "Emmy": 5193,
      "▁Dot": 5194,
      "▁rát": 5195,
      "aky": 5196,
      "bụng": 5197,
      "khô": 5198,
      "robot": 5199,
      "son": 5200,
      "▁gặm": 5201,
      "Sky": 5202,
      "Áo": 5203,
      "▁rón": 5204,
      "Hải": 5205,
      "Mr": 5206,
      "ev": 5207,
      "imon": 5208,
      "▁cườm": 5209,
      "▁ngửa": 5210,
      "iggie": 5211,
      "ngón": 5212,
      "▁xưởng": 5213,
      "▁quẩn": 5214,
      "Henny": 5215,
      "Toto": 5216,
      "▁sầu": 5217,
      "▁rơm": 5218,
      "▁cóc": 5219,
      "▁cùn": 5220,
      "▁giết": 5221,
      "bra": 5222,
      "▁lề": 5223,
      "thị": 5224,
      "Bùn": 5225,
      "Ngh": 5226,
      "iel": 5227,
      "▁Rachel": 5228,
      "▁ngái": 5229,
      "▁Anne": 5230,
      "Ah": 5231,
      "▁âu": 5232,
      "▁Zero": 5233,
      "▁chuộng": 5234,
      "▁ả": 5235,
      "iti": 5236,
      "▁ngẩng": 5237,
      "chộp": 5238,
      "▁camera": 5239,
      "Tuần": 5240,
      "đào": 5241,
      "▁vần": 5242,
      "▁thẹn": 5243,
      "phô": 5244,
      "lê": 5245,
      "Nụ": 5246,
      "▁yếm": 5247,
      "Happy": 5248,
      "Ngồi": 5249,
      "Spark": 5250,
      "Đẹp": 5251,
      "Bản": 5252,
      "Bùm": 5253,
      "▁Snow": 5254,
      "▁xả": 5255,
      "bữa": 5256,
      "▁thừa": 5257,
      "▁quặc": 5258,
      "▁pastel": 5259,
      "Dara": 5260,
      "Chicky": 5261,
      "Ju": 5262,
      "ael": 5263,
      "Jeff": 5264,
      "▁úp": 5265,
      "▁tứ": 5266,
      "Biết": 5267,
      "Lấy": 5268,
      "▁nghiến": 5269,
      "▁Mèo": 5270,
      "elia": 5271,
      "súp": 5272,
      "Quick": 5273,
      "▁game": 5274,
      "ichael": 5275,
      "đo": 5276,
      "Bao": 5277,
      "eph": 5278,
      "Tốc": 5279,
      "▁ghềnh": 5280,
      "Bảo": 5281,
      "▁El": 5282,
      "eli": 5283,
      "▁lõng": 5284,
      "sang": 5285,
      "▁cồn": 5286,
      "rel": 5287,
      "sử": 5288,
      "trắng": 5289,
      "▁chốn": 5290,
      "Star": 5291,
      "Ribbit": 5292,
      "day": 5293,
      "▁o": 5294,
      "▁mông": 5295,
      "▁nhấm": 5296,
      "tòa": 5297,
      "vỏ": 5298,
      "▁nịt": 5299,
      "▁tru": 5300,
      "▁òa": 5301,
      "Tránh": 5302,
      "▁tột": 5303,
      "▁trừ": 5304,
      "▁chội": 5305,
      "▁liếc": 5306,
      "Jacob": 5307,
      "Dare": 5308,
      "Xà": 5309,
      "tủ": 5310,
      "Jessica": 5311,
      "▁ùa": 5312,
      "endy": 5313,
      "▁Am": 5314,
      "Cua": 5315,
      "Giữ": 5316,
      "▁St": 5317,
      "Mai": 5318,
      "▁đèo": 5319,
      "▁Độ": 5320,
      "!,": 5321,
      "Mực": 5322,
      "nguy": 5323,
      "▁sảnh": 5324,
      "Bệnh": 5325,
      "▁Velvet": 5326,
      "ug": 5327,
      "▁khuya": 5328,
      "ble": 5329,
      "Ziggy": 5330,
      "Ngon": 5331,
      "Mạng": 5332,
      "Zero": 5333,
      "Điện": 5334,
      "▁ne": 5335,
      "Loài": 5336,
      "lph": 5337,
      "▁tản": 5338,
      "Bang": 5339,
      "Dee": 5340,
      "Biểu": 5341,
      "hài": 5342,
      "coot": 5343,
      "anda": 5344,
      "Vi": 5345,
      "▁máng": 5346,
      "Gina": 5347,
      "▁bệt": 5348,
      "Linda": 5349,
      "▁Beth": 5350,
      "▁Julie": 5351,
      "▁Nhưng": 5352,
      "der": 5353,
      "Sứa": 5354,
      "▁Giáng": 5355,
      "▁trục": 5356,
      "chạm": 5357,
      "khuấy": 5358,
      "hiểu": 5359,
      "▁chảng": 5360,
      "▁sẹo": 5361,
      "Ga": 5362,
      "eng": 5363,
      "mái": 5364,
      "▁Lan": 5365,
      "Tập": 5366,
      "▁rầm": 5367,
      "int": 5368,
      "Kính": 5369,
      "óp": 5370,
      "Thành": 5371,
      "▁bơm": 5372,
      "▁ngậy": 5373,
      "▁nguyền": 5374,
      "▁cỏi": 5375,
      "▁Muffin": 5376,
      "Hết": 5377,
      "tin": 5378,
      "nhẵn": 5379,
      "▁mẹo": 5380,
      "Cố": 5381,
      "▁Ếch": 5382,
      "etch": 5383,
      "\".\n\"": 5384,
      "nóng": 5385,
      "tai": 5386,
      "▁nhàu": 5387,
      "Trống": 5388,
      "▁gỉ": 5389,
      "Quảng": 5390,
      "Gr": 5391,
      "Lia": 5392,
      "Trở": 5393,
      "cooter": 5394,
      "hứa": 5395,
      "tháp": 5396,
      "Cơ": 5397,
      "thoải": 5398,
      "Kiến": 5399,
      "ngửi": 5400,
      "▁let": 5401,
      "▁Sư": 5402,
      "▁diếp": 5403,
      "thực": 5404,
      "irrel": 5405,
      "▁vĩnh": 5406,
      "...\n": 5407,
      "▁Bl": 5408,
      "Chanh": 5409,
      "miếng": 5410,
      "Búp": 5411,
      "▁Cáo": 5412,
      "Suzie": 5413,
      "Cindy": 5414,
      "bơ": 5415,
      "bao": 5416,
      "▁Đốm": 5417,
      "Big": 5418,
      "▁An": 5419,
      "ym": 5420,
      "▁pastry": 5421,
      "▁lẫm": 5422,
      "▁Gogo": 5423,
      "Robbie": 5424,
      "Mikey": 5425,
      "ệu": 5426,
      ".]": 5427,
      "Xanh": 5428,
      "Jenna": 5429,
      "rrr": 5430,
      "▁ngặt": 5431,
      "Liệu": 5432,
      "khoai": 5433,
      "Oh": 5434,
      "cáo": 5435,
      "mong": 5436,
      "Đá": 5437,
      "▁đồn": 5438,
      "Xuống": 5439,
      "▁ươi": 5440,
      "▁gục": 5441,
      "▁nhón": 5442,
      "Mel": 5443,
      "Khẩu": 5444,
      "kiến": 5445,
      "▁miền": 5446,
      "▁đười": 5447,
      "▁gôn": 5448,
      "biến": 5449,
      "Betsy": 5450,
      "▁lận": 5451,
      "▁Pippa": 5452,
      "ber": 5453,
      "▁tiện": 5454,
      "ingo": 5455,
      "▁phiến": 5456,
      "dường": 5457,
      "thêm": 5458,
      "ênh": 5459,
      "▁men": 5460,
      "▁scooter": 5461,
      "▁Ava": 5462,
      "▁hâu": 5463,
      "tretch": 5464,
      "▁Cô": 5465,
      "▁lãnh": 5466,
      "Bắt": 5467,
      "Foxy": 5468,
      "Nên": 5469,
      "Thông": 5470,
      "Nóng": 5471,
      "▁Chấm": 5472,
      "Nhớ": 5473,
      "antha": 5474,
      "Cát": 5475,
      "Tai": 5476,
      "ngủ": 5477,
      "thổi": 5478,
      "▁hoài": 5479,
      "Mittens": 5480,
      "năm": 5481,
      "Khoai": 5482,
      "▁gảy": 5483,
      "▁áy": 5484,
      "▁náy": 5485,
      "Milo": 5486,
      "▁giong": 5487,
      "▁tuông": 5488,
      "Bell": 5489,
      "Khốn": 5490,
      "▁nghẽo": 5491,
      "!'.": 5492,
      "Skelly": 5493,
      "▁vịn": 5494,
      "▁Tuyết": 5495,
      "khoe": 5496,
      "▁dò": 5497,
      "▁loet": 5498,
      "cốc": 5499,
      "▁Big": 5500,
      "trống": 5501,
      "▁Olly": 5502,
      "Vua": 5503,
      "▁To": 5504,
      "Lễ": 5505,
      "▁Khi": 5506,
      "dũng": 5507,
      "▁giám": 5508,
      "Julia": 5509,
      "viết": 5510,
      "đợi": 5511,
      "▁mải": 5512,
      "tổ": 5513,
      "▁Thomas": 5514,
      "nằm": 5515,
      "Sophia": 5516,
      "hít": 5517,
      "Cathy": 5518,
      "sân": 5519,
      "tiếp": 5520,
      "▁gym": 5521,
      "▁nhượng": 5522,
      "Okay": 5523,
      "▁sưa": 5524,
      "▁Dodo": 5525,
      "đếm": 5526,
      "ell": 5527,
      "▁lòa": 5528,
      "▁cót": 5529,
      "▁Abby": 5530,
      "Ash": 5531,
      "▁tú": 5532,
      "▁son": 5533,
      "bùm": 5534,
      "▁ôn": 5535,
      "▁út": 5536,
      "Chăm": 5537,
      "Giữa": 5538,
      "Meg": 5539,
      "cưng": 5540,
      "▁sấy": 5541,
      "Thịt": 5542,
      "Ao": 5543,
      "giá": 5544,
      "Đọc": 5545,
      "▁tuyên": 5546,
      "▁giăm": 5547,
      "ngỗng": 5548,
      "▁nhô": 5549,
      "Frog": 5550,
      "liệu": 5551,
      "▁đùi": 5552,
      "TV": 5553,
      "Nắm": 5554,
      "Sof": 5555,
      "wis": 5556,
      "▁Chicky": 5557,
      "▁hí": 5558,
      "▁rè": 5559,
      "▁tuỳ": 5560,
      "rùa": 5561,
      "Matt": 5562,
      "▁hoạn": 5563,
      "Sâm": 5564,
      "▁khảo": 5565,
      "odd": 5566,
      "hồng": 5567,
      "Ốc": 5568,
      "...\"": 5569,
      "▁Bắc": 5570,
      "Buggy": 5571,
      "Sơn": 5572,
      "Mật": 5573,
      "▁micr": 5574,
      "Thuý": 5575,
      "ỷu": 5576,
      "▁hăm": 5577,
      "▁trườn": 5578,
      "▁Jan": 5579,
      "Đoán": 5580,
      "Từng": 5581,
      "bật": 5582,
      "▁quăng": 5583,
      "▁đăng": 5584,
      "▁inch": 5585,
      "▁Bell": 5586,
      "jo": 5587,
      "Ngủ": 5588,
      "trang": 5589,
      "▁xổ": 5590,
      "mùa": 5591,
      "▁Trí": 5592,
      "▁mươi": 5593,
      "▁hụt": 5594,
      "▁phồng": 5595,
      "▁Beep": 5596,
      "cất": 5597,
      "tle": 5598,
      "▁liều": 5599,
      "▁mênh": 5600,
      "▁soi": 5601,
      "▁Ow": 5602,
      "▁đẩu": 5603,
      "▁lem": 5604,
      "jazz": 5605,
      "▁giàn": 5606,
      "tuyết": 5607,
      "Twinkle": 5608,
      "!'\n\"": 5609,
      "Hang": 5610,
      "▁vọt": 5611,
      "liếm": 5612,
      "▁Jamie": 5613,
      "▁Rabbit": 5614,
      "Dot": 5615,
      "Toà": 5616,
      "Snow": 5617,
      "▁Hope": 5618,
      "tim": 5619,
      "bo": 5620,
      "ven": 5621,
      "▁lõm": 5622,
      "sơn": 5623,
      "▁cừ": 5624,
      "),": 5625,
      "sinh": 5626,
      "nấp": 5627,
      "▁Milo": 5628,
      "rau": 5629,
      "▁bết": 5630,
      "▁ran": 5631,
      "▁Rover": 5632,
      "Kinh": 5633,
      "chúc": 5634,
      "Yummy": 5635,
      "uffy": 5636,
      "cạnh": 5637,
      "đất": 5638,
      "▁xoong": 5639,
      "▁Happy": 5640,
      "Bồn": 5641,
      "ad": 5642,
      "▁Chloe": 5643,
      "Đấy": 5644,
      "ệch": 5645,
      "▁Anh": 5646,
      "iona": 5647,
      "▁thác": 5648,
      "▁Bọ": 5649,
      "tweet": 5650,
      "Nick": 5651,
      "Tara": 5652,
      "Điểm": 5653,
      "▁bẩy": 5654,
      "Tò": 5655,
      "buổi": 5656,
      "Thuỷ": 5657,
      "▁giở": 5658,
      "▁Bouncy": 5659,
      "sàn": 5660,
      "▁Frosty": 5661,
      "Suýt": 5662,
      "Chris": 5663,
      "▁mồm": 5664,
      "Baby": 5665,
      "Brown": 5666,
      "ancy": 5667,
      "yum": 5668,
      "Sấm": 5669,
      "▁xoá": 5670,
      "ump": 5671,
      "Đỏ": 5672,
      "▁Moo": 5673,
      "▁phì": 5674,
      "▁Chuột": 5675,
      "▁Wis": 5676,
      "Trí": 5677,
      "giường": 5678,
      "▁trật": 5679,
      "▁xào": 5680,
      "▁sock": 5681,
      "▁Bodo": 5682,
      "▁ngất": 5683,
      "▁sẫm": 5684,
      "Yuck": 5685,
      "▁tống": 5686,
      "▁chát": 5687,
      "▁khuỷu": 5688,
      "▁Fl": 5689,
      "cú": 5690,
      "za": 5691,
      "▁tật": 5692,
      "▁gas": 5693,
      "Do": 5694,
      "aty": 5695,
      "▁vốc": 5696,
      "Rolly": 5697,
      "▁thói": 5698,
      "dọn": 5699,
      "▁gôm": 5700,
      "rey": 5701,
      "▁Cara": 5702,
      "Larry": 5703,
      "Đại": 5704,
      "quấn": 5705,
      "▁láng": 5706,
      "xây": 5707,
      "▁nhu": 5708,
      "▁bung": 5709,
      "▁Chew": 5710,
      "arah": 5711,
      "▁Oliver": 5712,
      "▁nín": 5713,
      "Thưa": 5714,
      "ophone": 5715,
      "thỉnh": 5716,
      "gõ": 5717,
      "▁ngấm": 5718,
      "tưởng": 5719,
      "▁hất": 5720,
      "▁rụt": 5721,
      "▁Baby": 5722,
      "▁chấn": 5723,
      "thưởng": 5724,
      "▁Laser": 5725,
      "ard": 5726,
      "▁Gia": 5727,
      "nes": 5728,
      "▁toil": 5729,
      "▁luồng": 5730,
      "▁toilet": 5731,
      "▁vani": 5732,
      "June": 5733,
      "▁tre": 5734,
      "Cỗ": 5735,
      "suy": 5736,
      "trẻ": 5737,
      "Sàn": 5738,
      "▁giang": 5739,
      "Tầng": 5740,
      "Vợ": 5741,
      "▁ngột": 5742,
      "thanh": 5743,
      "▁Robo": 5744,
      "rick": 5745,
      "▁giội": 5746,
      "Karen": 5747,
      "▁Luke": 5748,
      "rồng": 5749,
      "▁Vịt": 5750,
      "▁xạc": 5751,
      "phát": 5752,
      "▁sán": 5753,
      "Sức": 5754,
      "tia": 5755,
      "▁trá": 5756,
      "ain": 5757,
      "ishy": 5758,
      "helly": 5759,
      "low": 5760,
      "▁thoả": 5761,
      "linh": 5762,
      "▁ken": 5763,
      "khúc": 5764,
      "ckey": 5765,
      "▁dùi": 5766,
      "Hiểu": 5767,
      "Paws": 5768,
      "dòng": 5769,
      "dày": 5770,
      "▁mịt": 5771,
      "Chậm": 5772,
      "hót": 5773,
      "▁hớt": 5774,
      "Lizzie": 5775,
      "▁cốt": 5776,
      "Pin": 5777,
      "thầy": 5778,
      "Skip": 5779,
      "xie": 5780,
      "▁khiếu": 5781,
      "Gh": 5782,
      "Ja": 5783,
      "Cuộn": 5784,
      "▁hệ": 5785,
      "trộn": 5786,
      "▁bom": 5787,
      "Quá": 5788,
      "tài": 5789,
      "cca": 5790,
      "▁bus": 5791,
      "cục": 5792,
      "▁ngả": 5793,
      "▁rủi": 5794,
      "▁khàng": 5795,
      "▁Ju": 5796,
      "ops": 5797,
      "Toot": 5798,
      "Fido": 5799,
      "Khăn": 5800,
      "▁bềnh": 5801,
      "vẻ": 5802,
      "▁đa": 5803,
      "▁lẩn": 5804,
      "▁ri": 5805,
      "chưa": 5806,
      "liza": 5807,
      "Jas": 5808,
      "▁Hannah": 5809,
      "vuốt": 5810,
      "▁hockey": 5811,
      "Cụ": 5812,
      "Er": 5813,
      "cake": 5814,
      "▁Hà": 5815,
      "▁Skelly": 5816,
      "ammy": 5817,
      "▁Hippy": 5818,
      "toà": 5819,
      "Cặp": 5820,
      "Kayla": 5821,
      "Vòi": 5822,
      "Nhạc": 5823,
      "Thích": 5824,
      "▁Jilly": 5825,
      "bếp": 5826,
      "cm": 5827,
      "▁thiệt": 5828,
      "quạ": 5829,
      "ban": 5830,
      "▁Claire": 5831,
      "▁thôn": 5832,
      "ricket": 5833,
      "▁ngấy": 5834,
      "▁Mel": 5835,
      "▁Hu": 5836,
      "▁đặn": 5837,
      "▁ranh": 5838,
      "bối": 5839,
      "điện": 5840,
      "▁Ria": 5841,
      "xà": 5842,
      "▁thắc": 5843,
      "Gửi": 5844,
      "hơi": 5845,
      "Thú": 5846,
      "Năm": 5847,
      "lò": 5848,
      "tỉnh": 5849,
      "Chúa": 5850,
      "uzzy": 5851,
      "Quạt": 5852,
      "chiến": 5853,
      "▁dơi": 5854,
      "Hoạ": 5855,
      "bốt": 5856,
      "ngưỡng": 5857,
      "▁guộc": 5858,
      "▁quậy": 5859,
      "mỏng": 5860,
      "▁w": 5861,
      "▁lóa": 5862,
      "bốc": 5863,
      "▁nhã": 5864,
      "Rằng": 5865,
      "Xo": 5866,
      "▁chửng": 5867,
      "Baa": 5868,
      "▁càu": 5869,
      "Little": 5870,
      "Bến": 5871,
      "▁Linda": 5872,
      "Bếp": 5873,
      "▁vẹo": 5874,
      "ebe": 5875,
      "▁Josh": 5876,
      "Yoga": 5877,
      "▁tỉ": 5878,
      "▁rã": 5879,
      "Bloom": 5880,
      "▁Owl": 5881,
      "trung": 5882,
      "run": 5883,
      "Phim": 5884,
      "lick": 5885,
      "Missy": 5886,
      "▁cường": 5887,
      "Trà": 5888,
      "▁Ash": 5889,
      "ngăn": 5890,
      "òe": 5891,
      "Giấy": 5892,
      "via": 5893,
      "▁beep": 5894,
      "▁Adam": 5895,
      "▁viếng": 5896,
      "Lắng": 5897,
      "uise": 5898,
      "▁Lớn": 5899,
      "Cara": 5900,
      "Gà": 5901,
      "đĩa": 5902,
      "▁Catty": 5903,
      "▁Đông": 5904,
      "Ngừng": 5905,
      "Núi": 5906,
      "ap": 5907,
      "Đậu": 5908,
      "oni": 5909,
      "▁ngóng": 5910,
      "hoàn": 5911,
      "Than": 5912,
      "ookie": 5913,
      "ter": 5914,
      "Chết": 5915,
      "ệp": 5916,
      "▁dáy": 5917,
      "anny": 5918,
      "Wink": 5919,
      "Dễ": 5920,
      "▁lã": 5921,
      "tràn": 5922,
      "hái": 5923,
      "ipper": 5924,
      "ne": 5925,
      "tam": 5926,
      "▁Sparky": 5927,
      "Rover": 5928,
      "ngu": 5929,
      "nhện": 5930,
      "▁Jeff": 5931,
      "cát": 5932,
      "▁Kẻ": 5933,
      "▁dụ": 5934,
      "▁Jacob": 5935,
      "Abbie": 5936,
      "Pe": 5937,
      "doggy": 5938,
      "aa": 5939,
      "Janie": 5940,
      "Sâu": 5941,
      "Stella": 5942,
      "Martha": 5943,
      "Izzy": 5944,
      "Thân": 5945,
      "▁hoắt": 5946,
      "▁Jessica": 5947,
      "già": 5948,
      "nút": 5949,
      "▁dột": 5950,
      "Nhãn": 5951,
      "Squ": 5952,
      "▁Matt": 5953,
      "Pho": 5954,
      "▁tả": 5955,
      "bu": 5956,
      "▁Tia": 5957,
      "▁ộp": 5958,
      "▁cộp": 5959,
      "▁xá": 5960,
      "Fl": 5961,
      "▁Cha": 5962,
      "\"\n\"": 5963,
      "▁Buggy": 5964,
      "Jay": 5965,
      "Brownie": 5966,
      "Tôm": 5967,
      "mứt": 5968,
      "▁ắng": 5969,
      "▁khùng": 5970,
      "que": 5971,
      "ỗn": 5972,
      "▁phó": 5973,
      "Trường": 5974,
      "Robert": 5975,
      "▁tùy": 5976,
      "vũng": 5977,
      "▁sườn": 5978,
      "llow": 5979,
      "▁Trăng": 5980,
      "Vỏ": 5981,
      "▁lán": 5982,
      "ici": 5983,
      "▁Gina": 5984,
      "Michael": 5985,
      "▁tua": 5986,
      "▁nạp": 5987,
      "Họa": 5988,
      "kiên": 5989,
      "Cổ": 5990,
      "awn": 5991,
      "evin": 5992,
      "▁nhớt": 5993,
      "sha": 5994,
      "su": 5995,
      "▁ngó": 5996,
      "Ngọt": 5997,
      "▁Rock": 5998,
      "Maya": 5999,
      "boo": 6000,
      "hổ": 6001,
      "▁ròng": 6002,
      "otion": 6003,
      "túi": 6004,
      "▁kheo": 6005,
      "▁xẹp": 6006,
      "ườm": 6007,
      "Snap": 6008,
      "Laura": 6009,
      "vốn": 6010,
      "▁phu": 6011,
      "Choo": 6012,
      "▁ôtô": 6013,
      "▁Công": 6014,
      "▁Ally": 6015,
      "Ralph": 6016,
      "Oops": 6017,
      "opper": 6018,
      "▁Đi": 6019,
      "▁cai": 6020,
      "▁Dog": 6021,
      "Davey": 6022,
      "gật": 6023,
      "Giật": 6024,
      "erb": 6025,
      "▁cup": 6026,
      "▁Dare": 6027,
      "bba": 6028,
      "belle": 6029,
      "ha": 6030,
      "ượm": 6031,
      "Mỏ": 6032,
      "nack": 6033,
      "▁Dee": 6034,
      "▁Paws": 6035,
      "▁Flu": 6036,
      "cọ": 6037,
      "dạ": 6038,
      "▁tề": 6039,
      "▁nhó": 6040,
      "▁zig": 6041,
      "▁đè": 6042,
      "▁Julia": 6043,
      "Tế": 6044,
      "▁Ý": 6045,
      "Pam": 6046,
      "ẻo": 6047,
      "▁mỹ": 6048,
      "Giày": 6049,
      "xù": 6050,
      "▁tót": 6051,
      "▁Bop": 6052,
      "Sói": 6053,
      "▁vớt": 6054,
      "▁sịt": 6055,
      "igh": 6056,
      "Quyển": 6057,
      "dẫn": 6058,
      "▁lì": 6059,
      "▁Chirp": 6060,
      "Dấu": 6061,
      "Lồng": 6062,
      "nụ": 6063,
      "▁ngóc": 6064,
      "Co": 6065,
      "Tự": 6066,
      "▁Cathy": 6067,
      "een": 6068,
      "▁snack": 6069,
      "▁Dara": 6070,
      "▁Jenna": 6071,
      "▁đung": 6072,
      "lappy": 6073,
      "Kỳ": 6074,
      "yên": 6075,
      "Giải": 6076,
      "Jackie": 6077,
      "eanut": 6078,
      "inny": 6079,
      "gù": 6080,
      "vỡ": 6081,
      "▁sệt": 6082,
      "Flo": 6083,
      "▁liệt": 6084,
      "▁góp": 6085,
      "▁Sof": 6086,
      "Que": 6087,
      "NG": 6088,
      "▁ăng": 6089,
      "▁dặm": 6090,
      "▁Lậu": 6091,
      "▁Ziggy": 6092,
      "ide": 6093,
      "tao": 6094,
      "▁gù": 6095,
      "sey": 6096,
      "vết": 6097,
      "Zoey": 6098,
      "đêm": 6099,
      "atr": 6100,
      "cúi": 6101,
      "▁rệp": 6102,
      "Sóc": 6103,
      "Simon": 6104,
      "hu": 6105,
      "iễ": 6106,
      "▁lọt": 6107,
      "▁huấn": 6108,
      "iam": 6109,
      "Gương": 6110,
      "Lốc": 6111,
      "thở": 6112,
      "▁Nana": 6113,
      "oolly": 6114,
      "lloween": 6115,
      "hào": 6116,
      "▁náo": 6117,
      "nhấc": 6118,
      "▁ngắc": 6119,
      "▁Betsy": 6120,
      "▁Twinkle": 6121,
      "biển": 6122,
      "▁nhũ": 6123,
      "Rock": 6124,
      "▁Jay": 6125,
      "▁Jessie": 6126,
      "▁Tuna": 6127,
      "▁Cra": 6128,
      "Thẩm": 6129,
      "▁Fido": 6130,
      "▁chồi": 6131,
      "Du": 6132,
      "Ryan": 6133,
      "vòi": 6134,
      "xung": 6135,
      "▁So": 6136,
      "chy": 6137,
      "otte": 6138,
      "▁thín": 6139,
      "ona": 6140,
      "loại": 6141,
      "ibi": 6142,
      "▁dẫm": 6143,
      "▁đoạt": 6144,
      "phủ": 6145,
      "▁luống": 6146,
      "issa": 6147,
      "cũ": 6148,
      "▁lotion": 6149,
      "Nhiệm": 6150,
      "utty": 6151,
      "dài": 6152,
      "đô": 6153,
      "reo": 6154,
      "ngốc": 6155,
      "▁Cực": 6156,
      "đủ": 6157,
      "▁chòi": 6158,
      "▁gánh": 6159,
      "▁Skip": 6160,
      "Hỏi": 6161,
      "Hmm": 6162,
      "arlotte": 6163,
      "▁Halloween": 6164,
      "▁tỉa": 6165,
      "Răng": 6166,
      "xu": 6167,
      "▁hụ": 6168,
      "ednes": 6169,
      "▁Gian": 6170,
      "ednesday": 6171,
      "▁lượm": 6172,
      "!\".": 6173,
      "▁Thời": 6174,
      "Dải": 6175,
      "lặp": 6176,
      "tới": 6177,
      "▁Vòng": 6178,
      "idi": 6179,
      "ri": 6180,
      "▁Do": 6181,
      "Cung": 6182,
      "▁đàng": 6183,
      "▁Flo": 6184,
      "▁ngòm": 6185,
      "▁Meg": 6186,
      "tơ": 6187,
      "▁trăm": 6188,
      "▁gọt": 6189,
      "▁Rùa": 6190,
      "Phi": 6191,
      "vân": 6192,
      "▁quật": 6193,
      "Lou": 6194,
      "▁Titi": 6195,
      "Dodo": 6196,
      "Tuna": 6197,
      "▁Ng": 6198,
      "giấc": 6199,
      "▁sửng": 6200,
      "▁Mabel": 6201,
      "chất": 6202,
      "núi": 6203,
      "Quạ": 6204,
      "Rudy": 6205,
      "▁giễu": 6206,
      "▁Rich": 6207,
      "Quacky": 6208,
      "ple": 6209,
      "Kip": 6210,
      "▁tanh": 6211,
      "cola": 6212,
      "Bubbles": 6213,
      "Làn": 6214,
      "Bão": 6215,
      "▁Bảy": 6216,
      "Rollie": 6217,
      "Lớn": 6218,
      "dữ": 6219,
      "ger": 6220,
      "▁thấm": 6221,
      "eed": 6222,
      "Lòng": 6223,
      "Sở": 6224,
      "▁Lu": 6225,
      "▁hoành": 6226,
      "ooly": 6227,
      "oger": 6228,
      "Abi": 6229,
      "dre": 6230,
      "▁điềm": 6231,
      "Chuồng": 6232,
      "Dizzy": 6233,
      "▁Foxy": 6234,
      "▁thè": 6235,
      "kiểm": 6236,
      "Silly": 6237,
      "▁cuống": 6238,
      "▁max": 6239,
      "cie": 6240,
      "dán": 6241,
      "▁khep": 6242,
      "Jacky": 6243,
      "Mixy": 6244,
      "▁Grumpy": 6245,
      "Giỏi": 6246,
      "▁phủi": 6247,
      "▁kẽ": 6248,
      "▁sánh": 6249,
      "ope": 6250,
      "▁boa": 6251,
      "▁Stella": 6252,
      "▁Pe": 6253,
      "lap": 6254,
      "iri": 6255,
      "▁ngoạc": 6256,
      "essa": 6257,
      "răng": 6258,
      "▁chườm": 6259,
      "Hoá": 6260,
      "Bơ": 6261,
      "Hội": 6262,
      "gảy": 6263,
      "Suy": 6264,
      "▁sủi": 6265,
      "▁hoắm": 6266,
      "▁jack": 6267,
      "rắn": 6268,
      "ngã": 6269,
      "onnie": 6270,
      "wist": 6271,
      "Hiệp": 6272,
      "▁ngách": 6273,
      "chăm": 6274,
      "Sadie": 6275,
      "▁Squirrel": 6276,
      "▁lãm": 6277,
      "ngo": 6278,
      "▁bet": 6279,
      "xoa": 6280,
      "Wendy": 6281,
      "▁xảo": 6282,
      "Khóa": 6283,
      "Nỗi": 6284,
      "oke": 6285,
      "fus": 6286,
      "▁muông": 6287,
      "thư": 6288,
      "▁nguệch": 6289,
      "▁trói": 6290,
      "▁Lizzie": 6291,
      "..\n": 6292,
      "Mina": 6293,
      "vũ": 6294,
      "Chewy": 6295,
      "ổn": 6296,
      "chăn": 6297,
      "kỳ": 6298,
      "▁ngoặt": 6299,
      "Tường": 6300,
      "yler": 6301,
      "▁cupcake": 6302,
      "Tinh": 6303,
      "▁Và": 6304,
      "▁Tara": 6305,
      "athan": 6306,
      "tôn": 6307,
      "ngước": 6308,
      "▁Pam": 6309,
      "Yay": 6310,
      "thuỷ": 6311,
      "Bally": 6312,
      "beep": 6313,
      "ni": 6314,
      "tờ": 6315,
      "Úi": 6316,
      "Samantha": 6317,
      "▁Suzie": 6318,
      "▁sụt": 6319,
      "▁Biggie": 6320,
      "▁Pup": 6321,
      "Marie": 6322,
      "ghi": 6323,
      "▁Little": 6324,
      "Eddie": 6325,
      "iley": 6326,
      "▁xèo": 6327,
      "GiGi": 6328,
      "▁Kayla": 6329,
      "hết": 6330,
      "▁thuẫn": 6331,
      "Hát": 6332,
      "zoom": 6333,
      "đói": 6334,
      "▁Robert": 6335,
      "gặp": 6336,
      "▁bịch": 6337,
      "ari": 6338,
      "Uống": 6339,
      "La": 6340,
      "hồ": 6341,
      "▁Vua": 6342,
      "ding": 6343,
      "▁nhũn": 6344,
      "Chirp": 6345,
      "tranh": 6346,
      "▁jacket": 6347,
      "Hỗn": 6348,
      "Rượu": 6349,
      "Daniel": 6350,
      "Tắm": 6351,
      "Nhiệt": 6352,
      "Mat": 6353,
      "Olivia": 6354,
      "usty": 6355,
      "▁Patch": 6356,
      "▁tần": 6357,
      "Khung": 6358,
      "Ti": 6359,
      "mười": 6360,
      "cào": 6361,
      "▁vướng": 6362,
      "▁Henny": 6363,
      "Sóng": 6364,
      "lda": 6365,
      "▁tom": 6366,
      "racie": 6367,
      "Phep": 6368,
      "▁Sparkle": 6369,
      "Zee": 6370,
      "go": 6371,
      "Xương": 6372,
      "▁dãn": 6373,
      "tinh": 6374,
      "chỗ": 6375,
      "▁Bóng": 6376,
      "Whistle": 6377,
      "uân": 6378,
      "▁nham": 6379,
      "▁Ja": 6380,
      "gào": 6381,
      "ant": 6382,
      "Lenny": 6383,
      "▁táp": 6384,
      "▁thán": 6385,
      "▁sục": 6386,
      "▁tược": 6387,
      "Thợ": 6388,
      "duỗi": 6389,
      "tím": 6390,
      "vy": 6391,
      "quý": 6392,
      "▁phanh": 6393,
      "▁Sophia": 6394,
      "▁Lou": 6395,
      "So": 6396,
      "emma": 6397,
      "cay": 6398,
      "thành": 6399,
      "iễm": 6400,
      "Jonny": 6401,
      "Tiền": 6402,
      "▁choo": 6403,
      "▁June": 6404,
      "thang": 6405,
      "▁cricket": 6406,
      ".\"\n'": 6407,
      "trường": 6408,
      "giấu": 6409,
      "ebecca": 6410,
      "▁\"\n\"": 6411,
      "▁Ryan": 6412,
      "Todd": 6413,
      "▁thà": 6414,
      "ani": 6415,
      "Barky": 6416,
      "Judy": 6417,
      "▁Bloom": 6418,
      "Xoay": 6419,
      "Ali": 6420,
      "▁Ang": 6421,
      "Lọ": 6422,
      "Lee": 6423,
      "độc": 6424,
      "▁Quack": 6425,
      "▁lặt": 6426,
      "cey": 6427,
      "Thuỵ": 6428,
      "▁thoáng": 6429,
      "▁vụt": 6430,
      "rực": 6431,
      "▁vinh": 6432,
      "quàng": 6433,
      "Mindy": 6434,
      "▁rưới": 6435,
      "Vở": 6436,
      "▁kỉ": 6437,
      "▁ret": 6438,
      "Báo": 6439,
      "bồ": 6440,
      "coi": 6441,
      "▁Quick": 6442,
      "▁hú": 6443,
      "dính": 6444,
      "▁Kh": 6445,
      "▁Sĩ": 6446,
      "Biggie": 6447,
      "Jon": 6448,
      "▁chóp": 6449,
      "Mục": 6450,
      "Máu": 6451,
      "▁dậm": 6452,
      "▁Râu": 6453,
      "▁bùm": 6454,
      "Willy": 6455,
      "ssy": 6456,
      "ươn": 6457,
      "▁diệt": 6458,
      "▁dệt": 6459,
      "▁Barky": 6460,
      "Frankie": 6461,
      "ịu": 6462,
      "▁bồng": 6463,
      "▁nhão": 6464,
      "Amelia": 6465,
      "Lịch": 6466,
      "colate": 6467,
      "Đầm": 6468,
      "Bể": 6469,
      "beo": 6470,
      "suốt": 6471,
      "Nông": 6472,
      "id": 6473,
      "▁Ball": 6474,
      "Go": 6475,
      "usy": 6476,
      "Chạm": 6477,
      "▁nương": 6478,
      "▁túng": 6479,
      "Cari": 6480,
      "Rễ": 6481,
      "số": 6482,
      "▁mài": 6483,
      "▁thọc": 6484,
      "Holly": 6485,
      "dom": 6486,
      "jam": 6487,
      "Cờ": 6488,
      "Maddy": 6489,
      "đắt": 6490,
      "đoán": 6491,
      "Hel": 6492,
      "cỗ": 6493,
      "thùng": 6494,
      "rink": 6495,
      "▁Beaky": 6496,
      "Ar": 6497,
      "▁Laura": 6498,
      "▁bệch": 6499,
      "tto": 6500,
      "▁tộc": 6501,
      "▁xâm": 6502,
      "▁Larry": 6503,
      "ya": 6504,
      "▁rĩ": 6505,
      "▁Mat": 6506,
      "adow": 6507,
      "icro": 6508,
      "nhai": 6509,
      "Ngạc": 6510,
      "Muối": 6511,
      "Voi": 6512,
      "▁bụp": 6513,
      "▁ngói": 6514,
      "▁xi": 6515,
      "enel": 6516,
      "vượt": 6517,
      "▁Trong": 6518,
      "▁Kit": 6519,
      "enelope": 6520,
      "Gerry": 6521,
      "Green": 6522,
      "car": 6523,
      "vớ": 6524,
      "vương": 6525,
      "▁giụa": 6526,
      "▁Jas": 6527,
      "tilda": 6528,
      "▁Tweetie": 6529,
      "tuần": 6530,
      "▁Tiên": 6531,
      "đều": 6532,
      "▁Wink": 6533,
      "Cút": 6534,
      "Pizza": 6535,
      "mát": 6536,
      "▁Nina": 6537,
      "queak": 6538,
      "▁Hoa": 6539,
      "chai": 6540,
      "▁Nick": 6541,
      "Kệ": 6542,
      "Môi": 6543,
      "▁khốc": 6544,
      "innie": 6545,
      "▁Bones": 6546,
      "drew": 6547,
      "Stretch": 6548,
      "cuộn": 6549,
      "▁ẳng": 6550,
      "quack": 6551,
      "Váy": 6552,
      "mượt": 6553,
      "▁lúng": 6554,
      "▁khoan": 6555,
      "Ruth": 6556,
      "vật": 6557,
      "▁mía": 6558,
      "?\".": 6559,
      "▁Cindy": 6560,
      "▁Chris": 6561,
      "▁nhờn": 6562,
      "▁lẻo": 6563,
      "elix": 6564,
      "vươn": 6565,
      "Huýt": 6566,
      "Lợn": 6567,
      "Tệ": 6568,
      "bong": 6569,
      "Bodo": 6570,
      "Fiona": 6571,
      "▁xòe": 6572,
      "oney": 6573,
      "aye": 6574,
      "▁bịp": 6575,
      "▁Missy": 6576,
      "Bear": 6577,
      "dê": 6578,
      "Patty": 6579,
      "▁đờ": 6580,
      "chấm": 6581,
      "chuyến": 6582,
      "▁Lena": 6583,
      "Hít": 6584,
      "Đâu": 6585,
      "Hộ": 6586,
      "▁tắp": 6587,
      "giải": 6588,
      "Set": 6589,
      "▁hĩnh": 6590,
      "Eva": 6591,
      "Xúc": 6592,
      "...\"\n": 6593,
      "umble": 6594,
      "▁Splash": 6595,
      "Bốn": 6596,
      "Tê": 6597,
      "mua": 6598,
      "tung": 6599,
      "▁me": 6600,
      "▁phị": 6601,
      "▁Simon": 6602,
      "khác": 6603,
      "aff": 6604,
      "màn": 6605,
      "đàn": 6606,
      "itch": 6607,
      "▁chocolate": 6608,
      "gối": 6609,
      "nấu": 6610,
      "Patch": 6611,
      "Tóe": 6612,
      "▁Hoàng": 6613,
      "Trứng": 6614,
      "Ricky": 6615,
      "hấp": 6616,
      "ngớ": 6617,
      "▁Dizzy": 6618,
      "Beaky": 6619,
      "▁rúm": 6620,
      "▁Maya": 6621,
      "Đoạn": 6622,
      "▁keng": 6623,
      "tắm": 6624,
      "Đổ": 6625,
      "Splash": 6626,
      "Blinky": 6627,
      "Xác": 6628,
      "Đối": 6629,
      "đài": 6630,
      "▁miên": 6631,
      "▁bục": 6632,
      "khói": 6633,
      "opsy": 6634,
      "Ang": 6635,
      "'.\"": 6636,
      "Bút": 6637,
      "▁hạc": 6638,
      "Pup": 6639,
      "Mabel": 6640,
      "Thung": 6641,
      "▁Đỏ": 6642,
      "▁Rudy": 6643,
      "▁fan": 6644,
      "đống": 6645,
      "▁nhòm": 6646,
      "▁Tu": 6647,
      "▁Vi": 6648,
      "bang": 6649,
      "niềm": 6650,
      "▁Willy": 6651,
      "▁meow": 6652,
      "chà": 6653,
      "Megan": 6654,
      "Cầm": 6655,
      "Oxy": 6656,
      "gar": 6657,
      "mì": 6658,
      "▁lily": 6659,
      "▁thê": 6660,
      "▁gớm": 6661,
      "chua": 6662,
      "vợ": 6663,
      "▁kĩ": 6664,
      "Bra": 6665,
      "Titi": 6666,
      "rắc": 6667,
      "zor": 6668,
      "▁chường": 6669,
      "▁Đại": 6670,
      "dabra": 6671,
      "Hứa": 6672,
      "Bầy": 6673,
      "▁kiềm": 6674,
      "Phấn": 6675,
      "'.\n\"": 6676,
      "Spring": 6677,
      "▁Izzy": 6678,
      "Văn": 6679,
      "▁cookie": 6680,
      "▁Zee": 6681,
      "còi": 6682,
      "hẹn": 6683,
      "chọn": 6684,
      "▁Răng": 6685,
      "irit": 6686,
      "▁Mikey": 6687,
      "idey": 6688,
      "hôi": 6689,
      "sói": 6690,
      "Sợ": 6691,
      "cặp": 6692,
      "lửa": 6693,
      "mảnh": 6694,
      "▁Từ": 6695,
      "▁hột": 6696,
      "cadabra": 6697,
      "Hà": 6698,
      "hiệp": 6699,
      "▁vay": 6700,
      "▁kháng": 6701,
      "Thêm": 6702,
      "bãi": 6703,
      "dịu": 6704,
      "▁tweet": 6705,
      "nhắc": 6706,
      "▁ngạt": 6707,
      "Chọn": 6708,
      "Nhắm": 6709,
      "Dao": 6710,
      "Hắt": 6711,
      "vung": 6712,
      "▁ố": 6713,
      "▁chấu": 6714,
      "▁leng": 6715,
      "Rich": 6716,
      "ok": 6717,
      "▁tuy": 6718,
      "▁Rolly": 6719,
      "pháo": 6720,
      "▁Er": 6721,
      "tường": 6722,
      "Stan": 6723,
      "huýt": 6724,
      "bạch": 6725,
      "linky": 6726,
      "▁Cua": 6727,
      "Ring": 6728,
      "sửa": 6729,
      "Ron": 6730,
      "nỗi": 6731,
      "sấm": 6732,
      "tập": 6733,
      "Eliza": 6734,
      "▁hợm": 6735,
      "Lưới": 6736,
      "▁U": 6737,
      "▁sứ": 6738,
      "olet": 6739,
      "Dê": 6740,
      "▁tựu": 6741,
      "phút": 6742,
      "Zippy": 6743,
      "▁ủ": 6744,
      "▁chip": 6745,
      "'\n\"": 6746,
      "Cra": 6747,
      "▁quại": 6748,
      "▁liễu": 6749,
      "Cốc": 6750,
      "Look": 6751,
      "Bế": 6752,
      "Dina": 6753,
      "▁Cảm": 6754,
      "▁Mira": 6755,
      "▁cấm": 6756,
      "bát": 6757,
      "cle": 6758,
      "▁rảnh": 6759,
      "▁toát": 6760,
      "▁lúp": 6761,
      "▁sút": 6762,
      "ướu": 6763,
      "Rồng": 6764,
      "▁ham": 6765,
      "▁khet": 6766,
      "▁loa": 6767,
      "Laser": 6768,
      "uff": 6769,
      "▁'\n\n": 6770,
      "▁Abbie": 6771,
      "pr": 6772,
      "▁ngoái": 6773,
      "Vương": 6774,
      "Chất": 6775,
      "▁Cuối": 6776,
      "▁cẩm": 6777,
      "▁tiều": 6778,
      "▁tràng": 6779,
      "▁giăng": 6780,
      "▁Thu": 6781,
      "Lốp": 6782,
      "tê": 6783,
      "▁tín": 6784,
      "▁xứ": 6785,
      "▁Snap": 6786,
      "web": 6787,
      "tưới": 6788,
      "▁mỡ": 6789,
      "khóa": 6790,
      "Dạ": 6791,
      "Lều": 6792,
      "Mint": 6793,
      "▁đành": 6794,
      "▁Cr": 6795,
      "▁Wendy": 6796,
      "Jess": 6797,
      "▁mấu": 6798,
      "▁khanh": 6799,
      "Shelly": 6800,
      "bấm": 6801,
      "▁kệch": 6802,
      "▁Martha": 6803,
      "▁bẩm": 6804,
      "nhạc": 6805,
      ",\n\"": 6806,
      "▁Emmy": 6807,
      "▁chặng": 6808,
      "▁chun": 6809,
      "khủng": 6810,
      "Trung": 6811,
      "thường": 6812,
      "In": 6813,
      "Roo": 6814,
      "phi": 6815,
      "bracadabra": 6816,
      "▁bean": 6817,
      "phần": 6818,
      "affle": 6819,
      "dạy": 6820,
      "hồn": 6821,
      "▁gợn": 6822,
      "▁điêu": 6823,
      "▁In": 6824,
      "Thiết": 6825,
      "mo": 6826,
      "▁Nó": 6827,
      "▁hàn": 6828,
      "Phil": 6829,
      "rie": 6830,
      "▁thó": 6831,
      "Sparky": 6832,
      "Bơi": 6833,
      "Gary": 6834,
      "Tử": 6835,
      "▁mách": 6836,
      "▁hòi": 6837,
      "▁trồi": 6838,
      "Trại": 6839,
      "buộc": 6840,
      "cởi": 6841,
      "▁Stretch": 6842,
      "▁microphone": 6843,
      "sở": 6844,
      "yd": 6845,
      "▁đợt": 6846,
      "▁Fishy": 6847,
      "▁soạt": 6848,
      "Goá": 6849,
      "▁ngúm": 6850,
      "chính": 6851,
      "yle": 6852,
      "▁pepper": 6853,
      "!'\n-": 6854,
      "▁vợt": 6855,
      "Jax": 6856,
      "▁sột": 6857,
      "giàu": 6858,
      "▁Ca": 6859,
      "Muffin": 6860,
      "gấp": 6861,
      "lính": 6862,
      "▁quai": 6863,
      "Thạch": 6864,
      "thợ": 6865,
      "▁Fish": 6866,
      "kim": 6867,
      "nhân": 6868,
      "▁rích": 6869,
      "Thả": 6870,
      "▁micrô": 6871,
      "Sắp": 6872,
      "bùn": 6873,
      "vặn": 6874,
      "▁tịt": 6875,
      "▁kẻo": 6876,
      "▁Yet": 6877,
      "▁Wise": 6878,
      "Katy": 6879,
      "Mứt": 6880,
      "ah": 6881,
      "▁sộ": 6882,
      "old": 6883,
      "▁Tròn": 6884,
      "Vicky": 6885,
      "ix": 6886,
      "▁boun": 6887,
      "Mất": 6888,
      "Nancy": 6889,
      "▁hiến": 6890,
      "▁xức": 6891,
      "cơ": 6892,
      "nâu": 6893,
      "nhấn": 6894,
      "▁La": 6895,
      "Cách": 6896,
      "Frosty": 6897,
      "ellie": 6898,
      "▁Lenny": 6899,
      "▁\"\n-": 6900,
      "Nồi": 6901,
      "Rrrr": 6902,
      "▁đọng": 6903,
      "Khắp": 6904,
      "▁bouncy": 6905,
      "Mê": 6906,
      "liền": 6907,
      "▁nãy": 6908,
      "Chớp": 6909,
      "Nhánh": 6910,
      "Mười": 6911,
      "aula": 6912,
      "Sô": 6913,
      "Maddie": 6914,
      "Phía": 6915,
      "▁Tất": 6916,
      "Chừng": 6917,
      "▁Co": 6918,
      "▁Toot": 6919,
      "tách": 6920,
      "▁lủng": 6921,
      "Côn": 6922,
      "lộn": 6923,
      "Tess": 6924,
      "▁cằm": 6925,
      "▁bướu": 6926,
      "▁lẳng": 6927,
      "vờ": 6928,
      "quái": 6929,
      "Kelly": 6930,
      "▁dông": 6931,
      "lor": 6932,
      "Ghế": 6933,
      "kệ": 6934,
      "▁Bỏng": 6935,
      "▁Karen": 6936,
      "▁Wil": 6937,
      "Viết": 6938,
      "móng": 6939,
      "mine": 6940,
      "Cora": 6941,
      "Rau": 6942,
      "xương": 6943,
      "▁quằn": 6944,
      "▁Sc": 6945,
      "giữa": 6946,
      "vít": 6947,
      "▁sarah": 6948,
      "chớp": 6949,
      "Jason": 6950,
      "▁nấy": 6951,
      "Mae": 6952,
      "▁Hải": 6953,
      "Cười": 6954,
      "hải": 6955,
      "tiến": 6956,
      "▁web": 6957,
      "▁quack": 6958,
      "▁Robot": 6959,
      "Gói": 6960,
      "Mine": 6961,
      "bồn": 6962,
      "Louise": 6963,
      "Vivi": 6964,
      "Ván": 6965,
      "very": 6966,
      "▁lùn": 6967,
      "Jojo": 6968,
      "net": 6969,
      "eah": 6970,
      "▁suôn": 6971,
      "ngừng": 6972,
      "▁chinh": 6973,
      "Nhỡ": 6974,
      "Phong": 6975,
      "thầm": 6976,
      "▁soóc": 6977,
      "Phù": 6978,
      "▁thênh": 6979,
      "▁nhúm": 6980,
      "▁Bài": 6981,
      "▁Huệ": 6982,
      "pril": 6983,
      "▁nhả": 6984,
      "ribbit": 6985,
      "▁nộp": 6986,
      "Trượt": 6987,
      "▁Ali": 6988,
      "hoo": 6989,
      "▁Rollie": 6990,
      "▁Voi": 6991,
      "Elle": 6992,
      "Vầng": 6993,
      "mer": 6994,
      "uth": 6995,
      "▁?\n": 6996,
      "khiêm": 6997,
      "▁Chewy": 6998,
      "▁ruộng": 6999,
      "Thần": 7000,
      ").\n\"": 7001,
      "Woolly": 7002,
      "lớp": 7003,
      "▁lột": 7004,
      "▁Abi": 7005,
      "ẻm": 7006,
      "Ruff": 7007,
      "▁xâu": 7008,
      "▁toác": 7009,
      "▁Nữ": 7010,
      "andra": 7011,
      "Har": 7012,
      "Nem": 7013,
      "găng": 7014,
      "top": 7015,
      "udge": 7016,
      "▁nếp": 7017,
      "Khí": 7018,
      "ghê": 7019,
      "Softy": 7020,
      "Herb": 7021,
      "lịch": 7022,
      "▁Michael": 7023,
      "Becky": 7024,
      "▁Marie": 7025,
      "oh": 7026,
      "rt": 7027,
      "chảo": 7028,
      "licker": 7029,
      "mie": 7030,
      "rô": 7031,
      "▁Wh": 7032,
      "▁Roo": 7033,
      "Roger": 7034,
      "▁hẻm": 7035,
      "▁rể": 7036,
      "Fox": 7037,
      "tôm": 7038,
      "tươi": 7039,
      "Đủ": 7040,
      "nhóm": 7041,
      "▁sành": 7042,
      "Cảng": 7043,
      "Robo": 7044,
      "toàn": 7045,
      "yếu": 7046,
      "▁khoản": 7047,
      "▁Johnson": 7048,
      "▁Gary": 7049,
      "ney": 7050,
      "▁đả": 7051,
      "▁nhem": 7052,
      "▁hi": 7053,
      "Nghĩ": 7054,
      "▁Judy": 7055,
      "Dọc": 7056,
      "▁boo": 7057,
      "othy": 7058,
      "Tweetie": 7059,
      "Ấm": 7060,
      "Toán": 7061,
      "Bảng": 7062,
      "Vùng": 7063,
      "can": 7064,
      "▁Flutter": 7065,
      "Bumpy": 7066,
      "Dọn": 7067,
      "lặn": 7068,
      "nông": 7069,
      "Đồi": 7070,
      "▁chuốt": 7071,
      "Charlotte": 7072,
      "▁tụt": 7073,
      "uru": 7074,
      "▁thổn": 7075,
      "▁hat": 7076,
      "▁trọt": 7077,
      "Lạc": 7078,
      "sô": 7079,
      "nger": 7080,
      "▁quắc": 7081,
      "▁Bear": 7082,
      "Squirrel": 7083,
      "mỏ": 7084,
      "sáu": 7085,
      "Lina": 7086,
      "than": 7087,
      "▁Du": 7088,
      "đối": 7089,
      "▁ẩu": 7090,
      "nho": 7091,
      "teven": 7092,
      "Quốc": 7093,
      "man": 7094,
      "chọc": 7095,
      "thịt": 7096,
      "Abracadabra": 7097,
      "Bay": 7098,
      "Sử": 7099,
      "bản": 7100,
      "▁nhiễm": 7101,
      "▁ngòi": 7102,
      "hoy": 7103,
      "Cu": 7104,
      "ren": 7105,
      "Ớt": 7106,
      "▁Ron": 7107,
      "?!\"": 7108,
      "▁quyện": 7109,
      "▁đun": 7110,
      "▁tạt": 7111,
      "▁rọi": 7112,
      "▁Mỹ": 7113,
      "lyn": 7114,
      "▁Ar": 7115,
      "urry": 7116,
      ",\n": 7117,
      "Rạp": 7118,
      "scar": 7119,
      "Lỗ": 7120,
      "Len": 7121,
      "atty": 7122,
      "Sofia": 7123,
      "Tắt": 7124,
      "nam": 7125,
      "ison": 7126,
      "▁William": 7127,
      "Mila": 7128,
      "Ahoy": 7129,
      "Bước": 7130,
      "Nora": 7131,
      "rên": 7132,
      "▁đao": 7133,
      "▁sỹ": 7134,
      "Kevin": 7135,
      "▁Jess": 7136,
      "kẻ": 7137,
      "ẽn": 7138,
      "▁nắn": 7139,
      "chụp": 7140,
      "▁Peanut": 7141,
      "▁Fuzzy": 7142,
      "bble": 7143,
      "▁Hai": 7144,
      "anie": 7145,
      "Gióng": 7146,
      "thủy": 7147,
      "phun": 7148,
      "▁khè": 7149,
      "dâu": 7150,
      "▁quăn": 7151,
      "▁Pr": 7152,
      "▁Copper": 7153,
      "ound": 7154,
      "cướp": 7155,
      "Nhóc": 7156,
      "Janey": 7157,
      "pera": 7158,
      "rger": 7159,
      "▁lả": 7160,
      "▁buôn": 7161,
      "Moon": 7162,
      "Mô": 7163,
      "Đẩy": 7164,
      "điên": 7165,
      "▁triệu": 7166,
      "▁phả": 7167,
      "Eric": 7168,
      "suỵt": 7169,
      "atrick": 7170,
      "sắc": 7171,
      "sắp": 7172,
      "xô": 7173,
      "▁ngần": 7174,
      "Sếu": 7175,
      "bẻ": 7176,
      "muối": 7177,
      "sứa": 7178,
      "ust": 7179,
      "Sc": 7180,
      "▁burger": 7181,
      "Thảo": 7182,
      "ite": 7183,
      "bur": 7184,
      "mời": 7185,
      "▁Chăm": 7186,
      "ilver": 7187,
      "ki": 7188,
      "thảm": 7189,
      "Ví": 7190,
      "tom": 7191,
      "▁chót": 7192,
      "▁tuốc": 7193,
      "Joan": 7194,
      "Amber": 7195,
      "Elsie": 7196,
      "▁Elsa": 7197,
      "▁sh": 7198,
      "Sasha": 7199,
      "Fuzzy": 7200,
      "nif": 7201,
      "uce": 7202,
      "▁Samantha": 7203,
      "Gracie": 7204,
      "đại": 7205,
      "▁Thiên": 7206,
      "▁Trắng": 7207,
      "lẽ": 7208,
      "Trốn": 7209,
      "sarah": 7210,
      "▁cựa": 7211,
      "▁cacao": 7212,
      "▁zip": 7213,
      "▁kanguru": 7214,
      "wow": 7215,
      "▁niêu": 7216,
      "Ngô": 7217,
      "bám": 7218,
      "mất": 7219,
      "tích": 7220,
      "▁bo": 7221,
      "▁khàn": 7222,
      "▁đãi": 7223,
      "▁mâu": 7224,
      "▁''": 7225,
      "khẩu": 7226,
      "bế": 7227,
      "▁Bạn": 7228,
      "▁Jacky": 7229,
      "dầu": 7230,
      "len": 7231,
      "▁muốt": 7232,
      "▁Holly": 7233,
      "▁wow": 7234,
      "đinh": 7235,
      "tham": 7236,
      "Jolly": 7237,
      "tor": 7238,
      "ful": 7239,
      "▁mác": 7240,
      "kính": 7241,
      "tiền": 7242,
      "▁Sun": 7243,
      "▁Mousy": 7244,
      "Kia": 7245,
      "▁giương": 7246,
      "▁Bây": 7247,
      "eremy": 7248,
      "Phổi": 7249,
      "▁Ruff": 7250,
      "Shrink": 7251,
      "Amanda": 7252,
      "Terry": 7253,
      "▁vò": 7254,
      "under": 7255,
      "▁Nutty": 7256,
      "Rắn": 7257,
      "bỗng": 7258,
      "▁ngây": 7259,
      "▁Wisdom": 7260,
      "nifer": 7261,
      "Bingo": 7262,
      "meow": 7263,
      "Chợ": 7264,
      "thắt": 7265,
      "▁Tử": 7266,
      "Chữ": 7267,
      "▁Bug": 7268,
      "▁Rita": 7269,
      "onder": 7270,
      "▁Bally": 7271,
      "Gabby": 7272,
      "Moppy": 7273,
      "Tyler": 7274,
      "woof": 7275,
      "Lucas": 7276,
      "eath": 7277,
      "Owl": 7278,
      "▁thêu": 7279,
      "▁nhứt": 7280,
      "Gus": 7281,
      "ephant": 7282,
      "▁pepperoni": 7283,
      "▁cat": 7284,
      "▁nhọc": 7285,
      "▁Ant": 7286,
      "Xeo": 7287,
      "▁Chiếc": 7288,
      "Nhật": 7289,
      "▁Amelia": 7290,
      "Môn": 7291,
      "tặng": 7292,
      "xúc": 7293,
      "▁phắt": 7294,
      "Giao": 7295,
      "Riley": 7296,
      "ela": 7297,
      "mãi": 7298,
      "▁giùm": 7299,
      "Mây": 7300,
      "bert": 7301,
      "hống": 7302,
      "▁cút": 7303,
      "▁đàm": 7304,
      "▁trỏ": 7305,
      "Eww": 7306,
      "Rửa": 7307,
      "lời": 7308,
      "nhẫn": 7309,
      "▁sảo": 7310,
      "diều": 7311,
      "dân": 7312,
      "▁ngai": 7313,
      "▁phước": 7314,
      "Yến": 7315,
      "lon": 7316,
      "Điệu": 7317,
      "▁bá": 7318,
      "▁kí": 7319,
      "▁gòn": 7320,
      "▁giấm": 7321,
      "Chuyển": 7322,
      "▁Gill": 7323,
      "Lính": 7324,
      "Rõ": 7325,
      "Tu": 7326,
      "Ôm": 7327,
      "▁điếu": 7328,
      "nhổ": 7329,
      "▁Dina": 7330,
      "▁Gerry": 7331,
      "▁Razor": 7332,
      "fly": 7333,
      "vo": 7334,
      "▁lương": 7335,
      "▁dấn": 7336,
      "▁Wednesday": 7337,
      "Đĩa": 7338,
      "▁ghiếc": 7339,
      "▁Fiona": 7340,
      "▁Mina": 7341,
      "đoạn": 7342,
      "▁Lung": 7343,
      "Pr": 7344,
      "bow": 7345,
      "no": 7346,
      "▁Sadie": 7347,
      "Cắt": 7348,
      "họa": 7349,
      "thằn": 7350,
      "lli": 7351,
      "cau": 7352,
      "pizza": 7353,
      "▁khứa": 7354,
      "▁xè": 7355,
      "Vỗ": 7356,
      "xếp": 7357,
      "Matilda": 7358,
      "thew": 7359,
      "Hoot": 7360,
      "Wil": 7361,
      "Yawn": 7362,
      "sung": 7363,
      "▁Quacky": 7364,
      "▁rưng": 7365,
      "Tammy": 7366,
      "Rita": 7367,
      "dẻo": 7368,
      "gương": 7369,
      "Khó": 7370,
      "▁mas": 7371,
      "bốp": 7372,
      "▁Oxy": 7373,
      "quanh": 7374,
      "▁quây": 7375,
      "▁Shelly": 7376,
      "Nhỏ": 7377,
      "Còi": 7378,
      "Gào": 7379,
      "Isa": 7380,
      "ptop": 7381,
      "▁Vì": 7382,
      "▁nặc": 7383,
      "▁hù": 7384,
      "Khỉ": 7385,
      "▁laptop": 7386,
      "inda": 7387,
      "▁Todd": 7388,
      "Brian": 7389,
      "làn": 7390,
      "ru": 7391,
      "▁ngừa": 7392,
      "▁Ralph": 7393,
      "Rebecca": 7394,
      "▁tiệt": 7395,
      "▁phai": 7396,
      "▁Robbie": 7397,
      "Elsa": 7398,
      "Nấm": 7399,
      "line": 7400,
      "Đóng": 7401,
      "Ồn": 7402,
      "▁Bibi": 7403,
      "Găng": 7404,
      "Tạp": 7405,
      "Zack": 7406,
      "▁ty": 7407,
      "▁lừng": 7408,
      "▁tang": 7409,
      "▁Phi": 7410,
      "Hôn": 7411,
      "hà": 7412,
      "muỗi": 7413,
      "nĩa": 7414,
      "os": 7415,
      "đạp": 7416,
      "▁ứa": 7417,
      "nhiệt": 7418,
      "▁rỗi": 7419,
      "ues": 7420,
      "uno": 7421,
      "Tessa": 7422,
      "rúc": 7423,
      "ván": 7424,
      "đua": 7425,
      "▁ngưng": 7426,
      "treo": 7427,
      "Bìa": 7428,
      "Bert": 7429,
      "▁vú": 7430,
      "▁thạo": 7431,
      "khó": 7432,
      "▁Tốc": 7433,
      "▁Jackie": 7434,
      "▁Shadow": 7435,
      "tterfly": 7436,
      "Niềm": 7437,
      "rung": 7438,
      "ngươi": 7439,
      "▁bia": 7440,
      "Miễn": 7441,
      "▁Stan": 7442,
      "uesday": 7443,
      "Kay": 7444,
      "tắt": 7445,
      "đắng": 7446,
      "▁Bộ": 7447,
      "▁Kỉnh": 7448,
      "Bubba": 7449,
      "Dotty": 7450,
      "luật": 7451,
      "Hổ": 7452,
      "Vàng": 7453,
      "hàm": 7454,
      "vẹt": 7455,
      "nhất": 7456,
      "Nhện": 7457,
      "thoát": 7458,
      "chải": 7459,
      "eek": 7460,
      "▁Wooly": 7461,
      "Rosa": 7462,
      "'.\n-": 7463,
      "Gặp": 7464,
      "Jean": 7465,
      "dành": 7466,
      "oon": 7467,
      "▁Biggy": 7468,
      "Bess": 7469,
      "▁trìu": 7470,
      "che": 7471,
      "▁cọp": 7472,
      "▁Đền": 7473,
      "▁Gray": 7474,
      "pa": 7475,
      "ruy": 7476,
      "sóng": 7477,
      "wee": 7478,
      "▁dừa": 7479,
      "thần": 7480,
      "khoác": 7481,
      "Lái": 7482,
      "dải": 7483,
      "!\n\n": 7484,
      "Giường": 7485,
      "▁Mindy": 7486,
      "▁Mint": 7487,
      "Cici": 7488,
      "Penelope": 7489,
      "tội": 7490,
      "▁gẫu": 7491,
      "trận": 7492,
      "▁Jojo": 7493,
      "icia": 7494,
      "key": 7495,
      "Bug": 7496,
      "Đặc": 7497,
      "▁rắm": 7498,
      "Mẩu": 7499,
      "tông": 7500,
      "ott": 7501,
      "▁quyên": 7502,
      "\".\n-": 7503,
      "Kai": 7504,
      "▁bậu": 7505,
      "'.\"\n": 7506,
      "Cally": 7507,
      "▁tuôn": 7508,
      "▁quẳng": 7509,
      "▁Flora": 7510,
      "Eo": 7511,
      "Flu": 7512,
      "gậy": 7513,
      "lều": 7514,
      "đức": 7515,
      "▁mè": 7516,
      "▁mím": 7517,
      "phá": 7518,
      "▁Nancy": 7519,
      "▁Tweety": 7520,
      "ilda": 7521,
      "▁Mixy": 7522,
      "Hừm": 7523,
      "dĩ": 7524,
      "nhăn": 7525,
      "▁Dì": 7526,
      "▁Zoey": 7527,
      "▁Blinky": 7528,
      "Nốt": 7529,
      "▁tơi": 7530,
      "▁vức": 7531,
      "Nho": 7532,
      "Bobbie": 7533,
      "Grumpy": 7534,
      "gâu": 7535,
      "nếm": 7536,
      "Trực": 7537,
      "▁Zipper": 7538,
      "loài": 7539,
      "Mixie": 7540,
      "Ant": 7541,
      "▁khao": 7542,
      "▁núc": 7543,
      "▁biện": 7544,
      "inty": 7545,
      "▁Flappy": 7546,
      "Twist": 7547,
      "Đếm": 7548,
      "▁rù": 7549,
      "▁Sóc": 7550,
      "Nhận": 7551,
      "▁Bubba": 7552,
      "đà": 7553,
      "▁Whistle": 7554,
      "▁She": 7555,
      "Trần": 7556,
      "▁Kelly": 7557,
      "▁Zog": 7558,
      "bắp": 7559,
      "cờ": 7560,
      "vua": 7561,
      "ễng": 7562,
      "▁tấy": 7563,
      "▁thâm": 7564,
      "▁trụi": 7565,
      "▁khiễng": 7566,
      "Taxi": 7567,
      "Rufus": 7568,
      "Di": 7569,
      "gnet": 7570,
      "▁ương": 7571,
      "▁Quái": 7572,
      "▁lìm": 7573,
      "▁xóc": 7574,
      "▁thuê": 7575,
      "▁Riri": 7576,
      "▁Angel": 7577,
      "Vấn": 7578,
      "▁vựng": 7579,
      "▁phụng": 7580,
      "Martin": 7581,
      "▁Xương": 7582,
      "ainbow": 7583,
      "Vẽ": 7584,
      "lục": 7585,
      "▁cày": 7586,
      "Annabelle": 7587,
      "▁muôi": 7588,
      "▁Louise": 7589,
      "Dùng": 7590,
      "Vẻ": 7591,
      "mật": 7592,
      "Cứng": 7593,
      "▁lòi": 7594,
      "Quý": 7595,
      "▁Janie": 7596,
      "Gót": 7597,
      "điểm": 7598,
      "ịa": 7599,
      "▁ơ": 7600,
      "▁Loop": 7601,
      "Lưỡi": 7602,
      "tức": 7603,
      "▁đay": 7604,
      "▁rượ": 7605,
      "▁lẽn": 7606,
      "reg": 7607,
      "ico": 7608,
      "▁rượi": 7609,
      "Otto": 7610,
      "ent": 7611,
      "ere": 7612,
      "trưa": 7613,
      "▁Tam": 7614,
      "Im": 7615,
      "Lau": 7616,
      "▁mui": 7617,
      "▁nghet": 7618,
      "▁Jon": 7619,
      "▁Eliza": 7620,
      "Peggy": 7621,
      "Lối": 7622,
      "Paula": 7623,
      "lan": 7624,
      "▁đẽo": 7625,
      "▁Cro": 7626,
      "▁Kip": 7627,
      "▁Eddie": 7628,
      "xophone": 7629,
      "▁bẽn": 7630,
      "▁lự": 7631,
      "!\"\n'": 7632,
      "ray": 7633,
      "▁khập": 7634,
      "▁Bò": 7635,
      "▁Pin": 7636,
      "▁Spirit": 7637,
      "▁Linh": 7638,
      "xoắn": 7639,
      "▁Phil": 7640,
      "\n\n": 7641,
      "Ui": 7642,
      "hư": 7643,
      "sức": 7644,
      "vút": 7645,
      "▁phông": 7646,
      "▁Eva": 7647,
      "Melissa": 7648,
      "tuy": 7649,
      "▁Elle": 7650,
      "Hopper": 7651,
      "Zipper": 7652,
      "nhúng": 7653,
      "chanh": 7654,
      "▁queo": 7655,
      "giòn": 7656,
      "tỏa": 7657,
      "▁căm": 7658,
      "▁mề": 7659,
      "▁ngạnh": 7660,
      "▁ngợp": 7661,
      "▁Bố": 7662,
      "trồng": 7663,
      "▁Zack": 7664,
      "De": 7665,
      "Flappy": 7666,
      "Chip": 7667,
      "▁Bar": 7668,
      "▁Ricky": 7669,
      "oline": 7670,
      "▁Ruth": 7671,
      "quash": 7672,
      "Bật": 7673,
      "Hạnh": 7674,
      "sông": 7675,
      "seph": 7676,
      "ush": 7677,
      "ngậm": 7678,
      "chĩa": 7679,
      "eta": 7680,
      "▁Bra": 7681,
      "ight": 7682,
      "Helen": 7683,
      "Copper": 7684,
      "▁luồn": 7685,
      "▁Ga": 7686,
      "Janet": 7687,
      "Bibi": 7688,
      "báo": 7689,
      "nữa": 7690,
      "▁Chúng": 7691,
      "▁đút": 7692,
      "▁kề": 7693,
      "▁sạc": 7694,
      "▁dư": 7695,
      "omp": 7696,
      "▁địch": 7697,
      "▁Bác": 7698,
      "ord": 7699,
      "▁Moon": 7700,
      "▁Jax": 7701,
      "Wednesday": 7702,
      "vồ": 7703,
      "▁rán": 7704,
      "Thảm": 7705,
      "ircle": 7706,
      "▁Long": 7707,
      "▁Kay": 7708,
      "▁Xuân": 7709,
      "Rabbit": 7710,
      "▁Grump": 7711,
      "▁Sofia": 7712,
      "Coraline": 7713,
      "Kiên": 7714,
      "cus": 7715,
      "đâm": 7716,
      "▁nghẹn": 7717,
      "▁Gus": 7718,
      "Tippy": 7719,
      "wen": 7720,
      "▁Em": 7721,
      "▁đam": 7722,
      "▁nhác": 7723,
      "▁Terry": 7724,
      "▁Kiến": 7725,
      "▁Kevin": 7726,
      "▁saxophone": 7727,
      "Puffy": 7728,
      "hướng": 7729,
      "▁Nhà": 7730,
      "▁cuội": 7731,
      "▁rợn": 7732,
      "▁Bumpy": 7733,
      "▁Câu": 7734,
      "Cáoy": 7735,
      "▁Gilly": 7736,
      "Barry": 7737,
      "kích": 7738,
      "▁giáp": 7739,
      "▁Ta": 7740,
      "▁Joan": 7741,
      "Mick": 7742,
      "song": 7743,
      "▁xui": 7744,
      "Bạc": 7745,
      "nấm": 7746,
      "ange": 7747,
      "Bonnie": 7748,
      "ibbles": 7749,
      "moo": 7750,
      "rượu": 7751,
      "chín": 7752,
      "iana": 7753,
      "uộm": 7754,
      "Speed": 7755,
      "CH": 7756,
      "cung": 7757,
      "▁Cả": 7758,
      "▁Rufus": 7759,
      "Andrew": 7760,
      "Mệt": 7761,
      "Maisy": 7762,
      "ec": 7763,
      "▁vặc": 7764,
      "▁lồi": 7765,
      "nghỉ": 7766,
      "▁Daniel": 7767,
      "Biggy": 7768,
      "Cammy": 7769,
      "Lỡ": 7770,
      "Ộp": 7771,
      "icane": 7772,
      "Dụng": 7773,
      "Lạnh": 7774,
      "ixie": 7775,
      "▁vằng": 7776,
      "▁xy": 7777,
      "Timvà": 7778,
      "▁Ban": 7779,
      "rricane": 7780,
      "▁Sock": 7781,
      "Ken": 7782,
      "Wooly": 7783,
      "Yet": 7784,
      "dolly": 7785,
      "eidi": 7786,
      "ila": 7787,
      "uel": 7788,
      "Hi": 7789,
      "Mì": 7790,
      "Toàn": 7791,
      "ak": 7792,
      "▁giếm": 7793,
      "▁Jolly": 7794,
      "▁Fix": 7795,
      "thur": 7796,
      "Nấu": 7797,
      "Peanut": 7798,
      "Râu": 7799,
      "mạng": 7800,
      "đảo": 7801,
      "▁nẻ": 7802,
      "▁lọc": 7803,
      "Thẻ": 7804,
      "▁Tippy": 7805,
      "▁Patty": 7806,
      "ertie": 7807,
      "▁Yoga": 7808,
      "▁ớn": 7809,
      "▁khắt": 7810,
      "▁điền": 7811,
      ".\"\n\n": 7812,
      "▁Hel": 7813,
      "Mẹo": 7814,
      "ise": 7815,
      "▁Rub": 7816,
      "Toy": 7817,
      "▁Megan": 7818,
      "jama": 7819,
      "Gật": 7820,
      "cộng": 7821,
      "Đệm": 7822,
      "chán": 7823,
      "quỳ": 7824,
      "nnie": 7825,
      "trải": 7826,
      "isi": 7827,
      "▁Bess": 7828,
      "Heli": 7829,
      "cơm": 7830,
      "chuyền": 7831,
      "▁Thần": 7832,
      "nghiêm": 7833,
      "▁kẽm": 7834,
      "▁thắm": 7835,
      "▁rủa": 7836,
      "▁Thuyền": 7837,
      "Hố": 7838,
      "ngộ": 7839,
      "▁Zippy": 7840,
      "▁Vật": 7841,
      "▁Davey": 7842,
      "Avery": 7843,
      "Nutty": 7844,
      "Pep": 7845,
      "Sandra": 7846,
      "hệt": 7847,
      "máu": 7848,
      "▁Ộp": 7849,
      "▁nòng": 7850,
      "▁nghênh": 7851,
      "phep": 7852,
      "Carla": 7853,
      "▁Shar": 7854,
      "cat": 7855,
      "▁Or": 7856,
      "▁Hor": 7857,
      "Fish": 7858,
      "ibo": 7859,
      "▁Sw": 7860,
      "Suevà": 7861,
      "loud": 7862,
      "Bướm": 7863,
      "Me": 7864,
      "Mừng": 7865,
      "Ôô": 7866,
      "▁lót": 7867,
      "▁xúm": 7868,
      "onica": 7869,
      "▁dồn": 7870,
      "▁Bun": 7871,
      "▁Bingo": 7872,
      "reya": 7873,
      "▁Crab": 7874,
      "Felix": 7875,
      "Tip": 7876,
      "van": 7877,
      "▁gấm": 7878,
      "▁dượng": 7879,
      "▁CD": 7880,
      "Cổng": 7881,
      "Mona": 7882,
      "heo": 7883,
      "ile": 7884,
      "ron": 7885,
      "ngược": 7886,
      "▁nhằm": 7887,
      "Thất": 7888,
      "▁Maisy": 7889,
      "▁Har": 7890,
      "▁Herb": 7891,
      "Loop": 7892,
      "▁lẻm": 7893,
      "Hầu": 7894,
      "▁Chess": 7895,
      "▁Becky": 7896,
      "oray": 7897,
      "Flora": 7898,
      "?!": 7899,
      "Cãi": 7900,
      "Honey": 7901,
      "▁cui": 7902,
      "Nhiên": 7903,
      "Trăng": 7904,
      "▁Katy": 7905,
      "Móng": 7906,
      "bầy": 7907,
      "oy": 7908,
      "▁nhạy": 7909,
      "amin": 7910,
      "Thơm": 7911,
      "▁Faye": 7912,
      "▁Twist": 7913,
      "▁Amanda": 7914,
      "hiện": 7915,
      "này": 7916,
      "▁trọn": 7917,
      "▁sùng": 7918,
      "quảng": 7919,
      "?'\n'": 7920,
      "▁Spring": 7921,
      "ild": 7922,
      "nốt": 7923,
      "▁phăng": 7924,
      "▁Sao": 7925,
      "▁Squeak": 7926,
      "Thở": 7927,
      "▁Jonny": 7928,
      "▁tuý": 7929,
      "▁Maddy": 7930,
      "Steph": 7931,
      "Snuggles": 7932,
      "gọn": 7933,
      "nâng": 7934,
      "woo": 7935,
      "▁ồ": 7936,
      "▁click": 7937,
      "llen": 7938,
      "▁Moppy": 7939,
      "Hooray": 7940,
      "Carly": 7941,
      "Ngăn": 7942,
      "itamin": 7943,
      "thất": 7944,
      "▁Tammy": 7945,
      "▁Cici": 7946,
      "Cro": 7947,
      "▁cháo": 7948,
      "▁trề": 7949,
      "Arrr": 7950,
      "cco": 7951,
      "io": 7952,
      "mực": 7953,
      "▁đế": 7954,
      "▁sam": 7955,
      "ind": 7956,
      "Thưởng": 7957,
      "▁thuần": 7958,
      "giao": 7959,
      "iss": 7960,
      "▁Brian": 7961,
      "▁tuýp": 7962,
      "▁trơ": 7963,
      "▁Slow": 7964,
      "inch": 7965,
      "Gilly": 7966,
      "Catch": 7967,
      "▁Lil": 7968,
      "▁Maddie": 7969,
      "▁Buster": 7970,
      "▁Ong": 7971,
      "▁boong": 7972,
      "Slinky": 7973,
      "▁Olivia": 7974,
      "▁mít": 7975,
      "chảy": 7976,
      "Cất": 7977,
      "ẻng": 7978,
      "ngô": 7979,
      "▁vấy": 7980,
      "Chống": 7981,
      "Lil": 7982,
      "Khán": 7983,
      ".'\n'": 7984,
      "Mỳ": 7985,
      "Wee": 7986,
      "hnnie": 7987,
      "oại": 7988,
      "▁kít": 7989,
      "Spidey": 7990,
      "Shoo": 7991,
      "▁Crabby": 7992,
      "ngoại": 7993,
      "▁Jason": 7994,
      "Cừu": 7995,
      "Coby": 7996,
      "Súng": 7997,
      "lúa": 7998,
      "chiếu": 7999,
      "uie": 8000,
      "Liam": 8001,
      "Jody": 8002,
      "ryst": 8003,
      "lea": 8004,
      "phù": 8005,
      "elsey": 8006,
      "Bị": 8007,
      "Nằm": 8008,
      "Sm": 8009,
      "sla": 8010,
      "▁níu": 8011,
      "▁vitamin": 8012,
      "Khiến": 8013,
      "thuốc": 8014,
      "giun": 8015,
      "ddles": 8016,
      "rystal": 8017,
      "Ly": 8018,
      "bệnh": 8019,
      "rẽ": 8020,
      "▁bar": 8021,
      "▁cheo": 8022,
      "Chuẩn": 8023,
      "Thằn": 8024,
      "San": 8025,
      "Vườn": 8026,
      "lọ": 8027,
      "sờ": 8028,
      "▁Lina": 8029,
      "kiếm": 8030,
      "▁nít": 8031,
      "▁lựng": 8032,
      "▁trương": 8033,
      "onk": 8034,
      "▁Tuệ": 8035,
      "Gạo": 8036,
      "Tôn": 8037,
      "ier": 8038,
      "pple": 8039,
      "rời": 8040,
      "uppy": 8041,
      "wisty": 8042,
      "eather": 8043,
      "▁ưng": 8044,
      "▁loi": 8045,
      "▁láp": 8046,
      "isa": 8047,
      "Hor": 8048,
      "rock": 8049,
      "▁Ravi": 8050,
      "Khoáng": 8051,
      "Amen": 8052,
      "▁Dotty": 8053,
      "Gỗ": 8054,
      "Gọi": 8055,
      "Kang": 8056,
      "duyên": 8057,
      "nồi": 8058,
      "▁Hops": 8059,
      "Liza": 8060,
      "Bells": 8061,
      "Berry": 8062,
      "Kìa": 8063,
      "hằng": 8064,
      "ody": 8065,
      "▁mốc": 8066,
      "ett": 8067,
      "each": 8068,
      "▁Trucky": 8069,
      "▁Softy": 8070,
      "fy": 8071,
      "may": 8072,
      "nổ": 8073,
      "▁nạnh": 8074,
      "ime": 8075,
      "giăm": 8076,
      "▁Pep": 8077,
      "Ký": 8078,
      "cám": 8079,
      "▁kẽo": 8080,
      "tick": 8081,
      "baa": 8082,
      "\"!": 8083,
      "Cr": 8084,
      "chồng": 8085,
      "thơm": 8086,
      "▁Cari": 8087,
      "Pop": 8088,
      "pin": 8089,
      "▁Yummy": 8090,
      "▁kiệu": 8091,
      "▁kịt": 8092,
      "▁tròng": 8093,
      "chết": 8094,
      "▁thoạt": 8095,
      "icy": 8096,
      "eel": 8097,
      "▁Truth": 8098,
      "Don": 8099,
      "▁Đột": 8100,
      "▁lăm": 8101,
      "▁Sal": 8102,
      "khổng": 8103,
      "Ashley": 8104,
      "Rác": 8105,
      "Zog": 8106,
      "lật": 8107,
      "▁lọn": 8108,
      "ylan": 8109,
      "Flopsy": 8110,
      "Vách": 8111,
      "cạch": 8112,
      "dụi": 8113,
      "gie": 8114,
      "hh": 8115,
      "rải": 8116,
      "Đà": 8117,
      "▁úa": 8118,
      "▁vàn": 8119,
      "▁xới": 8120,
      "khắp": 8121,
      "olph": 8122,
      "▁Vicky": 8123,
      "▁Mae": 8124,
      "▁Frankie": 8125,
      "Nắp": 8126,
      "Waffle": 8127,
      "pound": 8128,
      "Ảnh": 8129,
      "▁nợ": 8130,
      "▁lẩm": 8131,
      "▁dàn": 8132,
      "ene": 8133,
      "▁Berry": 8134,
      "Freddie": 8135,
      "okey": 8136,
      "April": 8137,
      "ear": 8138,
      "▁a": 8139,
      "nhe": 8140,
      "nhút": 8141,
      "quet": 8142,
      "Ngũ": 8143,
      "▁Eric": 8144,
      "Bar": 8145,
      "beth": 8146,
      "bóp": 8147,
      "lôi": 8148,
      "▁ten": 8149,
      "▁chắp": 8150,
      "Chụp": 8151,
      "▁Felix": 8152,
      "▁Wolf": 8153,
      "▁huynh": 8154,
      "▁xẻo": 8155,
      "ika": 8156,
      "udrey": 8157,
      "▁Snowman": 8158,
      "Mua": 8159,
      "bảy": 8160,
      "fari": 8161,
      "rút": 8162,
      "ấng": 8163,
      "▁um": 8164,
      "▁tour": 8165,
      "▁''\n": 8166,
      "trực": 8167,
      "▁phiu": 8168,
      "She": 8169,
      "fie": 8170,
      "▁trăn": 8171,
      "▁Siêu": 8172,
      "pop": 8173,
      "xịt": 8174,
      "▁Quốc": 8175,
      "any": 8176,
      "▁Trung": 8177,
      "Kenny": 8178,
      "ga": 8179,
      "▁miệt": 8180,
      "arles": 8181,
      "ernie": 8182,
      "ydia": 8183,
      "Flutter": 8184,
      "Hank": 8185,
      "Micro": 8186,
      "▁ninh": 8187,
      "▁mưu": 8188,
      "▁ngáng": 8189,
      ".\n)": 8190,
      "▁dứa": 8191,
      "orn": 8192,
      "Fran": 8193,
      "Gâu": 8194,
      "hắt": 8195,
      "rễ": 8196,
      "Nhịp": 8197,
      "▁Jean": 8198,
      "▁Flick": 8199,
      "Belle": 8200,
      "▁Charlotte": 8201,
      "ood": 8202,
      "ball": 8203,
      "▁Baa": 8204,
      "Tweety": 8205,
      "▁Floppy": 8206,
      "Bờ": 8207,
      "Nate": 8208,
      "Joanna": 8209,
      "▁Tyler": 8210,
      "▁Woolly": 8211,
      "Jennie": 8212,
      "▁hoác": 8213,
      "▁ghì": 8214,
      "▁Barry": 8215,
      "Buster": 8216,
      "oah": 8217,
      "Na": 8218,
      "cột": 8219,
      "▁tiềm": 8220,
      "▁nhằn": 8221,
      "▁xót": 8222,
      "▁Bla": 8223,
      "phía": 8224,
      "Phô": 8225,
      "Opera": 8226,
      "môi": 8227,
      "▁nghẹt": 8228,
      "▁soạng": 8229,
      "▁Speed": 8230,
      "khoá": 8231,
      "▁Hopper": 8232,
      "Jonathan": 8233,
      "Dilly": 8234,
      "Jumpy": 8235,
      "Xấu": 8236,
      "rp": 8237,
      "rậm": 8238,
      "vin": 8239,
      "▁dằn": 8240,
      "erse": 8241,
      "▁Thông": 8242,
      "▁Tree": 8243,
      "Leah": 8244,
      "OO": 8245,
      "Randy": 8246,
      "Van": 8247,
      "iver": 8248,
      "tám": 8249,
      "ngáp": 8250,
      "▁tã": 8251,
      "▁bảnh": 8252,
      "▁gáy": 8253,
      "▁sùi": 8254,
      "obby": 8255,
      "khẽ": 8256,
      "JoJo": 8257,
      "nake": 8258,
      "rise": 8259,
      "▁Andrew": 8260,
      "▁Crane": 8261,
      "▁mask": 8262,
      "▁húp": 8263,
      "Bea": 8264,
      "▁King": 8265,
      "orky": 8266,
      "xong": 8267,
      "xer": 8268,
      "giậm": 8269,
      "Cấu": 8270,
      "lơ": 8271,
      "tăng": 8272,
      "đáp": 8273,
      "▁luốc": 8274,
      "aith": 8275,
      "Jasmine": 8276,
      "Hurry": 8277,
      "OP": 8278,
      "Tiểu": 8279,
      "Woo": 8280,
      "tế": 8281,
      "xỏ": 8282,
      "▁tấp": 8283,
      "▁lụa": 8284,
      "▁thẫm": 8285,
      "quạt": 8286,
      "▁cáng": 8287,
      "Flicker": 8288,
      "lao": 8289,
      "lưỡi": 8290,
      "▁Khoai": 8291,
      "▁chùng": 8292,
      "▁thiếc": 8293,
      "▁khan": 8294,
      "Ball": 8295,
      "bella": 8296,
      "Alan": 8297,
      "lạc": 8298,
      "ých": 8299,
      "▁nịch": 8300,
      "▁nhuộm": 8301,
      "▁rèn": 8302,
      "ailey": 8303,
      "▁khoet": 8304,
      "trừ": 8305,
      "▁Tessa": 8306,
      "▁Pháp": 8307,
      "▁Elephant": 8308,
      "Ghi": 8309,
      "▁Fluff": 8310,
      "jamin": 8311,
      "Brad": 8312,
      "Jeremy": 8313,
      "dậy": 8314,
      "lip": 8315,
      "▁ợ": 8316,
      "▁chướng": 8317,
      "▁hạng": 8318,
      "Chao": 8319,
      "eace": 8320,
      "▁Nhật": 8321,
      "ghen": 8322,
      "Fishy": 8323,
      "Tiến": 8324,
      "str": 8325,
      "Đạp": 8326,
      "▁Flap": 8327,
      "\"\n-": 8328,
      "▁Doug": 8329,
      "ngoan": 8330,
      "Hiện": 8331,
      "Quà": 8332,
      "▁Rebecca": 8333,
      "...\n\"": 8334,
      "Mong": 8335,
      "buông": 8336,
      "urr": 8337,
      "▁sần": 8338,
      "▁Cà": 8339,
      "▁Lia": 8340,
      "▁Greeny": 8341,
      "▁Sasha": 8342,
      "▁Helen": 8343,
      "Oscar": 8344,
      "mai": 8345,
      "rẻ": 8346,
      "▁nộ": 8347,
      "▁Janey": 8348,
      "ork": 8349,
      "oris": 8350,
      "rprise": 8351,
      "gót": 8352,
      "nhầy": 8353,
      "▁huyết": 8354,
      "chữ": 8355,
      "chuyển": 8356,
      "lee": 8357,
      "▁Thứ": 8358,
      "Rub": 8359,
      "▁Elsie": 8360,
      "phân": 8361,
      "▁Otto": 8362,
      "▁Mole": 8363,
      "ellow": 8364,
      "Doug": 8365,
      "▁Violet": 8366,
      "Bá": 8367,
      "Bát": 8368,
      "ou": 8369,
      "▁tân": 8370,
      "▁hằn": 8371,
      "▁quẫy": 8372,
      "trầm": 8373,
      "▁Isa": 8374,
      "apa": 8375,
      "Jet": 8376,
      "Đức": 8377,
      "▁bặt": 8378,
      "▁nhi": 8379,
      "▁kênh": 8380,
      "▁phới": 8381,
      "▁Hy": 8382,
      "Spinny": 8383,
      "Sw": 8384,
      "Steven": 8385,
      "▁mõm": 8386,
      "▁ngoáy": 8387,
      "trà": 8388,
      "gic": 8389,
      "nado": 8390,
      "▁oải": 8391,
      "Bối": 8392,
      "Lạy": 8393,
      "Oink": 8394,
      "ld": 8395,
      "▁ếm": 8396,
      "▁Silver": 8397,
      "▁huých": 8398,
      "Video": 8399,
      "▁Vivi": 8400,
      "Stanley": 8401,
      "Faye": 8402,
      "Icy": 8403,
      "Rick": 8404,
      "hùng": 8405,
      "rot": 8406,
      "▁Xe": 8407,
      "▁dỗi": 8408,
      "Marley": 8409,
      "▁Spidey": 8410,
      "quyển": 8411,
      "▁White": 8412,
      "Ned": 8413,
      "Vuốt": 8414,
      "ssa": 8415,
      "▁ngoạn": 8416,
      "▁bốp": 8417,
      "itty": 8418,
      "▁Magnet": 8419,
      "▁hamster": 8420,
      "mập": 8421,
      "▁Ngôi": 8422,
      "▁Slinky": 8423,
      "!\"\n\n": 8424,
      "Josie": 8425,
      "▁Tip": 8426,
      "▁Uni": 8427,
      "cúc": 8428,
      "đồi": 8429,
      "▁chọi": 8430,
      "▁ngủi": 8431,
      "▁Rainbow": 8432,
      "elle": 8433,
      "tốc": 8434,
      "wi": 8435,
      "▁lảo": 8436,
      "Trải": 8437,
      "garet": 8438,
      "▁nep": 8439,
      "▁mạn": 8440,
      "▁hèn": 8441,
      "▁kê": 8442,
      "Ernie": 8443,
      "Cao": 8444,
      "hữu": 8445,
      "rõ": 8446,
      "▁ngục": 8447,
      "Surprise": 8448,
      "▁Melissa": 8449,
      "Riri": 8450,
      "vội": 8451,
      "▁khảnh": 8452,
      "chuồng": 8453,
      "▁Judge": 8454,
      "Gill": 8455,
      "▁bím": 8456,
      "▁Ti": 8457,
      "▁Robin": 8458,
      "udding": 8459,
      "Kiểm": 8460,
      "cãi": 8461,
      "▁đắc": 8462,
      "Thình": 8463,
      "trăng": 8464,
      "▁Wonder": 8465,
      "Jennifer": 8466,
      "▁Na": 8467,
      "▁Amber": 8468,
      "Patrick": 8469,
      "Tội": 8470,
      "dang": 8471,
      "má": 8472,
      "poke": 8473,
      "tiên": 8474,
      "ẵng": 8475,
      "▁ụp": 8476,
      "▁Cáu": 8477,
      "Robin": 8478,
      "astel": 8479,
      "▁Yawn": 8480,
      "Kathy": 8481,
      "guitar": 8482,
      "nổi": 8483,
      "rống": 8484,
      "xẻng": 8485,
      "▁nô": 8486,
      "▁giũa": 8487,
      "▁Lea": 8488,
      "raff": 8489,
      "est": 8490,
      "stin": 8491,
      "iggles": 8492,
      "▁Nha": 8493,
      "Carrie": 8494,
      "Pinchy": 8495,
      "Bực": 8496,
      "vie": 8497,
      "Đeo": 8498,
      "▁thít": 8499,
      "thẩm": 8500,
      "▁Tuesday": 8501,
      "▁Honey": 8502,
      "Roxy": 8503,
      "Năng": 8504,
      "Uh": 8505,
      "ngọ": 8506,
      "▁nấng": 8507,
      "▁bấy": 8508,
      "▁Tess": 8509,
      "▁Roger": 8510,
      "▁Po": 8511,
      "salad": 8512,
      "vey": 8513,
      "Gemma": 8514,
      "Lấp": 8515,
      "Squeak": 8516,
      "biểu": 8517,
      "cụ": 8518,
      "▁),": 8519,
      "uis": 8520,
      "Nhẹ": 8521,
      "Nháy": 8522,
      "▁Bonnie": 8523,
      "▁Tay": 8524,
      "Inky": 8525,
      "cối": 8526,
      "dolph": 8527,
      "▁Kính": 8528,
      "eline": 8529,
      "▁Clay": 8530,
      "Sparkle": 8531,
      "Tidy": 8532,
      "BC": 8533,
      "Jump": 8534,
      "ler": 8535,
      "nướng": 8536,
      "▁Buồn": 8537,
      "▁Pastry": 8538,
      "hoang": 8539,
      "▁Bubu": 8540,
      "▁Duke": 8541,
      "Muỗi": 8542,
      "▁đần": 8543,
      "nhãn": 8544,
      "▁ngàn": 8545,
      "▁pudding": 8546,
      "▁Micro": 8547,
      "dward": 8548,
      "Clare": 8549,
      "▁Nora": 8550,
      "Ami": 8551,
      "Cam": 8552,
      "Túp": 8553,
      "bee": 8554,
      "nis": 8555,
      "siết": 8556,
      "Đổi": 8557,
      "▁hớp": 8558,
      "▁khai": 8559,
      "chìm": 8560,
      "▁ABC": 8561,
      "oldie": 8562,
      "▁tiễn": 8563,
      "Nghỉ": 8564,
      "Tháng": 8565,
      "Ginger": 8566,
      "Breezy": 8567,
      "everse": 8568,
      "▁Match": 8569,
      "Allie": 8570,
      "Le": 8571,
      "kèn": 8572,
      "nắng": 8573,
      "tệ": 8574,
      "▁mâm": 8575,
      "▁bời": 8576,
      "▁nhòe": 8577,
      "▁Jumpy": 8578,
      "▁Penelope": 8579,
      "▁Chớp": 8580,
      "▁Ashley": 8581,
      "Bun": 8582,
      "Heidi": 8583,
      "Nelly": 8584,
      "Xa": 8585,
      "cân": 8586,
      "ka": 8587,
      "▁mau": 8588,
      "▁Mon": 8589,
      "▁Puffy": 8590,
      "▁Puff": 8591,
      "▁Chip": 8592,
      "Chịu": 8593,
      "▁Glow": 8594,
      "▁Gracie": 8595,
      "▁Inky": 8596,
      "trơn": 8597,
      "ornado": 8598,
      "Soar": 8599,
      "▁catch": 8600,
      "Kyle": 8601,
      "bìa": 8602,
      "kin": 8603,
      "lốp": 8604,
      "Ravi": 8605,
      "▁Raven": 8606,
      "Ding": 8607,
      "Sớm": 8608,
      "TH": 8609,
      "eggie": 8610,
      "kiêu": 8611,
      "▁hờn": 8612,
      "▁gộc": 8613,
      "uit": 8614,
      "Joseph": 8615,
      "▁Cally": 8616,
      "hoạ": 8617,
      "▁Kai": 8618,
      "▁Flopsy": 8619,
      "Mâu": 8620,
      "Wis": 8621,
      "▁ị": 8622,
      "▁nới": 8623,
      "▁py": 8624,
      "▁dinh": 8625,
      "▁mòi": 8626,
      "▁Rara": 8627,
      "▁soda": 8628,
      "Nghịch": 8629,
      "Violet": 8630,
      "cto": 8631,
      "▁cạch": 8632,
      "Chóng": 8633,
      ".\"-": 8634,
      "▁Freddie": 8635,
      "Bruce": 8636,
      "hiền": 8637,
      "chui": 8638,
      "▁phỏng": 8639,
      "▁dạt": 8640,
      "Chuối": 8641,
      "Graceful": 8642,
      "Khoá": 8643,
      "riet": 8644,
      "▁Peggy": 8645,
      "?!\"\n": 8646,
      "Colin": 8647,
      "Tởm": 8648,
      "iwi": 8649,
      "mắng": 8650,
      "▁thút": 8651,
      "▁ngớt": 8652,
      "▁quầng": 8653,
      "thấp": 8654,
      "▁Mũi": 8655,
      "▁jean": 8656,
      "Shar": 8657,
      "Huấn": 8658,
      "Pebby": 8659,
      "Nicky": 8660,
      "cài": 8661,
      "eb": 8662,
      "vững": 8663,
      "▁gâu": 8664,
      "Maxvà": 8665,
      "Gwen": 8666,
      "băn": 8667,
      "tỏ": 8668,
      "▁Quả": 8669,
      "nhấp": 8670,
      "▁pyjama": 8671,
      "Reddy": 8672,
      "Winky": 8673,
      "▁sững": 8674,
      "▁lềnh": 8675,
      "Maisie": 8676,
      "Tob": 8677,
      "lưới": 8678,
      "ơng": 8679,
      "▁cùi": 8680,
      "▁yum": 8681,
      "Giành": 8682,
      "▁Tên": 8683,
      "▁safari": 8684,
      "▁kềnh": 8685,
      "Rống": 8686,
      "Sun": 8687,
      "gỗ": 8688,
      "▁òng": 8689,
      "▁ọc": 8690,
      "▁đìa": 8691,
      "▁lết": 8692,
      "▁thào": 8693,
      "▁đương": 8694,
      "▁Set": 8695,
      "▁ngoạm": 8696,
      "ercy": 8697,
      "▁Annabelle": 8698,
      "Rusty": 8699,
      "Cởi": 8700,
      "Minnie": 8701,
      "gập": 8702,
      "lướt": 8703,
      "▁guốc": 8704,
      "▁phịch": 8705,
      "thiết": 8706,
      "▁Liza": 8707,
      "Didi": 8708,
      "Mang": 8709,
      "ỉn": 8710,
      "nguyên": 8711,
      "▁vóc": 8712,
      "▁thớt": 8713,
      "▁hân": 8714,
      "▁Mắt": 8715,
      "giặt": 8716,
      "nya": 8717,
      "▁Starry": 8718,
      "▁Carla": 8719,
      "Hơn": 8720,
      "Nổ": 8721,
      "POP": 8722,
      "kế": 8723,
      "đề": 8724,
      "▁Cái": 8725,
      "▁cu": 8726,
      "▁met": 8727,
      "▁bú": 8728,
      "▁trặc": 8729,
      "Trọng": 8730,
      "xỉn": 8731,
      "▁đơ": 8732,
      "▁ngoằng": 8733,
      "Johnnie": 8734,
      "▁Rồng": 8735,
      "▁Joke": 8736,
      "▁doanh": 8737,
      "Bubu": 8738,
      "Carol": 8739,
      "Billie": 8740,
      "Pick": 8741,
      "▁bưng": 8742,
      "▁hẻo": 8743,
      "end": 8744,
      "▁Cloud": 8745,
      "▁Shark": 8746,
      "▁Khổng": 8747,
      "'!\"": 8748,
      "Hey": 8749,
      "Mải": 8750,
      "dao": 8751,
      "lượn": 8752,
      "rót": 8753,
      "▁squash": 8754,
      "▁Hành": 8755,
      "▁Hug": 8756,
      "▁tùm": 8757,
      "Starry": 8758,
      "▁Socky": 8759,
      "No": 8760,
      "Vai": 8761,
      "lùi": 8762,
      "chứa": 8763,
      "anger": 8764,
      "?'.\n-": 8765,
      "▁Kyle": 8766,
      "▁Waffle": 8767,
      "▁Thunder": 8768,
      "Shadow": 8769,
      "ễnh": 8770,
      "▁Bark": 8771,
      "▁Dick": 8772,
      "▁Liam": 8773,
      "▁Ginger": 8774,
      "Match": 8775,
      "▁Orange": 8776,
      "Kara": 8777,
      "gửi": 8778,
      "rừng": 8779,
      "Ấn": 8780,
      "▁lùm": 8781,
      "▁trạc": 8782,
      "ggo": 8783,
      "Spirit": 8784,
      "itter": 8785,
      "ighty": 8786,
      "Xích": 8787,
      "xác": 8788,
      "▁trổ": 8789,
      "Chồng": 8790,
      "▁yucky": 8791,
      "▁loãng": 8792,
      "▁Tôm": 8793,
      "▁DV": 8794,
      "Whisker": 8795,
      "ichelle": 8796,
      "Ble": 8797,
      "Mơ": 8798,
      "bảng": 8799,
      "vuông": 8800,
      "▁rình": 8801,
      "▁rốn": 8802,
      "▁nọc": 8803,
      "Caroline": 8804,
      "▁DVD": 8805,
      "Diều": 8806,
      "Flap": 8807,
      "let": 8808,
      "nắp": 8809,
      "sừng": 8810,
      "▁ngỏ": 8811,
      "▁Báo": 8812,
      "Giả": 8813,
      "▁Matilda": 8814,
      "▁Truck": 8815,
      "Fizzy": 8816,
      "Kelsey": 8817,
      "▁đăm": 8818,
      "▁Leah": 8819,
      "▁Bruno": 8820,
      "▁Bellavà": 8821,
      "William": 8822,
      "▁Khỉ": 8823,
      "Greg": 8824,
      "Mời": 8825,
      "dĩa": 8826,
      "ku": 8827,
      "tus": 8828,
      "tlyn": 8829,
      "ẾT": 8830,
      "▁Những": 8831,
      "▁rưỡi": 8832,
      "▁dolly": 8833,
      "▁Str": 8834,
      "▁Winky": 8835,
      "▁môtô": 8836,
      "Willie": 8837,
      "strich": 8838,
      "Mẫu": 8839,
      "hiếm": 8840,
      "kg": 8841,
      "đấu": 8842,
      "▁ó": 8843,
      "▁ân": 8844,
      "Timothy": 8845,
      "▁Tur": 8846,
      "Bessy": 8847,
      "Jimbo": 8848,
      "▁Cut": 8849,
      "Blech": 8850,
      "Bán": 8851,
      "br": 8852,
      "dụng": 8853,
      "tết": 8854,
      "▁Luc": 8855,
      "▁cẳng": 8856,
      "▁Mick": 8857,
      "exi": 8858,
      "Spin": 8859,
      "khoanh": 8860,
      "Sal": 8861,
      "cắm": 8862,
      "▁Ngọn": 8863,
      "▁bần": 8864,
      "The": 8865,
      "▁Heo": 8866,
      "▁tụm": 8867,
      "Cạnh": 8868,
      "Jes": 8869,
      "dự": 8870,
      "lỗ": 8871,
      "sếu": 8872,
      "▁tễnh": 8873,
      "▁ngưởng": 8874,
      "▁dà": 8875,
      "▁Flicker": 8876,
      "Jodie": 8877,
      "hee": 8878,
      "▁Belle": 8879,
      "pha": 8880,
      "nghịch": 8881,
      "Sông": 8882,
      "▁nhồm": 8883,
      "▁si": 8884,
      "chặt": 8885,
      "chợp": 8886,
      "Chuck": 8887,
      "▁choi": 8888,
      "▁xuýt": 8889,
      "▁Jody": 8890,
      "▁Com": 8891,
      "Hoà": 8892,
      "▁nhoàm": 8893,
      "Rory": 8894,
      "▁Sharp": 8895,
      "bọt": 8896,
      "gói": 8897,
      "muộn": 8898,
      "nào": 8899,
      "đùa": 8900,
      "▁Cell": 8901,
      "▁April": 8902,
      "▁Bruce": 8903,
      "▁Spaghetti": 8904,
      "Raven": 8905,
      "Bubble": 8906,
      "Lạ": 8907,
      "imba": 8908,
      "thỏi": 8909,
      "ippo": 8910,
      "▁Rosa": 8911,
      "iko": 8912,
      "Mousy": 8913,
      "▁Steph": 8914,
      "Matty": 8915,
      "Matthew": 8916,
      "Angel": 8917,
      "den": 8918,
      "dấu": 8919,
      "hang": 8920,
      "▁cọt": 8921,
      "▁thong": 8922,
      "nhet": 8923,
      "▁xông": 8924,
      "chie": 8925,
      "Tranh": 8926,
      "▁Chick": 8927,
      "phết": 8928,
      "edro": 8929,
      "▁freddy": 8930,
      "▁Pebby": 8931,
      "Arthur": 8932,
      "▁Lacey": 8933,
      "Noah": 8934,
      "Rara": 8935,
      "ôô": 8936,
      "▁rêu": 8937,
      "▁Bone": 8938,
      "phong": 8939,
      "▁Lion": 8940,
      "Aaa": 8941,
      "Dora": 8942,
      "ẵm": 8943,
      "▁ấu": 8944,
      "▁Bobbie": 8945,
      "trao": 8946,
      "eal": 8947,
      "corn": 8948,
      "dong": 8949,
      "ghet": 8950,
      "nhàm": 8951,
      "khung": 8952,
      "ooke": 8953,
      "▁Ne": 8954,
      "ass": 8955,
      "Wisdom": 8956,
      "Mòng": 8957,
      "Mỉm": 8958,
      "Rắc": 8959,
      "bỏng": 8960,
      "gen": 8961,
      "chèo": 8962,
      "Ngắm": 8963,
      "▁Bert": 8964,
      "tiểu": 8965,
      "Đua": 8966,
      "▁ù": 8967,
      "▁nưa": 8968,
      "▁rãnh": 8969,
      "Lion": 8970,
      "▁chíp": 8971,
      "▁Bea": 8972,
      "▁Ken": 8973,
      "Zoomie": 8974,
      "▁Rusty": 8975,
      "▁Martin": 8976,
      "actus": 8977,
      "▁Jasmine": 8978,
      "▁Shell": 8979,
      "Heo": 8980,
      "Ratty": 8981,
      "Sta": 8982,
      "bờm": 8983,
      "fred": 8984,
      "Đinh": 8985,
      "▁Mọi": 8986,
      "▁nao": 8987,
      "▁vôi": 8988,
      "▁bang": 8989,
      "trần": 8990,
      "▁Patrick": 8991,
      "▁Colin": 8992,
      "rag": 8993,
      "Crab": 8994,
      "burger": 8995,
      "Joanne": 8996,
      "Lưng": 8997,
      "Rô": 8998,
      "gu": 8999,
      "ghe": 9000,
      "Chộp": 9001,
      "Libby": 9002,
      "▁Sâm": 9003,
      "Nhựa": 9004,
      "▁',": 9005,
      "Thunder": 9006,
      "▁Jump": 9007,
      "!'\"": 9008,
      "▁nhoài": 9009,
      "Vanish": 9010,
      "Bla": 9011,
      "Sáu": 9012,
      "Ve": 9013,
      "ểnh": 9014,
      "▁nấc": 9015,
      "▁phắc": 9016,
      "armer": 9017,
      "▁thuồng": 9018,
      "Quác": 9019,
      "▁Mai": 9020,
      "▁Rịa": 9021,
      "▁dùm": 9022,
      "phẳng": 9023,
      "▁Nibbles": 9024,
      "orm": 9025,
      "▁Fran": 9026,
      "▁Hook": 9027,
      "ield": 9028,
      "Xoá": 9029,
      "Help": 9030,
      "siêu": 9031,
      "zi": 9032,
      "Đom": 9033,
      "▁Lucas": 9034,
      "lexi": 9035,
      "Phân": 9036,
      "▁Jennie": 9037,
      "iger": 9038,
      "▁Janet": 9039,
      "▁Pinchy": 9040,
      "Dylan": 9041,
      "Giếng": 9042,
      "Ronny": 9043,
      "Reverse": 9044,
      "lặng": 9045,
      "▁khum": 9046,
      "▁baa": 9047,
      "Whoa": 9048,
      "▁Oscar": 9049,
      "Xù": 9050,
      "cưỡi": 9051,
      "▁ẵm": 9052,
      "▁hit": 9053,
      "▁Sisi": 9054,
      "▁loạt": 9055,
      "khát": 9056,
      "▁Mona": 9057,
      "▁Clu": 9058,
      "Susy": 9059,
      "alter": 9060,
      "eneva": 9061,
      "ví": 9062,
      "vani": 9063,
      "ÙM": 9064,
      "đông": 9065,
      "▁ưu": 9066,
      "▁ngơ": 9067,
      "▁rỏi": 9068,
      "▁sụa": 9069,
      "Chứng": 9070,
      "ini": 9071,
      "'\n-": 9072,
      "▁De": 9073,
      "Hoàn": 9074,
      "▁Apple": 9075,
      "▁Bebe": 9076,
      "Circle": 9077,
      "Hái": 9078,
      "caw": 9079,
      "du": 9080,
      "sớm": 9081,
      "▁bích": 9082,
      "▁dãi": 9083,
      "▁ngoi": 9084,
      "khách": 9085,
      "▁Riley": 9086,
      "▁Coby": 9087,
      "age": 9088,
      "Rosy": 9089,
      "Duke": 9090,
      "▁Ngoại": 9091,
      "Dành": 9092,
      "Tâm": 9093,
      "iff": 9094,
      "nor": 9095,
      "ềng": 9096,
      "▁ầng": 9097,
      "▁nán": 9098,
      "uisa": 9099,
      "Tro": 9100,
      "▁khóm": 9101,
      "ooh": 9102,
      "rabb": 9103,
      "hoosh": 9104,
      "rabbers": 9105,
      "Piggy": 9106,
      "Vẹt": 9107,
      "ký": 9108,
      "lát": 9109,
      "lie": 9110,
      "▁Giờ": 9111,
      "▁vạn": 9112,
      "▁chồm": 9113,
      "▁kiwi": 9114,
      "▁Sói": 9115,
      "oing": 9116,
      "▁Tiến": 9117,
      "▁Diễm": 9118,
      "▁Rumble": 9119,
      "▁dụm": 9120,
      "▁show": 9121,
      "CU": 9122,
      "bập": 9123,
      "▁Gió": 9124,
      "▁lõi": 9125,
      "▁xít": 9126,
      "immy": 9127,
      "Cháy": 9128,
      "Chán": 9129,
      "▁vịnh": 9130,
      "▁Joanna": 9131,
      "phủi": 9132,
      "evor": 9133,
      "▁Brad": 9134,
      "Cơm": 9135,
      "Jetty": 9136,
      "Lan": 9137,
      "▁ven": 9138,
      "▁vểnh": 9139,
      "▁San": 9140,
      "thảo": 9141,
      "olon": 9142,
      "Roar": 9143,
      "ort": 9144,
      "xoăn": 9145,
      "Albert": 9146,
      "▁Alan": 9147,
      "Ahh": 9148,
      "▁Gabby": 9149,
      "Isla": 9150,
      "Rừng": 9151,
      "dish": 9152,
      "gnes": 9153,
      "vùng": 9154,
      "chiêm": 9155,
      "ome": 9156,
      "ancake": 9157,
      "giỏ": 9158,
      "Gray": 9159,
      "Floppy": 9160,
      "ragon": 9161,
      "Audrey": 9162,
      "Den": 9163,
      "mổ": 9164,
      "yay": 9165,
      "▁mốt": 9166,
      "▁phất": 9167,
      "▁Steven": 9168,
      "thạch": 9169,
      "▁Pick": 9170,
      "Kanga": 9171,
      "Lea": 9172,
      "bể": 9173,
      "linda": 9174,
      "use": 9175,
      "▁quyệt": 9176,
      "Đói": 9177,
      "khâu": 9178,
      "▁Mập": 9179,
      "▁Reddy": 9180,
      "Hal": 9181,
      "Bắn": 9182,
      "Mom": 9183,
      "Silver": 9184,
      "vấp": 9185,
      "▁)": 9186,
      "Chess": 9187,
      "▁Jeep": 9188,
      "▁tulip": 9189,
      "▁Pine": 9190,
      "▁Love": 9191,
      "uscle": 9192,
      "sáo": 9193,
      "ƠNG": 9194,
      "ƯƠNG": 9195,
      "▁pancake": 9196,
      "Tham": 9197,
      "▁khuẩn": 9198,
      "Mara": 9199,
      "▁Dương": 9200,
      ".'\"": 9201,
      "Bebe": 9202,
      "▁Margo": 9203,
      "Crabby": 9204,
      "Nến": 9205,
      "bum": 9206,
      "rái": 9207,
      "yster": 9208,
      "nhún": 9209,
      "▁Bibo": 9210,
      "▁Peep": 9211,
      "▁Kang": 9212,
      "▁uất": 9213,
      "▁Vũ": 9214,
      "▁xổm": 9215,
      "Greeny": 9216,
      "Dobby": 9217,
      "Ria": 9218,
      "hối": 9219,
      "▁Jelly": 9220,
      "phản": 9221,
      "▁Gorilla": 9222,
      "Mili": 9223,
      "reeze": 9224,
      "▁Carrie": 9225,
      "CHƯƠNG": 9226,
      "Cân": 9227,
      "Freya": 9228,
      "Sứ": 9229,
      "Xet": 9230,
      "sốt": 9231,
      "olo": 9232,
      "Roy": 9233,
      "▁Giác": 9234,
      "Wilma": 9235,
      "!]": 9236,
      "Uni": 9237,
      "bạc": 9238,
      "▁bỉ": 9239,
      "Cherry": 9240,
      "khịt": 9241,
      "Trưởng": 9242,
      "▁Tượng": 9243,
      "▁Rani": 9244,
      "▁Lau": 9245,
      "Super": 9246,
      "▁Bro": 9247,
      "shoo": 9248,
      "▁zero": 9249,
      "▁Mixie": 9250,
      "Cáu": 9251,
      "Hilda": 9252,
      "gắn": 9253,
      "▁rập": 9254,
      "▁Me": 9255,
      "▁GiGi": 9256,
      "Alison": 9257,
      "loria": 9258,
      ",\n-": 9259,
      "Candy": 9260,
      "Sai": 9261,
      "Sừng": 9262,
      "Tùm": 9263,
      "▁chặp": 9264,
      "ame": 9265,
      "irk": 9266,
      "đóa": 9267,
      "▁Hanger": 9268,
      "Taylor": 9269,
      "atrice": 9270,
      "▁Ernie": 9271,
      "Fanny": 9272,
      "Siêu": 9273,
      "xuyên": 9274,
      "Ổn": 9275,
      "▁mướp": 9276,
      "▁chởm": 9277,
      "ond": 9278,
      "eeze": 9279,
      "Alfie": 9280,
      "Ed": 9281,
      "Jemma": 9282,
      "Manny": 9283,
      "Rái": 9284,
      "lờ": 9285,
      "xám": 9286,
      "▁rôi": 9287,
      "▁sải": 9288,
      "Thốt": 9289,
      "▁Tin": 9290,
      "▁Ratty": 9291,
      "Hoo": 9292,
      "▁Hề": 9293,
      "pert": 9294,
      "▁Oink": 9295,
      "▁Marley": 9296,
      "xuất": 9297,
      "▁shark": 9298,
      "Mận": 9299,
      "múc": 9300,
      "tóm": 9301,
      "Ôxy": 9302,
      "▁Sn": 9303,
      "▁tổng": 9304,
      "▁Pa": 9305,
      "▁nghịu": 9306,
      "▁Jennifer": 9307,
      "▁Spinny": 9308,
      "bey": 9309,
      "▁Bull": 9310,
      "▁rockets": 9311,
      "▁Matthew": 9312,
      "ccoli": 9313,
      "\"!\n": 9314,
      "Gertie": 9315,
      "RA": 9316,
      "Slide": 9317,
      "Xăng": 9318,
      "hút": 9319,
      "shy": 9320,
      "▁khiêng": 9321,
      "amp": 9322,
      "▁hoo": 9323,
      "trêu": 9324,
      "▁Chậm": 9325,
      "▁Choo": 9326,
      "Shake": 9327,
      "▁Carly": 9328,
      "suýt": 9329,
      "Kat": 9330,
      "Po": 9331,
      "Pine": 9332,
      "deline": 9333,
      "tẻ": 9334,
      "ÔNG": 9335,
      "Đỉnh": 9336,
      "▁ậc": 9337,
      "▁Whisker": 9338,
      "▁teo": 9339,
      "chen": 9340,
      "▁\"-": 9341,
      "▁Sl": 9342,
      "max": 9343,
      "▁suất": 9344,
      "▁Hồn": 9345,
      "▁Mac": 9346,
      "tton": 9347,
      "▁Ngô": 9348,
      "▁Prune": 9349,
      "Geneva": 9350,
      "Kiểu": 9351,
      "Tăng": 9352,
      "súng": 9353,
      "ửu": 9354,
      "▁lỏi": 9355,
      "nháy": 9356,
      "▁trọi": 9357,
      "▁Jes": 9358,
      "▁Opera": 9359,
      "Bailey": 9360,
      "Mild": 9361,
      "Slow": 9362,
      "yla": 9363,
      "▁rê": 9364,
      "Chảo": 9365,
      "Khác": 9366,
      "art": 9367,
      "thò": 9368,
      "▁Rh": 9369,
      "▁Cammy": 9370,
      "▁Bean": 9371,
      "Willow": 9372,
      "Khoan": 9373,
      "▁Mila": 9374,
      "▁Carol": 9375,
      "brina": 9376,
      ").\n-": 9377,
      "gồ": 9378,
      "rd": 9379,
      "▁uy": 9380,
      "▁cạy": 9381,
      "Charles": 9382,
      "▁Fizzy": 9383,
      "llo": 9384,
      "liet": 9385,
      "▁Hat": 9386,
      "Phóng": 9387,
      "▁Woof": 9388,
      "Razor": 9389,
      "Gì": 9390,
      "cuit": 9391,
      "haw": 9392,
      "túm": 9393,
      "ỵch": 9394,
      "▁cọng": 9395,
      "▁tè": 9396,
      "▁bẹp": 9397,
      "▁Bình": 9398,
      "thể": 9399,
      "▁Twisty": 9400,
      "leb": 9401,
      "▁Hạnh": 9402,
      "▁Hộp": 9403,
      "▁Nate": 9404,
      "Radio": 9405,
      "▁Oak": 9406,
      "▁Iron": 9407,
      "Bít": 9408,
      "Fly": 9409,
      "Má": 9410,
      "vây": 9411,
      "▁năn": 9412,
      "▁nựng": 9413,
      "▁nhạnh": 9414,
      "▁Snake": 9415,
      "▁Diana": 9416,
      "irt": 9417,
      "iscuit": 9418,
      "▁Tri": 9419,
      "Dạy": 9420,
      "Huy": 9421,
      "Sốt": 9422,
      "fe": 9423,
      "ider": 9424,
      "nở": 9425,
      "rít": 9426,
      "▁Cậu": 9427,
      "▁đuốc": 9428,
      "▁rạch": 9429,
      "▁sấp": 9430,
      "▁taco": 9431,
      "Ngọc": 9432,
      "Khủng": 9433,
      "Thường": 9434,
      "▁Jet": 9435,
      "Trèo": 9436,
      "▁Bí": 9437,
      "▁ding": 9438,
      "▁Rắn": 9439,
      "Phúc": 9440,
      "▁teddy": 9441,
      "▁Spicy": 9442,
      "▁for": 9443,
      "eresa": 9444,
      "Geor": 9445,
      "HÔNG": 9446,
      "Nat": 9447,
      "Quy": 9448,
      "Sean": 9449,
      "Xuân": 9450,
      "bụp": 9451,
      "ker": 9452,
      "râu": 9453,
      "tượng": 9454,
      "▁\n-": 9455,
      "▁Đáng": 9456,
      "nhấm": 9457,
      "▁quẹt": 9458,
      "▁Hank": 9459,
      "▁Brush": 9460,
      "Angie": 9461,
      "Lydia": 9462,
      "bird": 9463,
      "nến": 9464,
      "Đào": 9465,
      "▁al": 9466,
      "▁rôn": 9467,
      "▁dắc": 9468,
      "▁Máy": 9469,
      "▁Dusty": 9470,
      "▁Jodie": 9471,
      "shine": 9472,
      "▁Dash": 9473,
      "Elizabeth": 9474,
      "??": 9475,
      "Layla": 9476,
      "hạ": 9477,
      "▁vó": 9478,
      "▁vố": 9479,
      "Tra": 9480,
      "trầy": 9481,
      "▁Man": 9482,
      "▁xoài": 9483,
      "▁Tìm": 9484,
      "▁Ring": 9485,
      "rex": 9486,
      "▁Le": 9487,
      "▁Allie": 9488,
      "eese": 9489,
      "▁Spoon": 9490,
      "Love": 9491,
      "▁Thẩm": 9492,
      "Carlos": 9493,
      "Greta": 9494,
      "honk": 9495,
      "▁tăn": 9496,
      "▁nập": 9497,
      "▁lấn": 9498,
      "▁gu": 9499,
      "chóng": 9500,
      "▁giềng": 9501,
      "▁quỵ": 9502,
      "Ngôn": 9503,
      "khôn": 9504,
      "ern": 9505,
      "▁Tài": 9506,
      "raffe": 9507,
      "Hương": 9508,
      "Hướng": 9509,
      "Móc": 9510,
      "Rani": 9511,
      "gãi": 9512,
      "ja": 9513,
      "ji": 9514,
      "lay": 9515,
      "▁.\n": 9516,
      "▁Đầu": 9517,
      "▁cớm": 9518,
      "▁xep": 9519,
      "aige": 9520,
      "▁Tạ": 9521,
      "!'.\n-": 9522,
      "iranda": 9523,
      "▁Ami": 9524,
      "lock": 9525,
      "▁Vui": 9526,
      "Ada": 9527,
      "Duck": 9528,
      "Jam": 9529,
      "bĩu": 9530,
      "hách": 9531,
      "ire": 9532,
      "oot": 9533,
      "▁Ngày": 9534,
      "▁tõm": 9535,
      "▁lởm": 9536,
      "▁xê": 9537,
      "▁xắc": 9538,
      "▁dĩ": 9539,
      "?\"\n\n": 9540,
      "▁Mill": 9541,
      "unter": 9542,
      "▁Didi": 9543,
      "▁uý": 9544,
      "▁Vùng": 9545,
      "Rặng": 9546,
      "Sly": 9547,
      "▁bòng": 9548,
      "▁chập": 9549,
      "▁khang": 9550,
      "▁truy": 9551,
      "chương": 9552,
      "▁dích": 9553,
      "Châu": 9554,
      "▁Pop": 9555,
      "▁Paula": 9556,
      "ght": 9557,
      "▁Dull": 9558,
      "Boom": 9559,
      "Bark": 9560,
      "Gra": 9561,
      "Mon": 9562,
      "luyện": 9563,
      "▁vòm": 9564,
      "▁đòn": 9565,
      "▁lây": 9566,
      "▁Sáu": 9567,
      "arm": 9568,
      "Joke": 9569,
      "▁Tiki": 9570,
      "bbi": 9571,
      "Toa": 9572,
      "ylvia": 9573,
      "Nathan": 9574,
      "Or": 9575,
      "há": 9576,
      "tie": 9577,
      "▁Ánh": 9578,
      "▁nện": 9579,
      "Chiều": 9580,
      "▁toái": 9581,
      "▁Jeremy": 9582,
      "▁ạh": 9583,
      "▁Tw": 9584,
      "phiêu": 9585,
      "▁Hộ": 9586,
      "Phiến": 9587,
      "▁Icy": 9588,
      "Can": 9589,
      "Nellie": 9590,
      "dai": 9591,
      "dựng": 9592,
      "spaghetti": 9593,
      "vang": 9594,
      "văn": 9595,
      "▁Tôi": 9596,
      "▁mìn": 9597,
      "▁lìa": 9598,
      "▁rờn": 9599,
      "▁sậy": 9600,
      "▁ổng": 9601,
      "▁Pig": 9602,
      "reck": 9603,
      "▁Nelly": 9604,
      "ald": 9605,
      "Gối": 9606,
      "Hồng": 9607,
      "bận": 9608,
      "zmo": 9609,
      "▁ói": 9610,
      "▁húng": 9611,
      "quà": 9612,
      "Trust": 9613,
      "▁Bửu": 9614,
      "giội": 9615,
      "▁Tuck": 9616,
      "▁nguôi": 9617,
      "ikki": 9618,
      "Bravo": 9619,
      "▁hamburger": 9620,
      "Sandwich": 9621,
      "Gail": 9622,
      "tu": 9623,
      "xách": 9624,
      "▁vói": 9625,
      "chiếp": 9626,
      "▁xen": 9627,
      "Mason": 9628,
      "emon": 9629,
      "Bean": 9630,
      "▁Sugar": 9631,
      "Lauren": 9632,
      "Buồng": 9633,
      "Wonder": 9634,
      "lách": 9635,
      "so": 9636,
      "▁phấp": 9637,
      "unk": 9638,
      "Margaret": 9639,
      "▁Heli": 9640,
      "inoc": 9641,
      "Melty": 9642,
      "BOO": 9643,
      "Mãi": 9644,
      "Monica": 9645,
      "lưng": 9646,
      "▁lún": 9647,
      "▁ngự": 9648,
      "tháo": 9649,
      "!'\"\n": 9650,
      "▁Leg": 9651,
      "taxi": 9652,
      "Jade": 9653,
      "▁Joanne": 9654,
      "Bernie": 9655,
      "Gas": 9656,
      "Nia": 9657,
      "cút": 9658,
      "zip": 9659,
      "▁nan": 9660,
      "▁băm": 9661,
      "▁gút": 9662,
      "▁phơ": 9663,
      "aron": 9664,
      "▁Fuzz": 9665,
      "isty": 9666,
      "▁Ed": 9667,
      "Erin": 9668,
      "Dull": 9669,
      "Angela": 9670,
      "Bơimy": 9671,
      "▁album": 9672,
      "Faith": 9673,
      "Glow": 9674,
      "cù": 9675,
      "lia": 9676,
      "mọc": 9677,
      "veo": 9678,
      "▁ngõ": 9679,
      "ami": 9680,
      "▁hot": 9681,
      "Giám": 9682,
      "▁Don": 9683,
      "▁Circle": 9684,
      "hoảng": 9685,
      "▁Ned": 9686,
      "▁Radio": 9687,
      "urple": 9688,
      "Shiver": 9689,
      "▁Breezy": 9690,
      "Hiển": 9691,
      "Tận": 9692,
      "Tỉnh": 9693,
      "cử": 9694,
      "cưa": 9695,
      "hộ": 9696,
      "han": 9697,
      "ẻn": 9698,
      "▁??": 9699,
      "Chick": 9700,
      "▁Sly": 9701,
      "Khay": 9702,
      "Quang": 9703,
      "▁cươi": 9704,
      "iane": 9705,
      "Salad": 9706,
      "Horsie": 9707,
      "Ooh": 9708,
      "mặn": 9709,
      "xeo": 9710,
      "▁vê": 9711,
      "▁von": 9712,
      "▁bẵng": 9713,
      "▁nhám": 9714,
      "▁hời": 9715,
      "▁Số": 9716,
      "thẻ": 9717,
      "▁Mũ": 9718,
      "▁Pie": 9719,
      "▁Piggy": 9720,
      "igger": 9721,
      "▁Smokey": 9722,
      "butterfly": 9723,
      "▁Taylor": 9724,
      "Biến": 9725,
      "Nửa": 9726,
      "Peek": 9727,
      "đắp": 9728,
      "▁luộc": 9729,
      "Lung": 9730,
      "▁bộc": 9731,
      "▁Top": 9732,
      "▁Kat": 9733,
      "Butterfly": 9734,
      "▁Jonathan": 9735,
      "ierce": 9736,
      "Cut": 9737,
      "Cookie": 9738,
      "Tick": 9739,
      "▁lóng": 9740,
      "▁thượng": 9741,
      "▁nhí": 9742,
      "▁hùm": 9743,
      "▁ngốn": 9744,
      "Quanh": 9745,
      "▁Papa": 9746,
      "Joel": 9747,
      "▁Avery": 9748,
      "nghèo": 9749,
      "Miles": 9750,
      "Melody": 9751,
      "▁Hairy": 9752,
      "Isabella": 9753,
      "Edward": 9754,
      "Lừa": 9755,
      "berry": 9756,
      "gầy": 9757,
      "lợi": 9758,
      "ouch": 9759,
      "pe": 9760,
      "rèm": 9761,
      "ngũ": 9762,
      "▁lốm": 9763,
      "ince": 9764,
      "tyle": 9765,
      "▁Minnie": 9766,
      "Janice": 9767,
      "▁Switch": 9768,
      "Moe": 9769,
      "Tiệm": 9770,
      "hỗn": 9771,
      "wing": 9772,
      "ngư": 9773,
      "ngứa": 9774,
      "▁chả": 9775,
      "▁chừa": 9776,
      "▁Sean": 9777,
      "▁Sku": 9778,
      "Mac": 9779,
      "radio": 9780,
      "▁Rudolph": 9781,
      "Bám": 9782,
      "Cũi": 9783,
      "Ivy": 9784,
      "KHÔNG": 9785,
      "dế": 9786,
      "▁Bendy": 9787,
      "Truth": 9788,
      "▁phách": 9789,
      "ery": 9790,
      "trúng": 9791,
      "trưởng": 9792,
      "▁Rick": 9793,
      "▁Lá": 9794,
      "▁Cherry": 9795,
      "Mole": 9796,
      "Gaby": 9797,
      "Lacey": 9798,
      "▁Tube": 9799,
      "AR": 9800,
      "Toni": 9801,
      "boing": 9802,
      "lạ": 9803,
      "rách": 9804,
      "đốt": 9805,
      "▁Sta": 9806,
      "▁Bạc": 9807,
      "▁Flash": 9808,
      "Marty": 9809,
      "▁Rag": 9810,
      "nghiêng": 9811,
      "Gigis": 9812,
      "▁Cable": 9813,
      "Stephen": 9814,
      "▁Slowpoke": 9815,
      "Cún": 9816,
      "Hồi": 9817,
      "Nibbles": 9818,
      "Peep": 9819,
      "teddy": 9820,
      "▁lep": 9821,
      "Nguồn": 9822,
      "Nhặt": 9823,
      "▁lòm": 9824,
      "▁Brain": 9825,
      "▁Gemma": 9826,
      "▁Nâu": 9827,
      "▁Ostrich": 9828,
      "▁Cuddles": 9829,
      "Blink": 9830,
      "▁Bells": 9831,
      "▁Stanley": 9832,
      "erek": 9833,
      "▁Tidy": 9834,
      "Cán": 9835,
      "Michelle": 9836,
      "Nâng": 9837,
      "Peace": 9838,
      "Tuesday": 9839,
      "▁tụng": 9840,
      "▁bina": 9841,
      "Benjamin": 9842,
      "▁Freya": 9843,
      "▁Mom": 9844,
      "▁Dilly": 9845,
      ".'\"\n": 9846,
      "▁Josie": 9847,
      "hew": 9848,
      "▁Xấu": 9849,
      "▁Não": 9850,
      "Queen": 9851,
      "inocero": 9852,
      "Bibo": 9853,
      "Com": 9854,
      "Ethan": 9855,
      "Flick": 9856,
      "Hẳn": 9857,
      "Làng": 9858,
      "mber": 9859,
      "đem": 9860,
      "đổi": 9861,
      "ịnh": 9862,
      "▁nanh": 9863,
      "▁đới": 9864,
      "chế": 9865,
      "Chăn": 9866,
      "▁Spotty": 9867,
      "khen": 9868,
      "▁Tiger": 9869,
      "▁muffins": 9870,
      "Flop": 9871,
      "Richard": 9872,
      "▁Lego": 9873,
      "BÙM": 9874,
      "Hanna": 9875,
      "Lát": 9876,
      "hi": 9877,
      "Ít": 9878,
      "▁đò": 9879,
      "nhiên": 9880,
      "▁gân": 9881,
      "Becca": 9882,
      "Hoảng": 9883,
      "▁Goo": 9884,
      "▁Xà": 9885,
      "Alexa": 9886,
      "▁Beef": 9887,
      "▁Santa": 9888,
      "dưa": 9889,
      "▁ệch": 9890,
      "▁mo": 9891,
      "▁xạ": 9892,
      "▁po": 9893,
      "▁phế": 9894,
      "▁phượng": 9895,
      "omi": 9896,
      "Tomvà": 9897,
      "▁Sồi": 9898,
[...]
