{
  "version": "1.0",
  "truncation": null,
  "padding": null,
  "added_tokens": [
    {
      "id": 0,
      "content": "<|PAD|>",
      "single_word": false,
      "lstrip": false,
      "rstrip": false,
      "normalized": false,
      "special": true
    },
    {
      "id": 1,
      "content": "<|BOS|>",
      "single_word": false,
      "lstrip": false,
      "rstrip": false,
      "normalized": false,
      "special": true
    },
    {
      "id": 2,
      "content": "<|EOS|>",
      "single_word": false,
      "lstrip": false,
      "rstrip": false,
      "normalized": false,
      "special": true
    },
    {
      "id": 3,
      "content": "<|UNK|>",
      "single_word": false,
      "lstrip": false,
      "rstrip": false,
      "normalized": false,
      "special": true
    }
  ],
  "normalizer": {
    "type": "NFKC"
  },
  "pre_tokenizer": {
    "type": "Sequence",
    "pretokenizers": [
      {
        "type": "UnicodeScripts"
      },
      {
        "type": "Digits",
        "individual_digits": true
      },
      {
        "type": "Metaspace",
        "replacement": "▁",
        "prepend_scheme": "never",
        "split": true
      }
    ]
  },
  "post_processor": {
    "type": "TemplateProcessing",
    "single": [
      {
        "SpecialToken": {
          "id": "<|BOS|>",
          "type_id": 0
        }
      },
      {
        "Sequence": {
          "id": "A",
          "type_id": 0
        }
      },
      {
        "SpecialToken": {
          "id": "<|EOS|>",
          "type_id": 0
        }
      }
    ],
    "pair": [
      {
        "SpecialToken": {
          "id": "<|BOS|>",
          "type_id": 0
        }
      },
      {
        "Sequence": {
          "id": "A",
          "type_id": 0
        }
      },
      {
        "SpecialToken": {
          "id": "<|EOS|>",
          "type_id": 0
        }
      },
      {
        "SpecialToken": {
          "id": "<|BOS|>",
          "type_id": 1
        }
      },
      {
        "Sequence": {
          "id": "B",
          "type_id": 1
        }
      },
      {
        "SpecialToken": {
          "id": "<|EOS|>",
          "type_id": 1
        }
      }
    ],
    "special_tokens": {
      "<|BOS|>": {
        "id": "<|BOS|>",
        "ids": [
          1
        ],
        "tokens": [
          "<|BOS|>"
        ]
      },
      "<|EOS|>": {
        "id": "<|EOS|>",
        "ids": [
          2
        ],
        "tokens": [
          "<|EOS|>"
        ]
      }
    }
  },
  "decoder": {
    "type": "Metaspace",
    "replacement": "▁",
    "prepend_scheme": "never",
    "split": true
  },
  "model": {
    "type": "BPE",
    "dropout": null,
    "unk_token": "<|UNK|>",
    "continuing_subword_prefix": null,
    "end_of_word_suffix": null,
    "fuse_unk": false,
    "byte_fallback": false,
    "ignore_merges": false,
    "vocab": {
      "<|PAD|>": 0,
      "<|BOS|>": 1,
      "<|EOS|>": 2,
      "<|UNK|>": 3,
      "\n": 4,
      "!": 5,
      "\"": 6,
      "$": 7,
      "%": 8,
      "&": 9,
      "'": 10,
      "(": 11,
      ")": 12,
      "*": 13,
      "+": 14,
      ",": 15,
      "-": 16,
      ".": 17,
      "/": 18,
      "0": 19,
      "1": 20,
      "2": 21,
      "3": 22,
      "4": 23,
      "5": 24,
      "6": 25,
      "7": 26,
      "8": 27,
      "9": 28,
      ":": 29,
      ";": 30,
      "=": 31,
      "?": 32,
      "A": 33,
      "B": 34,
      "C": 35,
      "D": 36,
      "E": 37,
      "F": 38,
      "G": 39,
      "H": 40,
      "I": 41,
      "J": 42,
      "K": 43,
      "L": 44,
      "M": 45,
      "N": 46,
      "O": 47,
      "P": 48,
      "Q": 49,
      "R": 50,
      "S": 51,
      "T": 52,
      "U": 53,
      "V": 54,
      "W": 55,
      "X": 56,
      "Y": 57,
      "Z": 58,
      "a": 59,
      "b": 60,
      "c": 61,
      "d": 62,
      "e": 63,
      "f": 64,
      "g": 65,
      "h": 66,
      "i": 67,
      "j": 68,
      "k": 69,
      "l": 70,
      "m": 71,
      "n": 72,
      "o": 73,
      "p": 74,
      "q": 75,
      "r": 76,
      "s": 77,
      "t": 78,
      "u": 79,
      "v": 80,
      "w": 81,
      "x": 82,
      "y": 83,
      "z": 84,
      "▁": 85,
      "he": 86,
      "▁t": 87,
      "▁a": 88,
      "▁w": 89,
      "▁s": 90,
      "nd": 91,
      "▁the": 92,
      "ed": 93,
      "▁to": 94,
      "▁b": 95,
      "▁and": 96,
      "▁h": 97,
      "▁f": 98,
      "in": 99,
      "▁wa": 100,
      "re": 101,
      "it": 102,
      "ou": 103,
      "▁l": 104,
      "▁d": 105,
      "▁c": 106,
      "The": 107,
      "▁p": 108,
      "ay": 109,
      "er": 110,
      "▁m": 111,
      "▁was": 112,
      "om": 113,
      "is": 114,
      "ar": 115,
      "▁n": 116,
      "im": 117,
      "on": 118,
      "▁he": 119,
      "id": 120,
      "ll": 121,
      "▁sa": 122,
      "▁ha": 123,
      "at": 124,
      "▁g": 125,
      "ing": 126,
      "ot": 127,
      "en": 128,
      "an": 129,
      "le": 130,
      "or": 131,
      ".\n": 132,
      "ir": 133,
      "am": 134,
      "They": 135,
      "et": 136,
      "ig": 137,
      "▁th": 138,
      "He": 139,
      "▁it": 140,
      "il": 141,
      "▁pl": 142,
      "▁\"": 143,
      "ow": 144,
      "▁in": 145,
      "ver": 146,
      "ri": 147,
      "ut": 148,
      "▁play": 149,
      "Tim": 150,
      "▁u": 151,
      "▁be": 152,
      "ith": 153,
      "▁day": 154,
      "pp": 155,
      "On": 156,
      "▁with": 157,
      "oo": 158,
      "▁o": 159,
      "▁said": 160,
      "ked": 161,
      "She": 162,
      "▁r": 163,
      "ce": 164,
      "▁y": 165,
      "▁her": 166,
      "ld": 167,
      "▁his": 168,
      "ke": 169,
      "▁st": 170,
      "the": 171,
      "▁e": 172,
      "▁big": 173,
      "st": 174,
      "nt": 175,
      "ck": 176,
      "very": 177,
      "ve": 178,
      "end": 179,
      "▁you": 180,
      "un": 181,
      "▁on": 182,
      "▁happ": 183,
      "all": 184,
      "riend": 185,
      "▁friend": 186,
      "ily": 187,
      "her": 188,
      "▁had": 189,
      "▁not": 190,
      "▁want": 191,
      "▁up": 192,
      "▁li": 193,
      "▁of": 194,
      "ad": 195,
      "▁we": 196,
      "itt": 197,
      "se": 198,
      "▁do": 199,
      "ent": 200,
      "▁very": 201,
      "Lily": 202,
      "es": 203,
      "▁happy": 204,
      "One": 205,
      "▁saw": 206,
      "ould": 207,
      "▁that": 208,
      "and": 209,
      "ittle": 210,
      "▁for": 211,
      "Tom": 212,
      "▁sh": 213,
      "▁mom": 214,
      "▁little": 215,
      ".\"": 216,
      "▁they": 217,
      "ch": 218,
      "ime": 219,
      "▁nam": 220,
      "▁ne": 221,
      "▁time": 222,
      "ound": 223,
      "▁k": 224,
      "▁named": 225,
      "▁bo": 226,
      "▁sm": 227,
      "▁were": 228,
      "!\"": 229,
      "It": 230,
      "▁so": 231,
      "▁wanted": 232,
      "out": 233,
      "▁friends": 234,
      "ved": 235,
      "ht": 236,
      "ird": 237,
      "al": 238,
      "el": 239,
      "ake": 240,
      "▁bird": 241,
      "▁an": 242,
      "ome": 243,
      "ug": 244,
      "ide": 245,
      "lp": 246,
      "▁too": 247,
      "▁went": 248,
      "Once": 249,
      "▁is": 250,
      "ue": 251,
      "▁help": 252,
      "▁all": 253,
      "▁lo": 254,
      "ter": 255,
      "▁upon": 256,
      "ry": 257,
      "there": 258,
      "but": 259,
      "▁she": 260,
      "▁loo": 261,
      "ore": 262,
      "ind": 263,
      "get": 264,
      "▁fun": 265,
      "ill": 266,
      "▁toy": 267,
      "ame": 268,
      "▁wh": 269,
      "▁at": 270,
      "▁did": 271,
      "gether": 272,
      "ack": 273,
      "ur": 274,
      "▁re": 275,
      "▁as": 276,
      "▁S": 277,
      "▁together": 278,
      "▁se": 279,
      "▁j": 280,
      "ly": 281,
      "▁cat": 282,
      "▁tre": 283,
      "ood": 284,
      "▁Tim": 285,
      "ic": 286,
      "ted": 287,
      "ra": 288,
      "▁could": 289,
      "▁dog": 290,
      "ec": 291,
      "ard": 292,
      "?\"": 293,
      "▁their": 294,
      "ark": 295,
      "my": 296,
      "▁gir": 297,
      "▁him": 298,
      "But": 299,
      "▁played": 300,
      "▁ball": 301,
      "▁girl": 302,
      "way": 303,
      "hed": 304,
      "▁ro": 305,
      "▁can": 306,
      "▁are": 307,
      "▁go": 308,
      "▁out": 309,
      "ain": 310,
      "▁le": 311,
      "▁fr": 312,
      "hen": 313,
      "▁them": 314,
      "um": 315,
      "▁kn": 316,
      "ax": 317,
      "▁sad": 318,
      "ul": 319,
      "▁boy": 320,
      "▁tree": 321,
      ".\"\n": 322,
      "Max": 323,
      "other": 324,
      "▁have": 325,
      "▁man": 326,
      "▁loved": 327,
      "oug": 328,
      "▁looked": 329,
      "▁cl": 330,
      "▁found": 331,
      ".\n\"": 332,
      "one": 333,
      "▁sp": 334,
      "▁star": 335,
      "hing": 336,
      "Ben": 337,
      "▁back": 338,
      "▁sc": 339,
      "own": 340,
      "are": 341,
      "ful": 342,
      "side": 343,
      "▁me": 344,
      "▁park": 345,
      "ong": 346,
      "ight": 347,
      "▁like": 348,
      "op": 349,
      "round": 350,
      "▁car": 351,
      "▁bec": 352,
      "elt": 353,
      "▁liked": 354,
      "▁would": 355,
      "▁make": 356,
      "▁felt": 357,
      "You": 358,
      "▁fa": 359,
      "▁Lily": 360,
      "▁see": 361,
      "omet": 362,
      "ag": 363,
      "▁new": 364,
      "ice": 365,
      "ouse": 366,
      "ared": 367,
      "▁started": 368,
      "Th": 369,
      "as": 370,
      "ought": 371,
      "iled": 372,
      "▁other": 373,
      "▁asked": 374,
      "▁no": 375,
      "▁Tom": 376,
      "▁al": 377,
      "aug": 378,
      "▁ag": 379,
      "▁good": 380,
      "▁came": 381,
      "▁small": 382,
      "▁smiled": 383,
      "ade": 384,
      "ried": 385,
      "▁br": 386,
      "▁say": 387,
      "ob": 388,
      "ook": 389,
      "ings": 390,
      "they": 391,
      "pot": 392,
      "▁find": 393,
      "ell": 394,
      "▁wor": 395,
      "Mom": 396,
      "▁\n": 397,
      "ia": 398,
      "▁away": 399,
      "omething": 400,
      "ty": 401,
      "she": 402,
      "▁made": 403,
      "▁from": 404,
      "ened": 405,
      "▁put": 406,
      "▁thought": 407,
      "▁home": 408,
      "▁ex": 409,
      "▁playing": 410,
      "▁co": 411,
      "▁wal": 412,
      "uc": 413,
      "ach": 414,
      "▁mu": 415,
      "Sue": 416,
      "arn": 417,
      "Mia": 418,
      "▁ran": 419,
      "▁every": 420,
      "ile": 421,
      "▁what": 422,
      "ie": 423,
      "ave": 424,
      "ss": 425,
      "▁again": 426,
      "dd": 427,
      "▁house": 428,
      "▁down": 429,
      "ab": 430,
      "▁took": 431,
      "▁scared": 432,
      "▁some": 433,
      "ny": 434,
      "ure": 435,
      "▁learn": 436,
      "▁pr": 437,
      "if": 438,
      "▁toys": 439,
      "▁box": 440,
      "▁fl": 441,
      "▁will": 442,
      "▁laug": 443,
      "ick": 444,
      "ret": 445,
      "ep": 446,
      "▁around": 447,
      "king": 448,
      "▁things": 449,
      "oud": 450,
      "uck": 451,
      "ish": 452,
      ",\"": 453,
      "▁I": 454,
      "▁your": 455,
      "▁lived": 456,
      "So": 457,
      "▁sun": 458,
      "ew": 459,
      "pped": 460,
      "to": 461,
      "▁my": 462,
      "▁ab": 463,
      "▁bl": 464,
      "Wh": 465,
      "so": 466,
      "▁ch": 467,
      "ank": 468,
      "▁then": 469,
      "▁sw": 470,
      "Luc": 471,
      "▁get": 472,
      "Lucy": 473,
      "ump": 474,
      "us": 475,
      "▁lot": 476,
      "ap": 477,
      "oth": 478,
      "▁when": 479,
      "▁tried": 480,
      "ist": 481,
      "Sam": 482,
      "▁got": 483,
      "▁says": 484,
      "ited": 485,
      "ust": 486,
      "Bob": 487,
      "▁know": 488,
      "▁many": 489,
      "nder": 490,
      "▁about": 491,
      "▁there": 492,
      "▁fe": 493,
      "▁dec": 494,
      "▁any": 495,
      "!\"\n": 496,
      "ive": 497,
      "fe": 498,
      "ace": 499,
      "▁knew": 500,
      "ous": 501,
      "au": 502,
      "ise": 503,
      "▁more": 504,
      "▁something": 505,
      "▁pret": 506,
      "ally": 507,
      "▁care": 508,
      "We": 509,
      "▁pic": 510,
      "qu": 511,
      "▁who": 512,
      "▁Ben": 513,
      "▁learned": 514,
      "fter": 515,
      "▁hug": 516,
      "And": 517,
      "▁water": 518,
      "▁became": 519,
      "Spot": 520,
      "▁best": 521,
      "▁v": 522,
      "ause": 523,
      "▁Sue": 524,
      "ways": 525,
      "urp": 526,
      "▁op": 527,
      "▁outside": 528,
      "▁po": 529,
      "▁laughed": 530,
      "ant": 531,
      "ided": 532,
      "▁room": 533,
      "▁exc": 534,
      "▁decided": 535,
      "▁into": 536,
      "▁show": 537,
      "▁un": 538,
      "ite": 539,
      "Let": 540,
      "▁eat": 541,
      "▁Max": 542,
      "▁always": 543,
      "Then": 544,
      "ers": 545,
      "▁gre": 546,
      "▁both": 547,
      "▁pe": 548,
      "udd": 549,
      "▁Sam": 550,
      "An": 551,
      "▁ke": 552,
      "When": 553,
      "▁ho": 554,
      "▁red": 555,
      "Ann": 556,
      "▁tr": 557,
      "▁nice": 558,
      "Yes": 559,
      "▁fast": 560,
      "▁because": 561,
      "▁look": 562,
      "our": 563,
      "▁long": 564,
      "▁dad": 565,
      "▁one": 566,
      "▁jump": 567,
      "▁excited": 568,
      "▁told": 569,
      "▁sk": 570,
      "▁run": 571,
      "urpr": 572,
      "og": 573,
      "▁am": 574,
      "▁inside": 575,
      "ull": 576,
      "His": 577,
      "ink": 578,
      "iny": 579,
      "▁surpr": 580,
      "▁mo": 581,
      "Fr": 582,
      "▁sor": 583,
      "▁take": 584,
      "▁this": 585,
      "▁feel": 586,
      "▁much": 587,
      "lew": 588,
      "▁gave": 589,
      "▁each": 590,
      "th": 591,
      "ast": 592,
      "Anna": 593,
      "imal": 594,
      "ara": 595,
      "▁pretty": 596,
      "▁rock": 597,
      "Amy": 598,
      "ged": 599,
      "▁animal": 600,
      "?\"\n": 601,
      "▁sl": 602,
      "▁need": 603,
      "▁how": 604,
      "ven": 605,
      "As": 606,
      "etter": 607,
      "▁but": 608,
      "▁than": 609,
      "▁tow": 610,
      "ro": 611,
      "ess": 612,
      "▁str": 613,
      "▁under": 614,
      "▁sorry": 615,
      "ge": 616,
      "Can": 617,
      "▁old": 618,
      "▁gr": 619,
      "ised": 620,
      "pl": 621,
      "Thank": 622,
      "▁walked": 623,
      "▁fish": 624,
      "urt": 625,
      "▁clo": 626,
      "▁cle": 627,
      "ft": 628,
      "ase": 629,
      "▁or": 630,
      "▁bear": 631,
      "▁hand": 632,
      "urn": 633,
      "here": 634,
      "▁kind": 635,
      "ex": 636,
      "▁happened": 637,
      "Her": 638,
      "▁didn": 639,
      "▁food": 640,
      "In": 641,
      "▁list": 642,
      "▁te": 643,
      "▁ide": 644,
      "ched": 645,
      "▁sky": 646,
      "▁animals": 647,
      "ine": 648,
      "ving": 649,
      "▁hig": 650,
      "▁near": 651,
      "sa": 652,
      "▁flow": 653,
      "From": 654,
      "▁sn": 655,
      "▁idea": 656,
      "▁fi": 657,
      "▁better": 658,
      "▁wat": 659,
      "▁us": 660,
      "ate": 661,
      "gry": 662,
      "▁its": 663,
      "▁heard": 664,
      "▁J": 665,
      "▁bug": 666,
      "pec": 667,
      "ff": 668,
      "able": 669,
      "▁try": 670,
      "▁careful": 671,
      "more": 672,
      "▁share": 673,
      "▁bu": 674,
      "▁stor": 675,
      "ial": 676,
      "▁anymore": 677,
      "▁flew": 678,
      "▁en": 679,
      "▁fly": 680,
      "ion": 681,
      "▁gra": 682,
      "▁spec": 683,
      "▁special": 684,
      "▁lots": 685,
      "lf": 686,
      "ream": 687,
      "▁com": 688,
      "▁by": 689,
      "▁if": 690,
      "▁tw": 691,
      "▁never": 692,
      "▁wind": 693,
      "Every": 694,
      "▁dan": 695,
      "▁just": 696,
      "That": 697,
      "ort": 698,
      "▁Spot": 699,
      "▁fo": 700,
      "ber": 701,
      "▁love": 702,
      "ople": 703,
      "▁end": 704,
      "you": 705,
      "▁clean": 706,
      "▁tal": 707,
      "\n\n": 708,
      "udden": 709,
      "▁mag": 710,
      "▁fore": 711,
      "▁hard": 712,
      "▁over": 713,
      "rm": 714,
      "▁cake": 715,
      "ak": 716,
      "▁turn": 717,
      "▁fam": 718,
      "ady": 719,
      "▁book": 720,
      "uddenly": 721,
      "▁safe": 722,
      "▁bad": 723,
      "pected": 724,
      "Sara": 725,
      "bb": 726,
      "▁hurt": 727,
      "▁proud": 728,
      "imb": 729,
      "▁people": 730,
      "▁surprised": 731,
      "arden": 732,
      "▁high": 733,
      "▁door": 734,
      "▁garden": 735,
      "▁ground": 736,
      "be": 737,
      "▁cu": 738,
      "▁after": 739,
      "▁opened": 740,
      "▁picked": 741,
      "expected": 742,
      "▁climb": 743,
      "▁don": 744,
      "ild": 745,
      "What": 746,
      "▁unexpected": 747,
      "▁loud": 748,
      "lor": 749,
      "▁way": 750,
      "▁gl": 751,
      "ail": 752,
      "said": 753,
      "▁che": 754,
      "▁im": 755,
      "▁thanked": 756,
      "▁ever": 757,
      "▁give": 758,
      "▁hugged": 759,
      "ip": 760,
      "wh": 761,
      "▁call": 762,
      "No": 763,
      "▁still": 764,
      "ough": 765,
      "iz": 766,
      "▁off": 767,
      "age": 768,
      "▁far": 769,
      "ummy": 770,
      "▁magic": 771,
      "something": 772,
      "▁should": 773,
      "ool": 774,
      "▁family": 775,
      "▁shiny": 776,
      "▁par": 777,
      "▁color": 778,
      "▁B": 779,
      "▁smile": 780,
      "uff": 781,
      "▁place": 782,
      "kay": 783,
      "em": 784,
      "▁come": 785,
      "▁Mia": 786,
      "▁walk": 787,
      "ct": 788,
      "▁great": 789,
      "▁jumped": 790,
      "ture": 791,
      "Suddenly": 792,
      "les": 793,
      "▁blue": 794,
      "aut": 795,
      "▁sto": 796,
      "▁forest": 797,
      "▁stay": 798,
      "▁qu": 799,
      "▁now": 800,
      "itty": 801,
      "ane": 802,
      "ntil": 803,
      "Do": 804,
      "▁even": 805,
      "dy": 806,
      "▁bro": 807,
      "▁bra": 808,
      "unny": 809,
      "ids": 810,
      "lease": 811,
      "This": 812,
      "▁frog": 813,
      "we": 814,
      "Kitty": 815,
      "xt": 816,
      "▁next": 817,
      "▁boat": 818,
      "ning": 819,
      "▁stick": 820,
      "After": 821,
      "auti": 822,
      "oy": 823,
      "aking": 824,
      "▁happily": 825,
      "▁M": 826,
      "ies": 827,
      "▁squ": 828,
      "▁strong": 829,
      "autiful": 830,
      "▁helped": 831,
      "▁app": 832,
      "▁listen": 833,
      "▁showed": 834,
      "rel": 835,
      "▁story": 836,
      "▁clos": 837,
      "▁dra": 838,
      "let": 839,
      "▁town": 840,
      "az": 841,
      "ress": 842,
      "At": 843,
      "▁imp": 844,
      "pt": 845,
      "ree": 846,
      "▁picture": 847,
      "▁rain": 848,
      "hes": 849,
      "▁beautiful": 850,
      "ary": 851,
      "▁mor": 852,
      "▁until": 853,
      "▁rem": 854,
      "▁called": 855,
      "▁met": 856,
      "▁stopped": 857,
      "▁hat": 858,
      "▁game": 859,
      "Now": 860,
      "▁being": 861,
      "▁Bob": 862,
      "Fin": 863,
      "▁ad": 864,
      "▁Lucy": 865,
      "ger": 866,
      "uffy": 867,
      "by": 868,
      "▁kids": 869,
      "▁angry": 870,
      "▁truck": 871,
      "▁keep": 872,
      "▁bed": 873,
      "▁wo": 874,
      "▁cry": 875,
      "▁open": 876,
      "vent": 877,
      "▁lost": 878,
      "▁everyone": 879,
      "▁brave": 880,
      "▁mouse": 881,
      "fore": 882,
      "ished": 883,
      "▁tra": 884,
      "▁couldn": 885,
      "Fl": 886,
      "ear": 887,
      "dded": 888,
      "▁fell": 889,
      "▁also": 890,
      "llo": 891,
      "▁face": 892,
      "▁leave": 893,
      "▁warm": 894,
      "▁ate": 895,
      "gan": 896,
      "Look": 897,
      "ble": 898,
      "iss": 899,
      "▁yummy": 900,
      "▁doll": 901,
      "▁noise": 902,
      "sh": 903,
      "▁watch": 904,
      "irst": 905,
      "owl": 906,
      "air": 907,
      "▁D": 908,
      "bit": 909,
      "ock": 910,
      "abbit": 911,
      "self": 912,
      "▁soon": 913,
      "Hi": 914,
      "Fluffy": 915,
      "▁hole": 916,
      "irrel": 917,
      "oon": 918,
      "illy": 919,
      "▁flowers": 920,
      "▁sat": 921,
      "▁rabbit": 922,
      "▁de": 923,
      "▁hear": 924,
      "▁kept": 925,
      "ppy": 926,
      "ired": 927,
      "▁before": 928,
      "▁slide": 929,
      "ma": 930,
      "▁use": 931,
      "▁nodded": 932,
      "▁soft": 933,
      "▁store": 934,
      "▁hands": 935,
      "ike": 936,
      "Jo": 937,
      "▁squirrel": 938,
      "▁cook": 939,
      "▁pain": 940,
      "▁expl": 941,
      "Don": 942,
      "day": 943,
      "▁going": 944,
      "uch": 945,
      "aybe": 946,
      "▁pus": 947,
      "aught": 948,
      "▁birds": 949,
      "▁ey": 950,
      "thing": 951,
      "▁Mom": 952,
      "!\n": 953,
      "▁catch": 954,
      "uit": 955,
      "leep": 956,
      "▁two": 957,
      "▁think": 958,
      "▁fin": 959,
      "▁fix": 960,
      "ac": 961,
      "▁funny": 962,
      "▁sing": 963,
      "▁bre": 964,
      "▁used": 965,
      "ange": 966,
      "▁work": 967,
      "co": 968,
      "▁bunny": 969,
      "▁wr": 970,
      "▁tired": 971,
      "▁kit": 972,
      "▁has": 973,
      "ting": 974,
      "▁green": 975,
      "ember": 976,
      "Why": 977,
      "▁pond": 978,
      "▁pull": 979,
      "▁let": 980,
      "▁jo": 981,
      "led": 982,
      "▁thr": 983,
      "▁others": 984,
      "▁sound": 985,
      "▁dr": 986,
      "chen": 987,
      "▁kitchen": 988,
      "▁our": 989,
      "▁talk": 990,
      "▁flo": 991,
      "▁where": 992,
      "▁ask": 993,
      "▁sunny": 994,
      "▁dif": 995,
      "rew": 996,
      "▁pie": 997,
      "▁head": 998,
      "Hello": 999,
      "▁wait": 1000,
      "▁tri": 1001,
      "▁first": 1002,
      "ng": 1003,
      "▁real": 1004,
      "▁having": 1005,
      "▁fav": 1006,
      "▁eyes": 1007,
      "▁import": 1008,
      "ath": 1009,
      "joy": 1010,
      "▁party": 1011,
      "▁yell": 1012,
      "▁flower": 1013,
      "▁vo": 1014,
      "▁mess": 1015,
      "orn": 1016,
      "▁con": 1017,
      "▁beh": 1018,
      "▁sand": 1019,
      "▁race": 1020,
      "imes": 1021,
      "▁remember": 1022,
      "▁right": 1023,
      "▁moral": 1024,
      "▁mean": 1025,
      "▁important": 1026,
      "▁cold": 1027,
      "ious": 1028,
      "▁shared": 1029,
      "rious": 1030,
      "ount": 1031,
      "▁bus": 1032,
      "▁worked": 1033,
      "▁advent": 1034,
      "▁ice": 1035,
      "▁z": 1036,
      "llow": 1037,
      "▁dress": 1038,
      "▁duck": 1039,
      "▁own": 1040,
      "▁mommy": 1041,
      "▁curious": 1042,
      "reed": 1043,
      "where": 1044,
      "ass": 1045,
      "hn": 1046,
      "▁favor": 1047,
      "Wow": 1048,
      "▁cra": 1049,
      "▁favorite": 1050,
      "▁thing": 1051,
      "▁cr": 1052,
      "▁began": 1053,
      "▁bag": 1054,
      "▁hid": 1055,
      "▁dir": 1056,
      "▁hill": 1057,
      "▁sleep": 1058,
      "▁rest": 1059,
      "▁ri": 1060,
      "▁yard": 1061,
      "▁draw": 1062,
      "▁dis": 1063,
      "▁enjoy": 1064,
      "▁bright": 1065,
      "ster": 1066,
      "que": 1067,
      "▁mon": 1068,
      "Sally": 1069,
      "▁tall": 1070,
      "▁move": 1071,
      "▁bel": 1072,
      "▁watched": 1073,
      "▁tell": 1074,
      "ect": 1075,
      "▁night": 1076,
      "▁here": 1077,
      "▁okay": 1078,
      "aper": 1079,
      "lly": 1080,
      "▁agreed": 1081,
      "ied": 1082,
      "▁follow": 1083,
      "▁hun": 1084,
      "▁hop": 1085,
      "▁cut": 1086,
      "red": 1087,
      "Maybe": 1088,
      "▁block": 1089,
      "▁worry": 1090,
      "▁grass": 1091,
      "▁pick": 1092,
      "▁table": 1093,
      "▁voice": 1094,
      "▁hot": 1095,
      "fere": 1096,
      "▁floor": 1097,
      "▁sho": 1098,
      "▁surprise": 1099,
      "▁top": 1100,
      "▁L": 1101,
      "▁differe": 1102,
      "▁farm": 1103,
      "▁song": 1104,
      "▁tail": 1105,
      "▁walking": 1106,
      "▁lion": 1107,
      "aw": 1108,
      "▁looking": 1109,
      "▁while": 1110,
      "▁ru": 1111,
      "▁colors": 1112,
      "▁forg": 1113,
      "isy": 1114,
      "▁closer": 1115,
      "ign": 1116,
      "▁swe": 1117,
      "▁butter": 1118,
      "▁trees": 1119,
      "▁read": 1120,
      "▁lady": 1121,
      "aring": 1122,
      "▁needed": 1123,
      "▁turned": 1124,
      "bo": 1125,
      "▁wood": 1126,
      "▁leaves": 1127,
      "▁Amy": 1128,
      "▁shout": 1129,
      "▁different": 1130,
      "▁behind": 1131,
      "can": 1132,
      "Jack": 1133,
      "▁piece": 1134,
      "ered": 1135,
      "▁laugh": 1136,
      "ometimes": 1137,
      "▁adventure": 1138,
      "▁tast": 1139,
      "▁does": 1140,
      "▁fire": 1141,
      "▁dark": 1142,
      "▁cried": 1143,
      "▁del": 1144,
      "▁hungry": 1145,
      "▁paper": 1146,
      "▁touch": 1147,
      "▁cars": 1148,
      "▁roll": 1149,
      "▁T": 1150,
      "▁prin": 1151,
      "ken": 1152,
      "▁stop": 1153,
      "oom": 1154,
      "ater": 1155,
      "▁full": 1156,
      "▁per": 1157,
      "ached": 1158,
      "All": 1159,
      "bye": 1160,
      "ient": 1161,
      "apped": 1162,
      "▁broken": 1163,
      "▁wet": 1164,
      "▁fruit": 1165,
      "zy": 1166,
      "▁hair": 1167,
      "▁prom": 1168,
      "▁pu": 1169,
      "▁listened": 1170,
      "▁climbed": 1171,
      "▁swing": 1172,
      "▁dance": 1173,
      "▁light": 1174,
      "please": 1175,
      "▁gone": 1176,
      "▁danc": 1177,
      "bbed": 1178,
      "▁plan": 1179,
      "▁another": 1180,
      "ila": 1181,
      "av": 1182,
      "There": 1183,
      "▁only": 1184,
      "▁swim": 1185,
      "andma": 1186,
      "mom": 1187,
      "▁Anna": 1188,
      "▁pretend": 1189,
      "▁close": 1190,
      "aby": 1191,
      "▁train": 1192,
      "Everyone": 1193,
      "John": 1194,
      "▁sees": 1195,
      "▁sweet": 1196,
      "▁reached": 1197,
      "▁smell": 1198,
      "▁wall": 1199,
      "▁amaz": 1200,
      "oney": 1201,
      "▁blocks": 1202,
      "▁yellow": 1203,
      "▁wonder": 1204,
      "▁ready": 1205,
      "▁cream": 1206,
      "ee": 1207,
      "Mommy": 1208,
      "af": 1209,
      "▁less": 1210,
      "▁dri": 1211,
      "▁been": 1212,
      "▁butterf": 1213,
      "▁goodbye": 1214,
      "▁glad": 1215,
      "▁cool": 1216,
      "▁pushed": 1217,
      "ather": 1218,
      "▁ant": 1219,
      "▁fight": 1220,
      "▁ac": 1221,
      "▁helping": 1222,
      "iced": 1223,
      "up": 1224,
      "▁running": 1225,
      "▁repl": 1226,
      "▁slow": 1227,
      "▁making": 1228,
      "Just": 1229,
      "▁must": 1230,
      "cked": 1231,
      "▁fair": 1232,
      "▁moment": 1233,
      "To": 1234,
      "▁window": 1235,
      "▁hide": 1236,
      "▁ar": 1237,
      "Soon": 1238,
      "▁explore": 1239,
      "come": 1240,
      "▁wished": 1241,
      "▁sit": 1242,
      "▁done": 1243,
      "▁buy": 1244,
      "▁balloon": 1245,
      "▁snow": 1246,
      "▁stuck": 1247,
      "icy": 1248,
      "▁perf": 1249,
      "▁name": 1250,
      "ized": 1251,
      "▁bit": 1252,
      "▁ste": 1253,
      "▁apple": 1254,
      "▁might": 1255,
      "sc": 1256,
      "ash": 1257,
      "▁baby": 1258,
      "▁fall": 1259,
      "▁bar": 1260,
      "▁quick": 1261,
      "▁looks": 1262,
      "pe": 1263,
      "▁coming": 1264,
      "▁wag": 1265,
      "aisy": 1266,
      "▁build": 1267,
      "▁doing": 1268,
      "▁din": 1269,
      "▁win": 1270,
      "▁held": 1271,
      "ames": 1272,
      "▁underst": 1273,
      "▁child": 1274,
      "▁mar": 1275,
      "▁dirty": 1276,
      "avy": 1277,
      "ott": 1278,
      "▁air": 1279,
      "key": 1280,
      "▁count": 1281,
      "ask": 1282,
      "▁bran": 1283,
      "▁tiny": 1284,
      "▁through": 1285,
      "▁land": 1286,
      "▁butterfly": 1287,
      "▁Sara": 1288,
      "▁reach": 1289,
      "▁treat": 1290,
      "ins": 1291,
      "▁left": 1292,
      "▁pulled": 1293,
      "ix": 1294,
      "▁dro": 1295,
      "▁woods": 1296,
      "▁friendly": 1297,
      "▁grow": 1298,
      "▁seen": 1299,
      "▁chair": 1300,
      "ely": 1301,
      "▁brother": 1302,
      "▁mat": 1303,
      "andy": 1304,
      "▁clapped": 1305,
      "ield": 1306,
      "▁sure": 1307,
      "▁owl": 1308,
      "cle": 1309,
      "▁cup": 1310,
      "▁shouted": 1311,
      "▁wise": 1312,
      "Okay": 1313,
      "outh": 1314,
      "▁swam": 1315,
      "▁plant": 1316,
      "Inside": 1317,
      "▁job": 1318,
      "▁replied": 1319,
      "▁remembered": 1320,
      "▁cloud": 1321,
      "▁nest": 1322,
      "art": 1323,
      "▁mouth": 1324,
      "de": 1325,
      "▁spl": 1326,
      "room": 1327,
      "▁lesson": 1328,
      "oup": 1329,
      "▁bigger": 1330,
      "Oh": 1331,
      "uddy": 1332,
      "▁dream": 1333,
      "ha": 1334,
      "▁join": 1335,
      "▁fill": 1336,
      "ower": 1337,
      "▁stayed": 1338,
      "▁cre": 1339,
      "▁waved": 1340,
      "othes": 1341,
      "▁Sally": 1342,
      "Lila": 1343,
      "▁pink": 1344,
      "▁paint": 1345,
      "▁cont": 1346,
      "▁hold": 1347,
      "▁waited": 1348,
      "look": 1349,
      "▁quickly": 1350,
      "▁word": 1351,
      "man": 1352,
      "▁grabbed": 1353,
      "ucky": 1354,
      "▁broke": 1355,
      "▁ve": 1356,
      "▁blew": 1357,
      "▁cast": 1358,
      "Finally": 1359,
      "his": 1360,
      "While": 1361,
      "▁games": 1362,
      "▁sometimes": 1363,
      "▁enjoyed": 1364,
      "ation": 1365,
      "ries": 1366,
      "▁noticed": 1367,
      "▁clothes": 1368,
      "▁likes": 1369,
      "▁gent": 1370,
      "while": 1371,
      "▁pictures": 1372,
      "▁sea": 1373,
      "Bobo": 1374,
      "▁R": 1375,
      "▁gif": 1376,
      "asure": 1377,
      "▁alone": 1378,
      "▁spot": 1379,
      "▁world": 1380,
      "▁turns": 1381,
      "▁Dad": 1382,
      "▁miss": 1383,
      "der": 1384,
      "▁hopped": 1385,
      "orm": 1386,
      "▁anything": 1387,
      "▁bott": 1388,
      "▁pen": 1389,
      "▁pot": 1390,
      "▁pat": 1391,
      "row": 1392,
      "▁arm": 1393,
      "▁mix": 1394,
      "▁trying": 1395,
      "▁bike": 1396,
      "▁tight": 1397,
      "▁scary": 1398,
      "▁everywhere": 1399,
      "▁won": 1400,
      "▁tower": 1401,
      "▁himself": 1402,
      "Please": 1403,
      "▁C": 1404,
      "▁books": 1405,
      "ons": 1406,
      "▁three": 1407,
      "▁followed": 1408,
      "lue": 1409,
      "▁ride": 1410,
      "▁set": 1411,
      "▁threw": 1412,
      "less": 1413,
      "amp": 1414,
      "ale": 1415,
      "▁P": 1416,
      "ape": 1417,
      "▁key": 1418,
      "▁comp": 1419,
      "little": 1420,
      "▁wrong": 1421,
      "▁heavy": 1422,
      "ctor": 1423,
      "Timmy": 1424,
      "▁makes": 1425,
      "▁feeling": 1426,
      "Em": 1427,
      "eddy": 1428,
      "ner": 1429,
      "▁break": 1430,
      "thy": 1431,
      "arent": 1432,
      "Jane": 1433,
      "sic": 1434,
      "▁thank": 1435,
      "▁music": 1436,
      "olly": 1437,
      "ued": 1438,
      "cess": 1439,
      "▁forgot": 1440,
      "▁castle": 1441,
      "▁pol": 1442,
      "ves": 1443,
      "▁parent": 1444,
      "▁ju": 1445,
      "iet": 1446,
      "▁Fluffy": 1447,
      "ang": 1448,
      "▁bee": 1449,
      "▁wear": 1450,
      "▁Kitty": 1451,
      "▁colorful": 1452,
      "▁hit": 1453,
      "oun": 1454,
      "ister": 1455,
      "▁delic": 1456,
      "▁deep": 1457,
      "full": 1458,
      "▁em": 1459,
      "not": 1460,
      "ance": 1461,
      "▁wants": 1462,
      "me": 1463,
      "rot": 1464,
      "▁vis": 1465,
      "▁leaf": 1466,
      "▁nap": 1467,
      "▁quiet": 1468,
      "▁danced": 1469,
      "▁bowl": 1470,
      "▁black": 1471,
      "▁white": 1472,
      "▁monster": 1473,
      "ren": 1474,
      "itten": 1475,
      "that": 1476,
      "▁talked": 1477,
      "Come": 1478,
      "▁bor": 1479,
      "▁understand": 1480,
      "▁brought": 1481,
      "fully": 1482,
      "ross": 1483,
      "▁leg": 1484,
      "zz": 1485,
      "Gr": 1486,
      "▁cookies": 1487,
      "Be": 1488,
      "cy": 1489,
      "▁sign": 1490,
      "▁faster": 1491,
      "▁Jack": 1492,
      "▁smart": 1493,
      "▁side": 1494,
      "Mr": 1495,
      "ph": 1496,
      "▁fur": 1497,
      "▁dry": 1498,
      "▁well": 1499,
      "▁finished": 1500,
      "▁happen": 1501,
      "▁branch": 1502,
      "▁sec": 1503,
      "▁Jo": 1504,
      "▁mum": 1505,
      "ards": 1506,
      "ence": 1507,
      "▁butt": 1508,
      "Dad": 1509,
      "▁dinner": 1510,
      "▁fox": 1511,
      "▁sister": 1512,
      "▁really": 1513,
      "▁contin": 1514,
      "▁someone": 1515,
      "▁rocks": 1516,
      "ts": 1517,
      "▁beach": 1518,
      "▁visit": 1519,
      "▁el": 1520,
      "▁rel": 1521,
      "▁worried": 1522,
      "leph": 1523,
      "▁secret": 1524,
      "▁que": 1525,
      "gy": 1526,
      "happy": 1527,
      "▁king": 1528,
      "▁river": 1529,
      "▁int": 1530,
      "▁perfect": 1531,
      "ipp": 1532,
      "app": 1533,
      "▁today": 1534,
      "▁field": 1535,
      "▁flying": 1536,
      "▁else": 1537,
      "ze": 1538,
      "▁sharing": 1539,
      "▁smiles": 1540,
      "OK": 1541,
      "▁gu": 1542,
      "▁shin": 1543,
      "ord": 1544,
      "▁wish": 1545,
      "▁pieces": 1546,
      "▁promised": 1547,
      "▁pudd": 1548,
      "▁realized": 1549,
      "▁snack": 1550,
      "▁wel": 1551,
      "▁danger": 1552,
      "▁continued": 1553,
      "▁filled": 1554,
      "ste": 1555,
      "▁free": 1556,
      "▁bite": 1557,
      "ey": 1558,
      "itting": 1559,
      "ated": 1560,
      "▁silly": 1561,
      "▁parents": 1562,
      "▁Mr": 1563,
      "▁sang": 1564,
      "▁everything": 1565,
      "▁spr": 1566,
      "▁ear": 1567,
      "arm": 1568,
      "▁jar": 1569,
      "▁carefully": 1570,
      "stead": 1571,
      "▁blank": 1572,
      "br": 1573,
      "▁year": 1574,
      "cket": 1575,
      "▁mud": 1576,
      "▁enough": 1577,
      "▁soup": 1578,
      "▁blanket": 1579,
      "▁why": 1580,
      "▁drag": 1581,
      "imi": 1582,
      "▁cow": 1583,
      "▁eating": 1584,
      "ire": 1585,
      "▁rolled": 1586,
      "even": 1587,
      "iant": 1588,
      "ses": 1589,
      "My": 1590,
      "▁sail": 1591,
      "urple": 1592,
      "▁drink": 1593,
      "sw": 1594,
      "▁pet": 1595,
      "▁children": 1596,
      "set": 1597,
      "▁words": 1598,
      "ich": 1599,
      "▁snake": 1600,
      "▁bath": 1601,
      "when": 1602,
      "▁bottle": 1603,
      "▁crying": 1604,
      "▁fairy": 1605,
      "▁gift": 1606,
      "used": 1607,
      "▁amazing": 1608,
      "iver": 1609,
      "fort": 1610,
      "▁crab": 1611,
      "▁money": 1612,
      "▁pig": 1613,
      "unch": 1614,
      "chool": 1615,
      "▁barked": 1616,
      "▁wagged": 1617,
      "ises": 1618,
      "▁moved": 1619,
      ".\"\n\"": 1620,
      "Tommy": 1621,
      "▁mail": 1622,
      "▁asks": 1623,
      "▁past": 1624,
      "▁without": 1625,
      "gg": 1626,
      "▁throw": 1627,
      "fish": 1628,
      "▁morning": 1629,
      "▁lon": 1630,
      "▁school": 1631,
      "▁whe": 1632,
      "▁owner": 1633,
      "ush": 1634,
      "▁treasure": 1635,
      "▁closed": 1636,
      "ub": 1637,
      "▁orange": 1638,
      "▁att": 1639,
      "▁doctor": 1640,
      "▁lonely": 1641,
      "▁candy": 1642,
      "▁welcome": 1643,
      "vel": 1644,
      "▁mother": 1645,
      "▁purple": 1646,
      "▁living": 1647,
      "ased": 1648,
      "▁shop": 1649,
      "▁strange": 1650,
      "▁yes": 1651,
      "▁road": 1652,
      "▁paw": 1653,
      "ere": 1654,
      "una": 1655,
      "▁getting": 1656,
      "what": 1657,
      "ible": 1658,
      "▁boun": 1659,
      "▁stre": 1660,
      "▁pre": 1661,
      "who": 1662,
      "▁poin": 1663,
      "althy": 1664,
      "▁monkey": 1665,
      "▁smo": 1666,
      "▁creat": 1667,
      "▁apples": 1668,
      "▁shining": 1669,
      "▁caught": 1670,
      "▁dangerous": 1671,
      "▁runs": 1672,
      "▁buck": 1673,
      "igh": 1674,
      "▁lake": 1675,
      "▁letter": 1676,
      "▁shoes": 1677,
      "▁ra": 1678,
      "▁higher": 1679,
      "▁wings": 1680,
      "▁mad": 1681,
      "asket": 1682,
      "\".": 1683,
      "▁basket": 1684,
      "▁pass": 1685,
      "ball": 1686,
      "▁sitting": 1687,
      "▁stone": 1688,
      "▁thinks": 1689,
      "board": 1690,
      "▁grandma": 1691,
      "ubb": 1692,
      "St": 1693,
      "▁fan": 1694,
      "▁puddle": 1695,
      "▁same": 1696,
      "▁belie": 1697,
      "Emma": 1698,
      "▁brown": 1699,
      "▁nose": 1700,
      "▁dragon": 1701,
      "▁egg": 1702,
      "old": 1703,
      "isk": 1704,
      "itch": 1705,
      "▁farmer": 1706,
      "ches": 1707,
      "▁bat": 1708,
      "Good": 1709,
      "▁coat": 1710,
      "▁button": 1711,
      "▁res": 1712,
      "▁tom": 1713,
      "▁stand": 1714,
      "▁days": 1715,
      "Together": 1716,
      "▁start": 1717,
      "▁chee": 1718,
      "▁cho": 1719,
      "▁teddy": 1720,
      "igg": 1721,
      "▁whist": 1722,
      "▁kite": 1723,
      "▁bring": 1724,
      "ier": 1725,
      "▁delicious": 1726,
      "▁finally": 1727,
      "▁fit": 1728,
      "▁talking": 1729,
      "lephant": 1730,
      "▁scream": 1731,
      "▁gentle": 1732,
      "ined": 1733,
      "sy": 1734,
      "▁pill": 1735,
      "▁vill": 1736,
      "▁ph": 1737,
      "ella": 1738,
      "▁ben": 1739,
      "▁hoped": 1740,
      "▁herself": 1741,
      "▁sear": 1742,
      "▁cray": 1743,
      "▁wore": 1744,
      "▁trou": 1745,
      "came": 1746,
      "▁mine": 1747,
      "▁shell": 1748,
      "Re": 1749,
      "▁belong": 1750,
      "▁push": 1751,
      "Daisy": 1752,
      "▁answ": 1753,
      "bow": 1754,
      "▁bush": 1755,
      "iskers": 1756,
      "▁arri": 1757,
      "▁swings": 1758,
      "ract": 1759,
      "aughty": 1760,
      "Buddy": 1761,
      "▁teach": 1762,
      "▁dropped": 1763,
      "Whiskers": 1764,
      "▁hor": 1765,
      "▁woke": 1766,
      "▁naughty": 1767,
      "▁pile": 1768,
      "apes": 1769,
      "▁sack": 1770,
      "▁round": 1771,
      "▁carrot": 1772,
      "▁cour": 1773,
      "reen": 1774,
      "Their": 1775,
      "▁coll": 1776,
      "ama": 1777,
      "llie": 1778,
      "isa": 1779,
      "erry": 1780,
      "If": 1781,
      "ost": 1782,
      "▁touc": 1783,
      "fl": 1784,
      "▁seem": 1785,
      "▁singing": 1786,
      "▁tasty": 1787,
      "▁twins": 1788,
      "▁bow": 1789,
      "▁Jane": 1790,
      "▁hiding": 1791,
      "▁teac": 1792,
      "▁Timmy": 1793,
      "▁course": 1794,
      "▁min": 1795,
      "Grandma": 1796,
      "▁rope": 1797,
      "▁lunch": 1798,
      "▁grew": 1799,
      "▁puppy": 1800,
      "fused": 1801,
      "▁cheered": 1802,
      "irth": 1803,
      "▁village": 1804,
      "ipped": 1805,
      "irthday": 1806,
      "▁pers": 1807,
      "▁elephant": 1808,
      "▁shapes": 1809,
      "▁juice": 1810,
      "▁rainbow": 1811,
      "▁street": 1812,
      "▁bench": 1813,
      "col": 1814,
      "▁shook": 1815,
      "▁fence": 1816,
      "▁prob": 1817,
      "▁spoon": 1818,
      "idge": 1819,
      "▁nut": 1820,
      "▁touched": 1821,
      "▁joy": 1822,
      "like": 1823,
      "lem": 1824,
      "for": 1825,
      "owing": 1826,
      "▁arrived": 1827,
      "asked": 1828,
      "▁able": 1829,
      "▁few": 1830,
      "▁\n\"": 1831,
      "▁corn": 1832,
      "▁seed": 1833,
      "▁plane": 1834,
      "Sarah": 1835,
      "▁spin": 1836,
      "lla": 1837,
      "▁bell": 1838,
      "▁war": 1839,
      "▁problem": 1840,
      "ecause": 1841,
      "▁forever": 1842,
      "umb": 1843,
      "▁most": 1844,
      "▁birthday": 1845,
      "ilk": 1846,
      "▁eas": 1847,
      "▁rob": 1848,
      "How": 1849,
      "▁sounds": 1850,
      "read": 1851,
      "cks": 1852,
      "Billy": 1853,
      "▁wonderful": 1854,
      "irp": 1855,
      "▁years": 1856,
      "▁des": 1857,
      "▁spo": 1858,
      "ato": 1859,
      "▁feels": 1860,
      "▁busy": 1861,
      "eter": 1862,
      "▁teacher": 1863,
      "ian": 1864,
      "▁promise": 1865,
      "▁cute": 1866,
      "ountain": 1867,
      "irt": 1868,
      "oggy": 1869,
      "this": 1870,
      "?\"\n\"": 1871,
      "▁wra": 1872,
      "▁rec": 1873,
      "▁carry": 1874,
      "▁band": 1875,
      "▁cheese": 1876,
      "▁cave": 1877,
      "▁heart": 1878,
      "▁power": 1879,
      "▁Bobo": 1880,
      "▁neck": 1881,
      "▁pocket": 1882,
      "▁bugs": 1883,
      "▁shy": 1884,
      "▁kiss": 1885,
      "ove": 1886,
      "▁inc": 1887,
      "eared": 1888,
      "▁believe": 1889,
      "Fred": 1890,
      "umpy": 1891,
      "arp": 1892,
      "▁bread": 1893,
      "▁je": 1894,
      "▁robot": 1895,
      "▁helpful": 1896,
      "▁shake": 1897,
      "▁storm": 1898,
      "just": 1899,
      "▁live": 1900,
      "▁slowly": 1901,
      "▁patient": 1902,
      "▁ob": 1903,
      "▁towards": 1904,
      "▁pop": 1905,
      "▁upset": 1906,
      "▁milk": 1907,
      "urtle": 1908,
      "Sure": 1909,
      "▁stories": 1910,
      "adow": 1911,
      "▁kitten": 1912,
      "no": 1913,
      "▁suc": 1914,
      "▁noises": 1915,
      "Later": 1916,
      "▁cover": 1917,
      "▁disapp": 1918,
      "▁late": 1919,
      "eling": 1920,
      "▁shr": 1921,
      "Go": 1922,
      "▁dirt": 1923,
      "▁seat": 1924,
      "▁cir": 1925,
      "ars": 1926,
      "▁dist": 1927,
      "alm": 1928,
      "eo": 1929,
      "▁bucket": 1930,
      "▁driver": 1931,
      "ol": 1932,
      "▁sharp": 1933,
      "Joe": 1934,
      "▁note": 1935,
      "ider": 1936,
      "Jim": 1937,
      "▁treats": 1938,
      "▁meet": 1939,
      "▁turtle": 1940,
      "fortable": 1941,
      "▁spark": 1942,
      "ator": 1943,
      "▁seek": 1944,
      "ever": 1945,
      "▁lem": 1946,
      "umber": 1947,
      "▁trip": 1948,
      "ourn": 1949,
      "▁mist": 1950,
      "▁journ": 1951,
      "os": 1952,
      "unt": 1953,
      "▁mark": 1954,
      "do": 1955,
      "▁sandw": 1956,
      "feeling": 1957,
      "▁balls": 1958,
      "▁magical": 1959,
      "▁amazed": 1960,
      "▁part": 1961,
      "▁dolls": 1962,
      "sp": 1963,
      "▁mach": 1964,
      "▁gray": 1965,
      "oose": 1966,
      "ling": 1967,
      "▁fold": 1968,
      "▁cookie": 1969,
      "ens": 1970,
      "ung": 1971,
      "▁hugs": 1972,
      "▁young": 1973,
      "gly": 1974,
      "▁Fin": 1975,
      "▁puzz": 1976,
      "iling": 1977,
      "epend": 1978,
      "▁wheel": 1979,
      "▁net": 1980,
      "Of": 1981,
      "▁cloth": 1982,
      "▁horse": 1983,
      "▁organ": 1984,
      "▁drove": 1985,
      "▁bubb": 1986,
      "▁string": 1987,
      "▁princess": 1988,
      "▁coin": 1989,
      "▁ugly": 1990,
      "ors": 1991,
      "▁wild": 1992,
      "▁bone": 1993,
      "▁huge": 1994,
      "Hey": 1995,
      "amed": 1996,
      "▁rude": 1997,
      "▁lucky": 1998,
      "▁fighting": 1999,
      "pper": 2000,
      "▁craw": 2001,
      "▁inv": 2002,
      "▁whistle": 2003,
      "▁path": 2004,
      "▁card": 2005,
      "▁sick": 2006,
      "▁cannot": 2007,
      "too": 2008,
      "kn": 2009,
      "▁di": 2010,
      "▁spicy": 2011,
      "▁splas": 2012,
      "▁cou": 2013,
      "weet": 2014,
      "▁sal": 2015,
      "making": 2016,
      "ize": 2017,
      "▁forget": 2018,
      "▁foot": 2019,
      "▁songs": 2020,
      "shiny": 2021,
      "▁pillow": 2022,
      "With": 2023,
      "▁life": 2024,
      "looking": 2025,
      "ert": 2026,
      "oph": 2027,
      "rill": 2028,
      "▁fixed": 2029,
      "est": 2030,
      "elly": 2031,
      "▁stars": 2032,
      "Mimi": 2033,
      "▁snowman": 2034,
      "▁spider": 2035,
      "▁ca": 2036,
      "▁last": 2037,
      "ular": 2038,
      "▁zoom": 2039,
      "▁nod": 2040,
      "▁hel": 2041,
      "▁giant": 2042,
      "den": 2043,
      "▁comes": 2044,
      "Molly": 2045,
      "▁joke": 2046,
      "▁taste": 2047,
      "▁wave": 2048,
      "▁drive": 2049,
      "ugg": 2050,
      "▁grumpy": 2051,
      "▁machine": 2052,
      "hirp": 2053,
      "▁instead": 2054,
      "▁ash": 2055,
      "ery": 2056,
      "▁moon": 2057,
      "enny": 2058,
      "▁shelf": 2059,
      "▁grab": 2060,
      "erest": 2061,
      "▁landed": 2062,
      "because": 2063,
      "▁boss": 2064,
      "iting": 2065,
      "oop": 2066,
      "▁sel": 2067,
      "▁write": 2068,
      "▁peace": 2069,
      "ope": 2070,
      "▁ser": 2071,
      "ity": 2072,
      "▁change": 2073,
      "▁wasn": 2074,
      "▁val": 2075,
      "▁rad": 2076,
      "▁oven": 2077,
      "▁adventures": 2078,
      "▁hidden": 2079,
      "▁takes": 2080,
      "▁chased": 2081,
      "▁missed": 2082,
      "▁stepped": 2083,
      "▁sug": 2084,
      "▁worm": 2085,
      "kin": 2086,
      "jump": 2087,
      "ose": 2088,
      "ife": 2089,
      "▁Buddy": 2090,
      "▁myster": 2091,
      "▁confused": 2092,
      "box": 2093,
      "▁selfish": 2094,
      "▁Daisy": 2095,
      "▁across": 2096,
      "▁interest": 2097,
      "▁ring": 2098,
      "▁later": 2099,
      "▁ce": 2100,
      "▁wide": 2101,
      "pect": 2102,
      "hirpy": 2103,
      "▁fruits": 2104,
      "▁E": 2105,
      "Ollie": 2106,
      "▁tie": 2107,
      "▁tea": 2108,
      "▁bought": 2109,
      "▁sour": 2110,
      "▁honey": 2111,
      "▁drew": 2112,
      "▁beak": 2113,
      "▁ent": 2114,
      "▁bark": 2115,
      "▁fle": 2116,
      "▁jog": 2117,
      "▁lay": 2118,
      "ateful": 2119,
      "▁wash": 2120,
      "▁smooth": 2121,
      "pty": 2122,
      "▁sheep": 2123,
      "▁legs": 2124,
      "▁Mommy": 2125,
      "▁Sarah": 2126,
      "with": 2127,
      "ions": 2128,
      "mer": 2129,
      "▁phone": 2130,
      "▁pour": 2131,
      "▁step": 2132,
      "▁hope": 2133,
      "eth": 2134,
      "▁fing": 2135,
      "▁zoo": 2136,
      "▁messy": 2137,
      "▁pan": 2138,
      "▁drum": 2139,
      "Help": 2140,
      "▁lemon": 2141,
      "▁feather": 2142,
      "▁spe": 2143,
      "anan": 2144,
      "▁suddenly": 2145,
      "izzy": 2146,
      "▁save": 2147,
      "▁clever": 2148,
      "izz": 2149,
      "▁ducks": 2150,
      "▁sticks": 2151,
      "▁med": 2152,
      "▁grateful": 2153,
      "▁daddy": 2154,
      "yard": 2155,
      "▁plate": 2156,
      "Remy": 2157,
      "▁taking": 2158,
      "▁line": 2159,
      "Where": 2160,
      "▁sleepy": 2161,
      "▁backyard": 2162,
      "friend": 2163,
      "▁faces": 2164,
      "▁fil": 2165,
      "ont": 2166,
      "▁seemed": 2167,
      "▁calm": 2168,
      "▁imag": 2169,
      "▁ign": 2170,
      "Here": 2171,
      "▁laughing": 2172,
      "▁clouds": 2173,
      "▁whole": 2174,
      "▁splash": 2175,
      "▁act": 2176,
      "upp": 2177,
      "▁lift": 2178,
      "play": 2179,
      "▁wolf": 2180,
      "com": 2181,
      "▁empty": 2182,
      "▁interesting": 2183,
      "▁mot": 2184,
      "▁quest": 2185,
      "▁prot": 2186,
      "▁puzzle": 2187,
      "erly": 2188,
      "ward": 2189,
      "ewel": 2190,
      "▁exp": 2191,
      "bar": 2192,
      "▁finish": 2193,
      "▁spray": 2194,
      "▁arms": 2195,
      "Al": 2196,
      "▁rocket": 2197,
      "dge": 2198,
      "▁slid": 2199,
      "▁along": 2200,
      "▁supp": 2201,
      "▁chick": 2202,
      "▁jewel": 2203,
      "▁ba": 2204,
      "onest": 2205,
      "▁explain": 2206,
      "▁thin": 2207,
      "Mark": 2208,
      "iger": 2209,
      "▁pract": 2210,
      "▁wondered": 2211,
      "idy": 2212,
      "bird": 2213,
      "▁easy": 2214,
      "rass": 2215,
      "▁jelly": 2216,
      "▁pool": 2217,
      "▁longer": 2218,
      "ually": 2219,
      "irr": 2220,
      "▁ship": 2221,
      "▁front": 2222,
      "▁gives": 2223,
      "▁though": 2224,
      "Mama": 2225,
      "ocked": 2226,
      "ment": 2227,
      "▁anyone": 2228,
      "▁fancy": 2229,
      "▁smelly": 2230,
      "▁pack": 2231,
      "pping": 2232,
      "▁scar": 2233,
      "▁saved": 2234,
      "▁trouble": 2235,
      "thank": 2236,
      "▁smelled": 2237,
      "▁such": 2238,
      "barrass": 2239,
      "▁pin": 2240,
      "▁healthy": 2241,
      "arge": 2242,
      "turn": 2243,
      "why": 2244,
      "▁working": 2245,
      "▁fake": 2246,
      "▁crayons": 2247,
      "urse": 2248,
      "▁puts": 2249,
      "▁forgive": 2250,
      "unk": 2251,
      "▁neigh": 2252,
      "▁embarrass": 2253,
      "▁av": 2254,
      "▁shirt": 2255,
      "▁John": 2256,
      "▁van": 2257,
      "▁dogs": 2258,
      "▁sol": 2259,
      "Are": 2260,
      "orrow": 2261,
      "oin": 2262,
      "▁tidy": 2263,
      "ming": 2264,
      "▁neighb": 2265,
      "fra": 2266,
      "▁weak": 2267,
      "▁mistake": 2268,
      "▁mind": 2269,
      "▁onto": 2270,
      "▁bossy": 2271,
      "ork": 2272,
      "▁lad": 2273,
      "aser": 2274,
      "▁honest": 2275,
      "!\"\n\"": 2276,
      "▁gently": 2277,
      "▁pointed": 2278,
      "▁plants": 2279,
      "▁cross": 2280,
      "oomy": 2281,
      "▁yog": 2282,
      "Lisa": 2283,
      "▁nothing": 2284,
      "ones": 2285,
      "▁stood": 2286,
      "▁lock": 2287,
      "oc": 2288,
      "▁wing": 2289,
      "ult": 2290,
      "aughter": 2291,
      "▁banan": 2292,
      "Stop": 2293,
      "ching": 2294,
      "▁large": 2295,
      "▁couch": 2296,
      "▁lovely": 2297,
      "▁cheer": 2298,
      "▁queen": 2299,
      "era": 2300,
      "▁places": 2301,
      "▁ladder": 2302,
      "▁prince": 2303,
      "▁bal": 2304,
      "oof": 2305,
      "▁return": 2306,
      "▁dish": 2307,
      "▁chew": 2308,
      "▁tomorrow": 2309,
      "▁sandwich": 2310,
      "▁cleaned": 2311,
      "fraid": 2312,
      "▁afraid": 2313,
      "don": 2314,
      "▁person": 2315,
      "▁pretended": 2316,
      "▁sur": 2317,
      "owed": 2318,
      "Blue": 2319,
      "oman": 2320,
      "gest": 2321,
      "ned": 2322,
      "▁stret": 2323,
      "izza": 2324,
      "▁woman": 2325,
      "▁deer": 2326,
      "ipe": 2327,
      "▁building": 2328,
      "laug": 2329,
      "imp": 2330,
      "uce": 2331,
      "▁ants": 2332,
      "▁teeth": 2333,
      "▁goes": 2334,
      "aced": 2335,
      "azy": 2336,
      "▁daughter": 2337,
      "▁scarf": 2338,
      "Your": 2339,
      "▁law": 2340,
      "▁kick": 2341,
      "icked": 2342,
      "▁pri": 2343,
      "▁watching": 2344,
      "▁loves": 2345,
      "▁true": 2346,
      "hin": 2347,
      "▁screamed": 2348,
      "▁gather": 2349,
      "▁number": 2350,
      "shes": 2351,
      "▁explor": 2352,
      "▁answer": 2353,
      "▁boring": 2354,
      "▁splashed": 2355,
      "▁ashamed": 2356,
      "▁rich": 2357,
      "▁lazy": 2358,
      "▁appeared": 2359,
      "was": 2360,
      "▁cozy": 2361,
      "Sometimes": 2362,
      "▁hum": 2363,
      "▁pizza": 2364,
      "▁nearby": 2365,
      "ute": 2366,
      "▁bounce": 2367,
      "▁flag": 2368,
      "vous": 2369,
      "ek": 2370,
      "saw": 2371,
      "▁stra": 2372,
      "Will": 2373,
      "▁wand": 2374,
      "▁hang": 2375,
      "then": 2376,
      "▁gen": 2377,
      "▁motor": 2378,
      "▁clown": 2379,
      "▁matter": 2380,
      "year": 2381,
      "▁rub": 2382,
      "osa": 2383,
      "▁swimming": 2384,
      "▁creative": 2385,
      "▁success": 2386,
      "▁TV": 2387,
      "oppy": 2388,
      "▁Joe": 2389,
      "green": 2390,
      "▁chase": 2391,
      "▁dig": 2392,
      "▁Billy": 2393,
      "▁trust": 2394,
      "▁ner": 2395,
      "wo": 2396,
      "▁saf": 2397,
      "▁tool": 2398,
      "ado": 2399,
      "▁fear": 2400,
      "▁nervous": 2401,
      "colate": 2402,
      "▁test": 2403,
      "▁K": 2404,
      "▁circle": 2405,
      "▁stu": 2406,
      "▁tries": 2407,
      "osaur": 2408,
      "▁powerful": 2409,
      "mb": 2410,
      "their": 2411,
      "andp": 2412,
      "Give": 2413,
      "▁eag": 2414,
      "▁sold": 2415,
      "▁map": 2416,
      "Bella": 2417,
      "▁drank": 2418,
      "▁class": 2419,
      "any": 2420,
      "Who": 2421,
      "▁knee": 2422,
      "irror": 2423,
      "▁polite": 2424,
      "ensive": 2425,
      "▁protect": 2426,
      "▁jumping": 2427,
      "Jill": 2428,
      "▁carried": 2429,
      "▁dinosaur": 2430,
      "▁gun": 2431,
      "▁mirror": 2432,
      "lev": 2433,
      "▁ap": 2434,
      "▁chocolate": 2435,
      "iff": 2436,
      "ina": 2437,
      "▁cand": 2438,
      "arl": 2439,
      "▁rare": 2440,
      "issors": 2441,
      "▁maybe": 2442,
      "▁gate": 2443,
      "▁reg": 2444,
      "rob": 2445,
      "▁furry": 2446,
      "▁snee": 2447,
      "▁shadow": 2448,
      "erous": 2449,
      "▁hello": 2450,
      "rag": 2451,
      "airs": 2452,
      "▁respect": 2453,
      "itter": 2454,
      "▁match": 2455,
      "▁wearing": 2456,
      "▁waiting": 2457,
      "ray": 2458,
      "▁soap": 2459,
      "▁dizzy": 2460,
      "▁bald": 2461,
      "▁noisy": 2462,
      "▁hero": 2463,
      "▁towel": 2464,
      "▁har": 2465,
      "▁pres": 2466,
      "▁pump": 2467,
      "▁feet": 2468,
      "dad": 2469,
      "▁cri": 2470,
      "Mum": 2471,
      "Some": 2472,
      "ventually": 2473,
      "▁tape": 2474,
      "▁journey": 2475,
      "andpa": 2476,
      "ness": 2477,
      "▁mysterious": 2478,
      "▁balloons": 2479,
      "nic": 2480,
      "▁whale": 2481,
      "laughing": 2482,
      "Andy": 2483,
      "▁mic": 2484,
      "isp": 2485,
      "▁weird": 2486,
      "▁picnic": 2487,
      "scape": 2488,
      "▁embarrassed": 2489,
      "▁gold": 2490,
      "▁tasted": 2491,
      "▁mel": 2492,
      "▁tent": 2493,
      "▁lead": 2494,
      "ual": 2495,
      "▁closet": 2496,
      "▁boot": 2497,
      "▁disco": 2498,
      "▁poor": 2499,
      "▁decor": 2500,
      "▁crown": 2501,
      "ote": 2502,
      "▁peaceful": 2503,
      "▁bridge": 2504,
      "▁brush": 2505,
      "▁generous": 2506,
      "▁print": 2507,
      "blue": 2508,
      "ced": 2509,
      "orry": 2510,
      "▁sque": 2511,
      "ume": 2512,
      "lebr": 2513,
      "▁scare": 2514,
      "▁tick": 2515,
      "▁icy": 2516,
      "▁clap": 2517,
      "▁lamp": 2518,
      "lves": 2519,
      "▁vase": 2520,
      "▁eld": 2521,
      "▁scissors": 2522,
      "▁celebr": 2523,
      "Mary": 2524,
      "▁cage": 2525,
      "▁pay": 2526,
      "▁mixed": 2527,
      "getable": 2528,
      "▁bake": 2529,
      "▁wouldn": 2530,
      "▁log": 2531,
      "▁glue": 2532,
      "▁painted": 2533,
      "▁stir": 2534,
      "▁whisp": 2535,
      "ieved": 2536,
      "▁mountain": 2537,
      "friendly": 2538,
      "▁yelled": 2539,
      "asp": 2540,
      "▁become": 2541,
      "every": 2542,
      "▁knocked": 2543,
      "ormal": 2544,
      "big": 2545,
      "▁dancing": 2546,
      "ustr": 2547,
      "▁cap": 2548,
      "Jimmy": 2549,
      "erries": 2550,
      "▁famous": 2551,
      "Momo": 2552,
      "▁lose": 2553,
      "▁berries": 2554,
      "▁wrap": 2555,
      "▁glass": 2556,
      "▁group": 2557,
      "▁shark": 2558,
      "▁bean": 2559,
      "▁normal": 2560,
      "▁fat": 2561,
      "Me": 2562,
      "pret": 2563,
      "▁drawing": 2564,
      "Cat": 2565,
      "▁hur": 2566,
      "▁corner": 2567,
      "redible": 2568,
      "▁gigg": 2569,
      "▁elderly": 2570,
      "▁team": 2571,
      "▁clock": 2572,
      "▁expensive": 2573,
      "▁spread": 2574,
      "robe": 2575,
      "ighed": 2576,
      "▁cone": 2577,
      "▁frustr": 2578,
      "▁vegetable": 2579,
      "▁ignor": 2580,
      "▁balance": 2581,
      "▁holding": 2582,
      "▁track": 2583,
      "▁space": 2584,
      "▁moms": 2585,
      "▁branches": 2586,
      "▁kicked": 2587,
      "alous": 2588,
      "ony": 2589,
      "▁sock": 2590,
      "▁sword": 2591,
      "port": 2592,
      "▁Z": 2593,
      "▁impress": 2594,
      "▁jam": 2595,
      "▁cart": 2596,
      "▁present": 2597,
      "aid": 2598,
      "soft": 2599,
      "▁jealous": 2600,
      "▁sell": 2601,
      "▁incredible": 2602,
      "rying": 2603,
      "▁Tommy": 2604,
      "▁horn": 2605,
      "▁fine": 2606,
      "▁understood": 2607,
      "▁burn": 2608,
      "ubborn": 2609,
      "▁glow": 2610,
      "▁feed": 2611,
      "▁roar": 2612,
      "▁yarn": 2613,
      "cient": 2614,
      "anged": 2615,
      "▁hose": 2616,
      "▁spent": 2617,
      "▁fool": 2618,
      "▁frustrated": 2619,
      "▁shoe": 2620,
      "▁mis": 2621,
      "▁wis": 2622,
      "▁taught": 2623,
      "ique": 2624,
      "ightened": 2625,
      "▁stubborn": 2626,
      "▁mighty": 2627,
      "▁organized": 2628,
      "▁creature": 2629,
      "Leo": 2630,
      "▁chest": 2631,
      "▁barn": 2632,
      "▁pray": 2633,
      "▁guess": 2634,
      "ym": 2635,
      "▁cab": 2636,
      "usual": 2637,
      "light": 2638,
      "▁rough": 2639,
      "▁ter": 2640,
      "dle": 2641,
      "▁breath": 2642,
      "▁measure": 2643,
      "\".\n": 2644,
      "▁clay": 2645,
      "▁adm": 2646,
      "▁unique": 2647,
      "▁ord": 2648,
      "▁dug": 2649,
      "▁twist": 2650,
      "▁waves": 2651,
      "▁wagon": 2652,
      "▁clear": 2653,
      "alk": 2654,
      "umsy": 2655,
      "▁wrote": 2656,
      "▁tells": 2657,
      "▁hears": 2658,
      "▁cabin": 2659,
      "lace": 2660,
      "▁exam": 2661,
      "▁useful": 2662,
      "▁frag": 2663,
      "▁spoiled": 2664,
      "▁foolish": 2665,
      "▁straw": 2666,
      "▁pumpkin": 2667,
      "▁relieved": 2668,
      "▁goat": 2669,
      "▁terri": 2670,
      "▁searched": 2671,
      "▁police": 2672,
      "ond": 2673,
      "▁H": 2674,
      "▁bubbles": 2675,
      "▁fragile": 2676,
      "▁ancient": 2677,
      "▁bathroom": 2678,
      "▁paws": 2679,
      "▁sugar": 2680,
      "unn": 2681,
      "▁discover": 2682,
      "▁necklace": 2683,
      "known": 2684,
      "str": 2685,
      "▁washed": 2686,
      "▁nosy": 2687,
      "▁board": 2688,
      "cil": 2689,
      "oot": 2690,
      "▁unusual": 2691,
      "Br": 2692,
      "▁these": 2693,
      "under": 2694,
      "▁frightened": 2695,
      "berry": 2696,
      "▁finding": 2697,
      "▁tomato": 2698,
      "fic": 2699,
      "▁clumsy": 2700,
      "Sorry": 2701,
      "▁diffic": 2702,
      "▁Mimi": 2703,
      "▁finger": 2704,
      "yal": 2705,
      "▁rose": 2706,
      "Bunny": 2707,
      "▁wake": 2708,
      "acked": 2709,
      "▁difficult": 2710,
      "▁pir": 2711,
      "▁bloom": 2712,
      "▁pencil": 2713,
      "▁dead": 2714,
      "als": 2715,
      "Many": 2716,
      "▁Whiskers": 2717,
      "now": 2718,
      "▁hoop": 2719,
      "▁drop": 2720,
      "▁square": 2721,
      "▁sunfl": 2722,
      "Daddy": 2723,
      "▁thick": 2724,
      "bled": 2725,
      "▁ending": 2726,
      "▁jet": 2727,
      "▁covered": 2728,
      "▁swan": 2729,
      "shine": 2730,
      "▁add": 2731,
      "▁gi": 2732,
      "▁loyal": 2733,
      "▁cher": 2734,
      "▁ham": 2735,
      "▁Jerry": 2736,
      "▁mov": 2737,
      "▁crazy": 2738,
      "▁yours": 2739,
      "▁guit": 2740,
      "▁bitter": 2741,
      "▁G": 2742,
      "▁ind": 2743,
      "▁wealthy": 2744,
      "gu": 2745,
      "Today": 2746,
      "▁witch": 2747,
      "kids": 2748,
      "▁dull": 2749,
      "anut": 2750,
      "▁joined": 2751,
      "ready": 2752,
      "ground": 2753,
      "▁chicken": 2754,
      "ormous": 2755,
      "xible": 2756,
      "land": 2757,
      "▁value": 2758,
      "▁comfortable": 2759,
      "▁salad": 2760,
      "▁thankful": 2761,
      "Instead": 2762,
      "▁gloomy": 2763,
      "selves": 2764,
      "▁fier": 2765,
      "▁kid": 2766,
      "▁unl": 2767,
      "▁changed": 2768,
      "▁toug": 2769,
      "▁fierce": 2770,
      "▁body": 2771,
      "▁Luna": 2772,
      "▁Bella": 2773,
      "fr": 2774,
      "irsty": 2775,
      "▁toast": 2776,
      "▁tiger": 2777,
      "▁yourself": 2778,
      "▁guitar": 2779,
      "▁nuts": 2780,
      "▁bored": 2781,
      "▁mask": 2782,
      "▁acorn": 2783,
      "▁march": 2784,
      "▁exciting": 2785,
      "urous": 2786,
      "▁record": 2787,
      "▁terrible": 2788,
      "▁dove": 2789,
      "▁exploring": 2790,
      "▁rat": 2791,
      "▁solve": 2792,
      "gust": 2793,
      "▁cost": 2794,
      "sm": 2795,
      "▁eggs": 2796,
      "Little": 2797,
      "▁Blue": 2798,
      "▁stuff": 2799,
      "rilliant": 2800,
      "▁smaller": 2801,
      "pill": 2802,
      "▁knife": 2803,
      "▁pepper": 2804,
      "▁sunshine": 2805,
      "two": 2806,
      "▁shore": 2807,
      "▁nods": 2808,
      "▁cats": 2809,
      "Pe": 2810,
      "live": 2811,
      "sweet": 2812,
      "▁tough": 2813,
      "upid": 2814,
      "squ": 2815,
      "Ow": 2816,
      "ory": 2817,
      "▁asleep": 2818,
      "▁thirsty": 2819,
      "▁potato": 2820,
      "until": 2821,
      "▁adventurous": 2822,
      "Bobby": 2823,
      "▁unknown": 2824,
      "▁snacks": 2825,
      "iness": 2826,
      "▁collect": 2827,
      "▁dough": 2828,
      "▁trick": 2829,
      "▁market": 2830,
      "▁seeds": 2831,
      "▁counted": 2832,
      "▁mailbox": 2833,
      "▁banana": 2834,
      "gusting": 2835,
      "▁stri": 2836,
      "▁stage": 2837,
      "ungle": 2838,
      "▁please": 2839,
      "▁remind": 2840,
      "ident": 2841,
      "▁zip": 2842,
      "▁enormous": 2843,
      "▁heal": 2844,
      "▁shoot": 2845,
      "corn": 2846,
      "▁jungle": 2847,
      "ates": 2848,
      "▁neighbor": 2849,
      "▁moving": 2850,
      "mbre": 2851,
      "fted": 2852,
      "▁lab": 2853,
      "▁stat": 2854,
      "▁frown": 2855,
      "▁umbre": 2856,
      "▁cheap": 2857,
      "▁fridge": 2858,
      "▁cube": 2859,
      "ilt": 2860,
      "▁flash": 2861,
      "iddle": 2862,
      "▁brilliant": 2863,
      "▁suit": 2864,
      "inal": 2865,
      "▁Lila": 2866,
      "▁explained": 2867,
      "▁delicate": 2868,
      "▁medic": 2869,
      "▁island": 2870,
      "edient": 2871,
      "See": 2872,
      "hold": 2873,
      "▁times": 2874,
      "▁squee": 2875,
      "iginal": 2876,
      "▁Jill": 2877,
      "uzz": 2878,
      "met": 2879,
      "▁jolly": 2880,
      "most": 2881,
      "ict": 2882,
      "comfortable": 2883,
      "▁comb": 2884,
      "▁stove": 2885,
      "▁medicine": 2886,
      "pillar": 2887,
      "help": 2888,
      "▁A": 2889,
      "▁relax": 2890,
      "Bear": 2891,
      "▁stamp": 2892,
      "▁crane": 2893,
      "▁cater": 2894,
      "Emily": 2895,
      "▁batter": 2896,
      "▁gar": 2897,
      "▁cro": 2898,
      "▁gem": 2899,
      "▁sighed": 2900,
      "▁search": 2901,
      "▁rug": 2902,
      "pes": 2903,
      "ants": 2904,
      "▁shine": 2905,
      "▁careless": 2906,
      "▁cries": 2907,
      "ependent": 2908,
      "▁meal": 2909,
      "▁middle": 2910,
      "inky": 2911,
      "▁sunflower": 2912,
      "▁flexible": 2913,
      "▁goose": 2914,
      "▁crack": 2915,
      "▁magn": 2916,
      "dog": 2917,
      "▁spring": 2918,
      "▁jeep": 2919,
      "▁successful": 2920,
      "▁study": 2921,
      "▁sauce": 2922,
      "▁popcorn": 2923,
      "▁hats": 2924,
      "▁jack": 2925,
      "▁asking": 2926,
      "some": 2927,
      "By": 2928,
      "▁helmet": 2929,
      "▁obedient": 2930,
      "▁escape": 2931,
      "aken": 2932,
      "book": 2933,
      "▁shiver": 2934,
      "ying": 2935,
      "▁fountain": 2936,
      "▁scr": 2937,
      "▁stones": 2938,
      "▁bedroom": 2939,
      "▁gets": 2940,
      "▁Emma": 2941,
      "▁statue": 2942,
      "▁stupid": 2943,
      "▁umbrella": 2944,
      "▁belonged": 2945,
      "▁almost": 2946,
      "holding": 2947,
      "erable": 2948,
      "▁pebb": 2949,
      "▁compet": 2950,
      "▁pasta": 2951,
      "▁W": 2952,
      "▁jacket": 2953,
      "▁borrow": 2954,
      "▁prize": 2955,
      "▁cam": 2956,
      "Sh": 2957,
      "▁perform": 2958,
      "celet": 2959,
      "▁independent": 2960,
      "pretty": 2961,
      "▁hay": 2962,
      "▁caterpillar": 2963,
      "▁design": 2964,
      "ages": 2965,
      "▁crayon": 2966,
      "▁Fred": 2967,
      "▁taken": 2968,
      "▁vegetables": 2969,
      "ours": 2970,
      "io": 2971,
      "atch": 2972,
      "▁peanut": 2973,
      "Ducky": 2974,
      "▁ang": 2975,
      "iable": 2976,
      "rue": 2977,
      "ependable": 2978,
      "▁dest": 2979,
      "▁raced": 2980,
      "▁smiling": 2981,
      "▁rep": 2982,
      "▁choose": 2983,
      "▁miserable": 2984,
      "berries": 2985,
      "▁lifted": 2986,
      "▁slipped": 2987,
      "▁fig": 2988,
      "▁tank": 2989,
      "ief": 2990,
      "ext": 2991,
      "▁spotted": 2992,
      "▁tied": 2993,
      "Even": 2994,
      "▁garage": 2995,
      "▁steal": 2996,
      "▁painting": 2997,
      "angle": 2998,
      "▁Grandma": 2999,
      "▁serious": 3000,
      "▁Daddy": 3001,
      "▁bracelet": 3002,
      "▁thoughtful": 3003,
      "▁mush": 3004,
      "▁raven": 3005,
      "▁original": 3006,
      "▁scale": 3007,
      "cream": 3008,
      "▁parrot": 3009,
      "▁crawled": 3010,
      "▁fork": 3011,
      "Doggy": 3012,
      "▁built": 3013,
      "▁bottom": 3014,
      "▁picks": 3015,
      "▁er": 3016,
      "dile": 3017,
      "codile": 3018,
      "pack": 3019,
      "▁carrots": 3020,
      "Brown": 3021,
      "ats": 3022,
      "▁shows": 3023,
      "▁hurts": 3024,
      "inary": 3025,
      "▁smoke": 3026,
      "dern": 3027,
      "▁fearful": 3028,
      "▁melon": 3029,
      "▁disgusting": 3030,
      "▁Jen": 3031,
      "unnel": 3032,
      "▁hammer": 3033,
      "▁magnet": 3034,
      "▁eng": 3035,
      "▁cheerful": 3036,
      "iano": 3037,
      "▁Leo": 3038,
      "▁arrow": 3039,
      "▁waff": 3040,
      "▁bull": 3041,
      "cut": 3042,
      "▁tunnel": 3043,
      "rn": 3044,
      "▁gum": 3045,
      "▁piano": 3046,
      "▁mole": 3047,
      "▁boats": 3048,
      "▁mushroom": 3049,
      "▁jug": 3050,
      "▁squash": 3051,
      "▁movie": 3052,
      "Ch": 3053,
      "ating": 3054,
      "go": 3055,
      "ipop": 3056,
      "llipop": 3057,
      "iv": 3058,
      "anger": 3059,
      "▁flute": 3060,
      "▁sink": 3061,
      "▁Chirpy": 3062,
      "icop": 3063,
      "icopter": 3064,
      "▁popular": 3065,
      "axi": 3066,
      "▁standing": 3067,
      "▁dependable": 3068,
      "▁lollipop": 3069,
      "▁cryst": 3070,
      "▁ones": 3071,
      "▁competit": 3072,
      "▁wip": 3073,
      "bra": 3074,
      "host": 3075,
      "amond": 3076,
      "▁eager": 3077,
      "▁needs": 3078,
      "▁filthy": 3079,
      "▁tricks": 3080,
      "▁lean": 3081,
      "▁Jim": 3082,
      "▁dolp": 3083,
      "atter": 3084,
      "Bird": 3085,
      "▁crocodile": 3086,
      "▁press": 3087,
      "▁low": 3088,
      "▁kissed": 3089,
      "▁locked": 3090,
      "▁helicopter": 3091,
      "▁diamond": 3092,
      "▁wander": 3093,
      "▁muff": 3094,
      "▁uncomfortable": 3095,
      "▁harm": 3096,
      "xious": 3097,
      "oto": 3098,
      "aff": 3099,
      "▁troubled": 3100,
      "▁camera": 3101,
      "▁playful": 3102,
      "▁aunt": 3103,
      "edy": 3104,
      "▁helps": 3105,
      "▁taxi": 3106,
      "▁liz": 3107,
      "▁anxious": 3108,
      "cident": 3109,
      "Is": 3110,
      "▁ruined": 3111,
      "cean": 3112,
      "▁beet": 3113,
      "▁angel": 3114,
      "▁torn": 3115,
      "▁blow": 3116,
      "opl": 3117,
      "eropl": 3118,
      "▁quar": 3119,
      "▁belt": 3120,
      "▁ocean": 3121,
      "▁env": 3122,
      "ilty": 3123,
      "always": 3124,
      "▁walks": 3125,
      "▁twig": 3126,
      "▁disappoin": 3127,
      "▁humble": 3128,
      "tt": 3129,
      "▁pige": 3130,
      "▁sil": 3131,
      "▁ghost": 3132,
      "▁passed": 3133,
      "▁wrapped": 3134,
      "Next": 3135,
      "▁happiness": 3136,
      "umpet": 3137,
      "ooked": 3138,
      "zed": 3139,
      "▁guilty": 3140,
      "▁cere": 3141,
      "▁pants": 3142,
      "▁wire": 3143,
      "▁aeropl": 3144,
      "▁reliable": 3145,
      "▁fis": 3146,
      "▁candle": 3147,
      "▁grace": 3148,
      "▁tears": 3149,
      "▁radio": 3150,
      "▁collar": 3151,
      "ctus": 3152,
      "▁trumpet": 3153,
      "▁harder": 3154,
      "▁quarrel": 3155,
      "▁F": 3156,
      "▁tire": 3157,
      "▁flashlight": 3158,
      "▁crystal": 3159,
      "▁lizard": 3160,
      "▁engine": 3161,
      "coa": 3162,
      "trying": 3163,
      "▁mug": 3164,
      "▁mop": 3165,
      "Tiny": 3166,
      "▁poured": 3167,
      "hett": 3168,
      "aghett": 3169,
      "aghetti": 3170,
      "▁ordinary": 3171,
      "▁comput": 3172,
      "▁melt": 3173,
      "ten": 3174,
      "▁nail": 3175,
      "▁tooth": 3176,
      "▁office": 3177,
      "▁hunt": 3178,
      "▁shape": 3179,
      "▁invited": 3180,
      "▁deaf": 3181,
      "Sp": 3182,
      "▁shade": 3183,
      "▁lit": 3184,
      "Luna": 3185,
      "ube": 3186,
      "▁cereal": 3187,
      "▁Lisa": 3188,
      "▁spend": 3189,
      "▁spill": 3190,
      "gl": 3191,
      "▁scoot": 3192,
      "▁charm": 3193,
      "▁triangle": 3194,
      "aze": 3195,
      "uth": 3196,
      "asses": 3197,
      "istent": 3198,
      "▁rid": 3199,
      "assion": 3200,
      "▁licked": 3201,
      "▁beetle": 3202,
      "▁cush": 3203,
      "ccol": 3204,
      "ither": 3205,
      "▁col": 3206,
      "ccoli": 3207,
      "▁figure": 3208,
      "▁cop": 3209,
      "▁create": 3210,
      "ellig": 3211,
      "▁roof": 3212,
      "▁practiced": 3213,
      "▁yogurt": 3214,
      "▁pro": 3215,
      "▁bees": 3216,
      "Chirpy": 3217,
      "▁sheet": 3218,
      "▁thread": 3219,
      "▁avoc": 3220,
      "▁gifted": 3221,
      "▁pow": 3222,
      "ubby": 3223,
      "▁disappointed": 3224,
      "▁sailed": 3225,
      "azz": 3226,
      "▁whispered": 3227,
      "urkey": 3228,
      "▁load": 3229,
      "▁regular": 3230,
      "pet": 3231,
      "▁pipe": 3232,
      "▁libr": 3233,
      "▁bicy": 3234,
      "▁mitten": 3235,
      "▁Ann": 3236,
      "▁cactus": 3237,
      "▁comet": 3238,
      "▁helpless": 3239,
      "▁rode": 3240,
      "▁forward": 3241,
      "▁accident": 3242,
      "hip": 3243,
      "apping": 3244,
      "▁vi": 3245,
      "▁cocoa": 3246,
      "color": 3247,
      "▁computer": 3248,
      "▁houses": 3249,
      "▁questions": 3250,
      "▁envel": 3251,
      "▁spaghetti": 3252,
      "▁barber": 3253,
      "▁answered": 3254,
      "▁raft": 3255,
      "▁desk": 3256,
      "▁pale": 3257,
      "▁knot": 3258,
      "▁glove": 3259,
      "▁envious": 3260,
      "omes": 3261,
      "▁compassion": 3262,
      "▁delight": 3263,
      "Jenny": 3264,
      "Alice": 3265,
      "▁trap": 3266,
      "Ella": 3267,
      "▁charming": 3268,
      "umbers": 3269,
      "▁stronger": 3270,
      "▁dust": 3271,
      "▁using": 3272,
      "▁inse": 3273,
      "▁vol": 3274,
      "▁trunk": 3275,
      "▁tag": 3276,
      "▁stream": 3277,
      "▁hopping": 3278,
      "elligent": 3279,
      "▁feathers": 3280,
      "▁shrimp": 3281,
      "ifl": 3282,
      "ulifl": 3283,
      "cano": 3284,
      "scary": 3285,
      "▁restless": 3286,
      "▁ears": 3287,
      "▁persistent": 3288,
      "▁carpet": 3289,
      "▁coins": 3290,
      "▁crawl": 3291,
      "▁friendship": 3292,
      "▁speed": 3293,
      "▁rice": 3294,
      "▁harsh": 3295,
      "▁aeroplane": 3296,
      "▁wheat": 3297,
      "▁half": 3298,
      "olin": 3299,
      "▁tube": 3300,
      "▁loop": 3301,
      "▁dreams": 3302,
      "▁deliver": 3303,
      "▁screen": 3304,
      "Jen": 3305,
      "▁acce": 3306,
      "▁turkey": 3307,
      "cycle": 3308,
      "▁vine": 3309,
      "▁spun": 3310,
      "ital": 3311,
      "▁haircut": 3312,
      "▁broccoli": 3313,
      "▁boxes": 3314,
      "▁sle": 3315,
      "▁pigeon": 3316,
      "atient": 3317,
      "▁chubby": 3318,
      "▁hosp": 3319,
      "uz": 3320,
      "▁ticket": 3321,
      "asing": 3322,
      "cl": 3323,
      "▁hospital": 3324,
      "uliflower": 3325,
      "▁vide": 3326,
      "▁excite": 3327,
      "essie": 3328,
      "▁bri": 3329,
      "isted": 3330,
      "▁destro": 3331,
      "▁modern": 3332,
      "ache": 3333,
      "▁mill": 3334,
      "▁pebble": 3335,
      "▁happening": 3336,
      "▁onion": 3337,
      "▁volcano": 3338,
      "▁univer": 3339,
      "▁returned": 3340,
      "▁insect": 3341,
      "▁decide": 3342,
      "▁numbers": 3343,
      "▁celebrate": 3344,
      "ulu": 3345,
      "▁intelligent": 3346,
      "▁nicely": 3347,
      "ractive": 3348,
      "▁competitive": 3349,
      "▁alert": 3350,
      "▁parade": 3351,
      "▁eraser": 3352,
      "opard": 3353,
      "▁peach": 3354,
      "▁poem": 3355,
      "▁thief": 3356,
      "cat": 3357,
      "rework": 3358,
      "▁planet": 3359,
      "▁ways": 3360,
      "▁travel": 3361,
      "urtain": 3362,
      "▁sleeping": 3363,
      "▁saus": 3364,
      "aving": 3365,
      "▁louder": 3366,
      "▁base": 3367,
      "Bye": 3368,
      "▁impressive": 3369,
      "▁rod": 3370,
      "acht": 3371,
      "▁curtain": 3372,
      "ulb": 3373,
      "▁eventually": 3374,
      "▁cauliflower": 3375,
      "▁bubble": 3376,
      "Benny": 3377,
      "▁violin": 3378,
      "▁sort": 3379,
      "▁barrel": 3380,
      "▁envelope": 3381,
      "▁wheels": 3382,
      "▁Doggy": 3383,
      "eterm": 3384,
      "▁yaw": 3385,
      "▁question": 3386,
      "▁needle": 3387,
      "▁soldier": 3388,
      "tern": 3389,
      "▁bicycle": 3390,
      "dom": 3391,
      "▁scooter": 3392,
      "▁ignorant": 3393,
      "▁truth": 3394,
      "▁Mark": 3395,
      "elery": 3396,
      "▁tem": 3397,
      "▁yacht": 3398,
      "▁graceful": 3399,
      "▁rag": 3400,
      "▁bulb": 3401,
      "ete": 3402,
      "▁compassionate": 3403,
      "▁scatter": 3404,
      "▁meant": 3405,
      "▁firework": 3406,
      "▁judge": 3407,
      "orable": 3408,
      "te": 3409,
      "▁dolphin": 3410,
      "emy": 3411,
      "▁hook": 3412,
      "▁order": 3413,
      "▁tray": 3414,
      "▁bushes": 3415,
      "▁rubbed": 3416,
      "igator": 3417,
      "▁grown": 3418,
      "▁tap": 3419,
      "Mummy": 3420,
      "▁leopard": 3421,
      "▁case": 3422,
      "▁repair": 3423,
      "▁cushion": 3424,
      "▁chalk": 3425,
      "colorful": 3426,
      "fast": 3427,
      "▁spell": 3428,
      "▁cooked": 3429,
      "having": 3430,
      "▁homes": 3431,
      "▁pony": 3432,
      "▁themselves": 3433,
      "▁soar": 3434,
      "▁skin": 3435,
      "ait": 3436,
      "▁purse": 3437,
      "▁celery": 3438,
      "▁prun": 3439,
      "▁pengu": 3440,
      "▁harmless": 3441,
      "▁lively": 3442,
      "▁impatient": 3443,
      "chair": 3444,
      "▁lying": 3445,
      "Fo": 3446,
      "▁motorcycle": 3447,
      "▁walls": 3448,
      "▁forth": 3449,
      "▁wallet": 3450,
      "▁cricket": 3451,
      "▁radish": 3452,
      "▁film": 3453,
      "illa": 3454,
      "▁speak": 3455,
      "▁ed": 3456,
      "▁destroy": 3457,
      "hus": 3458,
      "▁bin": 3459,
      "▁chain": 3460,
      "urb": 3461,
      "ision": 3462,
      "▁seal": 3463,
      "▁bounced": 3464,
      "▁surf": 3465,
      "▁biggest": 3466,
      "▁pit": 3467,
      "▁distant": 3468,
      "▁meat": 3469,
      "▁pattern": 3470,
      "▁slept": 3471,
      "▁week": 3472,
      "▁bandage": 3473,
      "▁behave": 3474,
      "levator": 3475,
      "▁laughs": 3476,
      "dest": 3477,
      "▁post": 3478,
      "▁impro": 3479,
      "▁steak": 3480,
      "Well": 3481,
      "▁learning": 3482,
      "▁marry": 3483,
      "▁Molly": 3484,
      "▁shells": 3485,
      "usie": 3486,
      "▁send": 3487,
      "▁elevator": 3488,
      "▁alligator": 3489,
      "▁diary": 3490,
      "▁cleaning": 3491,
      "▁notebook": 3492,
      "▁club": 3493,
      "▁avocado": 3494,
      "Sammy": 3495,
      "ject": 3496,
      "aged": 3497,
      "▁Remy": 3498,
      "▁dive": 3499,
      "▁pole": 3500,
      "▁unlock": 3501,
      "ived": 3502,
      "▁determ": 3503,
      "rage": 3504,
      "playing": 3505,
      "▁disturb": 3506,
      "▁metal": 3507,
      "bul": 3508,
      "▁adorable": 3509,
      "▁earth": 3510,
      "▁skull": 3511,
      "▁enthus": 3512,
      "yell": 3513,
      "▁wiped": 3514,
      "▁uncle": 3515,
      "▁bags": 3516,
      "▁stranger": 3517,
      "▁skip": 3518,
      "ito": 3519,
      "▁gathered": 3520,
      "everyone": 3521,
      "▁armchair": 3522,
      "▁shut": 3523,
      "▁skipped": 3524,
      "bulance": 3525,
      "▁temp": 3526,
      "▁folder": 3527,
      "▁hairy": 3528,
      "par": 3529,
      "▁sweater": 3530,
      "▁lime": 3531,
      "▁journal": 3532,
      "nam": 3533,
      "▁ambulance": 3534,
      "▁compl": 3535,
      "stop": 3536,
      "▁playground": 3537,
      "▁mixer": 3538,
      "▁loudly": 3539,
      "▁city": 3540,
      "▁library": 3541,
      "▁ink": 3542,
      "▁sniff": 3543,
      "▁father": 3544,
      "▁screw": 3545,
      "ebra": 3546,
      "▁tummy": 3547,
      "▁decorate": 3548,
      "▁station": 3549,
      "cited": 3550,
      "▁falls": 3551,
      "irit": 3552,
      "▁attractive": 3553,
      "▁oy": 3554,
      "went": 3555,
      "▁jellyfish": 3556,
      "▁shield": 3557,
      "▁circ": 3558,
      "▁cord": 3559,
      "knowing": 3560,
      "▁herb": 3561,
      "▁knows": 3562,
      "▁bump": 3563,
      "▁Bird": 3564,
      "ctop": 3565,
      "▁lights": 3566,
      "▁nurse": 3567,
      "▁ornam": 3568,
      "▁ornament": 3569,
      "▁Cat": 3570,
      "oby": 3571,
      "strong": 3572,
      "▁Mary": 3573,
      "ging": 3574,
      "▁attic": 3575,
      "nger": 3576,
      "etty": 3577,
      "▁counting": 3578,
      "▁marble": 3579,
      "time": 3580,
      "keep": 3581,
      "▁polish": 3582,
      "▁prep": 3583,
      "umbled": 3584,
      "▁stretch": 3585,
      "▁zebra": 3586,
      "cou": 3587,
      "ention": 3588,
      "▁resc": 3589,
      "run": 3590,
      "▁complet": 3591,
      "ceed": 3592,
      "cing": 3593,
      "▁guard": 3594,
      "▁buttons": 3595,
      "▁disappeared": 3596,
      "ctopus": 3597,
      "uring": 3598,
      "People": 3599,
      "▁cupboard": 3600,
      "▁brothers": 3601,
      "▁aut": 3602,
      "ushed": 3603,
      "▁led": 3604,
      "▁split": 3605,
      "▁modest": 3606,
      "▁vest": 3607,
      "▁salt": 3608,
      "▁spinning": 3609,
      "▁pirate": 3610,
      "▁cable": 3611,
      "▁football": 3612,
      "▁mosqu": 3613,
      "▁kay": 3614,
      "▁itch": 3615,
      "del": 3616,
      "kelet": 3617,
      "▁mosquito": 3618,
      "obile": 3619,
      "aky": 3620,
      "▁hipp": 3621,
      "omobile": 3622,
      "▁strawberry": 3623,
      "▁once": 3624,
      "▁trucks": 3625,
      "▁tripped": 3626,
      "▁support": 3627,
      "leased": 3628,
      "▁wishes": 3629,
      "▁root": 3630,
      "▁coal": 3631,
      "▁automobile": 3632,
      "scope": 3633,
      "stic": 3634,
      "▁succeed": 3635,
      "▁yet": 3636,
      "▁edge": 3637,
      "▁drawer": 3638,
      "▁boys": 3639,
      "work": 3640,
      "utes": 3641,
      "iastic": 3642,
      "▁kayak": 3643,
      "▁which": 3644,
      "▁complain": 3645,
      "keleton": 3646,
      "glasses": 3647,
      "▁thunder": 3648,
      "uzzy": 3649,
      "▁meadow": 3650,
      "▁sneeze": 3651,
      "▁yoga": 3652,
      "▁giving": 3653,
      "▁hall": 3654,
      "htub": 3655,
      "▁golf": 3656,
      "▁flea": 3657,
      "▁veil": 3658,
      "▁sunglasses": 3659,
      "▁matt": 3660,
      "▁chess": 3661,
      "ophone": 3662,
      "▁flame": 3663,
      "▁octopus": 3664,
      "▁bathtub": 3665,
      "▁stack": 3666,
      "▁carto": 3667,
      "▁added": 3668,
      "▁penny": 3669,
      "▁troph": 3670,
      "▁math": 3671,
      "▁hunter": 3672,
      "ippin": 3673,
      "▁kindness": 3674,
      "▁spear": 3675,
      "▁driving": 3676,
      "▁itself": 3677,
      "▁costume": 3678,
      "▁mild": 3679,
      "▁muffin": 3680,
      "ugged": 3681,
      "▁poke": 3682,
      "▁drawings": 3683,
      "▁maze": 3684,
      "yellow": 3685,
      "▁growl": 3686,
      "▁arg": 3687,
      "▁enthusiastic": 3688,
      "▁teleph": 3689,
      "▁gear": 3690,
      "▁makeup": 3691,
      "Un": 3692,
      "▁switch": 3693,
      "▁pun": 3694,
      "▁pear": 3695,
      "▁handle": 3696,
      "▁package": 3697,
      "▁video": 3698,
      "iron": 3699,
      "▁mattress": 3700,
      "head": 3701,
      "▁waffle": 3702,
      "▁dess": 3703,
      "▁hippo": 3704,
      "case": 3705,
      "▁packed": 3706,
      "▁pine": 3707,
      "▁suggest": 3708,
      "▁powder": 3709,
      "▁telephone": 3710,
      "three": 3711,
      "ines": 3712,
      "▁means": 3713,
      "▁cob": 3714,
      "▁pastry": 3715,
      "▁trophy": 3716,
      "Did": 3717,
      "▁gor": 3718,
      "web": 3719,
      "▁missile": 3720,
      "cu": 3721,
      "ric": 3722,
      "▁shocked": 3723,
      "▁frame": 3724,
      "▁managed": 3725,
      "▁oyster": 3726,
      "▁hedge": 3727,
      "▁magaz": 3728,
      "▁four": 3729,
      "urch": 3730,
      "▁stairs": 3731,
      "▁wife": 3732,
      "▁skeleton": 3733,
      "Grandpa": 3734,
      "esday": 3735,
      "▁zipp": 3736,
      "▁camp": 3737,
      "lies": 3738,
      "rophone": 3739,
      "▁calling": 3740,
      "▁separ": 3741,
      "▁basketball": 3742,
      "▁cobweb": 3743,
      "▁eye": 3744,
      "ffe": 3745,
      "▁file": 3746,
      "▁rot": 3747,
      "▁leash": 3748,
      "ffee": 3749,
      "▁knight": 3750,
      "iew": 3751,
      "▁encou": 3752,
      "▁minutes": 3753,
      "▁wool": 3754,
      "▁Rex": 3755,
      "▁strugg": 3756,
      "excited": 3757,
      "▁grapes": 3758,
      "ature": 3759,
      "▁determined": 3760,
      "▁view": 3761,
      "▁Benny": 3762,
      "▁Sp": 3763,
      "▁repe": 3764,
      "▁gasp": 3765,
      "▁cups": 3766,
      "▁microphone": 3767,
      "▁perm": 3768,
      "▁weep": 3769,
      "▁task": 3770,
      "▁staff": 3771,
      "▁reading": 3772,
      "▁ribb": 3773,
      "▁hoc": 3774,
      "▁hockey": 3775,
      "▁safely": 3776,
      "▁tear": 3777,
      "tol": 3778,
      "istol": 3779,
      "▁steps": 3780,
      "▁giggled": 3781,
      "▁marched": 3782,
      "Wait": 3783,
      "▁early": 3784,
      "aur": 3785,
      "▁photo": 3786,
      "ilot": 3787,
      "▁hotel": 3788,
      "washer": 3789,
      "chor": 3790,
      "Would": 3791,
      "roscope": 3792,
      "▁cooler": 3793,
      "otter": 3794,
      "▁spirit": 3795,
      "▁vend": 3796,
      "uel": 3797,
      "gen": 3798,
      "▁church": 3799,
      "▁glowing": 3800,
      "▁remain": 3801,
      "▁organize": 3802,
      "hic": 3803,
      "▁laser": 3804,
      "▁dessert": 3805,
      "▁sight": 3806,
      "▁sausage": 3807,
      "▁often": 3808,
      "▁medal": 3809,
      "▁pistol": 3810,
      "▁temple": 3811,
      "▁baseball": 3812,
      "▁grill": 3813,
      "eros": 3814,
      "▁Fr": 3815,
      "▁opens": 3816,
      "▁mint": 3817,
      "ser": 3818,
      "ense": 3819,
      "▁vehic": 3820,
      "▁battery": 3821,
      "▁Bunny": 3822,
      "▁tools": 3823,
      "la": 3824,
      "▁realised": 3825,
      "▁dishwasher": 3826,
      "▁hours": 3827,
      "▁gorilla": 3828,
      "▁vendor": 3829,
      "▁oil": 3830,
      "▁iron": 3831,
      "▁patch": 3832,
      "▁sne": 3833,
      "▁whip": 3834,
      "ctory": 3835,
      "True": 3836,
      "seum": 3837,
      "▁anchor": 3838,
      "▁cooking": 3839,
      "▁sandbox": 3840,
      "▁Tiny": 3841,
      "▁trash": 3842,
      "▁otter": 3843,
      "▁cardboard": 3844,
      "▁hive": 3845,
      "ney": 3846,
      "▁rever": 3847,
      "Jerry": 3848,
      "▁rise": 3849,
      "▁factory": 3850,
      "▁museum": 3851,
      "place": 3852,
      "hind": 3853,
      "▁pee": 3854,
      "ately": 3855,
      "▁message": 3856,
      "▁sailor": 3857,
      "▁either": 3858,
      "▁lotion": 3859,
      "▁cell": 3860,
      "▁coffee": 3861,
      "▁valu": 3862,
      "ailable": 3863,
      "▁ok": 3864,
      "inking": 3865,
      "apers": 3866,
      "▁ward": 3867,
      "ination": 3868,
      "tra": 3869,
      "ucet": 3870,
      "▁short": 3871,
      "▁wardrobe": 3872,
      "▁mem": 3873,
      "Before": 3874,
      "▁napkin": 3875,
      "eer": 3876,
      "▁ig": 3877,
      "keeper": 3878,
      "loo": 3879,
      "▁excitement": 3880,
      "▁igloo": 3881,
      "▁penguin": 3882,
      "▁reward": 3883,
      "▁ur": 3884,
      "▁pilot": 3885,
      "▁dreamed": 3886,
      "▁blackboard": 3887,
      "▁rhin": 3888,
      "uper": 3889,
      "▁holds": 3890,
      "azor": 3891,
      "▁cane": 3892,
      "Everywhere": 3893,
      "▁stumbled": 3894,
      "aroo": 3895,
      "angaroo": 3896,
      "▁faucet": 3897,
      "▁newsp": 3898,
      "poin": 3899,
      "imney": 3900,
      "▁knock": 3901,
      "▁available": 3902,
      "▁fireman": 3903,
      "▁flour": 3904,
      "▁hanging": 3905,
      "▁passport": 3906,
      "▁quit": 3907,
      "owers": 3908,
      "your": 3909,
      "▁check": 3910,
      "▁freez": 3911,
      "▁sett": 3912,
      "▁fingers": 3913,
      "aund": 3914,
      "▁colour": 3915,
      "▁allowed": 3916,
      "▁bathe": 3917,
      "htray": 3918,
      "aundry": 3919,
      "▁saying": 3920,
      "Ha": 3921,
      "Or": 3922,
      "▁lend": 3923,
      "▁chimney": 3924,
      "▁pal": 3925,
      "▁size": 3926,
      "▁oak": 3927,
      "Poppy": 3928,
      "▁laundry": 3929,
      "▁hanger": 3930,
      "▁men": 3931,
      "▁tornado": 3932,
      "▁novel": 3933,
      "▁fireplace": 3934,
      "ampoo": 3935,
      "▁already": 3936,
      "▁cherries": 3937,
      "arian": 3938,
      "▁microscope": 3939,
      "▁notice": 3940,
      "▁spilled": 3941,
      "▁magazine": 3942,
      "▁complete": 3943,
      "▁gain": 3944,
      "▁palace": 3945,
      "▁sub": 3946,
      "▁fastest": 3947,
      "indeer": 3948,
      "anda": 3949,
      "▁rake": 3950,
      "▁cabinet": 3951,
      "Jake": 3952,
      "▁may": 3953,
      "aches": 3954,
      "ured": 3955,
      "▁fisher": 3956,
      "▁imagine": 3957,
      "▁improve": 3958,
      "▁ashtray": 3959,
      "yummy": 3960,
      "▁practice": 3961,
      "▁mule": 3962,
      "anny": 3963,
      "oceros": 3964,
      "▁kangaroo": 3965,
      "▁discovered": 3966,
      "▁Ollie": 3967,
      "Dolly": 3968,
      "▁falling": 3969,
      "▁trail": 3970,
      "▁stared": 3971,
      "pointing": 3972,
      "▁roared": 3973,
      "▁slides": 3974,
      "▁rolling": 3975,
      "▁miner": 3976,
      "▁por": 3977,
      "▁barking": 3978,
      "Peter": 3979,
      "stairs": 3980,
      "▁bill": 3981,
      "▁skirt": 3982,
      "▁ax": 3983,
      "iction": 3984,
      "▁tub": 3985,
      "▁valuable": 3986,
      "▁fog": 3987,
      "▁object": 3988,
      "body": 3989,
      "ilet": 3990,
      "▁towers": 3991,
      "▁taller": 3992,
      "ictionary": 3993,
      "▁hut": 3994,
      "▁display": 3995,
      "▁shampoo": 3996,
      "▁grandpa": 3997,
      "iest": 3998,
      "▁holes": 3999,
      "levision": 4000,
      "▁oats": 4001,
      "alend": 4002,
      "▁offered": 4003,
      "▁sym": 4004,
      "vice": 4005,
      "▁jewelry": 4006,
      "▁reindeer": 4007,
      "▁toilet": 4008,
      "▁happier": 4009,
      "▁zipper": 4010,
      "fa": 4011,
      "▁television": 4012,
      "▁calend": 4013,
      "▁jumps": 4014,
      "bol": 4015,
      "▁axe": 4016,
      "▁prov": 4017,
      "▁fuel": 4018,
      "▁bathrobe": 4019,
      "▁stops": 4020,
      "▁rhinoceros": 4021,
      "▁jokes": 4022,
      "▁those": 4023,
      "▁names": 4024,
      "▁fisherman": 4025,
      "ther": 4026,
      "▁stretched": 4027,
      "▁cows": 4028,
      "▁shrink": 4029,
      "▁calendar": 4030,
      "arry": 4031,
      "▁pressed": 4032,
      "▁symbol": 4033,
      "▁climbing": 4034,
      "▁boots": 4035,
      "reek": 4036,
      "▁popped": 4037,
      "▁unpack": 4038,
      "▁rece": 4039,
      "▁attach": 4040,
      "▁creek": 4041,
      "Rex": 4042,
      "▁gasped": 4043,
      "▁porch": 4044,
      "▁super": 4045,
      "▁perfume": 4046,
      "Ouch": 4047,
      "▁helper": 4048,
      "▁chose": 4049,
      "▁subway": 4050,
      "▁freezer": 4051,
      "▁opera": 4052,
      "▁neat": 4053,
      "zag": 4054,
      "▁spoke": 4055,
      "▁dictionary": 4056,
      "affe": 4057,
      "▁ten": 4058,
      "▁weigh": 4059,
      "▁newspaper": 4060,
      "▁silver": 4061,
      "▁resist": 4062,
      "▁anyway": 4063,
      "▁tuna": 4064,
      "▁against": 4065,
      "▁blouse": 4066,
      "▁razor": 4067,
      "▁lie": 4068,
      "iches": 4069,
      "igzag": 4070,
      "▁tightly": 4071,
      "▁comfort": 4072,
      "▁gym": 4073,
      "▁letters": 4074,
      "▁swamp": 4075,
      "▁bookcase": 4076,
      "▁belongs": 4077,
      "xy": 4078,
      "▁papers": 4079,
      "ival": 4080,
      "▁mustache": 4081,
      "▁snap": 4082,
      "▁Momo": 4083,
      "▁disag": 4084,
      "▁restaur": 4085,
      "▁buckle": 4086,
      "▁billboard": 4087,
      "▁lip": 4088,
      "▁ped": 4089,
      "▁nature": 4090,
      "ogn": 4091,
      "▁vehicle": 4092,
      "rich": 4093,
      "▁distance": 4094,
      "▁fest": 4095,
      "▁restaurant": 4096,
      "▁hate": 4097,
      "▁Bobby": 4098,
      "▁alarm": 4099,
      "▁recogn": 4100,
      "▁stirred": 4101,
      "bl": 4102,
      "utor": 4103,
      "ik": 4104,
      "▁hung": 4105,
      "▁serve": 4106,
      "ef": 4107,
      "▁musician": 4108,
      "▁fluffy": 4109,
      "▁beef": 4110,
      "aspoon": 4111,
      "▁crib": 4112,
      "▁mummy": 4113,
      "lter": 4114,
      "▁cards": 4115,
      "▁sofa": 4116,
      "▁tease": 4117,
      "▁rubber": 4118,
      "▁bikes": 4119,
      "▁sparkly": 4120,
      "res": 4121,
      "▁apr": 4122,
      "▁growing": 4123,
      "▁obser": 4124,
      "▁gas": 4125,
      "▁model": 4126,
      "▁breakfast": 4127,
      "▁festival": 4128,
      "asis": 4129,
      "▁sandwiches": 4130,
      "▁shelter": 4131,
      "Buzz": 4132,
      "▁airport": 4133,
      "▁separate": 4134,
      "▁blueberries": 4135,
      "▁olive": 4136,
      "▁lightning": 4137,
      "▁bookshe": 4138,
      "▁butterflies": 4139,
      "▁junk": 4140,
      "▁rail": 4141,
      "These": 4142,
      "▁teaspoon": 4143,
      "lid": 4144,
      "▁drain": 4145,
      "▁bookshelf": 4146,
      "▁tutor": 4147,
      "▁doesn": 4148,
      "elcome": 4149,
      "ummer": 4150,
      "▁OK": 4151,
      "▁giraffe": 4152,
      "▁agree": 4153,
      "▁stickers": 4154,
      "▁rescue": 4155,
      "▁kne": 4156,
      "aws": 4157,
      "▁ahead": 4158,
      "▁oasis": 4159,
      "▁knob": 4160,
      "▁soil": 4161,
      "▁wipe": 4162,
      "▁circles": 4163,
      "▁reverse": 4164,
      "▁poked": 4165,
      "▁listening": 4166,
      "▁chance": 4167,
      "▁peeked": 4168,
      "inked": 4169,
      "▁hurry": 4170,
      "▁advice": 4171,
      "▁extra": 4172,
      "rmomet": 4173,
      "▁refused": 4174,
      "Miss": 4175,
      "!\n\"": 4176,
      "▁lumber": 4177,
      "▁page": 4178,
      "▁sounded": 4179,
      "▁painter": 4180,
      "▁squeeze": 4181,
      "▁quiz": 4182,
      "▁dancer": 4183,
      "▁lic": 4184,
      "okay": 4185,
      "▁point": 4186,
      "rmometer": 4187,
      "▁theater": 4188,
      "▁birdc": 4189,
      "▁rules": 4190,
      "▁swinging": 4191,
      "▁happens": 4192,
      "▁slipp": 4193,
      "iform": 4194,
      "▁waste": 4195,
      "▁birdcage": 4196,
      "▁goal": 4197,
      "▁pleased": 4198,
      "▁cliff": 4199,
      "▁invite": 4200,
      "▁uniform": 4201,
      "▁telling": 4202,
      "▁ins": 4203,
      "▁weather": 4204,
      "▁bury": 4205,
      "Have": 4206,
      "ience": 4207,
      "▁riding": 4208,
      "jumped": 4209,
      "▁reef": 4210,
      "▁disappear": 4211,
      "▁accept": 4212,
      "lu": 4213,
      "▁admire": 4214,
      "▁lawn": 4215,
      "angu": 4216,
      "▁trade": 4217,
      "▁leaned": 4218,
      "ola": 4219,
      "▁fort": 4220,
      "▁swung": 4221,
      "▁accidentally": 4222,
      "▁peek": 4223,
      "friger": 4224,
      "frigerator": 4225,
      "▁pastel": 4226,
      "mean": 4227,
      "render": 4228,
      "▁frogs": 4229,
      "▁anywhere": 4230,
      "▁langu": 4231,
      "▁ost": 4232,
      "night": 4233,
      "▁blinked": 4234,
      "▁bet": 4235,
      "▁ceiling": 4236,
      "▁starts": 4237,
      "▁son": 4238,
      "Zoom": 4239,
      "▁suff": 4240,
      "▁license": 4241,
      "▁imagined": 4242,
      "house": 4243,
      "▁whenever": 4244,
      "aked": 4245,
      "▁refrigerator": 4246,
      "▁remove": 4247,
      "▁Ch": 4248,
      "ium": 4249,
      "▁stable": 4250,
      "▁classroom": 4251,
      "▁pinch": 4252,
      "▁stom": 4253,
      "astic": 4254,
      "▁shower": 4255,
      "▁caring": 4256,
      "▁winter": 4257,
      "▁thermometer": 4258,
      "ected": 4259,
      "bor": 4260,
      "med": 4261,
      "▁problems": 4262,
      "which": 4263,
      "▁bananas": 4264,
      "▁brick": 4265,
      "uggage": 4266,
      "▁apron": 4267,
      "▁panda": 4268,
      "amber": 4269,
      "▁label": 4270,
      "Not": 4271,
      "▁lawy": 4272,
      "▁inclu": 4273,
      "▁sent": 4274,
      "▁summer": 4275,
      "Eventually": 4276,
      "?\".": 4277,
      "▁zoomed": 4278,
      "▁lid": 4279,
      "▁luggage": 4280,
      "iture": 4281,
      "urniture": 4282,
      "▁frowned": 4283,
      "▁pages": 4284,
      "ison": 4285,
      "▁above": 4286,
      "▁warned": 4287,
      "ations": 4288,
      "▁trains": 4289,
      "▁ribbon": 4290,
      "▁shaking": 4291,
      "▁missing": 4292,
      "▁prevent": 4293,
      "▁bent": 4294,
      "▁mistakes": 4295,
      "▁respectful": 4296,
      "▁sunset": 4297,
      "▁grape": 4298,
      "ucture": 4299,
      "▁O": 4300,
      "dark": 4301,
      "▁structure": 4302,
      "▁jail": 4303,
      "▁furniture": 4304,
      "▁picking": 4305,
      "▁squirrels": 4306,
      "▁shouts": 4307,
      "▁spoil": 4308,
      "eor": 4309,
      "▁finds": 4310,
      "▁fought": 4311,
      "▁chamber": 4312,
      "▁unite": 4313,
      "▁older": 4314,
      "▁ostrich": 4315,
      "▁wine": 4316,
      "▁delay": 4317,
      "▁handed": 4318,
      "▁lawyer": 4319,
      "sweetie": 4320,
      "beautiful": 4321,
      "▁choice": 4322,
      "eterin": 4323,
      "eterinarian": 4324,
      "▁favour": 4325,
      "▁windows": 4326,
      "▁Ella": 4327,
      "adium": 4328,
      "▁stadium": 4329,
      "▁brightly": 4330,
      "▁fixing": 4331,
      "rod": 4332,
      "ubbles": 4333,
      "▁meeting": 4334,
      "iki": 4335,
      "Polly": 4336,
      "▁art": 4337,
      "▁veterinarian": 4338,
      "▁slip": 4339,
      "▁twir": 4340,
      "▁berry": 4341,
      "veal": 4342,
      "▁puddles": 4343,
      "▁wigg": 4344,
      "▁argue": 4345,
      "▁incre": 4346,
      "▁favourite": 4347,
      "▁suggested": 4348,
      "▁admired": 4349,
      "▁cudd": 4350,
      "▁lions": 4351,
      "vet": 4352,
      "▁ranch": 4353,
      "bug": 4354,
      "Pippin": 4355,
      "peedy": 4356,
      "▁grabs": 4357,
      "mend": 4358,
      "eorge": 4359,
      "▁introd": 4360,
      "sity": 4361,
      "hero": 4362,
      "▁weap": 4363,
      "▁leak": 4364,
      "race": 4365,
      "Cl": 4366,
      "▁human": 4367,
      "▁inf": 4368,
      "alley": 4369,
      "anted": 4370,
      "cuss": 4371,
      "▁Mama": 4372,
      "▁mall": 4373,
      "▁reminded": 4374,
      "▁sadly": 4375,
      "▁thinking": 4376,
      "na": 4377,
      "aul": 4378,
      "mommy": 4379,
      "▁mineral": 4380,
      "▁evening": 4381,
      "▁forgave": 4382,
      "▁spade": 4383,
      "ommend": 4384,
      "▁steam": 4385,
      "▁surprises": 4386,
      "olog": 4387,
      "▁appl": 4388,
      "▁valley": 4389,
      "right": 4390,
      "▁harbor": 4391,
      "▁recommend": 4392,
      "▁Jimmy": 4393,
      "▁regret": 4394,
      "▁Sammy": 4395,
      "▁yield": 4396,
      "Welcome": 4397,
      "▁country": 4398,
      "▁Ducky": 4399,
      "▁beep": 4400,
      "▁surrender": 4401,
      "ince": 4402,
      "▁rushed": 4403,
      "Pete": 4404,
      "▁pair": 4405,
      "▁proudly": 4406,
      "▁prepare": 4407,
      "▁discuss": 4408,
      "▁matches": 4409,
      "▁sneezed": 4410,
      "▁replace": 4411,
      "▁ignore": 4412,
      "▁language": 4413,
      "Bessie": 4414,
      "▁pulls": 4415,
      "▁rac": 4416,
      "hop": 4417,
      "lived": 4418,
      "▁Andy": 4419,
      "▁pup": 4420,
      "▁float": 4421,
      "low": 4422,
      "▁chairs": 4423,
      "Susie": 4424,
      "▁supply": 4425,
      "ero": 4426,
      "Under": 4427,
      "▁cared": 4428,
      "▁mystery": 4429,
      "▁sniffed": 4430,
      "Ready": 4431,
      "Zip": 4432,
      "▁restore": 4433,
      "ari": 4434,
      "▁raise": 4435,
      "▁sticker": 4436,
      "lex": 4437,
      "▁panic": 4438,
      "▁apolog": 4439,
      "▁sudden": 4440,
      "Because": 4441,
      "▁player": 4442,
      "▁lives": 4443,
      "▁strip": 4444,
      "▁shovel": 4445,
      "▁kinds": 4446,
      "▁cartoon": 4447,
      "▁reveal": 4448,
      "ricane": 4449,
      "▁fre": 4450,
      "▁shone": 4451,
      "▁meas": 4452,
      "▁gro": 4453,
      "aud": 4454,
      "▁slippery": 4455,
      "▁St": 4456,
      "▁socks": 4457,
      "Toby": 4458,
      "▁shoulder": 4459,
      "flowers": 4460,
      "Yay": 4461,
      "airy": 4462,
      "▁juicy": 4463,
      "▁grand": 4464,
      "▁carrying": 4465,
      "cast": 4466,
      "▁rained": 4467,
      "sing": 4468,
      "▁superhero": 4469,
      "▁holid": 4470,
      "▁holiday": 4471,
      "▁doors": 4472,
      "▁port": 4473,
      "warm": 4474,
      "▁pa": 4475,
      "▁excitedly": 4476,
      "oh": 4477,
      "Yuck": 4478,
      "▁cur": 4479,
      "▁plastic": 4480,
      "▁beg": 4481,
      "rise": 4482,
      "ounce": 4483,
      "years": 4484,
      "▁plates": 4485,
      "heart": 4486,
      "ason": 4487,
      "..": 4488,
      "icer": 4489,
      "▁shakes": 4490,
      "▁barks": 4491,
      "Rob": 4492,
      "▁saving": 4493,
      "▁breat": 4494,
      "anic": 4495,
      "behind": 4496,
      "how": 4497,
      "icky": 4498,
      "▁ended": 4499,
      "gr": 4500,
      "wards": 4501,
      "▁pushes": 4502,
      "▁'": 4503,
      "smiling": 4504,
      "▁softly": 4505,
      "imed": 4506,
      "chanic": 4507,
      "▁points": 4508,
      "▁sunrise": 4509,
      "▁tip": 4510,
      "▁delighted": 4511,
      "▁freeze": 4512,
      "▁giggle": 4513,
      "cond": 4514,
      "Mandy": 4515,
      "▁infant": 4516,
      "▁suffer": 4517,
      "Sunny": 4518,
      "▁Rose": 4519,
      "running": 4520,
      "▁smells": 4521,
      "▁provide": 4522,
      "▁cherry": 4523,
      "▁weapon": 4524,
      "▁sandcast": 4525,
      "▁copper": 4526,
      "▁second": 4527,
      "▁mass": 4528,
      "Mar": 4529,
      "▁bend": 4530,
      "▁End": 4531,
      "▁thumb": 4532,
      "▁meowed": 4533,
      "▁mechanic": 4534,
      "▁applaud": 4535,
      "▁fresh": 4536,
      "▁x": 4537,
      "▁menu": 4538,
      "▁hurricane": 4539,
      "▁dishes": 4540,
      "▁enter": 4541,
      "▁brighter": 4542,
      "▁N": 4543,
      "▁Su": 4544,
      "▁heads": 4545,
      "▁sprayed": 4546,
      "▁event": 4547,
      "cer": 4548,
      "ement": 4549,
      "ophie": 4550,
      "▁wre": 4551,
      "▁score": 4552,
      "\n\"": 4553,
      "Lulu": 4554,
      "▁ref": 4555,
      "▁navy": 4556,
      "▁flies": 4557,
      "▁universe": 4558,
      "▁rooms": 4559,
      "▁searching": 4560,
      "▁planes": 4561,
      "▁Jenny": 4562,
      "▁laught": 4563,
      "▁Kim": 4564,
      "▁castles": 4565,
      "▁dem": 4566,
      "▁Jake": 4567,
      "▁laughter": 4568,
      "▁unhappy": 4569,
      "igi": 4570,
      "▁dare": 4571,
      "▁chasing": 4572,
      "▁greedy": 4573,
      "▁alive": 4574,
      "oe": 4575,
      "▁ener": 4576,
      "▁breaks": 4577,
      "▁feelings": 4578,
      "▁Tweet": 4579,
      "▁invit": 4580,
      "Woof": 4581,
      "▁shivering": 4582,
      "arlie": 4583,
      "ides": 4584,
      "Tina": 4585,
      "▁sticky": 4586,
      "▁trusted": 4587,
      "▁five": 4588,
      "▁letting": 4589,
      "erc": 4590,
      "▁demand": 4591,
      "▁skill": 4592,
      "Pandy": 4593,
      "▁parts": 4594,
      "▁somewhere": 4595,
      "▁courage": 4596,
      "fly": 4597,
      "▁examine": 4598,
      "▁prune": 4599,
      "▁eaten": 4600,
      "enry": 4601,
      "!\".": 4602,
      "▁keeping": 4603,
      "▁throws": 4604,
      "reat": 4605,
      "▁jogged": 4606,
      "quest": 4607,
      "nowy": 4608,
      "of": 4609,
      "▁pushing": 4610,
      "▁chickens": 4611,
      "▁raining": 4612,
      "▁wreck": 4613,
      "▁monkeys": 4614,
      "bles": 4615,
      "▁poison": 4616,
      "▁repeat": 4617,
      "isten": 4618,
      "hy": 4619,
      "▁drops": 4620,
      "Qu": 4621,
      "▁Mum": 4622,
      "▁sport": 4623,
      "▁kneel": 4624,
      "dream": 4625,
      "▁beaut": 4626,
      "▁colourful": 4627,
      "Birdy": 4628,
      "▁rush": 4629,
      "▁stud": 4630,
      "▁vac": 4631,
      "▁sigh": 4632,
      "▁streng": 4633,
      "▁sparkled": 4634,
      "▁Birdy": 4635,
      "▁pretending": 4636,
      "▁equ": 4637,
      "showing": 4638,
      "▁row": 4639,
      "▁shrugged": 4640,
      "▁myself": 4641,
      "rees": 4642,
      "▁bumped": 4643,
      "▁given": 4644,
      "urprise": 4645,
      "▁strength": 4646,
      "▁punish": 4647,
      "▁toe": 4648,
      "▁starting": 4649,
      "▁flood": 4650,
      "▁university": 4651,
      "▁yawned": 4652,
      "▁exerc": 4653,
      "▁mention": 4654,
      "▁request": 4655,
      "▁flapped": 4656,
      "▁prayed": 4657,
      "▁steel": 4658,
      "hoping": 4659,
      "▁putting": 4660,
      "▁upstairs": 4661,
      "▁Lulu": 4662,
      "▁pirates": 4663,
      "▁aw": 4664,
      "▁paid": 4665,
      "▁tracks": 4666,
      "ges": 4667,
      "▁scold": 4668,
      "▁expect": 4669,
      "▁badly": 4670,
      "▁squeezed": 4671,
      "▁nation": 4672,
      "▁crossed": 4673,
      "Bow": 4674,
      "▁tide": 4675,
      "▁news": 4676,
      "▁heat": 4677,
      "▁minute": 4678,
      "▁coats": 4679,
      "▁sandcastle": 4680,
      "▁impressed": 4681,
      "▁warn": 4682,
      "▁leather": 4683,
      "▁claws": 4684,
      "▁snugg": 4685,
      "Spike": 4686,
      "dreaming": 4687,
      "▁observe": 4688,
      "▁Betty": 4689,
      "▁vacation": 4690,
      "thm": 4691,
      "hythm": 4692,
      "ially": 4693,
      "▁settle": 4694,
      "Johnny": 4695,
      "▁strawberries": 4696,
      "▁Bear": 4697,
      "▁believed": 4698,
      "▁explored": 4699,
      "▁tour": 4700,
      "▁network": 4701,
      "▁cheek": 4702,
      "▁checked": 4703,
      "oys": 4704,
      "▁hist": 4705,
      "pr": 4706,
      "honey": 4707,
      "▁easily": 4708,
      "men": 4709,
      "mare": 4710,
      "▁history": 4711,
      "First": 4712,
      "ween": 4713,
      "▁throwing": 4714,
      "▁Tina": 4715,
      "▁Emily": 4716,
      "▁energy": 4717,
      "▁spots": 4718,
      "reeze": 4719,
      "illie": 4720,
      "Owl": 4721,
      "otten": 4722,
      "pecially": 4723,
      "▁imagination": 4724,
      "▁between": 4725,
      "▁massage": 4726,
      "izes": 4727,
      "▁scrat": 4728,
      "▁blueberry": 4729,
      "▁chirp": 4730,
      "▁placed": 4731,
      "Mrs": 4732,
      "▁bears": 4733,
      "▁stomach": 4734,
      "quake": 4735,
      "▁safari": 4736,
      "▁soak": 4737,
      "▁Polly": 4738,
      "▁bother": 4739,
      "▁snowball": 4740,
      "▁yawn": 4741,
      "▁rhythm": 4742,
      "▁insisted": 4743,
      "▁prunes": 4744,
      "▁daisy": 4745,
      "▁content": 4746,
      "▁beauty": 4747,
      "ipment": 4748,
      "▁musc": 4749,
      "noon": 4750,
      "Big": 4751,
      "▁poppy": 4752,
      "▁offer": 4753,
      "▁stair": 4754,
      "▁buzz": 4755,
      "▁entered": 4756,
      "▁equipment": 4757,
      "▁ing": 4758,
      "put": 4759,
      "▁afternoon": 4760,
      "Co": 4761,
      "▁brain": 4762,
      "▁baking": 4763,
      "▁twisted": 4764,
      "ud": 4765,
      "▁nightmare": 4766,
      "▁calls": 4767,
      "Dave": 4768,
      "▁Peter": 4769,
      "▁burned": 4770,
      "redient": 4771,
      "▁earthquake": 4772,
      "Whenever": 4773,
      "▁ingredient": 4774,
      "▁palm": 4775,
      "Binky": 4776,
      "xygen": 4777,
      "▁ignored": 4778,
      "▁pad": 4779,
      "apa": 4780,
      "Goodbye": 4781,
      "▁lemonade": 4782,
      "arnt": 4783,
      "mble": 4784,
      "▁writing": 4785,
      "▁learnt": 4786,
      "after": 4787,
      "▁hills": 4788,
      "▁sew": 4789,
      "Mike": 4790,
      "▁showing": 4791,
      "▁tug": 4792,
      "aped": 4793,
      "Happy": 4794,
      "▁whistled": 4795,
      "Jazz": 4796,
      "ffic": 4797,
      "▁scoop": 4798,
      "isty": 4799,
      "Tweet": 4800,
      "▁sty": 4801,
      "▁increase": 4802,
      "edn": 4803,
      "ednesday": 4804,
      "ittens": 4805,
      "▁backpack": 4806,
      "▁tremble": 4807,
      "▁blowing": 4808,
      "anges": 4809,
      "ys": 4810,
      "four": 4811,
      "▁permit": 4812,
      "▁lemons": 4813,
      "queaky": 4814,
      "▁floated": 4815,
      "▁moves": 4816,
      "▁shopkeeper": 4817,
      "▁pedal": 4818,
      "Lee": 4819,
      "▁bouncing": 4820,
      "Buzzy": 4821,
      "▁traffic": 4822,
      "Sharing": 4823,
      "sir": 4824,
      "urry": 4825,
      "▁introduce": 4826,
      "Rem": 4827,
      "resses": 4828,
      "▁planned": 4829,
      "▁strike": 4830,
      "eration": 4831,
      "▁crash": 4832,
      "▁mailman": 4833,
      "▁pitch": 4834,
      "ecting": 4835,
      "▁include": 4836,
      "▁price": 4837,
      "▁slap": 4838,
      "▁yucky": 4839,
      "good": 4840,
      "▁clapping": 4841,
      "azed": 4842,
      "▁wags": 4843,
      "▁below": 4844,
      "▁weight": 4845,
      "▁rabbits": 4846,
      "▁follows": 4847,
      "▁scratch": 4848,
      "▁wisdom": 4849,
      "▁beans": 4850,
      "▁horses": 4851,
      "gie": 4852,
      "▁recognize": 4853,
      "▁luck": 4854,
      "tain": 4855,
      "bright": 4856,
      "▁buried": 4857,
      "being": 4858,
      "▁pur": 4859,
      "leaving": 4860,
      "▁knowing": 4861,
      "▁ingredients": 4862,
      "were": 4863,
      "rec": 4864,
      "nday": 4865,
      "Remember": 4866,
      "riage": 4867,
      "▁nobody": 4868,
      "Fox": 4869,
      "fluffy": 4870,
      "▁apart": 4871,
      "▁growled": 4872,
      "▁closely": 4873,
      "Boo": 4874,
      "Follow": 4875,
      "uct": 4876,
      "▁hopes": 4877,
      "▁chore": 4878,
      "▁candles": 4879,
      "▁heel": 4880,
      "▁Rob": 4881,
      "Sm": 4882,
      "ky": 4883,
      "▁marbles": 4884,
      "▁racing": 4885,
      "Olive": 4886,
      "▁encourage": 4887,
      "igging": 4888,
      "Ro": 4889,
      "▁chewed": 4890,
      "taking": 4891,
      "▁zigzag": 4892,
      "cery": 4893,
      "▁folded": 4894,
      "▁grocery": 4895,
      "▁image": 4896,
      "▁further": 4897,
      "Teddy": 4898,
      "▁teaching": 4899,
      "child": 4900,
      "▁True": 4901,
      "▁peanuts": 4902,
      "▁acorns": 4903,
      "Ellie": 4904,
      "▁chores": 4905,
      "eep": 4906,
      "▁winning": 4907,
      "▁Buzz": 4908,
      "Betty": 4909,
      "ishing": 4910,
      "▁cape": 4911,
      "hood": 4912,
      "▁dresses": 4913,
      "▁spike": 4914,
      "uby": 4915,
      "ifi": 4916,
      "▁urge": 4917,
      "▁Sunday": 4918,
      "▁exercise": 4919,
      "▁thanks": 4920,
      "ups": 4921,
      "▁exper": 4922,
      "ories": 4923,
      "ecture": 4924,
      "cars": 4925,
      "▁deeper": 4926,
      "▁hearts": 4927,
      "ring": 4928,
      "▁quite": 4929,
      "▁operation": 4930,
      "say": 4931,
      "▁enjoying": 4932,
      "▁whisper": 4933,
      "▁attention": 4934,
      "▁creatures": 4935,
      "Everything": 4936,
      "oral": 4937,
      "▁struggle": 4938,
      "hairy": 4939,
      "▁splashing": 4940,
      "▁solved": 4941,
      "▁invitation": 4942,
      "▁blood": 4943,
      "▁snail": 4944,
      "▁cub": 4945,
      "▁lecture": 4946,
      "▁underground": 4947,
      "▁Pete": 4948,
      "▁vanished": 4949,
      "iggly": 4950,
      "▁licks": 4951,
      "▁gifts": 4952,
      "▁welcom": 4953,
      "Zoomy": 4954,
      "oved": 4955,
      "▁planted": 4956,
      "▁worms": 4957,
      "Lilly": 4958,
      "▁simp": 4959,
      "▁marriage": 4960,
      "Pat": 4961,
      "sit": 4962,
      "reci": 4963,
      "uesday": 4964,
      "Le": 4965,
      "▁fallen": 4966,
      "▁Teddy": 4967,
      "heavy": 4968,
      "ips": 4969,
      "▁breathe": 4970,
      "▁digging": 4971,
      "enjoy": 4972,
      "Speedy": 4973,
      "▁landscape": 4974,
      "never": 4975,
      "▁counter": 4976,
      "▁twisty": 4977,
      "▁jazz": 4978,
      "▁hurting": 4979,
      "▁quietly": 4980,
      "iving": 4981,
      "ipping": 4982,
      "▁neighbour": 4983,
      "▁snuggled": 4984,
      "▁warning": 4985,
      "▁worth": 4986,
      "▁appreci": 4987,
      "Rose": 4988,
      "Uncle": 4989,
      "▁paused": 4990,
      "▁shined": 4991,
      "▁washing": 4992,
      "ending": 4993,
      "▁dressed": 4994,
      "▁reaches": 4995,
      "▁Will": 4996,
      "▁sizes": 4997,
      "▁mice": 4998,
      "▁oxygen": 4999,
      "lls": 5000,
      "ops": 5001,
      "mm": 5002,
      "▁sprink": 5003,
      "pted": 5004,
      "▁puzzles": 5005,
      "maybe": 5006,
      "sl": 5007,
      "sed": 5008,
      "isses": 5009,
      "ucked": 5010,
      "▁plays": 5011,
      "sometimes": 5012,
      "▁kisses": 5013,
      "▁dried": 5014,
      "yes": 5015,
      "Yum": 5016,
      "▁wob": 5017,
      "▁ideas": 5018,
      "Kiki": 5019,
      "▁release": 5020,
      "▁ble": 5021,
      "Joey": 5022,
      "▁style": 5023,
      "oves": 5024,
      "Lola": 5025,
      "▁dear": 5026,
      "▁Grandpa": 5027,
      "▁bricks": 5028,
      "▁married": 5029,
      "Freddy": 5030,
      "▁memory": 5031,
      "▁eagerly": 5032,
      "osie": 5033,
      "▁accepted": 5034,
      "ury": 5035,
      "Danny": 5036,
      "God": 5037,
      "Each": 5038,
      "▁hon": 5039,
      "unately": 5040,
      "▁exit": 5041,
      "▁fireworks": 5042,
      "▁wandered": 5043,
      "raged": 5044,
      "▁flap": 5045,
      "▁web": 5046,
      "▁Mar": 5047,
      "ddy": 5048,
      "▁sailing": 5049,
      "▁fash": 5050,
      "friends": 5051,
      "▁receive": 5052,
      "▁balan": 5053,
      "Mag": 5054,
      "both": 5055,
      "▁Susie": 5056,
      "▁manage": 5057,
      "ouncy": 5058,
      "▁destroyed": 5059,
      "umble": 5060,
      "▁petals": 5061,
      "▁hadn": 5062,
      "▁brings": 5063,
      "nce": 5064,
      "alking": 5065,
      "sweetheart": 5066,
      "Watch": 5067,
      "▁pinched": 5068,
      "▁worse": 5069,
      "▁printer": 5070,
      "▁Spike": 5071,
      "▁fashion": 5072,
      "▁resp": 5073,
      "▁hits": 5074,
      "ining": 5075,
      "▁scattered": 5076,
      "▁watered": 5077,
      "fun": 5078,
      "▁appear": 5079,
      "still": 5080,
      "▁sorts": 5081,
      "▁pillows": 5082,
      "things": 5083,
      "▁vanish": 5084,
      "▁treasures": 5085,
      "etch": 5086,
      "▁si": 5087,
      "▁memories": 5088,
      "▁mama": 5089,
      "▁blink": 5090,
      "▁disagree": 5091,
      "George": 5092,
      "▁seats": 5093,
      "enjoying": 5094,
      "Grace": 5095,
      "▁hers": 5096,
      "▁signs": 5097,
      "▁Sunny": 5098,
      "hee": 5099,
      "▁scolded": 5100,
      "▁sits": 5101,
      "five": 5102,
      "▁prints": 5103,
      "Paul": 5104,
      "ne": 5105,
      "▁gazed": 5106,
      "▁rang": 5107,
      "osed": 5108,
      "ux": 5109,
      "▁snapped": 5110,
      "down": 5111,
      "▁tremb": 5112,
      "▁bones": 5113,
      "▁shot": 5114,
      "akes": 5115,
      "▁Mrs": 5116,
      "▁raised": 5117,
      "roll": 5118,
      "▁shouting": 5119,
      "▁skills": 5120,
      "omed": 5121,
      "Red": 5122,
      "▁bur": 5123,
      "▁easier": 5124,
      "▁zipped": 5125,
      "ccer": 5126,
      "ester": 5127,
      "▁climbs": 5128,
      "ssible": 5129,
      "▁difference": 5130,
      "▁pears": 5131,
      "wat": 5132,
      "esterday": 5133,
      "white": 5134,
      "hello": 5135,
      "laimed": 5136,
      "wa": 5137,
      "loud": 5138,
      "▁soccer": 5139,
      "▁nowhere": 5140,
      "funny": 5141,
      "▁forgotten": 5142,
      "ising": 5143,
      "▁season": 5144,
      "wanted": 5145,
      "▁pies": 5146,
      "▁fro": 5147,
      "Surprise": 5148,
      "▁baked": 5149,
      "choo": 5150,
      "▁bites": 5151,
      "▁celebrated": 5152,
      "Carl": 5153,
      "▁lung": 5154,
      "▁tomatoes": 5155,
      "▁muddy": 5156,
      "▁exclaimed": 5157,
      "▁lux": 5158,
      "ah": 5159,
      "tall": 5160,
      "▁unt": 5161,
      "▁dared": 5162,
      "bby": 5163,
      "▁twirled": 5164,
      "sters": 5165,
      "▁captain": 5166,
      "▁Poppy": 5167,
      "▁welcomed": 5168,
      "▁crow": 5169,
      "give": 5170,
      "▁gloves": 5171,
      "▁catching": 5172,
      "Ok": 5173,
      "Bill": 5174,
      "Moral": 5175,
      "▁ours": 5176,
      "▁collected": 5177,
      "▁tong": 5178,
      "▁emer": 5179,
      "▁visited": 5180,
      "▁vel": 5181,
      "medi": 5182,
      "▁Wednesday": 5183,
      "▁stitch": 5184,
      "▁unlocked": 5185,
      "▁Miss": 5186,
      "mediately": 5187,
      "Henry": 5188,
      "hest": 5189,
      "Alex": 5190,
      "▁sorting": 5191,
      "▁velvet": 5192,
      "outed": 5193,
      "▁winner": 5194,
      "▁jogging": 5195,
      "Dog": 5196,
      "▁blankets": 5197,
      "▁during": 5198,
      "▁attached": 5199,
      "▁Tuesday": 5200,
      "▁trave": 5201,
      "▁prett": 5202,
      "▁sliding": 5203,
      "▁cakes": 5204,
      "Both": 5205,
      "ction": 5206,
      "▁allow": 5207,
      "\",": 5208,
      "▁shouldn": 5209,
      "Gigi": 5210,
      "▁cutting": 5211,
      "▁famil": 5212,
      "▁weeping": 5213,
      "▁guessed": 5214,
      "Charlie": 5215,
      "▁kingdom": 5216,
      "▁pets": 5217,
      "▁created": 5218,
      "Meow": 5219,
      "children": 5220,
      "Sophie": 5221,
      "▁selling": 5222,
      "▁urged": 5223,
      "▁luxury": 5224,
      "▁waist": 5225,
      "▁bowed": 5226,
      "▁simple": 5227,
      "Someone": 5228,
      "▁punished": 5229,
      "▁straight": 5230,
      "▁bleed": 5231,
      "Always": 5232,
      "ents": 5233,
      "Out": 5234,
      "▁toes": 5235,
      "ocky": 5236,
      "▁olives": 5237,
      "▁stuffed": 5238,
      "aker": 5239,
      "▁bru": 5240,
      "▁vict": 5241,
      "▁melted": 5242,
      "▁zero": 5243,
      "▁grant": 5244,
      "▁slice": 5245,
      "omeday": 5246,
      "▁collection": 5247,
      "▁muscles": 5248,
      "▁beds": 5249,
      "iers": 5250,
      "▁measured": 5251,
      "Hoppy": 5252,
      "ship": 5253,
      "▁marching": 5254,
      "fortunately": 5255,
      "Annie": 5256,
      "▁west": 5257,
      "▁tore": 5258,
      "▁lined": 5259,
      "▁encouraged": 5260,
      "Dan": 5261,
      "Elly": 5262,
      "bbit": 5263,
      "▁oranges": 5264,
      "▁acted": 5265,
      "▁trapped": 5266,
      "grandma": 5267,
      "▁patterns": 5268,
      "▁spoons": 5269,
      "▁waffles": 5270,
      "▁seeing": 5271,
      "aded": 5272,
      "▁jewels": 5273,
      "▁received": 5274,
      "▁peaches": 5275,
      "▁breeze": 5276,
      "▁mouths": 5277,
      "▁grin": 5278,
      "icking": 5279,
      "▁printed": 5280,
      "umes": 5281,
      "▁floating": 5282,
      "▁shed": 5283,
      "brown": 5284,
      "ino": 5285,
      "!'": 5286,
      "Bl": 5287,
      "kins": 5288,
      "▁experience": 5289,
      "▁soldiers": 5290,
      "walk": 5291,
      "▁Carl": 5292,
      "did": 5293,
      "bbing": 5294,
      "▁pupil": 5295,
      "lowly": 5296,
      "▁presents": 5297,
      "▁God": 5298,
      "pretending": 5299,
      "▁tongue": 5300,
      "Sn": 5301,
      "▁someday": 5302,
      "car": 5303,
      "Bee": 5304,
      "▁Bill": 5305,
      "Bubbles": 5306,
      "▁drinks": 5307,
      "named": 5308,
      "▁hurried": 5309,
      "▁costumes": 5310,
      "Stay": 5311,
      "ission": 5312,
      "vest": 5313,
      "people": 5314,
      "▁since": 5315,
      "▁sip": 5316,
      "▁pearl": 5317,
      "▁voices": 5318,
      "▁victory": 5319,
      "▁relaxed": 5320,
      "dolls": 5321,
      "far": 5322,
      "▁highest": 5323,
      "Its": 5324,
      "▁disagreed": 5325,
      "▁appro": 5326,
      "slide": 5327,
      "ding": 5328,
      "squirrel": 5329,
      "▁permission": 5330,
      "Like": 5331,
      "zoom": 5332,
      "icing": 5333,
      "▁sorted": 5334,
      "▁paints": 5335,
      "mo": 5336,
      "▁watches": 5337,
      "!\",": 5338,
      "▁Co": 5339,
      "Lucky": 5340,
      "▁Toby": 5341,
      "▁cras": 5342,
      "pig": 5343,
      "▁esc": 5344,
      "▁fishing": 5345,
      "▁herbs": 5346,
      "▁none": 5347,
      "▁begged": 5348,
      "izard": 5349,
      "▁pra": 5350,
      "▁pulling": 5351,
      "vroom": 5352,
      "▁waving": 5353,
      "▁remained": 5354,
      "▁immediately": 5355,
      "▁warmth": 5356,
      "▁golden": 5357,
      "▁mentioned": 5358,
      "Bounce": 5359,
      "▁tonight": 5360,
      "▁shadows": 5361,
      "ded": 5362,
      "Penny": 5363,
      "▁teasing": 5364,
      "▁perfectly": 5365,
      "▁spit": 5366,
      "Our": 5367,
      "watching": 5368,
      "▁opin": 5369,
      "▁sneak": 5370,
      "▁drinking": 5371,
      "irring": 5372,
      "une": 5373,
      "plash": 5374,
      "▁lips": 5375,
      "▁following": 5376,
      "▁Zoom": 5377,
      "▁sidewalk": 5378,
      "birds": 5379,
      "▁lets": 5380,
      "▁Ellie": 5381,
      "▁stamps": 5382,
      "▁kneeled": 5383,
      "▁breaking": 5384,
      "waiting": 5385,
      "Zara": 5386,
      "int": 5387,
      "open": 5388,
      "va": 5389,
      "▁ago": 5390,
      "▁strang": 5391,
      "Harry": 5392,
      "▁headed": 5393,
      "▁colours": 5394,
      "had": 5395,
      "use": 5396,
      "▁contest": 5397,
      "▁flat": 5398,
      "▁elephants": 5399,
      "▁cartoons": 5400,
      "boys": 5401,
      "▁roots": 5402,
      "▁fetch": 5403,
      "▁supposed": 5404,
      "▁east": 5405,
      "utter": 5406,
      "▁emergen": 5407,
      "ety": 5408,
      "▁twink": 5409,
      "▁Red": 5410,
      "▁decorations": 5411,
      "▁ringing": 5412,
      "▁potatoes": 5413,
      "▁works": 5414,
      "▁known": 5415,
      "Beep": 5416,
      "boo": 5417,
      "Thanks": 5418,
      "Kim": 5419,
      "Really": 5420,
      "trees": 5421,
      "▁melting": 5422,
      "ho": 5423,
      "ishes": 5424,
      "▁cones": 5425,
      "many": 5426,
      "▁rested": 5427,
      "have": 5428,
      "▁succeeded": 5429,
      "▁lily": 5430,
      "mon": 5431,
      "▁fed": 5432,
      "▁laid": 5433,
      "Keep": 5434,
      "Sandy": 5435,
      "▁wiggle": 5436,
      "▁studied": 5437,
      "▁shock": 5438,
      "▁Zip": 5439,
      "orange": 5440,
      "▁strangers": 5441,
      ":\n\"": 5442,
      "▁Alice": 5443,
      "▁screams": 5444,
      "▁lines": 5445,
      "▁theirs": 5446,
      "▁instr": 5447,
      "▁lands": 5448,
      "▁Bubbles": 5449,
      "However": 5450,
      "ju": 5451,
      "▁King": 5452,
      "▁ordered": 5453,
      "Something": 5454,
      "idges": 5455,
      "Smith": 5456,
      "▁moments": 5457,
      "ped": 5458,
      "Ex": 5459,
      "▁setting": 5460,
      "black": 5461,
      "▁skipping": 5462,
      "▁invest": 5463,
      "▁whistling": 5464,
      "mister": 5465,
      "▁rul": 5466,
      "▁Mike": 5467,
      "sad": 5468,
      "▁investig": 5469,
      "abies": 5470,
      "avid": 5471,
      "▁fields": 5472,
      "▁Ted": 5473,
      "▁playtime": 5474,
      "▁vroom": 5475,
      "▁scratched": 5476,
      "▁kitty": 5477,
      "▁burning": 5478,
      "▁ach": 5479,
      "exture": 5480,
      "ots": 5481,
      "Millie": 5482,
      "▁matched": 5483,
      "▁settled": 5484,
      "▁waits": 5485,
      "▁texture": 5486,
      "▁Bessie": 5487,
      "▁ripped": 5488,
      "▁surround": 5489,
      "?\".\n": 5490,
      "mother": 5491,
      "Unfortunately": 5492,
      "▁stealing": 5493,
      "▁crunch": 5494,
      "fo": 5495,
      "▁bouncy": 5496,
      "▁bravely": 5497,
      "gra": 5498,
      "▁Dolly": 5499,
      "▁alright": 5500,
      "ugar": 5501,
      "▁lick": 5502,
      "▁piles": 5503,
      "▁investigate": 5504,
      "▁resting": 5505,
      "▁twigs": 5506,
      "▁sore": 5507,
      "▁babies": 5508,
      "atie": 5509,
      "▁emergency": 5510,
      "▁slapped": 5511,
      "▁mixing": 5512,
      "▁silence": 5513,
      "▁tucked": 5514,
      "▁sisters": 5515,
      "▁appreciate": 5516,
      "▁broom": 5517,
      "▁muffins": 5518,
      "▁escaped": 5519,
      "▁importance": 5520,
      "▁answers": 5521,
      "Pip": 5522,
      "▁dads": 5523,
      "izing": 5524,
      "Tilly": 5525,
      "▁area": 5526,
      "Maggie": 5527,
      "▁threat": 5528,
      "▁served": 5529,
      "Friend": 5530,
      "Put": 5531,
      "▁Fl": 5532,
      "pink": 5533,
      "take": 5534,
      "▁safety": 5535,
      "these": 5536,
      "James": 5537,
      "▁officer": 5538,
      "allen": 5539,
      "toys": 5540,
      "bigail": 5541,
      "▁pupp": 5542,
      "bad": 5543,
      "▁ladybug": 5544,
      "▁sparkle": 5545,
      "Those": 5546,
      "Finn": 5547,
      "▁stirring": 5548,
      "▁sings": 5549,
      "▁kicking": 5550,
      "zing": 5551,
      "whenever": 5552,
      "bers": 5553,
      "asty": 5554,
      "antly": 5555,
      "▁amazement": 5556,
      "▁soared": 5557,
      "anna": 5558,
      "especially": 5559,
      "▁keys": 5560,
      "▁Pippin": 5561,
      "▁girls": 5562,
      "repl": 5563,
      "▁hen": 5564,
      "▁keeps": 5565,
      "▁challen": 5566,
      "May": 5567,
      "▁revealed": 5568,
      "▁item": 5569,
      "?\n": 5570,
      "▁hesit": 5571,
      "frog": 5572,
      "small": 5573,
      "▁dire": 5574,
      "Pinky": 5575,
      "att": 5576,
      "▁writ": 5577,
      "reement": 5578,
      "Ted": 5579,
      "For": 5580,
      "Mmm": 5581,
      ".'": 5582,
      "Leave": 5583,
      "▁soaked": 5584,
      "▁foods": 5585,
      "Finny": 5586,
      "Baby": 5587,
      "achel": 5588,
      "Tr": 5589,
      "▁pigs": 5590,
      "safe": 5591,
      "▁trembling": 5592,
      "replied": 5593,
      "▁trips": 5594,
      "▁wink": 5595,
      "▁glowed": 5596,
      "▁recorded": 5597,
      "▁isn": 5598,
      "ored": 5599,
      "Maria": 5600,
      "▁bye": 5601,
      "▁nails": 5602,
      "rr": 5603,
      "▁tickle": 5604,
      "▁Pe": 5605,
      "▁hated": 5606,
      "▁Papa": 5607,
      "Coco": 5608,
      "rem": 5609,
      "▁chewing": 5610,
      "books": 5611,
      "▁wizard": 5612,
      "hew": 5613,
      "▁vet": 5614,
      "▁shopping": 5615,
      "▁gust": 5616,
      "▁understanding": 5617,
      "▁eats": 5618,
      "sn": 5619,
      "▁dinosaurs": 5620,
      "▁Lola": 5621,
      "clean": 5622,
      "▁beamed": 5623,
      "▁ruler": 5624,
      "▁Big": 5625,
      "act": 5626,
      "▁tastes": 5627,
      "ales": 5628,
      "Bluey": 5629,
      "▁rides": 5630,
      "Slowly": 5631,
      "▁downstairs": 5632,
      "▁mittens": 5633,
      "▁flav": 5634,
      "▁Snowy": 5635,
      "▁spaceship": 5636,
      "▁praised": 5637,
      "using": 5638,
      "▁marks": 5639,
      "▁Cl": 5640,
      "▁inch": 5641,
      "Hold": 5642,
      "▁napping": 5643,
      "irts": 5644,
      "▁curled": 5645,
      "▁Freddy": 5646,
      "▁families": 5647,
      "▁Pat": 5648,
      "kind": 5649,
      "▁fut": 5650,
      "▁result": 5651,
      "▁future": 5652,
      "jumping": 5653,
      "imals": 5654,
      "▁approached": 5655,
      "Yummy": 5656,
      "▁leaving": 5657,
      "▁studying": 5658,
      "rough": 5659,
      "▁sprinkles": 5660,
      "ugly": 5661,
      "▁twin": 5662,
      "▁cuddled": 5663,
      "long": 5664,
      "▁Br": 5665,
      "▁bang": 5666,
      "ushing": 5667,
      "▁Little": 5668,
      "▁monsters": 5669,
      "scared": 5670,
      "▁remem": 5671,
      "iring": 5672,
      "▁remembers": 5673,
      "▁Squeaky": 5674,
      "▁nicer": 5675,
      "▁leader": 5676,
      "▁disturbed": 5677,
      "Snowy": 5678,
      "Tony": 5679,
      "▁beat": 5680,
      "▁oat": 5681,
      "sharing": 5682,
      "▁sneaky": 5683,
      "▁brushes": 5684,
      "▁noon": 5685,
      "▁thrill": 5686,
      "▁weighed": 5687,
      "▁touching": 5688,
      "▁neighborhood": 5689,
      "Behind": 5690,
      "▁hi": 5691,
      "▁crawling": 5692,
      "▁possible": 5693,
      "Pr": 5694,
      "▁Dave": 5695,
      "Listen": 5696,
      "incess": 5697,
      "▁measuring": 5698,
      "ues": 5699,
      "aved": 5700,
      "▁loose": 5701,
      "ippa": 5702,
      "▁naps": 5703,
      "Clara": 5704,
      "Snow": 5705,
      "▁motion": 5706,
      "Wiggly": 5707,
      "▁swims": 5708,
      "▁recognized": 5709,
      "▁youth": 5710,
      "▁apologized": 5711,
      "▁conf": 5712,
      "▁wonders": 5713,
      "fied": 5714,
      "Su": 5715,
      "▁tricked": 5716,
      "▁firemen": 5717,
      "▁siren": 5718,
      "▁pride": 5719,
      "sugar": 5720,
      "Quick": 5721,
      "▁gained": 5722,
      "▁crunchy": 5723,
      "Ruby": 5724,
      "▁V": 5725,
      "▁wooden": 5726,
      "▁tickets": 5727,
      "▁awe": 5728,
      "▁worker": 5729,
      "talking": 5730,
      "▁crashed": 5731,
      "stick": 5732,
      "▁prepared": 5733,
      "Fifi": 5734,
      "▁opinion": 5735,
      "Tuna": 5736,
      "▁happiest": 5737,
      "▁prec": 5738,
      "unnies": 5739,
      "wet": 5740,
      "▁strings": 5741,
      "▁draws": 5742,
      "pigs": 5743,
      "▁obe": 5744,
      "▁Mummy": 5745,
      "Get": 5746,
      "▁bridges": 5747,
      "Achoo": 5748,
      "▁turning": 5749,
      "elvet": 5750,
      "▁grinned": 5751,
      "▁pedals": 5752,
      "▁sneaked": 5753,
      "Quack": 5754,
      "giving": 5755,
      "▁owned": 5756,
      "Kate": 5757,
      "!\".\n": 5758,
      "rink": 5759,
      "▁poems": 5760,
      "▁eff": 5761,
      "▁bleeding": 5762,
      "swing": 5763,
      "mag": 5764,
      "▁tallest": 5765,
      "▁George": 5766,
      "▁agreement": 5767,
      "ogo": 5768,
      "though": 5769,
      "ena": 5770,
      "▁struck": 5771,
      "▁knelt": 5772,
      "▁respons": 5773,
      "Chicky": 5774,
      "listen": 5775,
      "▁peel": 5776,
      "During": 5777,
      "▁decides": 5778,
      "▁seesaw": 5779,
      "▁scooped": 5780,
      "indy": 5781,
      "ieve": 5782,
      "▁bringing": 5783,
      "udy": 5784,
      "zen": 5785,
      "▁chef": 5786,
      "▁behaved": 5787,
      "shouted": 5788,
      "follow": 5789,
      "▁frost": 5790,
      "▁secrets": 5791,
      "▁bunnies": 5792,
      "▁Mittens": 5793,
      "▁keeper": 5794,
      "▁tugged": 5795,
      "rios": 5796,
      "▁scaring": 5797,
      "▁obey": 5798,
      "riosity": 5799,
      "▁Bee": 5800,
      "▁sides": 5801,
      "dear": 5802,
      "fy": 5803,
      "Thom": 5804,
      "▁precious": 5805,
      "▁goodnight": 5806,
      "▁decorated": 5807,
      "▁contain": 5808,
      "rs": 5809,
      "tree": 5810,
      "▁pause": 5811,
      "lier": 5812,
      "over": 5813,
      "ien": 5814,
      "imy": 5815,
      "new": 5816,
      "Being": 5817,
      "▁horns": 5818,
      "eat": 5819,
      "▁shooting": 5820,
      "affes": 5821,
      "▁ourselves": 5822,
      "▁Froggy": 5823,
      "▁anytime": 5824,
      "impress": 5825,
      "▁Finny": 5826,
      "▁claps": 5827,
      "▁repeated": 5828,
      "ays": 5829,
      "isdom": 5830,
      "cried": 5831,
      "juicy": 5832,
      "anding": 5833,
      "Jul": 5834,
      "ppers": 5835,
      "allow": 5836,
      "▁collecting": 5837,
      "▁writes": 5838,
      "▁poking": 5839,
      "▁lap": 5840,
      "Thomas": 5841,
      "▁Mandy": 5842,
      "Ah": 5843,
      "rab": 5844,
      "Hop": 5845,
      "▁hissed": 5846,
      "▁yelling": 5847,
      "ippy": 5848,
      "Bad": 5849,
      "Time": 5850,
      "▁prop": 5851,
      "En": 5852,
      "thinking": 5853,
      "▁struggled": 5854,
      "▁chirped": 5855,
      "oring": 5856,
      "▁Finn": 5857,
      "▁frosting": 5858,
      "▁effort": 5859,
      "arky": 5860,
      "▁ple": 5861,
      "▁snowballs": 5862,
      "unexpected": 5863,
      "▁spending": 5864,
      "woof": 5865,
      "Froggy": 5866,
      "▁Paul": 5867,
      "another": 5868,
      "Suzy": 5869,
      "Friends": 5870,
      "Ste": 5871,
      "▁bloomed": 5872,
      "fight": 5873,
      "Water": 5874,
      "▁kindly": 5875,
      "▁pockets": 5876,
      "▁acting": 5877,
      "'.": 5878,
      "dis": 5879,
      "water": 5880,
      "▁Lee": 5881,
      "▁beside": 5882,
      "▁traveled": 5883,
      "▁polished": 5884,
      "▁seems": 5885,
      "▁Johnny": 5886,
      "Sad": 5887,
      "iggy": 5888,
      "impressive": 5889,
      "▁earlier": 5890,
      "▁Pandy": 5891,
      "▁frozen": 5892,
      "▁Dog": 5893,
      "Two": 5894,
      "ities": 5895,
      "▁ruin": 5896,
      "son": 5897,
      "▁yesterday": 5898,
      "Mittens": 5899,
      "▁demanded": 5900,
      "▁radishes": 5901,
      "surpr": 5902,
      "▁circus": 5903,
      "angry": 5904,
      "aster": 5905,
      "▁machines": 5906,
      "▁Jazz": 5907,
      "▁Alex": 5908,
      "▁cracked": 5909,
      "▁sting": 5910,
      "edding": 5911,
      "▁removed": 5912,
      "▁Buzzy": 5913,
      "▁boo": 5914,
      "▁hardly": 5915,
      "▁catches": 5916,
      "▁wagging": 5917,
      "▁petted": 5918,
      "▁powers": 5919,
      "near": 5920,
      "animals": 5921,
      "usty": 5922,
      "▁balancing": 5923,
      "▁thrilled": 5924,
      "▁splashes": 5925,
      "sunny": 5926,
      "▁gaze": 5927,
      "▁zookeeper": 5928,
      "▁stripes": 5929,
      "Everyday": 5930,
      "▁loaded": 5931,
      "ran": 5932,
      "forted": 5933,
      "▁belly": 5934,
      "amie": 5935,
      "▁stare": 5936,
      "▁Dan": 5937,
      "iding": 5938,
      "▁comforted": 5939,
      "▁Hoppy": 5940,
      "Kids": 5941,
      "loe": 5942,
      "▁curiosity": 5943,
      "▁decision": 5944,
      "▁sparkling": 5945,
      "▁pebbles": 5946,
      "▁apologize": 5947,
      "▁expected": 5948,
      "▁rocked": 5949,
      "▁pots": 5950,
      "▁buzzing": 5951,
      "▁neighbors": 5952,
      "bear": 5953,
      "▁brushed": 5954,
      "▁protected": 5955,
      "▁sadness": 5956,
      "▁steep": 5957,
      "▁goals": 5958,
      "iders": 5959,
      "▁purred": 5960,
      "▁smiley": 5961,
      "li": 5962,
      "wide": 5963,
      "inning": 5964,
      "nie": 5965,
      "▁granted": 5966,
      "duck": 5967,
      "▁deser": 5968,
      "Frog": 5969,
      "▁Speedy": 5970,
      "▁lied": 5971,
      "▁chases": 5972,
      "▁argued": 5973,
      "▁paintings": 5974,
      "▁heroes": 5975,
      "▁pastels": 5976,
      "jam": 5977,
      "Take": 5978,
      "Wally": 5979,
      "▁folding": 5980,
      "ira": 5981,
      "▁peered": 5982,
      "▁beard": 5983,
      "uke": 5984,
      "leave": 5985,
      "Pl": 5986,
      "▁rocking": 5987,
      "▁discovery": 5988,
      "▁crumb": 5989,
      "▁Tilly": 5990,
      "daddy": 5991,
      "▁sunlight": 5992,
      "▁eagle": 5993,
      "▁safer": 5994,
      "▁parties": 5995,
      "▁organizing": 5996,
      "cakes": 5997,
      "Hippy": 5998,
      "▁villag": 5999,
      "▁wedding": 6000,
      "▁whatever": 6001,
      "▁tim": 6002,
      "▁Lilly": 6003,
      "▁released": 6004,
      "specially": 6005,
      "▁loving": 6006,
      "banan": 6007,
      "▁dipped": 6008,
      "▁matching": 6009,
      "▁struggling": 6010,
      "Bo": 6011,
      "heese": 6012,
      "▁stro": 6013,
      "▁giraffes": 6014,
      "ashed": 6015,
      "Milly": 6016,
      "▁sled": 6017,
      "guing": 6018,
      "▁sausages": 6019,
      "▁ann": 6020,
      "▁meow": 6021,
      "▁clearing": 6022,
      "▁dragged": 6023,
      "▁grey": 6024,
      "from": 6025,
      "▁buildings": 6026,
      "▁tails": 6027,
      "Liz": 6028,
      "▁arguing": 6029,
      "beep": 6030,
      "▁Sophie": 6031,
      "▁airpl": 6032,
      "▁buckets": 6033,
      "eating": 6034,
      "▁wiggled": 6035,
      "played": 6036,
      "▁teased": 6037,
      "▁roads": 6038,
      "ugging": 6039,
      "▁drives": 6040,
      "▁Kate": 6041,
      "▁teaches": 6042,
      "saying": 6043,
      "▁limes": 6044,
      "singing": 6045,
      "sitting": 6046,
      "▁smallest": 6047,
      "illed": 6048,
      "joyed": 6049,
      "▁continue": 6050,
      "▁padd": 6051,
      "▁challenge": 6052,
      "▁polishing": 6053,
      "▁dragons": 6054,
      "▁actually": 6055,
      "▁movies": 6056,
      "Mo": 6057,
      "deep": 6058,
      "▁cuts": 6059,
      "▁Rosie": 6060,
      "▁mane": 6061,
      "rol": 6062,
      "▁talent": 6063,
      "▁Bow": 6064,
      "▁cubes": 6065,
      "▁situ": 6066,
      "▁overjoyed": 6067,
      "▁sighs": 6068,
      "remember": 6069,
      "▁flutter": 6070,
      "▁cuddle": 6071,
      "▁pretends": 6072,
      "proud": 6073,
      "Am": 6074,
      "▁planets": 6075,
      "Squeaky": 6076,
      "ashing": 6077,
      "▁grandmother": 6078,
      "Car": 6079,
      "Splash": 6080,
      "▁peppers": 6081,
      "▁darker": 6082,
      "▁ribbons": 6083,
      "▁Coco": 6084,
      "▁rip": 6085,
      "▁Kiki": 6086,
      "▁sparkles": 6087,
      "▁shivered": 6088,
      "▁Maria": 6089,
      "▁bank": 6090,
      "▁quarreling": 6091,
      "sses": 6092,
      "arth": 6093,
      "Dr": 6094,
      "▁honk": 6095,
      "▁onwards": 6096,
      "▁Binky": 6097,
      "▁wanting": 6098,
      "Enjoy": 6099,
      "ley": 6100,
      "▁fasc": 6101,
      "▁villagers": 6102,
      "▁zooming": 6103,
      "▁especially": 6104,
      "▁realize": 6105,
      "Frank": 6106,
      "found": 6107,
      "Silly": 6108,
      "tasty": 6109,
      "wise": 6110,
      "▁refres": 6111,
      "ib": 6112,
      "▁Olive": 6113,
      "bananas": 6114,
      "Dino": 6115,
      "annah": 6116,
      "ubbed": 6117,
      "leted": 6118,
      "▁Lucky": 6119,
      "▁prettiest": 6120,
      "Run": 6121,
      "furry": 6122,
      "▁bedtime": 6123,
      "▁diving": 6124,
      "thick": 6125,
      "▁spiders": 6126,
      "▁company": 6127,
      "ana": 6128,
      "▁weeks": 6129,
      "▁united": 6130,
      "Moo": 6131,
      "▁learns": 6132,
      "▁bead": 6133,
      "monkey": 6134,
      "▁comfy": 6135,
      "Zigzag": 6136,
      "▁completed": 6137,
      "▁opening": 6138,
      "▁Liz": 6139,
      "tired": 6140,
      "▁control": 6141,
      "▁shrug": 6142,
      "▁boom": 6143,
      "quirrel": 6144,
      "▁actions": 6145,
      "dam": 6146,
      "▁Annie": 6147,
      "▁gotten": 6148,
      "umm": 6149,
      "Pepper": 6150,
      "▁destination": 6151,
      "▁shirts": 6152,
      "▁slimy": 6153,
      "Hope": 6154,
      "ls": 6155,
      "▁knights": 6156,
      "▁fears": 6157,
      "▁fault": 6158,
      "▁spraying": 6159,
      "tw": 6160,
      "▁wrist": 6161,
      "▁playroom": 6162,
      "▁dam": 6163,
      "Uh": 6164,
      "wag": 6165,
      "▁penguins": 6166,
      "▁flags": 6167,
      "▁applauded": 6168,
      "inda": 6169,
      "uckily": 6170,
      "▁responsible": 6171,
      "▁bottles": 6172,
      "Want": 6173,
      "rabbit": 6174,
      "Rosie": 6175,
      "oor": 6176,
      "...": 6177,
      "back": 6178,
      "▁staying": 6179,
      "▁reply": 6180,
      "▁scrubbed": 6181,
      "▁kites": 6182,
      "magic": 6183,
      "▁crept": 6184,
      "▁Gigi": 6185,
      "butter": 6186,
      "▁Grace": 6187,
      "sorry": 6188,
      "▁fascin": 6189,
      "▁uses": 6190,
      "▁third": 6191,
      "lost": 6192,
      "▁wires": 6193,
      "▁baker": 6194,
      "▁phot": 6195,
      "icorn": 6196,
      "doors": 6197,
      "▁wound": 6198,
      "▁pouring": 6199,
      "▁dusty": 6200,
      "▁awake": 6201,
      "▁reminder": 6202,
      "▁healed": 6203,
      "before": 6204,
      "boat": 6205,
      "surprised": 6206,
      "▁mountains": 6207,
      "▁packing": 6208,
      "than": 6209,
      "Luckily": 6210,
      "ler": 6211,
      "▁rings": 6212,
      "▁Harry": 6213,
      "heard": 6214,
      "uddles": 6215,
      "bie": 6216,
      "seek": 6217,
      "instead": 6218,
      "▁dreaming": 6219,
      "▁unicorn": 6220,
      "ern": 6221,
      "clothes": 6222,
      "purple": 6223,
      "▁wins": 6224,
      "ody": 6225,
      "would": 6226,
      "▁X": 6227,
      "▁wasted": 6228,
      "▁helmets": 6229,
      "ica": 6230,
      "▁creation": 6231,
      "Whist": 6232,
      "▁pointing": 6233,
      "pensive": 6234,
      "▁wherever": 6235,
      "▁Zoomy": 6236,
      "▁joking": 6237,
      "asking": 6238,
      "▁instruct": 6239,
      "▁items": 6240,
      "fit": 6241,
      "▁died": 6242,
      "▁heav": 6243,
      "oming": 6244,
      "ooped": 6245,
      "▁surrounded": 6246,
      "len": 6247,
      "die": 6248,
      "▁roaring": 6249,
      "▁stole": 6250,
      "▁arrive": 6251,
      "▁toss": 6252,
      "compl": 6253,
      "laughed": 6254,
      "▁seas": 6255,
      "▁lollipops": 6256,
      "getting": 6257,
      "hins": 6258,
      "▁scales": 6259,
      "▁patience": 6260,
      "▁Earth": 6261,
      "▁achieve": 6262,
      "expl": 6263,
      "▁Charlie": 6264,
      "expensive": 6265,
      "▁crabs": 6266,
      "dry": 6267,
      "▁chips": 6268,
      "mine": 6269,
      "step": 6270,
      "▁firefight": 6271,
      "Aunt": 6272,
      "Toto": 6273,
      "▁guns": 6274,
      "Try": 6275,
      "▁Bl": 6276,
      "▁project": 6277,
      "▁weren": 6278,
      "▁practicing": 6279,
      "▁blows": 6280,
      "▁agrees": 6281,
      "▁parked": 6282,
      "▁satis": 6283,
      "▁Fifi": 6284,
      "▁batteries": 6285,
      "▁visiting": 6286,
      "suddenly": 6287,
      "igher": 6288,
      "▁activ": 6289,
      "laire": 6290,
      "Rabbit": 6291,
      "▁pencils": 6292,
      "uest": 6293,
      "▁shelves": 6294,
      "Katie": 6295,
      "▁airplane": 6296,
      "silly": 6297,
      "▁towels": 6298,
      "everything": 6299,
      "▁masks": 6300,
      "lady": 6301,
      "▁gathering": 6302,
      "Abigail": 6303,
      "▁videos": 6304,
      "▁Danny": 6305,
      "Bug": 6306,
      "▁shoulders": 6307,
      "cold": 6308,
      "zes": 6309,
      "▁sticking": 6310,
      "ocks": 6311,
      "▁promises": 6312,
      "tell": 6313,
      "▁rubbing": 6314,
      "▁examined": 6315,
      "leaves": 6316,
      "▁exact": 6317,
      "ishy": 6318,
      "anta": 6319,
      "▁tasks": 6320,
      "▁accompl": 6321,
      "▁dent": 6322,
      "Rachel": 6323,
      "▁instructions": 6324,
      "jamas": 6325,
      "eff": 6326,
      "eah": 6327,
      "▁Ruby": 6328,
      "▁Sky": 6329,
      "usan": 6330,
      "▁Tony": 6331,
      "▁patiently": 6332,
      "▁pumpkins": 6333,
      "kip": 6334,
      "ners": 6335,
      "▁bunch": 6336,
      "▁logs": 6337,
      "▁guest": 6338,
      "▁soaring": 6339,
      "▁listens": 6340,
      "Love": 6341,
      "picking": 6342,
      "▁cough": 6343,
      "▁stretching": 6344,
      "raw": 6345,
      "sure": 6346,
      "▁Penny": 6347,
      "Green": 6348,
      "houses": 6349,
      "▁roses": 6350,
      "Jump": 6351,
      "▁brand": 6352,
      "▁copy": 6353,
      "autious": 6354,
      "▁Elly": 6355,
      "athy": 6356,
      "▁Brown": 6357,
      "wagging": 6358,
      "irm": 6359,
      "▁crumbs": 6360,
      "took": 6361,
      "▁quack": 6362,
      "▁hitting": 6363,
      "ayla": 6364,
      "▁scur": 6365,
      "▁snakes": 6366,
      "▁bowls": 6367,
      "Roar": 6368,
      "▁remote": 6369,
      "▁beads": 6370,
      "▁alien": 6371,
      "Great": 6372,
      "▁requested": 6373,
      "▁timer": 6374,
      "▁whose": 6375,
      "▁photos": 6376,
      "▁bene": 6377,
      "▁improved": 6378,
      "▁Sh": 6379,
      "▁staring": 6380,
      "▁glitter": 6381,
      "▁screaming": 6382,
      "cheese": 6383,
      "egg": 6384,
      "▁workers": 6385,
      "Fine": 6386,
      "ude": 6387,
      "David": 6388,
      "Pippa": 6389,
      "dies": 6390,
      "▁misses": 6391,
      "▁rubs": 6392,
      "▁dolphins": 6393,
      "Lizzy": 6394,
      "▁outdoors": 6395,
      "Cuddles": 6396,
      "tr": 6397,
      "esome": 6398,
      "▁confl": 6399,
      "▁Pip": 6400,
      "▁perched": 6401,
      "▁Henry": 6402,
      "uctantly": 6403,
      "Ray": 6404,
      "uly": 6405,
      "▁tune": 6406,
      "▁Al": 6407,
      "▁Baby": 6408,
      "▁refuse": 6409,
      "Nothing": 6410,
      "dri": 6411,
      "pull": 6412,
      "▁candies": 6413,
      "Rocky": 6414,
      "irty": 6415,
      "▁rolls": 6416,
      "▁curtains": 6417,
      "angled": 6418,
      "▁beneath": 6419,
      "per": 6420,
      "▁puppet": 6421,
      "▁closes": 6422,
      "▁faced": 6423,
      "▁rescued": 6424,
      "▁complaining": 6425,
      "▁pajamas": 6426,
      "▁six": 6427,
      "waving": 6428,
      "▁replaced": 6429,
      "neath": 6430,
      "Whistle": 6431,
      "▁mission": 6432,
      "ilo": 6433,
      "▁awesome": 6434,
      "cover": 6435,
      "▁patted": 6436,
      "▁balanced": 6437,
      "▁vent": 6438,
      "▁sweat": 6439,
      "Oops": 6440,
      "ouch": 6441,
      "▁cause": 6442,
      "▁conflict": 6443,
      "▁Do": 6444,
      "▁quacked": 6445,
      "Trust": 6446,
      "will": 6447,
      "▁observed": 6448,
      "wor": 6449,
      "▁rule": 6450,
      "Days": 6451,
      "▁Gr": 6452,
      "anes": 6453,
      "inkle": 6454,
      "▁rainbows": 6455,
      "Nina": 6456,
      "▁May": 6457,
      "▁policeman": 6458,
      "modern": 6459,
      "▁drums": 6460,
      "▁pastries": 6461,
      "▁cautious": 6462,
      "higher": 6463,
      "acob": 6464,
      "Joy": 6465,
      "delic": 6466,
      "▁Pinky": 6467,
      "enty": 6468,
      "▁Jul": 6469,
      "▁guys": 6470,
      "six": 6471,
      "▁introduc": 6472,
      "▁stern": 6473,
      "boy": 6474,
      "avi": 6475,
      "Steve": 6476,
      "▁included": 6477,
      "▁wobbled": 6478,
      "▁exactly": 6479,
      "Dare": 6480,
      "▁Wally": 6481,
      "▁paddle": 6482,
      "azing": 6483,
      "Tw": 6484,
      "▁doctors": 6485,
      "▁farther": 6486,
      "▁tractor": 6487,
      "▁sights": 6488,
      "▁protecting": 6489,
      "ooth": 6490,
      "▁chirping": 6491,
      "▁caused": 6492,
      "kelly": 6493,
      "spl": 6494,
      "Only": 6495,
      "▁spong": 6496,
      "ancy": 6497,
      "▁prayer": 6498,
      "▁truly": 6499,
      "▁helpers": 6500,
      "sound": 6501,
      "▁stumble": 6502,
      "▁ma": 6503,
      "▁valued": 6504,
      "about": 6505,
      "▁slam": 6506,
      "▁Joey": 6507,
      "▁blooming": 6508,
      "▁neighbourhood": 6509,
      "▁Zara": 6510,
      "says": 6511,
      "▁stays": 6512,
      "▁situation": 6513,
      "Bouncy": 6514,
      "etsy": 6515,
      "▁thro": 6516,
      "▁rockets": 6517,
      "araway": 6518,
      "▁Bluey": 6519,
      "Jess": 6520,
      "harm": 6521,
      "▁thorn": 6522,
      "cozy": 6523,
      "▁Rocky": 6524,
      "high": 6525,
      "▁traded": 6526,
      "▁Chr": 6527,
      "anging": 6528,
      "▁desert": 6529,
      "ais": 6530,
      "gers": 6531,
      "▁faraway": 6532,
      "throw": 6533,
      "Hoot": 6534,
      "▁supplies": 6535,
      "▁firm": 6536,
      "▁cans": 6537,
      "▁Star": 6538,
      "▁everyday": 6539,
      "▁ornaments": 6540,
      "▁prettier": 6541,
      "aa": 6542,
      "appy": 6543,
      "▁minerals": 6544,
      "Lena": 6545,
      "Papa": 6546,
      "▁fairies": 6547,
      "▁usual": 6548,
      "ierce": 6549,
      "▁dots": 6550,
      "agull": 6551,
      "flying": 6552,
      "Vroom": 6553,
      "▁starfish": 6554,
      "▁swooped": 6555,
      "call": 6556,
      "▁reluctantly": 6557,
      "▁sponge": 6558,
      "uzie": 6559,
      "cute": 6560,
      "▁teamwork": 6561,
      "grabbed": 6562,
      "Zoe": 6563,
      "orted": 6564,
      "▁mes": 6565,
      "arter": 6566,
      "▁Sandy": 6567,
      "che": 6568,
      "▁bare": 6569,
      "▁James": 6570,
      "▁Uncle": 6571,
      "Ash": 6572,
      "▁winked": 6573,
      "▁solut": 6574,
      "▁sneezing": 6575,
      "▁snowmen": 6576,
      "▁cheering": 6577,
      "▁Millie": 6578,
      "▁recording": 6579,
      "brush": 6580,
      "helping": 6581,
      "▁neither": 6582,
      "▁throat": 6583,
      "only": 6584,
      "▁usually": 6585,
      "▁Mag": 6586,
      "Play": 6587,
      "▁sobbed": 6588,
      "▁yourselves": 6589,
      "▁kicks": 6590,
      "Mira": 6591,
      "ido": 6592,
      "▁steady": 6593,
      "▁gems": 6594,
      "▁insects": 6595,
      "▁smarter": 6596,
      "▁glasses": 6597,
      "Gogo": 6598,
      "bouncy": 6599,
      "Bang": 6600,
      "Whee": 6601,
      "▁Ste": 6602,
      "coon": 6603,
      "▁Toto": 6604,
      "Sky": 6605,
      "armer": 6606,
      "hard": 6607,
      "▁foc": 6608,
      "ager": 6609,
      "▁fascinated": 6610,
      "Yeah": 6611,
      "iar": 6612,
      "▁homework": 6613,
      "ibb": 6614,
      "▁untie": 6615,
      "harmless": 6616,
      "▁itchy": 6617,
      "stay": 6618,
      "vin": 6619,
      "?\",": 6620,
      "▁inviting": 6621,
      "going": 6622,
      "?'": 6623,
      "smelly": 6624,
      "pen": 6625,
      "▁knowled": 6626,
      "▁loading": 6627,
      "▁windy": 6628,
      "▁knowledge": 6629,
      "left": 6630,
      "Yesterday": 6631,
      "▁noses": 6632,
      "Ava": 6633,
      "▁underneath": 6634,
      "Spring": 6635,
      "▁superheroes": 6636,
      "hugging": 6637,
      "cho": 6638,
      "▁younger": 6639,
      "Sadly": 6640,
      "▁surface": 6641,
      "eggs": 6642,
      "▁delivered": 6643,
      "Olly": 6644,
      "standing": 6645,
      "▁insist": 6646,
      "Ew": 6647,
      "▁jackets": 6648,
      "▁crowd": 6649,
      "▁wears": 6650,
      "▁seagull": 6651,
      "thanks": 6652,
      "Jan": 6653,
      "pite": 6654,
      "ering": 6655,
      "Bop": 6656,
      "doggy": 6657,
      "Velvet": 6658,
      "▁buzzed": 6659,
      "▁stem": 6660,
      "Josh": 6661,
      "▁reads": 6662,
      "▁confident": 6663,
      "ults": 6664,
      "▁paddled": 6665,
      "surprise": 6666,
      "wonder": 6667,
      "▁Boo": 6668,
      "Shh": 6669,
      "eed": 6670,
      "▁direction": 6671,
      "crying": 6672,
      "▁yells": 6673,
      "dogs": 6674,
      "▁complained": 6675,
      "▁vowed": 6676,
      "fire": 6677,
      "▁covers": 6678,
      "▁librarian": 6679,
      "▁unp": 6680,
      "▁pans": 6681,
      "uppy": 6682,
      "Near": 6683,
      "▁tangled": 6684,
      "▁pointy": 6685,
      "▁pec": 6686,
      "▁badge": 6687,
      "told": 6688,
      "▁dived": 6689,
      "ading": 6690,
      "▁Be": 6691,
      "▁arrows": 6692,
      "▁twirl": 6693,
      "liked": 6694,
      "▁risk": 6695,
      "▁tickled": 6696,
      "sun": 6697,
      "▁Y": 6698,
      "bbie": 6699,
      "▁wipes": 6700,
      "▁knocks": 6701,
      "elephant": 6702,
      "cuse": 6703,
      "liver": 6704,
      "▁Bo": 6705,
      "cake": 6706,
      "count": 6707,
      "tuce": 6708,
      "▁cous": 6709,
      "▁warnings": 6710,
      "▁refreshed": 6711,
      "▁piggy": 6712,
      "Robby": 6713,
      "▁clowns": 6714,
      "try": 6715,
      "Fire": 6716,
      "▁startled": 6717,
      "▁choices": 6718,
      "bu": 6719,
      "▁seeker": 6720,
      "Sun": 6721,
      "dirty": 6722,
      "▁hides": 6723,
      "balls": 6724,
      "monkeys": 6725,
      "Abby": 6726,
      "angles": 6727,
      "cles": 6728,
      "▁froze": 6729,
      "▁biting": 6730,
      "▁introduced": 6731,
      "▁signed": 6732,
      "uggles": 6733,
      "▁napkins": 6734,
      "Mon": 6735,
      "▁explorers": 6736,
      "▁adding": 6737,
      "▁choo": 6738,
      "▁provided": 6739,
      "▁passing": 6740,
      "▁unf": 6741,
      "▁singer": 6742,
      "▁refle": 6743,
      "cher": 6744,
      "▁Dr": 6745,
      "vers": 6746,
      "Excuse": 6747,
      "arling": 6748,
      "rain": 6749,
      "▁Bounce": 6750,
      "Jamie": 6751,
      "▁Wiggly": 6752,
      "▁growling": 6753,
      "▁hider": 6754,
      "ences": 6755,
      "▁guessing": 6756,
      "▁toaster": 6757,
      "angerous": 6758,
      "▁slower": 6759,
      "▁joked": 6760,
      "▁Clara": 6761,
      "blocks": 6762,
      "▁paying": 6763,
      "▁knees": 6764,
      "▁marked": 6765,
      "meant": 6766,
      "following": 6767,
      "Nice": 6768,
      "bunny": 6769,
      "amb": 6770,
      "bro": 6771,
      "▁ropes": 6772,
      "eight": 6773,
      "▁Spark": 6774,
      "▁tipto": 6775,
      "uits": 6776,
      "▁images": 6777,
      "▁Steve": 6778,
      "tle": 6779,
      "▁stung": 6780,
      "▁forks": 6781,
      "▁gears": 6782,
      "hand": 6783,
      "▁bumpy": 6784,
      "▁restored": 6785,
      "▁praying": 6786,
      "oline": 6787,
      "Catty": 6788,
      "▁behaving": 6789,
      "ados": 6790,
      "▁mushrooms": 6791,
      "▁onions": 6792,
      "food": 6793,
      "▁properly": 6794,
      "▁avo": 6795,
      "▁wid": 6796,
      "▁ventured": 6797,
      "▁outfit": 6798,
      "▁magnets": 6799,
      "▁deal": 6800,
      "▁squeal": 6801,
      "▁princesses": 6802,
      "▁bak": 6803,
      "▁chuck": 6804,
      "▁competition": 6805,
      "▁muscle": 6806,
      "itely": 6807,
      "▁dances": 6808,
      "▁matters": 6809,
      "exploring": 6810,
      "▁vines": 6811,
      "Spark": 6812,
      "▁cent": 6813,
      "▁deserve": 6814,
      "essy": 6815,
      "▁ranger": 6816,
      "▁bravery": 6817,
      "Mine": 6818,
      "abel": 6819,
      "sequ": 6820,
      "▁ruining": 6821,
      "▁wandering": 6822,
      "▁basement": 6823,
      "▁cobwebs": 6824,
      "▁barely": 6825,
      "▁heavier": 6826,
      "Chloe": 6827,
      "▁consequ": 6828,
      "▁Stitch": 6829,
      "fierce": 6830,
      "▁greet": 6831,
      "slow": 6832,
      "▁darkness": 6833,
      "Without": 6834,
      "▁scratches": 6835,
      "▁chefs": 6836,
      "▁least": 6837,
      "▁entire": 6838,
      "▁leaning": 6839,
      "Adam": 6840,
      "made": 6841,
      "▁fab": 6842,
      "▁fabric": 6843,
      "Beth": 6844,
      "▁speaking": 6845,
      "usted": 6846,
      "▁Bug": 6847,
      "▁Pr": 6848,
      "▁performed": 6849,
      "each": 6850,
      "its": 6851,
      "noisy": 6852,
      "▁burst": 6853,
      "filled": 6854,
      "jo": 6855,
      "▁avocados": 6856,
      "baby": 6857,
      "faster": 6858,
      "▁snat": 6859,
      "▁satisfied": 6860,
      "▁tricky": 6861,
      "▁curly": 6862,
      "Julie": 6863,
      "De": 6864,
      "meow": 6865,
      "▁scurried": 6866,
      "▁travell": 6867,
      "▁jobs": 6868,
      "rolling": 6869,
      "splashing": 6870,
      "obody": 6871,
      "\".\n\"": 6872,
      "▁flames": 6873,
      "▁mints": 6874,
      "gray": 6875,
      "Lion": 6876,
      "Wisdom": 6877,
      "Mad": 6878,
      "ently": 6879,
      "Snuggles": 6880,
      "hi": 6881,
      "▁pens": 6882,
      "rance": 6883,
      "▁salty": 6884,
      "▁Suzy": 6885,
      "▁losing": 6886,
      "▁relief": 6887,
      "Bree": 6888,
      "▁stain": 6889,
      "▁Lizzy": 6890,
      "▁solution": 6891,
      "▁unpacked": 6892,
      "ept": 6893,
      "wearing": 6894,
      "hopping": 6895,
      "▁consequences": 6896,
      "ookies": 6897,
      "▁rainco": 6898,
      "wait": 6899,
      "▁becoming": 6900,
      "▁bumps": 6901,
      "▁lighter": 6902,
      "▁lettuce": 6903,
      "▁growls": 6904,
      "seven": 6905,
      "▁tires": 6906,
      "▁swords": 6907,
      "Chew": 6908,
      "▁backed": 6909,
      "▁wraps": 6910,
      "▁sewed": 6911,
      "Up": 6912,
      "▁bows": 6913,
      "ophia": 6914,
      "▁races": 6915,
      "▁partic": 6916,
      "aisies": 6917,
      "▁Pepper": 6918,
      "▁sunflowers": 6919,
      "Birdie": 6920,
      "▁rainy": 6921,
      "▁decorating": 6922,
      "▁purr": 6923,
      "▁hesitated": 6924,
      "▁pins": 6925,
      "▁ripe": 6926,
      "▁grows": 6927,
      "▁peas": 6928,
      "walking": 6929,
      "▁blocking": 6930,
      "▁accomplish": 6931,
      "▁dentist": 6932,
      "▁figured": 6933,
      "▁bodies": 6934,
      "adm": 6935,
      "▁cautiously": 6936,
      "dangerous": 6937,
      "▁annoy": 6938,
      "aterial": 6939,
      "▁flavor": 6940,
      "▁chat": 6941,
      "band": 6942,
      "bec": 6943,
      "aren": 6944,
      "izzie": 6945,
      "▁forehead": 6946,
      "▁groups": 6947,
      "▁rotting": 6948,
      "bly": 6949,
      "itches": 6950,
      "▁material": 6951,
      "hausted": 6952,
      "▁tables": 6953,
      "▁bakery": 6954,
      "make": 6955,
      "osty": 6956,
      "▁lungs": 6957,
      "▁ties": 6958,
      "zzy": 6959,
      "▁interested": 6960,
      "▁fact": 6961,
      "Blink": 6962,
      "Tree": 6963,
      "po": 6964,
      "▁cott": 6965,
      "Zero": 6966,
      "▁stomped": 6967,
      "wondering": 6968,
      "▁gri": 6969,
      "▁buying": 6970,
      "▁nect": 6971,
      "▁cheeks": 6972,
      "▁nectar": 6973,
      "smiled": 6974,
      "▁thud": 6975,
      "ans": 6976,
      "Mouse": 6977,
      "▁Snow": 6978,
      "▁owners": 6979,
      "elle": 6980,
      "▁needles": 6981,
      "▁worries": 6982,
      "retch": 6983,
      "dan": 6984,
      "▁feast": 6985,
      "▁suffering": 6986,
      "▁freed": 6987,
      "Mix": 6988,
      "▁conn": 6989,
      "▁filling": 6990,
      "▁chuckled": 6991,
      "▁entrance": 6992,
      "▁scarves": 6993,
      "indr": 6994,
      "▁reason": 6995,
      "▁David": 6996,
      "▁Rabbit": 6997,
      "rey": 6998,
      "▁meals": 6999,
      "▁sweets": 7000,
      "▁master": 7001,
      "Foxy": 7002,
      "▁pecked": 7003,
      "hor": 7004,
      "▁swans": 7005,
      "▁activities": 7006,
      "tough": 7007,
      "▁players": 7008,
      "▁sense": 7009,
      "▁repaired": 7010,
      "Lou": 7011,
      "ctions": 7012,
      "disgusting": 7013,
      "Very": 7014,
      "ca": 7015,
      "▁tapped": 7016,
      "▁mailed": 7017,
      "▁written": 7018,
      "▁raindr": 7019,
      "Rain": 7020,
      "slid": 7021,
      "▁crackers": 7022,
      "aching": 7023,
      "▁budge": 7024,
      "bee": 7025,
      "Star": 7026,
      "▁daisies": 7027,
      "see": 7028,
      "▁particular": 7029,
      "▁waiter": 7030,
      "▁forgets": 7031,
      "Que": 7032,
      "▁Tuna": 7033,
      "pulling": 7034,
      "▁slammed": 7035,
      "Ally": 7036,
      "▁handful": 7037,
      "admiring": 7038,
      "ossible": 7039,
      "▁plenty": 7040,
      "▁Birthday": 7041,
      "Queen": 7042,
      "▁lamb": 7043,
      "nice": 7044,
      "▁impossible": 7045,
      "▁bars": 7046,
      "▁counts": 7047,
      "▁nests": 7048,
      "delicious": 7049,
      "▁month": 7050,
      "Other": 7051,
      "▁films": 7052,
      "▁den": 7053,
      "▁talks": 7054,
      "▁sweetheart": 7055,
      "chasing": 7056,
      "▁Brownie": 7057,
      "▁stool": 7058,
      "▁designed": 7059,
      "▁suitcase": 7060,
      "iggie": 7061,
      "Claire": 7062,
      "▁colored": 7063,
      "▁Ray": 7064,
      "▁baths": 7065,
      "Hannah": 7066,
      "▁opp": 7067,
      "stars": 7068,
      "▁stolen": 7069,
      "▁liqu": 7070,
      "coming": 7071,
      "▁completely": 7072,
      "blings": 7073,
      "iles": 7074,
      "▁genie": 7075,
      "rat": 7076,
      "dec": 7077,
      "▁spikes": 7078,
      "▁honked": 7079,
      "▁siblings": 7080,
      "Gu": 7081,
      "▁separated": 7082,
      "nies": 7083,
      "off": 7084,
      "▁An": 7085,
      "▁swept": 7086,
      "telling": 7087,
      "▁passports": 7088,
      "▁click": 7089,
      "▁tunnels": 7090,
      "▁printing": 7091,
      "▁sewing": 7092,
      "Squirrel": 7093,
      "ooed": 7094,
      "Henny": 7095,
      "sticks": 7096,
      "iece": 7097,
      "▁fires": 7098,
      "▁mer": 7099,
      "irl": 7100,
      "▁scra": 7101,
      "▁triangles": 7102,
      "▁fever": 7103,
      "weed": 7104,
      "nine": 7105,
      "▁cash": 7106,
      "lee": 7107,
      "flower": 7108,
      "Jilly": 7109,
      "▁behavi": 7110,
      "▁feeding": 7111,
      "watch": 7112,
      "▁Un": 7113,
      "Anne": 7114,
      "▁determination": 7115,
      "▁celebration": 7116,
      "▁necklaces": 7117,
      "▁leap": 7118,
      "▁backward": 7119,
      "▁hops": 7120,
      "Jones": 7121,
      "▁leading": 7122,
      "▁camping": 7123,
      "butterfly": 7124,
      "▁snatched": 7125,
      "itched": 7126,
      "▁sweeties": 7127,
      "mas": 7128,
      "▁rust": 7129,
      "▁age": 7130,
      "rocks": 7131,
      "con": 7132,
      "aint": 7133,
      "▁ty": 7134,
      "▁hus": 7135,
      "▁dollhouse": 7136,
      "▁touches": 7137,
      "▁ache": 7138,
      "Sc": 7139,
      "Hurry": 7140,
      "arning": 7141,
      "ives": 7142,
      "▁Christ": 7143,
      "rig": 7144,
      "▁squealed": 7145,
      "urious": 7146,
      "▁paths": 7147,
      "▁liquid": 7148,
      "onny": 7149,
      "ters": 7150,
      "▁twinkling": 7151,
      "▁nibb": 7152,
      "smooth": 7153,
      "▁students": 7154,
      "▁spat": 7155,
      "El": 7156,
      "hog": 7157,
      "llen": 7158,
      "ragon": 7159,
      "endy": 7160,
      "▁Santa": 7161,
      "▁exhausted": 7162,
      "▁calmed": 7163,
      "▁Aunt": 7164,
      "aura": 7165,
      "thest": 7166,
      "awn": 7167,
      "▁stroked": 7168,
      "onaut": 7169,
      "▁kittens": 7170,
      "▁shrinking": 7171,
      "▁kings": 7172,
      "▁Fo": 7173,
      "▁pancakes": 7174,
      "Jessie": 7175,
      "sweeties": 7176,
      "▁lower": 7177,
      "wra": 7178,
      "tha": 7179,
      "▁Zoe": 7180,
      "yan": 7181,
      "Which": 7182,
      "▁untied": 7183,
      "▁Dino": 7184,
      "▁loops": 7185,
      "▁remembering": 7186,
      "broken": 7187,
      "▁playhouse": 7188,
      "▁changing": 7189,
      "▁skunk": 7190,
      "Dizzy": 7191,
      "immer": 7192,
      "▁thrown": 7193,
      "▁wakes": 7194,
      "▁reflection": 7195,
      "milk": 7196,
      "empty": 7197,
      "sleep": 7198,
      "thanked": 7199,
      "▁tramp": 7200,
      "Princess": 7201,
      "▁husband": 7202,
      "ammy": 7203,
      "▁sparks": 7204,
      "▁sway": 7205,
      "▁pennies": 7206,
      "▁seaweed": 7207,
      "▁lifts": 7208,
      "▁creating": 7209,
      "▁aimed": 7210,
      "curious": 7211,
      "igning": 7212,
      "▁chop": 7213,
      "young": 7214,
      "▁dancers": 7215,
      "▁directions": 7216,
      "▁poster": 7217,
      "Isn": 7218,
      "▁Milly": 7219,
      "▁objects": 7220,
      "▁firefly": 7221,
      "▁rewarded": 7222,
      "▁rotten": 7223,
      "▁leads": 7224,
      "rigued": 7225,
      "bi": 7226,
      "▁increased": 7227,
      "▁puppies": 7228,
      "--": 7229,
      "mum": 7230,
      "yond": 7231,
      "▁astr": 7232,
      "▁clues": 7233,
      "got": 7234,
      "ustom": 7235,
      "▁countryside": 7236,
      "cow": 7237,
      "▁screws": 7238,
      "▁Christmas": 7239,
      "▁trampoline": 7240,
      "Ball": 7241,
      "▁aff": 7242,
      "▁blocked": 7243,
      "ears": 7244,
      "▁peeking": 7245,
      "▁astronaut": 7246,
      "ivity": 7247,
      "however": 7248,
      "▁cousin": 7249,
      "▁instrum": 7250,
      "sen": 7251,
      "▁planning": 7252,
      "▁pouted": 7253,
      "acher": 7254,
      "▁Am": 7255,
      "▁plain": 7256,
      "▁storekeeper": 7257,
      "▁damage": 7258,
      "▁rising": 7259,
      "espite": 7260,
      "▁Zigzag": 7261,
      "▁borrowed": 7262,
      "ivery": 7263,
      "Along": 7264,
      "fall": 7265,
      "▁admiring": 7266,
      "▁hedgehog": 7267,
      "Jeff": 7268,
      "Stitch": 7269,
      "ingo": 7270,
      "▁presses": 7271,
      "ael": 7272,
      "oons": 7273,
      "▁whispers": 7274,
      "arching": 7275,
      "▁snowfl": 7276,
      "▁Birdie": 7277,
      "Duck": 7278,
      "ades": 7279,
      "▁Bree": 7280,
      "clear": 7281,
      "climb": 7282,
      "Open": 7283,
      "▁fuzzy": 7284,
      "▁twinkle": 7285,
      "▁tiptoed": 7286,
      "▁marker": 7287,
      "▁health": 7288,
      "Emmy": 7289,
      "▁regretted": 7290,
      "Snap": 7291,
      "elephants": 7292,
      "▁avoid": 7293,
      "nk": 7294,
      "iti": 7295,
      "▁beginning": 7296,
      "▁rains": 7297,
      "nothing": 7298,
      "▁slips": 7299,
      "itted": 7300,
      "▁custom": 7301,
      "quack": 7302,
      "Does": 7303,
      "▁warmer": 7304,
      "▁creations": 7305,
      "▁Hop": 7306,
      "▁Robby": 7307,
      "▁beyond": 7308,
      "swim": 7309,
      "▁Frank": 7310,
      "fin": 7311,
      "▁somebody": 7312,
      "▁vehicles": 7313,
      "driver": 7314,
      "Che": 7315,
      "▁streets": 7316,
      "iversity": 7317,
      "▁shops": 7318,
      "▁sale": 7319,
      "bang": 7320,
      "carrying": 7321,
      "udge": 7322,
      "▁farthest": 7323,
      "▁colder": 7324,
      "away": 7325,
      "▁cushions": 7326,
      "Ri": 7327,
      "Wednesday": 7328,
      "▁cashier": 7329,
      "▁dot": 7330,
      "▁celebrating": 7331,
      "clapping": 7332,
      "Jacob": 7333,
      "▁Katie": 7334,
      "lexible": 7335,
      "▁squares": 7336,
      "eds": 7337,
      "▁laying": 7338,
      "urtles": 7339,
      "▁creativity": 7340,
      "▁fits": 7341,
      "▁Frog": 7342,
      "▁Mo": 7343,
      "und": 7344,
      "▁fins": 7345,
      "▁lifting": 7346,
      "Jenna": 7347,
      "Dara": 7348,
      "worm": 7349,
      "▁spells": 7350,
      "power": 7351,
      "▁sank": 7352,
      "▁yel": 7353,
      "ssy": 7354,
      "someone": 7355,
      "▁guests": 7356,
      "▁glued": 7357,
      "▁source": 7358,
      "▁shaped": 7359,
      "Afterwards": 7360,
      "▁strongest": 7361,
      "ichael": 7362,
      "▁wobbly": 7363,
      "Never": 7364,
      "orman": 7365,
      "Too": 7366,
      "▁sniffs": 7367,
      "ris": 7368,
      "▁silent": 7369,
      "▁lending": 7370,
      "looked": 7371,
      "star": 7372,
      "▁discovering": 7373,
      "▁bells": 7374,
      "Make": 7375,
      "▁suffered": 7376,
      "messy": 7377,
      "▁ends": 7378,
      "▁Abigail": 7379,
      "▁trembled": 7380,
      "Sleep": 7381,
      "eese": 7382,
      "▁raincoat": 7383,
      "chick": 7384,
      "Ant": 7385,
      "iam": 7386,
      "Luke": 7387,
      "picked": 7388,
      "▁single": 7389,
      "uing": 7390,
      "▁Joy": 7391,
      "▁stands": 7392,
      "putting": 7393,
      "Ribbit": 7394,
      "▁accomplishment": 7395,
      "Say": 7396,
      "▁earn": 7397,
      "▁flavors": 7398,
      "▁spins": 7399,
      "▁comm": 7400,
      "▁Hope": 7401,
      "▁Mouse": 7402,
      "▁supported": 7403,
      "flew": 7404,
      "▁slowed": 7405,
      "▁seasons": 7406,
      "▁delivery": 7407,
      "arac": 7408,
      "Gina": 7409,
      "▁labels": 7410,
      "▁recommended": 7411,
      "hot": 7412,
      "▁Car": 7413,
      "▁corners": 7414,
      "ertain": 7415,
      "▁raccoon": 7416,
      "Nobody": 7417,
      "cookies": 7418,
      "▁performan": 7419,
      "▁guy": 7420,
      "▁recipe": 7421,
      "Dee": 7422,
      "▁performance": 7423,
      "ora": 7424,
      "gave": 7425,
      "Snowman": 7426,
      "Guess": 7427,
      "Betsy": 7428,
      "ighty": 7429,
      "▁plans": 7430,
      "▁raindrops": 7431,
      "itude": 7432,
      "▁die": 7433,
      "▁hearing": 7434,
      "▁Tr": 7435,
      "▁hallway": 7436,
      "▁artist": 7437,
      "cr": 7438,
      "▁charac": 7439,
      "▁belts": 7440,
      "loved": 7441,
      "▁pours": 7442,
      "sang": 7443,
      "▁wrapping": 7444,
      "▁forgiving": 7445,
      "cky": 7446,
      "▁knots": 7447,
      "▁sailboat": 7448,
      "▁Zero": 7449,
      "ility": 7450,
      "▁grip": 7451,
      "Ziggy": 7452,
      "▁Jess": 7453,
      "ummies": 7454,
      "▁widened": 7455,
      "Sw": 7456,
      "▁willing": 7457,
      "▁drawn": 7458,
      "▁wept": 7459,
      "Cindy": 7460,
      "▁Owl": 7461,
      "elia": 7462,
      "Susan": 7463,
      "▁grocer": 7464,
      "▁aside": 7465,
      "rac": 7466,
      "imon": 7467,
      "▁adult": 7468,
      "▁mesmer": 7469,
      "bark": 7470,
      "▁talented": 7471,
      "▁drivers": 7472,
      "▁treehouse": 7473,
      "▁seconds": 7474,
      "sour": 7475,
      "ipper": 7476,
      "umbling": 7477,
      "wishing": 7478,
      "▁doggy": 7479,
      "▁Lou": 7480,
      "▁gross": 7481,
      "▁softer": 7482,
      "▁geese": 7483,
      "...\"": 7484,
      "Twinkle": 7485,
      "Lia": 7486,
      "▁tipped": 7487,
      "▁twirling": 7488,
      "▁twice": 7489,
      "crab": 7490,
      "igers": 7491,
      "those": 7492,
      "▁burrow": 7493,
      "Linda": 7494,
      "▁sailors": 7495,
      "Wink": 7496,
      "▁hotter": 7497,
      "▁horiz": 7498,
      "▁achieved": 7499,
      "▁inst": 7500,
      "▁notes": 7501,
      "▁dollars": 7502,
      "Poor": 7503,
      "Share": 7504,
      "peed": 7505,
      "▁Velvet": 7506,
      "▁tiss": 7507,
      "▁angels": 7508,
      "▁coup": 7509,
      "▁eight": 7510,
      "mate": 7511,
      "Bones": 7512,
      "Rolly": 7513,
      "▁horizon": 7514,
      "Since": 7515,
      "healthy": 7516,
      "Nana": 7517,
      "▁Dot": 7518,
      "▁Rachel": 7519,
      "▁symbols": 7520,
      "▁echo": 7521,
      "alph": 7522,
      "▁tummies": 7523,
      "▁surprising": 7524,
      "verse": 7525,
      "▁pleasure": 7526,
      "Suzie": 7527,
      "▁bandages": 7528,
      "▁groceries": 7529,
      "▁det": 7530,
      "omise": 7531,
      "atur": 7532,
      "▁backwards": 7533,
      "without": 7534,
      "oey": 7535,
      "▁swall": 7536,
      "ilthy": 7537,
      "▁Wisdom": 7538,
      "▁encourag": 7539,
      "ighting": 7540,
      "▁preparing": 7541,
      "Milo": 7542,
      "▁coop": 7543,
      "searching": 7544,
      "squirrels": 7545,
      "▁afterwards": 7546,
      "▁roars": 7547,
      "▁icing": 7548,
      "▁hopeful": 7549,
      "▁pupils": 7550,
      "▁Julie": 7551,
      "unknown": 7552,
      "Excited": 7553,
      "Honey": 7554,
      "▁blown": 7555,
      "welcome": 7556,
      "▁Laser": 7557,
      "▁dod": 7558,
      "▁overcome": 7559,
      "▁Ro": 7560,
      "bugs": 7561,
      "Skelly": 7562,
      "▁figures": 7563,
      "▁giggling": 7564,
      "▁Tw": 7565,
      "pushing": 7566,
      "▁hour": 7567,
      "▁surfboard": 7568,
      "▁Maggie": 7569,
      "▁rumble": 7570,
      "anything": 7571,
      "attractive": 7572,
      "eager": 7573,
      "▁cuddly": 7574,
      "▁tying": 7575,
      "▁passen": 7576,
      "iley": 7577,
      "decided": 7578,
      "▁zebras": 7579,
      "▁turtles": 7580,
      "▁slices": 7581,
      "▁maker": 7582,
      "▁prove": 7583,
      "▁merry": 7584,
      "▁wobble": 7585,
      "▁sped": 7586,
      "▁merma": 7587,
      "▁swallowed": 7588,
      "grabbing": 7589,
      "shaking": 7590,
      "Robbie": 7591,
      "▁twisting": 7592,
      "▁curiously": 7593,
      "truck": 7594,
      "Mikey": 7595,
      "Find": 7596,
      "Fighting": 7597,
      "▁buses": 7598,
      "▁scored": 7599,
      "apples": 7600,
      "Skip": 7601,
      "again": 7602,
      "ashes": 7603,
      "▁among": 7604,
      "▁watering": 7605,
      "▁couple": 7606,
      "onies": 7607,
      "▁glee": 7608,
      "▁rusty": 7609,
      "next": 7610,
      "▁reversed": 7611,
      "reaching": 7612,
      "▁everybody": 7613,
      "▁firefighters": 7614,
      "▁center": 7615,
      "▁aud": 7616,
      "▁pigeons": 7617,
      "▁To": 7618,
      "Fido": 7619,
      "Rich": 7620,
      "▁wee": 7621,
      "▁chip": 7622,
      "▁chosen": 7623,
      "▁designs": 7624,
      "ean": 7625,
      "\"\n": 7626,
      "▁gardener": 7627,
      "Tara": 7628,
      "fat": 7629,
      "yum": 7630,
      "▁screwdriver": 7631,
      "wake": 7632,
      "▁dip": 7633,
      "Sof": 7634,
      "pecting": 7635,
      "Playing": 7636,
      "Kayla": 7637,
      "▁delivering": 7638,
      "▁stroll": 7639,
      "▁queens": 7640,
      "▁fluttered": 7641,
      "filthy": 7642,
      "▁disturbing": 7643,
      "▁frowns": 7644,
      "powerful": 7645,
      "ungry": 7646,
      "▁tissue": 7647,
      "▁squeak": 7648,
      "▁thorns": 7649,
      "▁shown": 7650,
      "▁tighter": 7651,
      "quiet": 7652,
      "▁flipped": 7653,
      "▁intrigued": 7654,
      "▁suits": 7655,
      "▁haw": 7656,
      "▁indeed": 7657,
      "▁hawk": 7658,
      "▁secure": 7659,
      "▁familiar": 7660,
      "Boys": 7661,
      "▁giggles": 7662,
      "iven": 7663,
      "Fish": 7664,
      "ggy": 7665,
      "Jessica": 7666,
      "▁robots": 7667,
      "▁ais": 7668,
      "ounced": 7669,
      "▁spreading": 7670,
      "▁respond": 7671,
      "Toys": 7672,
      "isn": 7673,
      "ails": 7674,
      "asm": 7675,
      "anting": 7676,
      "▁Me": 7677,
      "▁sharks": 7678,
      "▁audience": 7679,
      "Rock": 7680,
      "aimed": 7681,
      "▁puff": 7682,
      "▁slipping": 7683,
      "▁pedaled": 7684,
      "▁firefighter": 7685,
      "hats": 7686,
      "▁sprinkled": 7687,
      "▁cor": 7688,
      "▁ponies": 7689,
      "▁vanilla": 7690,
      "bbled": 7691,
      "draw": 7692,
      "rest": 7693,
      "ilver": 7694,
      "▁jars": 7695,
      "▁pays": 7696,
      "covered": 7697,
      "Cathy": 7698,
      "crow": 7699,
      "▁Sm": 7700,
      "ddie": 7701,
      "▁drawers": 7702,
      "together": 7703,
      "▁Queen": 7704,
      "▁yielded": 7705,
      "Mat": 7706,
      "▁express": 7707,
      "▁minded": 7708,
      "throwing": 7709,
      "ets": 7710,
      "▁El": 7711,
      "een": 7712,
      "▁bits": 7713,
      "▁coloured": 7714,
      "▁shovels": 7715,
      "▁stroke": 7716,
      "▁hangers": 7717,
      "Wake": 7718,
      "care": 7719,
      "▁cloudy": 7720,
      "▁mixture": 7721,
      "▁bracelets": 7722,
      "▁todd": 7723,
      "▁waking": 7724,
      "▁napped": 7725,
      "rock": 7726,
      "▁disob": 7727,
      "▁haircuts": 7728,
      "teacher": 7729,
      "aven": 7730,
      "Any": 7731,
      "ments": 7732,
      "hungry": 7733,
      "onna": 7734,
      "reading": 7735,
      "Paws": 7736,
      "oni": 7737,
      "doctor": 7738,
      "Dear": 7739,
      "▁stitches": 7740,
      "▁tested": 7741,
      "antha": 7742,
      "Alright": 7743,
      "▁firmly": 7744,
      "▁respected": 7745,
      "▁til": 7746,
      "ably": 7747,
      "guess": 7748,
      "Although": 7749,
      "ae": 7750,
      "thin": 7751,
      "▁performing": 7752,
      "iasm": 7753,
      "▁Sun": 7754,
      "▁sails": 7755,
      "arlings": 7756,
      "▁gracefully": 7757,
      "called": 7758,
      "rots": 7759,
      "▁crowns": 7760,
      "inding": 7761,
      "▁heading": 7762,
      "▁surroundings": 7763,
      "Woo": 7764,
      "▁wow": 7765,
      "▁beeh": 7766,
      "▁stopping": 7767,
      "▁enthusiasm": 7768,
      "Outside": 7769,
      "▁fleas": 7770,
      "▁reminds": 7771,
      "Buggy": 7772,
      "kend": 7773,
      ",\n\"": 7774,
      "▁weekend": 7775,
      "oga": 7776,
      "▁magician": 7777,
      "▁teams": 7778,
      "▁daring": 7779,
      "happ": 7780,
      "▁surfing": 7781,
      "▁Chicky": 7782,
      "▁darlings": 7783,
      "andparent": 7784,
      "▁encouraging": 7785,
      "▁fills": 7786,
      "▁neighbours": 7787,
      "▁sports": 7788,
      "▁lessons": 7789,
      "▁nervously": 7790,
      "▁wisely": 7791,
      "dull": 7792,
      "Grumpy": 7793,
      "▁thoughts": 7794,
      "▁Happy": 7795,
      "Rover": 7796,
      "Cara": 7797,
      "aty": 7798,
      "steps": 7799,
      "Magic": 7800,
      "gel": 7801,
      "gold": 7802,
      ".'\n": 7803,
      "▁ev": 7804,
      "▁amount": 7805,
      "▁Moo": 7806,
      "▁temper": 7807,
      "▁spits": 7808,
      "▁Jan": 7809,
      "▁Beth": 7810,
      "lle": 7811,
      "▁paintbrush": 7812,
      "incl": 7813,
      "excl": 7814,
      "▁elbow": 7815,
      "Rollie": 7816,
      "▁Dodo": 7817,
      "Sophia": 7818,
      "cept": 7819,
      "opes": 7820,
      "▁unsure": 7821,
      "▁Ava": 7822,
      "Julia": 7823,
      "▁lies": 7824,
      "Everybody": 7825,
      "▁longest": 7826,
      "▁Olly": 7827,
      "aming": 7828,
      "▁sending": 7829,
      "kick": 7830,
      "▁explo": 7831,
      "▁tossed": 7832,
      "barking": 7833,
      "▁melons": 7834,
      "bell": 7835,
      "▁sill": 7836,
      "Herb": 7837,
      "Matt": 7838,
      "hide": 7839,
      "▁scooters": 7840,
      "▁lent": 7841,
      "▁peck": 7842,
      "hurry": 7843,
      "▁crew": 7844,
      "▁cleaner": 7845,
      "frag": 7846,
      "Mel": 7847,
      "immering": 7848,
      "▁beehive": 7849,
      "▁Thomas": 7850,
      "ongrat": 7851,
      "Doctor": 7852,
      "▁panicked": 7853,
      "fragile": 7854,
      "ongratul": 7855,
      "iona": 7856,
      "ita": 7857,
      "▁markers": 7858,
      "▁beloved": 7859,
      "▁oysters": 7860,
      "exclaimed": 7861,
      "▁flip": 7862,
      "▁Chloe": 7863,
      "▁hoping": 7864,
      "▁Rover": 7865,
      "▁discussed": 7866,
      "▁mermaid": 7867,
      "▁grandparent": 7868,
      "Copper": 7869,
      "▁lace": 7870,
      "▁reaching": 7871,
      "▁Gogo": 7872,
      "freeze": 7873,
      "▁magazines": 7874,
      "ilda": 7875,
      "▁crossing": 7876,
      "▁ignoring": 7877,
      "tweet": 7878,
      "brave": 7879,
      "form": 7880,
      "▁creamy": 7881,
      "▁guide": 7882,
      "▁sprang": 7883,
      "▁spoonful": 7884,
      "▁sweetie": 7885,
      "▁University": 7886,
      "thought": 7887,
      "▁forgiven": 7888,
      "▁He": 7889,
      "ints": 7890,
      "▁wadd": 7891,
      "▁blinking": 7892,
      "▁understands": 7893,
      "flies": 7894,
      "Dot": 7895,
      "bounce": 7896,
      "▁manners": 7897,
      "hat": 7898,
      "aptain": 7899,
      "fancy": 7900,
      "flexible": 7901,
      "▁elf": 7902,
      "Toot": 7903,
      "Crab": 7904,
      "colour": 7905,
      "oke": 7906,
      "▁breathed": 7907,
      "ok": 7908,
      "▁nood": 7909,
      "▁footsteps": 7910,
      "▁wiping": 7911,
      "▁neare": 7912,
      "▁frowning": 7913,
      "▁arr": 7914,
      "Nick": 7915,
      "▁Abby": 7916,
      "sur": 7917,
      "Back": 7918,
      "▁Quack": 7919,
      "▁nightmares": 7920,
      "Until": 7921,
      "▁sweetest": 7922,
      "▁polar": 7923,
      "▁Pippa": 7924,
      "Larry": 7925,
      "More": 7926,
      "Bloom": 7927,
      "▁hesitant": 7928,
      "undred": 7929,
      "▁reass": 7930,
      "▁coug": 7931,
      "▁braver": 7932,
      "Goodnight": 7933,
      "Deal": 7934,
      "Despite": 7935,
      "▁purp": 7936,
      "▁Sn": 7937,
      "▁stored": 7938,
      "uding": 7939,
      "mummy": 7940,
      "▁nur": 7941,
      "▁focused": 7942,
      "June": 7943,
      "father": 7944,
      "past": 7945,
      "▁Princess": 7946,
      "▁claw": 7947,
      "▁squishy": 7948,
      "kitty": 7949,
      "▁bulbs": 7950,
      "!'\n": 7951,
      "▁spills": 7952,
      "▁sheets": 7953,
      "▁zipping": 7954,
      "▁anger": 7955,
      "▁peacefully": 7956,
      "▁solving": 7957,
      "▁tubes": 7958,
      "dragon": 7959,
      "▁bathing": 7960,
      "▁materials": 7961,
      "pop": 7962,
      "amboo": 7963,
      "▁greeted": 7964,
      "King": 7965,
      "whe": 7966,
      "rect": 7967,
      "▁seals": 7968,
      "▁changes": 7969,
      "▁hoops": 7970,
      "Lizzie": 7971,
      "▁spice": 7972,
      "working": 7973,
      "▁nuzz": 7974,
      "asers": 7975,
      "▁ships": 7976,
      "▁scarecrow": 7977,
      "▁Anne": 7978,
      "dding": 7979,
      "▁gonna": 7980,
      "▁begin": 7981,
      "slides": 7982,
      "▁loses": 7983,
      "Eat": 7984,
      "▁squeezing": 7985,
      "▁Oliver": 7986,
      "▁miles": 7987,
      "▁Bouncy": 7988,
      "Peanut": 7989,
      "▁spies": 7990,
      "Arr": 7991,
      "iggling": 7992,
      "Mother": 7993,
      "including": 7994,
      "erm": 7995,
      "▁Susan": 7996,
      "Mean": 7997,
      "▁aeroplanes": 7998,
      "▁bicycles": 7999,
      "▁stacked": 8000,
      "sheep": 8001,
      "Start": 8002,
      "understanding": 8003,
      "▁Squirrel": 8004,
      "zip": 8005,
      "▁dump": 8006,
      "▁sweep": 8007,
      "▁clue": 8008,
      "▁bully": 8009,
      "▁travelled": 8010,
      "isc": 8011,
      "▁camel": 8012,
      "alked": 8013,
      "▁terrified": 8014,
      "Karen": 8015,
      "ppies": 8016,
      "▁worrying": 8017,
      "Baa": 8018,
      "top": 8019,
      "▁Jamie": 8020,
      "▁und": 8021,
      "Another": 8022,
      "▁punishment": 8023,
      "irls": 8024,
      "spark": 8025,
      "▁swimmer": 8026,
      "build": 8027,
      "▁banged": 8028,
      "Momma": 8029,
      "▁grassy": 8030,
      "scar": 8031,
      "▁baskets": 8032,
      "▁evil": 8033,
      "Still": 8034,
      "Should": 8035,
      "▁temperature": 8036,
      "Meanwhile": 8037,
      "▁rushing": 8038,
      "▁joins": 8039,
      "▁rivers": 8040,
      "Climb": 8041,
      "ipes": 8042,
      "Pup": 8043,
      "▁dripping": 8044,
      "Izzy": 8045,
      "▁Luke": 8046,
      "lion": 8047,
      "▁donkey": 8048,
      "▁politely": 8049,
      "▁wondering": 8050,
      "swings": 8051,
      "▁testing": 8052,
      "▁healing": 8053,
      "Missy": 8054,
      "▁backpacks": 8055,
      "swimming": 8056,
      "dead": 8057,
      "▁wrink": 8058,
      "▁potion": 8059,
      "▁delayed": 8060,
      "inter": 8061,
      "▁worn": 8062,
      "square": 8063,
      "▁beeped": 8064,
      "Use": 8065,
      "dance": 8066,
      "▁flight": 8067,
      "▁resisted": 8068,
      "spinning": 8069,
      "▁toddler": 8070,
      "▁knives": 8071,
      "▁hugging": 8072,
      "▁burying": 8073,
      "grandpa": 8074,
      "▁snowflakes": 8075,
      "▁purpose": 8076,
      "▁tigers": 8077,
      "▁gest": 8078,
      "Shelly": 8079,
      "▁force": 8080,
      "▁flapping": 8081,
      "cra": 8082,
      "▁creams": 8083,
      "▁humans": 8084,
      "▁ramp": 8085,
      "uffin": 8086,
      "▁Mic": 8087,
      "horse": 8088,
      "mama": 8089,
      "▁toward": 8090,
      "▁pinching": 8091,
      "▁quarreled": 8092,
      "▁hundred": 8093,
      "▁twinkled": 8094,
      "▁bamboo": 8095,
      "isions": 8096,
      "▁correct": 8097,
      "▁orders": 8098,
      "lean": 8099,
      "rier": 8100,
      "orter": 8101,
      "real": 8102,
      "fruits": 8103,
      "outing": 8104,
      "eresting": 8105,
      "▁Frosty": 8106,
      "shm": 8107,
      "▁cheers": 8108,
      "▁sneezes": 8109,
      "▁rats": 8110,
      "shmallow": 8111,
      "Sweet": 8112,
      "▁permitted": 8113,
      "▁risks": 8114,
      "▁Spring": 8115,
      "▁encouragement": 8116,
      "Wo": 8117,
      "▁wounds": 8118,
      "bage": 8119,
      "▁bothering": 8120,
      "▁months": 8121,
      "Abbie": 8122,
      "learning": 8123,
      "▁scen": 8124,
      "▁poppies": 8125,
      "Brownie": 8126,
      "▁languages": 8127,
      "▁Robo": 8128,
      "▁drifted": 8129,
      "▁scraped": 8130,
      "Elephant": 8131,
      "andas": 8132,
      "Chris": 8133,
      "▁mesmerized": 8134,
      "▁puck": 8135,
      "▁annoyed": 8136,
      "▁faded": 8137,
      "▁benches": 8138,
      "cool": 8139,
      "sharp": 8140,
      "▁dressing": 8141,
      "▁noodles": 8142,
      "ald": 8143,
      "▁unwra": 8144,
      "Maya": 8145,
      "dro": 8146,
      "▁results": 8147,
      "▁speeding": 8148,
      "Tomorrow": 8149,
      "▁flown": 8150,
      "▁Ant": 8151,
      "Stretch": 8152,
      "▁instruments": 8153,
      "▁within": 8154,
      "▁handsome": 8155,
      "▁floats": 8156,
      "▁Fairy": 8157,
      "▁damaged": 8158,
      "▁freedom": 8159,
      "da": 8160,
      "▁germ": 8161,
      "▁adults": 8162,
      "▁ease": 8163,
      "▁wasting": 8164,
      "rible": 8165,
      "abby": 8166,
      "interesting": 8167,
      "reliable": 8168,
      "▁relaxing": 8169,
      "▁crashing": 8170,
      "▁characters": 8171,
      "Mabel": 8172,
      "▁Beep": 8173,
      "ubbing": 8174,
      "▁explains": 8175,
      "▁talents": 8176,
      "▁lipstick": 8177,
      "dr": 8178,
      "▁height": 8179,
      "▁shady": 8180,
      "▁scares": 8181,
      "cloud": 8182,
      "▁burnt": 8183,
      "▁scient": 8184,
      "▁slither": 8185,
      "Close": 8186,
      "line": 8187,
      "▁cells": 8188,
      "Fly": 8189,
      "unched": 8190,
      "prints": 8191,
      "inny": 8192,
      "attered": 8193,
      "▁Ball": 8194,
      "▁scientist": 8195,
      "kicking": 8196,
      "▁misch": 8197,
      "▁decisions": 8198,
      "▁dreamt": 8199,
      "▁apologised": 8200,
      "carrots": 8201,
      "dancing": 8202,
      "▁darling": 8203,
      "▁Dare": 8204,
      "▁minds": 8205,
      "▁seller": 8206,
      "snow": 8207,
      "▁snuck": 8208,
      "ition": 8209,
      "ousy": 8210,
      "Stella": 8211,
      "▁Hannah": 8212,
      "▁sweaty": 8213,
      "fake": 8214,
      "mouse": 8215,
      "usic": 8216,
      "▁purrs": 8217,
      "▁birdhouse": 8218,
      "▁bitten": 8219,
      "▁onward": 8220,
      "▁Duck": 8221,
      "▁cafe": 8222,
      "Whoever": 8223,
      "Robert": 8224,
      "▁files": 8225,
      "aver": 8226,
      "▁bravest": 8227,
      "▁hiss": 8228,
      "▁postman": 8229,
      "▁business": 8230,
      "Cow": 8231,
      "Fe": 8232,
      "catch": 8233,
      "▁zooms": 8234,
      "▁engines": 8235,
      "Curious": 8236,
      "Pam": 8237,
      "Pret": 8238,
      "▁certain": 8239,
      "ubba": 8240,
      "▁bellies": 8241,
      "smell": 8242,
      "▁behavior": 8243,
      "ighing": 8244,
      "▁shines": 8245,
      "▁cracks": 8246,
      "▁neatly": 8247,
      "▁switched": 8248,
      "▁Matt": 8249,
      "▁mosquitoes": 8250,
      "▁repeating": 8251,
      "▁tilted": 8252,
      "▁smashed": 8253,
      "▁joining": 8254,
      "▁displayed": 8255,
      "▁treated": 8256,
      "▁rustling": 8257,
      "mighty": 8258,
      "ouncing": 8259,
      "gent": 8260,
      "tock": 8261,
      "▁edges": 8262,
      "atty": 8263,
      "▁doorway": 8264,
      "▁flaps": 8265,
      "▁pleaded": 8266,
      "▁yelped": 8267,
      "▁failed": 8268,
      "▁puzzled": 8269,
      "Choo": 8270,
      "Martha": 8271,
      "▁scamp": 8272,
      "▁marshmallow": 8273,
      "rup": 8274,
      "▁gap": 8275,
      "▁sweaters": 8276,
      "Ralph": 8277,
      "▁wider": 8278,
      "Shrink": 8279,
      "cc": 8280,
      "▁sy": 8281,
      "ssss": 8282,
      "▁Chew": 8283,
      "▁believing": 8284,
      "▁wiggly": 8285,
      "listening": 8286,
      "bbers": 8287,
      "games": 8288,
      "▁tasting": 8289,
      "▁grandparents": 8290,
      "kid": 8291,
      "▁gobbled": 8292,
      "▁robber": 8293,
      "Yoga": 8294,
      "order": 8295,
      "▁Catty": 8296,
      "Boom": 8297,
      "Michael": 8298,
      "stupid": 8299,
      "▁swap": 8300,
      "▁Jeff": 8301,
      "shining": 8302,
      "▁steer": 8303,
      "bread": 8304,
      "fear": 8305,
      "▁combed": 8306,
      "▁opinions": 8307,
      "▁insp": 8308,
      "ps": 8309,
      "▁coloring": 8310,
      "▁singers": 8311,
      "Holly": 8312,
      "Ana": 8313,
      "▁crawls": 8314,
      "▁echoed": 8315,
      "▁disobey": 8316,
      "▁focus": 8317,
      "Ice": 8318,
      "hugged": 8319,
      "piece": 8320,
      "▁antic": 8321,
      "▁squeaked": 8322,
      "▁peeled": 8323,
      "▁Skelly": 8324,
      "▁waterfall": 8325,
      "▁Milo": 8326,
      "▁Blink": 8327,
      "▁plucked": 8328,
      "spider": 8329,
      "▁Sparky": 8330,
      "wild": 8331,
      "Butter": 8332,
      "▁robbers": 8333,
      "yelled": 8334,
      "▁Linda": 8335,
      "▁address": 8336,
      "▁student": 8337,
      "ollen": 8338,
      "wind": 8339,
      "▁tar": 8340,
      "▁occ": 8341,
      "▁scolds": 8342,
      "love": 8343,
      "evin": 8344,
      "▁tuck": 8345,
      "▁tearing": 8346,
      "▁encount": 8347,
      "▁doorbell": 8348,
      "shrink": 8349,
      "▁taped": 8350,
      "▁rows": 8351,
      "▁connected": 8352,
      "Show": 8353,
      "Davey": 8354,
      "hil": 8355,
      "▁nasty": 8356,
      "igger": 8357,
      "▁snaps": 8358,
      "amazed": 8359,
      "▁swollen": 8360,
      "doll": 8361,
      "▁destroying": 8362,
      "ibi": 8363,
      "▁cottage": 8364,
      "repe": 8365,
      "▁cares": 8366,
      "mates": 8367,
      "▁pandas": 8368,
      "veral": 8369,
      "worried": 8370,
      "Janie": 8371,
      "iel": 8372,
      "▁magnif": 8373,
      "Taking": 8374,
      "etho": 8375,
      "confused": 8376,
      "▁pops": 8377,
      "▁grandson": 8378,
      "onnie": 8379,
      "▁quieter": 8380,
      "▁gesture": 8381,
      "quee": 8382,
      "▁newspapers": 8383,
      "Fuzzy": 8384,
      "▁stetho": 8385,
      "Dodo": 8386,
      "▁action": 8387,
      "▁bothered": 8388,
      "mies": 8389,
      "sk": 8390,
      "▁whistles": 8391,
      "grateful": 8392,
      "Jay": 8393,
      "Rudy": 8394,
      "cent": 8395,
      "could": 8396,
      "▁simply": 8397,
      "▁swimsuit": 8398,
      "▁soaking": 8399,
      "▁warri": 8400,
      "colourful": 8401,
      "fearful": 8402,
      "Tell": 8403,
      "▁shorter": 8404,
      "▁backs": 8405,
      "▁dresser": 8406,
      "Oliver": 8407,
      "opened": 8408,
      "chickens": 8409,
      "▁pills": 8410,
      "▁probably": 8411,
      "▁plot": 8412,
      "▁mood": 8413,
      "▁sou": 8414,
      "▁unpacking": 8415,
      "Right": 8416,
      "reverse": 8417,
      "rayons": 8418,
      "▁prayers": 8419,
      "sleepy": 8420,
      "▁yumm": 8421,
      "Jackie": 8422,
      "Arrr": 8423,
      "sol": 8424,
      "▁Paws": 8425,
      "▁stethoscope": 8426,
      "▁several": 8427,
      "abelle": 8428,
      "sho": 8429,
      "acy": 8430,
      "hiding": 8431,
      "▁Jilly": 8432,
      "▁rescuing": 8433,
      "Pop": 8434,
      "▁Fish": 8435,
      "▁playd": 8436,
      "original": 8437,
      "▁locks": 8438,
      "▁throughout": 8439,
      "▁waddled": 8440,
      "▁explorer": 8441,
      "▁lowered": 8442,
      "rie": 8443,
      "▁shinier": 8444,
      "▁runner": 8445,
      "▁spy": 8446,
      "snap": 8447,
      "▁target": 8448,
      "▁Hippy": 8449,
      "▁dears": 8450,
      "▁proper": 8451,
      "Moon": 8452,
      "▁brushing": 8453,
      "oosh": 8454,
      "ully": 8455,
      "▁Josh": 8456,
      "Seeing": 8457,
      "▁envelopes": 8458,
      "iration": 8459,
      "fill": 8460,
      "lied": 8461,
      "▁serving": 8462,
      "unity": 8463,
      "▁flips": 8464,
      "thankful": 8465,
      "Sl": 8466,
      "Laura": 8467,
      "▁footprints": 8468,
      "▁Buggy": 8469,
      "Startled": 8470,
      "handing": 8471,
      "ening": 8472,
      "▁Gina": 8473,
      "Wise": 8474,
      "▁char": 8475,
      "▁cons": 8476,
      "Granny": 8477,
      "▁leapt": 8478,
      "▁anticip": 8479,
      "mix": 8480,
      "▁planting": 8481,
      "▁teachers": 8482,
      "▁uniforms": 8483,
      "▁efforts": 8484,
      "Thunder": 8485,
      "omp": 8486,
      "cidents": 8487,
      "seeing": 8488,
      "Kip": 8489,
      "▁tid": 8490,
      "▁joyful": 8491,
      "▁aware": 8492,
      "▁aren": 8493,
      "bossy": 8494,
      "atoes": 8495,
      "▁Ally": 8496,
      "▁blast": 8497,
      "▁appreciation": 8498,
      "cont": 8499,
      "honest": 8500,
      "▁plug": 8501,
      "spicy": 8502,
      "robot": 8503,
      "▁checks": 8504,
      "▁grandchild": 8505,
      "▁sandcastles": 8506,
      "▁aisle": 8507,
      "Kit": 8508,
      "▁Ash": 8509,
      "omb": 8510,
      "grow": 8511,
      "Maddie": 8512,
      "▁Jay": 8513,
      "▁floors": 8514,
      "▁collap": 8515,
      "▁shrank": 8516,
      "▁imagining": 8517,
      "▁prick": 8518,
      "ivi": 8519,
      "Santa": 8520,
      "amazing": 8521,
      "aunt": 8522,
      "happily": 8523,
      "▁driveway": 8524,
      "▁sens": 8525,
      "▁desper": 8526,
      "mar": 8527,
      "princess": 8528,
      "▁dodged": 8529,
      "▁germs": 8530,
      "▁sternly": 8531,
      "▁Spirit": 8532,
      "▁breathing": 8533,
      "▁astronauts": 8534,
      "▁charge": 8535,
      "▁adds": 8536,
      "▁laptop": 8537,
      "threw": 8538,
      "▁sets": 8539,
      "Ryan": 8540,
      "▁ele": 8541,
      "▁becomes": 8542,
      "▁burns": 8543,
      "▁hunters": 8544,
      "Pretty": 8545,
      "▁awo": 8546,
      "▁nearly": 8547,
      "▁goo": 8548,
      "ordinary": 8549,
      "moving": 8550,
      ",'": 8551,
      "teddy": 8552,
      "▁toolbox": 8553,
      "▁stamped": 8554,
      "Biggie": 8555,
      "pass": 8556,
      "▁killed": 8557,
      "rily": 8558,
      "▁deed": 8559,
      "llas": 8560,
      ".\n'": 8561,
      "▁forgives": 8562,
      "▁aprons": 8563,
      "peas": 8564,
      "otte": 8565,
      "▁squaw": 8566,
      "▁attack": 8567,
      "issa": 8568,
      "oger": 8569,
      "▁goats": 8570,
      "▁friendships": 8571,
      "▁suggestion": 8572,
      "▁meows": 8573,
      "val": 8574,
      "▁form": 8575,
      "Tess": 8576,
      "▁novels": 8577,
      "Zoey": 8578,
      "crayons": 8579,
      "glue": 8580,
      "▁scampered": 8581,
      "inging": 8582,
      "▁posit": 8583,
      "▁Mon": 8584,
      "▁Chirp": 8585,
      "ircle": 8586,
      "▁necks": 8587,
      "▁Dizzy": 8588,
      "Chirp": 8589,
      "▁licking": 8590,
      "ducks": 8591,
      "Hmm": 8592,
      "arrow": 8593,
      "▁Cara": 8594,
      "▁twists": 8595,
      "▁anticipation": 8596,
      "',": 8597,
      "▁cond": 8598,
      "▁sprays": 8599,
      "▁supplied": 8600,
      "arlotte": 8601,
      "▁Adam": 8602,
      "▁haird": 8603,
      "Jacky": 8604,
      "▁invites": 8605,
      "inted": 8606,
      "today": 8607,
      "▁newfound": 8608,
      "▁trot": 8609,
      "sterious": 8610,
      "▁trusting": 8611,
      "colates": 8612,
      "▁erase": 8613,
      "cheap": 8614,
      "▁rays": 8615,
      "▁bounces": 8616,
      "lots": 8617,
      "boom": 8618,
      "▁finishing": 8619,
      "▁Green": 8620,
      "▁massages": 8621,
      "▁nurses": 8622,
      "▁Suzie": 8623,
      "▁Mel": 8624,
      "▁Bop": 8625,
      "▁battle": 8626,
      "▁umbrellas": 8627,
      "▁cheated": 8628,
      "▁Cathy": 8629,
      "matey": 8630,
      "▁rowed": 8631,
      "uncle": 8632,
      "▁mommies": 8633,
      "▁final": 8634,
      "balloons": 8635,
      "▁passengers": 8636,
      "splash": 8637,
      "▁Claire": 8638,
      "▁covering": 8639,
      "▁invitations": 8640,
      "▁Jacob": 8641,
      "▁glitt": 8642,
      "▁smelling": 8643,
      "...\"\n": 8644,
      "▁snuggle": 8645,
      "▁weeds": 8646,
      "▁carries": 8647,
      "▁tempt": 8648,
      "brother": 8649,
      "▁mugs": 8650,
      "▁discussing": 8651,
      "iens": 8652,
      "▁Betsy": 8653,
      "▁Pam": 8654,
      "▁Fido": 8655,
      "alloween": 8656,
      "rian": 8657,
      "Abi": 8658,
      "inch": 8659,
      "inside": 8660,
      "▁tricycle": 8661,
      "frightened": 8662,
      "▁models": 8663,
      "Mixy": 8664,
      "▁Foxy": 8665,
      "▁presented": 8666,
      "lsie": 8667,
      "Grow": 8668,
      "kicked": 8669,
      "▁belongings": 8670,
      "▁oppos": 8671,
      "really": 8672,
      "▁beaver": 8673,
      "▁duckling": 8674,
      "queak": 8675,
      "▁ghosts": 8676,
      "Ring": 8677,
      "ancient": 8678,
      "▁jets": 8679,
      "▁grandfather": 8680,
      "rabbits": 8681,
      "▁responded": 8682,
      "Farmer": 8683,
      "Mina": 8684,
      "utty": 8685,
      "wr": 8686,
      "▁strips": 8687,
      "shouting": 8688,
      "▁cotton": 8689,
      "▁marshmallows": 8690,
      "▁clicked": 8691,
      "▁Jessie": 8692,
      "poor": 8693,
      "▁Moon": 8694,
      "▁drown": 8695,
      "calling": 8696,
      "▁cooper": 8697,
      "▁convin": 8698,
      "▁tests": 8699,
      "▁statues": 8700,
      "▁traveling": 8701,
      "iri": 8702,
      "▁dropping": 8703,
      "▁Jessica": 8704,
      "▁opposite": 8705,
      "tom": 8706,
      "▁sandy": 8707,
      "▁travels": 8708,
      "Slow": 8709,
      "▁gazing": 8710,
      "▁flashed": 8711,
      "toy": 8712,
      "Brrr": 8713,
      "helpless": 8714,
      "▁scattering": 8715,
      "Simon": 8716,
      "well": 8717,
      "elieve": 8718,
      "▁Peanut": 8719,
      "▁afford": 8720,
      "▁picnics": 8721,
      "▁Halloween": 8722,
      "Tuesday": 8723,
      "▁squir": 8724,
      "▁Pup": 8725,
      "▁aliens": 8726,
      "▁cowboy": 8727,
      "▁munch": 8728,
      "aturday": 8729,
      "▁encountered": 8730,
      "▁whimp": 8731,
      "▁Mad": 8732,
      "▁questioned": 8733,
      "cre": 8734,
      "iment": 8735,
      "▁chocolates": 8736,
      "Marie": 8737,
      "dropping": 8738,
      "▁rout": 8739,
      "▁upside": 8740,
      "Beaky": 8741,
      "Wendy": 8742,
      "free": 8743,
      "▁Tia": 8744,
      "iggled": 8745,
      "?!\"": 8746,
      "Pen": 8747,
      "▁cheat": 8748,
      "▁craft": 8749,
      "▁buckled": 8750,
      "▁demanding": 8751,
      "▁scoops": 8752,
      "▁minding": 8753,
      "lo": 8754,
      "unusual": 8755,
      "▁slapping": 8756,
      "▁realizes": 8757,
      "▁Titi": 8758,
      "▁foxes": 8759,
      "▁Jenna": 8760,
      "Cr": 8761,
      "Care": 8762,
      "▁Skip": 8763,
      "▁packages": 8764,
      "▁caps": 8765,
      "▁Smith": 8766,
      "liv": 8767,
      "alth": 8768,
      "▁sacks": 8769,
      "bitter": 8770,
      "▁winners": 8771,
      "▁scratching": 8772,
      "Sadie": 8773,
      "Zee": 8774,
      "wow": 8775,
      "wip": 8776,
      "▁fright": 8777,
      "byes": 8778,
      "stuck": 8779,
      "▁fights": 8780,
      "▁attem": 8781,
      "▁defin": 8782,
      "▁forgetting": 8783,
      "▁congratul": 8784,
      "emies": 8785,
      "▁Le": 8786,
      "Chewy": 8787,
      "Puppy": 8788,
      "reg": 8789,
      "▁rather": 8790,
      "▁convers": 8791,
      "▁goodbyes": 8792,
      "Todd": 8793,
      "▁dragonfly": 8794,
      "▁Julia": 8795,
      "▁messes": 8796,
      "Roo": 8797,
      "▁designing": 8798,
      "golden": 8799,
      "▁enemies": 8800,
      "▁Biggie": 8801,
      "shoes": 8802,
      "Eddie": 8803,
      "Ho": 8804,
      "▁admiration": 8805,
      "Judy": 8806,
      "determ": 8807,
      "giggling": 8808,
      "irling": 8809,
      "▁clip": 8810,
      "▁garbage": 8811,
      "erk": 8812,
      "▁calmly": 8813,
      "▁journeys": 8814,
      "▁weapons": 8815,
      "idden": 8816,
      "▁Saturday": 8817,
      "mysterious": 8818,
      "bouncing": 8819,
      "▁reapp": 8820,
      "▁Copper": 8821,
      "▁awoke": 8822,
      "fine": 8823,
      "▁bride": 8824,
      "shaped": 8825,
      "yl": 8826,
      "▁aim": 8827,
      "onse": 8828,
      "▁defe": 8829,
      "▁visitors": 8830,
      "▁sincere": 8831,
      "▁playdate": 8832,
      "uf": 8833,
      "yler": 8834,
      "ici": 8835,
      "▁scrub": 8836,
      "▁traps": 8837,
      "▁fluttering": 8838,
      "crazy": 8839,
      "Rel": 8840,
      "scissors": 8841,
      "▁prevented": 8842,
      "▁Dee": 8843,
      "Jojo": 8844,
      "match": 8845,
      "▁fet": 8846,
      "▁sadder": 8847,
      "antastic": 8848,
      "emma": 8849,
      "Barky": 8850,
      "▁bou": 8851,
      "stalk": 8852,
      "▁decl": 8853,
      "▁drift": 8854,
      "▁automobiles": 8855,
      "▁response": 8856,
      "▁refreshing": 8857,
      "▁bouqu": 8858,
      "▁argum": 8859,
      "▁awful": 8860,
      "▁pound": 8861,
      "▁stall": 8862,
      "▁weighs": 8863,
      "▁loudest": 8864,
      "▁Turtle": 8865,
      "▁crystals": 8866,
      "glowing": 8867,
      "▁opport": 8868,
      "Bally": 8869,
      "▁odd": 8870,
      "▁stepping": 8871,
      "▁stretches": 8872,
      "▁bless": 8873,
      "Samantha": 8874,
      "▁decoration": 8875,
      "▁definitely": 8876,
      "fairy": 8877,
      "▁beanstalk": 8878,
      "agreed": 8879,
      "asha": 8880,
      "▁returning": 8881,
      "▁Nana": 8882,
      "▁spices": 8883,
      "▁born": 8884,
      "▁washes": 8885,
      "▁bud": 8886,
      "screen": 8887,
      "closed": 8888,
      "▁campfire": 8889,
      "ooks": 8890,
      "▁Dara": 8891,
      "iza": 8892,
      "▁Tara": 8893,
      "dolp": 8894,
      "irac": 8895,
      "▁occas": 8896,
      "Lenny": 8897,
      "▁bomb": 8898,
      "▁parted": 8899,
      "shoot": 8900,
      "▁tumbled": 8901,
      "gentle": 8902,
      "Ag": 8903,
      "Hug": 8904,
      "▁troubles": 8905,
      "▁causing": 8906,
      "snake": 8907,
      "▁reassured": 8908,
      "Helping": 8909,
      "▁hairdress": 8910,
      "Cra": 8911,
      "darling": 8912,
      "ooky": 8913,
      "▁diamonds": 8914,
      "▁Tweetie": 8915,
      "acing": 8916,
      "Jon": 8917,
      "cur": 8918,
      "▁wealth": 8919,
      "▁recorder": 8920,
      "▁stuffing": 8921,
      "▁Wink": 8922,
      "Maddy": 8923,
      "Mint": 8924,
      "becca": 8925,
      "▁la": 8926,
      "riangle": 8927,
      "tag": 8928,
      "▁cupcakes": 8929,
      "laugh": 8930,
      "▁groan": 8931,
      "▁correctly": 8932,
      "determined": 8933,
      "ufus": 8934,
      "▁Ziggy": 8935,
      "▁Fox": 8936,
      "Patch": 8937,
      "▁prizes": 8938,
      "▁connect": 8939,
      "livia": 8940,
      "soon": 8941,
      "shadow": 8942,
      "Birds": 8943,
      "▁Tree": 8944,
      "covering": 8945,
      "▁Sparkle": 8946,
      "cats": 8947,
      "▁coo": 8948,
      "▁cleared": 8949,
      "rench": 8950,
      "▁beaks": 8951,
      "▁type": 8952,
      "Pick": 8953,
      "aling": 8954,
      "▁coach": 8955,
      "lora": 8956,
      "▁inspired": 8957,
      "Over": 8958,
      "▁shares": 8959,
      "▁owns": 8960,
      "▁increasing": 8961,
      "▁Robert": 8962,
      "▁obeyed": 8963,
      "▁swallow": 8964,
      "▁cowboys": 8965,
      "▁sirens": 8966,
      "magical": 8967,
      "alf": 8968,
      "▁Splash": 8969,
      "▁trigger": 8970,
      "▁bends": 8971,
      "daughter": 8972,
      "▁whales": 8973,
      "▁rewards": 8974,
      "▁exch": 8975,
      "fect": 8976,
      "▁cleans": 8977,
      "▁wiser": 8978,
      "▁surrendered": 8979,
      "▁moo": 8980,
      "▁brightest": 8981,
      "▁freezing": 8982,
      "▁customer": 8983,
      "racie": 8984,
      "▁nuzzled": 8985,
      "▁rely": 8986,
      "▁active": 8987,
      "▁fantastic": 8988,
      "▁Mix": 8989,
      "getables": 8990,
      "Danger": 8991,
      "answ": 8992,
      "Im": 8993,
      "organ": 8994,
      "Frosty": 8995,
      "nodding": 8996,
      "▁Henny": 8997,
      "▁customers": 8998,
      "▁Kayla": 8999,
      "generous": 9000,
      "udged": 9001,
      "hopped": 9002,
      "▁yummiest": 9003,
      "▁hairdresser": 9004,
      "▁self": 9005,
      "mel": 9006,
      "▁enjoyable": 9007,
      "Maisy": 9008,
      "rubbing": 9009,
      "▁hisses": 9010,
      "elope": 9011,
      "weird": 9012,
      "▁towns": 9013,
      "▁honesty": 9014,
      "iolet": 9015,
      "Promise": 9016,
      "counting": 9017,
      "atitude": 9018,
      "▁poses": 9019,
      "forgetting": 9020,
      "Ali": 9021,
      "▁shooed": 9022,
      "▁bruises": 9023,
      "▁warmly": 9024,
      "▁examp": 9025,
      "▁environ": 9026,
      "close": 9027,
      "▁depend": 9028,
      "▁cosy": 9029,
      "▁dangers": 9030,
      "▁dollar": 9031,
      "▁rails": 9032,
      "▁ouch": 9033,
      "▁jud": 9034,
      "▁shorts": 9035,
      "▁welcoming": 9036,
      "▁Grumpy": 9037,
      "▁declared": 9038,
      "▁visits": 9039,
      "Cro": 9040,
      "▁plugged": 9041,
      "▁scent": 9042,
      "bigger": 9043,
      "▁exercises": 9044,
      "started": 9045,
      "▁coughed": 9046,
      "Ruth": 9047,
      "▁coral": 9048,
      "▁cuddles": 9049,
      "▁environment": 9050,
      "tiny": 9051,
      "paint": 9052,
      "▁spoiling": 9053,
      "Freeze": 9054,
      "dependable": 9055,
      "asy": 9056,
      "▁tickles": 9057,
      "▁experien": 9058,
      "▁travelling": 9059,
      "▁humming": 9060,
      "▁Nina": 9061,
      "▁loc": 9062,
      "rolled": 9063,
      "▁insisting": 9064,
      "▁pipes": 9065,
      "▁gratitude": 9066,
      "▁chopped": 9067,
      "▁activity": 9068,
      "around": 9069,
      "▁youn": 9070,
      "▁badger": 9071,
      "Frankie": 9072,
      "Ruff": 9073,
      "mos": 9074,
      "▁ill": 9075,
      "▁nights": 9076,
      "▁pilots": 9077,
      "danced": 9078,
      "▁convinced": 9079,
      "▁youngest": 9080,
      "walked": 9081,
      "waved": 9082,
      "repeat": 9083,
      "Mindy": 9084,
      "stret": 9085,
      "▁closing": 9086,
      "▁disappoint": 9087,
      "watched": 9088,
      "▁Sof": 9089,
      "▁brains": 9090,
      "▁squished": 9091,
      "▁Ryan": 9092,
      "▁clerk": 9093,
      "ellow": 9094,
      "▁Man": 9095,
      "▁Quick": 9096,
      "stir": 9097,
      "▁seven": 9098,
      "paper": 9099,
      "▁inches": 9100,
      "uster": 9101,
      "▁threads": 9102,
      "keeping": 9103,
      "▁laces": 9104,
      "Willy": 9105,
      "▁exploded": 9106,
      "▁nearest": 9107,
      "▁wrinkled": 9108,
      "Squ": 9109,
      "tap": 9110,
      "▁whoever": 9111,
      "▁June": 9112,
      "bridges": 9113,
      "▁reminding": 9114,
      "Cari": 9115,
      "Jonny": 9116,
      "munk": 9117,
      "athan": 9118,
      "▁storms": 9119,
      "ilities": 9120,
      "couraged": 9121,
      "swinging": 9122,
      "Fort": 9123,
      "may": 9124,
      "Ahoy": 9125,
      "inner": 9126,
      "▁bond": 9127,
      "▁common": 9128,
[...]
