{
  "version": "1.0",
  "truncation": null,
  "padding": null,
  "added_tokens": [
    {
      "id": 0,
      "content": "<|PAD|>",
      "single_word": false,
      "lstrip": false,
      "rstrip": false,
      "normalized": false,
      "special": true
    },
    {
      "id": 1,
      "content": "<|BOS|>",
      "single_word": false,
      "lstrip": false,
      "rstrip": false,
      "normalized": false,
      "special": true
    },
    {
      "id": 2,
      "content": "<|EOS|>",
      "single_word": false,
      "lstrip": false,
      "rstrip": false,
      "normalized": false,
      "special": true
    },
    {
      "id": 3,
      "content": "<|UNK|>",
      "single_word": false,
      "lstrip": false,
      "rstrip": false,
      "normalized": false,
      "special": true
    }
  ],
  "normalizer": {
    "type": "NFKC"
  },
  "pre_tokenizer": {
    "type": "Metaspace",
    "replacement": "▁",
    "prepend_scheme": "never",
    "split": true
  },
  "post_processor": {
    "type": "TemplateProcessing",
    "single": [
      {
        "SpecialToken": {
          "id": "<|BOS|>",
          "type_id": 0
        }
      },
      {
        "Sequence": {
          "id": "A",
          "type_id": 0
        }
      },
      {
        "SpecialToken": {
          "id": "<|EOS|>",
          "type_id": 0
        }
      }
    ],
    "pair": [
      {
        "SpecialToken": {
          "id": "<|BOS|>",
          "type_id": 0
        }
      },
      {
        "Sequence": {
          "id": "A",
          "type_id": 0
        }
      },
      {
        "SpecialToken": {
          "id": "<|EOS|>",
          "type_id": 0
        }
      },
      {
        "SpecialToken": {
          "id": "<|BOS|>",
          "type_id": 1
        }
      },
      {
        "Sequence": {
          "id": "B",
          "type_id": 1
        }
      },
      {
        "SpecialToken": {
          "id": "<|EOS|>",
          "type_id": 1
        }
      }
    ],
    "special_tokens": {
      "<|BOS|>": {
        "id": "<|BOS|>",
        "ids": [
          1
        ],
        "tokens": [
          "<|BOS|>"
        ]
      },
      "<|EOS|>": {
        "id": "<|EOS|>",
        "ids": [
          2
        ],
        "tokens": [
          "<|EOS|>"
        ]
      }
    }
  },
  "decoder": {
    "type": "Metaspace",
    "replacement": "▁",
    "prepend_scheme": "never",
    "split": true
  },
  "model": {
    "type": "BPE",
    "dropout": null,
    "unk_token": "<|UNK|>",
    "continuing_subword_prefix": null,
    "end_of_word_suffix": null,
    "fuse_unk": false,
    "byte_fallback": false,
    "ignore_merges": false,
    "vocab": {
      "<|PAD|>": 0,
      "<|BOS|>": 1,
      "<|EOS|>": 2,
      "<|UNK|>": 3,
      "!": 4,
      "\"": 5,
      "'": 6,
      ",": 7,
      "-": 8,
      ".": 9,
      "0": 10,
      "1": 11,
      "2": 12,
      "3": 13,
      "4": 14,
      "5": 15,
      "6": 16,
      "7": 17,
      "8": 18,
      "9": 19,
      ":": 20,
      ";": 21,
      "<": 22,
      ">": 23,
      "?": 24,
      "a": 25,
      "A": 26,
      "b": 27,
      "B": 28,
      "c": 29,
      "C": 30,
      "d": 31,
      "D": 32,
      "e": 33,
      "E": 34,
      "f": 35,
      "F": 36,
      "g": 37,
      "G": 38,
      "h": 39,
      "H": 40,
      "i": 41,
      "I": 42,
      "k": 43,
      "K": 44,
      "l": 45,
      "L": 46,
      "m": 47,
      "M": 48,
      "n": 49,
      "N": 50,
      "o": 51,
      "O": 52,
      "p": 53,
      "P": 54,
      "q": 55,
      "Q": 56,
      "r": 57,
      "R": 58,
      "s": 59,
      "S": 60,
      "t": 61,
      "T": 62,
      "u": 63,
      "U": 64,
      "v": 65,
      "V": 66,
      "w": 67,
      "W": 68,
      "x": 69,
      "X": 70,
      "y": 71,
      "Y": 72,
      "z": 73,
      "Z": 74,
      "|": 75,
      "־": 76,
      "׃": 77,
      "א": 78,
      "ב": 79,
      "ג": 80,
      "ד": 81,
      "ה": 82,
      "ו": 83,
      "ז": 84,
      "ח": 85,
      "ט": 86,
      "י": 87,
      "ך": 88,
      "כ": 89,
      "ל": 90,
      "ם": 91,
      "מ": 92,
      "ן": 93,
      "נ": 94,
      "ס": 95,
      "ע": 96,
      "ף": 97,
      "פ": 98,
      "ץ": 99,
      "צ": 100,
      "ק": 101,
      "ר": 102,
      "ש": 103,
      "ת": 104,
      "▁": 105,
      "\t": 106,
      "\n": 107,
      "▁!": 108,
      "▁\"": 109,
      "▁'": 110,
      "▁,": 111,
      "▁-": 112,
      "▁.": 113,
      "▁0": 114,
      "▁1": 115,
      "▁2": 116,
      "▁3": 117,
      "▁4": 118,
      "▁5": 119,
      "▁6": 120,
      "▁7": 121,
      "▁8": 122,
      "▁9": 123,
      "▁:": 124,
      "▁;": 125,
      "▁<": 126,
      "▁>": 127,
      "▁?": 128,
      "▁a": 129,
      "▁A": 130,
      "▁b": 131,
      "▁B": 132,
      "▁c": 133,
      "▁C": 134,
      "▁d": 135,
      "▁D": 136,
      "▁e": 137,
      "▁E": 138,
      "▁f": 139,
      "▁F": 140,
      "▁g": 141,
      "▁G": 142,
      "▁h": 143,
      "▁H": 144,
      "▁i": 145,
      "▁I": 146,
      "▁k": 147,
      "▁K": 148,
      "▁l": 149,
      "▁L": 150,
      "▁m": 151,
      "▁M": 152,
      "▁n": 153,
      "▁N": 154,
      "▁o": 155,
      "▁O": 156,
      "▁p": 157,
      "▁P": 158,
      "▁q": 159,
      "▁Q": 160,
      "▁r": 161,
      "▁R": 162,
      "▁s": 163,
      "▁S": 164,
      "▁t": 165,
      "▁T": 166,
      "▁u": 167,
      "▁U": 168,
      "▁v": 169,
      "▁V": 170,
      "▁w": 171,
      "▁W": 172,
      "▁x": 173,
      "▁X": 174,
      "▁y": 175,
      "▁Y": 176,
      "▁z": 177,
      "▁Z": 178,
      "▁|": 179,
      "▁־": 180,
      "▁׃": 181,
      "▁א": 182,
      "▁ב": 183,
      "▁ג": 184,
      "▁ד": 185,
      "▁ה": 186,
      "▁ו": 187,
      "▁ז": 188,
      "▁ח": 189,
      "▁ט": 190,
      "▁י": 191,
      "▁ך": 192,
      "▁כ": 193,
      "▁ל": 194,
      "▁ם": 195,
      "▁מ": 196,
      "▁ן": 197,
      "▁נ": 198,
      "▁ס": 199,
      "▁ע": 200,
      "▁ף": 201,
      "▁פ": 202,
      "▁ץ": 203,
      "▁צ": 204,
      "▁ק": 205,
      "▁ר": 206,
      "▁ש": 207,
      "▁ת": 208,
      "הי": 209,
      "▁הי": 210,
      "ים": 211,
      "▁ים": 212,
      "וא": 213,
      "▁וא": 214,
      "ול": 215,
      "▁ול": 216,
      "את": 217,
      "▁את": 218,
      "ות": 219,
      "▁ות": 220,
      "של": 221,
      "▁של": 222,
      "הם": 223,
      "▁הם": 224,
      "לי": 225,
      "▁לי": 226,
      "ור": 227,
      "▁ור": 228,
      "היה": 229,
      "▁היה": 230,
      "הוא": 231,
      "▁הוא": 232,
      "ום": 233,
      "▁ום": 234,
      "מא": 235,
      "▁מא": 236,
      "ית": 237,
      "▁ית": 238,
      "וב": 239,
      "▁וב": 240,
      "כל": 241,
      "▁כל": 242,
      "חד": 243,
      "▁חד": 244,
      "לא": 245,
      "▁לא": 246,
      "מר": 247,
      "▁מר": 248,
      "היא": 249,
      "▁היא": 250,
      "בר": 251,
      "▁בר": 252,
      "ני": 253,
      "▁ני": 254,
      "לה": 255,
      "▁לה": 256,
      "וד": 257,
      "▁וד": 258,
      "חק": 259,
      "▁חק": 260,
      "עם": 261,
      "▁עם": 262,
      "אה": 263,
      "▁אה": 264,
      "נה": 265,
      "▁נה": 266,
      "זה": 267,
      "▁זה": 268,
      "מה": 269,
      "▁מה": 270,
      "טים": 271,
      "▁טים": 272,
      "חי": 273,
      "▁חי": 274,
      "וה": 275,
      "▁וה": 276,
      "מי": 277,
      "▁מי": 278,
      "גד": 279,
      "▁גד": 280,
      "בל": 281,
      "▁בל": 282,
      "על": 283,
      "▁על": 284,
      "שי": 285,
      "▁שי": 286,
      "שה": 287,
      "▁שה": 288,
      "יפ": 289,
      "▁יפ": 290,
      "גדול": 291,
      "▁גדול": 292,
      "אות": 293,
      "▁אות": 294,
      "יום": 295,
      "▁יום": 296,
      "קט": 297,
      "▁קט": 298,
      "עצ": 299,
      "▁עצ": 300,
      "יתה": 301,
      "▁יתה": 302,
      "אמר": 303,
      "▁אמר": 304,
      "בי": 305,
      "▁בי": 306,
      "הח": 307,
      "▁הח": 308,
      "או": 309,
      "▁או": 310,
      "לו": 311,
      "▁לו": 312,
      "יכ": 313,
      "▁יכ": 314,
      "וע": 315,
      "▁וע": 316,
      "בש": 317,
      "▁בש": 318,
      "לש": 319,
      "▁לש": 320,
      "אחד": 321,
      "▁אחד": 322,
      "הר": 323,
      "▁הר": 324,
      "די": 325,
      "▁די": 326,
      "שלו": 327,
      "▁שלו": 328,
      "אבל": 329,
      "▁אבל": 330,
      "nd": 331,
      "▁nd": 332,
      "ND": 333,
      "▁ND": 334,
      "Nd": 335,
      "▁Nd": 336,
      "te": 337,
      "▁te": 338,
      "TE": 339,
      "▁TE": 340,
      "Te": 341,
      "▁Te": 342,
      "of": 343,
      "▁of": 344,
      "OF": 345,
      "▁OF": 346,
      "Of": 347,
      "▁Of": 348,
      "end": 349,
      "▁end": 350,
      "END": 351,
      "▁END": 352,
      "End": 353,
      "▁End": 354,
      "xt": 355,
      "▁xt": 356,
      "XT": 357,
      "▁XT": 358,
      "Xt": 359,
      "▁Xt": 360,
      "text": 361,
      "▁text": 362,
      "TEXT": 363,
      "▁TEXT": 364,
      "Text": 365,
      "▁Text": 366,
      "oftext": 367,
      "▁oftext": 368,
      "OFTEXT": 369,
      "▁OFTEXT": 370,
      "Oftext": 371,
      "▁Oftext": 372,
      "endoftext": 373,
      "▁endoftext": 374,
      "ENDOFTEXT": 375,
      "▁ENDOFTEXT": 376,
      "Endoftext": 377,
      "▁Endoftext": 378,
      "רה": 379,
      "▁רה": 380,
      "נו": 381,
      "▁נו": 382,
      "לד": 383,
      "▁לד": 384,
      "הצ": 385,
      "▁הצ": 386,
      "המ": 387,
      "▁המ": 388,
      "שמ": 389,
      "▁שמ": 390,
      "רו": 391,
      "▁רו": 392,
      "צה": 393,
      "▁צה": 394,
      "הייתה": 395,
      "▁הייתה": 396,
      "בה": 397,
      "▁בה": 398,
      "מאוד": 399,
      "▁מאוד": 400,
      "לע": 401,
      "▁לע": 402,
      "וש": 403,
      "▁וש": 404,
      "שלה": 405,
      "▁שלה": 406,
      "אמא": 407,
      "▁אמא": 408,
      "אתה": 409,
      "▁אתה": 410,
      "גי": 411,
      "▁גי": 412,
      "פו": 413,
      "▁פו": 414,
      "חבר": 415,
      "▁חבר": 416,
      "בשם": 417,
      "▁בשם": 418,
      "טום": 419,
      "▁טום": 420,
      "סו": 421,
      "▁סו": 422,
      "לילי": 423,
      "▁לילי": 424,
      "מצ": 425,
      "▁מצ": 426,
      "כי": 427,
      "▁כי": 428,
      "מו": 429,
      "▁מו": 430,
      "כו": 431,
      "▁כו": 432,
      "יפור": 433,
      "▁יפור": 434,
      "אני": 435,
      "▁אני": 436,
      "הת": 437,
      "▁הת": 438,
      "לשחק": 439,
      "▁לשחק": 440,
      "רק": 441,
      "▁רק": 442,
      "רי": 443,
      "▁רי": 444,
      "יכול": 445,
      "▁יכול": 446,
      "היו": 447,
      "▁היו": 448,
      "מק": 449,
      "▁מק": 450,
      "הא": 451,
      "▁הא": 452,
      "חת": 453,
      "▁חת": 454,
      "פעם": 455,
      "▁פעם": 456,
      "לק": 457,
      "▁לק": 458,
      "פי": 459,
      "▁פי": 460,
      "בו": 461,
      "▁בו": 462,
      "הס": 463,
      "▁הס": 464,
      "פר": 465,
      "▁פר": 466,
      "ילד": 467,
      "▁ילד": 468,
      "טוב": 469,
      "▁טוב": 470,
      "מש": 471,
      "▁מש": 472,
      "קטן": 473,
      "▁קטן": 474,
      "פת": 475,
      "▁פת": 476,
      "ראה": 477,
      "▁ראה": 478,
      "לך": 479,
      "▁לך": 480,
      "עצוע": 481,
      "▁עצוע": 482,
      "סי": 483,
      "▁סי": 484,
      "שיחק": 485,
      "▁שיחק": 486,
      "קטנה": 487,
      "▁קטנה": 488,
      "הע": 489,
      "▁הע": 490,
      "אי": 491,
      "▁אי": 492,
      "חה": 493,
      "▁חה": 494,
      "אמרה": 495,
      "▁אמרה": 496,
      "מד": 497,
      "▁מד": 498,
      "תה": 499,
      "▁תה": 500,
      "חז": 501,
      "▁חז": 502,
      "הכ": 503,
      "▁הכ": 504,
      "שו": 505,
      "▁שו": 506,
      "כך": 507,
      "▁כך": 508,
      "הב": 509,
      "▁הב": 510,
      "ותר": 511,
      "▁ותר": 512,
      "חו": 513,
      "▁חו": 514,
      "כלב": 515,
      "▁כלב": 516,
      "שא": 517,
      "▁שא": 518,
      "אותו": 519,
      "▁אותו": 520,
      "לב": 521,
      "▁לב": 522,
      "נח": 523,
      "▁נח": 524,
      "ושר": 525,
      "▁ושר": 526,
      "ואמר": 527,
      "▁ואמר": 528,
      "אז": 529,
      "▁אז": 530,
      "טי": 531,
      "▁טי": 532,
      "עי": 533,
      "▁עי": 534,
      "כול": 535,
      "▁כול": 536,
      "סה": 537,
      "▁סה": 538,
      "הק": 539,
      "▁הק": 540,
      "דור": 541,
      "▁דור": 542,
      "יש": 543,
      "▁יש": 544,
      "בת": 545,
      "▁בת": 546,
      "יותר": 547,
      "▁יותר": 548,
      "הש": 549,
      "▁הש": 550,
      "בא": 551,
      "▁בא": 552,
      "עו": 553,
      "▁עו": 554,
      "רצה": 555,
      "▁רצה": 556,
      "רצ": 557,
      "▁רצ": 558,
      "להי": 559,
      "▁להי": 560,
      "בק": 561,
      "▁בק": 562,
      "מאושר": 563,
      "▁מאושר": 564,
      "הד": 565,
      "▁הד": 566,
      "גדולה": 567,
      "▁גדולה": 568,
      "עצוב": 569,
      "▁עצוב": 570,
      "זור": 571,
      "▁זור": 572,
      "כש": 573,
      "▁כש": 574,
      "שיחקו": 575,
      "▁שיחקו": 576,
      "מת": 577,
      "▁מת": 578,
      "וח": 579,
      "▁וח": 580,
      "נים": 581,
      "▁נים": 582,
      "פה": 583,
      "▁פה": 584,
      "ברים": 585,
      "▁ברים": 586,
      "מקס": 587,
      "▁מקס": 588,
      "לכ": 589,
      "▁לכ": 590,
      "יד": 591,
      "▁יד": 592,
      "סא": 593,
      "▁סא": 594,
      "פא": 595,
      "▁פא": 596,
      "עה": 597,
      "▁עה": 598,
      "אהב": 599,
      "▁אהב": 600,
      "תי": 601,
      "▁תי": 602,
      "ופ": 603,
      "▁ופ": 604,
      "ציפור": 605,
      "▁ציפור": 606,
      "שמח": 607,
      "▁שמח": 608,
      "חברים": 609,
      "▁חברים": 610,
      "למ": 611,
      "▁למ": 612,
      "הצעצוע": 613,
      "▁הצעצוע": 614,
      "שלהם": 615,
      "▁שלהם": 616,
      "יר": 617,
      "▁יר": 618,
      "קר": 619,
      "▁קר": 620,
      "לת": 621,
      "▁לת": 622,
      "פארק": 623,
      "▁פארק": 624,
      "ער": 625,
      "▁ער": 626,
      "נית": 627,
      "▁נית": 628,
      "הציפור": 629,
      "▁הציפור": 630,
      "נות": 631,
      "▁נות": 632,
      "ון": 633,
      "▁ון": 634,
      "חר": 635,
      "▁חר": 636,
      "גם": 637,
      "▁גם": 638,
      "לח": 639,
      "▁לח": 640,
      "הפ": 641,
      "▁הפ": 642,
      "לעזור": 643,
      "▁לעזור": 644,
      "שוב": 645,
      "▁שוב": 646,
      "ודה": 647,
      "▁ודה": 648,
      "בן": 649,
      "▁בן": 650,
      "היום": 651,
      "▁היום": 652,
      "ראתה": 653,
      "▁ראתה": 654,
      "קי": 655,
      "▁קי": 656,
      "לר": 657,
      "▁לר": 658,
      "יחד": 659,
      "▁יחד": 660,
      "שהו": 661,
      "▁שהו": 662,
      "כדי": 663,
      "▁כדי": 664,
      "שהוא": 665,
      "▁שהוא": 666,
      "מים": 667,
      "▁מים": 668,
      "כולם": 669,
      "▁כולם": 670,
      "קה": 671,
      "▁קה": 672,
      "הרבה": 673,
      "▁הרבה": 674,
      "להיות": 675,
      "▁להיות": 676,
      "הכדור": 677,
      "▁הכדור": 678,
      "בע": 679,
      "▁בע": 680,
      "מן": 681,
      "▁מן": 682,
      "פוט": 683,
      "▁פוט": 684,
      "אית": 685,
      "▁אית": 686,
      "דר": 687,
      "▁דר": 688,
      "הילד": 689,
      "▁הילד": 690,
      "תכל": 691,
      "▁תכל": 692,
      "גש": 693,
      "▁גש": 694,
      "ספוט": 695,
      "▁ספוט": 696,
      "משהו": 697,
      "▁משהו": 698,
      "ילדה": 699,
      "▁ילדה": 700,
      "החת": 701,
      "▁החת": 702,
      "צר": 703,
      "▁צר": 704,
      "וק": 705,
      "▁וק": 706,
      "הרגי": 707,
      "▁הרגי": 708,
      "בח": 709,
      "▁בח": 710,
      "סאם": 711,
      "▁סאם": 712,
      "כן": 713,
      "▁כן": 714,
      "חדש": 715,
      "▁חדש": 716,
      "החתול": 717,
      "▁החתול": 718,
      "אהבה": 719,
      "▁אהבה": 720,
      "חש": 721,
      "▁חש": 722,
      "גל": 723,
      "▁גל": 724,
      "יכה": 725,
      "▁יכה": 726,
      "שלי": 727,
      "▁שלי": 728,
      "זר": 729,
      "▁זר": 730,
      "חתול": 731,
      "▁חתול": 732,
      "נת": 733,
      "▁נת": 734,
      "גר": 735,
      "▁גר": 736,
      "יפה": 737,
      "▁יפה": 738,
      "בוא": 739,
      "▁בוא": 740,
      "ולי": 741,
      "▁ולי": 742,
      "טו": 743,
      "▁טו": 744,
      "אומר": 745,
      "▁אומר": 746,
      "כה": 747,
      "▁כה": 748,
      "שות": 749,
      "▁שות": 750,
      "נחנו": 751,
      "▁נחנו": 752,
      "נש": 753,
      "▁נש": 754,
      "מס": 755,
      "▁מס": 756,
      "מיה": 757,
      "▁מיה": 758,
      "בים": 759,
      "▁בים": 760,
      "הכי": 761,
      "▁הכי": 762,
      "מיד": 763,
      "▁מיד": 764,
      "התחי": 765,
      "▁התחי": 766,
      "אותה": 767,
      "▁אותה": 768,
      "זמן": 769,
      "▁זמן": 770,
      "יו": 771,
      "▁יו": 772,
      "צעצוע": 773,
      "▁צעצוע": 774,
      "ורה": 775,
      "▁ורה": 776,
      "טה": 777,
      "▁טה": 778,
      "רוצה": 779,
      "▁רוצה": 780,
      "בוב": 781,
      "▁בוב": 782,
      "עלי": 783,
      "▁עלי": 784,
      "ואמרה": 785,
      "▁ואמרה": 786,
      "נס": 787,
      "▁נס": 788,
      "רצתה": 789,
      "▁רצתה": 790,
      "גב": 791,
      "▁גב": 792,
      "לצ": 793,
      "▁לצ": 794,
      "להם": 795,
      "▁להם": 796,
      "אנחנו": 797,
      "▁אנחנו": 798,
      "הכלב": 799,
      "▁הכלב": 800,
      "דה": 801,
      "▁דה": 802,
      "ביחד": 803,
      "▁ביחד": 804,
      "ומ": 805,
      "▁ומ": 806,
      "כונית": 807,
      "▁כונית": 808,
      "ואז": 809,
      "▁ואז": 810,
      "שהם": 811,
      "▁שהם": 812,
      "אוה": 813,
      "▁אוה": 814,
      "אח": 815,
      "▁אח": 816,
      "מדי": 817,
      "▁מדי": 818,
      "שר": 819,
      "▁שר": 820,
      "לעשות": 821,
      "▁לעשות": 822,
      "יק": 823,
      "▁יק": 824,
      "חיי": 825,
      "▁חיי": 826,
      "שהיא": 827,
      "▁שהיא": 828,
      "רע": 829,
      "▁רע": 830,
      "דו": 831,
      "▁דו": 832,
      "יצ": 833,
      "▁יצ": 834,
      "הגדול": 835,
      "▁הגדול": 836,
      "פחד": 837,
      "▁פחד": 838,
      "בית": 839,
      "▁בית": 840,
      "הלך": 841,
      "▁הלך": 842,
      "כיף": 843,
      "▁כיף": 844,
      "לראות": 845,
      "▁לראות": 846,
      "הביתה": 847,
      "▁הביתה": 848,
      "צחק": 849,
      "▁צחק": 850,
      "שלך": 851,
      "▁שלך": 852,
      "למד": 853,
      "▁למד": 854,
      "לוסי": 855,
      "▁לוסי": 856,
      "נחמד": 857,
      "▁נחמד": 858,
      "ין": 859,
      "▁ין": 860,
      "טובים": 861,
      "▁טובים": 862,
      "שת": 863,
      "▁שת": 864,
      "מצא": 865,
      "▁מצא": 866,
      "פני": 867,
      "▁פני": 868,
      "הצעצועים": 869,
      "▁הצעצועים": 870,
      "בפארק": 871,
      "▁בפארק": 872,
      "ראו": 873,
      "▁ראו": 874,
      "דברים": 875,
      "▁דברים": 876,
      "פס": 877,
      "▁פס": 878,
      "מצוא": 879,
      "▁מצוא": 880,
      "יה": 881,
      "▁יה": 882,
      "אותם": 883,
      "▁אותם": 884,
      "ופסה": 885,
      "▁ופסה": 886,
      "שמש": 887,
      "▁שמש": 888,
      "עץ": 889,
      "▁עץ": 890,
      "גע": 891,
      "▁גע": 892,
      "בס": 893,
      "▁בס": 894,
      "אחרי": 895,
      "▁אחרי": 896,
      "וך": 897,
      "▁וך": 898,
      "לכת": 899,
      "▁לכת": 900,
      "למצוא": 901,
      "▁למצוא": 902,
      "נב": 903,
      "▁נב": 904,
      "גן": 905,
      "▁גן": 906,
      "לכו": 907,
      "▁לכו": 908,
      "במ": 909,
      "▁במ": 910,
      "היר": 911,
      "▁היר": 912,
      "הסתכל": 913,
      "▁הסתכל": 914,
      "שני": 915,
      "▁שני": 916,
      "מאושרים": 917,
      "▁מאושרים": 918,
      "גיע": 919,
      "▁גיע": 920,
      "תודה": 921,
      "▁תודה": 922,
      "החלי": 923,
      "▁החלי": 924,
      "עכ": 925,
      "▁עכ": 926,
      "יכולים": 927,
      "▁יכולים": 928,
      "עד": 929,
      "▁עד": 930,
      "משחק": 931,
      "▁משחק": 932,
      "אל": 933,
      "▁אל": 934,
      "ונ": 935,
      "▁ונ": 936,
      "כדור": 937,
      "▁כדור": 938,
      "מח": 939,
      "▁מח": 940,
      "והם": 941,
      "▁והם": 942,
      "ימי": 943,
      "▁ימי": 944,
      "החברים": 945,
      "▁החברים": 946,
      "וי": 947,
      "▁וי": 948,
      "להת": 949,
      "▁להת": 950,
      "נהנו": 951,
      "▁נהנו": 952,
      "סוף": 953,
      "▁סוף": 954,
      "וז": 955,
      "▁וז": 956,
      "מקום": 957,
      "▁מקום": 958,
      "הז": 959,
      "▁הז": 960,
      "שזה": 961,
      "▁שזה": 962,
      "כמו": 963,
      "▁כמו": 964,
      "ריך": 965,
      "▁ריך": 966,
      "שמחה": 967,
      "▁שמחה": 968,
      "ללכת": 969,
      "▁ללכת": 970,
      "וף": 971,
      "▁וף": 972,
      "להר": 973,
      "▁להר": 974,
      "חזק": 975,
      "▁חזק": 976,
      "לאמא": 977,
      "▁לאמא": 978,
      "הלכו": 979,
      "▁הלכו": 980,
      "העץ": 981,
      "▁העץ": 982,
      "חול": 983,
      "▁חול": 984,
      "לחברים": 985,
      "▁לחברים": 986,
      "צת": 987,
      "▁צת": 988,
      "וג": 989,
      "▁וג": 990,
      "עים": 991,
      "▁עים": 992,
      "גבוה": 993,
      "▁גבוה": 994,
      "צי": 995,
      "▁צי": 996,
      "תמיד": 997,
      "▁תמיד": 998,
      "שרה": 999,
      "▁שרה": 1000,
      "חייכה": 1001,
      "▁חייכה": 1002,
      "אהבו": 1003,
      "▁אהבו": 1004,
      "חבריו": 1005,
      "▁חבריו": 1006,
      "ליד": 1007,
      "▁ליד": 1008,
      "הרגיש": 1009,
      "▁הרגיש": 1010,
      "רצו": 1011,
      "▁רצו": 1012,
      "לנ": 1013,
      "▁לנ": 1014,
      "והת": 1015,
      "▁והת": 1016,
      "הקטנה": 1017,
      "▁הקטנה": 1018,
      "ידע": 1019,
      "▁ידע": 1020,
      "שיו": 1021,
      "▁שיו": 1022,
      "לכה": 1023,
      "▁לכה": 1024,
      "קרה": 1025,
      "▁קרה": 1026,
      "חדר": 1027,
      "▁חדר": 1028,
      "צריך": 1029,
      "▁צריך": 1030,
      "בט": 1031,
      "▁בט": 1032,
      "חזרה": 1033,
      "▁חזרה": 1034,
      "חים": 1035,
      "▁חים": 1036,
      "חשב": 1037,
      "▁חשב": 1038,
      "הנ": 1039,
      "▁הנ": 1040,
      "יכל": 1041,
      "▁יכל": 1042,
      "הו": 1043,
      "▁הו": 1044,
      "חייך": 1045,
      "▁חייך": 1046,
      "הבי": 1047,
      "▁הבי": 1048,
      "סם": 1049,
      "▁סם": 1050,
      "מע": 1051,
      "▁מע": 1052,
      "איימי": 1053,
      "▁איימי": 1054,
      "לפארק": 1055,
      "▁לפארק": 1056,
      "בד": 1057,
      "▁בד": 1058,
      "דום": 1059,
      "▁דום": 1060,
      "הקטן": 1061,
      "▁הקטן": 1062,
      "באו": 1063,
      "▁באו": 1064,
      "וכ": 1065,
      "▁וכ": 1066,
      "רנב": 1067,
      "▁רנב": 1068,
      "הג": 1069,
      "▁הג": 1070,
      "לס": 1071,
      "▁לס": 1072,
      "קן": 1073,
      "▁קן": 1074,
      "ובן": 1075,
      "▁ובן": 1076,
      "פנים": 1077,
      "▁פנים": 1078,
      "נר": 1079,
      "▁נר": 1080,
      "אנה": 1081,
      "▁אנה": 1082,
      "עכשיו": 1083,
      "▁עכשיו": 1084,
      "ולם": 1085,
      "▁ולם": 1086,
      "שאל": 1087,
      "▁שאל": 1088,
      "בחו": 1089,
      "▁בחו": 1090,
      "החו": 1091,
      "▁החו": 1092,
      "לוק": 1093,
      "▁לוק": 1094,
      "חור": 1095,
      "▁חור": 1096,
      "לאכול": 1097,
      "▁לאכול": 1098,
      "עצובה": 1099,
      "▁עצובה": 1100,
      "שם": 1101,
      "▁שם": 1102,
      "חיות": 1103,
      "▁חיות": 1104,
      "ביב": 1105,
      "▁ביב": 1106,
      "מהר": 1107,
      "▁מהר": 1108,
      "התחיל": 1109,
      "▁התחיל": 1110,
      "בור": 1111,
      "▁בור": 1112,
      "ולא": 1113,
      "▁ולא": 1114,
      "והוא": 1115,
      "▁והוא": 1116,
      "הזה": 1117,
      "▁הזה": 1118,
      "כמה": 1119,
      "▁כמה": 1120,
      "בסדר": 1121,
      "▁בסדר": 1122,
      "אוכל": 1123,
      "▁אוכל": 1124,
      "אם": 1125,
      "▁אם": 1126,
      "בבית": 1127,
      "▁בבית": 1128,
      "עדי": 1129,
      "▁עדי": 1130,
      "אחר": 1131,
      "▁אחר": 1132,
      "וחד": 1133,
      "▁וחד": 1134,
      "שחק": 1135,
      "▁שחק": 1136,
      "הפכו": 1137,
      "▁הפכו": 1138,
      "לט": 1139,
      "▁לט": 1140,
      "צחקו": 1141,
      "▁צחקו": 1142,
      "הלכה": 1143,
      "▁הלכה": 1144,
      "כשהם": 1145,
      "▁כשהם": 1146,
      "מיוחד": 1147,
      "▁מיוחד": 1148,
      "בואו": 1149,
      "▁בואו": 1150,
      "ניסה": 1151,
      "▁ניסה": 1152,
      "עיון": 1153,
      "▁עיון": 1154,
      "לים": 1155,
      "▁לים": 1156,
      "שיר": 1157,
      "▁שיר": 1158,
      "דבר": 1159,
      "▁דבר": 1160,
      "קפ": 1161,
      "▁קפ": 1162,
      "וס": 1163,
      "▁וס": 1164,
      "מאושרת": 1165,
      "▁מאושרת": 1166,
      "צו": 1167,
      "▁צו": 1168,
      "צפו": 1169,
      "▁צפו": 1170,
      "קצת": 1171,
      "▁קצת": 1172,
      "פרד": 1173,
      "▁פרד": 1174,
      "עז": 1175,
      "▁עז": 1176,
      "ותו": 1177,
      "▁ותו": 1178,
      "שניהם": 1179,
      "▁שניהם": 1180,
      "אלי": 1181,
      "▁אלי": 1182,
      "זי": 1183,
      "▁זי": 1184,
      "יכים": 1185,
      "▁יכים": 1186,
      "שאלה": 1187,
      "▁שאלה": 1188,
      "מצאו": 1189,
      "▁מצאו": 1190,
      "מצאה": 1191,
      "▁מצאה": 1192,
      "רץ": 1193,
      "▁רץ": 1194,
      "עלה": 1195,
      "▁עלה": 1196,
      "קים": 1197,
      "▁קים": 1198,
      "רוא": 1199,
      "▁רוא": 1200,
      "טער": 1201,
      "▁טער": 1202,
      "רעיון": 1203,
      "▁רעיון": 1204,
      "לקח": 1205,
      "▁לקח": 1206,
      "גיש": 1207,
      "▁גיש": 1208,
      "הילדה": 1209,
      "▁הילדה": 1210,
      "מיים": 1211,
      "▁מיים": 1212,
      "שלום": 1213,
      "▁שלום": 1214,
      "יכולה": 1215,
      "▁יכולה": 1216,
      "עוד": 1217,
      "▁עוד": 1218,
      "נפ": 1219,
      "▁נפ": 1220,
      "נשים": 1221,
      "▁נשים": 1222,
      "החבר": 1223,
      "▁החבר": 1224,
      "למה": 1225,
      "▁למה": 1226,
      "עשה": 1227,
      "▁עשה": 1228,
      "אומרת": 1229,
      "▁אומרת": 1230,
      "לפ": 1231,
      "▁לפ": 1232,
      "קשה": 1233,
      "▁קשה": 1234,
      "מצטער": 1235,
      "▁מצטער": 1236,
      "מתחת": 1237,
      "▁מתחת": 1238,
      "צים": 1239,
      "▁צים": 1240,
      "כים": 1241,
      "▁כים": 1242,
      "השני": 1243,
      "▁השני": 1244,
      "צעצועים": 1245,
      "▁צעצועים": 1246,
      "המכונית": 1247,
      "▁המכונית": 1248,
      "זו": 1249,
      "▁זו": 1250,
      "כות": 1251,
      "▁כות": 1252,
      "אג": 1253,
      "▁אג": 1254,
      "כת": 1255,
      "▁כת": 1256,
      "צפוי": 1257,
      "▁צפוי": 1258,
      "עש": 1259,
      "▁עש": 1260,
      "והתחי": 1261,
      "▁והתחי": 1262,
      "סת": 1263,
      "▁סת": 1264,
      "שיב": 1265,
      "▁שיב": 1266,
      "ירה": 1267,
      "▁ירה": 1268,
      "טיפ": 1269,
      "▁טיפ": 1270,
      "סר": 1271,
      "▁סר": 1272,
      "פתע": 1273,
      "▁פתע": 1274,
      "בחוץ": 1275,
      "▁בחוץ": 1276,
      "הגי": 1277,
      "▁הגי": 1278,
      "החוצה": 1279,
      "▁החוצה": 1280,
      "איך": 1281,
      "▁איך": 1282,
      "נראה": 1283,
      "▁נראה": 1284,
      "כבר": 1285,
      "▁כבר": 1286,
      "בכל": 1287,
      "▁בכל": 1288,
      "נד": 1289,
      "▁נד": 1290,
      "רג": 1291,
      "▁רג": 1292,
      "פש": 1293,
      "▁פש": 1294,
      "מאותו": 1295,
      "▁מאותו": 1296,
      "ברו": 1297,
      "▁ברו": 1298,
      "כא": 1299,
      "▁כא": 1300,
      "היי": 1301,
      "▁היי": 1302,
      "הרי": 1303,
      "▁הרי": 1304,
      "כנ": 1305,
      "▁כנ": 1306,
      "צריכים": 1307,
      "▁צריכים": 1308,
      "סאלי": 1309,
      "▁סאלי": 1310,
      "רוץ": 1311,
      "▁רוץ": 1312,
      "אוהב": 1313,
      "▁אוהב": 1314,
      "בשבי": 1315,
      "▁בשבי": 1316,
      "טר": 1317,
      "▁טר": 1318,
      "בזמן": 1319,
      "▁בזמן": 1320,
      "כב": 1321,
      "▁כב": 1322,
      "אבא": 1323,
      "▁אבא": 1324,
      "הקופסה": 1325,
      "▁הקופסה": 1326,
      "חיבק": 1327,
      "▁חיבק": 1328,
      "נק": 1329,
      "▁נק": 1330,
      "יתי": 1331,
      "▁יתי": 1332,
      "נוצ": 1333,
      "▁נוצ": 1334,
      "איתו": 1335,
      "▁איתו": 1336,
      "לג": 1337,
      "▁לג": 1338,
      "ארו": 1339,
      "▁ארו": 1340,
      "ואי": 1341,
      "▁ואי": 1342,
      "עדיין": 1343,
      "▁עדיין": 1344,
      "הרגישה": 1345,
      "▁הרגישה": 1346,
      "עב": 1347,
      "▁עב": 1348,
      "הנה": 1349,
      "▁הנה": 1350,
      "לעץ": 1351,
      "▁לעץ": 1352,
      "לילה": 1353,
      "▁לילה": 1354,
      "כשה": 1355,
      "▁כשה": 1356,
      "מכונית": 1357,
      "▁מכונית": 1358,
      "עליו": 1359,
      "▁עליו": 1360,
      "ולילי": 1361,
      "▁ולילי": 1362,
      "ואמא": 1363,
      "▁ואמא": 1364,
      "רוק": 1365,
      "▁רוק": 1366,
      "אכל": 1367,
      "▁אכל": 1368,
      "כשהוא": 1369,
      "▁כשהוא": 1370,
      "ואו": 1371,
      "▁ואו": 1372,
      "שאר": 1373,
      "▁שאר": 1374,
      "וטום": 1375,
      "▁וטום": 1376,
      "צפה": 1377,
      "▁צפה": 1378,
      "האיש": 1379,
      "▁האיש": 1380,
      "ואבא": 1381,
      "▁ואבא": 1382,
      "כם": 1383,
      "▁כם": 1384,
      "ידעה": 1385,
      "▁ידעה": 1386,
      "ולח": 1387,
      "▁ולח": 1388,
      "החדש": 1389,
      "▁החדש": 1390,
      "ביער": 1391,
      "▁ביער": 1392,
      "רוב": 1393,
      "▁רוב": 1394,
      "קו": 1395,
      "▁קו": 1396,
      "לאפי": 1397,
      "▁לאפי": 1398,
      "אותך": 1399,
      "▁אותך": 1400,
      "לבית": 1401,
      "▁לבית": 1402,
      "אים": 1403,
      "▁אים": 1404,
      "אמרו": 1405,
      "▁אמרו": 1406,
      "יצא": 1407,
      "▁יצא": 1408,
      "לון": 1409,
      "▁לון": 1410,
      "צע": 1411,
      "▁צע": 1412,
      "הפר": 1413,
      "▁הפר": 1414,
      "בעי": 1415,
      "▁בעי": 1416,
      "ובע": 1417,
      "▁ובע": 1418,
      "לחבר": 1419,
      "▁לחבר": 1420,
      "קיטי": 1421,
      "▁קיטי": 1422,
      "אמי": 1423,
      "▁אמי": 1424,
      "השמש": 1425,
      "▁השמש": 1426,
      "גול": 1427,
      "▁גול": 1428,
      "בבק": 1429,
      "▁בבק": 1430,
      "נרגש": 1431,
      "▁נרגש": 1432,
      "הול": 1433,
      "▁הול": 1434,
      "והיה": 1435,
      "▁והיה": 1436,
      "הגיע": 1437,
      "▁הגיע": 1438,
      "בפנים": 1439,
      "▁בפנים": 1440,
      "ניות": 1441,
      "▁ניות": 1442,
      "בבקשה": 1443,
      "▁בבקשה": 1444,
      "וט": 1445,
      "▁וט": 1446,
      "פרדע": 1447,
      "▁פרדע": 1448,
      "שמע": 1449,
      "▁שמע": 1450,
      "ובה": 1451,
      "▁ובה": 1452,
      "מנ": 1453,
      "▁מנ": 1454,
      "סביב": 1455,
      "▁סביב": 1456,
      "גה": 1457,
      "▁גה": 1458,
      "פתח": 1459,
      "▁פתח": 1460,
      "ולשחק": 1461,
      "▁ולשחק": 1462,
      "צבע": 1463,
      "▁צבע": 1464,
      "לקבל": 1465,
      "▁לקבל": 1466,
      "טובה": 1467,
      "▁טובה": 1468,
      "חיו": 1469,
      "▁חיו": 1470,
      "אום": 1471,
      "▁אום": 1472,
      "חשבה": 1473,
      "▁חשבה": 1474,
      "לקחת": 1475,
      "▁לקחת": 1476,
      "בטוח": 1477,
      "▁בטוח": 1478,
      "פוץ": 1479,
      "▁פוץ": 1480,
      "פתאום": 1481,
      "▁פתאום": 1482,
      "חלק": 1483,
      "▁חלק": 1484,
      "ניס": 1485,
      "▁ניס": 1486,
      "פילו": 1487,
      "▁פילו": 1488,
      "לחלוק": 1489,
      "▁לחלוק": 1490,
      "משחקים": 1491,
      "▁משחקים": 1492,
      "בוד": 1493,
      "▁בוד": 1494,
      "הזמן": 1495,
      "▁הזמן": 1496,
      "וכולם": 1497,
      "▁וכולם": 1498,
      "אדום": 1499,
      "▁אדום": 1500,
      "עזור": 1501,
      "▁עזור": 1502,
      "ידי": 1503,
      "▁ידי": 1504,
      "יוד": 1505,
      "▁יוד": 1506,
      "אולי": 1507,
      "▁אולי": 1508,
      "והיא": 1509,
      "▁והיא": 1510,
      "פות": 1511,
      "▁פות": 1512,
      "לטים": 1513,
      "▁לטים": 1514,
      "מב": 1515,
      "▁מב": 1516,
      "הגדולה": 1517,
      "▁הגדולה": 1518,
      "כשהיא": 1519,
      "▁כשהיא": 1520,
      "פלאפי": 1521,
      "▁פלאפי": 1522,
      "ניים": 1523,
      "▁ניים": 1524,
      "לנס": 1525,
      "▁לנס": 1526,
      "השת": 1527,
      "▁השת": 1528,
      "בחורה": 1529,
      "▁בחורה": 1530,
      "רב": 1531,
      "▁רב": 1532,
      "ושיחקו": 1533,
      "▁ושיחקו": 1534,
      "נתנה": 1535,
      "▁נתנה": 1536,
      "בדי": 1537,
      "▁בדי": 1538,
      "באה": 1539,
      "▁באה": 1540,
      "הים": 1541,
      "▁הים": 1542,
      "חרים": 1543,
      "▁חרים": 1544,
      "קול": 1545,
      "▁קול": 1546,
      "רות": 1547,
      "▁רות": 1548,
      "גים": 1549,
      "▁גים": 1550,
      "הארנב": 1551,
      "▁הארנב": 1552,
      "חות": 1553,
      "▁חות": 1554,
      "וסאם": 1555,
      "▁וסאם": 1556,
      "הספר": 1557,
      "▁הספר": 1558,
      "קפץ": 1559,
      "▁קפץ": 1560,
      "בוק": 1561,
      "▁בוק": 1562,
      "אוהבים": 1563,
      "▁אוהבים": 1564,
      "הסיפור": 1565,
      "▁הסיפור": 1566,
      "עלים": 1567,
      "▁עלים": 1568,
      "החיות": 1569,
      "▁החיות": 1570,
      "הצלי": 1571,
      "▁הצלי": 1572,
      "באושר": 1573,
      "▁באושר": 1574,
      "זהיר": 1575,
      "▁זהיר": 1576,
      "איתי": 1577,
      "▁איתי": 1578,
      "האו": 1579,
      "▁האו": 1580,
      "סתכל": 1581,
      "▁סתכל": 1582,
      "רעש": 1583,
      "▁רעש": 1584,
      "עת": 1585,
      "▁עת": 1586,
      "דרך": 1587,
      "▁דרך": 1588,
      "הפי": 1589,
      "▁הפי": 1590,
      "לטי": 1591,
      "▁לטי": 1592,
      "לקחה": 1593,
      "▁לקחה": 1594,
      "הדוב": 1595,
      "▁הדוב": 1596,
      "נאי": 1597,
      "▁נאי": 1598,
      "מוד": 1599,
      "▁מוד": 1600,
      "חוק": 1601,
      "▁חוק": 1602,
      "קל": 1603,
      "▁קל": 1604,
      "ידעו": 1605,
      "▁ידעו": 1606,
      "בחזרה": 1607,
      "▁בחזרה": 1608,
      "לאה": 1609,
      "▁לאה": 1610,
      "הרצפה": 1611,
      "▁הרצפה": 1612,
      "וטים": 1613,
      "▁וטים": 1614,
      "הט": 1615,
      "▁הט": 1616,
      "התחילה": 1617,
      "▁התחילה": 1618,
      "לציפור": 1619,
      "▁לציפור": 1620,
      "פיים": 1621,
      "▁פיים": 1622,
      "עזרה": 1623,
      "▁עזרה": 1624,
      "קות": 1625,
      "▁קות": 1626,
      "ענ": 1627,
      "▁ענ": 1628,
      "גאה": 1629,
      "▁גאה": 1630,
      "פוס": 1631,
      "▁פוס": 1632,
      "ואת": 1633,
      "▁ואת": 1634,
      "רוח": 1635,
      "▁רוח": 1636,
      "הה": 1637,
      "▁הה": 1638,
      "פור": 1639,
      "▁פור": 1640,
      "עצובים": 1641,
      "▁עצובים": 1642,
      "קופסה": 1643,
      "▁קופסה": 1644,
      "ערה": 1645,
      "▁ערה": 1646,
      "קש": 1647,
      "▁קש": 1648,
      "משפ": 1649,
      "▁משפ": 1650,
      "שיחקה": 1651,
      "▁שיחקה": 1652,
      "תר": 1653,
      "▁תר": 1654,
      "עשו": 1655,
      "▁עשו": 1656,
      "ולק": 1657,
      "▁ולק": 1658,
      "גשם": 1659,
      "▁גשם": 1660,
      "נעל": 1661,
      "▁נעל": 1662,
      "רח": 1663,
      "▁רח": 1664,
      "כר": 1665,
      "▁כר": 1666,
      "סקר": 1667,
      "▁סקר": 1668,
      "יפים": 1669,
      "▁יפים": 1670,
      "הדלת": 1671,
      "▁הדלת": 1672,
      "חדשה": 1673,
      "▁חדשה": 1674,
      "דוב": 1675,
      "▁דוב": 1676,
      "נצ": 1677,
      "▁נצ": 1678,
      "נתן": 1679,
      "▁נתן": 1680,
      "כנס": 1681,
      "▁כנס": 1682,
      "ותי": 1683,
      "▁ותי": 1684,
      "חיים": 1685,
      "▁חיים": 1686,
      "פנימה": 1687,
      "▁פנימה": 1688,
      "יכלה": 1689,
      "▁יכלה": 1690,
      "לז": 1691,
      "▁לז": 1692,
      "שיש": 1693,
      "▁שיש": 1694,
      "להרגיש": 1695,
      "▁להרגיש": 1696,
      "וסו": 1697,
      "▁וסו": 1698,
      "הסתכלה": 1699,
      "▁הסתכלה": 1700,
      "גינה": 1701,
      "▁גינה": 1702,
      "ורצה": 1703,
      "▁ורצה": 1704,
      "לקפוץ": 1705,
      "▁לקפוץ": 1706,
      "למדו": 1707,
      "▁למדו": 1708,
      "ספר": 1709,
      "▁ספר": 1710,
      "וגה": 1711,
      "▁וגה": 1712,
      "ניסתה": 1713,
      "▁ניסתה": 1714,
      "בדיוק": 1715,
      "▁בדיוק": 1716,
      "מנו": 1717,
      "▁מנו": 1718,
      "פל": 1719,
      "▁פל": 1720,
      "טבח": 1721,
      "▁טבח": 1722,
      "וזה": 1723,
      "▁וזה": 1724,
      "בשמיים": 1725,
      "▁בשמיים": 1726,
      "עפה": 1727,
      "▁עפה": 1728,
      "עושה": 1729,
      "▁עושה": 1730,
      "דת": 1731,
      "▁דת": 1732,
      "החליט": 1733,
      "▁החליט": 1734,
      "חם": 1735,
      "▁חם": 1736,
      "והציפור": 1737,
      "▁והציפור": 1738,
      "וראה": 1739,
      "▁וראה": 1740,
      "פשו": 1741,
      "▁פשו": 1742,
      "מז": 1743,
      "▁מז": 1744,
      "יל": 1745,
      "▁יל": 1746,
      "קופ": 1747,
      "▁קופ": 1748,
      "עליה": 1749,
      "▁עליה": 1750,
      "הבית": 1751,
      "▁הבית": 1752,
      "למעלה": 1753,
      "▁למעלה": 1754,
      "לנו": 1755,
      "▁לנו": 1756,
      "כחול": 1757,
      "▁כחול": 1758,
      "תו": 1759,
      "▁תו": 1760,
      "חייכ": 1761,
      "▁חייכ": 1762,
      "טימי": 1763,
      "▁טימי": 1764,
      "עזר": 1765,
      "▁עזר": 1766,
      "מפ": 1767,
      "▁מפ": 1768,
      "גדל": 1769,
      "▁גדל": 1770,
      "ברווז": 1771,
      "▁ברווז": 1772,
      "חשוב": 1773,
      "▁חשוב": 1774,
      "הילדים": 1775,
      "▁הילדים": 1776,
      "המשי": 1777,
      "▁המשי": 1778,
      "ברת": 1779,
      "▁ברת": 1780,
      "פתוח": 1781,
      "▁פתוח": 1782,
      "רך": 1783,
      "▁רך": 1784,
      "התחילו": 1785,
      "▁התחילו": 1786,
      "שלנו": 1787,
      "▁שלנו": 1788,
      "אוהבת": 1789,
      "▁אוהבת": 1790,
      "מוסר": 1791,
      "▁מוסר": 1792,
      "חזר": 1793,
      "▁חזר": 1794,
      "דם": 1795,
      "▁דם": 1796,
      "לנסות": 1797,
      "▁לנסות": 1798,
      "יפי": 1799,
      "▁יפי": 1800,
      "כין": 1801,
      "▁כין": 1802,
      "הני": 1803,
      "▁הני": 1804,
      "המים": 1805,
      "▁המים": 1806,
      "ארנב": 1807,
      "▁ארנב": 1808,
      "הכל": 1809,
      "▁הכל": 1810,
      "טעים": 1811,
      "▁טעים": 1812,
      "יהיה": 1813,
      "▁יהיה": 1814,
      "ועושר": 1815,
      "▁ועושר": 1816,
      "לשמ": 1817,
      "▁לשמ": 1818,
      "וואו": 1819,
      "▁וואו": 1820,
      "העוגה": 1821,
      "▁העוגה": 1822,
      "עצים": 1823,
      "▁עצים": 1824,
      "שון": 1825,
      "▁שון": 1826,
      "לכל": 1827,
      "▁לכל": 1828,
      "בכ": 1829,
      "▁בכ": 1830,
      "מקל": 1831,
      "▁מקל": 1832,
      "פרחים": 1833,
      "▁פרחים": 1834,
      "האה": 1835,
      "▁האה": 1836,
      "פג": 1837,
      "▁פג": 1838,
      "השכל": 1839,
      "▁השכל": 1840,
      "חדשים": 1841,
      "▁חדשים": 1842,
      "חזור": 1843,
      "▁חזור": 1844,
      "התי": 1845,
      "▁התי": 1846,
      "זהר": 1847,
      "▁זהר": 1848,
      "דומה": 1849,
      "▁דומה": 1850,
      "והתחיל": 1851,
      "▁והתחיל": 1852,
      "חלי": 1853,
      "▁חלי": 1854,
      "מצחי": 1855,
      "▁מצחי": 1856,
      "מונה": 1857,
      "▁מונה": 1858,
      "רקע": 1859,
      "▁רקע": 1860,
      "מג": 1861,
      "▁מג": 1862,
      "טוס": 1863,
      "▁טוס": 1864,
      "נוצץ": 1865,
      "▁נוצץ": 1866,
      "הצי": 1867,
      "▁הצי": 1868,
      "פוח": 1869,
      "▁פוח": 1870,
      "החז": 1871,
      "▁החז": 1872,
      "פוחד": 1873,
      "▁פוחד": 1874,
      "מעולם": 1875,
      "▁מעולם": 1876,
      "אלה": 1877,
      "▁אלה": 1878,
      "איש": 1879,
      "▁איש": 1880,
      "ולחן": 1881,
      "▁ולחן": 1882,
      "ההשכל": 1883,
      "▁ההשכל": 1884,
      "חוש": 1885,
      "▁חוש": 1886,
      "לרוץ": 1887,
      "▁לרוץ": 1888,
      "אפילו": 1889,
      "▁אפילו": 1890,
      "רת": 1891,
      "▁רת": 1892,
      "לעוף": 1893,
      "▁לעוף": 1894,
      "ריה": 1895,
      "▁ריה": 1896,
      "נור": 1897,
      "▁נור": 1898,
      "מט": 1899,
      "▁מט": 1900,
      "רוצים": 1901,
      "▁רוצים": 1902,
      "החליטו": 1903,
      "▁החליטו": 1904,
      "עמים": 1905,
      "▁עמים": 1906,
      "סיבה": 1907,
      "▁סיבה": 1908,
      "וקים": 1909,
      "▁וקים": 1910,
      "לטיול": 1911,
      "▁לטיול": 1912,
      "פגש": 1913,
      "▁פגש": 1914,
      "לדבר": 1915,
      "▁לדבר": 1916,
      "התרג": 1917,
      "▁התרג": 1918,
      "האדום": 1919,
      "▁האדום": 1920,
      "המי": 1921,
      "▁המי": 1922,
      "ורות": 1923,
      "▁ורות": 1924,
      "חזרו": 1925,
      "▁חזרו": 1926,
      "פין": 1927,
      "▁פין": 1928,
      "גבעה": 1929,
      "▁גבעה": 1930,
      "רון": 1931,
      "▁רון": 1932,
      "הן": 1933,
      "▁הן": 1934,
      "ביותר": 1935,
      "▁ביותר": 1936,
      "פתעה": 1937,
      "▁פתעה": 1938,
      "ואילך": 1939,
      "▁ואילך": 1940,
      "חיה": 1941,
      "▁חיה": 1942,
      "בלתי": 1943,
      "▁בלתי": 1944,
      "חיבקה": 1945,
      "▁חיבקה": 1946,
      "גרה": 1947,
      "▁גרה": 1948,
      "צח": 1949,
      "▁צח": 1950,
      "חיד": 1951,
      "▁חיד": 1952,
      "יצאה": 1953,
      "▁יצאה": 1954,
      "דאג": 1955,
      "▁דאג": 1956,
      "לתפוס": 1957,
      "▁לתפוס": 1958,
      "כוע": 1959,
      "▁כוע": 1960,
      "שמה": 1961,
      "▁שמה": 1962,
      "להראות": 1963,
      "▁להראות": 1964,
      "רואה": 1965,
      "▁רואה": 1966,
      "קס": 1967,
      "▁קס": 1968,
      "בתוך": 1969,
      "▁בתוך": 1970,
      "הסלע": 1971,
      "▁הסלע": 1972,
      "גרום": 1973,
      "▁גרום": 1974,
      "חל": 1975,
      "▁חל": 1976,
      "המש": 1977,
      "▁המש": 1978,
      "כבת": 1979,
      "▁כבת": 1980,
      "עצם": 1981,
      "▁עצם": 1982,
      "עור": 1983,
      "▁עור": 1984,
      "המס": 1985,
      "▁המס": 1986,
      "לתוך": 1987,
      "▁לתוך": 1988,
      "דג": 1989,
      "▁דג": 1990,
      "למוד": 1991,
      "▁למוד": 1992,
      "ומקס": 1993,
      "▁ומקס": 1994,
      "והכלב": 1995,
      "▁והכלב": 1996,
      "שמחים": 1997,
      "▁שמחים": 1998,
      "כפיים": 1999,
      "▁כפיים": 2000,
      "נהדר": 2001,
      "▁נהדר": 2002,
      "לתקן": 2003,
      "▁לתקן": 2004,
      "וחבריו": 2005,
      "▁וחבריו": 2006,
      "צב": 2007,
      "▁צב": 2008,
      "בקרוב": 2009,
      "▁בקרוב": 2010,
      "ובב": 2011,
      "▁ובב": 2012,
      "אנשים": 2013,
      "▁אנשים": 2014,
      "רר": 2015,
      "▁רר": 2016,
      "מאחור": 2017,
      "▁מאחור": 2018,
      "דח": 2019,
      "▁דח": 2020,
      "דמה": 2021,
      "▁דמה": 2022,
      "להשת": 2023,
      "▁להשת": 2024,
      "הרים": 2025,
      "▁הרים": 2026,
      "כאן": 2027,
      "▁כאן": 2028,
      "שים": 2029,
      "▁שים": 2030,
      "לפני": 2031,
      "▁לפני": 2032,
      "וראתה": 2033,
      "▁וראתה": 2034,
      "נחמדה": 2035,
      "▁נחמדה": 2036,
      "עוגה": 2037,
      "▁עוגה": 2038,
      "נוע": 2039,
      "▁נוע": 2040,
      "צריכה": 2041,
      "▁צריכה": 2042,
      "בחצר": 2043,
      "▁בחצר": 2044,
      "מות": 2045,
      "▁מות": 2046,
      "גלי": 2047,
      "▁גלי": 2048,
      "חרת": 2049,
      "▁חרת": 2050,
      "לפתוח": 2051,
      "▁לפתוח": 2052,
      "לצאת": 2053,
      "▁לצאת": 2054,
      "ייר": 2055,
      "▁ייר": 2056,
      "הרוח": 2057,
      "▁הרוח": 2058,
      "אחרים": 2059,
      "▁אחרים": 2060,
      "שהיה": 2061,
      "▁שהיה": 2062,
      "אר": 2063,
      "▁אר": 2064,
      "למי": 2065,
      "▁למי": 2066,
      "הקרקע": 2067,
      "▁הקרקע": 2068,
      "לטום": 2069,
      "▁לטום": 2070,
      "הסתכלו": 2071,
      "▁הסתכלו": 2072,
      "יין": 2073,
      "▁יין": 2074,
      "תראה": 2075,
      "▁תראה": 2076,
      "למטה": 2077,
      "▁למטה": 2078,
      "בובו": 2079,
      "▁בובו": 2080,
      "חברה": 2081,
      "▁חברה": 2082,
      "כיפי": 2083,
      "▁כיפי": 2084,
      "כוניות": 2085,
      "▁כוניות": 2086,
      "שוף": 2087,
      "▁שוף": 2088,
      "ויר": 2089,
      "▁ויר": 2090,
      "גלגל": 2091,
      "▁גלגל": 2092,
      "קור": 2093,
      "▁קור": 2094,
      "השו": 2095,
      "▁השו": 2096,
      "רבים": 2097,
      "▁רבים": 2098,
      "בחדר": 2099,
      "▁בחדר": 2100,
      "וני": 2101,
      "▁וני": 2102,
      "פחדה": 2103,
      "▁פחדה": 2104,
      "ונהנו": 2105,
      "▁ונהנו": 2106,
      "בגינה": 2107,
      "▁בגינה": 2108,
      "סופו": 2109,
      "▁סופו": 2110,
      "סיק": 2111,
      "▁סיק": 2112,
      "אתי": 2113,
      "▁אתי": 2114,
      "יכלו": 2115,
      "▁יכלו": 2116,
      "ללילי": 2117,
      "▁ללילי": 2118,
      "לחת": 2119,
      "▁לחת": 2120,
      "מסביב": 2121,
      "▁מסביב": 2122,
      "מלא": 2123,
      "▁מלא": 2124,
      "פרי": 2125,
      "▁פרי": 2126,
      "מופתע": 2127,
      "▁מופתע": 2128,
      "חברו": 2129,
      "▁חברו": 2130,
      "בתא": 2131,
      "▁בתא": 2132,
      "למחרת": 2133,
      "▁למחרת": 2134,
      "מון": 2135,
      "▁מון": 2136,
      "לטפס": 2137,
      "▁לטפס": 2138,
      "איתה": 2139,
      "▁איתה": 2140,
      "ברי": 2141,
      "▁ברי": 2142,
      "שמעה": 2143,
      "▁שמעה": 2144,
      "יודע": 2145,
      "▁יודע": 2146,
      "פתחה": 2147,
      "▁פתחה": 2148,
      "לחנות": 2149,
      "▁לחנות": 2150,
      "זרה": 2151,
      "▁זרה": 2152,
      "נלך": 2153,
      "▁נלך": 2154,
      "להק": 2155,
      "▁להק": 2156,
      "משם": 2157,
      "▁משם": 2158,
      "נשחק": 2159,
      "▁נשחק": 2160,
      "טן": 2161,
      "▁טן": 2162,
      "הקשיב": 2163,
      "▁הקשיב": 2164,
      "האהוב": 2165,
      "▁האהוב": 2166,
      "חקור": 2167,
      "▁חקור": 2168,
      "נקי": 2169,
      "▁נקי": 2170,
      "סלע": 2171,
      "▁סלע": 2172,
      "לנקות": 2173,
      "▁לנקות": 2174,
      "אדי": 2175,
      "▁אדי": 2176,
      "נכנ": 2177,
      "▁נכנ": 2178,
      "הצליח": 2179,
      "▁הצליח": 2180,
      "נדה": 2181,
      "▁נדה": 2182,
      "שכ": 2183,
      "▁שכ": 2184,
      "ניהם": 2185,
      "▁ניהם": 2186,
      "היות": 2187,
      "▁היות": 2188,
      "הבל": 2189,
      "▁הבל": 2190,
      "שק": 2191,
      "▁שק": 2192,
      "ארוך": 2193,
      "▁ארוך": 2194,
      "חרק": 2195,
      "▁חרק": 2196,
      "השי": 2197,
      "▁השי": 2198,
      "החליטה": 2199,
      "▁החליטה": 2200,
      "ללמוד": 2201,
      "▁ללמוד": 2202,
      "לילד": 2203,
      "▁לילד": 2204,
      "נוק": 2205,
      "▁נוק": 2206,
      "הוד": 2207,
      "▁הוד": 2208,
      "דיי": 2209,
      "▁דיי": 2210,
      "צבעים": 2211,
      "▁צבעים": 2212,
      "תק": 2213,
      "▁תק": 2214,
      "בסופו": 2215,
      "▁בסופו": 2216,
      "בצ": 2217,
      "▁בצ": 2218,
      "ילדים": 2219,
      "▁ילדים": 2220,
      "גלשה": 2221,
      "▁גלשה": 2222,
      "חיוך": 2223,
      "▁חיוך": 2224,
      "במים": 2225,
      "▁במים": 2226,
      "והר": 2227,
      "▁והר": 2228,
      "החרק": 2229,
      "▁החרק": 2230,
      "וחר": 2231,
      "▁וחר": 2232,
      "רא": 2233,
      "▁רא": 2234,
      "הכובע": 2235,
      "▁הכובע": 2236,
      "בני": 2237,
      "▁בני": 2238,
      "נשוף": 2239,
      "▁נשוף": 2240,
      "נדי": 2241,
      "▁נדי": 2242,
      "שמחו": 2243,
      "▁שמחו": 2244,
      "חזיר": 2245,
      "▁חזיר": 2246,
      "לחדר": 2247,
      "▁לחדר": 2248,
      "מרי": 2249,
      "▁מרי": 2250,
      "הנות": 2251,
      "▁הנות": 2252,
      "ורד": 2253,
      "▁ורד": 2254,
      "הדברים": 2255,
      "▁הדברים": 2256,
      "געת": 2257,
      "▁געת": 2258,
      "מאוחר": 2259,
      "▁מאוחר": 2260,
      "איתם": 2261,
      "▁איתם": 2262,
      "הגיעה": 2263,
      "▁הגיעה": 2264,
      "נג": 2265,
      "▁נג": 2266,
      "שלא": 2267,
      "▁שלא": 2268,
      "להגיע": 2269,
      "▁להגיע": 2270,
      "ורים": 2271,
      "▁ורים": 2272,
      "במקום": 2273,
      "▁במקום": 2274,
      "קוד": 2275,
      "▁קוד": 2276,
      "הרפת": 2277,
      "▁הרפת": 2278,
      "לצייר": 2279,
      "▁לצייר": 2280,
      "מסתכל": 2281,
      "▁מסתכל": 2282,
      "טיח": 2283,
      "▁טיח": 2284,
      "נן": 2285,
      "▁נן": 2286,
      "לחו": 2287,
      "▁לחו": 2288,
      "יצאו": 2289,
      "▁יצאו": 2290,
      "הסירה": 2291,
      "▁הסירה": 2292,
      "הכחול": 2293,
      "▁הכחול": 2294,
      "אליו": 2295,
      "▁אליו": 2296,
      "רואים": 2297,
      "▁רואים": 2298,
      "שמו": 2299,
      "▁שמו": 2300,
      "אותי": 2301,
      "▁אותי": 2302,
      "ביא": 2303,
      "▁ביא": 2304,
      "מאחורי": 2305,
      "▁מאחורי": 2306,
      "חורה": 2307,
      "▁חורה": 2308,
      "בורה": 2309,
      "▁בורה": 2310,
      "הבר": 2311,
      "▁הבר": 2312,
      "העכבר": 2313,
      "▁העכבר": 2314,
      "חייכו": 2315,
      "▁חייכו": 2316,
      "לשמור": 2317,
      "▁לשמור": 2318,
      "וו": 2319,
      "▁וו": 2320,
      "ביש": 2321,
      "▁ביש": 2322,
      "לישון": 2323,
      "▁לישון": 2324,
      "הצפרדע": 2325,
      "▁הצפרדע": 2326,
      "והלאה": 2327,
      "▁והלאה": 2328,
      "קרוב": 2329,
      "▁קרוב": 2330,
      "החדר": 2331,
      "▁החדר": 2332,
      "משי": 2333,
      "▁משי": 2334,
      "לעצ": 2335,
      "▁לעצ": 2336,
      "סף": 2337,
      "▁סף": 2338,
      "כפת": 2339,
      "▁כפת": 2340,
      "איתך": 2341,
      "▁איתך": 2342,
      "האוכל": 2343,
      "▁האוכל": 2344,
      "הגיעו": 2345,
      "▁הגיעו": 2346,
      "השתמש": 2347,
      "▁השתמש": 2348,
      "שאתה": 2349,
      "▁שאתה": 2350,
      "לבכות": 2351,
      "▁לבכות": 2352,
      "בתי": 2353,
      "▁בתי": 2354,
      "ועה": 2355,
      "▁ועה": 2356,
      "לקנות": 2357,
      "▁לקנות": 2358,
      "להשתמש": 2359,
      "▁להשתמש": 2360,
      "פים": 2361,
      "▁פים": 2362,
      "משך": 2363,
      "▁משך": 2364,
      "אחת": 2365,
      "▁אחת": 2366,
      "לבן": 2367,
      "▁לבן": 2368,
      "עשתה": 2369,
      "▁עשתה": 2370,
      "נא": 2371,
      "▁נא": 2372,
      "גרם": 2373,
      "▁גרם": 2374,
      "מצחיק": 2375,
      "▁מצחיק": 2376,
      "שלוש": 2377,
      "▁שלוש": 2378,
      "לתת": 2379,
      "▁לתת": 2380,
      "קיי": 2381,
      "▁קיי": 2382,
      "מהיר": 2383,
      "▁מהיר": 2384,
      "להכין": 2385,
      "▁להכין": 2386,
      "מהרה": 2387,
      "▁מהרה": 2388,
      "לשני": 2389,
      "▁לשני": 2390,
      "דותי": 2391,
      "▁דותי": 2392,
      "וצ": 2393,
      "▁וצ": 2394,
      "נופ": 2395,
      "▁נופ": 2396,
      "סיפ": 2397,
      "▁סיפ": 2398,
      "כע": 2399,
      "▁כע": 2400,
      "החול": 2401,
      "▁החול": 2402,
      "חייב": 2403,
      "▁חייב": 2404,
      "טעי": 2405,
      "▁טעי": 2406,
      "פרו": 2407,
      "▁פרו": 2408,
      "ראות": 2409,
      "▁ראות": 2410,
      "בעיירה": 2411,
      "▁בעיירה": 2412,
      "מרגיש": 2413,
      "▁מרגיש": 2414,
      "וחי": 2415,
      "▁וחי": 2416,
      "התרגשה": 2417,
      "▁התרגשה": 2418,
      "אתם": 2419,
      "▁אתם": 2420,
      "מצאתי": 2421,
      "▁מצאתי": 2422,
      "אף": 2423,
      "▁אף": 2424,
      "לחכות": 2425,
      "▁לחכות": 2426,
      "טוף": 2427,
      "▁טוף": 2428,
      "מפוחד": 2429,
      "▁מפוחד": 2430,
      "קרא": 2431,
      "▁קרא": 2432,
      "אמיץ": 2433,
      "▁אמיץ": 2434,
      "להישאר": 2435,
      "▁להישאר": 2436,
      "וצחקו": 2437,
      "▁וצחקו": 2438,
      "לחקור": 2439,
      "▁לחקור": 2440,
      "גדולים": 2441,
      "▁גדולים": 2442,
      "צטר": 2443,
      "▁צטר": 2444,
      "עף": 2445,
      "▁עף": 2446,
      "אכלו": 2447,
      "▁אכלו": 2448,
      "לבסוף": 2449,
      "▁לבסוף": 2450,
      "הרגישו": 2451,
      "▁הרגישו": 2452,
      "הביט": 2453,
      "▁הביט": 2454,
      "זכ": 2455,
      "▁זכ": 2456,
      "לחזור": 2457,
      "▁לחזור": 2458,
      "עכבר": 2459,
      "▁עכבר": 2460,
      "שלג": 2461,
      "▁שלג": 2462,
      "הירה": 2463,
      "▁הירה": 2464,
      "אומרים": 2465,
      "▁אומרים": 2466,
      "שאית": 2467,
      "▁שאית": 2468,
      "ישבו": 2469,
      "▁ישבו": 2470,
      "משפחת": 2471,
      "▁משפחת": 2472,
      "לרגע": 2473,
      "▁לרגע": 2474,
      "ומיה": 2475,
      "▁ומיה": 2476,
      "המשאית": 2477,
      "▁המשאית": 2478,
      "והלך": 2479,
      "▁והלך": 2480,
      "ביר": 2481,
      "▁ביר": 2482,
      "עיל": 2483,
      "▁עיל": 2484,
      "ניסו": 2485,
      "▁ניסו": 2486,
      "ויותר": 2487,
      "▁ויותר": 2488,
      "רקוד": 2489,
      "▁רקוד": 2490,
      "השולחן": 2491,
      "▁השולחן": 2492,
      "הדג": 2493,
      "▁הדג": 2494,
      "פחדו": 2495,
      "▁פחדו": 2496,
      "לגרום": 2497,
      "▁לגרום": 2498,
      "הבובה": 2499,
      "▁הבובה": 2500,
      "הפך": 2501,
      "▁הפך": 2502,
      "מם": 2503,
      "▁מם": 2504,
      "נהג": 2505,
      "▁נהג": 2506,
      "שמלה": 2507,
      "▁שמלה": 2508,
      "לפתע": 2509,
      "▁לפתע": 2510,
      "ערב": 2511,
      "▁ערב": 2512,
      "כאשר": 2513,
      "▁כאשר": 2514,
      "נעלם": 2515,
      "▁נעלם": 2516,
      "לשיר": 2517,
      "▁לשיר": 2518,
      "צפרדע": 2519,
      "▁צפרדע": 2520,
      "בסוף": 2521,
      "▁בסוף": 2522,
      "לאחרים": 2523,
      "▁לאחרים": 2524,
      "שאמא": 2525,
      "▁שאמא": 2526,
      "גיות": 2527,
      "▁גיות": 2528,
      "המת": 2529,
      "▁המת": 2530,
      "באותו": 2531,
      "▁באותו": 2532,
      "ולה": 2533,
      "▁ולה": 2534,
      "וחש": 2535,
      "▁וחש": 2536,
      "המר": 2537,
      "▁המר": 2538,
      "לנצח": 2539,
      "▁לנצח": 2540,
      "נכנס": 2541,
      "▁נכנס": 2542,
      "אש": 2543,
      "▁אש": 2544,
      "לבד": 2545,
      "▁לבד": 2546,
      "הכו": 2547,
      "▁הכו": 2548,
      "הגבעה": 2549,
      "▁הגבעה": 2550,
      "תפ": 2551,
      "▁תפ": 2552,
      "לוכל": 2553,
      "▁לוכל": 2554,
      "לחתול": 2555,
      "▁לחתול": 2556,
      "נהנים": 2557,
      "▁נהנים": 2558,
      "סיי": 2559,
      "▁סיי": 2560,
      "ורצ": 2561,
      "▁ורצ": 2562,
      "מלה": 2563,
      "▁מלה": 2564,
      "בריק": 2565,
      "▁בריק": 2566,
      "למדה": 2567,
      "▁למדה": 2568,
      "חיבוק": 2569,
      "▁חיבוק": 2570,
      "פיפ": 2571,
      "▁פיפ": 2572,
      "עבדו": 2573,
      "▁עבדו": 2574,
      "רחוק": 2575,
      "▁רחוק": 2576,
      "בשביל": 2577,
      "▁בשביל": 2578,
      "בלה": 2579,
      "▁בלה": 2580,
      "קרב": 2581,
      "▁קרב": 2582,
      "נפל": 2583,
      "▁נפל": 2584,
      "מונות": 2585,
      "▁מונות": 2586,
      "גדים": 2587,
      "▁גדים": 2588,
      "דייזי": 2589,
      "▁דייזי": 2590,
      "לגעת": 2591,
      "▁לגעת": 2592,
      "משאית": 2593,
      "▁משאית": 2594,
      "צעק": 2595,
      "▁צעק": 2596,
      "כובע": 2597,
      "▁כובע": 2598,
      "ואר": 2599,
      "▁ואר": 2600,
      "מוזר": 2601,
      "▁מוזר": 2602,
      "והסתכל": 2603,
      "▁והסתכל": 2604,
      "תדאג": 2605,
      "▁תדאג": 2606,
      "סירה": 2607,
      "▁סירה": 2608,
      "רגש": 2609,
      "▁רגש": 2610,
      "אמ": 2611,
      "▁אמ": 2612,
      "ברה": 2613,
      "▁ברה": 2614,
      "התח": 2615,
      "▁התח": 2616,
      "האחרים": 2617,
      "▁האחרים": 2618,
      "אב": 2619,
      "▁אב": 2620,
      "חזקה": 2621,
      "▁חזקה": 2622,
      "ודי": 2623,
      "▁ודי": 2624,
      "ריח": 2625,
      "▁ריח": 2626,
      "אדם": 2627,
      "▁אדם": 2628,
      "בעצ": 2629,
      "▁בעצ": 2630,
      "גור": 2631,
      "▁גור": 2632,
      "ושניהם": 2633,
      "▁ושניהם": 2634,
      "סיר": 2635,
      "▁סיר": 2636,
      "מסו": 2637,
      "▁מסו": 2638,
      "קטנים": 2639,
      "▁קטנים": 2640,
      "לחפש": 2641,
      "▁לחפש": 2642,
      "סבתא": 2643,
      "▁סבתא": 2644,
      "הלו": 2645,
      "▁הלו": 2646,
      "והחתול": 2647,
      "▁והחתול": 2648,
      "הזאת": 2649,
      "▁הזאת": 2650,
      "יף": 2651,
      "▁יף": 2652,
      "הסנאי": 2653,
      "▁הסנאי": 2654,
      "נחש": 2655,
      "▁נחש": 2656,
      "צחקה": 2657,
      "▁צחקה": 2658,
      "חזיק": 2659,
      "▁חזיק": 2660,
      "מרו": 2661,
      "▁מרו": 2662,
      "פרח": 2663,
      "▁פרח": 2664,
      "סיים": 2665,
      "▁סיים": 2666,
      "להקשיב": 2667,
      "▁להקשיב": 2668,
      "עיר": 2669,
      "▁עיר": 2670,
      "צבעו": 2671,
      "▁צבעו": 2672,
      "והתחילה": 2673,
      "▁והתחילה": 2674,
      "ויש": 2675,
      "▁ויש": 2676,
      "תהיה": 2677,
      "▁תהיה": 2678,
      "תמונה": 2679,
      "▁תמונה": 2680,
      "לזה": 2681,
      "▁לזה": 2682,
      "הסת": 2683,
      "▁הסת": 2684,
      "צוחק": 2685,
      "▁צוחק": 2686,
      "עבודה": 2687,
      "▁עבודה": 2688,
      "כמ": 2689,
      "▁כמ": 2690,
      "הדגים": 2691,
      "▁הדגים": 2692,
      "היפה": 2693,
      "▁היפה": 2694,
      "עות": 2695,
      "▁עות": 2696,
      "המפ": 2697,
      "▁המפ": 2698,
      "נהנה": 2699,
      "▁נהנה": 2700,
      "הראה": 2701,
      "▁הראה": 2702,
      "לסו": 2703,
      "▁לסו": 2704,
      "ורצתה": 2705,
      "▁ורצתה": 2706,
      "הסוף": 2707,
      "▁הסוף": 2708,
      "נף": 2709,
      "▁נף": 2710,
      "עוש": 2711,
      "▁עוש": 2712,
      "המקל": 2713,
      "▁המקל": 2714,
      "בלי": 2715,
      "▁בלי": 2716,
      "זרק": 2717,
      "▁זרק": 2718,
      "לאי": 2719,
      "▁לאי": 2720,
      "לפג": 2721,
      "▁לפג": 2722,
      "הציפורים": 2723,
      "▁הציפורים": 2724,
      "ממ": 2725,
      "▁ממ": 2726,
      "האנשים": 2727,
      "▁האנשים": 2728,
      "רעב": 2729,
      "▁רעב": 2730,
      "בשבילך": 2731,
      "▁בשבילך": 2732,
      "בילי": 2733,
      "▁בילי": 2734,
      "לבנות": 2735,
      "▁לבנות": 2736,
      "באדי": 2737,
      "▁באדי": 2738,
      "טומי": 2739,
      "▁טומי": 2740,
      "הזקן": 2741,
      "▁הזקן": 2742,
      "ציפורים": 2743,
      "▁ציפורים": 2744,
      "זרחה": 2745,
      "▁זרחה": 2746,
      "הדבר": 2747,
      "▁הדבר": 2748,
      "אור": 2749,
      "▁אור": 2750,
      "רוע": 2751,
      "▁רוע": 2752,
      "הנד": 2753,
      "▁הנד": 2754,
      "טב": 2755,
      "▁טב": 2756,
      "לפעמים": 2757,
      "▁לפעמים": 2758,
      "הדשא": 2759,
      "▁הדשא": 2760,
      "זקן": 2761,
      "▁זקן": 2762,
      "חכם": 2763,
      "▁חכם": 2764,
      "המשפ": 2765,
      "▁המשפ": 2766,
      "פוך": 2767,
      "▁פוך": 2768,
      "קודם": 2769,
      "▁קודם": 2770,
      "הבחי": 2771,
      "▁הבחי": 2772,
      "למר": 2773,
      "▁למר": 2774,
      "הצבע": 2775,
      "▁הצבע": 2776,
      "המשחק": 2777,
      "▁המשחק": 2778,
      "פניים": 2779,
      "▁פניים": 2780,
      "מבול": 2781,
      "▁מבול": 2782,
      "הפתעה": 2783,
      "▁הפתעה": 2784,
      "לכולם": 2785,
      "▁לכולם": 2786,
      "הרימה": 2787,
      "▁הרימה": 2788,
      "הברווז": 2789,
      "▁הברווז": 2790,
      "והיו": 2791,
      "▁והיו": 2792,
      "תיק": 2793,
      "▁תיק": 2794,
      "ומת": 2795,
      "▁ומת": 2796,
      "עיני": 2797,
      "▁עיני": 2798,
      "ישן": 2799,
      "▁ישן": 2800,
      "ולע": 2801,
      "▁ולע": 2802,
      "ניג": 2803,
      "▁ניג": 2804,
      "בוקר": 2805,
      "▁בוקר": 2806,
      "שמעו": 2807,
      "▁שמעו": 2808,
      "המשפחה": 2809,
      "▁המשפחה": 2810,
      "ברח": 2811,
      "▁ברח": 2812,
      "לכלב": 2813,
      "▁לכלב": 2814,
      "להסתכל": 2815,
      "▁להסתכל": 2816,
      "פיק": 2817,
      "▁פיק": 2818,
      "איבד": 2819,
      "▁איבד": 2820,
      "וקפ": 2821,
      "▁וקפ": 2822,
      "שוא": 2823,
      "▁שוא": 2824,
      "משפחה": 2825,
      "▁משפחה": 2826,
      "פון": 2827,
      "▁פון": 2828,
      "אמה": 2829,
      "▁אמה": 2830,
      "איפה": 2831,
      "▁איפה": 2832,
      "בכדור": 2833,
      "▁בכדור": 2834,
      "וכנית": 2835,
      "▁וכנית": 2836,
      "הפארק": 2837,
      "▁הפארק": 2838,
      "לרקוד": 2839,
      "▁לרקוד": 2840,
      "עק": 2841,
      "▁עק": 2842,
      "להע": 2843,
      "▁להע": 2844,
      "שלם": 2845,
      "▁שלם": 2846,
      "לבש": 2847,
      "▁לבש": 2848,
      "חיפשו": 2849,
      "▁חיפשו": 2850,
      "בשמש": 2851,
      "▁בשמש": 2852,
      "כלו": 2853,
      "▁כלו": 2854,
      "מימי": 2855,
      "▁מימי": 2856,
      "מישהו": 2857,
      "▁מישהו": 2858,
      "ושב": 2859,
      "▁ושב": 2860,
      "צטרף": 2861,
      "▁צטרף": 2862,
      "ודר": 2863,
      "▁ודר": 2864,
      "עמו": 2865,
      "▁עמו": 2866,
      "צהוב": 2867,
      "▁צהוב": 2868,
      "מיוחדת": 2869,
      "▁מיוחדת": 2870,
      "תח": 2871,
      "▁תח": 2872,
      "ורי": 2873,
      "▁ורי": 2874,
      "לקחו": 2875,
      "▁לקחו": 2876,
      "לבר": 2877,
      "▁לבר": 2878,
      "להפ": 2879,
      "▁להפ": 2880,
      "בהיר": 2881,
      "▁בהיר": 2882,
      "המגלשה": 2883,
      "▁המגלשה": 2884,
      "לצת": 2885,
      "▁לצת": 2886,
      "ואומר": 2887,
      "▁ואומר": 2888,
      "בז": 2889,
      "▁בז": 2890,
      "צור": 2891,
      "▁צור": 2892,
      "הולכים": 2893,
      "▁הולכים": 2894,
      "האם": 2895,
      "▁האם": 2896,
      "נתה": 2897,
      "▁נתה": 2898,
      "עמד": 2899,
      "▁עמד": 2900,
      "שאהב": 2901,
      "▁שאהב": 2902,
      "והחלי": 2903,
      "▁והחלי": 2904,
      "לחם": 2905,
      "▁לחם": 2906,
      "לשחות": 2907,
      "▁לשחות": 2908,
      "חרות": 2909,
      "▁חרות": 2910,
      "לאט": 2911,
      "▁לאט": 2912,
      "החדשה": 2913,
      "▁החדשה": 2914,
      "הקיר": 2915,
      "▁הקיר": 2916,
      "אעזור": 2917,
      "▁אעזור": 2918,
      "ועד": 2919,
      "▁ועד": 2920,
      "הסכי": 2921,
      "▁הסכי": 2922,
      "בוע": 2923,
      "▁בוע": 2924,
      "בוץ": 2925,
      "▁בוץ": 2926,
      "מפחד": 2927,
      "▁מפחד": 2928,
      "ואמרו": 2929,
      "▁ואמרו": 2930,
      "ארוחת": 2931,
      "▁ארוחת": 2932,
      "ומר": 2933,
      "▁ומר": 2934,
      "הרכבת": 2935,
      "▁הרכבת": 2936,
      "מוצ": 2937,
      "▁מוצ": 2938,
      "מתקים": 2939,
      "▁מתקים": 2940,
      "מסת": 2941,
      "▁מסת": 2942,
      "וניסה": 2943,
      "▁וניסה": 2944,
      "לום": 2945,
      "▁לום": 2946,
      "המשיך": 2947,
      "▁המשיך": 2948,
      "אפ": 2949,
      "▁אפ": 2950,
      "נבו": 2951,
      "▁נבו": 2952,
      "רקון": 2953,
      "▁רקון": 2954,
      "האבן": 2955,
      "▁האבן": 2956,
      "סיפור": 2957,
      "▁סיפור": 2958,
      "ורוד": 2959,
      "▁ורוד": 2960,
      "לשת": 2961,
      "▁לשת": 2962,
      "גלה": 2963,
      "▁גלה": 2964,
      "ובר": 2965,
      "▁ובר": 2966,
      "הבחורה": 2967,
      "▁הבחורה": 2968,
      "עליהם": 2969,
      "▁עליהם": 2970,
      "בול": 2971,
      "▁בול": 2972,
      "והודה": 2973,
      "▁והודה": 2974,
      "אדומה": 2975,
      "▁אדומה": 2976,
      "זק": 2977,
      "▁זק": 2978,
      "סנאי": 2979,
      "▁סנאי": 2980,
      "למטבח": 2981,
      "▁למטבח": 2982,
      "סקרן": 2983,
      "▁סקרן": 2984,
      "מחה": 2985,
      "▁מחה": 2986,
      "המג": 2987,
      "▁המג": 2988,
      "להצטרף": 2989,
      "▁להצטרף": 2990,
      "האדומה": 2991,
      "▁האדומה": 2992,
      "סים": 2993,
      "▁סים": 2994,
      "העו": 2995,
      "▁העו": 2996,
      "וית": 2997,
      "▁וית": 2998,
      "והע": 2999,
      "▁והע": 3000,
      "ביקש": 3001,
      "▁ביקש": 3002,
      "דלת": 3003,
      "▁דלת": 3004,
      "התכו": 3005,
      "▁התכו": 3006,
      "בעיר": 3007,
      "▁בעיר": 3008,
      "לעזרה": 3009,
      "▁לעזרה": 3010,
      "חשבו": 3011,
      "▁חשבו": 3012,
      "ביקשה": 3013,
      "▁ביקשה": 3014,
      "גלידה": 3015,
      "▁גלידה": 3016,
      "ירוק": 3017,
      "▁ירוק": 3018,
      "לשבת": 3019,
      "▁לשבת": 3020,
      "רציתי": 3021,
      "▁רציתי": 3022,
      "חיבקו": 3023,
      "▁חיבקו": 3024,
      "החזי": 3025,
      "▁החזי": 3026,
      "זהירות": 3027,
      "▁זהירות": 3028,
      "שלט": 3029,
      "▁שלט": 3030,
      "פיפון": 3031,
      "▁פיפון": 3032,
      "כון": 3033,
      "▁כון": 3034,
      "מחבק": 3035,
      "▁מחבק": 3036,
      "מכוניות": 3037,
      "▁מכוניות": 3038,
      "ירו": 3039,
      "▁ירו": 3040,
      "מוכן": 3041,
      "▁מוכן": 3042,
      "לבוש": 3043,
      "▁לבוש": 3044,
      "חלקו": 3045,
      "▁חלקו": 3046,
      "ואני": 3047,
      "▁ואני": 3048,
      "רימה": 3049,
      "▁רימה": 3050,
      "בואי": 3051,
      "▁בואי": 3052,
      "טרי": 3053,
      "▁טרי": 3054,
      "התפוח": 3055,
      "▁התפוח": 3056,
      "הקשי": 3057,
      "▁הקשי": 3058,
      "נצנת": 3059,
      "▁נצנת": 3060,
      "חיפש": 3061,
      "▁חיפש": 3062,
      "תיזהר": 3063,
      "▁תיזהר": 3064,
      "במטבח": 3065,
      "▁במטבח": 3066,
      "פשוט": 3067,
      "▁פשוט": 3068,
      "נט": 3069,
      "▁נט": 3070,
      "לקרוא": 3071,
      "▁לקרוא": 3072,
      "הסכים": 3073,
      "▁הסכים": 3074,
      "ויפה": 3075,
      "▁ויפה": 3076,
      "כתב": 3077,
      "▁כתב": 3078,
      "הנהן": 3079,
      "▁הנהן": 3080,
      "הולך": 3081,
      "▁הולך": 3082,
      "וספוט": 3083,
      "▁וספוט": 3084,
      "פוחים": 3085,
      "▁פוחים": 3086,
      "תפוח": 3087,
      "▁תפוח": 3088,
      "הינשוף": 3089,
      "▁הינשוף": 3090,
      "לשים": 3091,
      "▁לשים": 3092,
      "השמיים": 3093,
      "▁השמיים": 3094,
      "ניק": 3095,
      "▁ניק": 3096,
      "גדר": 3097,
      "▁גדר": 3098,
      "נוכל": 3099,
      "▁נוכל": 3100,
      "הפרח": 3101,
      "▁הפרח": 3102,
      "נכנסה": 3103,
      "▁נכנסה": 3104,
      "הודה": 3105,
      "▁הודה": 3106,
      "שית": 3107,
      "▁שית": 3108,
      "תפס": 3109,
      "▁תפס": 3110,
      "שיהיה": 3111,
      "▁שיהיה": 3112,
      "ושם": 3113,
      "▁ושם": 3114,
      "פסל": 3115,
      "▁פסל": 3116,
      "ובי": 3117,
      "▁ובי": 3118,
      "בשמחה": 3119,
      "▁בשמחה": 3120,
      "מהנה": 3121,
      "▁מהנה": 3122,
      "ומח": 3123,
      "▁ומח": 3124,
      "לנגן": 3125,
      "▁לנגן": 3126,
      "הנהנה": 3127,
      "▁הנהנה": 3128,
      "עייף": 3129,
      "▁עייף": 3130,
      "ידידותי": 3131,
      "▁ידידותי": 3132,
      "לצפות": 3133,
      "▁לצפות": 3134,
      "פיה": 3135,
      "▁פיה": 3136,
      "טרה": 3137,
      "▁טרה": 3138,
      "רם": 3139,
      "▁רם": 3140,
      "הראתה": 3141,
      "▁הראתה": 3142,
      "בהם": 3143,
      "▁בהם": 3144,
      "המק": 3145,
      "▁המק": 3146,
      "האריה": 3147,
      "▁האריה": 3148,
      "קפצה": 3149,
      "▁קפצה": 3150,
      "אליה": 3151,
      "▁אליה": 3152,
      "הריים": 3153,
      "▁הריים": 3154,
      "נוח": 3155,
      "▁נוח": 3156,
      "אין": 3157,
      "▁אין": 3158,
      "וחזק": 3159,
      "▁וחזק": 3160,
      "פרפר": 3161,
      "▁פרפר": 3162,
      "לול": 3163,
      "▁לול": 3164,
      "נעשה": 3165,
      "▁נעשה": 3166,
      "נייר": 3167,
      "▁נייר": 3168,
      "ישב": 3169,
      "▁ישב": 3170,
      "דא": 3171,
      "▁דא": 3172,
      "ולהיות": 3173,
      "▁ולהיות": 3174,
      "כנה": 3175,
      "▁כנה": 3176,
      "בג": 3177,
      "▁בג": 3178,
      "ברא": 3179,
      "▁ברא": 3180,
      "המד": 3181,
      "▁המד": 3182,
      "להרים": 3183,
      "▁להרים": 3184,
      "בגל": 3185,
      "▁בגל": 3186,
      "ביע": 3187,
      "▁ביע": 3188,
      "עזרו": 3189,
      "▁עזרו": 3190,
      "ספרים": 3191,
      "▁ספרים": 3192,
      "חושב": 3193,
      "▁חושב": 3194,
      "לרי": 3195,
      "▁לרי": 3196,
      "היד": 3197,
      "▁היד": 3198,
      "בין": 3199,
      "▁בין": 3200,
      "המו": 3201,
      "▁המו": 3202,
      "הכר": 3203,
      "▁הכר": 3204,
      "זרים": 3205,
      "▁זרים": 3206,
      "ולעשות": 3207,
      "▁ולעשות": 3208,
      "אכפת": 3209,
      "▁אכפת": 3210,
      "טירה": 3211,
      "▁טירה": 3212,
      "במורד": 3213,
      "▁במורד": 3214,
      "נדנד": 3215,
      "▁נדנד": 3216,
      "להביא": 3217,
      "▁להביא": 3218,
      "והפ": 3219,
      "▁והפ": 3220,
      "בלו": 3221,
      "▁בלו": 3222,
      "הירות": 3223,
      "▁הירות": 3224,
      "למקס": 3225,
      "▁למקס": 3226,
      "החי": 3227,
      "▁החי": 3228,
      "טל": 3229,
      "▁טל": 3230,
      "לזוז": 3231,
      "▁לזוז": 3232,
      "עון": 3233,
      "▁עון": 3234,
      "לאחר": 3235,
      "▁לאחר": 3236,
      "הוצי": 3237,
      "▁הוצי": 3238,
      "במי": 3239,
      "▁במי": 3240,
      "החור": 3241,
      "▁החור": 3242,
      "פתור": 3243,
      "▁פתור": 3244,
      "נוצצת": 3245,
      "▁נוצצת": 3246,
      "זאת": 3247,
      "▁זאת": 3248,
      "מולי": 3249,
      "▁מולי": 3250,
      "בלוקים": 3251,
      "▁בלוקים": 3252,
      "מנסה": 3253,
      "▁מנסה": 3254,
      "מין": 3255,
      "▁מין": 3256,
      "החזיק": 3257,
      "▁החזיק": 3258,
      "הור": 3259,
      "▁הור": 3260,
      "פעמים": 3261,
      "▁פעמים": 3262,
      "טיפס": 3263,
      "▁טיפס": 3264,
      "ביט": 3265,
      "▁ביט": 3266,
      "חבריה": 3267,
      "▁חבריה": 3268,
      "להיכנס": 3269,
      "▁להיכנס": 3270,
      "כבד": 3271,
      "▁כבד": 3272,
      "פול": 3273,
      "▁פול": 3274,
      "מבריק": 3275,
      "▁מבריק": 3276,
      "עט": 3277,
      "▁עט": 3278,
      "התעור": 3279,
      "▁התעור": 3280,
      "וברח": 3281,
      "▁וברח": 3282,
      "הבאה": 3283,
      "▁הבאה": 3284,
      "מלוכל": 3285,
      "▁מלוכל": 3286,
      "התיק": 3287,
      "▁התיק": 3288,
      "ורך": 3289,
      "▁ורך": 3290,
      "טוחה": 3291,
      "▁טוחה": 3292,
      "מצטערים": 3293,
      "▁מצטערים": 3294,
      "בכי": 3295,
      "▁בכי": 3296,
      "מל": 3297,
      "▁מל": 3298,
      "לארו": 3299,
      "▁לארו": 3300,
      "לווי": 3301,
      "▁לווי": 3302,
      "פירות": 3303,
      "▁פירות": 3304,
      "הדרך": 3305,
      "▁הדרך": 3306,
      "בטח": 3307,
      "▁בטח": 3308,
      "באוויר": 3309,
      "▁באוויר": 3310,
      "דגים": 3311,
      "▁דגים": 3312,
      "ללבוש": 3313,
      "▁ללבוש": 3314,
      "בוכה": 3315,
      "▁בוכה": 3316,
      "הסר": 3317,
      "▁הסר": 3318,
      "נסה": 3319,
      "▁נסה": 3320,
      "ושאלה": 3321,
      "▁ושאלה": 3322,
      "בקול": 3323,
      "▁בקול": 3324,
      "עושים": 3325,
      "▁עושים": 3326,
      "פשה": 3327,
      "▁פשה": 3328,
      "שלול": 3329,
      "▁שלול": 3330,
      "ושאל": 3331,
      "▁ושאל": 3332,
      "כוכב": 3333,
      "▁כוכב": 3334,
      "בגלל": 3335,
      "▁בגלל": 3336,
      "אס": 3337,
      "▁אס": 3338,
      "הפסי": 3339,
      "▁הפסי": 3340,
      "הגברת": 3341,
      "▁הגברת": 3342,
      "אליהם": 3343,
      "▁אליהם": 3344,
      "שלולית": 3345,
      "▁שלולית": 3346,
      "לאנשים": 3347,
      "▁לאנשים": 3348,
      "גיד": 3349,
      "▁גיד": 3350,
      "תראי": 3351,
      "▁תראי": 3352,
      "בפעם": 3353,
      "▁בפעם": 3354,
      "וכל": 3355,
      "▁וכל": 3356,
      "למקום": 3357,
      "▁למקום": 3358,
      "עבד": 3359,
      "▁עבד": 3360,
      "תן": 3361,
      "▁תן": 3362,
      "הביטה": 3363,
      "▁הביטה": 3364,
      "תקוע": 3365,
      "▁תקוע": 3366,
      "רים": 3367,
      "▁רים": 3368,
      "להו": 3369,
      "▁להו": 3370,
      "לרדת": 3371,
      "▁לרדת": 3372,
      "ממש": 3373,
      "▁ממש": 3374,
      "סבל": 3375,
      "▁סבל": 3376,
      "גיל": 3377,
      "▁גיל": 3378,
      "לפגוע": 3379,
      "▁לפגוע": 3380,
      "יי": 3381,
      "▁יי": 3382,
      "בעלי": 3383,
      "▁בעלי": 3384,
      "הפרחים": 3385,
      "▁הפרחים": 3386,
      "החזיר": 3387,
      "▁החזיר": 3388,
      "נופף": 3389,
      "▁נופף": 3390,
      "היער": 3391,
      "▁היער": 3392,
      "חבא": 3393,
      "▁חבא": 3394,
      "תוכנית": 3395,
      "▁תוכנית": 3396,
      "מאז": 3397,
      "▁מאז": 3398,
      "ונתן": 3399,
      "▁ונתן": 3400,
      "ענק": 3401,
      "▁ענק": 3402,
      "אוקיי": 3403,
      "▁אוקיי": 3404,
      "הלי": 3405,
      "▁הלי": 3406,
      "נהיה": 3407,
      "▁נהיה": 3408,
      "שיג": 3409,
      "▁שיג": 3410,
      "אוי": 3411,
      "▁אוי": 3412,
      "במהירות": 3413,
      "▁במהירות": 3414,
      "משפחתו": 3415,
      "▁משפחתו": 3416,
      "בות": 3417,
      "▁בות": 3418,
      "הלב": 3419,
      "▁הלב": 3420,
      "נשא": 3421,
      "▁נשא": 3422,
      "פק": 3423,
      "▁פק": 3424,
      "תראו": 3425,
      "▁תראו": 3426,
      "להיזהר": 3427,
      "▁להיזהר": 3428,
      "ונוצץ": 3429,
      "▁ונוצץ": 3430,
      "בלגן": 3431,
      "▁בלגן": 3432,
      "נחמדים": 3433,
      "▁נחמדים": 3434,
      "ביום": 3435,
      "▁ביום": 3436,
      "ראיתי": 3437,
      "▁ראיתי": 3438,
      "והש": 3439,
      "▁והש": 3440,
      "הבין": 3441,
      "▁הבין": 3442,
      "מיץ": 3443,
      "▁מיץ": 3444,
      "מיכה": 3445,
      "▁מיכה": 3446,
      "ועשו": 3447,
      "▁ועשו": 3448,
      "שוך": 3449,
      "▁שוך": 3450,
      "פרה": 3451,
      "▁פרה": 3452,
      "המח": 3453,
      "▁המח": 3454,
      "מתנה": 3455,
      "▁מתנה": 3456,
      "ליהנות": 3457,
      "▁ליהנות": 3458,
      "מארק": 3459,
      "▁מארק": 3460,
      "וחלק": 3461,
      "▁וחלק": 3462,
      "בזהירות": 3463,
      "▁בזהירות": 3464,
      "צות": 3465,
      "▁צות": 3466,
      "מבטי": 3467,
      "▁מבטי": 3468,
      "ורץ": 3469,
      "▁ורץ": 3470,
      "אק": 3471,
      "▁אק": 3472,
      "ווה": 3473,
      "▁ווה": 3474,
      "גדולות": 3475,
      "▁גדולות": 3476,
      "שונים": 3477,
      "▁שונים": 3478,
      "הקסם": 3479,
      "▁הקסם": 3480,
      "בעץ": 3481,
      "▁בעץ": 3482,
      "עשית": 3483,
      "▁עשית": 3484,
      "נשאר": 3485,
      "▁נשאר": 3486,
      "ענה": 3487,
      "▁ענה": 3488,
      "הסו": 3489,
      "▁הסו": 3490,
      "צל": 3491,
      "▁צל": 3492,
      "לידה": 3493,
      "▁לידה": 3494,
      "תמונות": 3495,
      "▁תמונות": 3496,
      "נוס": 3497,
      "▁נוס": 3498,
      "פתחו": 3499,
      "▁פתחו": 3500,
      "טיס": 3501,
      "▁טיס": 3502,
      "לסאם": 3503,
      "▁לסאם": 3504,
      "ותמיד": 3505,
      "▁ותמיד": 3506,
      "שלילי": 3507,
      "▁שלילי": 3508,
      "ממנו": 3509,
      "▁ממנו": 3510,
      "תאו": 3511,
      "▁תאו": 3512,
      "בינה": 3513,
      "▁בינה": 3514,
      "באגם": 3515,
      "▁באגם": 3516,
      "בקופסה": 3517,
      "▁בקופסה": 3518,
      "משיך": 3519,
      "▁משיך": 3520,
      "ההוא": 3521,
      "▁ההוא": 3522,
      "מהיום": 3523,
      "▁מהיום": 3524,
      "ובד": 3525,
      "▁ובד": 3526,
      "הולדת": 3527,
      "▁הולדת": 3528,
      "וראו": 3529,
      "▁וראו": 3530,
      "מדהים": 3531,
      "▁מדהים": 3532,
      "השיר": 3533,
      "▁השיר": 3534,
      "זיה": 3535,
      "▁זיה": 3536,
      "לגדול": 3537,
      "▁לגדול": 3538,
      "להשיג": 3539,
      "▁להשיג": 3540,
      "הרעש": 3541,
      "▁הרעש": 3542,
      "צעקה": 3543,
      "▁צעקה": 3544,
      "פגשה": 3545,
      "▁פגשה": 3546,
      "אבן": 3547,
      "▁אבן": 3548,
      "הגשם": 3549,
      "▁הגשם": 3550,
      "שחה": 3551,
      "▁שחה": 3552,
      "המטוס": 3553,
      "▁המטוס": 3554,
      "מגני": 3555,
      "▁מגני": 3556,
      "וחייכה": 3557,
      "▁וחייכה": 3558,
      "עצר": 3559,
      "▁עצר": 3560,
      "סיימו": 3561,
      "▁סיימו": 3562,
      "בודה": 3563,
      "▁בודה": 3564,
      "מהם": 3565,
      "▁מהם": 3566,
      "מוש": 3567,
      "▁מוש": 3568,
      "ואה": 3569,
      "▁ואה": 3570,
      "מהעץ": 3571,
      "▁מהעץ": 3572,
      "מופת": 3573,
      "▁מופת": 3574,
      "הפס": 3575,
      "▁הפס": 3576,
      "מספיק": 3577,
      "▁מספיק": 3578,
      "לספר": 3579,
      "▁לספר": 3580,
      "רררר": 3581,
      "▁רררר": 3582,
      "פינה": 3583,
      "▁פינה": 3584,
      "בטוחים": 3585,
      "▁בטוחים": 3586,
      "הודתה": 3587,
      "▁הודתה": 3588,
      "מופתעים": 3589,
      "▁מופתעים": 3590,
      "ליאו": 3591,
      "▁ליאו": 3592,
      "להפוך": 3593,
      "▁להפוך": 3594,
      "שונה": 3595,
      "▁שונה": 3596,
      "האופניים": 3597,
      "▁האופניים": 3598,
      "ושיחק": 3599,
      "▁ושיחק": 3600,
      "ווי": 3601,
      "▁ווי": 3602,
      "ילה": 3603,
      "▁ילה": 3604,
      "ופסת": 3605,
      "▁ופסת": 3606,
      "למיטה": 3607,
      "▁למיטה": 3608,
      "לעת": 3609,
      "▁לעת": 3610,
      "כוס": 3611,
      "▁כוס": 3612,
      "ומאותו": 3613,
      "▁ומאותו": 3614,
      "זכר": 3615,
      "▁זכר": 3616,
      "שבו": 3617,
      "▁שבו": 3618,
      "פרים": 3619,
      "▁פרים": 3620,
      "צא": 3621,
      "▁צא": 3622,
      "הייתי": 3623,
      "▁הייתי": 3624,
      "לביתו": 3625,
      "▁לביתו": 3626,
      "מצטערת": 3627,
      "▁מצטערת": 3628,
      "אול": 3629,
      "▁אול": 3630,
      "ולראות": 3631,
      "▁ולראות": 3632,
      "והב": 3633,
      "▁והב": 3634,
      "ביל": 3635,
      "▁ביל": 3636,
      "מגיע": 3637,
      "▁מגיע": 3638,
      "מפחיד": 3639,
      "▁מפחיד": 3640,
      "שקעה": 3641,
      "▁שקעה": 3642,
      "בך": 3643,
      "▁בך": 3644,
      "בטוחה": 3645,
      "▁בטוחה": 3646,
      "לשאול": 3647,
      "▁לשאול": 3648,
      "הקול": 3649,
      "▁הקול": 3650,
      "עוגיות": 3651,
      "▁עוגיות": 3652,
      "פגע": 3653,
      "▁פגע": 3654,
      "היש": 3655,
      "▁היש": 3656,
      "לשם": 3657,
      "▁לשם": 3658,
      "וכוע": 3659,
      "▁וכוע": 3660,
      "ליג": 3661,
      "▁ליג": 3662,
      "לעבוד": 3663,
      "▁לעבוד": 3664,
      "לבקר": 3665,
      "▁לבקר": 3666,
      "כשטים": 3667,
      "▁כשטים": 3668,
      "כמובן": 3669,
      "▁כמובן": 3670,
      "וגם": 3671,
      "▁וגם": 3672,
      "שתי": 3673,
      "▁שתי": 3674,
      "למכונית": 3675,
      "▁למכונית": 3676,
      "חסר": 3677,
      "▁חסר": 3678,
      "החלק": 3679,
      "▁החלק": 3680,
      "במשך": 3681,
      "▁במשך": 3682,
      "המא": 3683,
      "▁המא": 3684,
      "משה": 3685,
      "▁משה": 3686,
      "להצי": 3687,
      "▁להצי": 3688,
      "סקרס": 3689,
      "▁סקרס": 3690,
      "טעימים": 3691,
      "▁טעימים": 3692,
      "גברת": 3693,
      "▁גברת": 3694,
      "נשי": 3695,
      "▁נשי": 3696,
      "המלך": 3697,
      "▁המלך": 3698,
      "מוך": 3699,
      "▁מוך": 3700,
      "ונה": 3701,
      "▁ונה": 3702,
      "יבש": 3703,
      "▁יבש": 3704,
      "מאמא": 3705,
      "▁מאמא": 3706,
      "טיף": 3707,
      "▁טיף": 3708,
      "ומות": 3709,
      "▁ומות": 3710,
      "בדרך": 3711,
      "▁בדרך": 3712,
      "מחו": 3713,
      "▁מחו": 3714,
      "להסת": 3715,
      "▁להסת": 3716,
      "התק": 3717,
      "▁התק": 3718,
      "פרס": 3719,
      "▁פרס": 3720,
      "אפשר": 3721,
      "▁אפשר": 3722,
      "בחד": 3723,
      "▁בחד": 3724,
      "השמלה": 3725,
      "▁השמלה": 3726,
      "בלב": 3727,
      "▁בלב": 3728,
      "דיים": 3729,
      "▁דיים": 3730,
      "החברה": 3731,
      "▁החברה": 3732,
      "חום": 3733,
      "▁חום": 3734,
      "שטוף": 3735,
      "▁שטוף": 3736,
      "שיכול": 3737,
      "▁שיכול": 3738,
      "בגן": 3739,
      "▁בגן": 3740,
      "דות": 3741,
      "▁דות": 3742,
      "שטים": 3743,
      "▁שטים": 3744,
      "עלות": 3745,
      "▁עלות": 3746,
      "שהגיע": 3747,
      "▁שהגיע": 3748,
      "ולקחה": 3749,
      "▁ולקחה": 3750,
      "הרפתק": 3751,
      "▁הרפתק": 3752,
      "הפעם": 3753,
      "▁הפעם": 3754,
      "עיף": 3755,
      "▁עיף": 3756,
      "אחריו": 3757,
      "▁אחריו": 3758,
      "לוויזיה": 3759,
      "▁לוויזיה": 3760,
      "נגול": 3761,
      "▁נגול": 3762,
      "לבשה": 3763,
      "▁לבשה": 3764,
      "ענף": 3765,
      "▁ענף": 3766,
      "אמיתי": 3767,
      "▁אמיתי": 3768,
      "תת": 3769,
      "▁תת": 3770,
      "ושע": 3771,
      "▁ושע": 3772,
      "לנוח": 3773,
      "▁לנוח": 3774,
      "בריכה": 3775,
      "▁בריכה": 3776,
      "המט": 3777,
      "▁המט": 3778,
      "פניו": 3779,
      "▁פניו": 3780,
      "פוש": 3781,
      "▁פוש": 3782,
      "דיו": 3783,
      "▁דיו": 3784,
      "דימה": 3785,
      "▁דימה": 3786,
      "נשבר": 3787,
      "▁נשבר": 3788,
      "לות": 3789,
      "▁לות": 3790,
      "המפתח": 3791,
      "▁המפתח": 3792,
      "הרפתקה": 3793,
      "▁הרפתקה": 3794,
      "לחבריו": 3795,
      "▁לחבריו": 3796,
      "קטנות": 3797,
      "▁קטנות": 3798,
      "חתולה": 3799,
      "▁חתולה": 3800,
      "בזה": 3801,
      "▁בזה": 3802,
      "לספוט": 3803,
      "▁לספוט": 3804,
      "ליכה": 3805,
      "▁ליכה": 3806,
      "שאנחנו": 3807,
      "▁שאנחנו": 3808,
      "נקודה": 3809,
      "▁נקודה": 3810,
      "הפיל": 3811,
      "▁הפיל": 3812,
      "ונתנה": 3813,
      "▁ונתנה": 3814,
      "עול": 3815,
      "▁עול": 3816,
      "ליצור": 3817,
      "▁ליצור": 3818,
      "האדמה": 3819,
      "▁האדמה": 3820,
      "כיפיים": 3821,
      "▁כיפיים": 3822,
      "עבור": 3823,
      "▁עבור": 3824,
      "שאהבה": 3825,
      "▁שאהבה": 3826,
      "האגם": 3827,
      "▁האגם": 3828,
      "הקס": 3829,
      "▁הקס": 3830,
      "ידה": 3831,
      "▁ידה": 3832,
      "למים": 3833,
      "▁למים": 3834,
      "קפצו": 3835,
      "▁קפצו": 3836,
      "רבות": 3837,
      "▁רבות": 3838,
      "להרפת": 3839,
      "▁להרפת": 3840,
      "צוחקים": 3841,
      "▁צוחקים": 3842,
      "לארוחת": 3843,
      "▁לארוחת": 3844,
      "חמה": 3845,
      "▁חמה": 3846,
      "רד": 3847,
      "▁רד": 3848,
      "יכות": 3849,
      "▁יכות": 3850,
      "ותים": 3851,
      "▁ותים": 3852,
      "טיל": 3853,
      "▁טיל": 3854,
      "המשיכו": 3855,
      "▁המשיכו": 3856,
      "כתה": 3857,
      "▁כתה": 3858,
      "ולקח": 3859,
      "▁ולקח": 3860,
      "מומו": 3861,
      "▁מומו": 3862,
      "עייפים": 3863,
      "▁עייפים": 3864,
      "נדות": 3865,
      "▁נדות": 3866,
      "אמיצה": 3867,
      "▁אמיצה": 3868,
      "מודאג": 3869,
      "▁מודאג": 3870,
      "שיתוף": 3871,
      "▁שיתוף": 3872,
      "אדו": 3873,
      "▁אדו": 3874,
      "ובות": 3875,
      "▁ובות": 3876,
      "התמונה": 3877,
      "▁התמונה": 3878,
      "העולם": 3879,
      "▁העולם": 3880,
      "חוף": 3881,
      "▁חוף": 3882,
      "נסיכה": 3883,
      "▁נסיכה": 3884,
      "השועל": 3885,
      "▁השועל": 3886,
      "יס": 3887,
      "▁יס": 3888,
      "פיו": 3889,
      "▁פיו": 3890,
      "כעס": 3891,
      "▁כעס": 3892,
      "וות": 3893,
      "▁וות": 3894,
      "התר": 3895,
      "▁התר": 3896,
      "מתוק": 3897,
      "▁מתוק": 3898,
      "ומפוחד": 3899,
      "▁ומפוחד": 3900,
      "הודו": 3901,
      "▁הודו": 3902,
      "נתנו": 3903,
      "▁נתנו": 3904,
      "התקרב": 3905,
      "▁התקרב": 3906,
      "רצים": 3907,
      "▁רצים": 3908,
      "קדימה": 3909,
      "▁קדימה": 3910,
      "הכינה": 3911,
      "▁הכינה": 3912,
      "הבלגן": 3913,
      "▁הבלגן": 3914,
      "כבים": 3915,
      "▁כבים": 3916,
      "גייה": 3917,
      "▁גייה": 3918,
      "להחלי": 3919,
      "▁להחלי": 3920,
      "נהר": 3921,
      "▁נהר": 3922,
      "לדעת": 3923,
      "▁לדעת": 3924,
      "החוט": 3925,
      "▁החוט": 3926,
      "נרגשת": 3927,
      "▁נרגשת": 3928,
      "וחייך": 3929,
      "▁וחייך": 3930,
      "כונה": 3931,
      "▁כונה": 3932,
      "בוגר": 3933,
      "▁בוגר": 3934,
      "הקר": 3935,
      "▁הקר": 3936,
      "הופי": 3937,
      "▁הופי": 3938,
      "הצילו": 3939,
      "▁הצילו": 3940,
      "ליפה": 3941,
      "▁ליפה": 3942,
      "חברות": 3943,
      "▁חברות": 3944,
      "ידו": 3945,
      "▁ידו": 3946,
      "בחנות": 3947,
      "▁בחנות": 3948,
      "מבטיה": 3949,
      "▁מבטיה": 3950,
      "מראה": 3951,
      "▁מראה": 3952,
      "האי": 3953,
      "▁האי": 3954,
      "יני": 3955,
      "▁יני": 3956,
      "שקט": 3957,
      "▁שקט": 3958,
      "המגדל": 3959,
      "▁המגדל": 3960,
      "העפיפון": 3961,
      "▁העפיפון": 3962,
      "קיבל": 3963,
      "▁קיבל": 3964,
      "יודעת": 3965,
      "▁יודעת": 3966,
      "לעלות": 3967,
      "▁לעלות": 3968,
      "קסם": 3969,
      "▁קסם": 3970,
      "פיל": 3971,
      "▁פיל": 3972,
      "עליים": 3973,
      "▁עליים": 3974,
      "וקפץ": 3975,
      "▁וקפץ": 3976,
      "בצד": 3977,
      "▁בצד": 3978,
      "חוב": 3979,
      "▁חוב": 3980,
      "נין": 3981,
      "▁נין": 3982,
      "לוח": 3983,
      "▁לוח": 3984,
      "בורים": 3985,
      "▁בורים": 3986,
      "העלים": 3987,
      "▁העלים": 3988,
      "הרו": 3989,
      "▁הרו": 3990,
      "זרוע": 3991,
      "▁זרוע": 3992,
      "אריה": 3993,
      "▁אריה": 3994,
      "סג": 3995,
      "▁סג": 3996,
      "ולצ": 3997,
      "▁ולצ": 3998,
      "לבוא": 3999,
      "▁לבוא": 4000,
      "ומפ": 4001,
      "▁ומפ": 4002,
      "והתחילו": 4003,
      "▁והתחילו": 4004,
      "לנסוע": 4005,
      "▁לנסוע": 4006,
      "יכר": 4007,
      "▁יכר": 4008,
      "הפכה": 4009,
      "▁הפכה": 4010,
      "הפסיק": 4011,
      "▁הפסיק": 4012,
      "שובב": 4013,
      "▁שובב": 4014,
      "קיוו": 4015,
      "▁קיוו": 4016,
      "סיפר": 4017,
      "▁סיפר": 4018,
      "תאומים": 4019,
      "▁תאומים": 4020,
      "ומצא": 4021,
      "▁ומצא": 4022,
      "למסיבה": 4023,
      "▁למסיבה": 4024,
      "הבינה": 4025,
      "▁הבינה": 4026,
      "רמי": 4027,
      "▁רמי": 4028,
      "שאהבו": 4029,
      "▁שאהבו": 4030,
      "בחווה": 4031,
      "▁בחווה": 4032,
      "אן": 4033,
      "▁אן": 4034,
      "כסף": 4035,
      "▁כסף": 4036,
      "קשת": 4037,
      "▁קשת": 4038,
      "קראו": 4039,
      "▁קראו": 4040,
      "אנו": 4041,
      "▁אנו": 4042,
      "גישה": 4043,
      "▁גישה": 4044,
      "משע": 4045,
      "▁משע": 4046,
      "חייכת": 4047,
      "▁חייכת": 4048,
      "לברוח": 4049,
      "▁לברוח": 4050,
      "מסיבה": 4051,
      "▁מסיבה": 4052,
      "ודו": 4053,
      "▁ודו": 4054,
      "האור": 4055,
      "▁האור": 4056,
      "לשמוע": 4057,
      "▁לשמוע": 4058,
      "הטוב": 4059,
      "▁הטוב": 4060,
      "מלאה": 4061,
      "▁מלאה": 4062,
      "הצה": 4063,
      "▁הצה": 4064,
      "קופסת": 4065,
      "▁קופסת": 4066,
      "כחולה": 4067,
      "▁כחולה": 4068,
      "נכנסו": 4069,
      "▁נכנסו": 4070,
      "מרוצה": 4071,
      "▁מרוצה": 4072,
      "המקום": 4073,
      "▁המקום": 4074,
      "מחי": 4075,
      "▁מחי": 4076,
      "עמון": 4077,
      "▁עמון": 4078,
      "לעולם": 4079,
      "▁לעולם": 4080,
      "לצחוק": 4081,
      "▁לצחוק": 4082,
      "הבלון": 4083,
      "▁הבלון": 4084,
      "ומי": 4085,
      "▁ומי": 4086,
      "נראתה": 4087,
      "▁נראתה": 4088,
      "שעזר": 4089,
      "▁שעזר": 4090,
      "וליהנות": 4091,
      "▁וליהנות": 4092,
      "צייר": 4093,
      "▁צייר": 4094,
      "הספרים": 4095,
      "▁הספרים": 4096,
      "לחוף": 4097,
      "▁לחוף": 4098,
      "עיניו": 4099,
      "▁עיניו": 4100,
      "להחזיר": 4101,
      "▁להחזיר": 4102,
      "המורה": 4103,
      "▁המורה": 4104,
      "ביו": 4105,
      "▁ביו": 4106,
      "שכח": 4107,
      "▁שכח": 4108,
      "הבעלים": 4109,
      "▁הבעלים": 4110,
      "התינוק": 4111,
      "▁התינוק": 4112,
      "העצים": 4113,
      "▁העצים": 4114,
      "והק": 4115,
      "▁והק": 4116,
      "שיער": 4117,
      "▁שיער": 4118,
      "החכם": 4119,
      "▁החכם": 4120,
      "ישבה": 4121,
      "▁ישבה": 4122,
      "לרעוד": 4123,
      "▁לרעוד": 4124,
      "מחאו": 4125,
      "▁מחאו": 4126,
      "כועס": 4127,
      "▁כועס": 4128,
      "הקשיבה": 4129,
      "▁הקשיבה": 4130,
      "המז": 4131,
      "▁המז": 4132,
      "מוזי": 4133,
      "▁מוזי": 4134,
      "גלות": 4135,
      "▁גלות": 4136,
      "שע": 4137,
      "▁שע": 4138,
      "והצ": 4139,
      "▁והצ": 4140,
      "לרכב": 4141,
      "▁לרכב": 4142,
      "ומס": 4143,
      "▁ומס": 4144,
      "עסו": 4145,
      "▁עסו": 4146,
      "קסום": 4147,
      "▁קסום": 4148,
      "בנים": 4149,
      "▁בנים": 4150,
      "בצעצועים": 4151,
      "▁בצעצועים": 4152,
      "יך": 4153,
      "▁יך": 4154,
      "צוף": 4155,
      "▁צוף": 4156,
      "ולעזור": 4157,
      "▁ולעזור": 4158,
      "הצב": 4159,
      "▁הצב": 4160,
      "הנמלה": 4161,
      "▁הנמלה": 4162,
      "השתמשה": 4163,
      "▁השתמשה": 4164,
      "צבעוניים": 4165,
      "▁צבעוניים": 4166,
      "פפה": 4167,
      "▁פפה": 4168,
      "מרק": 4169,
      "▁מרק": 4170,
      "הגלידה": 4171,
      "▁הגלידה": 4172,
      "מנם": 4173,
      "▁מנם": 4174,
      "ומה": 4175,
      "▁ומה": 4176,
      "לכי": 4177,
      "▁לכי": 4178,
      "ורק": 4179,
      "▁ורק": 4180,
      "שמים": 4181,
      "▁שמים": 4182,
      "נעלמה": 4183,
      "▁נעלמה": 4184,
      "מזל": 4185,
      "▁מזל": 4186,
      "קנה": 4187,
      "▁קנה": 4188,
      "ניין": 4189,
      "▁ניין": 4190,
      "עלם": 4191,
      "▁עלם": 4192,
      "בקבוק": 4193,
      "▁בקבוק": 4194,
      "שירים": 4195,
      "▁שירים": 4196,
      "טיפש": 4197,
      "▁טיפש": 4198,
      "כשהגיע": 4199,
      "▁כשהגיע": 4200,
      "מסתכלים": 4201,
      "▁מסתכלים": 4202,
      "מגניב": 4203,
      "▁מגניב": 4204,
      "ניגש": 4205,
      "▁ניגש": 4206,
      "החבל": 4207,
      "▁החבל": 4208,
      "בואים": 4209,
      "▁בואים": 4210,
      "פריים": 4211,
      "▁פריים": 4212,
      "וחשב": 4213,
      "▁וחשב": 4214,
      "מעל": 4215,
      "▁מעל": 4216,
      "ליסה": 4217,
      "▁ליסה": 4218,
      "לאסוף": 4219,
      "▁לאסוף": 4220,
      "יפות": 4221,
      "▁יפות": 4222,
      "ענתה": 4223,
      "▁ענתה": 4224,
      "דחף": 4225,
      "▁דחף": 4226,
      "אט": 4227,
      "▁אט": 4228,
      "העלה": 4229,
      "▁העלה": 4230,
      "ירד": 4231,
      "▁ירד": 4232,
      "הגבוה": 4233,
      "▁הגבוה": 4234,
      "טובוס": 4235,
      "▁טובוס": 4236,
      "עוזר": 4237,
      "▁עוזר": 4238,
      "צץ": 4239,
      "▁צץ": 4240,
      "רכה": 4241,
      "▁רכה": 4242,
      "שום": 4243,
      "▁שום": 4244,
      "תפוחים": 4245,
      "▁תפוחים": 4246,
      "חיל": 4247,
      "▁חיל": 4248,
      "השק": 4249,
      "▁השק": 4250,
      "ביתו": 4251,
      "▁ביתו": 4252,
      "גאים": 4253,
      "▁גאים": 4254,
      "וחיבקה": 4255,
      "▁וחיבקה": 4256,
      "כור": 4257,
      "▁כור": 4258,
      "ספי": 4259,
      "▁ספי": 4260,
      "סגול": 4261,
      "▁סגול": 4262,
      "שנ": 4263,
      "▁שנ": 4264,
      "ליק": 4265,
      "▁ליק": 4266,
      "ועשה": 4267,
      "▁ועשה": 4268,
      "משת": 4269,
      "▁משת": 4270,
      "הפרפר": 4271,
      "▁הפרפר": 4272,
      "הנדנדות": 4273,
      "▁הנדנדות": 4274,
      "ושמח": 4275,
      "▁ושמח": 4276,
      "הההה": 4277,
      "▁הההה": 4278,
      "אדיב": 4279,
      "▁אדיב": 4280,
      "ומצאו": 4281,
      "▁ומצאו": 4282,
      "שרו": 4283,
      "▁שרו": 4284,
      "יתן": 4285,
      "▁יתן": 4286,
      "העמיד": 4287,
      "▁העמיד": 4288,
      "בובה": 4289,
      "▁בובה": 4290,
      "מחבואים": 4291,
      "▁מחבואים": 4292,
      "הסתוב": 4293,
      "▁הסתוב": 4294,
      "השלג": 4295,
      "▁השלג": 4296,
      "לפון": 4297,
      "▁לפון": 4298,
      "לאיש": 4299,
      "▁לאיש": 4300,
      "דיברו": 4301,
      "▁דיברו": 4302,
      "נוז": 4303,
      "▁נוז": 4304,
      "הפנים": 4305,
      "▁הפנים": 4306,
      "במק": 4307,
      "▁במק": 4308,
      "הירוק": 4309,
      "▁הירוק": 4310,
      "ואנה": 4311,
      "▁ואנה": 4312,
      "עצמו": 4313,
      "▁עצמו": 4314,
      "בוצה": 4315,
      "▁בוצה": 4316,
      "הנדנדה": 4317,
      "▁הנדנדה": 4318,
      "אדמה": 4319,
      "▁אדמה": 4320,
      "זז": 4321,
      "▁זז": 4322,
      "עקש": 4323,
      "▁עקש": 4324,
      "בכה": 4325,
      "▁בכה": 4326,
      "למש": 4327,
      "▁למש": 4328,
      "להגיד": 4329,
      "▁להגיד": 4330,
      "מהח": 4331,
      "▁מהח": 4332,
      "עלול": 4333,
      "▁עלול": 4334,
      "נתק": 4335,
      "▁נתק": 4336,
      "מלוכלך": 4337,
      "▁מלוכלך": 4338,
      "ואתה": 4339,
      "▁ואתה": 4340,
      "להש": 4341,
      "▁להש": 4342,
      "המנ": 4343,
      "▁המנ": 4344,
      "המצ": 4345,
      "▁המצ": 4346,
      "שמן": 4347,
      "▁שמן": 4348,
      "התקר": 4349,
      "▁התקר": 4350,
      "הכיסא": 4351,
      "▁הכיסא": 4352,
      "הושי": 4353,
      "▁הושי": 4354,
      "שיח": 4355,
      "▁שיח": 4356,
      "העיר": 4357,
      "▁העיר": 4358,
      "נדנדה": 4359,
      "▁נדנדה": 4360,
      "הכחולה": 4361,
      "▁הכחולה": 4362,
      "לריב": 4363,
      "▁לריב": 4364,
      "להליכה": 4365,
      "▁להליכה": 4366,
      "איר": 4367,
      "▁איר": 4368,
      "השעון": 4369,
      "▁השעון": 4370,
      "הכיף": 4371,
      "▁הכיף": 4372,
      "רגלי": 4373,
      "▁רגלי": 4374,
      "כעסה": 4375,
      "▁כעסה": 4376,
      "המיוחד": 4377,
      "▁המיוחד": 4378,
      "כנים": 4379,
      "▁כנים": 4380,
      "ולש": 4381,
      "▁ולש": 4382,
      "ביס": 4383,
      "▁ביס": 4384,
      "ושוב": 4385,
      "▁ושוב": 4386,
      "בשבילו": 4387,
      "▁בשבילו": 4388,
      "לשתות": 4389,
      "▁לשתות": 4390,
      "גלו": 4391,
      "▁גלו": 4392,
      "ורג": 4393,
      "▁ורג": 4394,
      "הרגל": 4395,
      "▁הרגל": 4396,
      "התרגש": 4397,
      "▁התרגש": 4398,
      "השיער": 4399,
      "▁השיער": 4400,
      "מחייכת": 4401,
      "▁מחייכת": 4402,
      "ען": 4403,
      "▁ען": 4404,
      "קפי": 4405,
      "▁קפי": 4406,
      "ביי": 4407,
      "▁ביי": 4408,
      "החוף": 4409,
      "▁החוף": 4410,
      "און": 4411,
      "▁און": 4412,
      "הדרקון": 4413,
      "▁הדרקון": 4414,
      "ידיים": 4415,
      "▁ידיים": 4416,
      "שהשמש": 4417,
      "▁שהשמש": 4418,
      "כיר": 4419,
      "▁כיר": 4420,
      "מטבע": 4421,
      "▁מטבע": 4422,
      "תם": 4423,
      "▁תם": 4424,
      "אוג": 4425,
      "▁אוג": 4426,
      "לשמח": 4427,
      "▁לשמח": 4428,
      "אילו": 4429,
      "▁אילו": 4430,
      "להתנדנד": 4431,
      "▁להתנדנד": 4432,
      "הסכימו": 4433,
      "▁הסכימו": 4434,
      "חלו": 4435,
      "▁חלו": 4436,
      "שחשוב": 4437,
      "▁שחשוב": 4438,
      "שלפעמים": 4439,
      "▁שלפעמים": 4440,
      "הצבעים": 4441,
      "▁הצבעים": 4442,
      "בראשו": 4443,
      "▁בראשו": 4444,
      "ופתאום": 4445,
      "▁ופתאום": 4446,
      "לשלום": 4447,
      "▁לשלום": 4448,
      "מלים": 4449,
      "▁מלים": 4450,
      "ולעת": 4451,
      "▁ולעת": 4452,
      "שלהיות": 4453,
      "▁שלהיות": 4454,
      "חוט": 4455,
      "▁חוט": 4456,
      "עדין": 4457,
      "▁עדין": 4458,
      "טוח": 4459,
      "▁טוח": 4460,
      "רגע": 4461,
      "▁רגע": 4462,
      "טעימה": 4463,
      "▁טעימה": 4464,
      "ההולדת": 4465,
      "▁ההולדת": 4466,
      "ואפילו": 4467,
      "▁ואפילו": 4468,
      "לונה": 4469,
      "▁לונה": 4470,
      "בובי": 4471,
      "▁בובי": 4472,
      "החדשים": 4473,
      "▁החדשים": 4474,
      "המרק": 4475,
      "▁המרק": 4476,
      "להרפתקה": 4477,
      "▁להרפתקה": 4478,
      "מנה": 4479,
      "▁מנה": 4480,
      "ננה": 4481,
      "▁ננה": 4482,
      "נבח": 4483,
      "▁נבח": 4484,
      "היית": 4485,
      "▁היית": 4486,
      "לעז": 4487,
      "▁לעז": 4488,
      "הבגדים": 4489,
      "▁הבגדים": 4490,
      "בעולם": 4491,
      "▁בעולם": 4492,
      "מחים": 4493,
      "▁מחים": 4494,
      "והלכה": 4495,
      "▁והלכה": 4496,
      "טובות": 4497,
      "▁טובות": 4498,
      "בחול": 4499,
      "▁בחול": 4500,
      "וכלב": 4501,
      "▁וכלב": 4502,
      "וקה": 4503,
      "▁וקה": 4504,
      "ומצאה": 4505,
      "▁ומצאה": 4506,
      "ששיחק": 4507,
      "▁ששיחק": 4508,
      "והמ": 4509,
      "▁והמ": 4510,
      "בודד": 4511,
      "▁בודד": 4512,
      "בכתה": 4513,
      "▁בכתה": 4514,
      "בגדים": 4515,
      "▁בגדים": 4516,
      "שאני": 4517,
      "▁שאני": 4518,
      "שזו": 4519,
      "▁שזו": 4520,
      "ולת": 4521,
      "▁ולת": 4522,
      "וחכם": 4523,
      "▁וחכם": 4524,
      "התרגשו": 4525,
      "▁התרגשו": 4526,
      "להסתובב": 4527,
      "▁להסתובב": 4528,
      "מסי": 4529,
      "▁מסי": 4530,
      "ורו": 4531,
      "▁ורו": 4532,
      "קטוף": 4533,
      "▁קטוף": 4534,
      "האחרות": 4535,
      "▁האחרות": 4536,
      "נשבה": 4537,
      "▁נשבה": 4538,
      "אכלה": 4539,
      "▁אכלה": 4540,
      "ועל": 4541,
      "▁ועל": 4542,
      "הידיים": 4543,
      "▁הידיים": 4544,
      "ולהת": 4545,
      "▁ולהת": 4546,
      "המתנה": 4547,
      "▁המתנה": 4548,
      "מסוכן": 4549,
      "▁מסוכן": 4550,
      "עמוק": 4551,
      "▁עמוק": 4552,
      "החזיקה": 4553,
      "▁החזיקה": 4554,
      "והילדה": 4555,
      "▁והילדה": 4556,
      "החלון": 4557,
      "▁החלון": 4558,
      "הכביש": 4559,
      "▁הכביש": 4560,
      "כשהשמש": 4561,
      "▁כשהשמש": 4562,
      "הנייר": 4563,
      "▁הנייר": 4564,
      "כוער": 4565,
      "▁כוער": 4566,
      "לגן": 4567,
      "▁לגן": 4568,
      "לגלות": 4569,
      "▁לגלות": 4570,
      "צד": 4571,
      "▁צד": 4572,
      "שגם": 4573,
      "▁שגם": 4574,
      "חיפשה": 4575,
      "▁חיפשה": 4576,
      "עצבני": 4577,
      "▁עצבני": 4578,
      "סומה": 4579,
      "▁סומה": 4580,
      "גרמה": 4581,
      "▁גרמה": 4582,
      "זן": 4583,
      "▁זן": 4584,
      "יוש": 4585,
      "▁יוש": 4586,
      "סל": 4587,
      "▁סל": 4588,
      "לאגם": 4589,
      "▁לאגם": 4590,
      "כיסא": 4591,
      "▁כיסא": 4592,
      "סיך": 4593,
      "▁סיך": 4594,
      "הזר": 4595,
      "▁הזר": 4596,
      "זים": 4597,
      "▁זים": 4598,
      "מחייך": 4599,
      "▁מחייך": 4600,
      "נשמע": 4601,
      "▁נשמע": 4602,
      "קראה": 4603,
      "▁קראה": 4604,
      "להחזיק": 4605,
      "▁להחזיק": 4606,
      "ודד": 4607,
      "▁ודד": 4608,
      "רוך": 4609,
      "▁רוך": 4610,
      "תינוק": 4611,
      "▁תינוק": 4612,
      "הזנב": 4613,
      "▁הזנב": 4614,
      "להפסיק": 4615,
      "▁להפסיק": 4616,
      "וחזרו": 4617,
      "▁וחזרו": 4618,
      "חנה": 4619,
      "▁חנה": 4620,
      "לקטוף": 4621,
      "▁לקטוף": 4622,
      "ביק": 4623,
      "▁ביק": 4624,
      "בשר": 4625,
      "▁בשר": 4626,
      "במעלה": 4627,
      "▁במעלה": 4628,
      "וידי": 4629,
      "▁וידי": 4630,
      "עבדה": 4631,
      "▁עבדה": 4632,
      "טס": 4633,
      "▁טס": 4634,
      "נחת": 4635,
      "▁נחת": 4636,
      "ובוט": 4637,
      "▁ובוט": 4638,
      "נהנתה": 4639,
      "▁נהנתה": 4640,
      "האש": 4641,
      "▁האש": 4642,
      "איב": 4643,
      "▁איב": 4644,
      "מתי": 4645,
      "▁מתי": 4646,
      "ציא": 4647,
      "▁ציא": 4648,
      "החיים": 4649,
      "▁החיים": 4650,
      "וביל": 4651,
      "▁וביל": 4652,
      "ברשת": 4653,
      "▁ברשת": 4654,
      "שרת": 4655,
      "▁שרת": 4656,
      "לעזוב": 4657,
      "▁לעזוב": 4658,
      "והבי": 4659,
      "▁והבי": 4660,
      "בון": 4661,
      "▁בון": 4662,
      "פתעו": 4663,
      "▁פתעו": 4664,
      "הכפתור": 4665,
      "▁הכפתור": 4666,
      "לתול": 4667,
      "▁לתול": 4668,
      "הבחין": 4669,
      "▁הבחין": 4670,
      "התעורר": 4671,
      "▁התעורר": 4672,
      "החלה": 4673,
      "▁החלה": 4674,
      "מוק": 4675,
      "▁מוק": 4676,
      "אחרת": 4677,
      "▁אחרת": 4678,
      "מופתעת": 4679,
      "▁מופתעת": 4680,
      "השתמשו": 4681,
      "▁השתמשו": 4682,
      "בחי": 4683,
      "▁בחי": 4684,
      "הנו": 4685,
      "▁הנו": 4686,
      "מטה": 4687,
      "▁מטה": 4688,
      "קת": 4689,
      "▁קת": 4690,
      "שחו": 4691,
      "▁שחו": 4692,
      "החברות": 4693,
      "▁החברות": 4694,
      "מבולבל": 4695,
      "▁מבולבל": 4696,
      "ימים": 4697,
      "▁ימים": 4698,
      "יקה": 4699,
      "▁יקה": 4700,
      "רטוב": 4701,
      "▁רטוב": 4702,
      "הבובות": 4703,
      "▁הבובות": 4704,
      "בקה": 4705,
      "▁בקה": 4706,
      "החולצה": 4707,
      "▁החולצה": 4708,
      "הסכימה": 4709,
      "▁הסכימה": 4710,
      "הלילה": 4711,
      "▁הלילה": 4712,
      "וניסתה": 4713,
      "▁וניסתה": 4714,
      "צלי": 4715,
      "▁צלי": 4716,
      "לאן": 4717,
      "▁לאן": 4718,
      "אוצר": 4719,
      "▁אוצר": 4720,
      "ועו": 4721,
      "▁ועו": 4722,
      "סירת": 4723,
      "▁סירת": 4724,
      "חייבים": 4725,
      "▁חייבים": 4726,
      "המפלצת": 4727,
      "▁המפלצת": 4728,
      "יושב": 4729,
      "▁יושב": 4730,
      "לדחוף": 4731,
      "▁לדחוף": 4732,
      "שמצ": 4733,
      "▁שמצ": 4734,
      "הבק": 4735,
      "▁הבק": 4736,
      "ויסקרס": 4737,
      "▁ויסקרס": 4738,
      "לחברה": 4739,
      "▁לחברה": 4740,
      "סקרנית": 4741,
      "▁סקרנית": 4742,
      "נוב": 4743,
      "▁נוב": 4744,
      "סנ": 4745,
      "▁סנ": 4746,
      "לאבא": 4747,
      "▁לאבא": 4748,
      "לשמיים": 4749,
      "▁לשמיים": 4750,
      "רוס": 4751,
      "▁רוס": 4752,
      "קרים": 4753,
      "▁קרים": 4754,
      "הופתעו": 4755,
      "▁הופתעו": 4756,
      "הפיה": 4757,
      "▁הפיה": 4758,
      "לחתוך": 4759,
      "▁לחתוך": 4760,
      "סיפורים": 4761,
      "▁סיפורים": 4762,
      "במשחק": 4763,
      "▁במשחק": 4764,
      "חמים": 4765,
      "▁חמים": 4766,
      "צוע": 4767,
      "▁צוע": 4768,
      "ואהב": 4769,
      "▁ואהב": 4770,
      "ליער": 4771,
      "▁ליער": 4772,
      "והני": 4773,
      "▁והני": 4774,
      "הבחינה": 4775,
      "▁הבחינה": 4776,
      "גוז": 4777,
      "▁גוז": 4778,
      "שהייתה": 4779,
      "▁שהייתה": 4780,
      "שטום": 4781,
      "▁שטום": 4782,
      "יפרון": 4783,
      "▁יפרון": 4784,
      "האח": 4785,
      "▁האח": 4786,
      "האחור": 4787,
      "▁האחור": 4788,
      "הבאג": 4789,
      "▁הבאג": 4790,
      "ידעתי": 4791,
      "▁ידעתי": 4792,
      "וכי": 4793,
      "▁וכי": 4794,
      "ללמד": 4795,
      "▁ללמד": 4796,
      "אותן": 4797,
      "▁אותן": 4798,
      "לקש": 4799,
      "▁לקש": 4800,
      "אישה": 4801,
      "▁אישה": 4802,
      "למס": 4803,
      "▁למס": 4804,
      "לספור": 4805,
      "▁לספור": 4806,
      "הנהר": 4807,
      "▁הנהר": 4808,
      "זכרה": 4809,
      "▁זכרה": 4810,
      "ונו": 4811,
      "▁ונו": 4812,
      "ייק": 4813,
      "▁ייק": 4814,
      "כרי": 4815,
      "▁כרי": 4816,
      "כלום": 4817,
      "▁כלום": 4818,
      "דינוז": 4819,
      "▁דינוז": 4820,
      "מוץ": 4821,
      "▁מוץ": 4822,
      "באמת": 4823,
      "▁באמת": 4824,
      "חב": 4825,
      "▁חב": 4826,
      "למיה": 4827,
      "▁למיה": 4828,
      "פית": 4829,
      "▁פית": 4830,
      "שבר": 4831,
      "▁שבר": 4832,
      "ואדום": 4833,
      "▁ואדום": 4834,
      "ואכלו": 4835,
      "▁ואכלו": 4836,
      "המכוניות": 4837,
      "▁המכוניות": 4838,
      "נפלה": 4839,
      "▁נפלה": 4840,
      "בכפר": 4841,
      "▁בכפר": 4842,
      "והחליט": 4843,
      "▁והחליט": 4844,
      "גס": 4845,
      "▁גס": 4846,
      "אהבתי": 4847,
      "▁אהבתי": 4848,
      "דין": 4849,
      "▁דין": 4850,
      "הענק": 4851,
      "▁הענק": 4852,
      "תיבת": 4853,
      "▁תיבת": 4854,
      "ופים": 4855,
      "▁ופים": 4856,
      "להציל": 4857,
      "▁להציל": 4858,
      "שחור": 4859,
      "▁שחור": 4860,
      "בלון": 4861,
      "▁בלון": 4862,
      "גילה": 4863,
      "▁גילה": 4864,
      "התגלגל": 4865,
      "▁התגלגל": 4866,
      "דרכו": 4867,
      "▁דרכו": 4868,
      "עצל": 4869,
      "▁עצל": 4870,
      "השטיח": 4871,
      "▁השטיח": 4872,
      "סיפרה": 4873,
      "▁סיפרה": 4874,
      "הסרטן": 4875,
      "▁הסרטן": 4876,
      "מחוץ": 4877,
      "▁מחוץ": 4878,
      "ינשוף": 4879,
      "▁ינשוף": 4880,
      "נפתחה": 4881,
      "▁נפתחה": 4882,
      "לקופסה": 4883,
      "▁לקופסה": 4884,
      "בתורות": 4885,
      "▁בתורות": 4886,
      "חשבתי": 4887,
      "▁חשבתי": 4888,
      "וסיפ": 4889,
      "▁וסיפ": 4890,
      "ענן": 4891,
      "▁ענן": 4892,
      "במס": 4893,
      "▁במס": 4894,
      "גבו": 4895,
      "▁גבו": 4896,
      "הגדר": 4897,
      "▁הגדר": 4898,
      "יות": 4899,
      "▁יות": 4900,
      "מהמ": 4901,
      "▁מהמ": 4902,
      "המוז": 4903,
      "▁המוז": 4904,
      "מדף": 4905,
      "▁מדף": 4906,
      "קייה": 4907,
      "▁קייה": 4908,
      "גרש": 4909,
      "▁גרש": 4910,
      "הגג": 4911,
      "▁הגג": 4912,
      "עיניה": 4913,
      "▁עיניה": 4914,
      "סן": 4915,
      "▁סן": 4916,
      "עובד": 4917,
      "▁עובד": 4918,
      "החנות": 4919,
      "▁החנות": 4920,
      "יכת": 4921,
      "▁יכת": 4922,
      "ריף": 4923,
      "▁ריף": 4924,
      "פתק": 4925,
      "▁פתק": 4926,
      "לבשל": 4927,
      "▁לבשל": 4928,
      "הדואר": 4929,
      "▁הדואר": 4930,
      "מפלצת": 4931,
      "▁מפלצת": 4932,
      "הכוס": 4933,
      "▁הכוס": 4934,
      "עקב": 4935,
      "▁עקב": 4936,
      "דאקי": 4937,
      "▁דאקי": 4938,
      "ערימה": 4939,
      "▁ערימה": 4940,
      "שבור": 4941,
      "▁שבור": 4942,
      "ורודה": 4943,
      "▁ורודה": 4944,
      "ועי": 4945,
      "▁ועי": 4946,
      "יפהפה": 4947,
      "▁יפהפה": 4948,
      "המשיכה": 4949,
      "▁המשיכה": 4950,
      "תורות": 4951,
      "▁תורות": 4952,
      "להד": 4953,
      "▁להד": 4954,
      "שמקס": 4955,
      "▁שמקס": 4956,
      "שאם": 4957,
      "▁שאם": 4958,
      "חרר": 4959,
      "▁חרר": 4960,
      "זהירים": 4961,
      "▁זהירים": 4962,
      "מרגישים": 4963,
      "▁מרגישים": 4964,
      "להתי": 4965,
      "▁להתי": 4966,
      "צהובה": 4967,
      "▁צהובה": 4968,
      "עייפה": 4969,
      "▁עייפה": 4970,
      "הקי": 4971,
      "▁הקי": 4972,
      "להיראות": 4973,
      "▁להיראות": 4974,
      "עבוד": 4975,
      "▁עבוד": 4976,
      "האמא": 4977,
      "▁האמא": 4978,
      "הפה": 4979,
      "▁הפה": 4980,
      "וכך": 4981,
      "▁וכך": 4982,
      "ודח": 4983,
      "▁ודח": 4984,
      "בשדה": 4985,
      "▁בשדה": 4986,
      "רקדו": 4987,
      "▁רקדו": 4988,
      "הספה": 4989,
      "▁הספה": 4990,
      "הצליחה": 4991,
      "▁הצליחה": 4992,
      "הסתובב": 4993,
      "▁הסתובב": 4994,
      "באז": 4995,
      "▁באז": 4996,
      "ומש": 4997,
      "▁ומש": 4998,
      "מך": 4999,
      "▁מך": 5000,
      "רגיל": 5001,
      "▁רגיל": 5002,
      "מאשר": 5003,
      "▁מאשר": 5004,
      "החל": 5005,
      "▁החל": 5006,
      "לבוב": 5007,
      "▁לבוב": 5008,
      "ירפי": 5009,
      "▁ירפי": 5010,
      "קיבלה": 5011,
      "▁קיבלה": 5012,
      "גלים": 5013,
      "▁גלים": 5014,
      "במכונית": 5015,
      "▁במכונית": 5016,
      "ונרגש": 5017,
      "▁ונרגש": 5018,
      "לוקח": 5019,
      "▁לוקח": 5020,
      "רבב": 5021,
      "▁רבב": 5022,
      "תוכל": 5023,
      "▁תוכל": 5024,
      "מחבקים": 5025,
      "▁מחבקים": 5026,
      "נמלה": 5027,
      "▁נמלה": 5028,
      "והד": 5029,
      "▁והד": 5030,
      "המכתב": 5031,
      "▁המכתב": 5032,
      "האלה": 5033,
      "▁האלה": 5034,
      "עימה": 5035,
      "▁עימה": 5036,
      "רעשים": 5037,
      "▁רעשים": 5038,
      "והסתכלה": 5039,
      "▁והסתכלה": 5040,
      "מוצאים": 5041,
      "▁מוצאים": 5042,
      "הלקח": 5043,
      "▁הלקח": 5044,
      "הנוצץ": 5045,
      "▁הנוצץ": 5046,
      "חשוך": 5047,
      "▁חשוך": 5048,
      "נבה": 5049,
      "▁נבה": 5050,
      "ואדי": 5051,
      "▁ואדי": 5052,
      "פתה": 5053,
      "▁פתה": 5054,
      "העז": 5055,
      "▁העז": 5056,
      "הקשת": 5057,
      "▁הקשת": 5058,
      "הקוף": 5059,
      "▁הקוף": 5060,
      "הכוכב": 5061,
      "▁הכוכב": 5062,
      "הרובוט": 5063,
      "▁הרובוט": 5064,
      "דינות": 5065,
      "▁דינות": 5066,
      "האר": 5067,
      "▁האר": 5068,
      "בקו": 5069,
      "▁בקו": 5070,
      "לכדור": 5071,
      "▁לכדור": 5072,
      "מעט": 5073,
      "▁מעט": 5074,
      "לילדה": 5075,
      "▁לילדה": 5076,
      "והעיפה": 5077,
      "▁והעיפה": 5078,
      "הרפתקאות": 5079,
      "▁הרפתקאות": 5080,
      "הנחש": 5081,
      "▁הנחש": 5082,
      "קצר": 5083,
      "▁קצר": 5084,
      "ולמד": 5085,
      "▁ולמד": 5086,
      "וביק": 5087,
      "▁וביק": 5088,
      "ועף": 5089,
      "▁ועף": 5090,
      "מושלם": 5091,
      "▁מושלם": 5092,
      "חופ": 5093,
      "▁חופ": 5094,
      "הדלי": 5095,
      "▁הדלי": 5096,
      "האהובה": 5097,
      "▁האהובה": 5098,
      "וותה": 5099,
      "▁וותה": 5100,
      "וון": 5101,
      "▁וון": 5102,
      "והוד": 5103,
      "▁והוד": 5104,
      "והראה": 5105,
      "▁והראה": 5106,
      "שייך": 5107,
      "▁שייך": 5108,
      "הענן": 5109,
      "▁הענן": 5110,
      "לבקש": 5111,
      "▁לבקש": 5112,
      "באדמה": 5113,
      "▁באדמה": 5114,
      "קיוותה": 5115,
      "▁קיוותה": 5116,
      "הפירות": 5117,
      "▁הפירות": 5118,
      "נגמר": 5119,
      "▁נגמר": 5120,
      "צהריים": 5121,
      "▁צהריים": 5122,
      "הסיר": 5123,
      "▁הסיר": 5124,
      "העגלה": 5125,
      "▁העגלה": 5126,
      "הדבורה": 5127,
      "▁הדבורה": 5128,
      "בעדינות": 5129,
      "▁בעדינות": 5130,
      "בובות": 5131,
      "▁בובות": 5132,
      "יציר": 5133,
      "▁יציר": 5134,
      "הירח": 5135,
      "▁הירח": 5136,
      "זיז": 5137,
      "▁זיז": 5138,
      "הריח": 5139,
      "▁הריח": 5140,
      "נצל": 5141,
      "▁נצל": 5142,
      "הניח": 5143,
      "▁הניח": 5144,
      "חושבת": 5145,
      "▁חושבת": 5146,
      "לעצור": 5147,
      "▁לעצור": 5148,
      "איבדתי": 5149,
      "▁איבדתי": 5150,
      "הלבנים": 5151,
      "▁הלבנים": 5152,
      "האחורית": 5153,
      "▁האחורית": 5154,
      "בכו": 5155,
      "▁בכו": 5156,
      "במשהו": 5157,
      "▁במשהו": 5158,
      "יער": 5159,
      "▁יער": 5160,
      "כף": 5161,
      "▁כף": 5162,
      "כביש": 5163,
      "▁כביש": 5164,
      "מפתח": 5165,
      "▁מפתח": 5166,
      "מטוס": 5167,
      "▁מטוס": 5168,
      "ורת": 5169,
      "▁ורת": 5170,
      "מוכנה": 5171,
      "▁מוכנה": 5172,
      "רקס": 5173,
      "▁רקס": 5174,
      "לחשוב": 5175,
      "▁לחשוב": 5176,
      "נפלא": 5177,
      "▁נפלא": 5178,
      "מזון": 5179,
      "▁מזון": 5180,
      "קופץ": 5181,
      "▁קופץ": 5182,
      "קופית": 5183,
      "▁קופית": 5184,
      "כחולים": 5185,
      "▁כחולים": 5186,
      "מקלות": 5187,
      "▁מקלות": 5188,
      "שואל": 5189,
      "▁שואל": 5190,
      "משעמם": 5191,
      "▁משעמם": 5192,
      "הנהנו": 5193,
      "▁הנהנו": 5194,
      "ונוצצת": 5195,
      "▁ונוצצת": 5196,
      "ציר": 5197,
      "▁ציר": 5198,
      "הצהריים": 5199,
      "▁הצהריים": 5200,
      "שומע": 5201,
      "▁שומע": 5202,
      "בענן": 5203,
      "▁בענן": 5204,
      "פניה": 5205,
      "▁פניה": 5206,
      "להתחבא": 5207,
      "▁להתחבא": 5208,
      "וזרק": 5209,
      "▁וזרק": 5210,
      "טיפסה": 5211,
      "▁טיפסה": 5212,
      "לאיבוד": 5213,
      "▁לאיבוד": 5214,
      "העוגיות": 5215,
      "▁העוגיות": 5216,
      "באני": 5217,
      "▁באני": 5218,
      "בבוץ": 5219,
      "▁בבוץ": 5220,
      "נכון": 5221,
      "▁נכון": 5222,
      "סמי": 5223,
      "▁סמי": 5224,
      "עצרה": 5225,
      "▁עצרה": 5226,
      "לערבב": 5227,
      "▁לערבב": 5228,
      "איטי": 5229,
      "▁איטי": 5230,
      "פסת": 5231,
      "▁פסת": 5232,
      "טיפשי": 5233,
      "▁טיפשי": 5234,
      "הצליחו": 5235,
      "▁הצליחו": 5236,
      "ניגשה": 5237,
      "▁ניגשה": 5238,
      "הפסיקו": 5239,
      "▁הפסיקו": 5240,
      "דינוזאור": 5241,
      "▁דינוזאור": 5242,
      "בנו": 5243,
      "▁בנו": 5244,
      "חכמה": 5245,
      "▁חכמה": 5246,
      "לשלו": 5247,
      "▁לשלו": 5248,
      "עפו": 5249,
      "▁עפו": 5250,
      "רכבת": 5251,
      "▁רכבת": 5252,
      "והשת": 5253,
      "▁והשת": 5254,
      "חתית": 5255,
      "▁חתית": 5256,
      "שועל": 5257,
      "▁שועל": 5258,
      "טיק": 5259,
      "▁טיק": 5260,
      "הגדולים": 5261,
      "▁הגדולים": 5262,
      "הופתעה": 5263,
      "▁הופתעה": 5264,
      "טיפים": 5265,
      "▁טיפים": 5266,
      "לגבי": 5267,
      "▁לגבי": 5268,
      "מפוחדת": 5269,
      "▁מפוחדת": 5270,
      "יתון": 5271,
      "▁יתון": 5272,
      "חיק": 5273,
      "▁חיק": 5274,
      "חיר": 5275,
      "▁חיר": 5276,
      "מילים": 5277,
      "▁מילים": 5278,
      "הקן": 5279,
      "▁הקן": 5280,
      "בחור": 5281,
      "▁בחור": 5282,
      "יוצא": 5283,
      "▁יוצא": 5284,
      "חרקים": 5285,
      "▁חרקים": 5286,
      "תפסה": 5287,
      "▁תפסה": 5288,
      "ואומרת": 5289,
      "▁ואומרת": 5290,
      "גז": 5291,
      "▁גז": 5292,
      "טדי": 5293,
      "▁טדי": 5294,
      "ספסל": 5295,
      "▁ספסל": 5296,
      "שתה": 5297,
      "▁שתה": 5298,
      "ובאה": 5299,
      "▁ובאה": 5300,
      "והו": 5301,
      "▁והו": 5302,
      "מדבר": 5303,
      "▁מדבר": 5304,
      "נותן": 5305,
      "▁נותן": 5306,
      "גשר": 5307,
      "▁גשר": 5308,
      "לכתוב": 5309,
      "▁לכתוב": 5310,
      "המירוץ": 5311,
      "▁המירוץ": 5312,
      "וור": 5313,
      "▁וור": 5314,
      "מני": 5315,
      "▁מני": 5316,
      "גדלים": 5317,
      "▁גדלים": 5318,
      "הצבי": 5319,
      "▁הצבי": 5320,
      "שמור": 5321,
      "▁שמור": 5322,
      "בסלון": 5323,
      "▁בסלון": 5324,
      "מחפש": 5325,
      "▁מחפש": 5326,
      "הדובי": 5327,
      "▁הדובי": 5328,
      "העצם": 5329,
      "▁העצם": 5330,
      "חטיף": 5331,
      "▁חטיף": 5332,
      "סאות": 5333,
      "▁סאות": 5334,
      "כלבלב": 5335,
      "▁כלבלב": 5336,
      "מרגישה": 5337,
      "▁מרגישה": 5338,
      "יפית": 5339,
      "▁יפית": 5340,
      "בייש": 5341,
      "▁בייש": 5342,
      "התה": 5343,
      "▁התה": 5344,
      "הענף": 5345,
      "▁הענף": 5346,
      "שוק": 5347,
      "▁שוק": 5348,
      "עירה": 5349,
      "▁עירה": 5350,
      "עדיף": 5351,
      "▁עדיף": 5352,
      "ולחלוק": 5353,
      "▁ולחלוק": 5354,
      "מץ": 5355,
      "▁מץ": 5356,
      "ולו": 5357,
      "▁ולו": 5358,
      "ברוח": 5359,
      "▁ברוח": 5360,
      "ישנו": 5361,
      "▁ישנו": 5362,
      "המיטה": 5363,
      "▁המיטה": 5364,
      "בריצה": 5365,
      "▁בריצה": 5366,
      "הבריכה": 5367,
      "▁הבריכה": 5368,
      "ממנה": 5369,
      "▁ממנה": 5370,
      "להעמיד": 5371,
      "▁להעמיד": 5372,
      "אדומים": 5373,
      "▁אדומים": 5374,
      "חופשי": 5375,
      "▁חופשי": 5376,
      "זום": 5377,
      "▁זום": 5378,
      "לפס": 5379,
      "▁לפס": 5380,
      "מחזיק": 5381,
      "▁מחזיק": 5382,
      "קיר": 5383,
      "▁קיר": 5384,
      "ששיתוף": 5385,
      "▁ששיתוף": 5386,
      "ליילה": 5387,
      "▁ליילה": 5388,
      "בשקט": 5389,
      "▁בשקט": 5390,
      "לצל": 5391,
      "▁לצל": 5392,
      "חולה": 5393,
      "▁חולה": 5394,
      "להחליק": 5395,
      "▁להחליק": 5396,
      "וידידותי": 5397,
      "▁וידידותי": 5398,
      "עצלן": 5399,
      "▁עצלן": 5400,
      "וסאלי": 5401,
      "▁וסאלי": 5402,
      "כשי": 5403,
      "▁כשי": 5404,
      "עלו": 5405,
      "▁עלו": 5406,
      "העט": 5407,
      "▁העט": 5408,
      "באג": 5409,
      "▁באג": 5410,
      "הפרו": 5411,
      "▁הפרו": 5412,
      "חושבים": 5413,
      "▁חושבים": 5414,
      "לעצמו": 5415,
      "▁לעצמו": 5416,
      "ממת": 5417,
      "▁ממת": 5418,
      "והארנב": 5419,
      "▁והארנב": 5420,
      "העי": 5421,
      "▁העי": 5422,
      "העלי": 5423,
      "▁העלי": 5424,
      "ושמחה": 5425,
      "▁ושמחה": 5426,
      "וחזר": 5427,
      "▁וחזר": 5428,
      "כזה": 5429,
      "▁כזה": 5430,
      "מכל": 5431,
      "▁מכל": 5432,
      "תופסת": 5433,
      "▁תופסת": 5434,
      "ורצו": 5435,
      "▁ורצו": 5436,
      "אותנו": 5437,
      "▁אותנו": 5438,
      "עצמה": 5439,
      "▁עצמה": 5440,
      "הצנצנת": 5441,
      "▁הצנצנת": 5442,
      "אזל": 5443,
      "▁אזל": 5444,
      "בתו": 5445,
      "▁בתו": 5446,
      "נסעו": 5447,
      "▁נסעו": 5448,
      "למרות": 5449,
      "▁למרות": 5450,
      "ממתקים": 5451,
      "▁ממתקים": 5452,
      "סבי": 5453,
      "▁סבי": 5454,
      "צעיר": 5455,
      "▁צעיר": 5456,
      "היהלום": 5457,
      "▁היהלום": 5458,
      "לביתה": 5459,
      "▁לביתה": 5460,
      "עוק": 5461,
      "▁עוק": 5462,
      "מתח": 5463,
      "▁מתח": 5464,
      "ולקפוץ": 5465,
      "▁ולקפוץ": 5466,
      "במירוץ": 5467,
      "▁במירוץ": 5468,
      "ומפחיד": 5469,
      "▁ומפחיד": 5470,
      "כאילו": 5471,
      "▁כאילו": 5472,
      "היפים": 5473,
      "▁היפים": 5474,
      "משנה": 5475,
      "▁משנה": 5476,
      "ולאכול": 5477,
      "▁ולאכול": 5478,
      "שואלת": 5479,
      "▁שואלת": 5480,
      "הבקבוק": 5481,
      "▁הבקבוק": 5482,
      "הקטנים": 5483,
      "▁הקטנים": 5484,
      "וץ": 5485,
      "▁וץ": 5486,
      "מחר": 5487,
      "▁מחר": 5488,
      "מגדל": 5489,
      "▁מגדל": 5490,
      "קוף": 5491,
      "▁קוף": 5492,
      "המסיבה": 5493,
      "▁המסיבה": 5494,
      "הממתקים": 5495,
      "▁הממתקים": 5496,
      "להתחרות": 5497,
      "▁להתחרות": 5498,
      "וגאה": 5499,
      "▁וגאה": 5500,
      "וסכל": 5501,
      "▁וסכל": 5502,
      "גליים": 5503,
      "▁גליים": 5504,
      "בעצמו": 5505,
      "▁בעצמו": 5506,
      "זרקה": 5507,
      "▁זרקה": 5508,
      "טרייה": 5509,
      "▁טרייה": 5510,
      "הרופא": 5511,
      "▁הרופא": 5512,
      "ויצא": 5513,
      "▁ויצא": 5514,
      "ומשחקים": 5515,
      "▁ומשחקים": 5516,
      "פופי": 5517,
      "▁פופי": 5518,
      "הסגול": 5519,
      "▁הסגול": 5520,
      "פתי": 5521,
      "▁פתי": 5522,
      "איזה": 5523,
      "▁איזה": 5524,
      "נסעה": 5525,
      "▁נסעה": 5526,
      "סיימה": 5527,
      "▁סיימה": 5528,
      "מכן": 5529,
      "▁מכן": 5530,
      "סבא": 5531,
      "▁סבא": 5532,
      "העבודה": 5533,
      "▁העבודה": 5534,
      "לבחור": 5535,
      "▁לבחור": 5536,
      "כשאמא": 5537,
      "▁כשאמא": 5538,
      "גבוהה": 5539,
      "▁גבוהה": 5540,
      "כאב": 5541,
      "▁כאב": 5542,
      "מותק": 5543,
      "▁מותק": 5544,
      "חמוד": 5545,
      "▁חמוד": 5546,
      "נמצא": 5547,
      "▁נמצא": 5548,
      "קורה": 5549,
      "▁קורה": 5550,
      "הדלעת": 5551,
      "▁הדלעת": 5552,
      "הכרית": 5553,
      "▁הכרית": 5554,
      "הישן": 5555,
      "▁הישן": 5556,
      "געה": 5557,
      "▁געה": 5558,
      "לנה": 5559,
      "▁לנה": 5560,
      "ללוסי": 5561,
      "▁ללוסי": 5562,
      "עבר": 5563,
      "▁עבר": 5564,
      "שחי": 5565,
      "▁שחי": 5566,
      "ליפול": 5567,
      "▁ליפול": 5568,
      "התנין": 5569,
      "▁התנין": 5570,
      "טייק": 5571,
      "▁טייק": 5572,
      "הפרה": 5573,
      "▁הפרה": 5574,
      "בעת": 5575,
      "▁בעת": 5576,
      "בדשא": 5577,
      "▁בדשא": 5578,
      "אמין": 5579,
      "▁אמין": 5580,
      "קסמים": 5581,
      "▁קסמים": 5582,
      "לילדים": 5583,
      "▁לילדים": 5584,
      "מוזיקה": 5585,
      "▁מוזיקה": 5586,
      "אחיה": 5587,
      "▁אחיה": 5588,
      "גוג": 5589,
      "▁גוג": 5590,
      "זחל": 5591,
      "▁זחל": 5592,
      "קרן": 5593,
      "▁קרן": 5594,
      "מידה": 5595,
      "▁מידה": 5596,
      "שתלט": 5597,
      "▁שתלט": 5598,
      "במסיבה": 5599,
      "▁במסיבה": 5600,
      "כדורים": 5601,
      "▁כדורים": 5602,
      "משפחתה": 5603,
      "▁משפחתה": 5604,
      "השלט": 5605,
      "▁השלט": 5606,
      "ככל": 5607,
      "▁ככל": 5608,
      "פף": 5609,
      "▁פף": 5610,
      "צנצנת": 5611,
      "▁צנצנת": 5612,
      "ליום": 5613,
      "▁ליום": 5614,
      "מינה": 5615,
      "▁מינה": 5616,
      "הגר": 5617,
      "▁הגר": 5618,
      "מול": 5619,
      "▁מול": 5620,
      "צעד": 5621,
      "▁צעד": 5622,
      "אתן": 5623,
      "▁אתן": 5624,
      "הרא": 5625,
      "▁הרא": 5626,
      "בהתח": 5627,
      "▁בהתח": 5628,
      "העור": 5629,
      "▁העור": 5630,
      "ונעשו": 5631,
      "▁ונעשו": 5632,
      "מחלי": 5633,
      "▁מחלי": 5634,
      "אחרות": 5635,
      "▁אחרות": 5636,
      "תרנגול": 5637,
      "▁תרנגול": 5638,
      "וצחק": 5639,
      "▁וצחק": 5640,
      "כוא": 5641,
      "▁כוא": 5642,
      "חידה": 5643,
      "▁חידה": 5644,
      "והרי": 5645,
      "▁והרי": 5646,
      "מוס": 5647,
      "▁מוס": 5648,
      "שאלו": 5649,
      "▁שאלו": 5650,
      "צרות": 5651,
      "▁צרות": 5652,
      "ארוכה": 5653,
      "▁ארוכה": 5654,
      "וברחו": 5655,
      "▁וברחו": 5656,
      "המטבע": 5657,
      "▁המטבע": 5658,
      "בהתחלה": 5659,
      "▁בהתחלה": 5660,
      "בדברים": 5661,
      "▁בדברים": 5662,
      "מהירה": 5663,
      "▁מהירה": 5664,
      "סוד": 5665,
      "▁סוד": 5666,
      "עולם": 5667,
      "▁עולם": 5668,
      "ולמטה": 5669,
      "▁ולמטה": 5670,
      "לאפות": 5671,
      "▁לאפות": 5672,
      "מרושע": 5673,
      "▁מרושע": 5674,
      "לומד": 5675,
      "▁לומד": 5676,
      "לשטוף": 5677,
      "▁לשטוף": 5678,
      "הראש": 5679,
      "▁הראש": 5680,
      "ושת": 5681,
      "▁ושת": 5682,
      "ושמה": 5683,
      "▁ושמה": 5684,
      "פרצוף": 5685,
      "▁פרצוף": 5686,
      "בקר": 5687,
      "▁בקר": 5688,
      "וססג": 5689,
      "▁וססג": 5690,
      "תפסיק": 5691,
      "▁תפסיק": 5692,
      "ניגנו": 5693,
      "▁ניגנו": 5694,
      "למשוך": 5695,
      "▁למשוך": 5696,
      "ננית": 5697,
      "▁ננית": 5698,
      "שהיו": 5699,
      "▁שהיו": 5700,
      "ניגן": 5701,
      "▁ניגן": 5702,
      "מיטה": 5703,
      "▁מיטה": 5704,
      "הצלחת": 5705,
      "▁הצלחת": 5706,
      "רופא": 5707,
      "▁רופא": 5708,
      "כיל": 5709,
      "▁כיל": 5710,
      "השר": 5711,
      "▁השר": 5712,
      "לחפור": 5713,
      "▁לחפור": 5714,
      "הטעים": 5715,
      "▁הטעים": 5716,
      "הטלפון": 5717,
      "▁הטלפון": 5718,
      "אנדי": 5719,
      "▁אנדי": 5720,
      "והילד": 5721,
      "▁והילד": 5722,
      "לחייך": 5723,
      "▁לחייך": 5724,
      "לדאוג": 5725,
      "▁לדאוג": 5726,
      "רוצץ": 5727,
      "▁רוצץ": 5728,
      "בוך": 5729,
      "▁בוך": 5730,
      "לזרוק": 5731,
      "▁לזרוק": 5732,
      "בזנבו": 5733,
      "▁בזנבו": 5734,
      "רררררררר": 5735,
      "▁רררררררר": 5736,
      "בצבעים": 5737,
      "▁בצבעים": 5738,
      "יהיו": 5739,
      "▁יהיו": 5740,
      "כית": 5741,
      "▁כית": 5742,
      "שינו": 5743,
      "▁שינו": 5744,
      "ועגול": 5745,
      "▁ועגול": 5746,
      "הרעיון": 5747,
      "▁הרעיון": 5748,
      "הבטי": 5749,
      "▁הבטי": 5750,
      "ציירה": 5751,
      "▁ציירה": 5752,
      "אמילי": 5753,
      "▁אמילי": 5754,
      "חלב": 5755,
      "▁חלב": 5756,
      "מזה": 5757,
      "▁מזה": 5758,
      "מניות": 5759,
      "▁מניות": 5760,
      "סערה": 5761,
      "▁סערה": 5762,
      "ובטוח": 5763,
      "▁ובטוח": 5764,
      "והמשי": 5765,
      "▁והמשי": 5766,
      "המקור": 5767,
      "▁המקור": 5768,
      "השמיכה": 5769,
      "▁השמיכה": 5770,
      "הפרי": 5771,
      "▁הפרי": 5772,
      "מספר": 5773,
      "▁מספר": 5774,
      "ונגל": 5775,
      "▁ונגל": 5776,
      "ויתן": 5777,
      "▁ויתן": 5778,
      "הכרטיס": 5779,
      "▁הכרטיס": 5780,
      "בחדרה": 5781,
      "▁בחדרה": 5782,
      "מחייכים": 5783,
      "▁מחייכים": 5784,
      "זהירה": 5785,
      "▁זהירה": 5786,
      "קערה": 5787,
      "▁קערה": 5788,
      "בידי": 5789,
      "▁בידי": 5790,
      "בשים": 5791,
      "▁בשים": 5792,
      "נון": 5793,
      "▁נון": 5794,
      "הארון": 5795,
      "▁הארון": 5796,
      "כולנו": 5797,
      "▁כולנו": 5798,
      "נשברה": 5799,
      "▁נשברה": 5800,
      "ונפ": 5801,
      "▁ונפ": 5802,
      "מעבר": 5803,
      "▁מעבר": 5804,
      "פשף": 5805,
      "▁פשף": 5806,
      "צעקו": 5807,
      "▁צעקו": 5808,
      "יודעים": 5809,
      "▁יודעים": 5810,
      "הפסיקה": 5811,
      "▁הפסיקה": 5812,
      "נשארו": 5813,
      "▁נשארו": 5814,
      "אבי": 5815,
      "▁אבי": 5816,
      "גת": 5817,
      "▁גת": 5818,
      "לחד": 5819,
      "▁לחד": 5820,
      "המע": 5821,
      "▁המע": 5822,
      "רקות": 5823,
      "▁רקות": 5824,
      "כלבים": 5825,
      "▁כלבים": 5826,
      "מתוקים": 5827,
      "▁מתוקים": 5828,
      "יקרה": 5829,
      "▁יקרה": 5830,
      "בכלל": 5831,
      "▁בכלל": 5832,
      "הברז": 5833,
      "▁הברז": 5834,
      "בעצמה": 5835,
      "▁בעצמה": 5836,
      "זקוק": 5837,
      "▁זקוק": 5838,
      "אנוכי": 5839,
      "▁אנוכי": 5840,
      "עגול": 5841,
      "▁עגול": 5842,
      "צרה": 5843,
      "▁צרה": 5844,
      "תפחד": 5845,
      "▁תפחד": 5846,
      "איתנו": 5847,
      "▁איתנו": 5848,
      "ההורים": 5849,
      "▁ההורים": 5850,
      "דאגי": 5851,
      "▁דאגי": 5852,
      "לשלוח": 5853,
      "▁לשלוח": 5854,
      "דים": 5855,
      "▁דים": 5856,
      "פט": 5857,
      "▁פט": 5858,
      "והלכו": 5859,
      "▁והלכו": 5860,
      "המעיל": 5861,
      "▁המעיל": 5862,
      "הכרי": 5863,
      "▁הכרי": 5864,
      "טייני": 5865,
      "▁טייני": 5866,
      "הקרח": 5867,
      "▁הקרח": 5868,
      "ניתי": 5869,
      "▁ניתי": 5870,
      "אחות": 5871,
      "▁אחות": 5872,
      "געגע": 5873,
      "▁געגע": 5874,
      "הביא": 5875,
      "▁הביא": 5876,
      "השינה": 5877,
      "▁השינה": 5878,
      "וחשבה": 5879,
      "▁וחשבה": 5880,
      "הוציאה": 5881,
      "▁הוציאה": 5882,
      "אקדח": 5883,
      "▁אקדח": 5884,
      "והייתה": 5885,
      "▁והייתה": 5886,
      "חבל": 5887,
      "▁חבל": 5888,
      "חלוק": 5889,
      "▁חלוק": 5890,
      "תדאגי": 5891,
      "▁תדאגי": 5892,
      "ובעים": 5893,
      "▁ובעים": 5894,
      "להזיז": 5895,
      "▁להזיז": 5896,
      "מקווה": 5897,
      "▁מקווה": 5898,
      "עומד": 5899,
      "▁עומד": 5900,
      "וחשה": 5901,
      "▁וחשה": 5902,
      "בשבילה": 5903,
      "▁בשבילה": 5904,
      "איבדה": 5905,
      "▁איבדה": 5906,
      "הופ": 5907,
      "▁הופ": 5908,
      "פע": 5909,
      "▁פע": 5910,
      "ואכל": 5911,
      "▁ואכל": 5912,
      "לשבור": 5913,
      "▁לשבור": 5914,
      "שלהן": 5915,
      "▁שלהן": 5916,
      "שוט": 5917,
      "▁שוט": 5918,
      "ישנה": 5919,
      "▁ישנה": 5920,
      "דרכה": 5921,
      "▁דרכה": 5922,
      "חזקים": 5923,
      "▁חזקים": 5924,
      "כתוב": 5925,
      "▁כתוב": 5926,
      "בב": 5927,
      "▁בב": 5928,
      "ונים": 5929,
      "▁ונים": 5930,
      "וחייכו": 5931,
      "▁וחייכו": 5932,
      "מכתב": 5933,
      "▁מכתב": 5934,
      "להס": 5935,
      "▁להס": 5936,
      "והתי": 5937,
      "▁והתי": 5938,
      "מיי": 5939,
      "▁מיי": 5940,
      "פופ": 5941,
      "▁פופ": 5942,
      "מושי": 5943,
      "▁מושי": 5944,
      "האדם": 5945,
      "▁האדם": 5946,
      "חייבת": 5947,
      "▁חייבת": 5948,
      "הוגן": 5949,
      "▁הוגן": 5950,
      "לטת": 5951,
      "▁לטת": 5952,
      "כועסת": 5953,
      "▁כועסת": 5954,
      "מחבקת": 5955,
      "▁מחבקת": 5956,
      "הוציא": 5957,
      "▁הוציא": 5958,
      "אמן": 5959,
      "▁אמן": 5960,
      "ביישן": 5961,
      "▁ביישן": 5962,
      "הענ": 5963,
      "▁הענ": 5964,
      "שניכם": 5965,
      "▁שניכם": 5966,
      "ברווזים": 5967,
      "▁ברווזים": 5968,
      "התקשרה": 5969,
      "▁התקשרה": 5970,
      "בפ": 5971,
      "▁בפ": 5972,
      "טון": 5973,
      "▁טון": 5974,
      "סאני": 5975,
      "▁סאני": 5976,
      "צורות": 5977,
      "▁צורות": 5978,
      "ועכ": 5979,
      "▁ועכ": 5980,
      "משאלה": 5981,
      "▁משאלה": 5982,
      "חלום": 5983,
      "▁חלום": 5984,
      "וחלקו": 5985,
      "▁וחלקו": 5986,
      "נתי": 5987,
      "▁נתי": 5988,
      "ששיחקו": 5989,
      "▁ששיחקו": 5990,
      "אופניים": 5991,
      "▁אופניים": 5992,
      "האצבע": 5993,
      "▁האצבע": 5994,
      "עיניים": 5995,
      "▁עיניים": 5996,
      "קרח": 5997,
      "▁קרח": 5998,
      "קרר": 5999,
      "▁קרר": 6000,
      "ונראה": 6001,
      "▁ונראה": 6002,
      "להתנהג": 6003,
      "▁להתנהג": 6004,
      "הביצה": 6005,
      "▁הביצה": 6006,
      "סלעים": 6007,
      "▁סלעים": 6008,
      "זכרו": 6009,
      "▁זכרו": 6010,
      "לשתף": 6011,
      "▁לשתף": 6012,
      "דותית": 6013,
      "▁דותית": 6014,
      "אפור": 6015,
      "▁אפור": 6016,
      "בהירה": 6017,
      "▁בהירה": 6018,
      "זמין": 6019,
      "▁זמין": 6020,
      "כלי": 6021,
      "▁כלי": 6022,
      "כמי": 6023,
      "▁כמי": 6024,
      "קסומה": 6025,
      "▁קסומה": 6026,
      "שב": 6027,
      "▁שב": 6028,
      "שכולם": 6029,
      "▁שכולם": 6030,
      "לימד": 6031,
      "▁לימד": 6032,
      "חיכה": 6033,
      "▁חיכה": 6034,
      "גדלה": 6035,
      "▁גדלה": 6036,
      "לעוס": 6037,
      "▁לעוס": 6038,
      "גרת": 6039,
      "▁גרת": 6040,
      "צופה": 6041,
      "▁צופה": 6042,
      "נפים": 6043,
      "▁נפים": 6044,
      "מטופ": 6045,
      "▁מטופ": 6046,
      "בחדרו": 6047,
      "▁בחדרו": 6048,
      "כמיטב": 6049,
      "▁כמיטב": 6050,
      "ככה": 6051,
      "▁ככה": 6052,
      "לחיות": 6053,
      "▁לחיות": 6054,
      "החלו": 6055,
      "▁החלו": 6056,
      "לשולחן": 6057,
      "▁לשולחן": 6058,
      "הרך": 6059,
      "▁הרך": 6060,
      "לעבר": 6061,
      "▁לעבר": 6062,
      "חברתה": 6063,
      "▁חברתה": 6064,
      "הולכת": 6065,
      "▁הולכת": 6066,
      "האוצר": 6067,
      "▁האוצר": 6068,
      "אדיבים": 6069,
      "▁אדיבים": 6070,
      "זנב": 6071,
      "▁זנב": 6072,
      "מאה": 6073,
      "▁מאה": 6074,
      "מהש": 6075,
      "▁מהש": 6076,
      "ועז": 6077,
      "▁ועז": 6078,
      "הנמר": 6079,
      "▁הנמר": 6080,
      "זכור": 6081,
      "▁זכור": 6082,
      "החזיקו": 6083,
      "▁החזיקו": 6084,
      "ועכשיו": 6085,
      "▁ועכשיו": 6086,
      "אגם": 6087,
      "▁אגם": 6088,
      "דש": 6089,
      "▁דש": 6090,
      "הנסיכה": 6091,
      "▁הנסיכה": 6092,
      "לפחד": 6093,
      "▁לפחד": 6094,
      "מבוגר": 6095,
      "▁מבוגר": 6096,
      "קטה": 6097,
      "▁קטה": 6098,
      "ועית": 6099,
      "▁ועית": 6100,
      "חתי": 6101,
      "▁חתי": 6102,
      "מאושרות": 6103,
      "▁מאושרות": 6104,
      "נותנת": 6105,
      "▁נותנת": 6106,
      "פגטי": 6107,
      "▁פגטי": 6108,
      "הצינור": 6109,
      "▁הצינור": 6110,
      "פרונות": 6111,
      "▁פרונות": 6112,
      "לפגוש": 6113,
      "▁לפגוש": 6114,
      "רועש": 6115,
      "▁רועש": 6116,
      "במה": 6117,
      "▁במה": 6118,
      "בפני": 6119,
      "▁בפני": 6120,
      "ועם": 6121,
      "▁ועם": 6122,
      "צנוע": 6123,
      "▁צנוע": 6124,
      "שמר": 6125,
      "▁שמר": 6126,
      "ולשים": 6127,
      "▁ולשים": 6128,
      "גיבור": 6129,
      "▁גיבור": 6130,
      "הערב": 6131,
      "▁הערב": 6132,
      "העכביש": 6133,
      "▁העכביש": 6134,
      "מתוסכל": 6135,
      "▁מתוסכל": 6136,
      "תיר": 6137,
      "▁תיר": 6138,
      "הניחה": 6139,
      "▁הניחה": 6140,
      "מצחיקים": 6141,
      "▁מצחיקים": 6142,
      "אדיבה": 6143,
      "▁אדיבה": 6144,
      "מסתכלת": 6145,
      "▁מסתכלת": 6146,
      "הקשיבו": 6147,
      "▁הקשיבו": 6148,
      "אסיר": 6149,
      "▁אסיר": 6150,
      "גבר": 6151,
      "▁גבר": 6152,
      "טעם": 6153,
      "▁טעם": 6154,
      "לזמן": 6155,
      "▁לזמן": 6156,
      "רכ": 6157,
      "▁רכ": 6158,
      "היטב": 6159,
      "▁היטב": 6160,
      "להור": 6161,
      "▁להור": 6162,
      "הרגליים": 6163,
      "▁הרגליים": 6164,
      "הצל": 6165,
      "▁הצל": 6166,
      "פיס": 6167,
      "▁פיס": 6168,
      "פיצה": 6169,
      "▁פיצה": 6170,
      "השבור": 6171,
      "▁השבור": 6172,
      "ראשון": 6173,
      "▁ראשון": 6174,
      "ודיברו": 6175,
      "▁ודיברו": 6176,
      "סבלני": 6177,
      "▁סבלני": 6178,
      "אהיה": 6179,
      "▁אהיה": 6180,
      "בכנ": 6181,
      "▁בכנ": 6182,
      "בלילה": 6183,
      "▁בלילה": 6184,
      "גזר": 6185,
      "▁גזר": 6186,
      "חמט": 6187,
      "▁חמט": 6188,
      "סלי": 6189,
      "▁סלי": 6190,
      "החם": 6191,
      "▁החם": 6192,
      "סוזי": 6193,
      "▁סוזי": 6194,
      "האיכר": 6195,
      "▁האיכר": 6196,
      "דוף": 6197,
      "▁דוף": 6198,
      "ונפל": 6199,
      "▁ונפל": 6200,
      "וכים": 6201,
      "▁וכים": 6202,
      "טיפסו": 6203,
      "▁טיפסו": 6204,
      "כפתור": 6205,
      "▁כפתור": 6206,
      "עמוקה": 6207,
      "▁עמוקה": 6208,
      "עמדה": 6209,
      "▁עמדה": 6210,
      "בראשה": 6211,
      "▁בראשה": 6212,
      "הצהוב": 6213,
      "▁הצהוב": 6214,
      "גרו": 6215,
      "▁גרו": 6216,
      "ושמחים": 6217,
      "▁ושמחים": 6218,
      "וחבריה": 6219,
      "▁וחבריה": 6220,
      "טור": 6221,
      "▁טור": 6222,
      "ללעוס": 6223,
      "▁ללעוס": 6224,
      "נפתח": 6225,
      "▁נפתח": 6226,
      "חיכו": 6227,
      "▁חיכו": 6228,
      "והח": 6229,
      "▁והח": 6230,
      "שהציפור": 6231,
      "▁שהציפור": 6232,
      "עצמא": 6233,
      "▁עצמא": 6234,
      "אמרתי": 6235,
      "▁אמרתי": 6236,
      "ביצה": 6237,
      "▁ביצה": 6238,
      "ועיל": 6239,
      "▁ועיל": 6240,
      "מקרוב": 6241,
      "▁מקרוב": 6242,
      "כשאתה": 6243,
      "▁כשאתה": 6244,
      "גבינה": 6245,
      "▁גבינה": 6246,
      "ההרפתקה": 6247,
      "▁ההרפתקה": 6248,
      "טע": 6249,
      "▁טע": 6250,
      "יב": 6251,
      "▁יב": 6252,
      "פסה": 6253,
      "▁פסה": 6254,
      "לאו": 6255,
      "▁לאו": 6256,
      "מקומות": 6257,
      "▁מקומות": 6258,
      "פיטר": 6259,
      "▁פיטר": 6260,
      "להילחם": 6261,
      "▁להילחם": 6262,
      "אגוז": 6263,
      "▁אגוז": 6264,
      "מפחדים": 6265,
      "▁מפחדים": 6266,
      "גרי": 6267,
      "▁גרי": 6268,
      "מגי": 6269,
      "▁מגי": 6270,
      "מכי": 6271,
      "▁מכי": 6272,
      "צלחת": 6273,
      "▁צלחת": 6274,
      "קשר": 6275,
      "▁קשר": 6276,
      "ובוב": 6277,
      "▁ובוב": 6278,
      "פינוק": 6279,
      "▁פינוק": 6280,
      "הזאב": 6281,
      "▁הזאב": 6282,
      "לטף": 6283,
      "▁לטף": 6284,
      "המילים": 6285,
      "▁המילים": 6286,
      "קוראים": 6287,
      "▁קוראים": 6288,
      "לאיימי": 6289,
      "▁לאיימי": 6290,
      "שעזרת": 6291,
      "▁שעזרת": 6292,
      "דק": 6293,
      "▁דק": 6294,
      "חמוץ": 6295,
      "▁חמוץ": 6296,
      "טעות": 6297,
      "▁טעות": 6298,
      "למשפחה": 6299,
      "▁למשפחה": 6300,
      "מכו": 6301,
      "▁מכו": 6302,
      "היונה": 6303,
      "▁היונה": 6304,
      "הסולם": 6305,
      "▁הסולם": 6306,
      "הכבוד": 6307,
      "▁הכבוד": 6308,
      "באמצ": 6309,
      "▁באמצ": 6310,
      "רעים": 6311,
      "▁רעים": 6312,
      "לנמנם": 6313,
      "▁לנמנם": 6314,
      "צעדו": 6315,
      "▁צעדו": 6316,
      "והציפורים": 6317,
      "▁והציפורים": 6318,
      "אלא": 6319,
      "▁אלא": 6320,
      "בפה": 6321,
      "▁בפה": 6322,
      "הקט": 6323,
      "▁הקט": 6324,
      "מבין": 6325,
      "▁מבין": 6326,
      "והס": 6327,
      "▁והס": 6328,
      "מירוץ": 6329,
      "▁מירוץ": 6330,
      "גשות": 6331,
      "▁גשות": 6332,
      "עכביש": 6333,
      "▁עכביש": 6334,
      "משחקת": 6335,
      "▁משחקת": 6336,
      "ויף": 6337,
      "▁ויף": 6338,
      "וירוק": 6339,
      "▁וירוק": 6340,
      "נראים": 6341,
      "▁נראים": 6342,
      "נפלו": 6343,
      "▁נפלו": 6344,
      "נפגע": 6345,
      "▁נפגע": 6346,
      "נוצצים": 6347,
      "▁נוצצים": 6348,
      "ברחוב": 6349,
      "▁ברחוב": 6350,
      "וברחה": 6351,
      "▁וברחה": 6352,
      "בנ": 6353,
      "▁בנ": 6354,
      "הלה": 6355,
      "▁הלה": 6356,
      "כיפית": 6357,
      "▁כיפית": 6358,
      "פך": 6359,
      "▁פך": 6360,
      "ליט": 6361,
      "▁ליט": 6362,
      "להמשיך": 6363,
      "▁להמשיך": 6364,
      "מהות": 6365,
      "▁מהות": 6366,
      "מצי": 6367,
      "▁מצי": 6368,
      "שאולי": 6369,
      "▁שאולי": 6370,
      "נחל": 6371,
      "▁נחל": 6372,
      "וחם": 6373,
      "▁וחם": 6374,
      "גרטל": 6375,
      "▁גרטל": 6376,
      "לחבריה": 6377,
      "▁לחבריה": 6378,
      "הכלים": 6379,
      "▁הכלים": 6380,
      "להוציא": 6381,
      "▁להוציא": 6382,
      "דלי": 6383,
      "▁דלי": 6384,
      "דבש": 6385,
      "▁דבש": 6386,
      "דופ": 6387,
      "▁דופ": 6388,
      "דבורה": 6389,
      "▁דבורה": 6390,
      "ועצוב": 6391,
      "▁ועצוב": 6392,
      "כשלילי": 6393,
      "▁כשלילי": 6394,
      "לסי": 6395,
      "▁לסי": 6396,
      "מכדי": 6397,
      "▁מכדי": 6398,
      "פן": 6399,
      "▁פן": 6400,
      "ותפס": 6401,
      "▁ותפס": 6402,
      "להגן": 6403,
      "▁להגן": 6404,
      "התמונות": 6405,
      "▁התמונות": 6406,
      "ריקה": 6407,
      "▁ריקה": 6408,
      "הקשה": 6409,
      "▁הקשה": 6410,
      "עוגייה": 6411,
      "▁עוגייה": 6412,
      "ופלאפי": 6413,
      "▁ופלאפי": 6414,
      "שתו": 6415,
      "▁שתו": 6416,
      "שכחו": 6417,
      "▁שכחו": 6418,
      "מבולגן": 6419,
      "▁מבולגן": 6420,
      "ומחאו": 6421,
      "▁ומחאו": 6422,
      "נראו": 6423,
      "▁נראו": 6424,
      "שמי": 6425,
      "▁שמי": 6426,
      "והל": 6427,
      "▁והל": 6428,
      "שיכל": 6429,
      "▁שיכל": 6430,
      "נוקים": 6431,
      "▁נוקים": 6432,
      "בוט": 6433,
      "▁בוט": 6434,
      "סיף": 6435,
      "▁סיף": 6436,
      "השבורה": 6437,
      "▁השבורה": 6438,
      "השביל": 6439,
      "▁השביל": 6440,
      "הפעמון": 6441,
      "▁הפעמון": 6442,
      "בטלוויזיה": 6443,
      "▁בטלוויזיה": 6444,
      "עשיתי": 6445,
      "▁עשיתי": 6446,
      "נהדרת": 6447,
      "▁נהדרת": 6448,
      "קורן": 6449,
      "▁קורן": 6450,
      "הברבור": 6451,
      "▁הברבור": 6452,
      "עולה": 6453,
      "▁עולה": 6454,
      "ברחו": 6455,
      "▁ברחו": 6456,
      "שמנ": 6457,
      "▁שמנ": 6458,
      "ריק": 6459,
      "▁ריק": 6460,
      "מדהי": 6461,
      "▁מדהי": 6462,
      "גשתי": 6463,
      "▁גשתי": 6464,
      "נסים": 6465,
      "▁נסים": 6466,
      "לוקחת": 6467,
      "▁לוקחת": 6468,
      "כנסיים": 6469,
      "▁כנסיים": 6470,
      "בעיה": 6471,
      "▁בעיה": 6472,
      "מזיק": 6473,
      "▁מזיק": 6474,
      "אבנים": 6475,
      "▁אבנים": 6476,
      "הלוח": 6477,
      "▁הלוח": 6478,
      "הטירה": 6479,
      "▁הטירה": 6480,
      "מכ": 6481,
      "▁מכ": 6482,
      "קוב": 6483,
      "▁קוב": 6484,
      "קוע": 6485,
      "▁קוע": 6486,
      "תחת": 6487,
      "▁תחת": 6488,
      "לאנה": 6489,
      "▁לאנה": 6490,
      "שהכלב": 6491,
      "▁שהכלב": 6492,
      "עצור": 6493,
      "▁עצור": 6494,
      "בילה": 6495,
      "▁בילה": 6496,
      "הצמח": 6497,
      "▁הצמח": 6498,
      "התולעת": 6499,
      "▁התולעת": 6500,
      "לקרות": 6501,
      "▁לקרות": 6502,
      "גרמו": 6503,
      "▁גרמו": 6504,
      "עליי": 6505,
      "▁עליי": 6506,
      "נסער": 6507,
      "▁נסער": 6508,
      "להתקרב": 6509,
      "▁להתקרב": 6510,
      "הריעו": 6511,
      "▁הריעו": 6512,
      "מעיל": 6513,
      "▁מעיל": 6514,
      "צועה": 6515,
      "▁צועה": 6516,
      "רחו": 6517,
      "▁רחו": 6518,
      "כלים": 6519,
      "▁כלים": 6520,
      "מילי": 6521,
      "▁מילי": 6522,
      "רוקה": 6523,
      "▁רוקה": 6524,
      "כוכבים": 6525,
      "▁כוכבים": 6526,
      "משקפי": 6527,
      "▁משקפי": 6528,
      "מדברים": 6529,
      "▁מדברים": 6530,
      "כתום": 6531,
      "▁כתום": 6532,
      "סרט": 6533,
      "▁סרט": 6534,
      "ועדון": 6535,
      "▁ועדון": 6536,
      "וכועס": 6537,
      "▁וכועס": 6538,
      "בבוקר": 6539,
      "▁בבוקר": 6540,
      "חנות": 6541,
      "▁חנות": 6542,
      "לפתור": 6543,
      "▁לפתור": 6544,
      "מעים": 6545,
      "▁מעים": 6546,
      "הרע": 6547,
      "▁הרע": 6548,
      "הכפפה": 6549,
      "▁הכפפה": 6550,
      "שומעים": 6551,
      "▁שומעים": 6552,
      "בתיק": 6553,
      "▁בתיק": 6554,
      "עצובות": 6555,
      "▁עצובות": 6556,
      "לחץ": 6557,
      "▁לחץ": 6558,
      "יוכל": 6559,
      "▁יוכל": 6560,
      "הנסיך": 6561,
      "▁הנסיך": 6562,
      "עורר": 6563,
      "▁עורר": 6564,
      "ווים": 6565,
      "▁ווים": 6566,
      "העוגייה": 6567,
      "▁העוגייה": 6568,
      "במד": 6569,
      "▁במד": 6570,
      "דבק": 6571,
      "▁דבק": 6572,
      "צמח": 6573,
      "▁צמח": 6574,
      "תחזיר": 6575,
      "▁תחזיר": 6576,
      "חתיכת": 6577,
      "▁חתיכת": 6578,
      "חרחור": 6579,
      "▁חרחור": 6580,
      "חדשות": 6581,
      "▁חדשות": 6582,
      "בסר": 6583,
      "▁בסר": 6584,
      "הזקנה": 6585,
      "▁הזקנה": 6586,
      "הנכון": 6587,
      "▁הנכון": 6588,
      "קולד": 6589,
      "▁קולד": 6590,
      "נשארה": 6591,
      "▁נשארה": 6592,
      "זרועות": 6593,
      "▁זרועות": 6594,
      "מסיבת": 6595,
      "▁מסיבת": 6596,
      "לנהוג": 6597,
      "▁לנהוג": 6598,
      "גו": 6599,
      "▁גו": 6600,
      "הלא": 6601,
      "▁הלא": 6602,
      "החיה": 6603,
      "▁החיה": 6604,
      "מלך": 6605,
      "▁מלך": 6606,
      "עשיר": 6607,
      "▁עשיר": 6608,
      "צן": 6609,
      "▁צן": 6610,
      "רכב": 6611,
      "▁רכב": 6612,
      "תחזור": 6613,
      "▁תחזור": 6614,
      "נייה": 6615,
      "▁נייה": 6616,
      "שמשהו": 6617,
      "▁שמשהו": 6618,
      "אחותו": 6619,
      "▁אחותו": 6620,
      "מגעיל": 6621,
      "▁מגעיל": 6622,
      "פרווה": 6623,
      "▁פרווה": 6624,
      "ולצפות": 6625,
      "▁ולצפות": 6626,
      "לפסגה": 6627,
      "▁לפסגה": 6628,
      "העליון": 6629,
      "▁העליון": 6630,
      "הטיל": 6631,
      "▁הטיל": 6632,
      "חבש": 6633,
      "▁חבש": 6634,
      "שאת": 6635,
      "▁שאת": 6636,
      "מיס": 6637,
      "▁מיס": 6638,
      "המלח": 6639,
      "▁המלח": 6640,
      "האף": 6641,
      "▁האף": 6642,
      "שומר": 6643,
      "▁שומר": 6644,
      "יוצ": 6645,
      "▁יוצ": 6646,
      "הנק": 6647,
      "▁הנק": 6648,
      "מהחלון": 6649,
      "▁מהחלון": 6650,
      "יושבת": 6651,
      "▁יושבת": 6652,
      "פופקורן": 6653,
      "▁פופקורן": 6654,
      "אבוד": 6655,
      "▁אבוד": 6656,
      "בטי": 6657,
      "▁בטי": 6658,
      "בבריכה": 6659,
      "▁בבריכה": 6660,
      "לטוס": 6661,
      "▁לטוס": 6662,
      "לשלם": 6663,
      "▁לשלם": 6664,
      "ולמצוא": 6665,
      "▁ולמצוא": 6666,
      "יתית": 6667,
      "▁יתית": 6668,
      "המלון": 6669,
      "▁המלון": 6670,
      "סוס": 6671,
      "▁סוס": 6672,
      "לחלון": 6673,
      "▁לחלון": 6674,
      "רעבה": 6675,
      "▁רעבה": 6676,
      "וכר": 6677,
      "▁וכר": 6678,
      "הריבה": 6679,
      "▁הריבה": 6680,
      "פורסם": 6681,
      "▁פורסם": 6682,
      "סבלנות": 6683,
      "▁סבלנות": 6684,
      "נשימה": 6685,
      "▁נשימה": 6686,
      "הסתובבה": 6687,
      "▁הסתובבה": 6688,
      "גות": 6689,
      "▁גות": 6690,
      "מפה": 6691,
      "▁מפה": 6692,
      "מבט": 6693,
      "▁מבט": 6694,
      "שקופית": 6695,
      "▁שקופית": 6696,
      "ברך": 6697,
      "▁ברך": 6698,
      "החמה": 6699,
      "▁החמה": 6700,
      "דיבר": 6701,
      "▁דיבר": 6702,
      "רוז": 6703,
      "▁רוז": 6704,
      "ריץ": 6705,
      "▁ריץ": 6706,
      "פיות": 6707,
      "▁פיות": 6708,
      "השער": 6709,
      "▁השער": 6710,
      "מתחי": 6711,
      "▁מתחי": 6712,
      "החתולה": 6713,
      "▁החתולה": 6714,
      "הופתע": 6715,
      "▁הופתע": 6716,
      "מעניין": 6717,
      "▁מעניין": 6718,
      "צוות": 6719,
      "▁צוות": 6720,
      "חלקה": 6721,
      "▁חלקה": 6722,
      "מנון": 6723,
      "▁מנון": 6724,
      "ראשו": 6725,
      "▁ראשו": 6726,
      "החזירה": 6727,
      "▁החזירה": 6728,
      "העיניים": 6729,
      "▁העיניים": 6730,
      "הטובה": 6731,
      "▁הטובה": 6732,
      "ונש": 6733,
      "▁ונש": 6734,
      "וחזרה": 6735,
      "▁וחזרה": 6736,
      "וצוחקים": 6737,
      "▁וצוחקים": 6738,
      "מכאן": 6739,
      "▁מכאן": 6740,
      "צופים": 6741,
      "▁צופים": 6742,
      "לעמוד": 6743,
      "▁לעמוד": 6744,
      "סוכר": 6745,
      "▁סוכר": 6746,
      "הבטיח": 6747,
      "▁הבטיח": 6748,
      "הקובי": 6749,
      "▁הקובי": 6750,
      "בארץ": 6751,
      "▁בארץ": 6752,
      "לחצר": 6753,
      "▁לחצר": 6754,
      "מסודר": 6755,
      "▁מסודר": 6756,
      "פסודה": 6757,
      "▁פסודה": 6758,
      "וכמה": 6759,
      "▁וכמה": 6760,
      "אליס": 6761,
      "▁אליס": 6762,
      "סרטן": 6763,
      "▁סרטן": 6764,
      "טוסט": 6765,
      "▁טוסט": 6766,
      "גורם": 6767,
      "▁גורם": 6768,
      "כמניות": 6769,
      "▁כמניות": 6770,
      "אכיל": 6771,
      "▁אכיל": 6772,
      "יהם": 6773,
      "▁יהם": 6774,
      "מרטו": 6775,
      "▁מרטו": 6776,
      "והראתה": 6777,
      "▁והראתה": 6778,
      "הרחק": 6779,
      "▁הרחק": 6780,
      "לדלת": 6781,
      "▁לדלת": 6782,
      "לעבור": 6783,
      "▁לעבור": 6784,
      "ושים": 6785,
      "▁ושים": 6786,
      "לצד": 6787,
      "▁לצד": 6788,
      "רעבים": 6789,
      "▁רעבים": 6790,
      "הוורוד": 6791,
      "▁הוורוד": 6792,
      "צוצרה": 6793,
      "▁צוצרה": 6794,
      "כרית": 6795,
      "▁כרית": 6796,
      "הברווזים": 6797,
      "▁הברווזים": 6798,
      "אספו": 6799,
      "▁אספו": 6800,
      "הגן": 6801,
      "▁הגן": 6802,
      "נמר": 6803,
      "▁נמר": 6804,
      "קדח": 6805,
      "▁קדח": 6806,
      "ניבה": 6807,
      "▁ניבה": 6808,
      "ודות": 6809,
      "▁ודות": 6810,
      "חקו": 6811,
      "▁חקו": 6812,
      "אווה": 6813,
      "▁אווה": 6814,
      "שאפילו": 6815,
      "▁שאפילו": 6816,
      "הגדולות": 6817,
      "▁הגדולות": 6818,
      "ציור": 6819,
      "▁ציור": 6820,
      "הביטו": 6821,
      "▁הביטו": 6822,
      "לסלע": 6823,
      "▁לסלע": 6824,
      "בוקדו": 6825,
      "▁בוקדו": 6826,
      "הסרט": 6827,
      "▁הסרט": 6828,
      "האישה": 6829,
      "▁האישה": 6830,
      "הארנק": 6831,
      "▁הארנק": 6832,
      "והריעו": 6833,
      "▁והריעו": 6834,
      "מהי": 6835,
      "▁מהי": 6836,
      "נעליים": 6837,
      "▁נעליים": 6838,
      "ולחקור": 6839,
      "▁ולחקור": 6840,
      "שלמת": 6841,
      "▁שלמת": 6842,
      "והכדור": 6843,
      "▁והכדור": 6844,
      "מיע": 6845,
      "▁מיע": 6846,
      "אושר": 6847,
      "▁אושר": 6848,
      "מוטר": 6849,
      "▁מוטר": 6850,
      "ידוע": 6851,
      "▁ידוע": 6852,
      "הנעליים": 6853,
      "▁הנעליים": 6854,
      "האוטובוס": 6855,
      "▁האוטובוס": 6856,
      "מריא": 6857,
      "▁מריא": 6858,
      "והחליטה": 6859,
      "▁והחליטה": 6860,
      "הההההההה": 6861,
      "▁הההההההה": 6862,
      "הקטנות": 6863,
      "▁הקטנות": 6864,
      "יעזור": 6865,
      "▁יעזור": 6866,
      "עום": 6867,
      "▁עום": 6868,
      "תוך": 6869,
      "▁תוך": 6870,
      "ולבסוף": 6871,
      "▁ולבסוף": 6872,
      "ועזרה": 6873,
      "▁ועזרה": 6874,
      "ושרה": 6875,
      "▁ושרה": 6876,
      "הכסף": 6877,
      "▁הכסף": 6878,
      "כשפה": 6879,
      "▁כשפה": 6880,
      "וקופ": 6881,
      "▁וקופ": 6882,
      "נפנ": 6883,
      "▁נפנ": 6884,
      "ההודו": 6885,
      "▁ההודו": 6886,
      "לחתיכות": 6887,
      "▁לחתיכות": 6888,
      "המשחקים": 6889,
      "▁המשחקים": 6890,
      "עסוקה": 6891,
      "▁עסוקה": 6892,
      "עקשן": 6893,
      "▁עקשן": 6894,
      "התקרבה": 6895,
      "▁התקרבה": 6896,
      "סליחה": 6897,
      "▁סליחה": 6898,
      "חרחורת": 6899,
      "▁חרחורת": 6900,
      "בציפור": 6901,
      "▁בציפור": 6902,
      "וקר": 6903,
      "▁וקר": 6904,
      "ועצובה": 6905,
      "▁ועצובה": 6906,
      "וחיבק": 6907,
      "▁וחיבק": 6908,
      "ופרחים": 6909,
      "▁ופרחים": 6910,
      "צוד": 6911,
      "▁צוד": 6912,
      "קח": 6913,
      "▁קח": 6914,
      "תפו": 6915,
      "▁תפו": 6916,
      "ולרוץ": 6917,
      "▁ולרוץ": 6918,
      "לאורך": 6919,
      "▁לאורך": 6920,
      "והן": 6921,
      "▁והן": 6922,
      "מיהר": 6923,
      "▁מיהר": 6924,
      "ועזר": 6925,
      "▁ועזר": 6926,
      "פופוט": 6927,
      "▁פופוט": 6928,
      "פופול": 6929,
      "▁פופול": 6930,
      "התפוחים": 6931,
      "▁התפוחים": 6932,
      "האמין": 6933,
      "▁האמין": 6934,
      "פינוקים": 6935,
      "▁פינוקים": 6936,
      "שיחקנו": 6937,
      "▁שיחקנו": 6938,
      "ישר": 6939,
      "▁ישר": 6940,
      "למדוד": 6941,
      "▁למדוד": 6942,
      "ונחת": 6943,
      "▁ונחת": 6944,
      "רגוע": 6945,
      "▁רגוע": 6946,
      "גלגלים": 6947,
      "▁גלגלים": 6948,
      "המגף": 6949,
      "▁המגף": 6950,
      "גבוהים": 6951,
      "▁גבוהים": 6952,
      "כשיטים": 6953,
      "▁כשיטים": 6954,
      "צפתה": 6955,
      "▁צפתה": 6956,
      "תעזור": 6957,
      "▁תעזור": 6958,
      "לארנב": 6959,
      "▁לארנב": 6960,
      "ודא": 6961,
      "▁ודא": 6962,
      "החלב": 6963,
      "▁החלב": 6964,
      "לוש": 6965,
      "▁לוש": 6966,
      "המושב": 6967,
      "▁המושב": 6968,
      "שוח": 6969,
      "▁שוח": 6970,
      "כשכש": 6971,
      "▁כשכש": 6972,
      "לטעום": 6973,
      "▁לטעום": 6974,
      "וטסה": 6975,
      "▁וטסה": 6976,
      "נעלמו": 6977,
      "▁נעלמו": 6978,
      "דחפו": 6979,
      "▁דחפו": 6980,
      "שכחה": 6981,
      "▁שכחה": 6982,
      "לבדוק": 6983,
      "▁לבדוק": 6984,
      "וקפצו": 6985,
      "▁וקפצו": 6986,
      "הלימון": 6987,
      "▁הלימון": 6988,
      "ואהבה": 6989,
      "▁ואהבה": 6990,
      "פרסק": 6991,
      "▁פרסק": 6992,
      "הצהובה": 6993,
      "▁הצהובה": 6994,
      "ורקדו": 6995,
      "▁ורקדו": 6996,
      "משתמש": 6997,
      "▁משתמש": 6998,
      "המוזיקה": 6999,
      "▁המוזיקה": 7000,
      "באמצע": 7001,
      "▁באמצע": 7002,
      "נגע": 7003,
      "▁נגע": 7004,
      "פץ": 7005,
      "▁פץ": 7006,
      "לימון": 7007,
      "▁לימון": 7008,
      "ביצים": 7009,
      "▁ביצים": 7010,
      "הרשת": 7011,
      "▁הרשת": 7012,
      "מוח": 7013,
      "▁מוח": 7014,
      "האמת": 7015,
      "▁האמת": 7016,
      "העיפרון": 7017,
      "▁העיפרון": 7018,
      "למדתי": 7019,
      "▁למדתי": 7020,
      "החליק": 7021,
      "▁החליק": 7022,
      "ציירו": 7023,
      "▁ציירו": 7024,
      "הנמלים": 7025,
      "▁הנמלים": 7026,
      "לטאה": 7027,
      "▁לטאה": 7028,
      "כנפיים": 7029,
      "▁כנפיים": 7030,
      "ההפתעה": 7031,
      "▁ההפתעה": 7032,
      "דחפה": 7033,
      "▁דחפה": 7034,
      "למיין": 7035,
      "▁למיין": 7036,
      "לבריכה": 7037,
      "▁לבריכה": 7038,
      "הופיע": 7039,
      "▁הופיע": 7040,
      "אמבטיה": 7041,
      "▁אמבטיה": 7042,
      "ולפין": 7043,
      "▁ולפין": 7044,
      "התרו": 7045,
      "▁התרו": 7046,
      "מקווים": 7047,
      "▁מקווים": 7048,
      "פיץ": 7049,
      "▁פיץ": 7050,
      "כשטום": 7051,
      "▁כשטום": 7052,
      "לכס": 7053,
      "▁לכס": 7054,
      "לכתי": 7055,
      "▁לכתי": 7056,
      "חולצה": 7057,
      "▁חולצה": 7058,
      "נורא": 7059,
      "▁נורא": 7060,
      "התעוררה": 7061,
      "▁התעוררה": 7062,
      "חברותיה": 7063,
      "▁חברותיה": 7064,
      "בעל": 7065,
      "▁בעל": 7066,
      "בנוח": 7067,
      "▁בנוח": 7068,
      "לגינה": 7069,
      "▁לגינה": 7070,
      "ללטף": 7071,
      "▁ללטף": 7072,
      "מנים": 7073,
      "▁מנים": 7074,
      "ליה": 7075,
      "▁ליה": 7076,
      "להבין": 7077,
      "▁להבין": 7078,
      "והמשיך": 7079,
      "▁והמשיך": 7080,
      "פיט": 7081,
      "▁פיט": 7082,
      "הכת": 7083,
      "▁הכת": 7084,
      "למלא": 7085,
      "▁למלא": 7086,
      "בעפר": 7087,
      "▁בעפר": 7088,
      "כרטיס": 7089,
      "▁כרטיס": 7090,
      "ארמון": 7091,
      "▁ארמון": 7092,
      "האהובים": 7093,
      "▁האהובים": 7094,
      "ולוסי": 7095,
      "▁ולוסי": 7096,
      "ויצאה": 7097,
      "▁ויצאה": 7098,
      "מודה": 7099,
      "▁מודה": 7100,
      "שולחן": 7101,
      "▁שולחן": 7102,
      "בראון": 7103,
      "▁בראון": 7104,
      "והדוב": 7105,
      "▁והדוב": 7106,
      "הצטר": 7107,
      "▁הצטר": 7108,
      "רקד": 7109,
      "▁רקד": 7110,
      "האגוז": 7111,
      "▁האגוז": 7112,
      "עוט": 7113,
      "▁עוט": 7114,
      "עוזרים": 7115,
      "▁עוזרים": 7116,
      "הדגל": 7117,
      "▁הדגל": 7118,
      "זרת": 7119,
      "▁זרת": 7120,
      "שתמיד": 7121,
      "▁שתמיד": 7122,
      "להתכו": 7123,
      "▁להתכו": 7124,
      "לסלון": 7125,
      "▁לסלון": 7126,
      "האוויר": 7127,
      "▁האוויר": 7128,
      "מנוחה": 7129,
      "▁מנוחה": 7130,
      "וחיכה": 7131,
      "▁וחיכה": 7132,
      "ויתר": 7133,
      "▁ויתר": 7134,
      "הושיט": 7135,
      "▁הושיט": 7136,
      "ההר": 7137,
      "▁ההר": 7138,
      "לסיים": 7139,
      "▁לסיים": 7140,
      "מלח": 7141,
      "▁מלח": 7142,
      "ספור": 7143,
      "▁ספור": 7144,
      "פנוע": 7145,
      "▁פנוע": 7146,
      "ולברוח": 7147,
      "▁ולברוח": 7148,
      "לוותר": 7149,
      "▁לוותר": 7150,
      "לשרוק": 7151,
      "▁לשרוק": 7152,
      "נופל": 7153,
      "▁נופל": 7154,
      "מופע": 7155,
      "▁מופע": 7156,
      "כוכית": 7157,
      "▁כוכית": 7158,
      "טובי": 7159,
      "▁טובי": 7160,
      "צינור": 7161,
      "▁צינור": 7162,
      "רובוט": 7163,
      "▁רובוט": 7164,
      "שקית": 7165,
      "▁שקית": 7166,
      "ממך": 7167,
      "▁ממך": 7168,
      "הסתובבו": 7169,
      "▁הסתובבו": 7170,
      "וורר": 7171,
      "▁וורר": 7172,
      "סביבו": 7173,
      "▁סביבו": 7174,
      "בידיעה": 7175,
      "▁בידיעה": 7176,
      "הלבן": 7177,
      "▁הלבן": 7178,
      "חכה": 7179,
      "▁חכה": 7180,
      "לוב": 7181,
      "▁לוב": 7182,
      "שכל": 7183,
      "▁שכל": 7184,
      "היפופוט": 7185,
      "▁היפופוט": 7186,
      "ואנחנו": 7187,
      "▁ואנחנו": 7188,
      "מהבית": 7189,
      "▁מהבית": 7190,
      "והחז": 7191,
      "▁והחז": 7192,
      "מיש": 7193,
      "▁מיש": 7194,
      "שימושי": 7195,
      "▁שימושי": 7196,
      "לדברים": 7197,
      "▁לדברים": 7198,
      "מוכנים": 7199,
      "▁מוכנים": 7200,
      "חתיכה": 7201,
      "▁חתיכה": 7202,
      "בוי": 7203,
      "▁בוי": 7204,
      "בארון": 7205,
      "▁בארון": 7206,
      "הפאזל": 7207,
      "▁הפאזל": 7208,
      "האווז": 7209,
      "▁האווז": 7210,
      "ירוקה": 7211,
      "▁ירוקה": 7212,
      "ענקית": 7213,
      "▁ענקית": 7214,
      "להדפיס": 7215,
      "▁להדפיס": 7216,
      "דולי": 7217,
      "▁דולי": 7218,
      "וחה": 7219,
      "▁וחה": 7220,
      "כמעט": 7221,
      "▁כמעט": 7222,
      "לחי": 7223,
      "▁לחי": 7224,
      "מבי": 7225,
      "▁מבי": 7226,
      "מנות": 7227,
      "▁מנות": 7228,
      "ננסה": 7229,
      "▁ננסה": 7230,
      "ניצ": 7231,
      "▁ניצ": 7232,
      "להאכיל": 7233,
      "▁להאכיל": 7234,
      "ודל": 7235,
      "▁ודל": 7236,
      "והשמש": 7237,
      "▁והשמש": 7238,
      "קטוס": 7239,
      "▁קטוס": 7240,
      "המקרר": 7241,
      "▁המקרר": 7242,
      "האפ": 7243,
      "▁האפ": 7244,
      "חתך": 7245,
      "▁חתך": 7246,
      "העשיר": 7247,
      "▁העשיר": 7248,
      "מספרים": 7249,
      "▁מספרים": 7250,
      "חולקים": 7251,
      "▁חולקים": 7252,
      "לספק": 7253,
      "▁לספק": 7254,
      "לוכלך": 7255,
      "▁לוכלך": 7256,
      "הקסום": 7257,
      "▁הקסום": 7258,
      "בשלג": 7259,
      "▁בשלג": 7260,
      "חריף": 7261,
      "▁חריף": 7262,
      "מלי": 7263,
      "▁מלי": 7264,
      "נקה": 7265,
      "▁נקה": 7266,
      "קרו": 7267,
      "▁קרו": 7268,
      "קרי": 7269,
      "▁קרי": 7270,
      "תלו": 7271,
      "▁תלו": 7272,
      "מרים": 7273,
      "▁מרים": 7274,
      "ניצח": 7275,
      "▁ניצח": 7276,
      "ביד": 7277,
      "▁ביד": 7278,
      "אומל": 7279,
      "▁אומל": 7280,
      "הסערה": 7281,
      "▁הסערה": 7282,
      "הספינה": 7283,
      "▁הספינה": 7284,
      "באור": 7285,
      "▁באור": 7286,
      "לחגוג": 7287,
      "▁לחגוג": 7288,
      "קיווה": 7289,
      "▁קיווה": 7290,
      "החליפה": 7291,
      "▁החליפה": 7292,
      "להתגלגל": 7293,
      "▁להתגלגל": 7294,
      "הביאה": 7295,
      "▁הביאה": 7296,
      "נראית": 7297,
      "▁נראית": 7298,
      "אמיצים": 7299,
      "▁אמיצים": 7300,
      "והרים": 7301,
      "▁והרים": 7302,
      "נאמן": 7303,
      "▁נאמן": 7304,
      "המדף": 7305,
      "▁המדף": 7306,
      "מודאגת": 7307,
      "▁מודאגת": 7308,
      "הצבעו": 7309,
      "▁הצבעו": 7310,
      "מוסך": 7311,
      "▁מוסך": 7312,
      "דרקון": 7313,
      "▁דרקון": 7314,
      "כז": 7315,
      "▁כז": 7316,
      "רחק": 7317,
      "▁רחק": 7318,
      "שנראה": 7319,
      "▁שנראה": 7320,
      "ששיחקה": 7321,
      "▁ששיחקה": 7322,
      "תסתכל": 7323,
      "▁תסתכל": 7324,
      "ולגרום": 7325,
      "▁ולגרום": 7326,
      "גדלו": 7327,
      "▁גדלו": 7328,
      "המסו": 7329,
      "▁המסו": 7330,
      "משו": 7331,
      "▁משו": 7332,
      "הבט": 7333,
      "▁הבט": 7334,
      "בקים": 7335,
      "▁בקים": 7336,
      "בקערה": 7337,
      "▁בקערה": 7338,
      "עלית": 7339,
      "▁עלית": 7340,
      "כמוך": 7341,
      "▁כמוך": 7342,
      "בשבילי": 7343,
      "▁בשבילי": 7344,
      "נוצות": 7345,
      "▁נוצות": 7346,
      "לגלוש": 7347,
      "▁לגלוש": 7348,
      "ניסיתי": 7349,
      "▁ניסיתי": 7350,
      "עשוי": 7351,
      "▁עשוי": 7352,
      "בריקה": 7353,
      "▁בריקה": 7354,
      "צבעוני": 7355,
      "▁צבעוני": 7356,
      "פיקניק": 7357,
      "▁פיקניק": 7358,
      "בועות": 7359,
      "▁בועות": 7360,
      "הזרע": 7361,
      "▁הזרע": 7362,
      "למסע": 7363,
      "▁למסע": 7364,
      "לומדים": 7365,
      "▁לומדים": 7366,
      "דוד": 7367,
      "▁דוד": 7368,
      "הטי": 7369,
      "▁הטי": 7370,
      "ומים": 7371,
      "▁ומים": 7372,
      "וידע": 7373,
      "▁וידע": 7374,
      "סחרחורת": 7375,
      "▁סחרחורת": 7376,
      "עקה": 7377,
      "▁עקה": 7378,
      "רוד": 7379,
      "▁רוד": 7380,
      "שש": 7381,
      "▁שש": 7382,
      "שמיכה": 7383,
      "▁שמיכה": 7384,
      "וללמוד": 7385,
      "▁וללמוד": 7386,
      "להפתע": 7387,
      "▁להפתע": 7388,
      "חיכתה": 7389,
      "▁חיכתה": 7390,
      "והעכבר": 7391,
      "▁והעכבר": 7392,
      "המכוער": 7393,
      "▁המכוער": 7394,
      "התוכי": 7395,
      "▁התוכי": 7396,
      "לכם": 7397,
      "▁לכם": 7398,
      "למח": 7399,
      "▁למח": 7400,
      "הכינו": 7401,
      "▁הכינו": 7402,
      "יוכלו": 7403,
      "▁יוכלו": 7404,
      "עזבו": 7405,
      "▁עזבו": 7406,
      "רגות": 7407,
      "▁רגות": 7408,
      "ידידותית": 7409,
      "▁ידידותית": 7410,
      "התיבה": 7411,
      "▁התיבה": 7412,
      "והרגיש": 7413,
      "▁והרגיש": 7414,
      "עטפה": 7415,
      "▁עטפה": 7416,
      "לכיוון": 7417,
      "▁לכיוון": 7418,
      "ומשך": 7419,
      "▁ומשך": 7420,
      "פלס": 7421,
      "▁פלס": 7422,
      "ואים": 7423,
      "▁ואים": 7424,
      "ובכה": 7425,
      "▁ובכה": 7426,
      "להח": 7427,
      "▁להח": 7428,
      "הרחוב": 7429,
      "▁הרחוב": 7430,
      "לדלג": 7431,
      "▁לדלג": 7432,
      "מונים": 7433,
      "▁מונים": 7434,
      "רימ": 7435,
      "▁רימ": 7436,
      "ריחה": 7437,
      "▁ריחה": 7438,
      "גבנייה": 7439,
      "▁גבנייה": 7440,
      "לוקחים": 7441,
      "▁לוקחים": 7442,
      "לגנוב": 7443,
      "▁לגנוב": 7444,
      "להפליג": 7445,
      "▁להפליג": 7446,
      "עמדו": 7447,
      "▁עמדו": 7448,
      "שמצאו": 7449,
      "▁שמצאו": 7450,
      "שומעת": 7451,
      "▁שומעת": 7452,
      "דשא": 7453,
      "▁דשא": 7454,
      "דומות": 7455,
      "▁דומות": 7456,
      "הגל": 7457,
      "▁הגל": 7458,
      "ונהנים": 7459,
      "▁ונהנים": 7460,
      "חלש": 7461,
      "▁חלש": 7462,
      "לם": 7463,
      "▁לם": 7464,
      "ממה": 7465,
      "▁ממה": 7466,
      "סול": 7467,
      "▁סול": 7468,
      "ולשיר": 7469,
      "▁ולשיר": 7470,
      "לעקוב": 7471,
      "▁לעקוב": 7472,
      "גיטרה": 7473,
      "▁גיטרה": 7474,
      "האחות": 7475,
      "▁האחות": 7476,
      "חון": 7477,
      "▁חון": 7478,
      "לבנה": 7479,
      "▁לבנה": 7480,
      "להתחיל": 7481,
      "▁להתחיל": 7482,
      "ציאה": 7483,
      "▁ציאה": 7484,
      "לנשוך": 7485,
      "▁לנשוך": 7486,
      "הבינו": 7487,
      "▁הבינו": 7488,
      "החוואי": 7489,
      "▁החוואי": 7490,
      "פגעה": 7491,
      "▁פגעה": 7492,
      "בריא": 7493,
      "▁בריא": 7494,
      "להעביר": 7495,
      "▁להעביר": 7496,
      "מוצא": 7497,
      "▁מוצא": 7498,
      "בכיס": 7499,
      "▁בכיס": 7500,
      "וכועסת": 7501,
      "▁וכועסת": 7502,
      "הקסמים": 7503,
      "▁הקסמים": 7504,
      "שנקרא": 7505,
      "▁שנקרא": 7506,
      "הושיטה": 7507,
      "▁הושיטה": 7508,
      "לקשט": 7509,
      "▁לקשט": 7510,
      "דופן": 7511,
      "▁דופן": 7512,
      "ושיחקה": 7513,
      "▁ושיחקה": 7514,
      "וחברותיה": 7515,
      "▁וחברותיה": 7516,
      "מפו": 7517,
      "▁מפו": 7518,
      "סט": 7519,
      "▁סט": 7520,
      "ודאג": 7521,
      "▁ודאג": 7522,
      "שימח": 7523,
      "▁שימח": 7524,
      "ועק": 7525,
      "▁ועק": 7526,
      "שלווה": 7527,
      "▁שלווה": 7528,
      "הסי": 7529,
      "▁הסי": 7530,
      "שאף": 7531,
      "▁שאף": 7532,
      "בקופסת": 7533,
      "▁בקופסת": 7534,
      "וחמוד": 7535,
      "▁וחמוד": 7536,
      "ויאמר": 7537,
      "▁ויאמר": 7538,
      "כנף": 7539,
      "▁כנף": 7540,
      "קולות": 7541,
      "▁קולות": 7542,
      "רחב": 7543,
      "▁רחב": 7544,
      "פלל": 7545,
      "▁פלל": 7546,
      "פגשו": 7547,
      "▁פגשו": 7548,
      "מגושם": 7549,
      "▁מגושם": 7550,
      "המספריים": 7551,
      "▁המספריים": 7552,
      "פרייה": 7553,
      "▁פרייה": 7554,
      "ראשה": 7555,
      "▁ראשה": 7556,
      "קיינוס": 7557,
      "▁קיינוס": 7558,
      "הלוואי": 7559,
      "▁הלוואי": 7560,
      "מרוצים": 7561,
      "▁מרוצים": 7562,
      "ואומרים": 7563,
      "▁ואומרים": 7564,
      "לולו": 7565,
      "▁לולו": 7566,
      "הפרווה": 7567,
      "▁הפרווה": 7568,
      "בצרות": 7569,
      "▁בצרות": 7570,
      "רשל": 7571,
      "▁רשל": 7572,
      "שפ": 7573,
      "▁שפ": 7574,
      "ברגע": 7575,
      "▁ברגע": 7576,
      "להני": 7577,
      "▁להני": 7578,
      "שיניים": 7579,
      "▁שיניים": 7580,
      "שהחתול": 7581,
      "▁שהחתול": 7582,
      "המסת": 7583,
      "▁המסת": 7584,
      "מצייר": 7585,
      "▁מצייר": 7586,
      "הקו": 7587,
      "▁הקו": 7588,
      "פסק": 7589,
      "▁פסק": 7590,
      "וכחול": 7591,
      "▁וכחול": 7592,
      "לפל": 7593,
      "▁לפל": 7594,
      "וטעים": 7595,
      "▁וטעים": 7596,
      "נצח": 7597,
      "▁נצח": 7598,
      "מושך": 7599,
      "▁מושך": 7600,
      "הכריש": 7601,
      "▁הכריש": 7602,
      "היפופוטם": 7603,
      "▁היפופוטם": 7604,
      "בטירה": 7605,
      "▁בטירה": 7606,
      "זזה": 7607,
      "▁זזה": 7608,
      "חט": 7609,
      "▁חט": 7610,
      "יקר": 7611,
      "▁יקר": 7612,
      "כטה": 7613,
      "▁כטה": 7614,
      "תא": 7615,
      "▁תא": 7616,
      "ניי": 7617,
      "▁ניי": 7618,
      "אונים": 7619,
      "▁אונים": 7620,
      "סימה": 7621,
      "▁סימה": 7622,
      "העיתון": 7623,
      "▁העיתון": 7624,
      "החתלתול": 7625,
      "▁החתלתול": 7626,
      "טווי": 7627,
      "▁טווי": 7628,
      "עליז": 7629,
      "▁עליז": 7630,
      "נסע": 7631,
      "▁נסע": 7632,
      "והתח": 7633,
      "▁והתח": 7634,
      "עננים": 7635,
      "▁עננים": 7636,
      "סקרנים": 7637,
      "▁סקרנים": 7638,
      "הידית": 7639,
      "▁הידית": 7640,
      "המחמד": 7641,
      "▁המחמד": 7642,
      "התקרבו": 7643,
      "▁התקרבו": 7644,
      "ביקשו": 7645,
      "▁ביקשו": 7646,
      "יצירתי": 7647,
      "▁יצירתי": 7648,
      "מרטוט": 7649,
      "▁מרטוט": 7650,
      "אלו": 7651,
      "▁אלו": 7652,
      "וצהוב": 7653,
      "▁וצהוב": 7654,
      "לבל": 7655,
      "▁לבל": 7656,
      "לסאלי": 7657,
      "▁לסאלי": 7658,
      "נדר": 7659,
      "▁נדר": 7660,
      "ולב": 7661,
      "▁ולב": 7662,
      "מהכלב": 7663,
      "▁מהכלב": 7664,
      "מיין": 7665,
      "▁מיין": 7666,
      "ריחם": 7667,
      "▁ריחם": 7668,
      "האקדח": 7669,
      "▁האקדח": 7670,
      "משכו": 7671,
      "▁משכו": 7672,
      "הבד": 7673,
      "▁הבד": 7674,
      "הבעי": 7675,
      "▁הבעי": 7676,
      "בקש": 7677,
      "▁בקש": 7678,
      "לכוד": 7679,
      "▁לכוד": 7680,
      "לראש": 7681,
      "▁לראש": 7682,
      "ומלא": 7683,
      "▁ומלא": 7684,
      "הנהג": 7685,
      "▁הנהג": 7686,
      "לחברו": 7687,
      "▁לחברו": 7688,
      "מנומס": 7689,
      "▁מנומס": 7690,
      "רדף": 7691,
      "▁רדף": 7692,
      "אשמח": 7693,
      "▁אשמח": 7694,
      "ומאושרת": 7695,
      "▁ומאושרת": 7696,
      "וחיבקו": 7697,
      "▁וחיבקו": 7698,
      "נסי": 7699,
      "▁נסי": 7700,
      "קנו": 7701,
      "▁קנו": 7702,
      "תעשה": 7703,
      "▁תעשה": 7704,
      "להב": 7705,
      "▁להב": 7706,
      "ביבה": 7707,
      "▁ביבה": 7708,
      "החום": 7709,
      "▁החום": 7710,
      "נוף": 7711,
      "▁נוף": 7712,
      "נומה": 7713,
      "▁נומה": 7714,
      "התא": 7715,
      "▁התא": 7716,
      "הבא": 7717,
      "▁הבא": 7718,
      "עימים": 7719,
      "▁עימים": 7720,
      "רצי": 7721,
      "▁רצי": 7722,
      "ופס": 7723,
      "▁ופס": 7724,
      "לחרק": 7725,
      "▁לחרק": 7726,
      "בחן": 7727,
      "▁בחן": 7728,
      "אחריה": 7729,
      "▁אחריה": 7730,
      "ונבח": 7731,
      "▁ונבח": 7732,
      "להתנצל": 7733,
      "▁להתנצל": 7734,
      "הטלוויזיה": 7735,
      "▁הטלוויזיה": 7736,
      "שתיים": 7737,
      "▁שתיים": 7738,
      "והביטו": 7739,
      "▁והביטו": 7740,
      "אסירת": 7741,
      "▁אסירת": 7742,
      "הנחמד": 7743,
      "▁הנחמד": 7744,
      "וחתול": 7745,
      "▁וחתול": 7746,
      "וצעק": 7747,
      "▁וצעק": 7748,
      "זול": 7749,
      "▁זול": 7750,
      "כפות": 7751,
      "▁כפות": 7752,
      "למק": 7753,
      "▁למק": 7754,
      "לחיים": 7755,
      "▁לחיים": 7756,
      "סנדי": 7757,
      "▁סנדי": 7758,
      "ולהקשיב": 7759,
      "▁ולהקשיב": 7760,
      "ורית": 7761,
      "▁ורית": 7762,
      "להכ": 7763,
      "▁להכ": 7764,
      "לדגים": 7765,
      "▁לדגים": 7766,
      "כוח": 7767,
      "▁כוח": 7768,
      "ריות": 7769,
      "▁ריות": 7770,
      "מקבל": 7771,
      "▁מקבל": 7772,
      "משוע": 7773,
      "▁משוע": 7774,
      "הקלה": 7775,
      "▁הקלה": 7776,
      "באים": 7777,
      "▁באים": 7778,
      "להירגע": 7779,
      "▁להירגע": 7780,
      "חרותי": 7781,
      "▁חרותי": 7782,
      "לרדוף": 7783,
      "▁לרדוף": 7784,
      "עליך": 7785,
      "▁עליך": 7786,
      "הזי": 7787,
      "▁הזי": 7788,
      "לסובב": 7789,
      "▁לסובב": 7790,
      "הגינה": 7791,
      "▁הגינה": 7792,
      "התיישבו": 7793,
      "▁התיישבו": 7794,
      "כוערת": 7795,
      "▁כוערת": 7796,
      "אמיתית": 7797,
      "▁אמיתית": 7798,
      "התחבא": 7799,
      "▁התחבא": 7800,
      "זרקו": 7801,
      "▁זרקו": 7802,
      "לבשו": 7803,
      "▁לבשו": 7804,
      "נשיקה": 7805,
      "▁נשיקה": 7806,
      "במקל": 7807,
      "▁במקל": 7808,
      "ונחמד": 7809,
      "▁ונחמד": 7810,
      "ווכ": 7811,
      "▁ווכ": 7812,
      "עשינו": 7813,
      "▁עשינו": 7814,
      "תאכל": 7815,
      "▁תאכל": 7816,
      "לאר": 7817,
      "▁לאר": 7818,
      "מהמים": 7819,
      "▁מהמים": 7820,
      "מהנהנים": 7821,
      "▁מהנהנים": 7822,
      "והג": 7823,
      "▁והג": 7824,
      "היומן": 7825,
      "▁היומן": 7826,
      "הארץ": 7827,
      "▁הארץ": 7828,
      "איות": 7829,
      "▁איות": 7830,
      "חייל": 7831,
      "▁חייל": 7832,
      "ונכנ": 7833,
      "▁ונכנ": 7834,
      "צייתן": 7835,
      "▁צייתן": 7836,
      "בטעות": 7837,
      "▁בטעות": 7838,
      "הנקי": 7839,
      "▁הנקי": 7840,
      "פרדעים": 7841,
      "▁פרדעים": 7842,
      "עזב": 7843,
      "▁עזב": 7844,
      "נדהם": 7845,
      "▁נדהם": 7846,
      "לזחול": 7847,
      "▁לזחול": 7848,
      "המסכה": 7849,
      "▁המסכה": 7850,
      "ראט": 7851,
      "▁ראט": 7852,
      "מטי": 7853,
      "▁מטי": 7854,
      "שדה": 7855,
      "▁שדה": 7856,
      "ובכתה": 7857,
      "▁ובכתה": 7858,
      "מהת": 7859,
      "▁מהת": 7860,
      "ריסה": 7861,
      "▁ריסה": 7862,
      "הכדורים": 7863,
      "▁הכדורים": 7864,
      "בעד": 7865,
      "▁בעד": 7866,
      "מעות": 7867,
      "▁מעות": 7868,
      "הגול": 7869,
      "▁הגול": 7870,
      "לטפל": 7871,
      "▁לטפל": 7872,
      "צוץ": 7873,
      "▁צוץ": 7874,
      "ואיימי": 7875,
      "▁ואיימי": 7876,
      "מבטיח": 7877,
      "▁מבטיח": 7878,
      "אדוני": 7879,
      "▁אדוני": 7880,
      "לקשור": 7881,
      "▁לקשור": 7882,
      "בקרבת": 7883,
      "▁בקרבת": 7884,
      "והמשיכו": 7885,
      "▁והמשיכו": 7886,
      "בסי": 7887,
      "▁בסי": 7888,
      "הטובים": 7889,
      "▁הטובים": 7890,
      "ויצ": 7891,
      "▁ויצ": 7892,
      "וידעה": 7893,
      "▁וידעה": 7894,
      "וצחקה": 7895,
      "▁וצחקה": 7896,
      "כפי": 7897,
      "▁כפי": 7898,
      "מנסים": 7899,
      "▁מנסים": 7900,
      "סור": 7901,
      "▁סור": 7902,
      "עס": 7903,
      "▁עס": 7904,
      "תוש": 7905,
      "▁תוש": 7906,
      "חיית": 7907,
      "▁חיית": 7908,
      "והצעצועים": 7909,
      "▁והצעצועים": 7910,
      "והחזיר": 7911,
      "▁והחזיר": 7912,
      "שהת": 7913,
      "▁שהת": 7914,
      "המדבר": 7915,
      "▁המדבר": 7916,
      "בהתר": 7917,
      "▁בהתר": 7918,
      "הבטן": 7919,
      "▁הבטן": 7920,
      "למכור": 7921,
      "▁למכור": 7922,
      "קיבלו": 7923,
      "▁קיבלו": 7924,
      "מחכה": 7925,
      "▁מחכה": 7926,
      "עזרתו": 7927,
      "▁עזרתו": 7928,
      "מצחיקה": 7929,
      "▁מצחיקה": 7930,
      "והסתכלו": 7931,
      "▁והסתכלו": 7932,
      "החלקים": 7933,
      "▁החלקים": 7934,
      "צליל": 7935,
      "▁צליל": 7936,
      "בבור": 7937,
      "▁בבור": 7938,
      "גורה": 7939,
      "▁גורה": 7940,
      "חצה": 7941,
      "▁חצה": 7942,
      "יג": 7943,
      "▁יג": 7944,
      "פעל": 7945,
      "▁פעל": 7946,
      "רעה": 7947,
      "▁רעה": 7948,
      "לאבד": 7949,
      "▁לאבד": 7950,
      "ניקו": 7951,
      "▁ניקו": 7952,
      "להעיף": 7953,
      "▁להעיף": 7954,
      "עלתה": 7955,
      "▁עלתה": 7956,
      "שמפו": 7957,
      "▁שמפו": 7958,
      "גילו": 7959,
      "▁גילו": 7960,
      "לקי": 7961,
      "▁לקי": 7962,
      "הכד": 7963,
      "▁הכד": 7964,
      "תיזה": 7965,
      "▁תיזה": 7966,
      "ירפה": 7967,
      "▁ירפה": 7968,
      "לרכ": 7969,
      "▁לרכ": 7970,
      "צרחה": 7971,
      "▁צרחה": 7972,
      "לצפרדע": 7973,
      "▁לצפרדע": 7974,
      "לגברת": 7975,
      "▁לגברת": 7976,
      "ירוקים": 7977,
      "▁ירוקים": 7978,
      "חסרת": 7979,
      "▁חסרת": 7980,
      "התקשר": 7981,
      "▁התקשר": 7982,
      "מוקדם": 7983,
      "▁מוקדם": 7984,
      "גזג": 7985,
      "▁גזג": 7986,
      "וססגוני": 7987,
      "▁וססגוני": 7988,
      "דודה": 7989,
      "▁דודה": 7990,
      "וצפה": 7991,
      "▁וצפה": 7992,
      "קבוצה": 7993,
      "▁קבוצה": 7994,
      "שכב": 7995,
      "▁שכב": 7996,
      "ורכה": 7997,
      "▁ורכה": 7998,
      "הצמיד": 7999,
      "▁הצמיד": 8000,
      "ושך": 8001,
      "▁ושך": 8002,
      "גירה": 8003,
      "▁גירה": 8004,
      "הארוך": 8005,
      "▁הארוך": 8006,
      "לקן": 8007,
      "▁לקן": 8008,
      "באר": 8009,
      "▁באר": 8010,
      "רצפה": 8011,
      "▁רצפה": 8012,
      "בעבר": 8013,
      "▁בעבר": 8014,
      "בסלע": 8015,
      "▁בסלע": 8016,
      "השנייה": 8017,
      "▁השנייה": 8018,
      "המיץ": 8019,
      "▁המיץ": 8020,
      "מבולנס": 8021,
      "▁מבולנס": 8022,
      "להפחיד": 8023,
      "▁להפחיד": 8024,
      "והחליטו": 8025,
      "▁והחליטו": 8026,
      "נטליג": 8027,
      "▁נטליג": 8028,
      "גילתה": 8029,
      "▁גילתה": 8030,
      "כואב": 8031,
      "▁כואב": 8032,
      "רימפס": 8033,
      "▁רימפס": 8034,
      "בגשם": 8035,
      "▁בגשם": 8036,
      "דקות": 8037,
      "▁דקות": 8038,
      "הדינוזאור": 8039,
      "▁הדינוזאור": 8040,
      "מועיל": 8041,
      "▁מועיל": 8042,
      "נם": 8043,
      "▁נם": 8044,
      "פחות": 8045,
      "▁פחות": 8046,
      "תחרותי": 8047,
      "▁תחרותי": 8048,
      "מאיפה": 8049,
      "▁מאיפה": 8050,
      "לאחור": 8051,
      "▁לאחור": 8052,
      "והכ": 8053,
      "▁והכ": 8054,
      "ועוד": 8055,
      "▁ועוד": 8056,
      "דיברה": 8057,
      "▁דיברה": 8058,
      "המבוגר": 8059,
      "▁המבוגר": 8060,
      "האבא": 8061,
      "▁האבא": 8062,
      "הבת": 8063,
      "▁הבת": 8064,
      "חווה": 8065,
      "▁חווה": 8066,
      "בתנור": 8067,
      "▁בתנור": 8068,
      "ירס": 8069,
      "▁ירס": 8070,
      "מסריח": 8071,
      "▁מסריח": 8072,
      "זקוקים": 8073,
      "▁זקוקים": 8074,
      "בחיוך": 8075,
      "▁בחיוך": 8076,
      "דבנים": 8077,
      "▁דבנים": 8078,
      "הבו": 8079,
      "▁הבו": 8080,
      "ויצאו": 8081,
      "▁ויצאו": 8082,
      "לפי": 8083,
      "▁לפי": 8084,
      "ממים": 8085,
      "▁ממים": 8086,
      "שג": 8087,
      "▁שג": 8088,
      "היתה": 8089,
      "▁היתה": 8090,
      "והצי": 8091,
      "▁והצי": 8092,
      "מיט": 8093,
      "▁מיט": 8094,
      "עצרו": 8095,
      "▁עצרו": 8096,
      "החמניות": 8097,
      "▁החמניות": 8098,
      "לומר": 8099,
      "▁לומר": 8100,
      "לשאת": 8101,
      "▁לשאת": 8102,
      "לשניים": 8103,
      "▁לשניים": 8104,
      "האפור": 8105,
      "▁האפור": 8106,
      "פיע": 8107,
      "▁פיע": 8108,
      "הספסל": 8109,
      "▁הספסל": 8110,
      "שיחקתי": 8111,
      "▁שיחקתי": 8112,
      "הקפ": 8113,
      "▁הקפ": 8114,
      "הגבינה": 8115,
      "▁הגבינה": 8116,
      "לגמרי": 8117,
      "▁לגמרי": 8118,
      "דאגה": 8119,
      "▁דאגה": 8120,
      "ריחמה": 8121,
      "▁ריחמה": 8122,
      "הלבנה": 8123,
      "▁הלבנה": 8124,
      "והשמיים": 8125,
      "▁והשמיים": 8126,
      "המזל": 8127,
      "▁המזל": 8128,
      "רגליים": 8129,
      "▁רגליים": 8130,
      "מתחילים": 8131,
      "▁מתחילים": 8132,
      "בחר": 8133,
      "▁בחר": 8134,
      "לנהר": 8135,
      "▁לנהר": 8136,
      "רית": 8137,
      "▁רית": 8138,
      "ניו": 8139,
      "▁ניו": 8140,
      "להפרי": 8141,
      "▁להפרי": 8142,
      "והגשם": 8143,
      "▁והגשם": 8144,
      "החץ": 8145,
      "▁החץ": 8146,
      "ועש": 8147,
      "▁ועש": 8148,
      "לשקוע": 8149,
      "▁לשקוע": 8150,
      "שמת": 8151,
      "▁שמת": 8152,
      "פייה": 8153,
      "▁פייה": 8154,
      "הכף": 8155,
      "▁הכף": 8156,
      "הקליפה": 8157,
      "▁הקליפה": 8158,
      "ומג": 8159,
      "▁ומג": 8160,
      "מדיח": 8161,
      "▁מדיח": 8162,
      "אחריהם": 8163,
      "▁אחריהם": 8164,
      "הנורה": 8165,
      "▁הנורה": 8166,
      "הגזר": 8167,
      "▁הגזר": 8168,
      "רובית": 8169,
      "▁רובית": 8170,
      "הסלעים": 8171,
      "▁הסלעים": 8172,
      "דייג": 8173,
      "▁דייג": 8174,
      "הסוודר": 8175,
      "▁הסוודר": 8176,
      "העמידו": 8177,
      "▁העמידו": 8178,
      "והניחה": 8179,
      "▁והניחה": 8180,
      "הגרב": 8181,
      "▁הגרב": 8182,
      "להוריד": 8183,
      "▁להוריד": 8184,
      "קרופון": 8185,
      "▁קרופון": 8186,
      "אמו": 8187,
      "▁אמו": 8188,
      "הגשר": 8189,
      "▁הגשר": 8190,
      "זיפים": 8191,
      "▁זיפים": 8192,
      "מעץ": 8193,
      "▁מעץ": 8194,
      "סס": 8195,
      "▁סס": 8196,
      "רגל": 8197,
      "▁רגל": 8198,
      "ולהי": 8199,
      "▁ולהי": 8200,
      "ברז": 8201,
      "▁ברז": 8202,
      "ניש": 8203,
      "▁ניש": 8204,
      "בשק": 8205,
      "▁בשק": 8206,
      "שלוסי": 8207,
      "▁שלוסי": 8208,
      "הצביע": 8209,
      "▁הצביע": 8210,
      "המנוע": 8211,
      "▁המנוע": 8212,
      "מקסימה": 8213,
      "▁מקסימה": 8214,
      "האמהות": 8215,
      "▁האמהות": 8216,
      "הקבוצה": 8217,
      "▁הקבוצה": 8218,
      "בעבוד": 8219,
      "▁בעבוד": 8220,
      "וקצת": 8221,
      "▁וקצת": 8222,
      "מידים": 8223,
      "▁מידים": 8224,
      "נסות": 8225,
      "▁נסות": 8226,
      "הפילה": 8227,
      "▁הפילה": 8228,
      "החימר": 8229,
      "▁החימר": 8230,
      "והבטי": 8231,
      "▁והבטי": 8232,
      "מוזיאון": 8233,
      "▁מוזיאון": 8234,
      "נתקע": 8235,
      "▁נתקע": 8236,
      "רגליו": 8237,
      "▁רגליו": 8238,
      "יושבים": 8239,
      "▁יושבים": 8240,
      "והודיו": 8241,
      "▁והודיו": 8242,
      "הראשון": 8243,
      "▁הראשון": 8244,
      "השרשרת": 8245,
      "▁השרשרת": 8246,
      "בהתרגשות": 8247,
      "▁בהתרגשות": 8248,
      "בשלולית": 8249,
      "▁בשלולית": 8250,
      "המיוחדת": 8251,
      "▁המיוחדת": 8252,
      "וטוב": 8253,
      "▁וטוב": 8254,
      "ופתח": 8255,
      "▁ופתח": 8256,
      "סולם": 8257,
      "▁סולם": 8258,
      "לאזן": 8259,
      "▁לאזן": 8260,
      "להמריא": 8261,
      "▁להמריא": 8262,
      "לשרה": 8263,
      "▁לשרה": 8264,
      "הרגשתי": 8265,
      "▁הרגשתי": 8266,
      "דילג": 8267,
      "▁דילג": 8268,
      "המלכה": 8269,
      "▁המלכה": 8270,
      "התנור": 8271,
      "▁התנור": 8272,
      "רקדה": 8273,
      "▁רקדה": 8274,
      "חתן": 8275,
      "▁חתן": 8276,
      "הסל": 8277,
      "▁הסל": 8278,
      "הדבורים": 8279,
      "▁הדבורים": 8280,
      "בעט": 8281,
      "▁בעט": 8282,
      "מספריים": 8283,
      "▁מספריים": 8284,
      "מחמד": 8285,
      "▁מחמד": 8286,
      "מיוחדים": 8287,
      "▁מיוחדים": 8288,
      "רגז": 8289,
      "▁רגז": 8290,
      "נרגשים": 8291,
      "▁נרגשים": 8292,
      "לטייל": 8293,
      "▁לטייל": 8294,
      "נועה": 8295,
      "▁נועה": 8296,
      "עקבה": 8297,
      "▁עקבה": 8298,
      "ספייק": 8299,
      "▁ספייק": 8300,
      "שמנמן": 8301,
      "▁שמנמן": 8302,
      "בנה": 8303,
      "▁בנה": 8304,
      "ויכול": 8305,
      "▁ויכול": 8306,
      "כריה": 8307,
      "▁כריה": 8308,
      "למשחק": 8309,
      "▁למשחק": 8310,
      "סטי": 8311,
      "▁סטי": 8312,
      "שלד": 8313,
      "▁שלד": 8314,
      "להרוס": 8315,
      "▁להרוס": 8316,
      "המוט": 8317,
      "▁המוט": 8318,
      "המטבח": 8319,
      "▁המטבח": 8320,
      "מוט": 8321,
      "▁מוט": 8322,
      "הסטייק": 8323,
      "▁הסטייק": 8324,
      "סיקה": 8325,
      "▁סיקה": 8326,
      "שוקולד": 8327,
      "▁שוקולד": 8328,
      "לבחורה": 8329,
      "▁לבחורה": 8330,
      "עילים": 8331,
      "▁עילים": 8332,
      "עוף": 8333,
      "▁עוף": 8334,
      "מתוקה": 8335,
      "▁מתוקה": 8336,
      "בעות": 8337,
      "▁בעות": 8338,
      "להתראות": 8339,
      "▁להתראות": 8340,
      "וכסן": 8341,
      "▁וכסן": 8342,
      "לסבתא": 8343,
      "▁לסבתא": 8344,
      "אליך": 8345,
      "▁אליך": 8346,
      "הטעימה": 8347,
      "▁הטעימה": 8348,
      "התיז": 8349,
      "▁התיז": 8350,
      "והרבה": 8351,
      "▁והרבה": 8352,
      "נגעה": 8353,
      "▁נגעה": 8354,
      "התחרו": 8355,
      "▁התחרו": 8356,
      "נבוך": 8357,
      "▁נבוך": 8358,
      "הסוס": 8359,
      "▁הסוס": 8360,
      "וויסקרס": 8361,
      "▁וויסקרס": 8362,
      "המאוורר": 8363,
      "▁המאוורר": 8364,
      "המנורה": 8365,
      "▁המנורה": 8366,
      "עובדים": 8367,
      "▁עובדים": 8368,
      "פתיע": 8369,
      "▁פתיע": 8370,
      "העורב": 8371,
      "▁העורב": 8372,
      "הבעיה": 8373,
      "▁הבעיה": 8374,
      "בשי": 8375,
      "▁בשי": 8376,
      "ומאושרים": 8377,
      "▁ומאושרים": 8378,
      "חן": 8379,
      "▁חן": 8380,
      "חותו": 8381,
      "▁חותו": 8382,
      "למשאית": 8383,
      "▁למשאית": 8384,
      "לרופא": 8385,
      "▁לרופא": 8386,
      "שבורה": 8387,
      "▁שבורה": 8388,
      "שחמט": 8389,
      "▁שחמט": 8390,
      "הירוקה": 8391,
      "▁הירוקה": 8392,
      "מהקופסה": 8393,
      "▁מהקופסה": 8394,
      "והרוח": 8395,
      "▁והרוח": 8396,
      "מיני": 8397,
      "▁מיני": 8398,
      "בירה": 8399,
      "▁בירה": 8400,
      "הריק": 8401,
      "▁הריק": 8402,
      "סופי": 8403,
      "▁סופי": 8404,
      "התנהג": 8405,
      "▁התנהג": 8406,
      "יכולות": 8407,
      "▁יכולות": 8408,
      "האדי": 8409,
      "▁האדי": 8410,
      "הארו": 8411,
      "▁הארו": 8412,
      "הכיפי": 8413,
      "▁הכיפי": 8414,
      "חומה": 8415,
      "▁חומה": 8416,
      "כולן": 8417,
      "▁כולן": 8418,
      "ישנים": 8419,
      "▁ישנים": 8420,
      "השחור": 8421,
      "▁השחור": 8422,
      "להיעלם": 8423,
      "▁להיעלם": 8424,
      "גבניות": 8425,
      "▁גבניות": 8426,
      "ונתי": 8427,
      "▁ונתי": 8428,
      "ונעים": 8429,
      "▁ונעים": 8430,
      "קורי": 8431,
      "▁קורי": 8432,
      "בצל": 8433,
      "▁בצל": 8434,
      "לחוץ": 8435,
      "▁לחוץ": 8436,
      "פרוותי": 8437,
      "▁פרוותי": 8438,
      "הלוויתן": 8439,
      "▁הלוויתן": 8440,
      "ניקח": 8441,
      "▁ניקח": 8442,
      "טלפון": 8443,
      "▁טלפון": 8444,
      "הופיעה": 8445,
      "▁הופיעה": 8446,
      "סנפי": 8447,
      "▁סנפי": 8448,
      "הבטיחו": 8449,
      "▁הבטיחו": 8450,
      "דוח": 8451,
      "▁דוח": 8452,
      "העצ": 8453,
      "▁העצ": 8454,
      "וצעצועים": 8455,
      "▁וצעצועים": 8456,
      "ונופף": 8457,
      "▁ונופף": 8458,
      "זאב": 8459,
      "▁זאב": 8460,
      "לסירה": 8461,
      "▁לסירה": 8462,
      "מטו": 8463,
      "▁מטו": 8464,
      "מעד": 8465,
      "▁מעד": 8466,
      "סכין": 8467,
      "▁סכין": 8468,
      "ספגטי": 8469,
      "▁ספגטי": 8470,
      "פנדי": 8471,
      "▁פנדי": 8472,
      "קאות": 8473,
      "▁קאות": 8474,
      "רשת": 8475,
      "▁רשת": 8476,
      "וללכת": 8477,
      "▁וללכת": 8478,
      "שלים": 8479,
      "▁שלים": 8480,
      "כלוב": 8481,
      "▁כלוב": 8482,
      "המכונה": 8483,
      "▁המכונה": 8484,
      "ריים": 8485,
      "▁ריים": 8486,
      "הכבשים": 8487,
      "▁הכבשים": 8488,
      "נתקל": 8489,
      "▁נתקל": 8490,
      "נשק": 8491,
      "▁נשק": 8492,
      "פסטה": 8493,
      "▁פסטה": 8494,
      "ונקי": 8495,
      "▁ונקי": 8496,
      "הזחל": 8497,
      "▁הזחל": 8498,
      "עזוב": 8499,
      "▁עזוב": 8500,
      "הפרס": 8501,
      "▁הפרס": 8502,
      "ולקחו": 8503,
      "▁ולקחו": 8504,
      "עקבו": 8505,
      "▁עקבו": 8506,
      "חירש": 8507,
      "▁חירש": 8508,
      "הצביעה": 8509,
      "▁הצביעה": 8510,
      "אסף": 8511,
      "▁אסף": 8512,
      "במיוחד": 8513,
      "▁במיוחד": 8514,
      "גביע": 8515,
      "▁גביע": 8516,
      "הגלגל": 8517,
      "▁הגלגל": 8518,
      "הלחם": 8519,
      "▁הלחם": 8520,
      "ופתחה": 8521,
      "▁ופתחה": 8522,
      "מחבר": 8523,
      "▁מחבר": 8524,
      "שלכם": 8525,
      "▁שלכם": 8526,
      "והסנאי": 8527,
      "▁והסנאי": 8528,
      "ביה": 8529,
      "▁ביה": 8530,
      "לשוק": 8531,
      "▁לשוק": 8532,
      "הצו": 8533,
      "▁הצו": 8534,
      "לעיר": 8535,
      "▁לעיר": 8536,
      "מקשיב": 8537,
      "▁מקשיב": 8538,
      "פראי": 8539,
      "▁פראי": 8540,
      "העיפה": 8541,
      "▁העיפה": 8542,
      "הכריך": 8543,
      "▁הכריך": 8544,
      "בקן": 8545,
      "▁בקן": 8546,
      "זורק": 8547,
      "▁זורק": 8548,
      "לצעוד": 8549,
      "▁לצעוד": 8550,
      "בחוף": 8551,
      "▁בחוף": 8552,
      "צווא": 8553,
      "▁צווא": 8554,
      "בירדי": 8555,
      "▁בירדי": 8556,
      "לשירותים": 8557,
      "▁לשירותים": 8558,
      "המתוק": 8559,
      "▁המתוק": 8560,
      "בהירים": 8561,
      "▁בהירים": 8562,
      "התכוונתי": 8563,
      "▁התכוונתי": 8564,
      "ועושה": 8565,
      "▁ועושה": 8566,
      "באזי": 8567,
      "▁באזי": 8568,
      "ואדיב": 8569,
      "▁ואדיב": 8570,
      "ולמדו": 8571,
      "▁ולמדו": 8572,
      "אגוזים": 8573,
      "▁אגוזים": 8574,
      "לסיבוב": 8575,
      "▁לסיבוב": 8576,
      "ושמו": 8577,
      "▁ושמו": 8578,
      "מגדלים": 8579,
      "▁מגדלים": 8580,
      "מבריקה": 8581,
      "▁מבריקה": 8582,
      "נערה": 8583,
      "▁נערה": 8584,
      "עועית": 8585,
      "▁עועית": 8586,
      "צעירה": 8587,
      "▁צעירה": 8588,
      "קנתה": 8589,
      "▁קנתה": 8590,
      "ורע": 8591,
      "▁ורע": 8592,
      "ברחה": 8593,
      "▁ברחה": 8594,
      "להן": 8595,
      "▁להן": 8596,
      "והסת": 8597,
      "▁והסת": 8598,
      "החצר": 8599,
      "▁החצר": 8600,
      "החטיף": 8601,
      "▁החטיף": 8602,
      "ושכ": 8603,
      "▁ושכ": 8604,
      "טיש": 8605,
      "▁טיש": 8606,
      "הקלטת": 8607,
      "▁הקלטת": 8608,
      "מתוך": 8609,
      "▁מתוך": 8610,
      "חתולים": 8611,
      "▁חתולים": 8612,
      "הכין": 8613,
      "▁הכין": 8614,
      "שרשרת": 8615,
      "▁שרשרת": 8616,
      "פניהם": 8617,
      "▁פניהם": 8618,
      "שיבולת": 8619,
      "▁שיבולת": 8620,
      "היינו": 8621,
      "▁היינו": 8622,
      "גולת": 8623,
      "▁גולת": 8624,
      "ותיהם": 8625,
      "▁ותיהם": 8626,
      "נקייה": 8627,
      "▁נקייה": 8628,
      "ומרושע": 8629,
      "▁ומרושע": 8630,
      "זקנה": 8631,
      "▁זקנה": 8632,
      "להחליף": 8633,
      "▁להחליף": 8634,
      "קירח": 8635,
      "▁קירח": 8636,
      "שיכלה": 8637,
      "▁שיכלה": 8638,
      "אביו": 8639,
      "▁אביו": 8640,
      "בשה": 8641,
      "▁בשה": 8642,
      "גנב": 8643,
      "▁גנב": 8644,
      "החד": 8645,
      "▁החד": 8646,
      "הנחמדה": 8647,
      "▁הנחמדה": 8648,
      "הפתק": 8649,
      "▁הפתק": 8650,
      "ומאושר": 8651,
      "▁ומאושר": 8652,
      "וקיטי": 8653,
      "▁וקיטי": 8654,
      "זוהר": 8655,
      "▁זוהר": 8656,
      "כפית": 8657,
      "▁כפית": 8658,
      "קק": 8659,
      "▁קק": 8660,
      "שור": 8661,
      "▁שור": 8662,
      "שעזרה": 8663,
      "▁שעזרה": 8664,
      "שמישהו": 8665,
      "▁שמישהו": 8666,
      "תמצא": 8667,
      "▁תמצא": 8668,
      "וברי": 8669,
      "▁וברי": 8670,
      "להזמין": 8671,
      "▁להזמין": 8672,
      "קטפה": 8673,
      "▁קטפה": 8674,
      "חתלתול": 8675,
      "▁חתלתול": 8676,
      "למגלשה": 8677,
      "▁למגלשה": 8678,
      "צרים": 8679,
      "▁צרים": 8680,
      "לנוע": 8681,
      "▁לנוע": 8682,
      "שאלות": 8683,
      "▁שאלות": 8684,
      "זומי": 8685,
      "▁זומי": 8686,
      "חלקים": 8687,
      "▁חלקים": 8688,
      "בדיחה": 8689,
      "▁בדיחה": 8690,
      "ולקחת": 8691,
      "▁ולקחת": 8692,
      "החזק": 8693,
      "▁החזק": 8694,
      "החרקים": 8695,
      "▁החרקים": 8696,
      "המראה": 8697,
      "▁המראה": 8698,
      "המושלם": 8699,
      "▁המושלם": 8700,
      "והפכו": 8701,
      "▁והפכו": 8702,
      "וויל": 8703,
      "▁וויל": 8704,
      "ודחף": 8705,
      "▁ודחף": 8706,
      "ישנוני": 8707,
      "▁ישנוני": 8708,
      "בתוכו": 8709,
      "▁בתוכו": 8710,
      "לחדרה": 8711,
      "▁לחדרה": 8712,
      "מטיקה": 8713,
      "▁מטיקה": 8714,
      "וצפו": 8715,
      "▁וצפו": 8716,
      "מורה": 8717,
      "▁מורה": 8718,
      "נאה": 8719,
      "▁נאה": 8720,
      "עפיפון": 8721,
      "▁עפיפון": 8722,
      "צמר": 8723,
      "▁צמר": 8724,
      "שבן": 8725,
      "▁שבן": 8726,
      "שעות": 8727,
      "▁שעות": 8728,
      "תנין": 8729,
      "▁תנין": 8730,
      "ודרת": 8731,
      "▁ודרת": 8732,
      "והצפרדע": 8733,
      "▁והצפרדע": 8734,
      "ביסה": 8735,
      "▁ביסה": 8736,
      "לדוב": 8737,
      "▁לדוב": 8738,
      "סוג": 8739,
      "▁סוג": 8740,
      "התפו": 8741,
      "▁התפו": 8742,
      "מקרה": 8743,
      "▁מקרה": 8744,
      "זרע": 8745,
      "▁זרע": 8746,
      "רחץ": 8747,
      "▁רחץ": 8748,
      "נורמלי": 8749,
      "▁נורמלי": 8750,
      "המסך": 8751,
      "▁המסך": 8752,
      "למישהו": 8753,
      "▁למישהו": 8754,
      "וניסו": 8755,
      "▁וניסו": 8756,
      "בניין": 8757,
      "▁בניין": 8758,
      "לחווה": 8759,
      "▁לחווה": 8760,
      "וחיפשו": 8761,
      "▁וחיפשו": 8762,
      "ולצחוק": 8763,
      "▁ולצחוק": 8764,
      "אטרון": 8765,
      "▁אטרון": 8766,
      "המצחיק": 8767,
      "▁המצחיק": 8768,
      "לבלות": 8769,
      "▁לבלות": 8770,
      "הבוץ": 8771,
      "▁הבוץ": 8772,
      "הלכתי": 8773,
      "▁הלכתי": 8774,
      "וחזקה": 8775,
      "▁וחזקה": 8776,
      "לתי": 8777,
      "▁לתי": 8778,
      "מחבריו": 8779,
      "▁מחבריו": 8780,
      "מכוער": 8781,
      "▁מכוער": 8782,
      "צאית": 8783,
      "▁צאית": 8784,
      "נהרה": 8785,
      "▁נהרה": 8786,
      "זהב": 8787,
      "▁זהב": 8788,
      "והמים": 8789,
      "▁והמים": 8790,
      "מיג": 8791,
      "▁מיג": 8792,
      "יפו": 8793,
      "▁יפו": 8794,
      "הצד": 8795,
      "▁הצד": 8796,
      "העזרה": 8797,
      "▁העזרה": 8798,
      "איל": 8799,
      "▁איל": 8800,
      "דרכם": 8801,
      "▁דרכם": 8802,
      "זרח": 8803,
      "▁זרח": 8804,
      "אחים": 8805,
      "▁אחים": 8806,
      "געש": 8807,
      "▁געש": 8808,
      "ציית": 8809,
      "▁ציית": 8810,
      "לסמוך": 8811,
      "▁לסמוך": 8812,
      "לסחוב": 8813,
      "▁לסחוב": 8814,
      "נפגעה": 8815,
      "▁נפגעה": 8816,
      "נדהמו": 8817,
      "▁נדהמו": 8818,
      "הכלבלב": 8819,
      "▁הכלבלב": 8820,
      "וחיכו": 8821,
      "▁וחיכו": 8822,
      "ומפוחדת": 8823,
      "▁ומפוחדת": 8824,
      "המעגל": 8825,
      "▁המעגל": 8826,
      "מהשמיים": 8827,
      "▁מהשמיים": 8828,
      "במדרגות": 8829,
      "▁במדרגות": 8830,
      "נפנפה": 8831,
      "▁נפנפה": 8832,
      "אעשה": 8833,
      "▁אעשה": 8834,
      "געו": 8835,
      "▁געו": 8836,
      "דואר": 8837,
      "▁דואר": 8838,
      "דלעת": 8839,
      "▁דלעת": 8840,
      "חמם": 8841,
      "▁חמם": 8842,
      "חטיפים": 8843,
      "▁חטיפים": 8844,
      "יעשה": 8845,
      "▁יעשה": 8846,
      "עברו": 8847,
      "▁עברו": 8848,
      "קרוס": 8849,
      "▁קרוס": 8850,
      "וארת": 8851,
      "▁וארת": 8852,
      "להוביל": 8853,
      "▁להוביל": 8854,
      "יפגע": 8855,
      "▁יפגע": 8856,
      "בידו": 8857,
      "▁בידו": 8858,
      "הרוכסן": 8859,
      "▁הרוכסן": 8860,
      "המכ": 8861,
      "▁המכ": 8862,
      "משכה": 8863,
      "▁משכה": 8864,
      "הער": 8865,
      "▁הער": 8866,
      "מדברת": 8867,
      "▁מדברת": 8868,
      "הבננה": 8869,
      "▁הבננה": 8870,
      "שאסור": 8871,
      "▁שאסור": 8872,
      "לבעוט": 8873,
      "▁לבעוט": 8874,
      "טירות": 8875,
      "▁טירות": 8876,
      "הקערה": 8877,
      "▁הקערה": 8878,
      "הקרם": 8879,
      "▁הקרם": 8880,
      "השאיר": 8881,
      "▁השאיר": 8882,
      "זרעים": 8883,
      "▁זרעים": 8884,
      "לצלול": 8885,
      "▁לצלול": 8886,
      "להתאים": 8887,
      "▁להתאים": 8888,
      "לנד": 8889,
      "▁לנד": 8890,
      "וטעימה": 8891,
      "▁וטעימה": 8892,
      "תקועה": 8893,
      "▁תקועה": 8894,
      "החולים": 8895,
      "▁החולים": 8896,
      "למרבה": 8897,
      "▁למרבה": 8898,
      "הוריה": 8899,
      "▁הוריה": 8900,
      "להוסיף": 8901,
      "▁להוסיף": 8902,
      "פושות": 8903,
      "▁פושות": 8904,
      "לארגן": 8905,
      "▁לארגן": 8906,
      "במר": 8907,
      "▁במר": 8908,
      "דעת": 8909,
      "▁דעת": 8910,
      "הגב": 8911,
      "▁הגב": 8912,
      "פלא": 8913,
      "▁פלא": 8914,
      "שאמר": 8915,
      "▁שאמר": 8916,
      "היתוש": 8917,
      "▁היתוש": 8918,
      "ולרקוד": 8919,
      "▁ולרקוד": 8920,
      "בראש": 8921,
      "▁בראש": 8922,
      "והול": 8923,
      "▁והול": 8924,
      "הרקטה": 8925,
      "▁הרקטה": 8926,
      "הציוד": 8927,
      "▁הציוד": 8928,
      "הצעיף": 8929,
      "▁הצעיף": 8930,
      "שמך": 8931,
      "▁שמך": 8932,
      "לעבודה": 8933,
      "▁לעבודה": 8934,
      "גיה": 8935,
      "▁גיה": 8936,
      "התירס": 8937,
      "▁התירס": 8938,
      "סירי": 8939,
      "▁סירי": 8940,
      "חושה": 8941,
      "▁חושה": 8942,
      "הדבש": 8943,
      "▁הדבש": 8944,
      "חרב": 8945,
      "▁חרב": 8946,
      "קיעה": 8947,
      "▁קיעה": 8948,
      "להתחתן": 8949,
      "▁להתחתן": 8950,
      "החווה": 8951,
      "▁החווה": 8952,
      "עדינה": 8953,
      "▁עדינה": 8954,
      "וספרים": 8955,
      "▁וספרים": 8956,
      "קווה": 8957,
      "▁קווה": 8958,
      "רועשת": 8959,
      "▁רועשת": 8960,
      "פושת": 8961,
      "▁פושת": 8962,
      "וביקשה": 8963,
      "▁וביקשה": 8964,
      "תיזהרי": 8965,
      "▁תיזהרי": 8966,
      "איכ": 8967,
      "▁איכ": 8968,
      "בסירה": 8969,
      "▁בסירה": 8970,
      "במראה": 8971,
      "▁במראה": 8972,
      "ומהנה": 8973,
      "▁ומהנה": 8974,
      "טף": 8975,
      "▁טף": 8976,
      "כשמקס": 8977,
      "▁כשמקס": 8978,
      "נפרד": 8979,
      "▁נפרד": 8980,
      "סודי": 8981,
      "▁סודי": 8982,
      "צטדי": 8983,
      "▁צטדי": 8984,
      "ולנסות": 8985,
      "▁ולנסות": 8986,
      "ובור": 8987,
      "▁ובור": 8988,
      "שיך": 8989,
      "▁שיך": 8990,
      "לשפר": 8991,
      "▁לשפר": 8992,
      "הציל": 8993,
      "▁הציל": 8994,
      "המכנסיים": 8995,
      "▁המכנסיים": 8996,
      "מצן": 8997,
      "▁מצן": 8998,
      "פיא": 8999,
      "▁פיא": 9000,
      "פתוחה": 9001,
      "▁פתוחה": 9002,
      "שונות": 9003,
      "▁שונות": 9004,
      "בתחתית": 9005,
      "▁בתחתית": 9006,
      "בקות": 9007,
      "▁בקות": 9008,
      "ערפל": 9009,
      "▁ערפל": 9010,
      "לחור": 9011,
      "▁לחור": 9012,
      "לחבק": 9013,
      "▁לחבק": 9014,
      "צרח": 9015,
      "▁צרח": 9016,
      "נתר": 9017,
      "▁נתר": 9018,
      "יקן": 9019,
      "▁יקן": 9020,
      "ביתם": 9021,
      "▁ביתם": 9022,
      "וגאים": 9023,
      "▁וגאים": 9024,
      "בטן": 9025,
      "▁בטן": 9026,
      "ארון": 9027,
      "▁ארון": 9028,
      "מודים": 9029,
      "▁מודים": 9030,
      "לזכור": 9031,
      "▁לזכור": 9032,
      "המשקל": 9033,
      "▁המשקל": 9034,
      "השיח": 9035,
      "▁השיח": 9036,
      "הכוכבים": 9037,
      "▁הכוכבים": 9038,
      "ומסודר": 9039,
      "▁ומסודר": 9040,
      "חלומות": 9041,
      "▁חלומות": 9042,
      "וסיפר": 9043,
      "▁וסיפר": 9044,
      "העננים": 9045,
      "▁העננים": 9046,
      "ועזרו": 9047,
      "▁ועזרו": 9048,
      "לכודת": 9049,
      "▁לכודת": 9050,
      "צטדיון": 9051,
      "▁צטדיון": 9052,
      "במצ": 9053,
      "▁במצ": 9054,
      "באי": 9055,
      "▁באי": 9056,
      "בסיר": 9057,
      "▁בסיר": 9058,
      "זנבו": 9059,
      "▁זנבו": 9060,
      "כשא": 9061,
      "▁כשא": 9062,
      "כריך": 9063,
      "▁כריך": 9064,
      "מפורסם": 9065,
      "▁מפורסם": 9066,
      "נגד": 9067,
      "▁נגד": 9068,
      "נהייתה": 9069,
      "▁נהייתה": 9070,
      "רגילה": 9071,
      "▁רגילה": 9072,
      "ולתת": 9073,
      "▁ולתת": 9074,
      "להכיר": 9075,
      "▁להכיר": 9076,
      "אהוב": 9077,
      "▁אהוב": 9078,
      "הראו": 9079,
      "▁הראו": 9080,
      "התנצ": 9081,
      "▁התנצ": 9082,
      "ריבה": 9083,
      "▁ריבה": 9084,
      "פרש": 9085,
      "▁פרש": 9086,
      "רצר": 9087,
      "▁רצר": 9088,
      "מתחבא": 9089,
      "▁מתחבא": 9090,
      "דרכים": 9091,
      "▁דרכים": 9092,
      "גשים": 9093,
      "▁גשים": 9094,
      "הכלבים": 9095,
      "▁הכלבים": 9096,
      "וכובע": 9097,
      "▁וכובע": 9098,
      "רובה": 9099,
      "▁רובה": 9100,
      "הפרעוש": 9101,
      "▁הפרעוש": 9102,
      "מודר": 9103,
      "▁מודר": 9104,
      "מזויף": 9105,
      "▁מזויף": 9106,
      "כועסים": 9107,
      "▁כועסים": 9108,
      "השוטר": 9109,
      "▁השוטר": 9110,
      "נגורו": 9111,
      "▁נגורו": 9112,
      "לזהור": 9113,
      "▁לזהור": 9114,
      "המחבת": 9115,
      "▁המחבת": 9116,
      "וכועסים": 9117,
      "▁וכועסים": 9118,
      "שתלטן": 9119,
      "▁שתלטן": 9120,
      "הקטנוע": 9121,
      "▁הקטנוע": 9122,
      "הלהקה": 9123,
      "▁הלהקה": 9124,
      "הקוביות": 9125,
      "▁הקוביות": 9126,
      "הכתום": 9127,
      "▁הכתום": 9128,
      "ונהנה": 9129,
      "▁ונהנה": 9130,
      "כהים": 9131,
      "▁כהים": 9132,
      "מלכה": 9133,
      "▁מלכה": 9134,
      "נקרא": 9135,
      "▁נקרא": 9136,
      "צמא": 9137,
      "▁צמא": 9138,
      "צמחים": 9139,
      "▁צמחים": 9140,
      "רכים": 9141,
      "▁רכים": 9142,
      "רטובה": 9143,
      "▁רטובה": 9144,
      "שעדיף": 9145,
      "▁שעדיף": 9146,
      "ובודד": 9147,
      "▁ובודד": 9148,
      "לונן": 9149,
      "▁לונן": 9150,
      "ועדי": 9151,
      "▁ועדי": 9152,
      "הצוות": 9153,
      "▁הצוות": 9154,
      "רקה": 9155,
      "▁רקה": 9156,
      "סיסי": 9157,
      "▁סיסי": 9158,
      "סירות": 9159,
      "▁סירות": 9160,
      "אינטליג": 9161,
      "▁אינטליג": 9162,
      "הקופ": 9163,
      "▁הקופ": 9164,
      "מתחשב": 9165,
      "▁מתחשב": 9166,
      "למנוע": 9167,
      "▁למנוע": 9168,
      "לחצות": 9169,
      "▁לחצות": 9170,
      "גלגלו": 9171,
      "▁גלגלו": 9172,
      "ומעולם": 9173,
      "▁ומעולם": 9174,
      "שיוכל": 9175,
      "▁שיוכל": 9176,
      "הנערה": 9177,
      "▁הנערה": 9178,
      "מערה": 9179,
      "▁מערה": 9180,
      "מטפס": 9181,
      "▁מטפס": 9182,
      "נופפה": 9183,
      "▁נופפה": 9184,
      "יסבול": 9185,
      "▁יסבול": 9186,
      "להתיז": 9187,
      "▁להתיז": 9188,
      "וביקש": 9189,
      "▁וביקש": 9190,
      "רחוקה": 9191,
      "▁רחוקה": 9192,
      "למחוא": 9193,
      "▁למחוא": 9194,
      "איכס": 9195,
      "▁איכס": 9196,
      "אנ": 9197,
      "▁אנ": 9198,
      "בכת": 9199,
      "▁בכת": 9200,
      "בפינה": 9201,
      "▁בפינה": 9202,
      "כמים": 9203,
      "▁כמים": 9204,
      "סלט": 9205,
      "▁סלט": 9206,
      "פעמון": 9207,
      "▁פעמון": 9208,
      "שגר": 9209,
      "▁שגר": 9210,
      "להוט": 9211,
      "▁להוט": 9212,
      "זהרה": 9213,
      "▁זהרה": 9214,
      "הרפסודה": 9215,
      "▁הרפסודה": 9216,
      "לעכבר": 9217,
      "▁לעכבר": 9218,
      "לעטוף": 9219,
      "▁לעטוף": 9220,
      "ושרו": 9221,
      "▁ושרו": 9222,
      "כיס": 9223,
      "▁כיס": 9224,
      "מוכש": 9225,
      "▁מוכש": 9226,
      "מקשי": 9227,
      "▁מקשי": 9228,
      "לקרקע": 9229,
      "▁לקרקע": 9230,
      "עיניהם": 9231,
      "▁עיניהם": 9232,
      "בתח": 9233,
      "▁בתח": 9234,
      "מתק": 9235,
      "▁מתק": 9236,
      "ונכי": 9237,
      "▁ונכי": 9238,
      "להתרחץ": 9239,
      "▁להתרחץ": 9240,
      "הנעל": 9241,
      "▁הנעל": 9242,
      "הביצים": 9243,
      "▁הביצים": 9244,
      "זיגזג": 9245,
      "▁זיגזג": 9246,
      "הרימו": 9247,
      "▁הרימו": 9248,
      "קווש": 9249,
      "▁קווש": 9250,
      "מוצאת": 9251,
      "▁מוצאת": 9252,
      "בלונים": 9253,
      "▁בלונים": 9254,
      "החיטה": 9255,
      "▁החיטה": 9256,
      "הוריו": 9257,
      "▁הוריו": 9258,
      "הפסל": 9259,
      "▁הפסל": 9260,
      "שתלטנית": 9261,
      "▁שתלטנית": 9262,
      "מחליטים": 9263,
      "▁מחליטים": 9264,
      "רררררררררררררררר": 9265,
      "▁רררררררררררררררר": 9266,
      "ארה": 9267,
      "▁ארה": 9268,
      "בצבע": 9269,
      "▁בצבע": 9270,
      "גנת": 9271,
      "▁גנת": 9272,
      "השמים": 9273,
      "▁השמים": 9274,
      "נבים": 9275,
      "▁נבים": 9276,
      "נדו": 9277,
      "▁נדו": 9278,
      "פח": 9279,
      "▁פח": 9280,
      "ובת": 9281,
      "▁ובת": 9282,
      "והבת": 9283,
      "▁והבת": 9284,
      "והמכונית": 9285,
      "▁והמכונית": 9286,
      "התעו": 9287,
      "▁התעו": 9288,
      "לתולה": 9289,
      "▁לתולה": 9290,
      "גרפה": 9291,
      "▁גרפה": 9292,
      "יקוקים": 9293,
      "▁יקוקים": 9294,
      "הזבוב": 9295,
      "▁הזבוב": 9296,
      "לסנאי": 9297,
      "▁לסנאי": 9298,
      "אליי": 9299,
      "▁אליי": 9300,
      "לפרוק": 9301,
      "▁לפרוק": 9302,
      "ואיך": 9303,
      "▁ואיך": 9304,
      "רובי": 9305,
      "▁רובי": 9306,
      "הניד": 9307,
      "▁הניד": 9308,
      "הציור": 9309,
      "▁הציור": 9310,
      "לעצב": 9311,
      "▁לעצב": 9312,
      "תפסי": 9313,
      "▁תפסי": 9314,
      "גורט": 9315,
      "▁גורט": 9316,
      "ניגנה": 9317,
      "▁ניגנה": 9318,
      "יצירת": 9319,
      "▁יצירת": 9320,
      "עצמאי": 9321,
      "▁עצמאי": 9322,
      "לרכוש": 9323,
      "▁לרכוש": 9324,
      "אך": 9325,
      "▁אך": 9326,
      "ביתה": 9327,
      "▁ביתה": 9328,
      "ומאז": 9329,
      "▁ומאז": 9330,
      "זקה": 9331,
      "▁זקה": 9332,
      "זוג": 9333,
      "▁זוג": 9334,
      "יגרום": 9335,
      "▁יגרום": 9336,
      "נטי": 9337,
      "▁נטי": 9338,
      "נמס": 9339,
      "▁נמס": 9340,
      "נזהר": 9341,
      "▁נזהר": 9342,
      "סק": 9343,
      "▁סק": 9344,
      "סטייק": 9345,
      "▁סטייק": 9346,
      "שרצה": 9347,
      "▁שרצה": 9348,
      "שעון": 9349,
      "▁שעון": 9350,
      "ובעלי": 9351,
      "▁ובעלי": 9352,
      "בילו": 9353,
      "▁בילו": 9354,
      "בידה": 9355,
      "▁בידה": 9356,
      "לשכב": 9357,
      "▁לשכב": 9358,
      "כיב": 9359,
      "▁כיב": 9360,
      "מושלמת": 9361,
      "▁מושלמת": 9362,
      "האמבטיה": 9363,
      "▁האמבטיה": 9364,
      "האמינה": 9365,
      "▁האמינה": 9366,
      "העמוק": 9367,
      "▁העמוק": 9368,
      "חזיקה": 9369,
      "▁חזיקה": 9370,
      "ידית": 9371,
      "▁ידית": 9372,
      "קיות": 9373,
      "▁קיות": 9374,
      "זרן": 9375,
      "▁זרן": 9376,
      "ומהיר": 9377,
      "▁ומהיר": 9378,
      "בטחה": 9379,
      "▁בטחה": 9380,
      "הנדי": 9381,
      "▁הנדי": 9382,
      "מעלה": 9383,
      "▁מעלה": 9384,
      "רוקית": 9385,
      "▁רוקית": 9386,
      "התיישב": 9387,
      "▁התיישב": 9388,
      "חושך": 9389,
      "▁חושך": 9390,
      "ראש": 9391,
      "▁ראש": 9392,
      "וחיפש": 9393,
      "▁וחיפש": 9394,
      "מפחדת": 9395,
      "▁מפחדת": 9396,
      "אסור": 9397,
      "▁אסור": 9398,
      "מוטרד": 9399,
      "▁מוטרד": 9400,
      "וציפור": 9401,
      "▁וציפור": 9402,
      "חודי": 9403,
      "▁חודי": 9404,
      "טות": 9405,
      "▁טות": 9406,
      "כד": 9407,
      "▁כד": 9408,
      "מזו": 9409,
      "▁מזו": 9410,
      "נמלים": 9411,
      "▁נמלים": 9412,
      "שלח": 9413,
      "▁שלח": 9414,
      "מאוכ": 9415,
      "▁מאוכ": 9416,
      "חימר": 9417,
      "▁חימר": 9418,
      "והעץ": 9419,
      "▁והעץ": 9420,
      "והרימה": 9421,
      "▁והרימה": 9422,
      "מינו": 9423,
      "▁מינו": 9424,
      "ביעה": 9425,
      "▁ביעה": 9426,
      "נוש": 9427,
      "▁נוש": 9428,
      "מצביע": 9429,
      "▁מצביע": 9430,
      "מוכר": 9431,
      "▁מוכר": 9432,
      "התוף": 9433,
      "▁התוף": 9434,
      "האגרטל": 9435,
      "▁האגרטל": 9436,
      "חתיכות": 9437,
      "▁חתיכות": 9438,
      "הסיכה": 9439,
      "▁הסיכה": 9440,
      "סיבת": 9441,
      "▁סיבת": 9442,
      "שוחה": 9443,
      "▁שוחה": 9444,
      "שוחים": 9445,
      "▁שוחים": 9446,
      "חוזרים": 9447,
      "▁חוזרים": 9448,
      "כשזה": 9449,
      "▁כשזה": 9450,
      "ומחי": 9451,
      "▁ומחי": 9452,
      "עשן": 9453,
      "▁עשן": 9454,
      "לביתם": 9455,
      "▁לביתם": 9456,
      "מודד": 9457,
      "▁מודד": 9458,
      "ענע": 9459,
      "▁ענע": 9460,
      "נדיב": 9461,
      "▁נדיב": 9462,
      "ווין": 9463,
      "▁ווין": 9464,
      "הלוטרה": 9465,
      "▁הלוטרה": 9466,
      "וישבה": 9467,
      "▁וישבה": 9468,
      "למראה": 9469,
      "▁למראה": 9470,
      "ורילה": 9471,
      "▁ורילה": 9472,
      "בגאווה": 9473,
      "▁בגאווה": 9474,
      "המדהים": 9475,
      "▁המדהים": 9476,
      "מלוכלכת": 9477,
      "▁מלוכלכת": 9478,
      "אספה": 9479,
      "▁אספה": 9480,
      "המאפין": 9481,
      "▁המאפין": 9482,
      "המטען": 9483,
      "▁המטען": 9484,
      "צליח": 9485,
      "▁צליח": 9486,
      "נבהל": 9487,
      "▁נבהל": 9488,
      "ממתק": 9489,
      "▁ממתק": 9490,
      "ונפלה": 9491,
      "▁ונפלה": 9492,
      "בעלים": 9493,
      "▁בעלים": 9494,
      "בושת": 9495,
      "▁בושת": 9496,
      "הבלתי": 9497,
      "▁הבלתי": 9498,
      "השמן": 9499,
      "▁השמן": 9500,
      "ומשחק": 9501,
      "▁ומשחק": 9502,
      "לצעצועים": 9503,
      "▁לצעצועים": 9504,
      "נבת": 9505,
      "▁נבת": 9506,
      "עתיק": 9507,
      "▁עתיק": 9508,
      "קסי": 9509,
      "▁קסי": 9510,
      "ולהנות": 9511,
      "▁ולהנות": 9512,
      "ובכל": 9513,
      "▁ובכל": 9514,
      "מילה": 9515,
      "▁מילה": 9516,
      "שיכלו": 9517,
      "▁שיכלו": 9518,
      "מצאת": 9519,
      "▁מצאת": 9520,
      "האלון": 9521,
      "▁האלון": 9522,
      "פילה": 9523,
      "▁פילה": 9524,
      "רציני": 9525,
      "▁רציני": 9526,
      "בקי": 9527,
      "▁בקי": 9528,
      "שמחות": 9529,
      "▁שמחות": 9530,
      "וקו": 9531,
      "▁וקו": 9532,
      "פספס": 9533,
      "▁פספס": 9534,
      "במע": 9535,
      "▁במע": 9536,
      "אדיר": 9537,
      "▁אדיר": 9538,
      "נגווין": 9539,
      "▁נגווין": 9540,
      "וחיכתה": 9541,
      "▁וחיכתה": 9542,
      "המפית": 9543,
      "▁המפית": 9544,
      "המגבת": 9545,
      "▁המגבת": 9546,
      "הוציאו": 9547,
      "▁הוציאו": 9548,
      "וזרקה": 9549,
      "▁וזרקה": 9550,
      "מגיעה": 9551,
      "▁מגיעה": 9552,
      "פלסטר": 9553,
      "▁פלסטר": 9554,
      "מאוכז": 9555,
      "▁מאוכז": 9556,
      "וטימי": 9557,
      "▁וטימי": 9558,
      "לגדר": 9559,
      "▁לגדר": 9560,
      "למשפחתו": 9561,
      "▁למשפחתו": 9562,
      "מטום": 9563,
      "▁מטום": 9564,
      "עברה": 9565,
      "▁עברה": 9566,
      "עגלה": 9567,
      "▁עגלה": 9568,
      "שסאם": 9569,
      "▁שסאם": 9570,
      "תהתה": 9571,
      "▁תהתה": 9572,
      "ואולי": 9573,
      "▁ואולי": 9574,
      "ולבן": 9575,
      "▁ולבן": 9576,
      "ברכבת": 9577,
      "▁ברכבת": 9578,
      "שירה": 9579,
      "▁שירה": 9580,
      "בינקי": 9581,
      "▁בינקי": 9582,
      "החלט": 9583,
      "▁החלט": 9584,
      "לדוג": 9585,
      "▁לדוג": 9586,
      "הצמחים": 9587,
      "▁הצמחים": 9588,
      "ושחה": 9589,
      "▁ושחה": 9590,
      "יכולתי": 9591,
      "▁יכולתי": 9592,
      "הסבון": 9593,
      "▁הסבון": 9594,
      "טינה": 9595,
      "▁טינה": 9596,
      "השעועית": 9597,
      "▁השעועית": 9598,
      "לתו": 9599,
      "▁לתו": 9600,
      "עליזה": 9601,
      "▁עליזה": 9602,
      "רעד": 9603,
      "▁רעד": 9604,
      "לסלוח": 9605,
      "▁לסלוח": 9606,
      "בחוזקה": 9607,
      "▁בחוזקה": 9608,
      "בכלוב": 9609,
      "▁בכלוב": 9610,
      "ולחפש": 9611,
      "▁ולחפש": 9612,
      "מגבת": 9613,
      "▁מגבת": 9614,
      "לחוצה": 9615,
      "▁לחוצה": 9616,
      "ערבב": 9617,
      "▁ערבב": 9618,
      "וישב": 9619,
      "▁וישב": 9620,
      "צהובים": 9621,
      "▁צהובים": 9622,
      "התרנגול": 9623,
      "▁התרנגול": 9624,
      "מדהימה": 9625,
      "▁מדהימה": 9626,
      "צודק": 9627,
      "▁צודק": 9628,
      "מיהרה": 9629,
      "▁מיהרה": 9630,
      "פופולרי": 9631,
      "▁פופולרי": 9632,
      "בציפורים": 9633,
      "▁בציפורים": 9634,
      "השיב": 9635,
      "▁השיב": 9636,
      "ימצא": 9637,
      "▁ימצא": 9638,
      "לגבעה": 9639,
      "▁לגבעה": 9640,
      "לנחש": 9641,
      "▁לנחש": 9642,
      "נעים": 9643,
      "▁נעים": 9644,
      "שן": 9645,
      "▁שן": 9646,
      "שסו": 9647,
      "▁שסו": 9648,
      "שחיה": 9649,
      "▁שחיה": 9650,
      "תשחק": 9651,
      "▁תשחק": 9652,
      "תזכור": 9653,
      "▁תזכור": 9654,
      "ולד": 9655,
      "▁ולד": 9656,
      "ולר": 9657,
      "▁ולר": 9658,
      "ולדבר": 9659,
[...]
