{
  "version": "1.0",
  "truncation": null,
  "padding": null,
  "added_tokens": [
    {
      "id": 0,
      "content": "<|PAD|>",
      "single_word": false,
      "lstrip": false,
      "rstrip": false,
      "normalized": false,
      "special": true
    },
    {
      "id": 1,
      "content": "<|BOS|>",
      "single_word": false,
      "lstrip": false,
      "rstrip": false,
      "normalized": false,
      "special": true
    },
    {
      "id": 2,
      "content": "<|EOS|>",
      "single_word": false,
      "lstrip": false,
      "rstrip": false,
      "normalized": false,
      "special": true
    },
    {
      "id": 3,
      "content": "<|UNK|>",
      "single_word": false,
      "lstrip": false,
      "rstrip": false,
      "normalized": false,
      "special": true
    }
  ],
  "normalizer": {
    "type": "NFKC"
  },
  "pre_tokenizer": {
    "type": "Metaspace",
    "replacement": "▁",
    "prepend_scheme": "never",
    "split": true
  },
  "post_processor": {
    "type": "TemplateProcessing",
    "single": [
      {
        "SpecialToken": {
          "id": "<|BOS|>",
          "type_id": 0
        }
      },
      {
        "Sequence": {
          "id": "A",
          "type_id": 0
        }
      },
      {
        "SpecialToken": {
          "id": "<|EOS|>",
          "type_id": 0
        }
      }
    ],
    "pair": [
      {
        "SpecialToken": {
          "id": "<|BOS|>",
          "type_id": 0
        }
      },
      {
        "Sequence": {
          "id": "A",
          "type_id": 0
        }
      },
      {
        "SpecialToken": {
          "id": "<|EOS|>",
          "type_id": 0
        }
      },
      {
        "SpecialToken": {
          "id": "<|BOS|>",
          "type_id": 1
        }
      },
      {
        "Sequence": {
          "id": "B",
          "type_id": 1
        }
      },
      {
        "SpecialToken": {
          "id": "<|EOS|>",
          "type_id": 1
        }
      }
    ],
    "special_tokens": {
      "<|BOS|>": {
        "id": "<|BOS|>",
        "ids": [
          1
        ],
        "tokens": [
          "<|BOS|>"
        ]
      },
      "<|EOS|>": {
        "id": "<|EOS|>",
        "ids": [
          2
        ],
        "tokens": [
          "<|EOS|>"
        ]
      }
    }
  },
  "decoder": {
    "type": "Metaspace",
    "replacement": "▁",
    "prepend_scheme": "never",
    "split": true
  },
  "model": {
    "type": "BPE",
    "dropout": null,
    "unk_token": "<|UNK|>",
    "continuing_subword_prefix": null,
    "end_of_word_suffix": null,
    "fuse_unk": false,
    "byte_fallback": false,
    "ignore_merges": false,
    "vocab": {
      "<|PAD|>": 0,
      "<|BOS|>": 1,
      "<|EOS|>": 2,
      "<|UNK|>": 3,
      "!": 4,
      "\"": 5,
      "$": 6,
      "%": 7,
      "&": 8,
      "'": 9,
      "(": 10,
      ")": 11,
      "*": 12,
      "+": 13,
      ",": 14,
      "-": 15,
      ".": 16,
      "/": 17,
      "0": 18,
      "1": 19,
      "2": 20,
      "3": 21,
      "4": 22,
      "5": 23,
      "6": 24,
      "7": 25,
      "8": 26,
      "9": 27,
      ":": 28,
      ";": 29,
      "=": 30,
      "?": 31,
      "_": 32,
      "a": 33,
      "A": 34,
      "b": 35,
      "B": 36,
      "c": 37,
      "C": 38,
      "d": 39,
      "D": 40,
      "e": 41,
      "E": 42,
      "f": 43,
      "F": 44,
      "g": 45,
      "G": 46,
      "h": 47,
      "H": 48,
      "i": 49,
      "I": 50,
      "j": 51,
      "J": 52,
      "k": 53,
      "K": 54,
      "l": 55,
      "L": 56,
      "m": 57,
      "M": 58,
      "n": 59,
      "N": 60,
      "o": 61,
      "O": 62,
      "p": 63,
      "P": 64,
      "q": 65,
      "Q": 66,
      "r": 67,
      "R": 68,
      "s": 69,
      "S": 70,
      "t": 71,
      "T": 72,
      "u": 73,
      "U": 74,
      "v": 75,
      "V": 76,
      "w": 77,
      "W": 78,
      "x": 79,
      "X": 80,
      "y": 81,
      "Y": 82,
      "z": 83,
      "Z": 84,
      "~": 85,
      "м": 86,
      "М": 87,
      "ю": 88,
      "Ю": 89,
      "拍": 90,
      "詩": 91,
      "가": 92,
      "각": 93,
      "간": 94,
      "갇": 95,
      "갈": 96,
      "갉": 97,
      "감": 98,
      "갑": 99,
      "값": 100,
      "갓": 101,
      "갔": 102,
      "강": 103,
      "갖": 104,
      "같": 105,
      "갚": 106,
      "갛": 107,
      "개": 108,
      "객": 109,
      "갠": 110,
      "갤": 111,
      "갯": 112,
      "갰": 113,
      "갱": 114,
      "갸": 115,
      "걀": 116,
      "걔": 117,
      "거": 118,
      "걱": 119,
      "건": 120,
      "걷": 121,
      "걸": 122,
      "검": 123,
      "겁": 124,
      "것": 125,
      "겅": 126,
      "겉": 127,
      "겊": 128,
      "게": 129,
      "겐": 130,
      "겔": 131,
      "겟": 132,
      "겠": 133,
      "겨": 134,
      "격": 135,
      "겪": 136,
      "견": 137,
      "결": 138,
      "겸": 139,
      "겹": 140,
      "겼": 141,
      "경": 142,
      "곁": 143,
      "계": 144,
      "고": 145,
      "곡": 146,
      "곤": 147,
      "곧": 148,
      "골": 149,
      "곰": 150,
      "곱": 151,
      "곳": 152,
      "공": 153,
      "과": 154,
      "곽": 155,
      "관": 156,
      "괄": 157,
      "광": 158,
      "괜": 159,
      "괭": 160,
      "괴": 161,
      "굉": 162,
      "교": 163,
      "구": 164,
      "국": 165,
      "군": 166,
      "굳": 167,
      "굴": 168,
      "굵": 169,
      "굶": 170,
      "굼": 171,
      "굽": 172,
      "굿": 173,
      "궁": 174,
      "궂": 175,
      "궈": 176,
      "권": 177,
      "궜": 178,
      "궤": 179,
      "귀": 180,
      "귄": 181,
      "귈": 182,
      "귐": 183,
      "귓": 184,
      "규": 185,
      "균": 186,
      "귤": 187,
      "그": 188,
      "극": 189,
      "근": 190,
      "글": 191,
      "긁": 192,
      "금": 193,
      "급": 194,
      "긋": 195,
      "긍": 196,
      "기": 197,
      "긴": 198,
      "긷": 199,
      "길": 200,
      "김": 201,
      "깁": 202,
      "깃": 203,
      "깅": 204,
      "깊": 205,
      "까": 206,
      "깍": 207,
      "깎": 208,
      "깐": 209,
      "깔": 210,
      "깜": 211,
      "깝": 212,
      "깡": 213,
      "깥": 214,
      "깨": 215,
      "깬": 216,
      "깰": 217,
      "깼": 218,
      "꺼": 219,
      "꺽": 220,
      "꺾": 221,
      "껌": 222,
      "껍": 223,
      "껏": 224,
      "껐": 225,
      "껑": 226,
      "께": 227,
      "껴": 228,
      "꼈": 229,
      "꼬": 230,
      "꼭": 231,
      "꼴": 232,
      "꼼": 233,
      "꼽": 234,
      "꽁": 235,
      "꽂": 236,
      "꽃": 237,
      "꽉": 238,
      "꽝": 239,
      "꽤": 240,
      "꽥": 241,
      "꾀": 242,
      "꾸": 243,
      "꾹": 244,
      "꾼": 245,
      "꿀": 246,
      "꿇": 247,
      "꿈": 248,
      "꿉": 249,
      "꿋": 250,
      "꿍": 251,
      "꿔": 252,
      "꿨": 253,
      "꿩": 254,
      "꿰": 255,
      "꿴": 256,
      "뀌": 257,
      "뀐": 258,
      "뀔": 259,
      "끄": 260,
      "끈": 261,
      "끊": 262,
      "끌": 263,
      "끓": 264,
      "끔": 265,
      "끕": 266,
      "끗": 267,
      "끝": 268,
      "끼": 269,
      "끽": 270,
      "낀": 271,
      "낄": 272,
      "낌": 273,
      "낍": 274,
      "나": 275,
      "낙": 276,
      "낚": 277,
      "난": 278,
      "날": 279,
      "낡": 280,
      "남": 281,
      "납": 282,
      "낫": 283,
      "났": 284,
      "낭": 285,
      "낮": 286,
      "낯": 287,
      "낱": 288,
      "낳": 289,
      "내": 290,
      "낵": 291,
      "낸": 292,
      "낼": 293,
      "냄": 294,
      "냅": 295,
      "냇": 296,
      "냈": 297,
      "냉": 298,
      "냐": 299,
      "냘": 300,
      "냠": 301,
      "냥": 302,
      "너": 303,
      "넉": 304,
      "넋": 305,
      "넌": 306,
      "널": 307,
      "넓": 308,
      "넘": 309,
      "넛": 310,
      "넜": 311,
      "넣": 312,
      "네": 313,
      "넥": 314,
      "넨": 315,
      "넬": 316,
      "넵": 317,
      "넷": 318,
      "넸": 319,
      "녀": 320,
      "녁": 321,
      "년": 322,
      "념": 323,
      "녔": 324,
      "녕": 325,
      "녘": 326,
      "노": 327,
      "녹": 328,
      "논": 329,
      "놀": 330,
      "놈": 331,
      "놉": 332,
      "농": 333,
      "높": 334,
      "놓": 335,
      "놔": 336,
      "놨": 337,
      "뇌": 338,
      "뇨": 339,
      "뇽": 340,
      "누": 341,
      "눅": 342,
      "눈": 343,
      "눌": 344,
      "눔": 345,
      "눕": 346,
      "눗": 347,
      "눙": 348,
      "눠": 349,
      "눴": 350,
      "뉘": 351,
      "뉜": 352,
      "뉴": 353,
      "늉": 354,
      "느": 355,
      "늑": 356,
      "는": 357,
      "늘": 358,
      "늙": 359,
      "늠": 360,
      "능": 361,
      "늦": 362,
      "늪": 363,
      "늬": 364,
      "니": 365,
      "닉": 366,
      "닌": 367,
      "닐": 368,
      "님": 369,
      "닙": 370,
      "닛": 371,
      "닝": 372,
      "다": 373,
      "닥": 374,
      "닦": 375,
      "단": 376,
      "닫": 377,
      "달": 378,
      "닭": 379,
      "닮": 380,
      "닳": 381,
      "담": 382,
      "답": 383,
      "닷": 384,
      "당": 385,
      "닻": 386,
      "닿": 387,
      "대": 388,
      "댁": 389,
      "댄": 390,
      "댈": 391,
      "댐": 392,
      "댑": 393,
      "댓": 394,
      "댔": 395,
      "댕": 396,
      "더": 397,
      "덕": 398,
      "던": 399,
      "덜": 400,
      "덟": 401,
      "덤": 402,
      "덥": 403,
      "덧": 404,
      "덩": 405,
      "덫": 406,
      "덮": 407,
      "데": 408,
      "덱": 409,
      "덴": 410,
      "델": 411,
      "뎁": 412,
      "뎌": 413,
      "뎠": 414,
      "도": 415,
      "독": 416,
      "돈": 417,
      "돋": 418,
      "돌": 419,
      "돔": 420,
      "돕": 421,
      "돗": 422,
      "동": 423,
      "돛": 424,
      "돼": 425,
      "됐": 426,
      "되": 427,
      "된": 428,
      "될": 429,
      "됨": 430,
      "됩": 431,
      "두": 432,
      "둑": 433,
      "둔": 434,
      "둘": 435,
      "둠": 436,
      "둡": 437,
      "둣": 438,
      "둥": 439,
      "둬": 440,
      "뒀": 441,
      "뒤": 442,
      "뒷": 443,
      "뒹": 444,
      "듀": 445,
      "드": 446,
      "득": 447,
      "든": 448,
      "듣": 449,
      "들": 450,
      "듬": 451,
      "듭": 452,
      "듯": 453,
      "등": 454,
      "디": 455,
      "딕": 456,
      "딘": 457,
      "딛": 458,
      "딜": 459,
      "딤": 460,
      "딥": 461,
      "딧": 462,
      "딨": 463,
      "딩": 464,
      "딪": 465,
      "따": 466,
      "딱": 467,
      "딴": 468,
      "딸": 469,
      "땀": 470,
      "땃": 471,
      "땄": 472,
      "땅": 473,
      "땋": 474,
      "때": 475,
      "땐": 476,
      "땔": 477,
      "땠": 478,
      "땡": 479,
      "떠": 480,
      "떡": 481,
      "떤": 482,
      "떨": 483,
      "떫": 484,
      "떴": 485,
      "떻": 486,
      "떼": 487,
      "뗀": 488,
      "뗄": 489,
      "뗏": 490,
      "뗐": 491,
      "또": 492,
      "똑": 493,
      "똘": 494,
      "똥": 495,
      "뚜": 496,
      "뚝": 497,
      "뚤": 498,
      "뚫": 499,
      "뚱": 500,
      "뛰": 501,
      "뛴": 502,
      "뛸": 503,
      "뜁": 504,
      "뜨": 505,
      "뜩": 506,
      "뜬": 507,
      "뜯": 508,
      "뜰": 509,
      "뜸": 510,
      "뜹": 511,
      "뜻": 512,
      "띄": 513,
      "띈": 514,
      "띠": 515,
      "띤": 516,
      "띱": 517,
      "띵": 518,
      "라": 519,
      "락": 520,
      "란": 521,
      "랄": 522,
      "람": 523,
      "랍": 524,
      "랐": 525,
      "랑": 526,
      "랗": 527,
      "래": 528,
      "랙": 529,
      "랜": 530,
      "램": 531,
      "랩": 532,
      "랫": 533,
      "랬": 534,
      "랭": 535,
      "랴": 536,
      "략": 537,
      "량": 538,
      "러": 539,
      "럭": 540,
      "런": 541,
      "럴": 542,
      "럼": 543,
      "럽": 544,
      "럿": 545,
      "렀": 546,
      "렁": 547,
      "렇": 548,
      "레": 549,
      "렉": 550,
      "렌": 551,
      "렐": 552,
      "렘": 553,
      "렙": 554,
      "렛": 555,
      "려": 556,
      "력": 557,
      "련": 558,
      "렬": 559,
      "렴": 560,
      "렵": 561,
      "렷": 562,
      "렸": 563,
      "령": 564,
      "례": 565,
      "로": 566,
      "록": 567,
      "론": 568,
      "롤": 569,
      "롬": 570,
      "롭": 571,
      "롯": 572,
      "롱": 573,
      "뢰": 574,
      "료": 575,
      "룡": 576,
      "루": 577,
      "룩": 578,
      "룬": 579,
      "룰": 580,
      "룸": 581,
      "룹": 582,
      "룻": 583,
      "룽": 584,
      "뤄": 585,
      "뤘": 586,
      "뤼": 587,
      "류": 588,
      "륙": 589,
      "륜": 590,
      "률": 591,
      "륨": 592,
      "륭": 593,
      "르": 594,
      "륵": 595,
      "른": 596,
      "를": 597,
      "름": 598,
      "릅": 599,
      "릇": 600,
      "릉": 601,
      "릎": 602,
      "리": 603,
      "릭": 604,
      "린": 605,
      "릴": 606,
      "림": 607,
      "립": 608,
      "릿": 609,
      "링": 610,
      "마": 611,
      "막": 612,
      "만": 613,
      "많": 614,
      "맏": 615,
      "말": 616,
      "맑": 617,
      "맘": 618,
      "맙": 619,
      "맛": 620,
      "망": 621,
      "맞": 622,
      "맡": 623,
      "맣": 624,
      "매": 625,
      "맥": 626,
      "맨": 627,
      "맬": 628,
      "맴": 629,
      "맵": 630,
      "맷": 631,
      "맸": 632,
      "맹": 633,
      "맺": 634,
      "머": 635,
      "먹": 636,
      "먼": 637,
      "멀": 638,
      "멈": 639,
      "멋": 640,
      "멍": 641,
      "멎": 642,
      "메": 643,
      "멕": 644,
      "멘": 645,
      "멜": 646,
      "멤": 647,
      "멧": 648,
      "멩": 649,
      "며": 650,
      "면": 651,
      "멸": 652,
      "몄": 653,
      "명": 654,
      "몇": 655,
      "모": 656,
      "목": 657,
      "몫": 658,
      "몬": 659,
      "몰": 660,
      "몸": 661,
      "몹": 662,
      "못": 663,
      "몽": 664,
      "묘": 665,
      "무": 666,
      "묵": 667,
      "묶": 668,
      "문": 669,
      "묻": 670,
      "물": 671,
      "묽": 672,
      "뭅": 673,
      "뭇": 674,
      "뭉": 675,
      "뭍": 676,
      "뭐": 677,
      "뭔": 678,
      "뭘": 679,
      "뮤": 680,
      "뮬": 681,
      "므": 682,
      "믈": 683,
      "미": 684,
      "믹": 685,
      "민": 686,
      "믿": 687,
      "밀": 688,
      "밈": 689,
      "밉": 690,
      "밋": 691,
      "밌": 692,
      "밍": 693,
      "및": 694,
      "밑": 695,
      "바": 696,
      "박": 697,
      "밖": 698,
      "반": 699,
      "받": 700,
      "발": 701,
      "밝": 702,
      "밟": 703,
      "밤": 704,
      "밥": 705,
      "밧": 706,
      "방": 707,
      "밭": 708,
      "배": 709,
      "백": 710,
      "밴": 711,
      "밸": 712,
      "뱀": 713,
      "뱁": 714,
      "뱃": 715,
      "뱅": 716,
      "뱉": 717,
      "버": 718,
      "벅": 719,
      "번": 720,
      "벌": 721,
      "범": 722,
      "법": 723,
      "벗": 724,
      "벙": 725,
      "벚": 726,
      "베": 727,
      "벡": 728,
      "벤": 729,
      "벨": 730,
      "벳": 731,
      "벵": 732,
      "벼": 733,
      "벽": 734,
      "변": 735,
      "별": 736,
      "볍": 737,
      "볏": 738,
      "볐": 739,
      "병": 740,
      "볕": 741,
      "보": 742,
      "복": 743,
      "볶": 744,
      "본": 745,
      "볼": 746,
      "봄": 747,
      "봅": 748,
      "봇": 749,
      "봉": 750,
      "봐": 751,
      "봤": 752,
      "봬": 753,
      "뵈": 754,
      "뵐": 755,
      "뵙": 756,
      "부": 757,
      "북": 758,
      "분": 759,
      "불": 760,
      "붉": 761,
      "붐": 762,
      "붓": 763,
      "붕": 764,
      "붙": 765,
      "뷰": 766,
      "뷸": 767,
      "브": 768,
      "븐": 769,
      "블": 770,
      "비": 771,
      "빅": 772,
      "빈": 773,
      "빌": 774,
      "빔": 775,
      "빕": 776,
      "빗": 777,
      "빙": 778,
      "빚": 779,
      "빛": 780,
      "빠": 781,
      "빡": 782,
      "빤": 783,
      "빨": 784,
      "빴": 785,
      "빵": 786,
      "빻": 787,
      "빼": 788,
      "빽": 789,
      "뺏": 790,
      "뺐": 791,
      "뺨": 792,
      "뻐": 793,
      "뻑": 794,
      "뻔": 795,
      "뻗": 796,
      "뻘": 797,
      "뻣": 798,
      "뻤": 799,
      "뼈": 800,
      "뼉": 801,
      "뼘": 802,
      "뽀": 803,
      "뽁": 804,
      "뽐": 805,
      "뽑": 806,
      "뽕": 807,
      "뾰": 808,
      "뿌": 809,
      "뿍": 810,
      "뿐": 811,
      "뿔": 812,
      "뿜": 813,
      "뿡": 814,
      "쁘": 815,
      "쁜": 816,
      "쁠": 817,
      "쁨": 818,
      "쁩": 819,
      "삐": 820,
      "삑": 821,
      "삔": 822,
      "삘": 823,
      "사": 824,
      "삭": 825,
      "산": 826,
      "살": 827,
      "삶": 828,
      "삼": 829,
      "삽": 830,
      "삿": 831,
      "샀": 832,
      "상": 833,
      "샅": 834,
      "새": 835,
      "색": 836,
      "샌": 837,
      "샐": 838,
      "샘": 839,
      "샛": 840,
      "생": 841,
      "샤": 842,
      "샨": 843,
      "샬": 844,
      "샴": 845,
      "샵": 846,
      "샷": 847,
      "샹": 848,
      "섀": 849,
      "서": 850,
      "석": 851,
      "섞": 852,
      "선": 853,
      "섣": 854,
      "설": 855,
      "섬": 856,
      "섭": 857,
      "섯": 858,
      "섰": 859,
      "성": 860,
      "세": 861,
      "섹": 862,
      "센": 863,
      "셀": 864,
      "셈": 865,
      "셉": 866,
      "셋": 867,
      "셌": 868,
      "셔": 869,
      "션": 870,
      "셜": 871,
      "셨": 872,
      "셰": 873,
      "셸": 874,
      "소": 875,
      "속": 876,
      "손": 877,
      "솔": 878,
      "솜": 879,
      "솝": 880,
      "솟": 881,
      "송": 882,
      "솥": 883,
      "쇄": 884,
      "쇠": 885,
      "쇼": 886,
      "숀": 887,
      "숄": 888,
      "숍": 889,
      "숏": 890,
      "수": 891,
      "숙": 892,
      "순": 893,
      "숟": 894,
      "술": 895,
      "숨": 896,
      "숩": 897,
      "숫": 898,
      "숭": 899,
      "숯": 900,
      "숲": 901,
      "숴": 902,
      "쉈": 903,
      "쉐": 904,
      "쉘": 905,
      "쉬": 906,
      "쉭": 907,
      "쉰": 908,
      "쉴": 909,
      "쉼": 910,
      "쉽": 911,
      "쉿": 912,
      "슈": 913,
      "슉": 914,
      "슐": 915,
      "슙": 916,
      "슛": 917,
      "슝": 918,
      "스": 919,
      "슥": 920,
      "슨": 921,
      "슬": 922,
      "슭": 923,
      "슴": 924,
      "습": 925,
      "슷": 926,
      "승": 927,
      "시": 928,
      "식": 929,
      "신": 930,
      "싣": 931,
      "실": 932,
      "싫": 933,
      "심": 934,
      "십": 935,
      "싯": 936,
      "싱": 937,
      "싶": 938,
      "싸": 939,
      "싹": 940,
      "싼": 941,
      "쌀": 942,
      "쌉": 943,
      "쌌": 944,
      "쌍": 945,
      "쌓": 946,
      "쌔": 947,
      "쌩": 948,
      "썅": 949,
      "써": 950,
      "썩": 951,
      "썬": 952,
      "썰": 953,
      "썸": 954,
      "썹": 955,
      "썼": 956,
      "썽": 957,
      "쎄": 958,
      "쏘": 959,
      "쏙": 960,
      "쏜": 961,
      "쏟": 962,
      "쏠": 963,
      "쏩": 964,
      "쏴": 965,
      "쐈": 966,
      "쑤": 967,
      "쑥": 968,
      "쓰": 969,
      "쓱": 970,
      "쓴": 971,
      "쓸": 972,
      "씀": 973,
      "씁": 974,
      "씌": 975,
      "씨": 976,
      "씩": 977,
      "씬": 978,
      "씰": 979,
      "씹": 980,
      "씻": 981,
      "씽": 982,
      "아": 983,
      "악": 984,
      "안": 985,
      "앉": 986,
      "않": 987,
      "알": 988,
      "앓": 989,
      "암": 990,
      "압": 991,
      "앗": 992,
      "았": 993,
      "앙": 994,
      "앞": 995,
      "애": 996,
      "액": 997,
      "앤": 998,
      "앨": 999,
      "앰": 1000,
      "앱": 1001,
      "앴": 1002,
      "앵": 1003,
      "야": 1004,
      "약": 1005,
      "얀": 1006,
      "얄": 1007,
      "얇": 1008,
      "얌": 1009,
      "얏": 1010,
      "양": 1011,
      "얕": 1012,
      "얗": 1013,
      "얘": 1014,
      "어": 1015,
      "억": 1016,
      "언": 1017,
      "얹": 1018,
      "얻": 1019,
      "얼": 1020,
      "얽": 1021,
      "엄": 1022,
      "업": 1023,
      "없": 1024,
      "엇": 1025,
      "었": 1026,
      "엉": 1027,
      "엌": 1028,
      "엎": 1029,
      "에": 1030,
      "엑": 1031,
      "엔": 1032,
      "엘": 1033,
      "엠": 1034,
      "엣": 1035,
      "엥": 1036,
      "여": 1037,
      "역": 1038,
      "엮": 1039,
      "연": 1040,
      "열": 1041,
      "염": 1042,
      "엽": 1043,
      "엾": 1044,
      "엿": 1045,
      "였": 1046,
      "영": 1047,
      "옅": 1048,
      "옆": 1049,
      "옇": 1050,
      "예": 1051,
      "옐": 1052,
      "옛": 1053,
      "오": 1054,
      "옥": 1055,
      "온": 1056,
      "올": 1057,
      "옮": 1058,
      "옳": 1059,
      "옴": 1060,
      "옵": 1061,
      "옷": 1062,
      "옹": 1063,
      "와": 1064,
      "왁": 1065,
      "완": 1066,
      "왈": 1067,
      "왐": 1068,
      "왔": 1069,
      "왕": 1070,
      "왜": 1071,
      "왝": 1072,
      "왠": 1073,
      "왱": 1074,
      "외": 1075,
      "왼": 1076,
      "요": 1077,
      "욕": 1078,
      "용": 1079,
      "우": 1080,
      "욱": 1081,
      "운": 1082,
      "울": 1083,
      "움": 1084,
      "웁": 1085,
      "웃": 1086,
      "웅": 1087,
      "워": 1088,
      "원": 1089,
      "월": 1090,
      "웜": 1091,
      "웠": 1092,
      "웡": 1093,
      "웨": 1094,
      "웩": 1095,
      "웬": 1096,
      "웰": 1097,
      "웹": 1098,
      "웻": 1099,
      "웽": 1100,
      "윁": 1101,
      "위": 1102,
      "윅": 1103,
      "윈": 1104,
      "윌": 1105,
      "윔": 1106,
      "윗": 1107,
      "윙": 1108,
      "유": 1109,
      "육": 1110,
      "윤": 1111,
      "윧": 1112,
      "율": 1113,
      "윭": 1114,
      "윰": 1115,
      "융": 1116,
      "으": 1117,
      "윽": 1118,
      "윾": 1119,
      "은": 1120,
      "을": 1121,
      "읊": 1122,
      "음": 1123,
      "읍": 1124,
      "응": 1125,
      "의": 1126,
      "이": 1127,
      "익": 1128,
      "인": 1129,
      "일": 1130,
      "읽": 1131,
      "잃": 1132,
      "임": 1133,
      "입": 1134,
      "잇": 1135,
      "있": 1136,
      "잉": 1137,
      "잊": 1138,
      "잎": 1139,
      "자": 1140,
      "작": 1141,
      "잔": 1142,
      "잖": 1143,
      "잘": 1144,
      "잠": 1145,
      "잡": 1146,
      "잣": 1147,
      "잤": 1148,
      "장": 1149,
      "잦": 1150,
      "재": 1151,
      "잭": 1152,
      "잰": 1153,
      "잴": 1154,
      "잼": 1155,
      "잽": 1156,
      "잿": 1157,
      "쟀": 1158,
      "쟁": 1159,
      "쟈": 1160,
      "쟌": 1161,
      "쟐": 1162,
      "저": 1163,
      "적": 1164,
      "전": 1165,
      "절": 1166,
      "젊": 1167,
      "점": 1168,
      "접": 1169,
      "젓": 1170,
      "정": 1171,
      "젖": 1172,
      "제": 1173,
      "젝": 1174,
      "젠": 1175,
      "젤": 1176,
      "젬": 1177,
      "젯": 1178,
      "젱": 1179,
      "져": 1180,
      "졌": 1181,
      "조": 1182,
      "족": 1183,
      "존": 1184,
      "졸": 1185,
      "좀": 1186,
      "좁": 1187,
      "종": 1188,
      "좇": 1189,
      "좋": 1190,
      "좌": 1191,
      "죄": 1192,
      "죠": 1193,
      "주": 1194,
      "죽": 1195,
      "준": 1196,
      "줄": 1197,
      "줌": 1198,
      "줍": 1199,
      "줏": 1200,
      "중": 1201,
      "줘": 1202,
      "줬": 1203,
      "줴": 1204,
      "쥐": 1205,
      "쥔": 1206,
      "쥘": 1207,
      "쥣": 1208,
      "쥬": 1209,
      "쥴": 1210,
      "즈": 1211,
      "즉": 1212,
      "즌": 1213,
      "즐": 1214,
      "즘": 1215,
      "즙": 1216,
      "증": 1217,
      "지": 1218,
      "직": 1219,
      "진": 1220,
      "짇": 1221,
      "질": 1222,
      "짊": 1223,
      "짐": 1224,
      "집": 1225,
      "짓": 1226,
      "징": 1227,
      "짖": 1228,
      "짙": 1229,
      "짚": 1230,
      "짜": 1231,
      "짝": 1232,
      "짠": 1233,
      "짤": 1234,
      "짦": 1235,
      "짧": 1236,
      "짭": 1237,
      "짰": 1238,
      "짱": 1239,
      "째": 1240,
      "짹": 1241,
      "쨈": 1242,
      "쨌": 1243,
      "쨍": 1244,
      "쩌": 1245,
      "쩍": 1246,
      "쩔": 1247,
      "쩝": 1248,
      "쩡": 1249,
      "쪄": 1250,
      "쪘": 1251,
      "쪼": 1252,
      "쪽": 1253,
      "쫀": 1254,
      "쫄": 1255,
      "쫑": 1256,
      "쫓": 1257,
      "쫙": 1258,
      "쬐": 1259,
      "쭉": 1260,
      "쭐": 1261,
      "쭤": 1262,
      "쯔": 1263,
      "쯤": 1264,
      "쯩": 1265,
      "찌": 1266,
      "찍": 1267,
      "찐": 1268,
      "찔": 1269,
      "찜": 1270,
      "찝": 1271,
      "찡": 1272,
      "찢": 1273,
      "찧": 1274,
      "차": 1275,
      "착": 1276,
      "찬": 1277,
      "찮": 1278,
      "찰": 1279,
      "참": 1280,
      "찹": 1281,
      "찻": 1282,
      "찼": 1283,
      "창": 1284,
      "찾": 1285,
      "채": 1286,
      "책": 1287,
      "챈": 1288,
      "챌": 1289,
      "챔": 1290,
      "챕": 1291,
      "챗": 1292,
      "챘": 1293,
      "챙": 1294,
      "처": 1295,
      "척": 1296,
      "천": 1297,
      "철": 1298,
      "첨": 1299,
      "첩": 1300,
      "첫": 1301,
      "청": 1302,
      "체": 1303,
      "첼": 1304,
      "쳇": 1305,
      "쳉": 1306,
      "쳐": 1307,
      "쳤": 1308,
      "초": 1309,
      "촉": 1310,
      "촌": 1311,
      "촘": 1312,
      "촛": 1313,
      "총": 1314,
      "촤": 1315,
      "촬": 1316,
      "최": 1317,
      "쵸": 1318,
      "추": 1319,
      "축": 1320,
      "춘": 1321,
      "출": 1322,
      "춤": 1323,
      "춥": 1324,
      "춧": 1325,
      "충": 1326,
      "춰": 1327,
      "췄": 1328,
      "취": 1329,
      "츄": 1330,
      "츠": 1331,
      "측": 1332,
      "츰": 1333,
      "층": 1334,
      "치": 1335,
      "칙": 1336,
      "친": 1337,
      "칠": 1338,
      "침": 1339,
      "칩": 1340,
      "칫": 1341,
      "칭": 1342,
      "카": 1343,
      "칵": 1344,
      "칸": 1345,
      "칼": 1346,
      "캄": 1347,
      "캉": 1348,
      "캐": 1349,
      "캔": 1350,
      "캘": 1351,
      "캠": 1352,
      "캡": 1353,
      "캣": 1354,
      "캥": 1355,
      "캬": 1356,
      "커": 1357,
      "컨": 1358,
      "컬": 1359,
      "컴": 1360,
      "컵": 1361,
      "컷": 1362,
      "컸": 1363,
      "컹": 1364,
      "케": 1365,
      "켄": 1366,
      "켈": 1367,
      "켓": 1368,
      "켜": 1369,
      "켠": 1370,
      "켤": 1371,
      "켭": 1372,
      "켰": 1373,
      "코": 1374,
      "콕": 1375,
      "콘": 1376,
      "콜": 1377,
      "콤": 1378,
      "콥": 1379,
      "콧": 1380,
      "콩": 1381,
      "콰": 1382,
      "콸": 1383,
      "쾅": 1384,
      "쾌": 1385,
      "쿠": 1386,
      "쿡": 1387,
      "쿤": 1388,
      "쿨": 1389,
      "쿱": 1390,
      "쿵": 1391,
      "쿼": 1392,
      "퀘": 1393,
      "퀴": 1394,
      "퀵": 1395,
      "퀸": 1396,
      "퀼": 1397,
      "큐": 1398,
      "크": 1399,
      "큰": 1400,
      "클": 1401,
      "큼": 1402,
      "큽": 1403,
      "킁": 1404,
      "키": 1405,
      "킥": 1406,
      "킨": 1407,
      "킬": 1408,
      "킴": 1409,
      "킵": 1410,
      "킷": 1411,
      "킹": 1412,
      "타": 1413,
      "탁": 1414,
      "탄": 1415,
      "탈": 1416,
      "탉": 1417,
      "탐": 1418,
      "탑": 1419,
      "탓": 1420,
      "탔": 1421,
      "탕": 1422,
      "태": 1423,
      "택": 1424,
      "탠": 1425,
      "탤": 1426,
      "탬": 1427,
      "탭": 1428,
      "탰": 1429,
      "탱": 1430,
      "터": 1431,
      "턱": 1432,
      "턴": 1433,
      "털": 1434,
      "텀": 1435,
      "텁": 1436,
      "텅": 1437,
      "테": 1438,
      "텍": 1439,
      "텐": 1440,
      "텔": 1441,
      "템": 1442,
      "텝": 1443,
      "텨": 1444,
      "텼": 1445,
      "토": 1446,
      "톡": 1447,
      "톤": 1448,
      "톨": 1449,
      "톰": 1450,
      "톱": 1451,
      "통": 1452,
      "퇴": 1453,
      "투": 1454,
      "툭": 1455,
      "툰": 1456,
      "툴": 1457,
      "툼": 1458,
      "툽": 1459,
      "퉁": 1460,
      "퉜": 1461,
      "튀": 1462,
      "튄": 1463,
      "튈": 1464,
      "튕": 1465,
      "튜": 1466,
      "튤": 1467,
      "튬": 1468,
      "트": 1469,
      "특": 1470,
      "튼": 1471,
      "튿": 1472,
      "틀": 1473,
      "틈": 1474,
      "틋": 1475,
      "틔": 1476,
      "티": 1477,
      "틱": 1478,
      "틴": 1479,
      "틸": 1480,
      "팀": 1481,
      "팁": 1482,
      "팃": 1483,
      "팅": 1484,
      "파": 1485,
      "팍": 1486,
      "팎": 1487,
      "판": 1488,
      "팔": 1489,
      "팜": 1490,
      "팝": 1491,
      "팟": 1492,
      "팠": 1493,
      "팡": 1494,
      "패": 1495,
      "팩": 1496,
      "팬": 1497,
      "팸": 1498,
      "팻": 1499,
      "팽": 1500,
      "퍼": 1501,
      "퍽": 1502,
      "펀": 1503,
      "펄": 1504,
      "펌": 1505,
      "펐": 1506,
      "펑": 1507,
      "페": 1508,
      "펙": 1509,
      "펜": 1510,
      "펠": 1511,
      "펩": 1512,
      "펫": 1513,
      "펭": 1514,
      "펴": 1515,
      "편": 1516,
      "펼": 1517,
      "폈": 1518,
      "평": 1519,
      "폐": 1520,
      "포": 1521,
      "폭": 1522,
      "폰": 1523,
      "폴": 1524,
      "폼": 1525,
      "폿": 1526,
      "퐁": 1527,
      "표": 1528,
      "푯": 1529,
      "푸": 1530,
      "푹": 1531,
      "푼": 1532,
      "풀": 1533,
      "품": 1534,
      "풉": 1535,
      "풋": 1536,
      "풍": 1537,
      "퓐": 1538,
      "퓔": 1539,
      "퓨": 1540,
      "프": 1541,
      "픈": 1542,
      "플": 1543,
      "픔": 1544,
      "픕": 1545,
      "피": 1546,
      "픽": 1547,
      "핀": 1548,
      "필": 1549,
      "핌": 1550,
      "핍": 1551,
      "핏": 1552,
      "핑": 1553,
      "하": 1554,
      "학": 1555,
      "한": 1556,
      "할": 1557,
      "핥": 1558,
      "함": 1559,
      "합": 1560,
      "핫": 1561,
      "항": 1562,
      "해": 1563,
      "핵": 1564,
      "핸": 1565,
      "햄": 1566,
      "햇": 1567,
      "했": 1568,
      "행": 1569,
      "향": 1570,
      "허": 1571,
      "헉": 1572,
      "헌": 1573,
      "헐": 1574,
      "험": 1575,
      "헛": 1576,
      "헝": 1577,
      "헤": 1578,
      "헥": 1579,
      "헨": 1580,
      "헬": 1581,
      "헷": 1582,
      "헹": 1583,
      "혀": 1584,
      "현": 1585,
      "혈": 1586,
      "혐": 1587,
      "협": 1588,
      "혔": 1589,
      "형": 1590,
      "혜": 1591,
      "호": 1592,
      "혹": 1593,
      "혼": 1594,
      "홀": 1595,
      "홈": 1596,
      "홉": 1597,
      "홍": 1598,
      "화": 1599,
      "확": 1600,
      "환": 1601,
      "활": 1602,
      "황": 1603,
      "횃": 1604,
      "회": 1605,
      "획": 1606,
      "횟": 1607,
      "횡": 1608,
      "효": 1609,
      "후": 1610,
      "훅": 1611,
      "훈": 1612,
      "훌": 1613,
      "훑": 1614,
      "훔": 1615,
      "훗": 1616,
      "훨": 1617,
      "훼": 1618,
      "휘": 1619,
      "휙": 1620,
      "휠": 1621,
      "휩": 1622,
      "휴": 1623,
      "흉": 1624,
      "흐": 1625,
      "흑": 1626,
      "흔": 1627,
      "흘": 1628,
      "흙": 1629,
      "흠": 1630,
      "흡": 1631,
      "흥": 1632,
      "흩": 1633,
      "희": 1634,
      "흰": 1635,
      "히": 1636,
      "힌": 1637,
      "힐": 1638,
      "힘": 1639,
      "힙": 1640,
      "힝": 1641,
      "�": 1642,
      "▁": 1643,
      "\t": 1644,
      "\n": 1645,
      "▁!": 1646,
      "▁\"": 1647,
      "▁$": 1648,
      "▁%": 1649,
      "▁&": 1650,
      "▁'": 1651,
      "▁(": 1652,
      "▁)": 1653,
      "▁*": 1654,
      "▁+": 1655,
      "▁,": 1656,
      "▁-": 1657,
      "▁.": 1658,
      "▁/": 1659,
      "▁0": 1660,
      "▁1": 1661,
      "▁2": 1662,
      "▁3": 1663,
      "▁4": 1664,
      "▁5": 1665,
      "▁6": 1666,
      "▁7": 1667,
      "▁8": 1668,
      "▁9": 1669,
      "▁:": 1670,
      "▁;": 1671,
      "▁=": 1672,
      "▁?": 1673,
      "▁_": 1674,
      "▁a": 1675,
      "▁A": 1676,
      "▁b": 1677,
      "▁B": 1678,
      "▁c": 1679,
      "▁C": 1680,
      "▁d": 1681,
      "▁D": 1682,
      "▁e": 1683,
      "▁E": 1684,
      "▁f": 1685,
      "▁F": 1686,
      "▁g": 1687,
      "▁G": 1688,
      "▁h": 1689,
      "▁H": 1690,
      "▁i": 1691,
      "▁I": 1692,
      "▁j": 1693,
      "▁J": 1694,
      "▁k": 1695,
      "▁K": 1696,
      "▁l": 1697,
      "▁L": 1698,
      "▁m": 1699,
      "▁M": 1700,
      "▁n": 1701,
      "▁N": 1702,
      "▁o": 1703,
      "▁O": 1704,
      "▁p": 1705,
      "▁P": 1706,
      "▁q": 1707,
      "▁Q": 1708,
      "▁r": 1709,
      "▁R": 1710,
      "▁s": 1711,
      "▁S": 1712,
      "▁t": 1713,
      "▁T": 1714,
      "▁u": 1715,
      "▁U": 1716,
      "▁v": 1717,
      "▁V": 1718,
      "▁w": 1719,
      "▁W": 1720,
      "▁x": 1721,
      "▁X": 1722,
      "▁y": 1723,
      "▁Y": 1724,
      "▁z": 1725,
      "▁Z": 1726,
      "▁~": 1727,
      "▁м": 1728,
      "▁М": 1729,
      "▁ю": 1730,
      "▁Ю": 1731,
      "▁拍": 1732,
      "▁詩": 1733,
      "▁가": 1734,
      "▁각": 1735,
      "▁간": 1736,
      "▁갇": 1737,
      "▁갈": 1738,
      "▁갉": 1739,
      "▁감": 1740,
      "▁갑": 1741,
      "▁값": 1742,
      "▁갓": 1743,
      "▁갔": 1744,
      "▁강": 1745,
      "▁갖": 1746,
      "▁같": 1747,
      "▁갚": 1748,
      "▁갛": 1749,
      "▁개": 1750,
      "▁객": 1751,
      "▁갠": 1752,
      "▁갤": 1753,
      "▁갯": 1754,
      "▁갰": 1755,
      "▁갱": 1756,
      "▁갸": 1757,
      "▁걀": 1758,
      "▁걔": 1759,
      "▁거": 1760,
      "▁걱": 1761,
      "▁건": 1762,
      "▁걷": 1763,
      "▁걸": 1764,
      "▁검": 1765,
      "▁겁": 1766,
      "▁것": 1767,
      "▁겅": 1768,
      "▁겉": 1769,
      "▁겊": 1770,
      "▁게": 1771,
      "▁겐": 1772,
      "▁겔": 1773,
      "▁겟": 1774,
      "▁겠": 1775,
      "▁겨": 1776,
      "▁격": 1777,
      "▁겪": 1778,
      "▁견": 1779,
      "▁결": 1780,
      "▁겸": 1781,
      "▁겹": 1782,
      "▁겼": 1783,
      "▁경": 1784,
      "▁곁": 1785,
      "▁계": 1786,
      "▁고": 1787,
      "▁곡": 1788,
      "▁곤": 1789,
      "▁곧": 1790,
      "▁골": 1791,
      "▁곰": 1792,
      "▁곱": 1793,
      "▁곳": 1794,
      "▁공": 1795,
      "▁과": 1796,
      "▁곽": 1797,
      "▁관": 1798,
      "▁괄": 1799,
      "▁광": 1800,
      "▁괜": 1801,
      "▁괭": 1802,
      "▁괴": 1803,
      "▁굉": 1804,
      "▁교": 1805,
      "▁구": 1806,
      "▁국": 1807,
      "▁군": 1808,
      "▁굳": 1809,
      "▁굴": 1810,
      "▁굵": 1811,
      "▁굶": 1812,
      "▁굼": 1813,
      "▁굽": 1814,
      "▁굿": 1815,
      "▁궁": 1816,
      "▁궂": 1817,
      "▁궈": 1818,
      "▁권": 1819,
      "▁궜": 1820,
      "▁궤": 1821,
      "▁귀": 1822,
      "▁귄": 1823,
      "▁귈": 1824,
      "▁귐": 1825,
      "▁귓": 1826,
      "▁규": 1827,
      "▁균": 1828,
      "▁귤": 1829,
      "▁그": 1830,
      "▁극": 1831,
      "▁근": 1832,
      "▁글": 1833,
      "▁긁": 1834,
      "▁금": 1835,
      "▁급": 1836,
      "▁긋": 1837,
      "▁긍": 1838,
      "▁기": 1839,
      "▁긴": 1840,
      "▁긷": 1841,
      "▁길": 1842,
      "▁김": 1843,
      "▁깁": 1844,
      "▁깃": 1845,
      "▁깅": 1846,
      "▁깊": 1847,
      "▁까": 1848,
      "▁깍": 1849,
      "▁깎": 1850,
      "▁깐": 1851,
      "▁깔": 1852,
      "▁깜": 1853,
      "▁깝": 1854,
      "▁깡": 1855,
      "▁깥": 1856,
      "▁깨": 1857,
      "▁깬": 1858,
      "▁깰": 1859,
      "▁깼": 1860,
      "▁꺼": 1861,
      "▁꺽": 1862,
      "▁꺾": 1863,
      "▁껌": 1864,
      "▁껍": 1865,
      "▁껏": 1866,
      "▁껐": 1867,
      "▁껑": 1868,
      "▁께": 1869,
      "▁껴": 1870,
      "▁꼈": 1871,
      "▁꼬": 1872,
      "▁꼭": 1873,
      "▁꼴": 1874,
      "▁꼼": 1875,
      "▁꼽": 1876,
      "▁꽁": 1877,
      "▁꽂": 1878,
      "▁꽃": 1879,
      "▁꽉": 1880,
      "▁꽝": 1881,
      "▁꽤": 1882,
      "▁꽥": 1883,
      "▁꾀": 1884,
      "▁꾸": 1885,
      "▁꾹": 1886,
      "▁꾼": 1887,
      "▁꿀": 1888,
      "▁꿇": 1889,
      "▁꿈": 1890,
      "▁꿉": 1891,
      "▁꿋": 1892,
      "▁꿍": 1893,
      "▁꿔": 1894,
      "▁꿨": 1895,
      "▁꿩": 1896,
      "▁꿰": 1897,
      "▁꿴": 1898,
      "▁뀌": 1899,
      "▁뀐": 1900,
      "▁뀔": 1901,
      "▁끄": 1902,
      "▁끈": 1903,
      "▁끊": 1904,
      "▁끌": 1905,
      "▁끓": 1906,
      "▁끔": 1907,
      "▁끕": 1908,
      "▁끗": 1909,
      "▁끝": 1910,
      "▁끼": 1911,
      "▁끽": 1912,
      "▁낀": 1913,
      "▁낄": 1914,
      "▁낌": 1915,
      "▁낍": 1916,
      "▁나": 1917,
      "▁낙": 1918,
      "▁낚": 1919,
      "▁난": 1920,
      "▁날": 1921,
      "▁낡": 1922,
      "▁남": 1923,
      "▁납": 1924,
      "▁낫": 1925,
      "▁났": 1926,
      "▁낭": 1927,
      "▁낮": 1928,
      "▁낯": 1929,
      "▁낱": 1930,
      "▁낳": 1931,
      "▁내": 1932,
      "▁낵": 1933,
      "▁낸": 1934,
      "▁낼": 1935,
      "▁냄": 1936,
      "▁냅": 1937,
      "▁냇": 1938,
      "▁냈": 1939,
      "▁냉": 1940,
      "▁냐": 1941,
      "▁냘": 1942,
      "▁냠": 1943,
      "▁냥": 1944,
      "▁너": 1945,
      "▁넉": 1946,
      "▁넋": 1947,
      "▁넌": 1948,
      "▁널": 1949,
      "▁넓": 1950,
      "▁넘": 1951,
      "▁넛": 1952,
      "▁넜": 1953,
      "▁넣": 1954,
      "▁네": 1955,
      "▁넥": 1956,
      "▁넨": 1957,
      "▁넬": 1958,
      "▁넵": 1959,
      "▁넷": 1960,
      "▁넸": 1961,
      "▁녀": 1962,
      "▁녁": 1963,
      "▁년": 1964,
      "▁념": 1965,
      "▁녔": 1966,
      "▁녕": 1967,
      "▁녘": 1968,
      "▁노": 1969,
      "▁녹": 1970,
      "▁논": 1971,
      "▁놀": 1972,
      "▁놈": 1973,
      "▁놉": 1974,
      "▁농": 1975,
      "▁높": 1976,
      "▁놓": 1977,
      "▁놔": 1978,
      "▁놨": 1979,
      "▁뇌": 1980,
      "▁뇨": 1981,
      "▁뇽": 1982,
      "▁누": 1983,
      "▁눅": 1984,
      "▁눈": 1985,
      "▁눌": 1986,
      "▁눔": 1987,
      "▁눕": 1988,
      "▁눗": 1989,
      "▁눙": 1990,
      "▁눠": 1991,
      "▁눴": 1992,
      "▁뉘": 1993,
      "▁뉜": 1994,
      "▁뉴": 1995,
      "▁늉": 1996,
      "▁느": 1997,
      "▁늑": 1998,
      "▁는": 1999,
      "▁늘": 2000,
      "▁늙": 2001,
      "▁늠": 2002,
      "▁능": 2003,
      "▁늦": 2004,
      "▁늪": 2005,
      "▁늬": 2006,
      "▁니": 2007,
      "▁닉": 2008,
      "▁닌": 2009,
      "▁닐": 2010,
      "▁님": 2011,
      "▁닙": 2012,
      "▁닛": 2013,
      "▁닝": 2014,
      "▁다": 2015,
      "▁닥": 2016,
      "▁닦": 2017,
      "▁단": 2018,
      "▁닫": 2019,
      "▁달": 2020,
      "▁닭": 2021,
      "▁닮": 2022,
      "▁닳": 2023,
      "▁담": 2024,
      "▁답": 2025,
      "▁닷": 2026,
      "▁당": 2027,
      "▁닻": 2028,
      "▁닿": 2029,
      "▁대": 2030,
      "▁댁": 2031,
      "▁댄": 2032,
      "▁댈": 2033,
      "▁댐": 2034,
      "▁댑": 2035,
      "▁댓": 2036,
      "▁댔": 2037,
      "▁댕": 2038,
      "▁더": 2039,
      "▁덕": 2040,
      "▁던": 2041,
      "▁덜": 2042,
      "▁덟": 2043,
      "▁덤": 2044,
      "▁덥": 2045,
      "▁덧": 2046,
      "▁덩": 2047,
      "▁덫": 2048,
      "▁덮": 2049,
      "▁데": 2050,
      "▁덱": 2051,
      "▁덴": 2052,
      "▁델": 2053,
      "▁뎁": 2054,
      "▁뎌": 2055,
      "▁뎠": 2056,
      "▁도": 2057,
      "▁독": 2058,
      "▁돈": 2059,
      "▁돋": 2060,
      "▁돌": 2061,
      "▁돔": 2062,
      "▁돕": 2063,
      "▁돗": 2064,
      "▁동": 2065,
      "▁돛": 2066,
      "▁돼": 2067,
      "▁됐": 2068,
      "▁되": 2069,
      "▁된": 2070,
      "▁될": 2071,
      "▁됨": 2072,
      "▁됩": 2073,
      "▁두": 2074,
      "▁둑": 2075,
      "▁둔": 2076,
      "▁둘": 2077,
      "▁둠": 2078,
      "▁둡": 2079,
      "▁둣": 2080,
      "▁둥": 2081,
      "▁둬": 2082,
      "▁뒀": 2083,
      "▁뒤": 2084,
      "▁뒷": 2085,
      "▁뒹": 2086,
      "▁듀": 2087,
      "▁드": 2088,
      "▁득": 2089,
      "▁든": 2090,
      "▁듣": 2091,
      "▁들": 2092,
      "▁듬": 2093,
      "▁듭": 2094,
      "▁듯": 2095,
      "▁등": 2096,
      "▁디": 2097,
      "▁딕": 2098,
      "▁딘": 2099,
      "▁딛": 2100,
      "▁딜": 2101,
      "▁딤": 2102,
      "▁딥": 2103,
      "▁딧": 2104,
      "▁딨": 2105,
      "▁딩": 2106,
      "▁딪": 2107,
      "▁따": 2108,
      "▁딱": 2109,
      "▁딴": 2110,
      "▁딸": 2111,
      "▁땀": 2112,
      "▁땃": 2113,
      "▁땄": 2114,
      "▁땅": 2115,
      "▁땋": 2116,
      "▁때": 2117,
      "▁땐": 2118,
      "▁땔": 2119,
      "▁땠": 2120,
      "▁땡": 2121,
      "▁떠": 2122,
      "▁떡": 2123,
      "▁떤": 2124,
      "▁떨": 2125,
      "▁떫": 2126,
      "▁떴": 2127,
      "▁떻": 2128,
      "▁떼": 2129,
      "▁뗀": 2130,
      "▁뗄": 2131,
      "▁뗏": 2132,
      "▁뗐": 2133,
      "▁또": 2134,
      "▁똑": 2135,
      "▁똘": 2136,
      "▁똥": 2137,
      "▁뚜": 2138,
      "▁뚝": 2139,
      "▁뚤": 2140,
      "▁뚫": 2141,
      "▁뚱": 2142,
      "▁뛰": 2143,
      "▁뛴": 2144,
      "▁뛸": 2145,
      "▁뜁": 2146,
      "▁뜨": 2147,
      "▁뜩": 2148,
      "▁뜬": 2149,
      "▁뜯": 2150,
      "▁뜰": 2151,
      "▁뜸": 2152,
      "▁뜹": 2153,
      "▁뜻": 2154,
      "▁띄": 2155,
      "▁띈": 2156,
      "▁띠": 2157,
      "▁띤": 2158,
      "▁띱": 2159,
      "▁띵": 2160,
      "▁라": 2161,
      "▁락": 2162,
      "▁란": 2163,
      "▁랄": 2164,
      "▁람": 2165,
      "▁랍": 2166,
      "▁랐": 2167,
      "▁랑": 2168,
      "▁랗": 2169,
      "▁래": 2170,
      "▁랙": 2171,
      "▁랜": 2172,
      "▁램": 2173,
      "▁랩": 2174,
      "▁랫": 2175,
      "▁랬": 2176,
      "▁랭": 2177,
      "▁랴": 2178,
      "▁략": 2179,
      "▁량": 2180,
      "▁러": 2181,
      "▁럭": 2182,
      "▁런": 2183,
      "▁럴": 2184,
      "▁럼": 2185,
      "▁럽": 2186,
      "▁럿": 2187,
      "▁렀": 2188,
      "▁렁": 2189,
      "▁렇": 2190,
      "▁레": 2191,
      "▁렉": 2192,
      "▁렌": 2193,
      "▁렐": 2194,
      "▁렘": 2195,
      "▁렙": 2196,
      "▁렛": 2197,
      "▁려": 2198,
      "▁력": 2199,
      "▁련": 2200,
      "▁렬": 2201,
      "▁렴": 2202,
      "▁렵": 2203,
      "▁렷": 2204,
      "▁렸": 2205,
      "▁령": 2206,
      "▁례": 2207,
      "▁로": 2208,
      "▁록": 2209,
      "▁론": 2210,
      "▁롤": 2211,
      "▁롬": 2212,
      "▁롭": 2213,
      "▁롯": 2214,
      "▁롱": 2215,
      "▁뢰": 2216,
      "▁료": 2217,
      "▁룡": 2218,
      "▁루": 2219,
      "▁룩": 2220,
      "▁룬": 2221,
      "▁룰": 2222,
      "▁룸": 2223,
      "▁룹": 2224,
      "▁룻": 2225,
      "▁룽": 2226,
      "▁뤄": 2227,
      "▁뤘": 2228,
      "▁뤼": 2229,
      "▁류": 2230,
      "▁륙": 2231,
      "▁륜": 2232,
      "▁률": 2233,
      "▁륨": 2234,
      "▁륭": 2235,
      "▁르": 2236,
      "▁륵": 2237,
      "▁른": 2238,
      "▁를": 2239,
      "▁름": 2240,
      "▁릅": 2241,
      "▁릇": 2242,
      "▁릉": 2243,
      "▁릎": 2244,
      "▁리": 2245,
      "▁릭": 2246,
      "▁린": 2247,
      "▁릴": 2248,
      "▁림": 2249,
      "▁립": 2250,
      "▁릿": 2251,
      "▁링": 2252,
      "▁마": 2253,
      "▁막": 2254,
      "▁만": 2255,
      "▁많": 2256,
      "▁맏": 2257,
      "▁말": 2258,
      "▁맑": 2259,
      "▁맘": 2260,
      "▁맙": 2261,
      "▁맛": 2262,
      "▁망": 2263,
      "▁맞": 2264,
      "▁맡": 2265,
      "▁맣": 2266,
      "▁매": 2267,
      "▁맥": 2268,
      "▁맨": 2269,
      "▁맬": 2270,
      "▁맴": 2271,
      "▁맵": 2272,
      "▁맷": 2273,
      "▁맸": 2274,
      "▁맹": 2275,
      "▁맺": 2276,
      "▁머": 2277,
      "▁먹": 2278,
      "▁먼": 2279,
      "▁멀": 2280,
      "▁멈": 2281,
      "▁멋": 2282,
      "▁멍": 2283,
      "▁멎": 2284,
      "▁메": 2285,
      "▁멕": 2286,
      "▁멘": 2287,
      "▁멜": 2288,
      "▁멤": 2289,
      "▁멧": 2290,
      "▁멩": 2291,
      "▁며": 2292,
      "▁면": 2293,
      "▁멸": 2294,
      "▁몄": 2295,
      "▁명": 2296,
      "▁몇": 2297,
      "▁모": 2298,
      "▁목": 2299,
      "▁몫": 2300,
      "▁몬": 2301,
      "▁몰": 2302,
      "▁몸": 2303,
      "▁몹": 2304,
      "▁못": 2305,
      "▁몽": 2306,
      "▁묘": 2307,
      "▁무": 2308,
      "▁묵": 2309,
      "▁묶": 2310,
      "▁문": 2311,
      "▁묻": 2312,
      "▁물": 2313,
      "▁묽": 2314,
      "▁뭅": 2315,
      "▁뭇": 2316,
      "▁뭉": 2317,
      "▁뭍": 2318,
      "▁뭐": 2319,
      "▁뭔": 2320,
      "▁뭘": 2321,
      "▁뮤": 2322,
      "▁뮬": 2323,
      "▁므": 2324,
      "▁믈": 2325,
      "▁미": 2326,
      "▁믹": 2327,
      "▁민": 2328,
      "▁믿": 2329,
      "▁밀": 2330,
      "▁밈": 2331,
      "▁밉": 2332,
      "▁밋": 2333,
      "▁밌": 2334,
      "▁밍": 2335,
      "▁및": 2336,
      "▁밑": 2337,
      "▁바": 2338,
      "▁박": 2339,
      "▁밖": 2340,
      "▁반": 2341,
      "▁받": 2342,
      "▁발": 2343,
      "▁밝": 2344,
      "▁밟": 2345,
      "▁밤": 2346,
      "▁밥": 2347,
      "▁밧": 2348,
      "▁방": 2349,
      "▁밭": 2350,
      "▁배": 2351,
      "▁백": 2352,
      "▁밴": 2353,
      "▁밸": 2354,
      "▁뱀": 2355,
      "▁뱁": 2356,
      "▁뱃": 2357,
      "▁뱅": 2358,
      "▁뱉": 2359,
      "▁버": 2360,
      "▁벅": 2361,
      "▁번": 2362,
      "▁벌": 2363,
      "▁범": 2364,
      "▁법": 2365,
      "▁벗": 2366,
      "▁벙": 2367,
      "▁벚": 2368,
      "▁베": 2369,
      "▁벡": 2370,
      "▁벤": 2371,
      "▁벨": 2372,
      "▁벳": 2373,
      "▁벵": 2374,
      "▁벼": 2375,
      "▁벽": 2376,
      "▁변": 2377,
      "▁별": 2378,
      "▁볍": 2379,
      "▁볏": 2380,
      "▁볐": 2381,
      "▁병": 2382,
      "▁볕": 2383,
      "▁보": 2384,
      "▁복": 2385,
      "▁볶": 2386,
      "▁본": 2387,
      "▁볼": 2388,
      "▁봄": 2389,
      "▁봅": 2390,
      "▁봇": 2391,
      "▁봉": 2392,
      "▁봐": 2393,
      "▁봤": 2394,
      "▁봬": 2395,
      "▁뵈": 2396,
      "▁뵐": 2397,
      "▁뵙": 2398,
      "▁부": 2399,
      "▁북": 2400,
      "▁분": 2401,
      "▁불": 2402,
      "▁붉": 2403,
      "▁붐": 2404,
      "▁붓": 2405,
      "▁붕": 2406,
      "▁붙": 2407,
      "▁뷰": 2408,
      "▁뷸": 2409,
      "▁브": 2410,
      "▁븐": 2411,
      "▁블": 2412,
      "▁비": 2413,
      "▁빅": 2414,
      "▁빈": 2415,
      "▁빌": 2416,
      "▁빔": 2417,
      "▁빕": 2418,
      "▁빗": 2419,
      "▁빙": 2420,
      "▁빚": 2421,
      "▁빛": 2422,
      "▁빠": 2423,
      "▁빡": 2424,
      "▁빤": 2425,
      "▁빨": 2426,
      "▁빴": 2427,
      "▁빵": 2428,
      "▁빻": 2429,
      "▁빼": 2430,
      "▁빽": 2431,
      "▁뺏": 2432,
      "▁뺐": 2433,
      "▁뺨": 2434,
      "▁뻐": 2435,
      "▁뻑": 2436,
      "▁뻔": 2437,
      "▁뻗": 2438,
      "▁뻘": 2439,
      "▁뻣": 2440,
      "▁뻤": 2441,
      "▁뼈": 2442,
      "▁뼉": 2443,
      "▁뼘": 2444,
      "▁뽀": 2445,
      "▁뽁": 2446,
      "▁뽐": 2447,
      "▁뽑": 2448,
      "▁뽕": 2449,
      "▁뾰": 2450,
      "▁뿌": 2451,
      "▁뿍": 2452,
      "▁뿐": 2453,
      "▁뿔": 2454,
      "▁뿜": 2455,
      "▁뿡": 2456,
      "▁쁘": 2457,
      "▁쁜": 2458,
      "▁쁠": 2459,
      "▁쁨": 2460,
      "▁쁩": 2461,
      "▁삐": 2462,
      "▁삑": 2463,
      "▁삔": 2464,
      "▁삘": 2465,
      "▁사": 2466,
      "▁삭": 2467,
      "▁산": 2468,
      "▁살": 2469,
      "▁삶": 2470,
      "▁삼": 2471,
      "▁삽": 2472,
      "▁삿": 2473,
      "▁샀": 2474,
      "▁상": 2475,
      "▁샅": 2476,
      "▁새": 2477,
      "▁색": 2478,
      "▁샌": 2479,
      "▁샐": 2480,
      "▁샘": 2481,
      "▁샛": 2482,
      "▁생": 2483,
      "▁샤": 2484,
      "▁샨": 2485,
      "▁샬": 2486,
      "▁샴": 2487,
      "▁샵": 2488,
      "▁샷": 2489,
      "▁샹": 2490,
      "▁섀": 2491,
      "▁서": 2492,
      "▁석": 2493,
      "▁섞": 2494,
      "▁선": 2495,
      "▁섣": 2496,
      "▁설": 2497,
      "▁섬": 2498,
      "▁섭": 2499,
      "▁섯": 2500,
      "▁섰": 2501,
      "▁성": 2502,
      "▁세": 2503,
      "▁섹": 2504,
      "▁센": 2505,
      "▁셀": 2506,
      "▁셈": 2507,
      "▁셉": 2508,
      "▁셋": 2509,
      "▁셌": 2510,
      "▁셔": 2511,
      "▁션": 2512,
      "▁셜": 2513,
      "▁셨": 2514,
      "▁셰": 2515,
      "▁셸": 2516,
      "▁소": 2517,
      "▁속": 2518,
      "▁손": 2519,
      "▁솔": 2520,
      "▁솜": 2521,
      "▁솝": 2522,
      "▁솟": 2523,
      "▁송": 2524,
      "▁솥": 2525,
      "▁쇄": 2526,
      "▁쇠": 2527,
      "▁쇼": 2528,
      "▁숀": 2529,
      "▁숄": 2530,
      "▁숍": 2531,
      "▁숏": 2532,
      "▁수": 2533,
      "▁숙": 2534,
      "▁순": 2535,
      "▁숟": 2536,
      "▁술": 2537,
      "▁숨": 2538,
      "▁숩": 2539,
      "▁숫": 2540,
      "▁숭": 2541,
      "▁숯": 2542,
      "▁숲": 2543,
      "▁숴": 2544,
      "▁쉈": 2545,
      "▁쉐": 2546,
      "▁쉘": 2547,
      "▁쉬": 2548,
      "▁쉭": 2549,
      "▁쉰": 2550,
      "▁쉴": 2551,
      "▁쉼": 2552,
      "▁쉽": 2553,
      "▁쉿": 2554,
      "▁슈": 2555,
      "▁슉": 2556,
      "▁슐": 2557,
      "▁슙": 2558,
      "▁슛": 2559,
      "▁슝": 2560,
      "▁스": 2561,
      "▁슥": 2562,
      "▁슨": 2563,
      "▁슬": 2564,
      "▁슭": 2565,
      "▁슴": 2566,
      "▁습": 2567,
      "▁슷": 2568,
      "▁승": 2569,
      "▁시": 2570,
      "▁식": 2571,
      "▁신": 2572,
      "▁싣": 2573,
      "▁실": 2574,
      "▁싫": 2575,
      "▁심": 2576,
      "▁십": 2577,
      "▁싯": 2578,
      "▁싱": 2579,
      "▁싶": 2580,
      "▁싸": 2581,
      "▁싹": 2582,
      "▁싼": 2583,
      "▁쌀": 2584,
      "▁쌉": 2585,
      "▁쌌": 2586,
      "▁쌍": 2587,
      "▁쌓": 2588,
      "▁쌔": 2589,
      "▁쌩": 2590,
      "▁썅": 2591,
      "▁써": 2592,
      "▁썩": 2593,
      "▁썬": 2594,
      "▁썰": 2595,
      "▁썸": 2596,
      "▁썹": 2597,
      "▁썼": 2598,
      "▁썽": 2599,
      "▁쎄": 2600,
      "▁쏘": 2601,
      "▁쏙": 2602,
      "▁쏜": 2603,
      "▁쏟": 2604,
      "▁쏠": 2605,
      "▁쏩": 2606,
      "▁쏴": 2607,
      "▁쐈": 2608,
      "▁쑤": 2609,
      "▁쑥": 2610,
      "▁쓰": 2611,
      "▁쓱": 2612,
      "▁쓴": 2613,
      "▁쓸": 2614,
      "▁씀": 2615,
      "▁씁": 2616,
      "▁씌": 2617,
      "▁씨": 2618,
      "▁씩": 2619,
      "▁씬": 2620,
      "▁씰": 2621,
      "▁씹": 2622,
      "▁씻": 2623,
      "▁씽": 2624,
      "▁아": 2625,
      "▁악": 2626,
      "▁안": 2627,
      "▁앉": 2628,
      "▁않": 2629,
      "▁알": 2630,
      "▁앓": 2631,
      "▁암": 2632,
      "▁압": 2633,
      "▁앗": 2634,
      "▁았": 2635,
      "▁앙": 2636,
      "▁앞": 2637,
      "▁애": 2638,
      "▁액": 2639,
      "▁앤": 2640,
      "▁앨": 2641,
      "▁앰": 2642,
      "▁앱": 2643,
      "▁앴": 2644,
      "▁앵": 2645,
      "▁야": 2646,
      "▁약": 2647,
      "▁얀": 2648,
      "▁얄": 2649,
      "▁얇": 2650,
      "▁얌": 2651,
      "▁얏": 2652,
      "▁양": 2653,
      "▁얕": 2654,
      "▁얗": 2655,
      "▁얘": 2656,
      "▁어": 2657,
      "▁억": 2658,
      "▁언": 2659,
      "▁얹": 2660,
      "▁얻": 2661,
      "▁얼": 2662,
      "▁얽": 2663,
      "▁엄": 2664,
      "▁업": 2665,
      "▁없": 2666,
      "▁엇": 2667,
      "▁었": 2668,
      "▁엉": 2669,
      "▁엌": 2670,
      "▁엎": 2671,
      "▁에": 2672,
      "▁엑": 2673,
      "▁엔": 2674,
      "▁엘": 2675,
      "▁엠": 2676,
      "▁엣": 2677,
      "▁엥": 2678,
      "▁여": 2679,
      "▁역": 2680,
      "▁엮": 2681,
      "▁연": 2682,
      "▁열": 2683,
      "▁염": 2684,
      "▁엽": 2685,
      "▁엾": 2686,
      "▁엿": 2687,
      "▁였": 2688,
      "▁영": 2689,
      "▁옅": 2690,
      "▁옆": 2691,
      "▁옇": 2692,
      "▁예": 2693,
      "▁옐": 2694,
      "▁옛": 2695,
      "▁오": 2696,
      "▁옥": 2697,
      "▁온": 2698,
      "▁올": 2699,
      "▁옮": 2700,
      "▁옳": 2701,
      "▁옴": 2702,
      "▁옵": 2703,
      "▁옷": 2704,
      "▁옹": 2705,
      "▁와": 2706,
      "▁왁": 2707,
      "▁완": 2708,
      "▁왈": 2709,
      "▁왐": 2710,
      "▁왔": 2711,
      "▁왕": 2712,
      "▁왜": 2713,
      "▁왝": 2714,
      "▁왠": 2715,
      "▁왱": 2716,
      "▁외": 2717,
      "▁왼": 2718,
      "▁요": 2719,
      "▁욕": 2720,
      "▁용": 2721,
      "▁우": 2722,
      "▁욱": 2723,
      "▁운": 2724,
      "▁울": 2725,
      "▁움": 2726,
      "▁웁": 2727,
      "▁웃": 2728,
      "▁웅": 2729,
      "▁워": 2730,
      "▁원": 2731,
      "▁월": 2732,
      "▁웜": 2733,
      "▁웠": 2734,
      "▁웡": 2735,
      "▁웨": 2736,
      "▁웩": 2737,
      "▁웬": 2738,
      "▁웰": 2739,
      "▁웹": 2740,
      "▁웻": 2741,
      "▁웽": 2742,
      "▁윁": 2743,
      "▁위": 2744,
      "▁윅": 2745,
      "▁윈": 2746,
      "▁윌": 2747,
      "▁윔": 2748,
      "▁윗": 2749,
      "▁윙": 2750,
      "▁유": 2751,
      "▁육": 2752,
      "▁윤": 2753,
      "▁윧": 2754,
      "▁율": 2755,
      "▁윭": 2756,
      "▁윰": 2757,
      "▁융": 2758,
      "▁으": 2759,
      "▁윽": 2760,
      "▁윾": 2761,
      "▁은": 2762,
      "▁을": 2763,
      "▁읊": 2764,
      "▁음": 2765,
      "▁읍": 2766,
      "▁응": 2767,
      "▁의": 2768,
      "▁이": 2769,
      "▁익": 2770,
      "▁인": 2771,
      "▁일": 2772,
      "▁읽": 2773,
      "▁잃": 2774,
      "▁임": 2775,
      "▁입": 2776,
      "▁잇": 2777,
      "▁있": 2778,
      "▁잉": 2779,
      "▁잊": 2780,
      "▁잎": 2781,
      "▁자": 2782,
      "▁작": 2783,
      "▁잔": 2784,
      "▁잖": 2785,
      "▁잘": 2786,
      "▁잠": 2787,
      "▁잡": 2788,
      "▁잣": 2789,
      "▁잤": 2790,
      "▁장": 2791,
      "▁잦": 2792,
      "▁재": 2793,
      "▁잭": 2794,
      "▁잰": 2795,
      "▁잴": 2796,
      "▁잼": 2797,
      "▁잽": 2798,
      "▁잿": 2799,
      "▁쟀": 2800,
      "▁쟁": 2801,
      "▁쟈": 2802,
      "▁쟌": 2803,
      "▁쟐": 2804,
      "▁저": 2805,
      "▁적": 2806,
      "▁전": 2807,
      "▁절": 2808,
      "▁젊": 2809,
      "▁점": 2810,
      "▁접": 2811,
      "▁젓": 2812,
      "▁정": 2813,
      "▁젖": 2814,
      "▁제": 2815,
      "▁젝": 2816,
      "▁젠": 2817,
      "▁젤": 2818,
      "▁젬": 2819,
      "▁젯": 2820,
      "▁젱": 2821,
      "▁져": 2822,
      "▁졌": 2823,
      "▁조": 2824,
      "▁족": 2825,
      "▁존": 2826,
      "▁졸": 2827,
      "▁좀": 2828,
      "▁좁": 2829,
      "▁종": 2830,
      "▁좇": 2831,
      "▁좋": 2832,
      "▁좌": 2833,
      "▁죄": 2834,
      "▁죠": 2835,
      "▁주": 2836,
      "▁죽": 2837,
      "▁준": 2838,
      "▁줄": 2839,
      "▁줌": 2840,
      "▁줍": 2841,
      "▁줏": 2842,
      "▁중": 2843,
      "▁줘": 2844,
      "▁줬": 2845,
      "▁줴": 2846,
      "▁쥐": 2847,
      "▁쥔": 2848,
      "▁쥘": 2849,
      "▁쥣": 2850,
      "▁쥬": 2851,
      "▁쥴": 2852,
      "▁즈": 2853,
      "▁즉": 2854,
      "▁즌": 2855,
      "▁즐": 2856,
      "▁즘": 2857,
      "▁즙": 2858,
      "▁증": 2859,
      "▁지": 2860,
      "▁직": 2861,
      "▁진": 2862,
      "▁짇": 2863,
      "▁질": 2864,
      "▁짊": 2865,
      "▁짐": 2866,
      "▁집": 2867,
      "▁짓": 2868,
      "▁징": 2869,
      "▁짖": 2870,
      "▁짙": 2871,
      "▁짚": 2872,
      "▁짜": 2873,
      "▁짝": 2874,
      "▁짠": 2875,
      "▁짤": 2876,
      "▁짦": 2877,
      "▁짧": 2878,
      "▁짭": 2879,
      "▁짰": 2880,
      "▁짱": 2881,
      "▁째": 2882,
      "▁짹": 2883,
      "▁쨈": 2884,
      "▁쨌": 2885,
      "▁쨍": 2886,
      "▁쩌": 2887,
      "▁쩍": 2888,
      "▁쩔": 2889,
      "▁쩝": 2890,
      "▁쩡": 2891,
      "▁쪄": 2892,
      "▁쪘": 2893,
      "▁쪼": 2894,
      "▁쪽": 2895,
      "▁쫀": 2896,
      "▁쫄": 2897,
      "▁쫑": 2898,
      "▁쫓": 2899,
      "▁쫙": 2900,
      "▁쬐": 2901,
      "▁쭉": 2902,
      "▁쭐": 2903,
      "▁쭤": 2904,
      "▁쯔": 2905,
      "▁쯤": 2906,
      "▁쯩": 2907,
      "▁찌": 2908,
      "▁찍": 2909,
      "▁찐": 2910,
      "▁찔": 2911,
      "▁찜": 2912,
      "▁찝": 2913,
      "▁찡": 2914,
      "▁찢": 2915,
      "▁찧": 2916,
      "▁차": 2917,
      "▁착": 2918,
      "▁찬": 2919,
      "▁찮": 2920,
      "▁찰": 2921,
      "▁참": 2922,
      "▁찹": 2923,
      "▁찻": 2924,
      "▁찼": 2925,
      "▁창": 2926,
      "▁찾": 2927,
      "▁채": 2928,
      "▁책": 2929,
      "▁챈": 2930,
      "▁챌": 2931,
      "▁챔": 2932,
      "▁챕": 2933,
      "▁챗": 2934,
      "▁챘": 2935,
      "▁챙": 2936,
      "▁처": 2937,
      "▁척": 2938,
      "▁천": 2939,
      "▁철": 2940,
      "▁첨": 2941,
      "▁첩": 2942,
      "▁첫": 2943,
      "▁청": 2944,
      "▁체": 2945,
      "▁첼": 2946,
      "▁쳇": 2947,
      "▁쳉": 2948,
      "▁쳐": 2949,
      "▁쳤": 2950,
      "▁초": 2951,
      "▁촉": 2952,
      "▁촌": 2953,
      "▁촘": 2954,
      "▁촛": 2955,
      "▁총": 2956,
      "▁촤": 2957,
      "▁촬": 2958,
      "▁최": 2959,
      "▁쵸": 2960,
      "▁추": 2961,
      "▁축": 2962,
      "▁춘": 2963,
      "▁출": 2964,
      "▁춤": 2965,
      "▁춥": 2966,
      "▁춧": 2967,
      "▁충": 2968,
      "▁춰": 2969,
      "▁췄": 2970,
      "▁취": 2971,
      "▁츄": 2972,
      "▁츠": 2973,
      "▁측": 2974,
      "▁츰": 2975,
      "▁층": 2976,
      "▁치": 2977,
      "▁칙": 2978,
      "▁친": 2979,
      "▁칠": 2980,
      "▁침": 2981,
      "▁칩": 2982,
      "▁칫": 2983,
      "▁칭": 2984,
      "▁카": 2985,
      "▁칵": 2986,
      "▁칸": 2987,
      "▁칼": 2988,
      "▁캄": 2989,
      "▁캉": 2990,
      "▁캐": 2991,
      "▁캔": 2992,
      "▁캘": 2993,
      "▁캠": 2994,
      "▁캡": 2995,
      "▁캣": 2996,
      "▁캥": 2997,
      "▁캬": 2998,
      "▁커": 2999,
      "▁컨": 3000,
      "▁컬": 3001,
      "▁컴": 3002,
      "▁컵": 3003,
      "▁컷": 3004,
      "▁컸": 3005,
      "▁컹": 3006,
      "▁케": 3007,
      "▁켄": 3008,
      "▁켈": 3009,
      "▁켓": 3010,
      "▁켜": 3011,
      "▁켠": 3012,
      "▁켤": 3013,
      "▁켭": 3014,
      "▁켰": 3015,
      "▁코": 3016,
      "▁콕": 3017,
      "▁콘": 3018,
      "▁콜": 3019,
      "▁콤": 3020,
      "▁콥": 3021,
      "▁콧": 3022,
      "▁콩": 3023,
      "▁콰": 3024,
      "▁콸": 3025,
      "▁쾅": 3026,
      "▁쾌": 3027,
      "▁쿠": 3028,
      "▁쿡": 3029,
      "▁쿤": 3030,
      "▁쿨": 3031,
      "▁쿱": 3032,
      "▁쿵": 3033,
      "▁쿼": 3034,
      "▁퀘": 3035,
      "▁퀴": 3036,
      "▁퀵": 3037,
      "▁퀸": 3038,
      "▁퀼": 3039,
      "▁큐": 3040,
      "▁크": 3041,
      "▁큰": 3042,
      "▁클": 3043,
      "▁큼": 3044,
      "▁큽": 3045,
      "▁킁": 3046,
      "▁키": 3047,
      "▁킥": 3048,
      "▁킨": 3049,
      "▁킬": 3050,
      "▁킴": 3051,
      "▁킵": 3052,
      "▁킷": 3053,
      "▁킹": 3054,
      "▁타": 3055,
      "▁탁": 3056,
      "▁탄": 3057,
      "▁탈": 3058,
      "▁탉": 3059,
      "▁탐": 3060,
      "▁탑": 3061,
      "▁탓": 3062,
      "▁탔": 3063,
      "▁탕": 3064,
      "▁태": 3065,
      "▁택": 3066,
      "▁탠": 3067,
      "▁탤": 3068,
      "▁탬": 3069,
      "▁탭": 3070,
      "▁탰": 3071,
      "▁탱": 3072,
      "▁터": 3073,
      "▁턱": 3074,
      "▁턴": 3075,
      "▁털": 3076,
      "▁텀": 3077,
      "▁텁": 3078,
      "▁텅": 3079,
      "▁테": 3080,
      "▁텍": 3081,
      "▁텐": 3082,
      "▁텔": 3083,
      "▁템": 3084,
      "▁텝": 3085,
      "▁텨": 3086,
      "▁텼": 3087,
      "▁토": 3088,
      "▁톡": 3089,
      "▁톤": 3090,
      "▁톨": 3091,
      "▁톰": 3092,
      "▁톱": 3093,
      "▁통": 3094,
      "▁퇴": 3095,
      "▁투": 3096,
      "▁툭": 3097,
      "▁툰": 3098,
      "▁툴": 3099,
      "▁툼": 3100,
      "▁툽": 3101,
      "▁퉁": 3102,
      "▁퉜": 3103,
      "▁튀": 3104,
      "▁튄": 3105,
      "▁튈": 3106,
      "▁튕": 3107,
      "▁튜": 3108,
      "▁튤": 3109,
      "▁튬": 3110,
      "▁트": 3111,
      "▁특": 3112,
      "▁튼": 3113,
      "▁튿": 3114,
      "▁틀": 3115,
      "▁틈": 3116,
      "▁틋": 3117,
      "▁틔": 3118,
      "▁티": 3119,
      "▁틱": 3120,
      "▁틴": 3121,
      "▁틸": 3122,
      "▁팀": 3123,
      "▁팁": 3124,
      "▁팃": 3125,
      "▁팅": 3126,
      "▁파": 3127,
      "▁팍": 3128,
      "▁팎": 3129,
      "▁판": 3130,
      "▁팔": 3131,
      "▁팜": 3132,
      "▁팝": 3133,
      "▁팟": 3134,
      "▁팠": 3135,
      "▁팡": 3136,
      "▁패": 3137,
      "▁팩": 3138,
      "▁팬": 3139,
      "▁팸": 3140,
      "▁팻": 3141,
      "▁팽": 3142,
      "▁퍼": 3143,
      "▁퍽": 3144,
      "▁펀": 3145,
      "▁펄": 3146,
      "▁펌": 3147,
      "▁펐": 3148,
      "▁펑": 3149,
      "▁페": 3150,
      "▁펙": 3151,
      "▁펜": 3152,
      "▁펠": 3153,
      "▁펩": 3154,
      "▁펫": 3155,
      "▁펭": 3156,
      "▁펴": 3157,
      "▁편": 3158,
      "▁펼": 3159,
      "▁폈": 3160,
      "▁평": 3161,
      "▁폐": 3162,
      "▁포": 3163,
      "▁폭": 3164,
      "▁폰": 3165,
      "▁폴": 3166,
      "▁폼": 3167,
      "▁폿": 3168,
      "▁퐁": 3169,
      "▁표": 3170,
      "▁푯": 3171,
      "▁푸": 3172,
      "▁푹": 3173,
      "▁푼": 3174,
      "▁풀": 3175,
      "▁품": 3176,
      "▁풉": 3177,
      "▁풋": 3178,
      "▁풍": 3179,
      "▁퓐": 3180,
      "▁퓔": 3181,
      "▁퓨": 3182,
      "▁프": 3183,
      "▁픈": 3184,
      "▁플": 3185,
      "▁픔": 3186,
      "▁픕": 3187,
      "▁피": 3188,
      "▁픽": 3189,
      "▁핀": 3190,
      "▁필": 3191,
      "▁핌": 3192,
      "▁핍": 3193,
      "▁핏": 3194,
      "▁핑": 3195,
      "▁하": 3196,
      "▁학": 3197,
      "▁한": 3198,
      "▁할": 3199,
      "▁핥": 3200,
      "▁함": 3201,
      "▁합": 3202,
      "▁핫": 3203,
      "▁항": 3204,
      "▁해": 3205,
      "▁핵": 3206,
      "▁핸": 3207,
      "▁햄": 3208,
      "▁햇": 3209,
      "▁했": 3210,
      "▁행": 3211,
      "▁향": 3212,
      "▁허": 3213,
      "▁헉": 3214,
      "▁헌": 3215,
      "▁헐": 3216,
      "▁험": 3217,
      "▁헛": 3218,
      "▁헝": 3219,
      "▁헤": 3220,
      "▁헥": 3221,
      "▁헨": 3222,
      "▁헬": 3223,
      "▁헷": 3224,
      "▁헹": 3225,
      "▁혀": 3226,
      "▁현": 3227,
      "▁혈": 3228,
      "▁혐": 3229,
      "▁협": 3230,
      "▁혔": 3231,
      "▁형": 3232,
      "▁혜": 3233,
      "▁호": 3234,
      "▁혹": 3235,
      "▁혼": 3236,
      "▁홀": 3237,
      "▁홈": 3238,
      "▁홉": 3239,
      "▁홍": 3240,
      "▁화": 3241,
      "▁확": 3242,
      "▁환": 3243,
      "▁활": 3244,
      "▁황": 3245,
      "▁횃": 3246,
      "▁회": 3247,
      "▁획": 3248,
      "▁횟": 3249,
      "▁횡": 3250,
      "▁효": 3251,
      "▁후": 3252,
      "▁훅": 3253,
      "▁훈": 3254,
      "▁훌": 3255,
      "▁훑": 3256,
      "▁훔": 3257,
      "▁훗": 3258,
      "▁훨": 3259,
      "▁훼": 3260,
      "▁휘": 3261,
      "▁휙": 3262,
      "▁휠": 3263,
      "▁휩": 3264,
      "▁휴": 3265,
      "▁흉": 3266,
      "▁흐": 3267,
      "▁흑": 3268,
      "▁흔": 3269,
      "▁흘": 3270,
      "▁흙": 3271,
      "▁흠": 3272,
      "▁흡": 3273,
      "▁흥": 3274,
      "▁흩": 3275,
      "▁희": 3276,
      "▁흰": 3277,
      "▁히": 3278,
      "▁힌": 3279,
      "▁힐": 3280,
      "▁힘": 3281,
      "▁힙": 3282,
      "▁힝": 3283,
      "▁�": 3284,
      "니다": 3285,
      "▁니다": 3286,
      "어요": 3287,
      "▁어요": 3288,
      "습니다": 3289,
      "▁습니다": 3290,
      "그들": 3291,
      "▁그들": 3292,
      "했습니다": 3293,
      "▁했습니다": 3294,
      "있었": 3295,
      "▁있었": 3296,
      "그들은": 3297,
      "▁그들은": 3298,
      "했어요": 3299,
      "▁했어요": 3300,
      "엄마": 3301,
      "▁엄마": 3302,
      "그녀": 3303,
      "▁그녀": 3304,
      "에게": 3305,
      "▁에게": 3306,
      "에서": 3307,
      "▁에서": 3308,
      "그는": 3309,
      "▁그는": 3310,
      "친구": 3311,
      "▁친구": 3312,
      "답니다": 3313,
      "▁답니다": 3314,
      "그녀는": 3315,
      "▁그녀는": 3316,
      "라고": 3317,
      "▁라고": 3318,
      "것을": 3319,
      "▁것을": 3320,
      "라는": 3321,
      "▁라는": 3322,
      "지만": 3323,
      "▁지만": 3324,
      "릴리": 3325,
      "▁릴리": 3326,
      "어느": 3327,
      "▁어느": 3328,
      "했죠": 3329,
      "▁했죠": 3330,
      "으로": 3331,
      "▁으로": 3332,
      "좋아": 3333,
      "▁좋아": 3334,
      "함께": 3335,
      "▁함께": 3336,
      "작은": 3337,
      "▁작은": 3338,
      "팀은": 3339,
      "▁팀은": 3340,
      "었어요": 3341,
      "▁었어요": 3342,
      "었습니다": 3343,
      "▁었습니다": 3344,
      "하고": 3345,
      "▁하고": 3346,
      "정말": 3347,
      "▁정말": 3348,
      "행복": 3349,
      "▁행복": 3350,
      "았어요": 3351,
      "▁았어요": 3352,
      "있었어요": 3353,
      "▁있었어요": 3354,
      "매우": 3355,
      "▁매우": 3356,
      "장난": 3357,
      "▁장난": 3358,
      "있는": 3359,
      "▁있는": 3360,
      "장난감": 3361,
      "▁장난감": 3362,
      "았습니다": 3363,
      "▁았습니다": 3364,
      "있었습니다": 3365,
      "▁있었습니다": 3366,
      "지요": 3367,
      "▁지요": 3368,
      "말했습니다": 3369,
      "▁말했습니다": 3370,
      "가지": 3371,
      "▁가지": 3372,
      "싶어": 3373,
      "▁싶어": 3374,
      "나무": 3375,
      "▁나무": 3376,
      "양이": 3377,
      "▁양이": 3378,
      "보고": 3379,
      "▁보고": 3380,
      "고양이": 3381,
      "▁고양이": 3382,
      "하는": 3383,
      "▁하는": 3384,
      "으며": 3385,
      "▁으며": 3386,
      "소녀": 3387,
      "▁소녀": 3388,
      "릴리는": 3389,
      "▁릴리는": 3390,
      "친구들": 3391,
      "▁친구들": 3392,
      "옛날": 3393,
      "▁옛날": 3394,
      "너무": 3395,
      "▁너무": 3396,
      "시작": 3397,
      "▁시작": 3398,
      "다는": 3399,
      "▁다는": 3400,
      "했답니다": 3401,
      "▁했답니다": 3402,
      "소년": 3403,
      "▁소년": 3404,
      "리를": 3405,
      "▁리를": 3406,
      "하며": 3407,
      "▁하며": 3408,
      "발견": 3409,
      "▁발견": 3410,
      "생각": 3411,
      "▁생각": 3412,
      "맥스": 3413,
      "▁맥스": 3414,
      "엄마는": 3415,
      "▁엄마는": 3416,
      "리고": 3417,
      "▁리고": 3418,
      "재미": 3419,
      "▁재미": 3420,
      "다시": 3421,
      "▁다시": 3422,
      "자신": 3423,
      "▁자신": 3424,
      "톰은": 3425,
      "▁톰은": 3426,
      "하지만": 3427,
      "▁하지만": 3428,
      "해요": 3429,
      "▁해요": 3430,
      "말했어요": 3431,
      "▁말했어요": 3432,
      "리는": 3433,
      "▁리는": 3434,
      "이라는": 3435,
      "▁이라는": 3436,
      "가지고": 3437,
      "▁가지고": 3438,
      "다고": 3439,
      "▁다고": 3440,
      "기를": 3441,
      "▁기를": 3442,
      "공원": 3443,
      "▁공원": 3444,
      "들을": 3445,
      "▁들을": 3446,
      "하게": 3447,
      "▁하게": 3448,
      "만들": 3449,
      "▁만들": 3450,
      "었죠": 3451,
      "▁었죠": 3452,
      "도와": 3453,
      "▁도와": 3454,
      "있어": 3455,
      "▁있어": 3456,
      "놀고": 3457,
      "▁놀고": 3458,
      "많은": 3459,
      "▁많은": 3460,
      "갔어요": 3461,
      "▁갔어요": 3462,
      "이야": 3463,
      "▁이야": 3464,
      "스팟": 3465,
      "▁스팟": 3466,
      "모두": 3467,
      "▁모두": 3468,
      "이름": 3469,
      "▁이름": 3470,
      "하지": 3471,
      "▁하지": 3472,
      "그래": 3473,
      "▁그래": 3474,
      "친구가": 3475,
      "▁친구가": 3476,
      "아이": 3477,
      "▁아이": 3478,
      "그리고": 3479,
      "▁그리고": 3480,
      "노는": 3481,
      "▁노는": 3482,
      "웃으며": 3483,
      "▁웃으며": 3484,
      "무서": 3485,
      "▁무서": 3486,
      "로운": 3487,
      "▁로운": 3488,
      "아주": 3489,
      "▁아주": 3490,
      "슬퍼": 3491,
      "▁슬퍼": 3492,
      "들이": 3493,
      "▁들이": 3494,
      "옛적": 3495,
      "▁옛적": 3496,
      "소년이": 3497,
      "▁소년이": 3498,
      "새는": 3499,
      "▁새는": 3500,
      "상자": 3501,
      "▁상자": 3502,
      "미아": 3503,
      "▁미아": 3504,
      "옛적에": 3505,
      "▁옛적에": 3506,
      "들어": 3507,
      "▁들어": 3508,
      "엄마가": 3509,
      "▁엄마가": 3510,
      "이름의": 3511,
      "▁이름의": 3512,
      "시간": 3513,
      "▁시간": 3514,
      "보았습니다": 3515,
      "▁보았습니다": 3516,
      "소녀가": 3517,
      "▁소녀가": 3518,
      "기로": 3519,
      "▁기로": 3520,
      "려고": 3521,
      "▁려고": 3522,
      "있게": 3523,
      "▁있게": 3524,
      "있을": 3525,
      "▁있을": 3526,
      "크고": 3527,
      "▁크고": 3528,
      "면서": 3529,
      "▁면서": 3530,
      "사람": 3531,
      "▁사람": 3532,
      "말했죠": 3533,
      "▁말했죠": 3534,
      "것이": 3535,
      "▁것이": 3536,
      "공을": 3537,
      "▁공을": 3538,
      "했지만": 3539,
      "▁했지만": 3540,
      "미는": 3541,
      "▁미는": 3542,
      "했지요": 3543,
      "▁했지요": 3544,
      "어린": 3545,
      "▁어린": 3546,
      "즐거": 3547,
      "▁즐거": 3548,
      "새로운": 3549,
      "▁새로운": 3550,
      "다가": 3551,
      "▁다가": 3552,
      "아빠": 3553,
      "▁아빠": 3554,
      "졌어요": 3555,
      "▁졌어요": 3556,
      "나는": 3557,
      "▁나는": 3558,
      "기뻐": 3559,
      "▁기뻐": 3560,
      "다른": 3561,
      "▁다른": 3562,
      "갔습니다": 3563,
      "▁갔습니다": 3564,
      "해서": 3565,
      "▁해서": 3566,
      "찾아": 3567,
      "▁찾아": 3568,
      "뛰어": 3569,
      "▁뛰어": 3570,
      "돌아": 3571,
      "▁돌아": 3572,
      "루시": 3573,
      "▁루시": 3574,
      "가서": 3575,
      "▁가서": 3576,
      "장난감을": 3577,
      "▁장난감을": 3578,
      "한때": 3579,
      "▁한때": 3580,
      "아니": 3581,
      "▁아니": 3582,
      "맥스는": 3583,
      "▁맥스는": 3584,
      "리가": 3585,
      "▁리가": 3586,
      "봤어요": 3587,
      "▁봤어요": 3588,
      "무서워": 3589,
      "▁무서워": 3590,
      "에는": 3591,
      "▁에는": 3592,
      "보냈": 3593,
      "▁보냈": 3594,
      "그래서": 3595,
      "▁그래서": 3596,
      "들은": 3597,
      "▁들은": 3598,
      "자기": 3599,
      "▁자기": 3600,
      "이를": 3601,
      "▁이를": 3602,
      "거든": 3603,
      "▁거든": 3604,
      "팀이라는": 3605,
      "▁팀이라는": 3606,
      "재미있게": 3607,
      "▁재미있게": 3608,
      "위해": 3609,
      "▁위해": 3610,
      "하셨": 3611,
      "▁하셨": 3612,
      "행복해": 3613,
      "▁행복해": 3614,
      "말을": 3615,
      "▁말을": 3616,
      "즐거운": 3617,
      "▁즐거운": 3618,
      "대답": 3619,
      "▁대답": 3620,
      "고양이는": 3621,
      "▁고양이는": 3622,
      "가져": 3623,
      "▁가져": 3624,
      "았죠": 3625,
      "▁았죠": 3626,
      "이는": 3627,
      "▁이는": 3628,
      "일이": 3629,
      "▁일이": 3630,
      "자신의": 3631,
      "▁자신의": 3632,
      "시간을": 3633,
      "▁시간을": 3634,
      "개를": 3635,
      "▁개를": 3636,
      "매일": 3637,
      "▁매일": 3638,
      "집으로": 3639,
      "▁집으로": 3640,
      "종일": 3641,
      "▁종일": 3642,
      "했고": 3643,
      "▁했고": 3644,
      "그의": 3645,
      "▁그의": 3646,
      "거든요": 3647,
      "▁거든요": 3648,
      "그런": 3649,
      "▁그런": 3650,
      "않았어요": 3651,
      "▁않았어요": 3652,
      "오래": 3653,
      "▁오래": 3654,
      "엄마에게": 3655,
      "▁엄마에게": 3656,
      "었답니다": 3657,
      "▁었답니다": 3658,
      "살고": 3659,
      "▁살고": 3660,
      "팀과": 3661,
      "▁팀과": 3662,
      "보여": 3663,
      "▁보여": 3664,
      "동물": 3665,
      "▁동물": 3666,
      "달려": 3667,
      "▁달려": 3668,
      "벤은": 3669,
      "▁벤은": 3670,
      "해야": 3671,
      "▁해야": 3672,
      "하루": 3673,
      "▁하루": 3674,
      "남자": 3675,
      "▁남자": 3676,
      "렸어요": 3677,
      "▁렸어요": 3678,
      "소리를": 3679,
      "▁소리를": 3680,
      "사랑": 3681,
      "▁사랑": 3682,
      "었고": 3683,
      "▁었고": 3684,
      "있었죠": 3685,
      "▁있었죠": 3686,
      "항상": 3687,
      "▁항상": 3688,
      "샘은": 3689,
      "▁샘은": 3690,
      "거야": 3691,
      "▁거야": 3692,
      "모든": 3693,
      "▁모든": 3694,
      "스팟은": 3695,
      "▁스팟은": 3696,
      "빨간": 3697,
      "▁빨간": 3698,
      "이상": 3699,
      "▁이상": 3700,
      "그런데": 3701,
      "▁그런데": 3702,
      "놀았어요": 3703,
      "▁놀았어요": 3704,
      "새가": 3705,
      "▁새가": 3706,
      "도와주": 3707,
      "▁도와주": 3708,
      "올라": 3709,
      "▁올라": 3710,
      "물고": 3711,
      "▁물고": 3712,
      "벌레": 3713,
      "▁벌레": 3714,
      "같이": 3715,
      "▁같이": 3716,
      "이제": 3717,
      "▁이제": 3718,
      "공원에": 3719,
      "▁공원에": 3720,
      "예요": 3721,
      "▁예요": 3722,
      "좋아했죠": 3723,
      "▁좋아했죠": 3724,
      "발견했어요": 3725,
      "▁발견했어요": 3726,
      "고마": 3727,
      "▁고마": 3728,
      "수는": 3729,
      "▁수는": 3730,
      "개는": 3731,
      "▁개는": 3732,
      "기분": 3733,
      "▁기분": 3734,
      "에이": 3735,
      "▁에이": 3736,
      "물었어요": 3737,
      "▁물었어요": 3738,
      "도움": 3739,
      "▁도움": 3740,
      "사라": 3741,
      "▁사라": 3742,
      "들고": 3743,
      "▁들고": 3744,
      "조심": 3745,
      "▁조심": 3746,
      "릴리와": 3747,
      "▁릴리와": 3748,
      "그녀의": 3749,
      "▁그녀의": 3750,
      "스러": 3751,
      "▁스러": 3752,
      "친절": 3753,
      "▁친절": 3754,
      "서로": 3755,
      "▁서로": 3756,
      "토끼": 3757,
      "▁토끼": 3758,
      "고마워": 3759,
      "▁고마워": 3760,
      "행복하게": 3761,
      "▁행복하게": 3762,
      "이크": 3763,
      "▁이크": 3764,
      "우리": 3765,
      "▁우리": 3766,
      "아지": 3767,
      "▁아지": 3768,
      "반짝": 3769,
      "▁반짝": 3770,
      "후로": 3771,
      "▁후로": 3772,
      "상자를": 3773,
      "▁상자를": 3774,
      "좋은": 3775,
      "▁좋은": 3776,
      "미아는": 3777,
      "▁미아는": 3778,
      "물을": 3779,
      "▁물을": 3780,
      "식을": 3781,
      "▁식을": 3782,
      "안녕": 3783,
      "▁안녕": 3784,
      "친구들과": 3785,
      "▁친구들과": 3786,
      "감사": 3787,
      "▁감사": 3788,
      "자동": 3789,
      "▁자동": 3790,
      "자동차": 3791,
      "▁자동차": 3792,
      "위에": 3793,
      "▁위에": 3794,
      "않았": 3795,
      "▁않았": 3796,
      "기분이": 3797,
      "▁기분이": 3798,
      "집에": 3799,
      "▁집에": 3800,
      "하늘": 3801,
      "▁하늘": 3802,
      "미소": 3803,
      "▁미소": 3804,
      "까요": 3805,
      "▁까요": 3806,
      "날아": 3807,
      "▁날아": 3808,
      "왔어요": 3809,
      "▁왔어요": 3810,
      "나서": 3811,
      "▁나서": 3812,
      "졌습니다": 3813,
      "▁졌습니다": 3814,
      "공원에서": 3815,
      "▁공원에서": 3816,
      "않았습니다": 3817,
      "▁않았습니다": 3818,
      "특별": 3819,
      "▁특별": 3820,
      "시작했습니다": 3821,
      "▁시작했습니다": 3822,
      "소리": 3823,
      "▁소리": 3824,
      "톰과": 3825,
      "▁톰과": 3826,
      "말씀": 3827,
      "▁말씀": 3828,
      "렇게": 3829,
      "▁렇게": 3830,
      "좋아했습니다": 3831,
      "▁좋아했습니다": 3832,
      "몰랐": 3833,
      "▁몰랐": 3834,
      "배웠": 3835,
      "▁배웠": 3836,
      "이후로": 3837,
      "▁이후로": 3838,
      "렸습니다": 3839,
      "▁렸습니다": 3840,
      "개가": 3841,
      "▁개가": 3842,
      "떨어": 3843,
      "▁떨어": 3844,
      "대해": 3845,
      "▁대해": 3846,
      "났어요": 3847,
      "▁났어요": 3848,
      "그림": 3849,
      "▁그림": 3850,
      "머니": 3851,
      "▁머니": 3852,
      "어서": 3853,
      "▁어서": 3854,
      "예쁜": 3855,
      "▁예쁜": 3856,
      "새를": 3857,
      "▁새를": 3858,
      "다음": 3859,
      "▁다음": 3860,
      "있다는": 3861,
      "▁있다는": 3862,
      "있어요": 3863,
      "▁있어요": 3864,
      "루시는": 3865,
      "▁루시는": 3866,
      "바라": 3867,
      "▁바라": 3868,
      "나무를": 3869,
      "▁나무를": 3870,
      "계속": 3871,
      "▁계속": 3872,
      "책을": 3873,
      "▁책을": 3874,
      "알고": 3875,
      "▁알고": 3876,
      "였죠": 3877,
      "▁였죠": 3878,
      "이야기": 3879,
      "▁이야기": 3880,
      "처럼": 3881,
      "▁처럼": 3882,
      "가장": 3883,
      "▁가장": 3884,
      "있었지요": 3885,
      "▁있었지요": 3886,
      "미안": 3887,
      "▁미안": 3888,
      "게임": 3889,
      "▁게임": 3890,
      "톰이": 3891,
      "▁톰이": 3892,
      "주고": 3893,
      "▁주고": 3894,
      "릴리가": 3895,
      "▁릴리가": 3896,
      "좋아하는": 3897,
      "▁좋아하는": 3898,
      "갑자기": 3899,
      "▁갑자기": 3900,
      "물었습니다": 3901,
      "▁물었습니다": 3902,
      "멋진": 3903,
      "▁멋진": 3904,
      "세요": 3905,
      "▁세요": 3906,
      "먹고": 3907,
      "▁먹고": 3908,
      "팀의": 3909,
      "▁팀의": 3910,
      "케이크": 3911,
      "▁케이크": 3912,
      "기는": 3913,
      "▁기는": 3914,
      "강아지": 3915,
      "▁강아지": 3916,
      "특별한": 3917,
      "▁특별한": 3918,
      "아래": 3919,
      "▁아래": 3920,
      "지는": 3921,
      "▁지는": 3922,
      "손을": 3923,
      "▁손을": 3924,
      "었지만": 3925,
      "▁었지만": 3926,
      "수라는": 3927,
      "▁수라는": 3928,
      "마음": 3929,
      "▁마음": 3930,
      "않아": 3931,
      "▁않아": 3932,
      "일을": 3933,
      "▁일을": 3934,
      "시작했어요": 3935,
      "▁시작했어요": 3936,
      "바위": 3937,
      "▁바위": 3938,
      "그날": 3939,
      "▁그날": 3940,
      "티머": 3941,
      "▁티머": 3942,
      "노래": 3943,
      "▁노래": 3944,
      "밖에서": 3945,
      "▁밖에서": 3946,
      "정원": 3947,
      "▁정원": 3948,
      "거예요": 3949,
      "▁거예요": 3950,
      "좋아했어요": 3951,
      "▁좋아했어요": 3952,
      "안나": 3953,
      "▁안나": 3954,
      "들과": 3955,
      "▁들과": 3956,
      "였어요": 3957,
      "▁였어요": 3958,
      "지를": 3959,
      "▁지를": 3960,
      "고양이가": 3961,
      "▁고양이가": 3962,
      "사과": 3963,
      "▁사과": 3964,
      "까지": 3965,
      "▁까지": 3966,
      "소녀는": 3967,
      "▁소녀는": 3968,
      "나눠": 3969,
      "▁나눠": 3970,
      "자를": 3971,
      "▁자를": 3972,
      "안전": 3973,
      "▁안전": 3974,
      "친구들은": 3975,
      "▁친구들은": 3976,
      "았답니다": 3977,
      "▁았답니다": 3978,
      "인형": 3979,
      "▁인형": 3980,
      "났습니다": 3981,
      "▁났습니다": 3982,
      "마을": 3983,
      "▁마을": 3984,
      "말씀하셨": 3985,
      "▁말씀하셨": 3986,
      "되었습니다": 3987,
      "▁되었습니다": 3988,
      "도와줄": 3989,
      "▁도와줄": 3990,
      "자랑": 3991,
      "▁자랑": 3992,
      "무엇": 3993,
      "▁무엇": 3994,
      "문을": 3995,
      "▁문을": 3996,
      "되어": 3997,
      "▁되어": 3998,
      "느꼈": 3999,
      "▁느꼈": 4000,
      "내려": 4001,
      "▁내려": 4002,
      "엄마와": 4003,
      "▁엄마와": 4004,
      "그들이": 4005,
      "▁그들이": 4006,
      "개구": 4007,
      "▁개구": 4008,
      "그때": 4009,
      "▁그때": 4010,
      "가득": 4011,
      "▁가득": 4012,
      "수가": 4013,
      "▁수가": 4014,
      "그것": 4015,
      "▁그것": 4016,
      "가족": 4017,
      "▁가족": 4018,
      "높이": 4019,
      "▁높이": 4020,
      "마법": 4021,
      "▁마법": 4022,
      "에요": 4023,
      "▁에요": 4024,
      "보았어요": 4025,
      "▁보았어요": 4026,
      "도움을": 4027,
      "▁도움을": 4028,
      "미끄": 4029,
      "▁미끄": 4030,
      "도록": 4031,
      "▁도록": 4032,
      "였습니다": 4033,
      "▁였습니다": 4034,
      "러운": 4035,
      "▁러운": 4036,
      "놀라": 4037,
      "▁놀라": 4038,
      "부드": 4039,
      "▁부드": 4040,
      "기뻤": 4041,
      "▁기뻤": 4042,
      "근처": 4043,
      "▁근처": 4044,
      "자신이": 4045,
      "▁자신이": 4046,
      "그들을": 4047,
      "▁그들을": 4048,
      "으려고": 4049,
      "▁으려고": 4050,
      "보며": 4051,
      "▁보며": 4052,
      "흔들": 4053,
      "▁흔들": 4054,
      "걱정": 4055,
      "▁걱정": 4056,
      "한다는": 4057,
      "▁한다는": 4058,
      "보는": 4059,
      "▁보는": 4060,
      "아름": 4061,
      "▁아름": 4062,
      "미소를": 4063,
      "▁미소를": 4064,
      "둘은": 4065,
      "▁둘은": 4066,
      "왔습니다": 4067,
      "▁왔습니다": 4068,
      "교훈": 4069,
      "▁교훈": 4070,
      "했다": 4071,
      "▁했다": 4072,
      "맛있는": 4073,
      "▁맛있는": 4074,
      "하기": 4075,
      "▁하기": 4076,
      "보자": 4077,
      "▁보자": 4078,
      "발견했습니다": 4079,
      "▁발견했습니다": 4080,
      "최고": 4081,
      "▁최고": 4082,
      "오래전": 4083,
      "▁오래전": 4084,
      "이지": 4085,
      "▁이지": 4086,
      "앉아": 4087,
      "▁앉아": 4088,
      "가는": 4089,
      "▁가는": 4090,
      "기다": 4091,
      "▁기다": 4092,
      "놀며": 4093,
      "▁놀며": 4094,
      "이렇게": 4095,
      "▁이렇게": 4096,
      "릴리라는": 4097,
      "▁릴리라는": 4098,
      "친구를": 4099,
      "▁친구를": 4100,
      "싶지": 4101,
      "▁싶지": 4102,
      "게임을": 4103,
      "▁게임을": 4104,
      "여기": 4105,
      "▁여기": 4106,
      "음식을": 4107,
      "▁음식을": 4108,
      "필요": 4109,
      "▁필요": 4110,
      "있는지": 4111,
      "▁있는지": 4112,
      "가고": 4113,
      "▁가고": 4114,
      "스를": 4115,
      "▁스를": 4116,
      "깨달": 4117,
      "▁깨달": 4118,
      "그것을": 4119,
      "▁그것을": 4120,
      "와서": 4121,
      "▁와서": 4122,
      "다니": 4123,
      "▁다니": 4124,
      "도착": 4125,
      "▁도착": 4126,
      "그러": 4127,
      "▁그러": 4128,
      "었지요": 4129,
      "▁었지요": 4130,
      "행복했습니다": 4131,
      "▁행복했습니다": 4132,
      "나누": 4133,
      "▁나누": 4134,
      "벤이": 4135,
      "▁벤이": 4136,
      "옛날에": 4137,
      "▁옛날에": 4138,
      "사를": 4139,
      "▁사를": 4140,
      "결심": 4141,
      "▁결심": 4142,
      "지고": 4143,
      "▁지고": 4144,
      "했어": 4145,
      "▁했어": 4146,
      "친한": 4147,
      "▁친한": 4148,
      "끄덕": 4149,
      "▁끄덕": 4150,
      "일어": 4151,
      "▁일어": 4152,
      "법을": 4153,
      "▁법을": 4154,
      "이라고": 4155,
      "▁이라고": 4156,
      "주었습니다": 4157,
      "▁주었습니다": 4158,
      "말해요": 4159,
      "▁말해요": 4160,
      "어를": 4161,
      "▁어를": 4162,
      "바로": 4163,
      "▁바로": 4164,
      "바람": 4165,
      "▁바람": 4166,
      "음을": 4167,
      "▁음을": 4168,
      "놀러": 4169,
      "▁놀러": 4170,
      "반짝이는": 4171,
      "▁반짝이는": 4172,
      "듣고": 4173,
      "▁듣고": 4174,
      "자랑스러": 4175,
      "▁자랑스러": 4176,
      "랐습니다": 4177,
      "▁랐습니다": 4178,
      "아름다": 4179,
      "▁아름다": 4180,
      "빨리": 4181,
      "▁빨리": 4182,
      "구멍": 4183,
      "▁구멍": 4184,
      "그게": 4185,
      "▁그게": 4186,
      "내가": 4187,
      "▁내가": 4188,
      "싶었어요": 4189,
      "▁싶었어요": 4190,
      "수를": 4191,
      "▁수를": 4192,
      "해가": 4193,
      "▁해가": 4194,
      "았고": 4195,
      "▁았고": 4196,
      "차를": 4197,
      "▁차를": 4198,
      "가까": 4199,
      "▁가까": 4200,
      "기가": 4201,
      "▁기가": 4202,
      "주었어요": 4203,
      "▁주었어요": 4204,
      "길을": 4205,
      "▁길을": 4206,
      "빠르": 4207,
      "▁빠르": 4208,
      "최고의": 4209,
      "▁최고의": 4210,
      "뜻밖": 4211,
      "▁뜻밖": 4212,
      "비가": 4213,
      "▁비가": 4214,
      "키티": 4215,
      "▁키티": 4216,
      "지으며": 4217,
      "▁지으며": 4218,
      "고개를": 4219,
      "▁고개를": 4220,
      "에이미는": 4221,
      "▁에이미는": 4222,
      "안에": 4223,
      "▁안에": 4224,
      "에이미": 4225,
      "▁에이미": 4226,
      "따라": 4227,
      "▁따라": 4228,
      "져서": 4229,
      "▁져서": 4230,
      "란색": 4231,
      "▁란색": 4232,
      "사용": 4233,
      "▁사용": 4234,
      "사는": 4235,
      "▁사는": 4236,
      "무언": 4237,
      "▁무언": 4238,
      "놀았습니다": 4239,
      "▁놀았습니다": 4240,
      "고양이를": 4241,
      "▁고양이를": 4242,
      "결국": 4243,
      "▁결국": 4244,
      "무언가": 4245,
      "▁무언가": 4246,
      "시도": 4247,
      "▁시도": 4248,
      "하나": 4249,
      "▁하나": 4250,
      "트를": 4251,
      "▁트를": 4252,
      "트럭": 4253,
      "▁트럭": 4254,
      "남자는": 4255,
      "▁남자는": 4256,
      "드는": 4257,
      "▁드는": 4258,
      "아빠는": 4259,
      "▁아빠는": 4260,
      "전히": 4261,
      "▁전히": 4262,
      "밥은": 4263,
      "▁밥은": 4264,
      "화가": 4265,
      "▁화가": 4266,
      "없었어요": 4267,
      "▁없었어요": 4268,
      "보냈답니다": 4269,
      "▁보냈답니다": 4270,
      "다람": 4271,
      "▁다람": 4272,
      "졌고": 4273,
      "▁졌고": 4274,
      "생각했습니다": 4275,
      "▁생각했습니다": 4276,
      "놀이를": 4277,
      "▁놀이를": 4278,
      "스는": 4279,
      "▁스는": 4280,
      "다람쥐": 4281,
      "▁다람쥐": 4282,
      "좋아했지요": 4283,
      "▁좋아했지요": 4284,
      "당신": 4285,
      "▁당신": 4286,
      "보니": 4287,
      "▁보니": 4288,
      "미안해": 4289,
      "▁미안해": 4290,
      "여전히": 4291,
      "▁여전히": 4292,
      "만들어": 4293,
      "▁만들어": 4294,
      "그림을": 4295,
      "▁그림을": 4296,
      "합니다": 4297,
      "▁합니다": 4298,
      "용감": 4299,
      "▁용감": 4300,
      "괜찮": 4301,
      "▁괜찮": 4302,
      "움직": 4303,
      "▁움직": 4304,
      "되었답니다": 4305,
      "▁되었답니다": 4306,
      "재미있는": 4307,
      "▁재미있는": 4308,
      "물건": 4309,
      "▁물건": 4310,
      "있어서": 4311,
      "▁있어서": 4312,
      "뜻밖의": 4313,
      "▁뜻밖의": 4314,
      "조금": 4315,
      "▁조금": 4316,
      "미끄럼": 4317,
      "▁미끄럼": 4318,
      "으니": 4319,
      "▁으니": 4320,
      "그들의": 4321,
      "▁그들의": 4322,
      "기뻐하며": 4323,
      "▁기뻐하며": 4324,
      "바닥": 4325,
      "▁바닥": 4326,
      "는데": 4327,
      "▁는데": 4328,
      "미끄럼틀": 4329,
      "▁미끄럼틀": 4330,
      "아름다운": 4331,
      "▁아름다운": 4332,
      "어버": 4333,
      "▁어버": 4334,
      "그를": 4335,
      "▁그를": 4336,
      "안으로": 4337,
      "▁안으로": 4338,
      "쳤어요": 4339,
      "▁쳤어요": 4340,
      "슬프": 4341,
      "▁슬프": 4342,
      "것들을": 4343,
      "▁것들을": 4344,
      "친구인": 4345,
      "▁친구인": 4346,
      "착한": 4347,
      "▁착한": 4348,
      "먹을": 4349,
      "▁먹을": 4350,
      "거기": 4351,
      "▁거기": 4352,
      "으면서": 4353,
      "▁으면서": 4354,
      "주변": 4355,
      "▁주변": 4356,
      "걸어": 4357,
      "▁걸어": 4358,
      "겠다고": 4359,
      "▁겠다고": 4360,
      "싶었지만": 4361,
      "▁싶었지만": 4362,
      "집을": 4363,
      "▁집을": 4364,
      "되었어요": 4365,
      "▁되었어요": 4366,
      "치고": 4367,
      "▁치고": 4368,
      "찾을": 4369,
      "▁찾을": 4370,
      "따뜻": 4371,
      "▁따뜻": 4372,
      "부탁": 4373,
      "▁부탁": 4374,
      "아이디": 4375,
      "▁아이디": 4376,
      "럽게": 4377,
      "▁럽게": 4378,
      "그가": 4379,
      "▁그가": 4380,
      "지켜": 4381,
      "▁지켜": 4382,
      "친구들이": 4383,
      "▁친구들이": 4384,
      "가게": 4385,
      "▁가게": 4386,
      "집에서": 4387,
      "▁집에서": 4388,
      "대답했어요": 4389,
      "▁대답했어요": 4390,
      "아요": 4391,
      "▁아요": 4392,
      "사라는": 4393,
      "▁사라는": 4394,
      "있었고": 4395,
      "▁있었고": 4396,
      "땅에": 4397,
      "▁땅에": 4398,
      "있을까요": 4399,
      "▁있을까요": 4400,
      "나무에": 4401,
      "▁나무에": 4402,
      "리에": 4403,
      "▁리에": 4404,
      "신나": 4405,
      "▁신나": 4406,
      "할머니": 4407,
      "▁할머니": 4408,
      "노래를": 4409,
      "▁노래를": 4410,
      "싶어서": 4411,
      "▁싶어서": 4412,
      "이고": 4413,
      "▁이고": 4414,
      "소년은": 4415,
      "▁소년은": 4416,
      "너는": 4417,
      "▁너는": 4418,
      "그것은": 4419,
      "▁그것은": 4420,
      "얼굴": 4421,
      "▁얼굴": 4422,
      "나도": 4423,
      "▁나도": 4424,
      "네가": 4425,
      "▁네가": 4426,
      "때문": 4427,
      "▁때문": 4428,
      "오르": 4429,
      "▁오르": 4430,
      "케이크를": 4431,
      "▁케이크를": 4432,
      "어떻": 4433,
      "▁어떻": 4434,
      "숲속": 4435,
      "▁숲속": 4436,
      "연못": 4437,
      "▁연못": 4438,
      "어떻게": 4439,
      "▁어떻게": 4440,
      "둘러": 4441,
      "▁둘러": 4442,
      "많이": 4443,
      "▁많이": 4444,
      "무슨": 4445,
      "▁무슨": 4446,
      "잠시": 4447,
      "▁잠시": 4448,
      "졌죠": 4449,
      "▁졌죠": 4450,
      "들었어요": 4451,
      "▁들었어요": 4452,
      "친절한": 4453,
      "▁친절한": 4454,
      "친구들에게": 4455,
      "▁친구들에게": 4456,
      "같은": 4457,
      "▁같은": 4458,
      "좋아했답니다": 4459,
      "▁좋아했답니다": 4460,
      "가까이": 4461,
      "▁가까이": 4462,
      "웠습니다": 4463,
      "▁웠습니다": 4464,
      "인은": 4465,
      "▁인은": 4466,
      "보냈습니다": 4467,
      "▁보냈습니다": 4468,
      "시작했죠": 4469,
      "▁시작했죠": 4470,
      "공으로": 4471,
      "▁공으로": 4472,
      "공이": 4473,
      "▁공이": 4474,
      "마당": 4475,
      "▁마당": 4476,
      "어디": 4477,
      "▁어디": 4478,
      "벌어": 4479,
      "▁벌어": 4480,
      "으면": 4481,
      "▁으면": 4482,
      "놀기를": 4483,
      "▁놀기를": 4484,
      "사귀": 4485,
      "▁사귀": 4486,
      "만났어요": 4487,
      "▁만났어요": 4488,
      "할지": 4489,
      "▁할지": 4490,
      "중요": 4491,
      "▁중요": 4492,
      "결정": 4493,
      "▁결정": 4494,
      "그네": 4495,
      "▁그네": 4496,
      "이며": 4497,
      "▁이며": 4498,
      "파티": 4499,
      "▁파티": 4500,
      "토끼는": 4501,
      "▁토끼는": 4502,
      "행복했어요": 4503,
      "▁행복했어요": 4504,
      "소리가": 4505,
      "▁소리가": 4506,
      "색깔": 4507,
      "▁색깔": 4508,
      "플러": 4509,
      "▁플러": 4510,
      "없었습니다": 4511,
      "▁없었습니다": 4512,
      "하루를": 4513,
      "▁하루를": 4514,
      "들에게": 4515,
      "▁들에게": 4516,
      "모험": 4517,
      "▁모험": 4518,
      "자는": 4519,
      "▁자는": 4520,
      "올려": 4521,
      "▁올려": 4522,
      "행복한": 4523,
      "▁행복한": 4524,
      "들의": 4525,
      "▁들의": 4526,
      "방을": 4527,
      "▁방을": 4528,
      "경주": 4529,
      "▁경주": 4530,
      "친구들을": 4531,
      "▁친구들을": 4532,
      "팀에게": 4533,
      "▁팀에게": 4534,
      "플러피": 4535,
      "▁플러피": 4536,
      "만들고": 4537,
      "▁만들고": 4538,
      "아니야": 4539,
      "▁아니야": 4540,
      "릴리의": 4541,
      "▁릴리의": 4542,
      "우는": 4543,
      "▁우는": 4544,
      "행복하고": 4545,
      "▁행복하고": 4546,
      "궁금": 4547,
      "▁궁금": 4548,
      "산책을": 4549,
      "▁산책을": 4550,
      "놀기": 4551,
      "▁놀기": 4552,
      "팀이": 4553,
      "▁팀이": 4554,
      "조각": 4555,
      "▁조각": 4556,
      "빠르게": 4557,
      "▁빠르게": 4558,
      "아무": 4559,
      "▁아무": 4560,
      "밖으로": 4561,
      "▁밖으로": 4562,
      "달려가": 4563,
      "▁달려가": 4564,
      "것에": 4565,
      "▁것에": 4566,
      "물이": 4567,
      "▁물이": 4568,
      "대한": 4569,
      "▁대한": 4570,
      "예쁘": 4571,
      "▁예쁘": 4572,
      "랐어요": 4573,
      "▁랐어요": 4574,
      "티머는": 4575,
      "▁티머는": 4576,
      "다시는": 4577,
      "▁다시는": 4578,
      "장난감이": 4579,
      "▁장난감이": 4580,
      "좋아해요": 4581,
      "▁좋아해요": 4582,
      "신이": 4583,
      "▁신이": 4584,
      "이야기를": 4585,
      "▁이야기를": 4586,
      "타고": 4587,
      "▁타고": 4588,
      "부드러운": 4589,
      "▁부드러운": 4590,
      "줘서": 4591,
      "▁줘서": 4592,
      "설레": 4593,
      "▁설레": 4594,
      "봐요": 4595,
      "▁봐요": 4596,
      "는지": 4597,
      "▁는지": 4598,
      "빨간색": 4599,
      "▁빨간색": 4600,
      "자랑스러워": 4601,
      "▁자랑스러워": 4602,
      "거라고": 4603,
      "▁거라고": 4604,
      "되고": 4605,
      "▁되고": 4606,
      "위로": 4607,
      "▁위로": 4608,
      "데려": 4609,
      "▁데려": 4610,
      "그녀를": 4611,
      "▁그녀를": 4612,
      "대답했습니다": 4613,
      "▁대답했습니다": 4614,
      "언덕": 4615,
      "▁언덕": 4616,
      "안아주": 4617,
      "▁안아주": 4618,
      "님은": 4619,
      "▁님은": 4620,
      "동의": 4621,
      "▁동의": 4622,
      "추고": 4623,
      "▁추고": 4624,
      "교훈은": 4625,
      "▁교훈은": 4626,
      "나가": 4627,
      "▁나가": 4628,
      "안나는": 4629,
      "▁안나는": 4630,
      "엄마를": 4631,
      "▁엄마를": 4632,
      "블록": 4633,
      "▁블록": 4634,
      "말씀하셨어요": 4635,
      "▁말씀하셨어요": 4636,
      "멀리": 4637,
      "▁멀리": 4638,
      "싶었습니다": 4639,
      "▁싶었습니다": 4640,
      "었어": 4641,
      "▁었어": 4642,
      "중에": 4643,
      "▁중에": 4644,
      "바람이": 4645,
      "▁바람이": 4646,
      "쳤습니다": 4647,
      "▁쳤습니다": 4648,
      "스크": 4649,
      "▁스크": 4650,
      "톰이라는": 4651,
      "▁톰이라는": 4652,
      "저는": 4653,
      "▁저는": 4654,
      "가진": 4655,
      "▁가진": 4656,
      "안에는": 4657,
      "▁안에는": 4658,
      "침대": 4659,
      "▁침대": 4660,
      "우리는": 4661,
      "▁우리는": 4662,
      "하면": 4663,
      "▁하면": 4664,
      "그건": 4665,
      "▁그건": 4666,
      "다녔": 4667,
      "▁다녔": 4668,
      "막대": 4669,
      "▁막대": 4670,
      "돕고": 4671,
      "▁돕고": 4672,
      "자동차를": 4673,
      "▁자동차를": 4674,
      "지기": 4675,
      "▁지기": 4676,
      "나갔습니다": 4677,
      "▁나갔습니다": 4678,
      "슬프고": 4679,
      "▁슬프고": 4680,
      "즐겼": 4681,
      "▁즐겼": 4682,
      "아이디어를": 4683,
      "▁아이디어를": 4684,
      "깨끗": 4685,
      "▁깨끗": 4686,
      "마을에": 4687,
      "▁마을에": 4688,
      "서로를": 4689,
      "▁서로를": 4690,
      "찾았어요": 4691,
      "▁찾았어요": 4692,
      "안에서": 4693,
      "▁안에서": 4694,
      "이기": 4695,
      "▁이기": 4696,
      "화를": 4697,
      "▁화를": 4698,
      "기억": 4699,
      "▁기억": 4700,
      "점점": 4701,
      "▁점점": 4702,
      "인사를": 4703,
      "▁인사를": 4704,
      "위를": 4705,
      "▁위를": 4706,
      "탐험": 4707,
      "▁탐험": 4708,
      "가야": 4709,
      "▁가야": 4710,
      "모습": 4711,
      "▁모습": 4712,
      "생쥐": 4713,
      "▁생쥐": 4714,
      "없어": 4715,
      "▁없어": 4716,
      "가며": 4717,
      "▁가며": 4718,
      "이야기의": 4719,
      "▁이야기의": 4720,
      "줄게": 4721,
      "▁줄게": 4722,
      "셨어요": 4723,
      "▁셨어요": 4724,
      "한테": 4725,
      "▁한테": 4726,
      "알아": 4727,
      "▁알아": 4728,
      "드레": 4729,
      "▁드레": 4730,
      "샘이": 4731,
      "▁샘이": 4732,
      "하자": 4733,
      "▁하자": 4734,
      "보다": 4735,
      "▁보다": 4736,
      "듣지": 4737,
      "▁듣지": 4738,
      "않았죠": 4739,
      "▁않았죠": 4740,
      "물고기": 4741,
      "▁물고기": 4742,
      "준비": 4743,
      "▁준비": 4744,
      "무언가를": 4745,
      "▁무언가를": 4746,
      "모자를": 4747,
      "▁모자를": 4748,
      "공은": 4749,
      "▁공은": 4750,
      "꽃을": 4751,
      "▁꽃을": 4752,
      "인지": 4753,
      "▁인지": 4754,
      "주변을": 4755,
      "▁주변을": 4756,
      "가자": 4757,
      "▁가자": 4758,
      "곰은": 4759,
      "▁곰은": 4760,
      "한다고": 4761,
      "▁한다고": 4762,
      "벌레는": 4763,
      "▁벌레는": 4764,
      "선을": 4765,
      "▁선을": 4766,
      "차는": 4767,
      "▁차는": 4768,
      "웃으면서": 4769,
      "▁웃으면서": 4770,
      "껴안": 4771,
      "▁껴안": 4772,
      "발견했죠": 4773,
      "▁발견했죠": 4774,
      "하다고": 4775,
      "▁하다고": 4776,
      "있고": 4777,
      "▁있고": 4778,
      "아버": 4779,
      "▁아버": 4780,
      "너를": 4781,
      "▁너를": 4782,
      "들었습니다": 4783,
      "▁들었습니다": 4784,
      "움을": 4785,
      "▁움을": 4786,
      "하기로": 4787,
      "▁하기로": 4788,
      "렸죠": 4789,
      "▁렸죠": 4790,
      "스럽게": 4791,
      "▁스럽게": 4792,
      "아빠가": 4793,
      "▁아빠가": 4794,
      "해주": 4795,
      "▁해주": 4796,
      "싶었죠": 4797,
      "▁싶었죠": 4798,
      "냈어요": 4799,
      "▁냈어요": 4800,
      "배가": 4801,
      "▁배가": 4802,
      "위한": 4803,
      "▁위한": 4804,
      "놀자": 4805,
      "▁놀자": 4806,
      "파란색": 4807,
      "▁파란색": 4808,
      "프를": 4809,
      "▁프를": 4810,
      "때문에": 4811,
      "▁때문에": 4812,
      "자가": 4813,
      "▁자가": 4814,
      "그들에게": 4815,
      "▁그들에게": 4816,
      "이었습니다": 4817,
      "▁이었습니다": 4818,
      "장난감으로": 4819,
      "▁장난감으로": 4820,
      "갔답니다": 4821,
      "▁갔답니다": 4822,
      "팀을": 4823,
      "▁팀을": 4824,
      "쿠키": 4825,
      "▁쿠키": 4826,
      "바닥에": 4827,
      "▁바닥에": 4828,
      "슬펐": 4829,
      "▁슬펐": 4830,
      "나고": 4831,
      "▁나고": 4832,
      "강아지가": 4833,
      "▁강아지가": 4834,
      "이건": 4835,
      "▁이건": 4836,
      "돌려": 4837,
      "▁돌려": 4838,
      "속에서": 4839,
      "▁속에서": 4840,
      "눈을": 4841,
      "▁눈을": 4842,
      "저기": 4843,
      "▁저기": 4844,
      "톰에게": 4845,
      "▁톰에게": 4846,
      "디는": 4847,
      "▁디는": 4848,
      "약속": 4849,
      "▁약속": 4850,
      "입니다": 4851,
      "▁입니다": 4852,
      "방에": 4853,
      "▁방에": 4854,
      "리며": 4855,
      "▁리며": 4856,
      "동안": 4857,
      "▁동안": 4858,
      "포옹": 4859,
      "▁포옹": 4860,
      "이가": 4861,
      "▁이가": 4862,
      "모두가": 4863,
      "▁모두가": 4864,
      "사람들이": 4865,
      "▁사람들이": 4866,
      "있다고": 4867,
      "▁있다고": 4868,
      "웠어요": 4869,
      "▁웠어요": 4870,
      "높은": 4871,
      "▁높은": 4872,
      "뛰고": 4873,
      "▁뛰고": 4874,
      "바위를": 4875,
      "▁바위를": 4876,
      "기뻐했어요": 4877,
      "▁기뻐했어요": 4878,
      "샐리는": 4879,
      "▁샐리는": 4880,
      "러워": 4881,
      "▁러워": 4882,
      "오는": 4883,
      "▁오는": 4884,
      "궁금해": 4885,
      "▁궁금해": 4886,
      "전에": 4887,
      "▁전에": 4888,
      "행복해하며": 4889,
      "▁행복해하며": 4890,
      "꺼내": 4891,
      "▁꺼내": 4892,
      "되었고": 4893,
      "▁되었고": 4894,
      "만드는": 4895,
      "▁만드는": 4896,
      "기뻐했습니다": 4897,
      "▁기뻐했습니다": 4898,
      "찾았": 4899,
      "▁찾았": 4900,
      "잡고": 4901,
      "▁잡고": 4902,
      "말했답니다": 4903,
      "▁말했답니다": 4904,
      "맑은": 4905,
      "▁맑은": 4906,
      "하다는": 4907,
      "▁하다는": 4908,
      "보내": 4909,
      "▁보내": 4910,
      "우고": 4911,
      "▁우고": 4912,
      "쫓아": 4913,
      "▁쫓아": 4914,
      "이에요": 4915,
      "▁이에요": 4916,
      "방법을": 4917,
      "▁방법을": 4918,
      "꼬리를": 4919,
      "▁꼬리를": 4920,
      "아이스크": 4921,
      "▁아이스크": 4922,
      "아이스크림": 4923,
      "▁아이스크림": 4924,
      "보여주": 4925,
      "▁보여주": 4926,
      "부터": 4927,
      "▁부터": 4928,
      "잃어버": 4929,
      "▁잃어버": 4930,
      "리기": 4931,
      "▁리기": 4932,
      "부엌": 4933,
      "▁부엌": 4934,
      "것도": 4935,
      "▁것도": 4936,
      "스러운": 4937,
      "▁스러운": 4938,
      "방에서": 4939,
      "▁방에서": 4940,
      "차가": 4941,
      "▁차가": 4942,
      "잭은": 4943,
      "▁잭은": 4944,
      "새에게": 4945,
      "▁새에게": 4946,
      "우리가": 4947,
      "▁우리가": 4948,
      "고양이와": 4949,
      "▁고양이와": 4950,
      "들로": 4951,
      "▁들로": 4952,
      "좋지": 4953,
      "▁좋지": 4954,
      "자전": 4955,
      "▁자전": 4956,
      "그냥": 4957,
      "▁그냥": 4958,
      "물론": 4959,
      "▁물론": 4960,
      "가락": 4961,
      "▁가락": 4962,
      "자전거": 4963,
      "▁자전거": 4964,
      "마침": 4965,
      "▁마침": 4966,
      "안을": 4967,
      "▁안을": 4968,
      "마침내": 4969,
      "▁마침내": 4970,
      "생각했죠": 4971,
      "▁생각했죠": 4972,
      "무엇을": 4973,
      "▁무엇을": 4974,
      "으니까요": 4975,
      "▁으니까요": 4976,
      "혼자": 4977,
      "▁혼자": 4978,
      "싶어요": 4979,
      "▁싶어요": 4980,
      "배웠습니다": 4981,
      "▁배웠습니다": 4982,
      "그에게": 4983,
      "▁그에게": 4984,
      "헤엄": 4985,
      "▁헤엄": 4986,
      "남자가": 4987,
      "▁남자가": 4988,
      "토미는": 4989,
      "▁토미는": 4990,
      "있을까": 4991,
      "▁있을까": 4992,
      "이었죠": 4993,
      "▁이었죠": 4994,
      "피곤": 4995,
      "▁피곤": 4996,
      "버렸어요": 4997,
      "▁버렸어요": 4998,
      "놀면서": 4999,
      "▁놀면서": 5000,
      "없었죠": 5001,
      "▁없었죠": 5002,
      "보냈어요": 5003,
      "▁보냈어요": 5004,
      "간식을": 5005,
      "▁간식을": 5006,
      "팀아": 5007,
      "▁팀아": 5008,
      "발견했답니다": 5009,
      "▁발견했답니다": 5010,
      "강한": 5011,
      "▁강한": 5012,
      "떠올": 5013,
      "▁떠올": 5014,
      "작별": 5015,
      "▁작별": 5016,
      "잎사귀": 5017,
      "▁잎사귀": 5018,
      "었다": 5019,
      "▁었다": 5020,
      "지도": 5021,
      "▁지도": 5022,
      "냈습니다": 5023,
      "▁냈습니다": 5024,
      "나뭇": 5025,
      "▁나뭇": 5026,
      "즐겁": 5027,
      "▁즐겁": 5028,
      "치며": 5029,
      "▁치며": 5030,
      "얼마": 5031,
      "▁얼마": 5032,
      "모래": 5033,
      "▁모래": 5034,
      "모험을": 5035,
      "▁모험을": 5036,
      "발을": 5037,
      "▁발을": 5038,
      "었거든요": 5039,
      "▁었거든요": 5040,
      "리와": 5041,
      "▁리와": 5042,
      "열어": 5043,
      "▁열어": 5044,
      "뒤에": 5045,
      "▁뒤에": 5046,
      "자신을": 5047,
      "▁자신을": 5048,
      "나비": 5049,
      "▁나비": 5050,
      "릴리를": 5051,
      "▁릴리를": 5052,
      "선물": 5053,
      "▁선물": 5054,
      "니는": 5055,
      "▁니는": 5056,
      "깡충": 5057,
      "▁깡충": 5058,
      "살펴": 5059,
      "▁살펴": 5060,
      "흔들며": 5061,
      "▁흔들며": 5062,
      "부르": 5063,
      "▁부르": 5064,
      "장을": 5065,
      "▁장을": 5066,
      "있도록": 5067,
      "▁있도록": 5068,
      "벌레를": 5069,
      "▁벌레를": 5070,
      "하셨어요": 5071,
      "▁하셨어요": 5072,
      "줬어요": 5073,
      "▁줬어요": 5074,
      "나와": 5075,
      "▁나와": 5076,
      "이었어요": 5077,
      "▁이었어요": 5078,
      "행동": 5079,
      "▁행동": 5080,
      "크게": 5081,
      "▁크게": 5082,
      "놀았답니다": 5083,
      "▁놀았답니다": 5084,
      "나아": 5085,
      "▁나아": 5086,
      "그녀가": 5087,
      "▁그녀가": 5088,
      "그렇게": 5089,
      "▁그렇게": 5090,
      "톰의": 5091,
      "▁톰의": 5092,
      "정원에서": 5093,
      "▁정원에서": 5094,
      "상을": 5095,
      "▁상을": 5096,
      "아래에서": 5097,
      "▁아래에서": 5098,
      "나쁜": 5099,
      "▁나쁜": 5100,
      "심이": 5101,
      "▁심이": 5102,
      "열심": 5103,
      "▁열심": 5104,
      "사과를": 5105,
      "▁사과를": 5106,
      "치를": 5107,
      "▁치를": 5108,
      "박수를": 5109,
      "▁박수를": 5110,
      "느꼈습니다": 5111,
      "▁느꼈습니다": 5112,
      "열심히": 5113,
      "▁열심히": 5114,
      "개구리는": 5115,
      "▁개구리는": 5116,
      "달라고": 5117,
      "▁달라고": 5118,
      "맥스라는": 5119,
      "▁맥스라는": 5120,
      "토미": 5121,
      "▁토미": 5122,
      "벤과": 5123,
      "▁벤과": 5124,
      "넘어": 5125,
      "▁넘어": 5126,
      "키티는": 5127,
      "▁키티는": 5128,
      "자신들의": 5129,
      "▁자신들의": 5130,
      "바다": 5131,
      "▁바다": 5132,
      "근처에서": 5133,
      "▁근처에서": 5134,
      "괜찮아": 5135,
      "▁괜찮아": 5136,
      "대로": 5137,
      "▁대로": 5138,
      "오늘": 5139,
      "▁오늘": 5140,
      "좋아하지": 5141,
      "▁좋아하지": 5142,
      "벌어졌어요": 5143,
      "▁벌어졌어요": 5144,
      "생각한": 5145,
      "▁생각한": 5146,
      "슬퍼하며": 5147,
      "▁슬퍼하며": 5148,
      "기뻤습니다": 5149,
      "▁기뻤습니다": 5150,
      "먼저": 5151,
      "▁먼저": 5152,
      "기도": 5153,
      "▁기도": 5154,
      "기에": 5155,
      "▁기에": 5156,
      "치는": 5157,
      "▁치는": 5158,
      "나요": 5159,
      "▁나요": 5160,
      "나랑": 5161,
      "▁나랑": 5162,
      "하면서": 5163,
      "▁하면서": 5164,
      "열고": 5165,
      "▁열고": 5166,
      "감사를": 5167,
      "▁감사를": 5168,
      "고마워요": 5169,
      "▁고마워요": 5170,
      "했을": 5171,
      "▁했을": 5172,
      "도움이": 5173,
      "▁도움이": 5174,
      "보았": 5175,
      "▁보았": 5176,
      "사람들은": 5177,
      "▁사람들은": 5178,
      "때까지": 5179,
      "▁때까지": 5180,
      "제가": 5181,
      "▁제가": 5182,
      "않아요": 5183,
      "▁않아요": 5184,
      "춤을": 5185,
      "▁춤을": 5186,
      "장소": 5187,
      "▁장소": 5188,
      "구름": 5189,
      "▁구름": 5190,
      "말씀하셨죠": 5191,
      "▁말씀하셨죠": 5192,
      "나무가": 5193,
      "▁나무가": 5194,
      "입고": 5195,
      "▁입고": 5196,
      "인형을": 5197,
      "▁인형을": 5198,
      "안전하게": 5199,
      "▁안전하게": 5200,
      "음식": 5201,
      "▁음식": 5202,
      "보지": 5203,
      "▁보지": 5204,
      "시간이": 5205,
      "▁시간이": 5206,
      "나무는": 5207,
      "▁나무는": 5208,
      "수영": 5209,
      "▁수영": 5210,
      "적인": 5211,
      "▁적인": 5212,
      "방으로": 5213,
      "▁방으로": 5214,
      "지가": 5215,
      "▁지가": 5216,
      "않고": 5217,
      "▁않고": 5218,
      "감사의": 5219,
      "▁감사의": 5220,
      "조심스럽게": 5221,
      "▁조심스럽게": 5222,
      "행복했답니다": 5223,
      "▁행복했답니다": 5224,
      "생각을": 5225,
      "▁생각을": 5226,
      "나를": 5227,
      "▁나를": 5228,
      "그것이": 5229,
      "▁그것이": 5230,
      "얼마나": 5231,
      "▁얼마나": 5232,
      "갔고": 5233,
      "▁갔고": 5234,
      "다니며": 5235,
      "▁다니며": 5236,
      "가르": 5237,
      "▁가르": 5238,
      "물고기는": 5239,
      "▁물고기는": 5240,
      "불렀": 5241,
      "▁불렀": 5242,
      "사람들을": 5243,
      "▁사람들을": 5244,
      "주워": 5245,
      "▁주워": 5246,
      "나무에서": 5247,
      "▁나무에서": 5248,
      "너무나": 5249,
      "▁너무나": 5250,
      "스웨": 5251,
      "▁스웨": 5252,
      "맥스가": 5253,
      "▁맥스가": 5254,
      "웠지만": 5255,
      "▁웠지만": 5256,
      "도와주고": 5257,
      "▁도와주고": 5258,
      "맥스와": 5259,
      "▁맥스와": 5260,
      "쓰고": 5261,
      "▁쓰고": 5262,
      "이상한": 5263,
      "▁이상한": 5264,
      "잠을": 5265,
      "▁잠을": 5266,
      "느끼": 5267,
      "▁느끼": 5268,
      "청소": 5269,
      "▁청소": 5270,
      "졌답니다": 5271,
      "▁졌답니다": 5272,
      "수도": 5273,
      "▁수도": 5274,
      "안나와": 5275,
      "▁안나와": 5276,
      "조심해야": 5277,
      "▁조심해야": 5278,
      "하세요": 5279,
      "▁하세요": 5280,
      "이었고": 5281,
      "▁이었고": 5282,
      "끄덕이며": 5283,
      "▁끄덕이며": 5284,
      "즐겁게": 5285,
      "▁즐겁게": 5286,
      "늙은": 5287,
      "▁늙은": 5288,
      "위에서": 5289,
      "▁위에서": 5290,
      "주는": 5291,
      "▁주는": 5292,
      "톰을": 5293,
      "▁톰을": 5294,
      "너희": 5295,
      "▁너희": 5296,
      "떠나": 5297,
      "▁떠나": 5298,
      "웃음을": 5299,
      "▁웃음을": 5300,
      "계획": 5301,
      "▁계획": 5302,
      "보여주고": 5303,
      "▁보여주고": 5304,
      "게요": 5305,
      "▁게요": 5306,
      "어야": 5307,
      "▁어야": 5308,
      "속에": 5309,
      "▁속에": 5310,
      "무서워하지": 5311,
      "▁무서워하지": 5312,
      "생각했어요": 5313,
      "▁생각했어요": 5314,
      "그걸": 5315,
      "▁그걸": 5316,
      "비행": 5317,
      "▁비행": 5318,
      "소녀를": 5319,
      "▁소녀를": 5320,
      "물론이지": 5321,
      "▁물론이지": 5322,
      "대답했죠": 5323,
      "▁대답했죠": 5324,
      "그녀에게": 5325,
      "▁그녀에게": 5326,
      "미를": 5327,
      "▁미를": 5328,
      "티모": 5329,
      "▁티모": 5330,
      "몰라": 5331,
      "▁몰라": 5332,
      "웃었어요": 5333,
      "▁웃었어요": 5334,
      "포근": 5335,
      "▁포근": 5336,
      "근처에": 5337,
      "▁근처에": 5338,
      "아이들이": 5339,
      "▁아이들이": 5340,
      "럽고": 5341,
      "▁럽고": 5342,
      "웃었습니다": 5343,
      "▁웃었습니다": 5344,
      "심을": 5345,
      "▁심을": 5346,
      "지지": 5347,
      "▁지지": 5348,
      "존은": 5349,
      "▁존은": 5350,
      "만들었어요": 5351,
      "▁만들었어요": 5352,
      "머리": 5353,
      "▁머리": 5354,
      "어두": 5355,
      "▁어두": 5356,
      "아서": 5357,
      "▁아서": 5358,
      "갔죠": 5359,
      "▁갔죠": 5360,
      "엄마의": 5361,
      "▁엄마의": 5362,
      "마당에서": 5363,
      "▁마당에서": 5364,
      "릴리에게": 5365,
      "▁릴리에게": 5366,
      "마음이": 5367,
      "▁마음이": 5368,
      "말했지요": 5369,
      "▁말했지요": 5370,
      "싫어": 5371,
      "▁싫어": 5372,
      "찾고": 5373,
      "▁찾고": 5374,
      "쪽으로": 5375,
      "▁쪽으로": 5376,
      "슬픈": 5377,
      "▁슬픈": 5378,
      "선생": 5379,
      "▁선생": 5380,
      "루시라는": 5381,
      "▁루시라는": 5382,
      "가기": 5383,
      "▁가기": 5384,
      "하늘을": 5385,
      "▁하늘을": 5386,
      "위험": 5387,
      "▁위험": 5388,
      "스팟이라는": 5389,
      "▁스팟이라는": 5390,
      "이해": 5391,
      "▁이해": 5392,
      "아빠에게": 5393,
      "▁아빠에게": 5394,
      "토끼가": 5395,
      "▁토끼가": 5396,
      "다양": 5397,
      "▁다양": 5398,
      "했거든요": 5399,
      "▁했거든요": 5400,
      "저녁": 5401,
      "▁저녁": 5402,
      "물어": 5403,
      "▁물어": 5404,
      "호기": 5405,
      "▁호기": 5406,
      "교훈을": 5407,
      "▁교훈을": 5408,
      "하니": 5409,
      "▁하니": 5410,
      "거나": 5411,
      "▁거나": 5412,
      "말했다": 5413,
      "▁말했다": 5414,
      "나타": 5415,
      "▁나타": 5416,
      "시도해": 5417,
      "▁시도해": 5418,
      "슬퍼했습니다": 5419,
      "▁슬퍼했습니다": 5420,
      "조용": 5421,
      "▁조용": 5422,
      "보려고": 5423,
      "▁보려고": 5424,
      "리라는": 5425,
      "▁리라는": 5426,
      "작고": 5427,
      "▁작고": 5428,
      "다양한": 5429,
      "▁다양한": 5430,
      "아침": 5431,
      "▁아침": 5432,
      "티미는": 5433,
      "▁티미는": 5434,
      "신나게": 5435,
      "▁신나게": 5436,
      "깨달았어요": 5437,
      "▁깨달았어요": 5438,
      "않을": 5439,
      "▁않을": 5440,
      "함을": 5441,
      "▁함을": 5442,
      "부모": 5443,
      "▁부모": 5444,
      "드를": 5445,
      "▁드를": 5446,
      "분홍": 5447,
      "▁분홍": 5448,
      "무거": 5449,
      "▁무거": 5450,
      "놀랐": 5451,
      "▁놀랐": 5452,
      "여기저기": 5453,
      "▁여기저기": 5454,
      "모양": 5455,
      "▁모양": 5456,
      "몰랐어요": 5457,
      "▁몰랐어요": 5458,
      "하러": 5459,
      "▁하러": 5460,
      "무서운": 5461,
      "▁무서운": 5462,
      "재미를": 5463,
      "▁재미를": 5464,
      "도망": 5465,
      "▁도망": 5466,
      "열쇠": 5467,
      "▁열쇠": 5468,
      "샘에게": 5469,
      "▁샘에게": 5470,
      "았지요": 5471,
      "▁았지요": 5472,
      "달린": 5473,
      "▁달린": 5474,
      "머리를": 5475,
      "▁머리를": 5476,
      "내며": 5477,
      "▁내며": 5478,
      "놀이": 5479,
      "▁놀이": 5480,
      "어리": 5481,
      "▁어리": 5482,
      "걸어서": 5483,
      "▁걸어서": 5484,
      "달콤": 5485,
      "▁달콤": 5486,
      "여행": 5487,
      "▁여행": 5488,
      "아야": 5489,
      "▁아야": 5490,
      "구나": 5491,
      "▁구나": 5492,
      "사라와": 5493,
      "▁사라와": 5494,
      "숨을": 5495,
      "▁숨을": 5496,
      "떨어져": 5497,
      "▁떨어져": 5498,
      "못한": 5499,
      "▁못한": 5500,
      "언제": 5501,
      "▁언제": 5502,
      "판을": 5503,
      "▁판을": 5504,
      "시는": 5505,
      "▁시는": 5506,
      "달아": 5507,
      "▁달아": 5508,
      "지저": 5509,
      "▁지저": 5510,
      "분홍색": 5511,
      "▁분홍색": 5512,
      "음악": 5513,
      "▁음악": 5514,
      "쳐다": 5515,
      "▁쳐다": 5516,
      "놀았고": 5517,
      "▁놀았고": 5518,
      "정리": 5519,
      "▁정리": 5520,
      "물었죠": 5521,
      "▁물었죠": 5522,
      "실에": 5523,
      "▁실에": 5524,
      "해변": 5525,
      "▁해변": 5526,
      "나뭇가지": 5527,
      "▁나뭇가지": 5528,
      "아이들은": 5529,
      "▁아이들은": 5530,
      "녹색": 5531,
      "▁녹색": 5532,
      "적이": 5533,
      "▁적이": 5534,
      "놀라운": 5535,
      "▁놀라운": 5536,
      "가끔": 5537,
      "▁가끔": 5538,
      "슬퍼졌어요": 5539,
      "▁슬퍼졌어요": 5540,
      "배웠어요": 5541,
      "▁배웠어요": 5542,
      "제인은": 5543,
      "▁제인은": 5544,
      "동물들이": 5545,
      "▁동물들이": 5546,
      "마다": 5547,
      "▁마다": 5548,
      "다가가": 5549,
      "▁다가가": 5550,
      "노력": 5551,
      "▁노력": 5552,
      "쿠키를": 5553,
      "▁쿠키를": 5554,
      "들어가": 5555,
      "▁들어가": 5556,
      "놀다가": 5557,
      "▁놀다가": 5558,
      "종이": 5559,
      "▁종이": 5560,
      "모습을": 5561,
      "▁모습을": 5562,
      "잡으려고": 5563,
      "▁잡으려고": 5564,
      "갖고": 5565,
      "▁갖고": 5566,
      "않았답니다": 5567,
      "▁않았답니다": 5568,
      "레이": 5569,
      "▁레이": 5570,
      "느꼈어요": 5571,
      "▁느꼈어요": 5572,
      "몰랐습니다": 5573,
      "▁몰랐습니다": 5574,
      "개와": 5575,
      "▁개와": 5576,
      "시작했답니다": 5577,
      "▁시작했답니다": 5578,
      "가져다": 5579,
      "▁가져다": 5580,
      "그릇": 5581,
      "▁그릇": 5582,
      "성을": 5583,
      "▁성을": 5584,
      "생겼": 5585,
      "▁생겼": 5586,
      "경주를": 5587,
      "▁경주를": 5588,
      "놀랐습니다": 5589,
      "▁놀랐습니다": 5590,
      "곳에": 5591,
      "▁곳에": 5592,
      "영원": 5593,
      "▁영원": 5594,
      "물고기를": 5595,
      "▁물고기를": 5596,
      "못했습니다": 5597,
      "▁못했습니다": 5598,
      "놀았죠": 5599,
      "▁놀았죠": 5600,
      "그리": 5601,
      "▁그리": 5602,
      "갈아": 5603,
      "▁갈아": 5604,
      "도와줄게": 5605,
      "▁도와줄게": 5606,
      "어가": 5607,
      "▁어가": 5608,
      "나누고": 5609,
      "▁나누고": 5610,
      "의자": 5611,
      "▁의자": 5612,
      "못된": 5613,
      "▁못된": 5614,
      "운전": 5615,
      "▁운전": 5616,
      "셨습니다": 5617,
      "▁셨습니다": 5618,
      "식탁": 5619,
      "▁식탁": 5620,
      "키는": 5621,
      "▁키는": 5622,
      "배웠답니다": 5623,
      "▁배웠답니다": 5624,
      "마법의": 5625,
      "▁마법의": 5626,
      "빼앗": 5627,
      "▁빼앗": 5628,
      "넓은": 5629,
      "▁넓은": 5630,
      "시끄": 5631,
      "▁시끄": 5632,
      "지어": 5633,
      "▁지어": 5634,
      "있었답니다": 5635,
      "▁있었답니다": 5636,
      "멈추고": 5637,
      "▁멈추고": 5638,
      "가요": 5639,
      "▁가요": 5640,
      "친구는": 5641,
      "▁친구는": 5642,
      "초록": 5643,
      "▁초록": 5644,
      "명한": 5645,
      "▁명한": 5646,
      "보러": 5647,
      "▁보러": 5648,
      "만들었습니다": 5649,
      "▁만들었습니다": 5650,
      "미가": 5651,
      "▁미가": 5652,
      "돌을": 5653,
      "▁돌을": 5654,
      "크레": 5655,
      "▁크레": 5656,
      "봤죠": 5657,
      "▁봤죠": 5658,
      "물은": 5659,
      "▁물은": 5660,
      "하죠": 5661,
      "▁하죠": 5662,
      "오래오래": 5663,
      "▁오래오래": 5664,
      "가방을": 5665,
      "▁가방을": 5666,
      "개의": 5667,
      "▁개의": 5668,
      "가게에": 5669,
      "▁가게에": 5670,
      "스터": 5671,
      "▁스터": 5672,
      "거라는": 5673,
      "▁거라는": 5674,
      "노란색": 5675,
      "▁노란색": 5676,
      "포기": 5677,
      "▁포기": 5678,
      "건네": 5679,
      "▁건네": 5680,
      "플러피는": 5681,
      "▁플러피는": 5682,
      "영원히": 5683,
      "▁영원히": 5684,
      "다음에": 5685,
      "▁다음에": 5686,
      "밖에": 5687,
      "▁밖에": 5688,
      "춤추": 5689,
      "▁춤추": 5690,
      "햇볕": 5691,
      "▁햇볕": 5692,
      "리의": 5693,
      "▁리의": 5694,
      "스가": 5695,
      "▁스가": 5696,
      "것은": 5697,
      "▁것은": 5698,
      "다리를": 5699,
      "▁다리를": 5700,
      "강아지는": 5701,
      "▁강아지는": 5702,
      "넣고": 5703,
      "▁넣고": 5704,
      "만든": 5705,
      "▁만든": 5706,
      "잔디": 5707,
      "▁잔디": 5708,
      "주머니": 5709,
      "▁주머니": 5710,
      "정을": 5711,
      "▁정을": 5712,
      "구멍을": 5713,
      "▁구멍을": 5714,
      "였고": 5715,
      "▁였고": 5716,
      "개에게": 5717,
      "▁개에게": 5718,
      "못했어요": 5719,
      "▁못했어요": 5720,
      "줄을": 5721,
      "▁줄을": 5722,
      "들도": 5723,
      "▁들도": 5724,
      "사탕": 5725,
      "▁사탕": 5726,
      "있던": 5727,
      "▁있던": 5728,
      "물건을": 5729,
      "▁물건을": 5730,
      "원을": 5731,
      "▁원을": 5732,
      "모르": 5733,
      "▁모르": 5734,
      "무서웠지만": 5735,
      "▁무서웠지만": 5736,
      "거대한": 5737,
      "▁거대한": 5738,
      "옆에": 5739,
      "▁옆에": 5740,
      "얼굴을": 5741,
      "▁얼굴을": 5742,
      "동물들은": 5743,
      "▁동물들은": 5744,
      "포옹을": 5745,
      "▁포옹을": 5746,
      "똑똑": 5747,
      "▁똑똑": 5748,
      "곰이": 5749,
      "▁곰이": 5750,
      "실을": 5751,
      "▁실을": 5752,
      "찾지": 5753,
      "▁찾지": 5754,
      "아빠와": 5755,
      "▁아빠와": 5756,
      "블루": 5757,
      "▁블루": 5758,
      "동전": 5759,
      "▁동전": 5760,
      "없어서": 5761,
      "▁없어서": 5762,
      "보였습니다": 5763,
      "▁보였습니다": 5764,
      "병을": 5765,
      "▁병을": 5766,
      "재미있을": 5767,
      "▁재미있을": 5768,
      "스팟과": 5769,
      "▁스팟과": 5770,
      "살았어요": 5771,
      "▁살았어요": 5772,
      "번갈아": 5773,
      "▁번갈아": 5774,
      "무엇인지": 5775,
      "▁무엇인지": 5776,
      "허락": 5777,
      "▁허락": 5778,
      "보기로": 5779,
      "▁보기로": 5780,
      "어떤": 5781,
      "▁어떤": 5782,
      "진짜": 5783,
      "▁진짜": 5784,
      "렸고": 5785,
      "▁렸고": 5786,
      "밝은": 5787,
      "▁밝은": 5788,
      "정원에": 5789,
      "▁정원에": 5790,
      "돕는": 5791,
      "▁돕는": 5792,
      "울기": 5793,
      "▁울기": 5794,
      "뭐가": 5795,
      "▁뭐가": 5796,
      "속으로": 5797,
      "▁속으로": 5798,
      "구를": 5799,
      "▁구를": 5800,
      "공놀이를": 5801,
      "▁공놀이를": 5802,
      "담요": 5803,
      "▁담요": 5804,
      "공원으로": 5805,
      "▁공원으로": 5806,
      "단다": 5807,
      "▁단다": 5808,
      "멈춰": 5809,
      "▁멈춰": 5810,
      "장난감과": 5811,
      "▁장난감과": 5812,
      "하던": 5813,
      "▁하던": 5814,
      "자리에": 5815,
      "▁자리에": 5816,
      "들여": 5817,
      "▁들여": 5818,
      "공원을": 5819,
      "▁공원을": 5820,
      "누가": 5821,
      "▁누가": 5822,
      "있지": 5823,
      "▁있지": 5824,
      "절친한": 5825,
      "▁절친한": 5826,
      "알았죠": 5827,
      "▁알았죠": 5828,
      "안나가": 5829,
      "▁안나가": 5830,
      "에도": 5831,
      "▁에도": 5832,
      "조는": 5833,
      "▁조는": 5834,
      "어리석": 5835,
      "▁어리석": 5836,
      "연주": 5837,
      "▁연주": 5838,
      "굴러": 5839,
      "▁굴러": 5840,
      "보라": 5841,
      "▁보라": 5842,
      "미끄럼틀을": 5843,
      "▁미끄럼틀을": 5844,
      "비밀": 5845,
      "▁비밀": 5846,
      "시고": 5847,
      "▁시고": 5848,
      "새와": 5849,
      "▁새와": 5850,
      "알았어요": 5851,
      "▁알았어요": 5852,
      "미아라는": 5853,
      "▁미아라는": 5854,
      "언덕을": 5855,
      "▁언덕을": 5856,
      "터를": 5857,
      "▁터를": 5858,
      "샘과": 5859,
      "▁샘과": 5860,
      "미아와": 5861,
      "▁미아와": 5862,
      "언제나": 5863,
      "▁언제나": 5864,
      "다람쥐는": 5865,
      "▁다람쥐는": 5866,
      "나아지": 5867,
      "▁나아지": 5868,
      "과일을": 5869,
      "▁과일을": 5870,
      "웅덩": 5871,
      "▁웅덩": 5872,
      "날아가": 5873,
      "▁날아가": 5874,
      "살았답니다": 5875,
      "▁살았답니다": 5876,
      "사가": 5877,
      "▁사가": 5878,
      "드레스를": 5879,
      "▁드레스를": 5880,
      "결심했습니다": 5881,
      "▁결심했습니다": 5882,
      "가르쳐": 5883,
      "▁가르쳐": 5884,
      "깊은": 5885,
      "▁깊은": 5886,
      "하셨죠": 5887,
      "▁하셨죠": 5888,
      "벌레가": 5889,
      "▁벌레가": 5890,
      "내고": 5891,
      "▁내고": 5892,
      "스팟이": 5893,
      "▁스팟이": 5894,
      "지나": 5895,
      "▁지나": 5896,
      "다치": 5897,
      "▁다치": 5898,
      "미아가": 5899,
      "▁미아가": 5900,
      "줘요": 5901,
      "▁줘요": 5902,
      "비는": 5903,
      "▁비는": 5904,
      "장에": 5905,
      "▁장에": 5906,
      "상상": 5907,
      "▁상상": 5908,
      "시를": 5909,
      "▁시를": 5910,
      "기며": 5911,
      "▁기며": 5912,
      "만났습니다": 5913,
      "▁만났습니다": 5914,
      "있나요": 5915,
      "▁있나요": 5916,
      "곳을": 5917,
      "▁곳을": 5918,
      "드릴": 5919,
      "▁드릴": 5920,
      "떨어뜨": 5921,
      "▁떨어뜨": 5922,
      "지었습니다": 5923,
      "▁지었습니다": 5924,
      "좋아해": 5925,
      "▁좋아해": 5926,
      "날개를": 5927,
      "▁날개를": 5928,
      "풍선": 5929,
      "▁풍선": 5930,
      "인이": 5931,
      "▁인이": 5932,
      "잖아": 5933,
      "▁잖아": 5934,
      "사랑해": 5935,
      "▁사랑해": 5936,
      "다이": 5937,
      "▁다이": 5938,
      "방문": 5939,
      "▁방문": 5940,
      "그려": 5941,
      "▁그려": 5942,
      "올라가": 5943,
      "▁올라가": 5944,
      "즐거워": 5945,
      "▁즐거워": 5946,
      "수에게": 5947,
      "▁수에게": 5948,
      "깨달았습니다": 5949,
      "▁깨달았습니다": 5950,
      "요정": 5951,
      "▁요정": 5952,
      "가질": 5953,
      "▁가질": 5954,
      "나중에": 5955,
      "▁나중에": 5956,
      "겠어": 5957,
      "▁겠어": 5958,
      "리지": 5959,
      "▁리지": 5960,
      "찾았습니다": 5961,
      "▁찾았습니다": 5962,
      "테이": 5963,
      "▁테이": 5964,
      "엄마도": 5965,
      "▁엄마도": 5966,
      "따뜻한": 5967,
      "▁따뜻한": 5968,
      "문제": 5969,
      "▁문제": 5970,
      "주었죠": 5971,
      "▁주었죠": 5972,
      "예상": 5973,
      "▁예상": 5974,
      "두고": 5975,
      "▁두고": 5976,
      "선생님": 5977,
      "▁선생님": 5978,
      "새의": 5979,
      "▁새의": 5980,
      "무지": 5981,
      "▁무지": 5982,
      "겠어요": 5983,
      "▁겠어요": 5984,
      "모자": 5985,
      "▁모자": 5986,
      "옷을": 5987,
      "▁옷을": 5988,
      "학교": 5989,
      "▁학교": 5990,
      "그네를": 5991,
      "▁그네를": 5992,
      "슬퍼했지만": 5993,
      "▁슬퍼했지만": 5994,
      "알았": 5995,
      "▁알았": 5996,
      "초록색": 5997,
      "▁초록색": 5998,
      "도착했을": 5999,
      "▁도착했을": 6000,
      "소년을": 6001,
      "▁소년을": 6002,
      "무엇이": 6003,
      "▁무엇이": 6004,
      "목소리가": 6005,
      "▁목소리가": 6006,
      "배를": 6007,
      "▁배를": 6008,
      "해보자": 6009,
      "▁해보자": 6010,
      "오래전에": 6011,
      "▁오래전에": 6012,
      "계획을": 6013,
      "▁계획을": 6014,
      "막대기를": 6015,
      "▁막대기를": 6016,
      "원숭": 6017,
      "▁원숭": 6018,
      "싶어졌어요": 6019,
      "▁싶어졌어요": 6020,
      "다니는": 6021,
      "▁다니는": 6022,
      "고쳐": 6023,
      "▁고쳐": 6024,
      "너에게": 6025,
      "▁너에게": 6026,
      "소리쳤어요": 6027,
      "▁소리쳤어요": 6028,
      "부는": 6029,
      "▁부는": 6030,
      "지금": 6031,
      "▁지금": 6032,
      "무서워하며": 6033,
      "▁무서워하며": 6034,
      "리로": 6035,
      "▁리로": 6036,
      "봤지만": 6037,
      "▁봤지만": 6038,
      "사람을": 6039,
      "▁사람을": 6040,
      "그러다가": 6041,
      "▁그러다가": 6042,
      "동생": 6043,
      "▁동생": 6044,
      "이번": 6045,
      "▁이번": 6046,
      "하려고": 6047,
      "▁하려고": 6048,
      "행복했고": 6049,
      "▁행복했고": 6050,
      "스로": 6051,
      "▁스로": 6052,
      "천천": 6053,
      "▁천천": 6054,
      "밀어": 6055,
      "▁밀어": 6056,
      "천천히": 6057,
      "▁천천히": 6058,
      "여러": 6059,
      "▁여러": 6060,
      "미스터": 6061,
      "▁미스터": 6062,
      "종이를": 6063,
      "▁종이를": 6064,
      "바라보며": 6065,
      "▁바라보며": 6066,
      "진흙": 6067,
      "▁진흙": 6068,
      "라와": 6069,
      "▁라와": 6070,
      "장에서": 6071,
      "▁장에서": 6072,
      "영리": 6073,
      "▁영리": 6074,
      "집어": 6075,
      "▁집어": 6076,
      "푸른": 6077,
      "▁푸른": 6078,
      "둥이": 6079,
      "▁둥이": 6080,
      "엄마님은": 6081,
      "▁엄마님은": 6082,
      "예상치": 6083,
      "▁예상치": 6084,
      "갈색": 6085,
      "▁갈색": 6086,
      "누군": 6087,
      "▁누군": 6088,
      "상자에": 6089,
      "▁상자에": 6090,
      "물고기가": 6091,
      "▁물고기가": 6092,
      "피는": 6093,
      "▁피는": 6094,
      "아니라": 6095,
      "▁아니라": 6096,
      "보라색": 6097,
      "▁보라색": 6098,
      "자전거를": 6099,
      "▁자전거를": 6100,
      "먹는": 6101,
      "▁먹는": 6102,
      "아이스크림을": 6103,
      "▁아이스크림을": 6104,
      "개미": 6105,
      "▁개미": 6106,
      "하는지": 6107,
      "▁하는지": 6108,
      "꾸나": 6109,
      "▁꾸나": 6110,
      "마리가": 6111,
      "▁마리가": 6112,
      "프레": 6113,
      "▁프레": 6114,
      "아기": 6115,
      "▁아기": 6116,
      "누구": 6117,
      "▁누구": 6118,
      "알게": 6119,
      "▁알게": 6120,
      "사진": 6121,
      "▁사진": 6122,
      "수와": 6123,
      "▁수와": 6124,
      "잘했어": 6125,
      "▁잘했어": 6126,
      "누군가": 6127,
      "▁누군가": 6128,
      "아이들": 6129,
      "▁아이들": 6130,
      "있었는데": 6131,
      "▁있었는데": 6132,
      "행복했죠": 6133,
      "▁행복했죠": 6134,
      "행복해졌어요": 6135,
      "▁행복해졌어요": 6136,
      "생각이": 6137,
      "▁생각이": 6138,
      "털을": 6139,
      "▁털을": 6140,
      "베어": 6141,
      "▁베어": 6142,
      "되었": 6143,
      "▁되었": 6144,
      "기뻐서": 6145,
      "▁기뻐서": 6146,
      "가기로": 6147,
      "▁가기로": 6148,
      "두려": 6149,
      "▁두려": 6150,
      "생각에": 6151,
      "▁생각에": 6152,
      "버렸습니다": 6153,
      "▁버렸습니다": 6154,
      "계속해서": 6155,
      "▁계속해서": 6156,
      "르고": 6157,
      "▁르고": 6158,
      "파란": 6159,
      "▁파란": 6160,
      "보석": 6161,
      "▁보석": 6162,
      "항아": 6163,
      "▁항아": 6164,
      "들여다": 6165,
      "▁들여다": 6166,
      "서로에게": 6167,
      "▁서로에게": 6168,
      "란다": 6169,
      "▁란다": 6170,
      "나무로": 6171,
      "▁나무로": 6172,
      "이번에는": 6173,
      "▁이번에는": 6174,
      "크레용": 6175,
      "▁크레용": 6176,
      "한번": 6177,
      "▁한번": 6178,
      "행복해졌고": 6179,
      "▁행복해졌고": 6180,
      "결심했어요": 6181,
      "▁결심했어요": 6182,
      "싶은": 6183,
      "▁싶은": 6184,
      "만큼": 6185,
      "▁만큼": 6186,
      "슬퍼했어요": 6187,
      "▁슬퍼했어요": 6188,
      "않았고": 6189,
      "▁않았고": 6190,
      "울타": 6191,
      "▁울타": 6192,
      "기뻤어요": 6193,
      "▁기뻤어요": 6194,
      "짓을": 6195,
      "▁짓을": 6196,
      "뛰어오르": 6197,
      "▁뛰어오르": 6198,
      "않은": 6199,
      "▁않은": 6200,
      "그러자": 6201,
      "▁그러자": 6202,
      "때마다": 6203,
      "▁때마다": 6204,
      "리에게": 6205,
      "▁리에게": 6206,
      "지저분": 6207,
      "▁지저분": 6208,
      "도를": 6209,
      "▁도를": 6210,
      "질을": 6211,
      "▁질을": 6212,
      "없는": 6213,
      "▁없는": 6214,
      "않는": 6215,
      "▁않는": 6216,
      "않도록": 6217,
      "▁않도록": 6218,
      "이름은": 6219,
      "▁이름은": 6220,
      "중요하다는": 6221,
      "▁중요하다는": 6222,
      "밥을": 6223,
      "▁밥을": 6224,
      "동물들을": 6225,
      "▁동물들을": 6226,
      "계를": 6227,
      "▁계를": 6228,
      "것입니다": 6229,
      "▁것입니다": 6230,
      "핀은": 6231,
      "▁핀은": 6232,
      "기고": 6233,
      "▁기고": 6234,
      "숲속에": 6235,
      "▁숲속에": 6236,
      "불을": 6237,
      "▁불을": 6238,
      "마크": 6239,
      "▁마크": 6240,
      "다면": 6241,
      "▁다면": 6242,
      "찾기": 6243,
      "▁찾기": 6244,
      "미끄러": 6245,
      "▁미끄러": 6246,
      "마음을": 6247,
      "▁마음을": 6248,
      "지팡": 6249,
      "▁지팡": 6250,
      "결정했습니다": 6251,
      "▁결정했습니다": 6252,
      "고양이에게": 6253,
      "▁고양이에게": 6254,
      "주위를": 6255,
      "▁주위를": 6256,
      "수의": 6257,
      "▁수의": 6258,
      "당근": 6259,
      "▁당근": 6260,
      "가족은": 6261,
      "▁가족은": 6262,
      "이미": 6263,
      "▁이미": 6264,
      "공유": 6265,
      "▁공유": 6266,
      "조심해": 6267,
      "▁조심해": 6268,
      "트는": 6269,
      "▁트는": 6270,
      "코끼": 6271,
      "▁코끼": 6272,
      "훨씬": 6273,
      "▁훨씬": 6274,
      "있었지만": 6275,
      "▁있었지만": 6276,
      "보보는": 6277,
      "▁보보는": 6278,
      "아무도": 6279,
      "▁아무도": 6280,
      "힘을": 6281,
      "▁힘을": 6282,
      "새야": 6283,
      "▁새야": 6284,
      "마음에": 6285,
      "▁마음에": 6286,
      "뛰쳐": 6287,
      "▁뛰쳐": 6288,
      "감사합니다": 6289,
      "▁감사합니다": 6290,
      "에이미라는": 6291,
      "▁에이미라는": 6292,
      "어나": 6293,
      "▁어나": 6294,
      "걸어가": 6295,
      "▁걸어가": 6296,
      "보았지만": 6297,
      "▁보았지만": 6298,
      "티미": 6299,
      "▁티미": 6300,
      "상자가": 6301,
      "▁상자가": 6302,
      "보기": 6303,
      "▁보기": 6304,
      "쳐서": 6305,
      "▁쳐서": 6306,
      "대신": 6307,
      "▁대신": 6308,
      "숟가락": 6309,
      "▁숟가락": 6310,
      "니까": 6311,
      "▁니까": 6312,
      "느껴": 6313,
      "▁느껴": 6314,
      "중요한": 6315,
      "▁중요한": 6316,
      "기쁨": 6317,
      "▁기쁨": 6318,
      "날이": 6319,
      "▁날이": 6320,
      "강해": 6321,
      "▁강해": 6322,
      "올려놓": 6323,
      "▁올려놓": 6324,
      "가득한": 6325,
      "▁가득한": 6326,
      "사자": 6327,
      "▁사자": 6328,
      "세게": 6329,
      "▁세게": 6330,
      "내는": 6331,
      "▁내는": 6332,
      "포기하지": 6333,
      "▁포기하지": 6334,
      "찾는": 6335,
      "▁찾는": 6336,
      "화려": 6337,
      "▁화려": 6338,
      "안아주며": 6339,
      "▁안아주며": 6340,
      "남자를": 6341,
      "▁남자를": 6342,
      "말합니다": 6343,
      "▁말합니다": 6344,
      "네요": 6345,
      "▁네요": 6346,
      "없이": 6347,
      "▁없이": 6348,
      "탑을": 6349,
      "▁탑을": 6350,
      "가리": 6351,
      "▁가리": 6352,
      "오래된": 6353,
      "▁오래된": 6354,
      "숨겨": 6355,
      "▁숨겨": 6356,
      "그만": 6357,
      "▁그만": 6358,
      "것처럼": 6359,
      "▁것처럼": 6360,
      "믿을": 6361,
      "▁믿을": 6362,
      "좋아해서": 6363,
      "▁좋아해서": 6364,
      "완벽": 6365,
      "▁완벽": 6366,
      "사자는": 6367,
      "▁사자는": 6368,
      "생쥐는": 6369,
      "▁생쥐는": 6370,
      "루시와": 6371,
      "▁루시와": 6372,
      "너도": 6373,
      "▁너도": 6374,
      "생긴": 6375,
      "▁생긴": 6376,
      "달리고": 6377,
      "▁달리고": 6378,
      "바라보": 6379,
      "▁바라보": 6380,
      "용감한": 6381,
      "▁용감한": 6382,
      "부러": 6383,
      "▁부러": 6384,
      "형제": 6385,
      "▁형제": 6386,
      "사람이": 6387,
      "▁사람이": 6388,
      "품을": 6389,
      "▁품을": 6390,
      "버튼": 6391,
      "▁버튼": 6392,
      "들려": 6393,
      "▁들려": 6394,
      "질렀": 6395,
      "▁질렀": 6396,
      "으러": 6397,
      "▁으러": 6398,
      "달려갔습니다": 6399,
      "▁달려갔습니다": 6400,
      "웃고": 6401,
      "▁웃고": 6402,
      "알려": 6403,
      "▁알려": 6404,
      "하얀": 6405,
      "▁하얀": 6406,
      "곳으로": 6407,
      "▁곳으로": 6408,
      "나섰": 6409,
      "▁나섰": 6410,
      "벤에게": 6411,
      "▁벤에게": 6412,
      "달려갔어요": 6413,
      "▁달려갔어요": 6414,
      "멈추": 6415,
      "▁멈추": 6416,
      "붉은": 6417,
      "▁붉은": 6418,
      "처음": 6419,
      "▁처음": 6420,
      "배는": 6421,
      "▁배는": 6422,
      "찾았어": 6423,
      "▁찾았어": 6424,
      "사라져": 6425,
      "▁사라져": 6426,
      "여자": 6427,
      "▁여자": 6428,
      "마치": 6429,
      "▁마치": 6430,
      "테디": 6431,
      "▁테디": 6432,
      "누워": 6433,
      "▁누워": 6434,
      "오리는": 6435,
      "▁오리는": 6436,
      "문이": 6437,
      "▁문이": 6438,
      "올빼": 6439,
      "▁올빼": 6440,
      "달려가서": 6441,
      "▁달려가서": 6442,
      "깡충깡충": 6443,
      "▁깡충깡충": 6444,
      "제인": 6445,
      "▁제인": 6446,
      "돌아갔습니다": 6447,
      "▁돌아갔습니다": 6448,
      "화창": 6449,
      "▁화창": 6450,
      "친절하게": 6451,
      "▁친절하게": 6452,
      "돌아오": 6453,
      "▁돌아오": 6454,
      "아팠": 6455,
      "▁아팠": 6456,
      "거라": 6457,
      "▁거라": 6458,
      "또한": 6459,
      "▁또한": 6460,
      "슬퍼하고": 6461,
      "▁슬퍼하고": 6462,
      "치즈": 6463,
      "▁치즈": 6464,
      "호박": 6465,
      "▁호박": 6466,
      "셔서": 6467,
      "▁셔서": 6468,
      "했지": 6469,
      "▁했지": 6470,
      "라고요": 6471,
      "▁라고요": 6472,
      "기대": 6473,
      "▁기대": 6474,
      "맥스를": 6475,
      "▁맥스를": 6476,
      "여행을": 6477,
      "▁여행을": 6478,
      "셨죠": 6479,
      "▁셨죠": 6480,
      "벤을": 6481,
      "▁벤을": 6482,
      "호기심이": 6483,
      "▁호기심이": 6484,
      "올려다": 6485,
      "▁올려다": 6486,
      "였지요": 6487,
      "▁였지요": 6488,
      "나갔어요": 6489,
      "▁나갔어요": 6490,
      "고래": 6491,
      "▁고래": 6492,
      "알았습니다": 6493,
      "▁알았습니다": 6494,
      "났죠": 6495,
      "▁났죠": 6496,
      "씨앗": 6497,
      "▁씨앗": 6498,
      "새끼": 6499,
      "▁새끼": 6500,
      "먹었어요": 6501,
      "▁먹었어요": 6502,
      "서서": 6503,
      "▁서서": 6504,
      "일어났습니다": 6505,
      "▁일어났습니다": 6506,
      "친절하고": 6507,
      "▁친절하고": 6508,
      "자라": 6509,
      "▁자라": 6510,
      "현명한": 6511,
      "▁현명한": 6512,
      "쌍둥이": 6513,
      "▁쌍둥이": 6514,
      "사용해": 6515,
      "▁사용해": 6516,
      "임을": 6517,
      "▁임을": 6518,
      "스스로": 6519,
      "▁스스로": 6520,
      "때는": 6521,
      "▁때는": 6522,
      "친구야": 6523,
      "▁친구야": 6524,
      "지루": 6525,
      "▁지루": 6526,
      "트럭을": 6527,
      "▁트럭을": 6528,
      "둘이": 6529,
      "▁둘이": 6530,
      "거기에": 6531,
      "▁거기에": 6532,
      "달콤한": 6533,
      "▁달콤한": 6534,
      "개구리가": 6535,
      "▁개구리가": 6536,
      "소리쳤습니다": 6537,
      "▁소리쳤습니다": 6538,
      "로봇": 6539,
      "▁로봇": 6540,
      "놀랐어요": 6541,
      "▁놀랐어요": 6542,
      "데이": 6543,
      "▁데이": 6544,
      "주인": 6545,
      "▁주인": 6546,
      "할아버": 6547,
      "▁할아버": 6548,
      "에마": 6549,
      "▁에마": 6550,
      "산책": 6551,
      "▁산책": 6552,
      "간식": 6553,
      "▁간식": 6554,
      "나게": 6555,
      "▁나게": 6556,
      "그저": 6557,
      "▁그저": 6558,
      "않게": 6559,
      "▁않게": 6560,
      "부엉": 6561,
      "▁부엉": 6562,
      "미아의": 6563,
      "▁미아의": 6564,
      "천만": 6565,
      "▁천만": 6566,
      "심지어": 6567,
      "▁심지어": 6568,
      "소리로": 6569,
      "▁소리로": 6570,
      "목욕": 6571,
      "▁목욕": 6572,
      "하늘에서": 6573,
      "▁하늘에서": 6574,
      "풍선을": 6575,
      "▁풍선을": 6576,
      "좋아요": 6577,
      "▁좋아요": 6578,
      "귀를": 6579,
      "▁귀를": 6580,
      "숲에서": 6581,
      "▁숲에서": 6582,
      "거북": 6583,
      "▁거북": 6584,
      "잡아": 6585,
      "▁잡아": 6586,
      "파티를": 6587,
      "▁파티를": 6588,
      "했던": 6589,
      "▁했던": 6590,
      "바꼭": 6591,
      "▁바꼭": 6592,
      "숨바꼭": 6593,
      "▁숨바꼭": 6594,
      "이에": 6595,
      "▁이에": 6596,
      "복숭": 6597,
      "▁복숭": 6598,
      "화창한": 6599,
      "▁화창한": 6600,
      "바구": 6601,
      "▁바구": 6602,
      "않았지만": 6603,
      "▁않았지만": 6604,
      "최선을": 6605,
      "▁최선을": 6606,
      "가져가": 6607,
      "▁가져가": 6608,
      "꿈을": 6609,
      "▁꿈을": 6610,
      "빙글": 6611,
      "▁빙글": 6612,
      "아이는": 6613,
      "▁아이는": 6614,
      "선물을": 6615,
      "▁선물을": 6616,
      "트가": 6617,
      "▁트가": 6618,
      "겼어요": 6619,
      "▁겼어요": 6620,
      "소년과": 6621,
      "▁소년과": 6622,
      "아니었어요": 6623,
      "▁아니었어요": 6624,
      "당신의": 6625,
      "▁당신의": 6626,
      "다녔어요": 6627,
      "▁다녔어요": 6628,
      "샘을": 6629,
      "▁샘을": 6630,
      "하늘에": 6631,
      "▁하늘에": 6632,
      "햇살": 6633,
      "▁햇살": 6634,
      "버디": 6635,
      "▁버디": 6636,
      "앉아서": 6637,
      "▁앉아서": 6638,
      "우유": 6639,
      "▁우유": 6640,
      "신발을": 6641,
      "▁신발을": 6642,
      "일에": 6643,
      "▁일에": 6644,
      "몰랐죠": 6645,
      "▁몰랐죠": 6646,
      "다가가서": 6647,
      "▁다가가서": 6648,
      "먹었습니다": 6649,
      "▁먹었습니다": 6650,
      "무릎": 6651,
      "▁무릎": 6652,
      "소는": 6653,
      "▁소는": 6654,
      "아마": 6655,
      "▁아마": 6656,
      "갑을": 6657,
      "▁갑을": 6658,
      "하루가": 6659,
      "▁하루가": 6660,
      "말았어요": 6661,
      "▁말았어요": 6662,
      "부서": 6663,
      "▁부서": 6664,
      "동굴": 6665,
      "▁동굴": 6666,
      "사실에": 6667,
      "▁사실에": 6668,
      "지혜": 6669,
      "▁지혜": 6670,
      "장소를": 6671,
      "▁장소를": 6672,
      "예뻐": 6673,
      "▁예뻐": 6674,
      "반짝거": 6675,
      "▁반짝거": 6676,
      "스커": 6677,
      "▁스커": 6678,
      "보보": 6679,
      "▁보보": 6680,
      "버렸": 6681,
      "▁버렸": 6682,
      "해주고": 6683,
      "▁해주고": 6684,
      "되자": 6685,
      "▁되자": 6686,
      "준비가": 6687,
      "▁준비가": 6688,
      "좋아했고": 6689,
      "▁좋아했고": 6690,
      "바구니": 6691,
      "▁바구니": 6692,
      "드레스": 6693,
      "▁드레스": 6694,
      "부모님": 6695,
      "▁부모님": 6696,
      "아래로": 6697,
      "▁아래로": 6698,
      "되었죠": 6699,
      "▁되었죠": 6700,
      "이죠": 6701,
      "▁이죠": 6702,
      "가족을": 6703,
      "▁가족을": 6704,
      "블록을": 6705,
      "▁블록을": 6706,
      "연을": 6707,
      "▁연을": 6708,
      "기차": 6709,
      "▁기차": 6710,
      "실로": 6711,
      "▁실로": 6712,
      "너랑": 6713,
      "▁너랑": 6714,
      "성공": 6715,
      "▁성공": 6716,
      "다행": 6717,
      "▁다행": 6718,
      "안녕하세요": 6719,
      "▁안녕하세요": 6720,
      "껴안고": 6721,
      "▁껴안고": 6722,
      "에게는": 6723,
      "▁에게는": 6724,
      "폭풍": 6725,
      "▁폭풍": 6726,
      "발견하고": 6727,
      "▁발견하고": 6728,
      "안고": 6729,
      "▁안고": 6730,
      "예쁘게": 6731,
      "▁예쁘게": 6732,
      "벤치": 6733,
      "▁벤치": 6734,
      "웠죠": 6735,
      "▁웠죠": 6736,
      "돌아가": 6737,
      "▁돌아가": 6738,
      "즐겼습니다": 6739,
      "▁즐겼습니다": 6740,
      "가족과": 6741,
      "▁가족과": 6742,
      "감을": 6743,
      "▁감을": 6744,
      "발견했지요": 6745,
      "▁발견했지요": 6746,
      "땅에서": 6747,
      "▁땅에서": 6748,
      "스타": 6749,
      "▁스타": 6750,
      "몸을": 6751,
      "▁몸을": 6752,
      "공과": 6753,
      "▁공과": 6754,
      "기어": 6755,
      "▁기어": 6756,
      "검은": 6757,
      "▁검은": 6758,
      "회색": 6759,
      "▁회색": 6760,
      "샌드": 6761,
      "▁샌드": 6762,
      "친구예요": 6763,
      "▁친구예요": 6764,
      "저도": 6765,
      "▁저도": 6766,
      "퍼즐": 6767,
      "▁퍼즐": 6768,
      "쓰레": 6769,
      "▁쓰레": 6770,
      "입을": 6771,
      "▁입을": 6772,
      "열쇠를": 6773,
      "▁열쇠를": 6774,
      "걸려": 6775,
      "▁걸려": 6776,
      "걷고": 6777,
      "▁걷고": 6778,
      "살았습니다": 6779,
      "▁살았습니다": 6780,
      "만들었죠": 6781,
      "▁만들었죠": 6782,
      "멋져": 6783,
      "▁멋져": 6784,
      "바라보고": 6785,
      "▁바라보고": 6786,
      "손에": 6787,
      "▁손에": 6788,
      "오를": 6789,
      "▁오를": 6790,
      "놀기로": 6791,
      "▁놀기로": 6792,
      "소녀와": 6793,
      "▁소녀와": 6794,
      "환호": 6795,
      "▁환호": 6796,
      "나가서": 6797,
      "▁나가서": 6798,
      "앞으로": 6799,
      "▁앞으로": 6800,
      "용서": 6801,
      "▁용서": 6802,
      "가를": 6803,
      "▁가를": 6804,
      "버디는": 6805,
      "▁버디는": 6806,
      "기뻤답니다": 6807,
      "▁기뻤답니다": 6808,
      "수야": 6809,
      "▁수야": 6810,
      "무섭": 6811,
      "▁무섭": 6812,
      "내려와": 6813,
      "▁내려와": 6814,
      "샌드위": 6815,
      "▁샌드위": 6816,
      "걱정이": 6817,
      "▁걱정이": 6818,
      "때로": 6819,
      "▁때로": 6820,
      "뜨거": 6821,
      "▁뜨거": 6822,
      "냄새": 6823,
      "▁냄새": 6824,
      "바퀴": 6825,
      "▁바퀴": 6826,
      "친근": 6827,
      "▁친근": 6828,
      "시작했고": 6829,
      "▁시작했고": 6830,
      "꽃이": 6831,
      "▁꽃이": 6832,
      "피곤해": 6833,
      "▁피곤해": 6834,
      "꼭대": 6835,
      "▁꼭대": 6836,
      "어려": 6837,
      "▁어려": 6838,
      "소원을": 6839,
      "▁소원을": 6840,
      "사람들에게": 6841,
      "▁사람들에게": 6842,
      "할머니는": 6843,
      "▁할머니는": 6844,
      "달렸습니다": 6845,
      "▁달렸습니다": 6846,
      "소파": 6847,
      "▁소파": 6848,
      "기다릴": 6849,
      "▁기다릴": 6850,
      "주었고": 6851,
      "▁주었고": 6852,
      "먹기": 6853,
      "▁먹기": 6854,
      "시작한": 6855,
      "▁시작한": 6856,
      "벽에": 6857,
      "▁벽에": 6858,
      "착하게": 6859,
      "▁착하게": 6860,
      "머물": 6861,
      "▁머물": 6862,
      "도착해서": 6863,
      "▁도착해서": 6864,
      "편지를": 6865,
      "▁편지를": 6866,
      "스파": 6867,
      "▁스파": 6868,
      "빌리는": 6869,
      "▁빌리는": 6870,
      "라가": 6871,
      "▁라가": 6872,
      "곳에서": 6873,
      "▁곳에서": 6874,
      "더라고요": 6875,
      "▁더라고요": 6876,
      "손가락": 6877,
      "▁손가락": 6878,
      "휘스커": 6879,
      "▁휘스커": 6880,
      "안의": 6881,
      "▁안의": 6882,
      "것보다": 6883,
      "▁것보다": 6884,
      "혼자서": 6885,
      "▁혼자서": 6886,
      "집이": 6887,
      "▁집이": 6888,
      "돈을": 6889,
      "▁돈을": 6890,
      "멈췄": 6891,
      "▁멈췄": 6892,
      "포근한": 6893,
      "▁포근한": 6894,
      "날씨": 6895,
      "▁날씨": 6896,
      "낮잠을": 6897,
      "▁낮잠을": 6898,
      "어는": 6899,
      "▁어는": 6900,
      "막스는": 6901,
      "▁막스는": 6902,
      "좋았어요": 6903,
      "▁좋았어요": 6904,
      "표지": 6905,
      "▁표지": 6906,
      "부끄": 6907,
      "▁부끄": 6908,
      "의자에": 6909,
      "▁의자에": 6910,
      "겼습니다": 6911,
      "▁겼습니다": 6912,
      "화려한": 6913,
      "▁화려한": 6914,
      "어머니": 6915,
      "▁어머니": 6916,
      "장난감들을": 6917,
      "▁장난감들을": 6918,
      "견과": 6919,
      "▁견과": 6920,
      "잊지": 6921,
      "▁잊지": 6922,
      "잎사귀를": 6923,
      "▁잎사귀를": 6924,
      "배우고": 6925,
      "▁배우고": 6926,
      "놀았": 6927,
      "▁놀았": 6928,
      "맥스에게": 6929,
      "▁맥스에게": 6930,
      "향해": 6931,
      "▁향해": 6932,
      "르르": 6933,
      "▁르르": 6934,
      "더러운": 6935,
      "▁더러운": 6936,
      "얼굴에": 6937,
      "▁얼굴에": 6938,
      "자동차가": 6939,
      "▁자동차가": 6940,
      "동전을": 6941,
      "▁동전을": 6942,
      "조각을": 6943,
      "▁조각을": 6944,
      "주황": 6945,
      "▁주황": 6946,
      "빛을": 6947,
      "▁빛을": 6948,
      "목걸": 6949,
      "▁목걸": 6950,
      "들판": 6951,
      "▁들판": 6952,
      "워서": 6953,
      "▁워서": 6954,
      "전화": 6955,
      "▁전화": 6956,
      "날고": 6957,
      "▁날고": 6958,
      "더러워": 6959,
      "▁더러워": 6960,
      "왜냐": 6961,
      "▁왜냐": 6962,
      "만족": 6963,
      "▁만족": 6964,
      "왜냐하면": 6965,
      "▁왜냐하면": 6966,
      "물에": 6967,
      "▁물에": 6968,
      "아주머니": 6969,
      "▁아주머니": 6970,
      "숨바꼭질을": 6971,
      "▁숨바꼭질을": 6972,
      "느끼고": 6973,
      "▁느끼고": 6974,
      "식사를": 6975,
      "▁식사를": 6976,
      "구해": 6977,
      "▁구해": 6978,
      "아무것도": 6979,
      "▁아무것도": 6980,
      "생각해": 6981,
      "▁생각해": 6982,
      "오늘은": 6983,
      "▁오늘은": 6984,
      "울고": 6985,
      "▁울고": 6986,
      "항해": 6987,
      "▁항해": 6988,
      "그렇": 6989,
      "▁그렇": 6990,
      "하나를": 6991,
      "▁하나를": 6992,
      "보이지": 6993,
      "▁보이지": 6994,
      "행복해서": 6995,
      "▁행복해서": 6996,
      "대를": 6997,
      "▁대를": 6998,
      "차고": 6999,
      "▁차고": 7000,
      "오리": 7001,
      "▁오리": 7002,
      "난장": 7003,
      "▁난장": 7004,
      "상점": 7005,
      "▁상점": 7006,
      "입에": 7007,
      "▁입에": 7008,
      "맥스의": 7009,
      "▁맥스의": 7010,
      "아래에": 7011,
      "▁아래에": 7012,
      "수줍": 7013,
      "▁수줍": 7014,
      "파티에": 7015,
      "▁파티에": 7016,
      "잃고": 7017,
      "▁잃고": 7018,
      "들었죠": 7019,
      "▁들었죠": 7020,
      "같아": 7021,
      "▁같아": 7022,
      "정원을": 7023,
      "▁정원을": 7024,
      "뛰어다니며": 7025,
      "▁뛰어다니며": 7026,
      "도로": 7027,
      "▁도로": 7028,
      "주황색": 7029,
      "▁주황색": 7030,
      "형을": 7031,
      "▁형을": 7032,
      "하라고": 7033,
      "▁하라고": 7034,
      "곳이": 7035,
      "▁곳이": 7036,
      "깜짝": 7037,
      "▁깜짝": 7038,
      "싶다고": 7039,
      "▁싶다고": 7040,
      "기다려": 7041,
      "▁기다려": 7042,
      "났답니다": 7043,
      "▁났답니다": 7044,
      "배고": 7045,
      "▁배고": 7046,
      "당신은": 7047,
      "▁당신은": 7048,
      "친구에게": 7049,
      "▁친구에게": 7050,
      "라도": 7051,
      "▁라도": 7052,
      "남자에게": 7053,
      "▁남자에게": 7054,
      "자동차로": 7055,
      "▁자동차로": 7056,
      "도와주는": 7057,
      "▁도와주는": 7058,
      "여우는": 7059,
      "▁여우는": 7060,
      "생각했답니다": 7061,
      "▁생각했답니다": 7062,
      "리본": 7063,
      "▁리본": 7064,
      "이걸": 7065,
      "▁이걸": 7066,
      "빠른": 7067,
      "▁빠른": 7068,
      "토끼를": 7069,
      "▁토끼를": 7070,
      "일어나": 7071,
      "▁일어나": 7072,
      "뛰어올라": 7073,
      "▁뛰어올라": 7074,
      "보여주었습니다": 7075,
      "▁보여주었습니다": 7076,
      "으니까": 7077,
      "▁으니까": 7078,
      "했다는": 7079,
      "▁했다는": 7080,
      "신나서": 7081,
      "▁신나서": 7082,
      "말아야": 7083,
      "▁말아야": 7084,
      "루시의": 7085,
      "▁루시의": 7086,
      "샘의": 7087,
      "▁샘의": 7088,
      "스팟을": 7089,
      "▁스팟을": 7090,
      "여기서": 7091,
      "▁여기서": 7092,
      "목소리를": 7093,
      "▁목소리를": 7094,
      "던져": 7095,
      "▁던져": 7096,
      "자고": 7097,
      "▁자고": 7098,
      "애썼": 7099,
      "▁애썼": 7100,
      "작별인사를": 7101,
      "▁작별인사를": 7102,
      "쳐다보며": 7103,
      "▁쳐다보며": 7104,
      "쥐는": 7105,
      "▁쥐는": 7106,
      "날을": 7107,
      "▁날을": 7108,
      "가짜": 7109,
      "▁가짜": 7110,
      "못했죠": 7111,
      "▁못했죠": 7112,
      "루시가": 7113,
      "▁루시가": 7114,
      "어두운": 7115,
      "▁어두운": 7116,
      "봤습니다": 7117,
      "▁봤습니다": 7118,
      "도울": 7119,
      "▁도울": 7120,
      "배울": 7121,
      "▁배울": 7122,
      "비둘": 7123,
      "▁비둘": 7124,
      "하셨습니다": 7125,
      "▁하셨습니다": 7126,
      "슬퍼하는": 7127,
      "▁슬퍼하는": 7128,
      "고장": 7129,
      "▁고장": 7130,
      "않았거든요": 7131,
      "▁않았거든요": 7132,
      "상처": 7133,
      "▁상처": 7134,
      "티는": 7135,
      "▁티는": 7136,
      "무서워했습니다": 7137,
      "▁무서워했습니다": 7138,
      "흥미": 7139,
      "▁흥미": 7140,
      "셔츠": 7141,
      "▁셔츠": 7142,
      "놀아요": 7143,
      "▁놀아요": 7144,
      "얼음": 7145,
      "▁얼음": 7146,
      "장난감은": 7147,
      "▁장난감은": 7148,
      "비를": 7149,
      "▁비를": 7150,
      "돌아갔어요": 7151,
      "▁돌아갔어요": 7152,
      "이름을": 7153,
      "▁이름을": 7154,
      "물속에서": 7155,
      "▁물속에서": 7156,
      "마세요": 7157,
      "▁마세요": 7158,
      "튼튼": 7159,
      "▁튼튼": 7160,
      "않아서": 7161,
      "▁않아서": 7162,
      "농담": 7163,
      "▁농담": 7164,
      "스팟의": 7165,
      "▁스팟의": 7166,
      "따뜻하고": 7167,
      "▁따뜻하고": 7168,
      "혼란": 7169,
      "▁혼란": 7170,
      "둥지를": 7171,
      "▁둥지를": 7172,
      "제일": 7173,
      "▁제일": 7174,
      "호수": 7175,
      "▁호수": 7176,
      "도와줘": 7177,
      "▁도와줘": 7178,
      "화장": 7179,
      "▁화장": 7180,
      "움직이기": 7181,
      "▁움직이기": 7182,
      "만들기": 7183,
      "▁만들기": 7184,
      "사랑스러운": 7185,
      "▁사랑스러운": 7186,
      "올리": 7187,
      "▁올리": 7188,
      "찾으려고": 7189,
      "▁찾으려고": 7190,
      "부딪": 7191,
      "▁부딪": 7192,
      "어지": 7193,
      "▁어지": 7194,
      "너무나도": 7195,
      "▁너무나도": 7196,
      "음악을": 7197,
      "▁음악을": 7198,
      "나누는": 7199,
      "▁나누는": 7200,
      "샘이라는": 7201,
      "▁샘이라는": 7202,
      "더욱": 7203,
      "▁더욱": 7204,
      "이게": 7205,
      "▁이게": 7206,
      "이용": 7207,
      "▁이용": 7208,
      "모모": 7209,
      "▁모모": 7210,
      "예뻤": 7211,
      "▁예뻤": 7212,
      "돼요": 7213,
      "▁돼요": 7214,
      "문제를": 7215,
      "▁문제를": 7216,
      "레몬": 7217,
      "▁레몬": 7218,
      "사고": 7219,
      "▁사고": 7220,
      "경찰": 7221,
      "▁경찰": 7222,
      "벤의": 7223,
      "▁벤의": 7224,
      "생각하고": 7225,
      "▁생각하고": 7226,
      "도와줘서": 7227,
      "▁도와줘서": 7228,
      "충분": 7229,
      "▁충분": 7230,
      "타는": 7231,
      "▁타는": 7232,
      "가운": 7233,
      "▁가운": 7234,
      "새들이": 7235,
      "▁새들이": 7236,
      "있었거든요": 7237,
      "▁있었거든요": 7238,
      "밖을": 7239,
      "▁밖을": 7240,
      "갔지요": 7241,
      "▁갔지요": 7242,
      "우스": 7243,
      "▁우스": 7244,
      "장이": 7245,
      "▁장이": 7246,
      "숨어": 7247,
      "▁숨어": 7248,
      "날려": 7249,
      "▁날려": 7250,
      "지었어요": 7251,
      "▁지었어요": 7252,
      "오븐": 7253,
      "▁오븐": 7254,
      "이와": 7255,
      "▁이와": 7256,
      "용감해": 7257,
      "▁용감해": 7258,
      "왕은": 7259,
      "▁왕은": 7260,
      "싶어했죠": 7261,
      "▁싶어했죠": 7262,
      "거죠": 7263,
      "▁거죠": 7264,
      "사라가": 7265,
      "▁사라가": 7266,
      "견과류": 7267,
      "▁견과류": 7268,
      "고칠": 7269,
      "▁고칠": 7270,
      "시며": 7271,
      "▁시며": 7272,
      "웃긴": 7273,
      "▁웃긴": 7274,
      "선반": 7275,
      "▁선반": 7276,
      "케이크가": 7277,
      "▁케이크가": 7278,
      "초대": 7279,
      "▁초대": 7280,
      "다투": 7281,
      "▁다투": 7282,
      "가지게": 7283,
      "▁가지게": 7284,
      "발생": 7285,
      "▁발생": 7286,
      "손으로": 7287,
      "▁손으로": 7288,
      "둥근": 7289,
      "▁둥근": 7290,
      "상에": 7291,
      "▁상에": 7292,
      "키며": 7293,
      "▁키며": 7294,
      "난장판을": 7295,
      "▁난장판을": 7296,
      "부엌에서": 7297,
      "▁부엌에서": 7298,
      "사랑해요": 7299,
      "▁사랑해요": 7300,
      "싶었거든요": 7301,
      "▁싶었거든요": 7302,
      "다치게": 7303,
      "▁다치게": 7304,
      "다람쥐가": 7305,
      "▁다람쥐가": 7306,
      "뛰어올": 7307,
      "▁뛰어올": 7308,
      "놀지": 7309,
      "▁놀지": 7310,
      "오고": 7311,
      "▁오고": 7312,
      "표정을": 7313,
      "▁표정을": 7314,
      "우리도": 7315,
      "▁우리도": 7316,
      "주의": 7317,
      "▁주의": 7318,
      "개야": 7319,
      "▁개야": 7320,
      "좋았": 7321,
      "▁좋았": 7322,
      "팀미는": 7323,
      "▁팀미는": 7324,
      "개구리": 7325,
      "▁개구리": 7326,
      "마자": 7327,
      "▁마자": 7328,
      "남을": 7329,
      "▁남을": 7330,
      "소리는": 7331,
      "▁소리는": 7332,
      "찾아보자": 7333,
      "▁찾아보자": 7334,
      "였답니다": 7335,
      "▁였답니다": 7336,
      "잡을": 7337,
      "▁잡을": 7338,
      "사진을": 7339,
      "▁사진을": 7340,
      "도달": 7341,
      "▁도달": 7342,
      "놀라서": 7343,
      "▁놀라서": 7344,
      "프는": 7345,
      "▁프는": 7346,
      "무서워졌어요": 7347,
      "▁무서워졌어요": 7348,
      "개구리를": 7349,
      "▁개구리를": 7350,
      "보았죠": 7351,
      "▁보았죠": 7352,
      "슬펐습니다": 7353,
      "▁슬펐습니다": 7354,
      "이런": 7355,
      "▁이런": 7356,
      "해결": 7357,
      "▁해결": 7358,
      "그것들을": 7359,
      "▁그것들을": 7360,
      "잎을": 7361,
      "▁잎을": 7362,
      "뚱뚱": 7363,
      "▁뚱뚱": 7364,
      "보내고": 7365,
      "▁보내고": 7366,
      "원했습니다": 7367,
      "▁원했습니다": 7368,
      "숲을": 7369,
      "▁숲을": 7370,
      "사람은": 7371,
      "▁사람은": 7372,
      "놓고": 7373,
      "▁놓고": 7374,
      "바위가": 7375,
      "▁바위가": 7376,
      "좋겠다고": 7377,
      "▁좋겠다고": 7378,
      "돌아왔": 7379,
      "▁돌아왔": 7380,
      "아빠를": 7381,
      "▁아빠를": 7382,
      "떨어진": 7383,
      "▁떨어진": 7384,
      "바나": 7385,
      "▁바나": 7386,
      "대는": 7387,
      "▁대는": 7388,
      "보았고": 7389,
      "▁보았고": 7390,
      "설명": 7391,
      "▁설명": 7392,
      "연습": 7393,
      "▁연습": 7394,
      "머리에": 7395,
      "▁머리에": 7396,
      "친구와": 7397,
      "▁친구와": 7398,
      "일은": 7399,
      "▁일은": 7400,
      "어리석은": 7401,
      "▁어리석은": 7402,
      "시끄러운": 7403,
      "▁시끄러운": 7404,
      "꽃은": 7405,
      "▁꽃은": 7406,
      "여우": 7407,
      "▁여우": 7408,
      "부엌으로": 7409,
      "▁부엌으로": 7410,
      "냉장": 7411,
      "▁냉장": 7412,
      "수프를": 7413,
      "▁수프를": 7414,
      "둥지": 7415,
      "▁둥지": 7416,
      "도와주러": 7417,
      "▁도와주러": 7418,
      "파이": 7419,
      "▁파이": 7420,
      "브는": 7421,
      "▁브는": 7422,
      "생각하며": 7423,
      "▁생각하며": 7424,
      "잠자리에": 7425,
      "▁잠자리에": 7426,
      "겨서": 7427,
      "▁겨서": 7428,
      "버튼을": 7429,
      "▁버튼을": 7430,
      "로켓": 7431,
      "▁로켓": 7432,
      "강력": 7433,
      "▁강력": 7434,
      "릴리야": 7435,
      "▁릴리야": 7436,
      "사람들과": 7437,
      "▁사람들과": 7438,
      "요리": 7439,
      "▁요리": 7440,
      "에이미와": 7441,
      "▁에이미와": 7442,
      "맛이": 7443,
      "▁맛이": 7444,
      "있었어": 7445,
      "▁있었어": 7446,
      "부를": 7447,
      "▁부를": 7448,
      "아파": 7449,
      "▁아파": 7450,
      "냉장고": 7451,
      "▁냉장고": 7452,
      "돌아와": 7453,
      "▁돌아와": 7454,
      "블록으로": 7455,
      "▁블록으로": 7456,
      "아이가": 7457,
      "▁아이가": 7458,
      "테이블": 7459,
      "▁테이블": 7460,
      "원치": 7461,
      "▁원치": 7462,
      "느낌": 7463,
      "▁느낌": 7464,
      "나비를": 7465,
      "▁나비를": 7466,
      "보냈죠": 7467,
      "▁보냈죠": 7468,
      "도착하자": 7469,
      "▁도착하자": 7470,
      "행복해졌습니다": 7471,
      "▁행복해졌습니다": 7472,
      "예의": 7473,
      "▁예의": 7474,
      "거기서": 7475,
      "▁거기서": 7476,
      "외롭": 7477,
      "▁외롭": 7478,
      "가져갔어요": 7479,
      "▁가져갔어요": 7480,
      "스티": 7481,
      "▁스티": 7482,
      "맞아": 7483,
      "▁맞아": 7484,
      "우체": 7485,
      "▁우체": 7486,
      "졌어": 7487,
      "▁졌어": 7488,
      "성이": 7489,
      "▁성이": 7490,
      "보이는": 7491,
      "▁보이는": 7492,
      "양동": 7493,
      "▁양동": 7494,
      "밝게": 7495,
      "▁밝게": 7496,
      "사탕을": 7497,
      "▁사탕을": 7498,
      "상자는": 7499,
      "▁상자는": 7500,
      "인내": 7501,
      "▁인내": 7502,
      "편안": 7503,
      "▁편안": 7504,
      "신발": 7505,
      "▁신발": 7506,
      "상태": 7507,
      "▁상태": 7508,
      "후에": 7509,
      "▁후에": 7510,
      "공주": 7511,
      "▁공주": 7512,
      "아이디어가": 7513,
      "▁아이디어가": 7514,
      "지르": 7515,
      "▁지르": 7516,
      "차에": 7517,
      "▁차에": 7518,
      "미소지으며": 7519,
      "▁미소지으며": 7520,
      "무서워했어요": 7521,
      "▁무서워했어요": 7522,
      "모두에게": 7523,
      "▁모두에게": 7524,
      "버렸죠": 7525,
      "▁버렸죠": 7526,
      "터뜨": 7527,
      "▁터뜨": 7528,
      "금방": 7529,
      "▁금방": 7530,
      "미미는": 7531,
      "▁미미는": 7532,
      "노인": 7533,
      "▁노인": 7534,
      "그림이": 7535,
      "▁그림이": 7536,
      "웠답니다": 7537,
      "▁웠답니다": 7538,
      "분에": 7539,
      "▁분에": 7540,
      "무례": 7541,
      "▁무례": 7542,
      "그릴": 7543,
      "▁그릴": 7544,
      "단단": 7545,
      "▁단단": 7546,
      "완벽한": 7547,
      "▁완벽한": 7548,
      "루를": 7549,
      "▁루를": 7550,
      "분은": 7551,
      "▁분은": 7552,
      "관을": 7553,
      "▁관을": 7554,
      "지팡이를": 7555,
      "▁지팡이를": 7556,
      "밥이라는": 7557,
      "▁밥이라는": 7558,
      "싶어했습니다": 7559,
      "▁싶어했습니다": 7560,
      "느꼈답니다": 7561,
      "▁느꼈답니다": 7562,
      "시원": 7563,
      "▁시원": 7564,
      "강아지를": 7565,
      "▁강아지를": 7566,
      "공중": 7567,
      "▁공중": 7568,
      "바라보았습니다": 7569,
      "▁바라보았습니다": 7570,
      "풀밭": 7571,
      "▁풀밭": 7572,
      "망가": 7573,
      "▁망가": 7574,
      "기뻐했답니다": 7575,
      "▁기뻐했답니다": 7576,
      "숨겨진": 7577,
      "▁숨겨진": 7578,
      "잠깐": 7579,
      "▁잠깐": 7580,
      "예쁘고": 7581,
      "▁예쁘고": 7582,
      "필요할": 7583,
      "▁필요할": 7584,
      "냐고": 7585,
      "▁냐고": 7586,
      "마치고": 7587,
      "▁마치고": 7588,
      "연못에": 7589,
      "▁연못에": 7590,
      "뒤로": 7591,
      "▁뒤로": 7592,
      "물건들을": 7593,
      "▁물건들을": 7594,
      "냄새가": 7595,
      "▁냄새가": 7596,
      "사이": 7597,
      "▁사이": 7598,
      "소녀에게": 7599,
      "▁소녀에게": 7600,
      "만지": 7601,
      "▁만지": 7602,
      "몰랐거든요": 7603,
      "▁몰랐거든요": 7604,
      "밥과": 7605,
      "▁밥과": 7606,
      "있기를": 7607,
      "▁있기를": 7608,
      "바라보았어요": 7609,
      "▁바라보았어요": 7610,
      "생각해요": 7611,
      "▁생각해요": 7612,
      "깔끔": 7613,
      "▁깔끔": 7614,
      "뛰는": 7615,
      "▁뛰는": 7616,
      "나타났습니다": 7617,
      "▁나타났습니다": 7618,
      "드릴게요": 7619,
      "▁드릴게요": 7620,
      "깨끗해": 7621,
      "▁깨끗해": 7622,
      "맛있어": 7623,
      "▁맛있어": 7624,
      "스러워": 7625,
      "▁스러워": 7626,
      "평범": 7627,
      "▁평범": 7628,
      "세상을": 7629,
      "▁세상을": 7630,
      "친근한": 7631,
      "▁친근한": 7632,
      "꼬마": 7633,
      "▁꼬마": 7634,
      "것과": 7635,
      "▁것과": 7636,
      "터는": 7637,
      "▁터는": 7638,
      "그러면": 7639,
      "▁그러면": 7640,
      "사슴": 7641,
      "▁사슴": 7642,
      "무거운": 7643,
      "▁무거운": 7644,
      "몰리는": 7645,
      "▁몰리는": 7646,
      "프로": 7647,
      "▁프로": 7648,
      "나무와": 7649,
      "▁나무와": 7650,
      "똑똑한": 7651,
      "▁똑똑한": 7652,
      "안전한": 7653,
      "▁안전한": 7654,
      "없어요": 7655,
      "▁없어요": 7656,
      "터가": 7657,
      "▁터가": 7658,
      "해도": 7659,
      "▁해도": 7660,
      "축하": 7661,
      "▁축하": 7662,
      "루는": 7663,
      "▁루는": 7664,
      "받고": 7665,
      "▁받고": 7666,
      "불렀어요": 7667,
      "▁불렀어요": 7668,
      "날카": 7669,
      "▁날카": 7670,
      "것들이": 7671,
      "▁것들이": 7672,
      "말라고": 7673,
      "▁말라고": 7674,
      "노란": 7675,
      "▁노란": 7676,
      "그와": 7677,
      "▁그와": 7678,
      "자신에게": 7679,
      "▁자신에게": 7680,
      "티모는": 7681,
      "▁티모는": 7682,
      "찾아서": 7683,
      "▁찾아서": 7684,
      "깨달았죠": 7685,
      "▁깨달았죠": 7686,
      "싶었": 7687,
      "▁싶었": 7688,
      "보여주었어요": 7689,
      "▁보여주었어요": 7690,
      "드럼": 7691,
      "▁드럼": 7692,
      "올라타": 7693,
      "▁올라타": 7694,
      "로워": 7695,
      "▁로워": 7696,
      "부드럽게": 7697,
      "▁부드럽게": 7698,
      "트럭은": 7699,
      "▁트럭은": 7700,
      "색깔을": 7701,
      "▁색깔을": 7702,
      "요청": 7703,
      "▁요청": 7704,
      "울음을": 7705,
      "▁울음을": 7706,
      "스와": 7707,
      "▁스와": 7708,
      "이나": 7709,
      "▁이나": 7710,
      "마음으로": 7711,
      "▁마음으로": 7712,
      "머리카": 7713,
      "▁머리카": 7714,
      "머리카락": 7715,
      "▁머리카락": 7716,
      "듣는": 7717,
      "▁듣는": 7718,
      "주었답니다": 7719,
      "▁주었답니다": 7720,
      "신경": 7721,
      "▁신경": 7722,
      "어디로": 7723,
      "▁어디로": 7724,
      "벤치에": 7725,
      "▁벤치에": 7726,
      "나눔": 7727,
      "▁나눔": 7728,
      "스웨는": 7729,
      "▁스웨는": 7730,
      "되는": 7731,
      "▁되는": 7732,
      "전혀": 7733,
      "▁전혀": 7734,
      "개미는": 7735,
      "▁개미는": 7736,
      "물에서": 7737,
      "▁물에서": 7738,
      "멋지": 7739,
      "▁멋지": 7740,
      "부모님은": 7741,
      "▁부모님은": 7742,
      "자유": 7743,
      "▁자유": 7744,
      "도는": 7745,
      "▁도는": 7746,
      "없을": 7747,
      "▁없을": 7748,
      "일들을": 7749,
      "▁일들을": 7750,
      "동의했고": 7751,
      "▁동의했고": 7752,
      "옆에서": 7753,
      "▁옆에서": 7754,
      "결심했죠": 7755,
      "▁결심했죠": 7756,
      "놀아": 7757,
      "▁놀아": 7758,
      "담요를": 7759,
      "▁담요를": 7760,
      "나왔어요": 7761,
      "▁나왔어요": 7762,
      "이빨": 7763,
      "▁이빨": 7764,
      "미안해요": 7765,
      "▁미안해요": 7766,
      "더니": 7767,
      "▁더니": 7768,
      "유지": 7769,
      "▁유지": 7770,
      "놀랐지만": 7771,
      "▁놀랐지만": 7772,
      "도와주기로": 7773,
      "▁도와주기로": 7774,
      "실에서": 7775,
      "▁실에서": 7776,
      "스럽고": 7777,
      "▁스럽고": 7778,
      "없었거든요": 7779,
      "▁없었거든요": 7780,
      "춤추고": 7781,
      "▁춤추고": 7782,
      "부유": 7783,
      "▁부유": 7784,
      "연못에서": 7785,
      "▁연못에서": 7786,
      "보관": 7787,
      "▁보관": 7788,
      "울면서": 7789,
      "▁울면서": 7790,
      "하여": 7791,
      "▁하여": 7792,
      "꾸러": 7793,
      "▁꾸러": 7794,
      "필요해": 7795,
      "▁필요해": 7796,
      "보석을": 7797,
      "▁보석을": 7798,
      "냈답니다": 7799,
      "▁냈답니다": 7800,
      "기억해": 7801,
      "▁기억해": 7802,
      "방이": 7803,
      "▁방이": 7804,
      "감고": 7805,
      "▁감고": 7806,
      "질투": 7807,
      "▁질투": 7808,
      "약을": 7809,
      "▁약을": 7810,
      "시작했지요": 7811,
      "▁시작했지요": 7812,
      "만지고": 7813,
      "▁만지고": 7814,
      "거였죠": 7815,
      "▁거였죠": 7816,
      "헤엄쳐": 7817,
      "▁헤엄쳐": 7818,
      "재미있어": 7819,
      "▁재미있어": 7820,
      "계단": 7821,
      "▁계단": 7822,
      "티머라는": 7823,
      "▁티머라는": 7824,
      "춤추는": 7825,
      "▁춤추는": 7826,
      "장난감들이": 7827,
      "▁장난감들이": 7828,
      "결코": 7829,
      "▁결코": 7830,
      "선물로": 7831,
      "▁선물로": 7832,
      "인사": 7833,
      "▁인사": 7834,
      "뚱뚱한": 7835,
      "▁뚱뚱한": 7836,
      "랐죠": 7837,
      "▁랐죠": 7838,
      "마리": 7839,
      "▁마리": 7840,
      "행복해요": 7841,
      "▁행복해요": 7842,
      "바랐습니다": 7843,
      "▁바랐습니다": 7844,
      "소를": 7845,
      "▁소를": 7846,
      "웠고": 7847,
      "▁웠고": 7848,
      "식물": 7849,
      "▁식물": 7850,
      "구석": 7851,
      "▁구석": 7852,
      "말하는": 7853,
      "▁말하는": 7854,
      "스팟에게": 7855,
      "▁스팟에게": 7856,
      "시에": 7857,
      "▁시에": 7858,
      "피를": 7859,
      "▁피를": 7860,
      "아이들을": 7861,
      "▁아이들을": 7862,
      "다녔습니다": 7863,
      "▁다녔습니다": 7864,
      "결혼": 7865,
      "▁결혼": 7866,
      "나뭇가지를": 7867,
      "▁나뭇가지를": 7868,
      "방법": 7869,
      "▁방법": 7870,
      "코트를": 7871,
      "▁코트를": 7872,
      "부탁했어요": 7873,
      "▁부탁했어요": 7874,
      "시험": 7875,
      "▁시험": 7876,
      "나비는": 7877,
      "▁나비는": 7878,
      "있죠": 7879,
      "▁있죠": 7880,
      "뼈다": 7881,
      "▁뼈다": 7882,
      "거미": 7883,
      "▁거미": 7884,
      "학교에": 7885,
      "▁학교에": 7886,
      "즐겼답니다": 7887,
      "▁즐겼답니다": 7888,
      "다듬": 7889,
      "▁다듬": 7890,
      "곰을": 7891,
      "▁곰을": 7892,
      "소방": 7893,
      "▁소방": 7894,
      "제발": 7895,
      "▁제발": 7896,
      "내일": 7897,
      "▁내일": 7898,
      "기뻐했죠": 7899,
      "▁기뻐했죠": 7900,
      "달리": 7901,
      "▁달리": 7902,
      "조깅": 7903,
      "▁조깅": 7904,
      "무서워하고": 7905,
      "▁무서워하고": 7906,
      "아직": 7907,
      "▁아직": 7908,
      "동물원": 7909,
      "▁동물원": 7910,
      "안이": 7911,
      "▁안이": 7912,
      "위의": 7913,
      "▁위의": 7914,
      "있었다": 7915,
      "▁있었다": 7916,
      "끄덕였습니다": 7917,
      "▁끄덕였습니다": 7918,
      "리스": 7919,
      "▁리스": 7920,
      "그랬": 7921,
      "▁그랬": 7922,
      "잊고": 7923,
      "▁잊고": 7924,
      "장난꾸러": 7925,
      "▁장난꾸러": 7926,
      "잊어버": 7927,
      "▁잊어버": 7928,
      "오기": 7929,
      "▁오기": 7930,
      "브를": 7931,
      "▁브를": 7932,
      "이용해": 7933,
      "▁이용해": 7934,
      "잔디밭": 7935,
      "▁잔디밭": 7936,
      "케이": 7937,
      "▁케이": 7938,
      "해볼": 7939,
      "▁해볼": 7940,
      "쉬고": 7941,
      "▁쉬고": 7942,
      "자동차는": 7943,
      "▁자동차는": 7944,
      "바위는": 7945,
      "▁바위는": 7946,
      "기다렸어요": 7947,
      "▁기다렸어요": 7948,
      "수레": 7949,
      "▁수레": 7950,
      "근데": 7951,
      "▁근데": 7952,
      "미끄러져": 7953,
      "▁미끄러져": 7954,
      "지혜로운": 7955,
      "▁지혜로운": 7956,
      "드렸어요": 7957,
      "▁드렸어요": 7958,
      "먹지": 7959,
      "▁먹지": 7960,
      "있을지": 7961,
      "▁있을지": 7962,
      "살폈": 7963,
      "▁살폈": 7964,
      "커서": 7965,
      "▁커서": 7966,
      "좋아하고": 7967,
      "▁좋아하고": 7968,
      "눈이": 7969,
      "▁눈이": 7970,
      "사랑했습니다": 7971,
      "▁사랑했습니다": 7972,
      "잃어버렸": 7973,
      "▁잃어버렸": 7974,
      "야생": 7975,
      "▁야생": 7976,
      "봐도": 7977,
      "▁봐도": 7978,
      "창의": 7979,
      "▁창의": 7980,
      "불어": 7981,
      "▁불어": 7982,
      "수건": 7983,
      "▁수건": 7984,
      "들어갈": 7985,
      "▁들어갈": 7986,
      "갔지만": 7987,
      "▁갔지만": 7988,
      "토마": 7989,
      "▁토마": 7990,
      "표했습니다": 7991,
      "▁표했습니다": 7992,
      "슬퍼하니": 7993,
      "▁슬퍼하니": 7994,
      "장은": 7995,
      "▁장은": 7996,
      "잠이": 7997,
      "▁잠이": 7998,
      "있지만": 7999,
      "▁있지만": 8000,
      "목욕을": 8001,
      "▁목욕을": 8002,
      "불리는": 8003,
      "▁불리는": 8004,
      "위해서": 8005,
      "▁위해서": 8006,
      "평범한": 8007,
      "▁평범한": 8008,
      "것으로": 8009,
      "▁것으로": 8010,
      "가끔은": 8011,
      "▁가끔은": 8012,
      "않다는": 8013,
      "▁않다는": 8014,
      "기와": 8015,
      "▁기와": 8016,
      "맞춰": 8017,
      "▁맞춰": 8018,
      "행진": 8019,
      "▁행진": 8020,
      "귀여": 8021,
      "▁귀여": 8022,
      "앉았어요": 8023,
      "▁앉았어요": 8024,
      "데이지는": 8025,
      "▁데이지는": 8026,
      "안아주고": 8027,
      "▁안아주고": 8028,
      "장난꾸러기": 8029,
      "▁장난꾸러기": 8030,
      "거울": 8031,
      "▁거울": 8032,
      "가리키며": 8033,
      "▁가리키며": 8034,
      "들어가서": 8035,
      "▁들어가서": 8036,
      "일어났어요": 8037,
      "▁일어났어요": 8038,
      "의자를": 8039,
      "▁의자를": 8040,
      "오지": 8041,
      "▁오지": 8042,
      "우스꽝": 8043,
      "▁우스꽝": 8044,
      "우유를": 8045,
      "▁우유를": 8046,
      "됐어": 8047,
      "▁됐어": 8048,
      "공룡": 8049,
      "▁공룡": 8050,
      "때로는": 8051,
      "▁때로는": 8052,
      "돌아왔습니다": 8053,
      "▁돌아왔습니다": 8054,
      "의사": 8055,
      "▁의사": 8056,
      "젖은": 8057,
      "▁젖은": 8058,
      "돕기": 8059,
      "▁돕기": 8060,
      "주며": 8061,
      "▁주며": 8062,
      "당근을": 8063,
      "▁당근을": 8064,
      "어져": 8065,
      "▁어져": 8066,
      "평화": 8067,
      "▁평화": 8068,
      "말하고": 8069,
      "▁말하고": 8070,
      "된다는": 8071,
      "▁된다는": 8072,
      "아니에요": 8073,
      "▁아니에요": 8074,
      "쓰다듬": 8075,
      "▁쓰다듬": 8076,
      "으르": 8077,
      "▁으르": 8078,
      "구멍이": 8079,
      "▁구멍이": 8080,
      "기계": 8081,
      "▁기계": 8082,
      "도가": 8083,
      "▁도가": 8084,
      "통을": 8085,
      "▁통을": 8086,
      "잡았어요": 8087,
      "▁잡았어요": 8088,
      "보다가": 8089,
      "▁보다가": 8090,
      "꺼내서": 8091,
      "▁꺼내서": 8092,
      "말은": 8093,
      "▁말은": 8094,
      "신비": 8095,
      "▁신비": 8096,
      "뛰어오르고": 8097,
      "▁뛰어오르고": 8098,
      "나한테": 8099,
      "▁나한테": 8100,
      "저를": 8101,
      "▁저를": 8102,
      "농담을": 8103,
      "▁농담을": 8104,
      "찾은": 8105,
      "▁찾은": 8106,
      "걸었습니다": 8107,
      "▁걸었습니다": 8108,
      "시도했지만": 8109,
      "▁시도했지만": 8110,
      "보였죠": 8111,
      "▁보였죠": 8112,
      "당신을": 8113,
      "▁당신을": 8114,
      "부끄러워": 8115,
      "▁부끄러워": 8116,
      "짖으며": 8117,
      "▁짖으며": 8118,
      "구슬": 8119,
      "▁구슬": 8120,
      "내리": 8121,
      "▁내리": 8122,
      "콜릿": 8123,
      "▁콜릿": 8124,
      "초콜릿": 8125,
      "▁초콜릿": 8126,
      "기차는": 8127,
      "▁기차는": 8128,
      "끝에": 8129,
      "▁끝에": 8130,
      "필요한": 8131,
      "▁필요한": 8132,
      "하늘은": 8133,
      "▁하늘은": 8134,
      "아니라는": 8135,
      "▁아니라는": 8136,
      "라를": 8137,
      "▁라를": 8138,
      "밥이": 8139,
      "▁밥이": 8140,
      "쓰레기": 8141,
      "▁쓰레기": 8142,
      "다친": 8143,
      "▁다친": 8144,
      "행복해졌답니다": 8145,
      "▁행복해졌답니다": 8146,
      "안아": 8147,
      "▁안아": 8148,
      "주머니에": 8149,
      "▁주머니에": 8150,
      "동물들과": 8151,
      "▁동물들과": 8152,
      "팔을": 8153,
      "▁팔을": 8154,
      "싸우": 8155,
      "▁싸우": 8156,
      "숲속에서": 8157,
      "▁숲속에서": 8158,
      "배우는": 8159,
      "▁배우는": 8160,
      "아프": 8161,
      "▁아프": 8162,
      "스트": 8163,
      "▁스트": 8164,
      "가족이": 8165,
      "▁가족이": 8166,
      "상황": 8167,
      "▁상황": 8168,
      "덤불": 8169,
      "▁덤불": 8170,
      "비행기를": 8171,
      "▁비행기를": 8172,
      "지나가": 8173,
      "▁지나가": 8174,
      "나눌": 8175,
      "▁나눌": 8176,
      "보물을": 8177,
      "▁보물을": 8178,
      "쓰러": 8179,
      "▁쓰러": 8180,
      "왔죠": 8181,
      "▁왔죠": 8182,
      "보낸": 8183,
      "▁보낸": 8184,
      "즈는": 8185,
      "▁즈는": 8186,
      "등을": 8187,
      "▁등을": 8188,
      "소년에게": 8189,
      "▁소년에게": 8190,
      "떠올렸어요": 8191,
      "▁떠올렸어요": 8192,
      "원했죠": 8193,
      "▁원했죠": 8194,
      "보호": 8195,
      "▁보호": 8196,
      "고민": 8197,
      "▁고민": 8198,
      "빛나고": 8199,
      "▁빛나고": 8200,
      "새들은": 8201,
      "▁새들은": 8202,
      "기차를": 8203,
      "▁기차를": 8204,
      "다해": 8205,
      "▁다해": 8206,
      "빵을": 8207,
      "▁빵을": 8208,
      "달을": 8209,
      "▁달을": 8210,
      "한숨을": 8211,
      "▁한숨을": 8212,
      "트로": 8213,
      "▁트로": 8214,
      "아름답": 8215,
      "▁아름답": 8216,
      "덕분에": 8217,
      "▁덕분에": 8218,
      "천을": 8219,
      "▁천을": 8220,
      "었다는": 8221,
      "▁었다는": 8222,
      "앞에": 8223,
      "▁앞에": 8224,
      "마크는": 8225,
      "▁마크는": 8226,
      "그리워": 8227,
      "▁그리워": 8228,
      "쨍쨍": 8229,
      "▁쨍쨍": 8230,
      "넣었습니다": 8231,
      "▁넣었습니다": 8232,
      "주셨어요": 8233,
      "▁주셨어요": 8234,
      "뒤에서": 8235,
      "▁뒤에서": 8236,
      "해변에": 8237,
      "▁해변에": 8238,
      "주스를": 8239,
      "▁주스를": 8240,
      "움직이지": 8241,
      "▁움직이지": 8242,
      "될까요": 8243,
      "▁될까요": 8244,
      "확인": 8245,
      "▁확인": 8246,
      "샌드위치를": 8247,
      "▁샌드위치를": 8248,
      "봐야": 8249,
      "▁봐야": 8250,
      "깨끗이": 8251,
      "▁깨끗이": 8252,
      "바다에서": 8253,
      "▁바다에서": 8254,
      "부르고": 8255,
      "▁부르고": 8256,
      "자세": 8257,
      "▁자세": 8258,
      "치지": 8259,
      "▁치지": 8260,
      "면서도": 8261,
      "▁면서도": 8262,
      "봤어": 8263,
      "▁봤어": 8264,
      "있겠": 8265,
      "▁있겠": 8266,
      "나눴": 8267,
      "▁나눴": 8268,
      "렸답니다": 8269,
      "▁렸답니다": 8270,
      "즐기며": 8271,
      "▁즐기며": 8272,
      "줘야": 8273,
      "▁줘야": 8274,
      "가까워": 8275,
      "▁가까워": 8276,
      "이웃": 8277,
      "▁이웃": 8278,
      "달리는": 8279,
      "▁달리는": 8280,
      "번갈아가며": 8281,
      "▁번갈아가며": 8282,
      "인을": 8283,
      "▁인을": 8284,
      "울부": 8285,
      "▁울부": 8286,
      "넣어": 8287,
      "▁넣어": 8288,
      "할게": 8289,
      "▁할게": 8290,
      "재미있고": 8291,
      "▁재미있고": 8292,
      "탐험하는": 8293,
      "▁탐험하는": 8294,
      "쳤죠": 8295,
      "▁쳤죠": 8296,
      "력을": 8297,
      "▁력을": 8298,
      "졌지요": 8299,
      "▁졌지요": 8300,
      "호기심": 8301,
      "▁호기심": 8302,
      "구름이": 8303,
      "▁구름이": 8304,
      "라이": 8305,
      "▁라이": 8306,
      "빼앗아": 8307,
      "▁빼앗아": 8308,
      "마시고": 8309,
      "▁마시고": 8310,
      "무늬": 8311,
      "▁무늬": 8312,
      "싶어졌습니다": 8313,
      "▁싶어졌습니다": 8314,
      "올라가서": 8315,
      "▁올라가서": 8316,
      "자동차와": 8317,
      "▁자동차와": 8318,
      "있어야": 8319,
      "▁있어야": 8320,
      "콘을": 8321,
      "▁콘을": 8322,
      "사나": 8323,
      "▁사나": 8324,
      "훌륭": 8325,
      "▁훌륭": 8326,
      "바른": 8327,
      "▁바른": 8328,
      "우리를": 8329,
      "▁우리를": 8330,
      "새들을": 8331,
      "▁새들을": 8332,
      "스라는": 8333,
      "▁스라는": 8334,
      "생일": 8335,
      "▁생일": 8336,
      "않겠다고": 8337,
      "▁않겠다고": 8338,
      "라면": 8339,
      "▁라면": 8340,
      "였지만": 8341,
      "▁였지만": 8342,
      "벌은": 8343,
      "▁벌은": 8344,
      "으려": 8345,
      "▁으려": 8346,
      "졌지만": 8347,
      "▁졌지만": 8348,
      "어두워": 8349,
      "▁어두워": 8350,
      "으라고": 8351,
      "▁으라고": 8352,
      "슬펐지만": 8353,
      "▁슬펐지만": 8354,
      "치즈를": 8355,
      "▁치즈를": 8356,
      "산을": 8357,
      "▁산을": 8358,
      "몰랐지만": 8359,
      "▁몰랐지만": 8360,
      "벌어졌습니다": 8361,
      "▁벌어졌습니다": 8362,
      "만나": 8363,
      "▁만나": 8364,
      "컵을": 8365,
      "▁컵을": 8366,
      "음이": 8367,
      "▁음이": 8368,
      "영웅": 8369,
      "▁영웅": 8370,
      "주기로": 8371,
      "▁주기로": 8372,
      "슬퍼했죠": 8373,
      "▁슬퍼했죠": 8374,
      "트럭이": 8375,
      "▁트럭이": 8376,
      "차례": 8377,
      "▁차례": 8378,
      "마이크": 8379,
      "▁마이크": 8380,
      "좋다는": 8381,
      "▁좋다는": 8382,
      "너한테": 8383,
      "▁너한테": 8384,
      "이루": 8385,
      "▁이루": 8386,
      "농부": 8387,
      "▁농부": 8388,
      "웃기": 8389,
      "▁웃기": 8390,
      "장난을": 8391,
      "▁장난을": 8392,
      "생쥐가": 8393,
      "▁생쥐가": 8394,
      "무서워했지만": 8395,
      "▁무서워했지만": 8396,
      "것이었습니다": 8397,
      "▁것이었습니다": 8398,
      "tv": 8399,
      "▁tv": 8400,
      "TV": 8401,
      "▁TV": 8402,
      "Tv": 8403,
      "▁Tv": 8404,
      "갔다": 8405,
      "▁갔다": 8406,
      "서는": 8407,
      "▁서는": 8408,
      "낫다는": 8409,
      "▁낫다는": 8410,
      "데이지": 8411,
      "▁데이지": 8412,
      "부르는": 8413,
      "▁부르는": 8414,
      "원하는": 8415,
      "▁원하는": 8416,
      "많았어요": 8417,
      "▁많았어요": 8418,
      "미끄럼틀에서": 8419,
      "▁미끄럼틀에서": 8420,
      "가에": 8421,
      "▁가에": 8422,
      "도토": 8423,
      "▁도토": 8424,
      "끄덕였어요": 8425,
      "▁끄덕였어요": 8426,
      "슬퍼졌습니다": 8427,
      "▁슬퍼졌습니다": 8428,
      "길에": 8429,
      "▁길에": 8430,
      "주세요": 8431,
      "▁주세요": 8432,
      "대신에": 8433,
      "▁대신에": 8434,
      "보트를": 8435,
      "▁보트를": 8436,
      "니가": 8437,
      "▁니가": 8438,
      "말하며": 8439,
      "▁말하며": 8440,
      "무릎을": 8441,
      "▁무릎을": 8442,
      "바위에": 8443,
      "▁바위에": 8444,
      "결정했죠": 8445,
      "▁결정했죠": 8446,
      "견과류를": 8447,
      "▁견과류를": 8448,
      "각형": 8449,
      "▁각형": 8450,
      "려요": 8451,
      "▁려요": 8452,
      "밑에서": 8453,
      "▁밑에서": 8454,
      "받아": 8455,
      "▁받아": 8456,
      "데려가": 8457,
      "▁데려가": 8458,
      "재채": 8459,
      "▁재채": 8460,
      "크를": 8461,
      "▁크를": 8462,
      "말았죠": 8463,
      "▁말았죠": 8464,
      "내지": 8465,
      "▁내지": 8466,
      "살이었고": 8467,
      "▁살이었고": 8468,
      "끌어": 8469,
      "▁끌어": 8470,
      "코를": 8471,
      "▁코를": 8472,
      "약한": 8473,
      "▁약한": 8474,
      "읽고": 8475,
      "▁읽고": 8476,
      "에이미가": 8477,
      "▁에이미가": 8478,
      "치르": 8479,
      "▁치르": 8480,
      "아는": 8481,
      "▁아는": 8482,
      "일으": 8483,
      "▁일으": 8484,
      "좋아했지만": 8485,
      "▁좋아했지만": 8486,
      "색깔이": 8487,
      "▁색깔이": 8488,
      "해줄": 8489,
      "▁해줄": 8490,
      "해졌어요": 8491,
      "▁해졌어요": 8492,
      "뱀은": 8493,
      "▁뱀은": 8494,
      "폭풍이": 8495,
      "▁폭풍이": 8496,
      "밝고": 8497,
      "▁밝고": 8498,
      "그릇을": 8499,
      "▁그릇을": 8500,
      "오렌": 8501,
      "▁오렌": 8502,
      "착용": 8503,
      "▁착용": 8504,
      "만져": 8505,
      "▁만져": 8506,
      "게도": 8507,
      "▁게도": 8508,
      "고를": 8509,
      "▁고를": 8510,
      "속삭": 8511,
      "▁속삭": 8512,
      "르는": 8513,
      "▁르는": 8514,
      "자리를": 8515,
      "▁자리를": 8516,
      "쓰지": 8517,
      "▁쓰지": 8518,
      "가져갔습니다": 8519,
      "▁가져갔습니다": 8520,
      "부드럽고": 8521,
      "▁부드럽고": 8522,
      "곁에": 8523,
      "▁곁에": 8524,
      "미와": 8525,
      "▁미와": 8526,
      "걱정하지": 8527,
      "▁걱정하지": 8528,
      "에이미의": 8529,
      "▁에이미의": 8530,
      "으르렁": 8531,
      "▁으르렁": 8532,
      "에마는": 8533,
      "▁에마는": 8534,
      "수록": 8535,
      "▁수록": 8536,
      "인쇄": 8537,
      "▁인쇄": 8538,
      "움이": 8539,
      "▁움이": 8540,
      "소가": 8541,
      "▁소가": 8542,
      "그렸어요": 8543,
      "▁그렸어요": 8544,
      "싶니": 8545,
      "▁싶니": 8546,
      "모두를": 8547,
      "▁모두를": 8548,
      "모양을": 8549,
      "▁모양을": 8550,
      "하늘이": 8551,
      "▁하늘이": 8552,
      "이전에": 8553,
      "▁이전에": 8554,
      "다칠": 8555,
      "▁다칠": 8556,
      "치마": 8557,
      "▁치마": 8558,
      "라의": 8559,
      "▁라의": 8560,
      "말이": 8561,
      "▁말이": 8562,
      "이어": 8563,
      "▁이어": 8564,
      "낡은": 8565,
      "▁낡은": 8566,
      "자세히": 8567,
      "▁자세히": 8568,
      "그리는": 8569,
      "▁그리는": 8570,
      "불러": 8571,
      "▁불러": 8572,
      "후회": 8573,
      "▁후회": 8574,
      "색깔의": 8575,
      "▁색깔의": 8576,
      "끝나": 8577,
      "▁끝나": 8578,
      "연필": 8579,
      "▁연필": 8580,
      "만의": 8581,
      "▁만의": 8582,
      "어디에": 8583,
      "▁어디에": 8584,
      "기울": 8585,
      "▁기울": 8586,
      "여러분": 8587,
      "▁여러분": 8588,
      "설탕": 8589,
      "▁설탕": 8590,
      "담긴": 8591,
      "▁담긴": 8592,
      "아버지는": 8593,
      "▁아버지는": 8594,
      "구멍에": 8595,
      "▁구멍에": 8596,
      "되어서": 8597,
      "▁되어서": 8598,
      "자부": 8599,
      "▁자부": 8600,
      "무서워하게": 8601,
      "▁무서워하게": 8602,
      "내려다": 8603,
      "▁내려다": 8604,
      "말하죠": 8605,
      "▁말하죠": 8606,
      "거의": 8607,
      "▁거의": 8608,
      "직한": 8609,
      "▁직한": 8610,
      "대가": 8611,
      "▁대가": 8612,
      "창문을": 8613,
      "▁창문을": 8614,
      "완성": 8615,
      "▁완성": 8616,
      "이에게": 8617,
      "▁이에게": 8618,
      "더미를": 8619,
      "▁더미를": 8620,
      "깨어": 8621,
      "▁깨어": 8622,
      "경주에서": 8623,
      "▁경주에서": 8624,
      "지미는": 8625,
      "▁지미는": 8626,
      "목걸이를": 8627,
      "▁목걸이를": 8628,
      "렸지만": 8629,
      "▁렸지만": 8630,
      "엄청": 8631,
      "▁엄청": 8632,
      "뛰며": 8633,
      "▁뛰며": 8634,
      "가져다가": 8635,
      "▁가져다가": 8636,
      "침대에": 8637,
      "▁침대에": 8638,
      "벨라는": 8639,
      "▁벨라는": 8640,
      "배웠죠": 8641,
      "▁배웠죠": 8642,
      "부유한": 8643,
      "▁부유한": 8644,
      "가지에": 8645,
      "▁가지에": 8646,
      "들어왔어요": 8647,
      "▁들어왔어요": 8648,
      "제안": 8649,
      "▁제안": 8650,
      "미라는": 8651,
      "▁미라는": 8652,
      "즐겼어요": 8653,
      "▁즐겼어요": 8654,
      "지와": 8655,
      "▁지와": 8656,
      "하다가": 8657,
      "▁하다가": 8658,
      "재밌": 8659,
      "▁재밌": 8660,
      "친구들도": 8661,
      "▁친구들도": 8662,
      "쓰는": 8663,
      "▁쓰는": 8664,
      "그렇다고": 8665,
      "▁그렇다고": 8666,
      "스위": 8667,
      "▁스위": 8668,
      "웃게": 8669,
      "▁웃게": 8670,
      "그리기": 8671,
      "▁그리기": 8672,
      "날씨가": 8673,
      "▁날씨가": 8674,
      "리사는": 8675,
      "▁리사는": 8676,
      "거리며": 8677,
      "▁거리며": 8678,
      "가방에": 8679,
      "▁가방에": 8680,
      "요정은": 8681,
      "▁요정은": 8682,
      "아니요": 8683,
      "▁아니요": 8684,
      "울었어요": 8685,
      "▁울었어요": 8686,
      "강력한": 8687,
      "▁강력한": 8688,
      "살아": 8689,
      "▁살아": 8690,
      "물속으로": 8691,
      "▁물속으로": 8692,
      "오리가": 8693,
      "▁오리가": 8694,
      "조용히": 8695,
      "▁조용히": 8696,
      "토마토": 8697,
      "▁토마토": 8698,
      "해바라": 8699,
      "▁해바라": 8700,
      "조용한": 8701,
      "▁조용한": 8702,
      "동물을": 8703,
      "▁동물을": 8704,
      "비누": 8705,
      "▁비누": 8706,
      "용감하고": 8707,
      "▁용감하고": 8708,
      "냈죠": 8709,
      "▁냈죠": 8710,
      "엄마한테": 8711,
      "▁엄마한테": 8712,
      "농부는": 8713,
      "▁농부는": 8714,
      "수영을": 8715,
      "▁수영을": 8716,
      "전화를": 8717,
      "▁전화를": 8718,
      "라운": 8719,
      "▁라운": 8720,
      "들어갔습니다": 8721,
      "▁들어갔습니다": 8722,
      "꿀을": 8723,
      "▁꿀을": 8724,
      "수도꼭": 8725,
      "▁수도꼭": 8726,
      "탐험하고": 8727,
      "▁탐험하고": 8728,
      "기분을": 8729,
      "▁기분을": 8730,
      "이로": 8731,
      "▁이로": 8732,
      "살펴보고": 8733,
      "▁살펴보고": 8734,
      "들었": 8735,
      "▁들었": 8736,
      "감사해요": 8737,
      "▁감사해요": 8738,
      "나섰어요": 8739,
      "▁나섰어요": 8740,
      "천만에": 8741,
      "▁천만에": 8742,
      "미안하다고": 8743,
      "▁미안하다고": 8744,
      "모자와": 8745,
      "▁모자와": 8746,
      "강하고": 8747,
      "▁강하고": 8748,
      "먹어": 8749,
      "▁먹어": 8750,
      "호랑": 8751,
      "▁호랑": 8752,
      "훌륭한": 8753,
      "▁훌륭한": 8754,
      "장갑을": 8755,
      "▁장갑을": 8756,
      "날지": 8757,
      "▁날지": 8758,
      "시가": 8759,
      "▁시가": 8760,
      "못생긴": 8761,
      "▁못생긴": 8762,
      "땅콩": 8763,
      "▁땅콩": 8764,
      "실수를": 8765,
      "▁실수를": 8766,
      "핀을": 8767,
      "▁핀을": 8768,
      "추워": 8769,
      "▁추워": 8770,
      "해를": 8771,
      "▁해를": 8772,
      "된다고": 8773,
      "▁된다고": 8774,
      "코코": 8775,
      "▁코코": 8776,
      "돌아왔어요": 8777,
      "▁돌아왔어요": 8778,
      "안전하고": 8779,
      "▁안전하고": 8780,
      "따뜻하게": 8781,
      "▁따뜻하게": 8782,
      "과일": 8783,
      "▁과일": 8784,
      "다이스": 8785,
      "▁다이스": 8786,
      "주었지요": 8787,
      "▁주었지요": 8788,
      "왔어": 8789,
      "▁왔어": 8790,
      "불행": 8791,
      "▁불행": 8792,
      "숟가락을": 8793,
      "▁숟가락을": 8794,
      "그대로": 8795,
      "▁그대로": 8796,
      "괴물이": 8797,
      "▁괴물이": 8798,
      "리게": 8799,
      "▁리게": 8800,
      "말했어": 8801,
      "▁말했어": 8802,
      "불어서": 8803,
      "▁불어서": 8804,
      "깨끗하고": 8805,
      "▁깨끗하고": 8806,
      "물로": 8807,
      "▁물로": 8808,
      "털복숭": 8809,
      "▁털복숭": 8810,
      "끄덕이고": 8811,
      "▁끄덕이고": 8812,
      "메리는": 8813,
      "▁메리는": 8814,
      "실수": 8815,
      "▁실수": 8816,
      "뛰어넘": 8817,
      "▁뛰어넘": 8818,
      "할머니가": 8819,
      "▁할머니가": 8820,
      "괴물은": 8821,
      "▁괴물은": 8822,
      "지저분한": 8823,
      "▁지저분한": 8824,
      "지퍼": 8825,
      "▁지퍼": 8826,
      "빛나는": 8827,
      "▁빛나는": 8828,
      "뛰어들어": 8829,
      "▁뛰어들어": 8830,
      "하려": 8831,
      "▁하려": 8832,
      "열어보니": 8833,
      "▁열어보니": 8834,
      "처음에는": 8835,
      "▁처음에는": 8836,
      "레미는": 8837,
      "▁레미는": 8838,
      "일하는": 8839,
      "▁일하는": 8840,
      "점심을": 8841,
      "▁점심을": 8842,
      "료를": 8843,
      "▁료를": 8844,
      "하겠다고": 8845,
      "▁하겠다고": 8846,
      "달릴": 8847,
      "▁달릴": 8848,
      "존중": 8849,
      "▁존중": 8850,
      "보였어요": 8851,
      "▁보였어요": 8852,
      "워야": 8853,
      "▁워야": 8854,
      "물과": 8855,
      "▁물과": 8856,
      "사자가": 8857,
      "▁사자가": 8858,
      "먹으며": 8859,
      "▁먹으며": 8860,
      "퍼즐을": 8861,
      "▁퍼즐을": 8862,
      "올라갔어요": 8863,
      "▁올라갔어요": 8864,
      "작동": 8865,
      "▁작동": 8866,
      "접시를": 8867,
      "▁접시를": 8868,
      "지키": 8869,
      "▁지키": 8870,
      "항아리를": 8871,
      "▁항아리를": 8872,
      "장난감들로": 8873,
      "▁장난감들로": 8874,
      "시계": 8875,
      "▁시계": 8876,
      "놀래": 8877,
      "▁놀래": 8878,
      "되었을": 8879,
      "▁되었을": 8880,
      "균형을": 8881,
      "▁균형을": 8882,
      "찾아야": 8883,
      "▁찾아야": 8884,
      "않았어": 8885,
      "▁않았어": 8886,
      "결정했어요": 8887,
      "▁결정했어요": 8888,
      "부츠": 8889,
      "▁부츠": 8890,
      "불렀습니다": 8891,
      "▁불렀습니다": 8892,
      "거리를": 8893,
      "▁거리를": 8894,
      "데리고": 8895,
      "▁데리고": 8896,
      "떨어져서": 8897,
      "▁떨어져서": 8898,
      "놀았지요": 8899,
      "▁놀았지요": 8900,
      "귀는": 8901,
      "▁귀는": 8902,
      "목소리로": 8903,
      "▁목소리로": 8904,
      "게는": 8905,
      "▁게는": 8906,
      "오르기": 8907,
      "▁오르기": 8908,
      "아를": 8909,
      "▁아를": 8910,
      "우스꽝스러운": 8911,
      "▁우스꽝스러운": 8912,
      "자마자": 8913,
      "▁자마자": 8914,
      "달렸어요": 8915,
      "▁달렸어요": 8916,
      "없다고": 8917,
      "▁없다고": 8918,
      "튼튼한": 8919,
      "▁튼튼한": 8920,
      "아기는": 8921,
      "▁아기는": 8922,
      "같다고": 8923,
      "▁같다고": 8924,
      "정상에": 8925,
      "▁정상에": 8926,
      "두려워": 8927,
      "▁두려워": 8928,
      "거닐": 8929,
      "▁거닐": 8930,
      "돌아가서": 8931,
      "▁돌아가서": 8932,
      "고팠": 8933,
      "▁고팠": 8934,
      "반짝이고": 8935,
      "▁반짝이고": 8936,
      "하니까": 8937,
      "▁하니까": 8938,
      "즐거움을": 8939,
      "▁즐거움을": 8940,
      "바늘": 8941,
      "▁바늘": 8942,
      "귀여운": 8943,
      "▁귀여운": 8944,
      "기다렸습니다": 8945,
      "▁기다렸습니다": 8946,
      "신비한": 8947,
      "▁신비한": 8948,
      "날아와": 8949,
      "▁날아와": 8950,
      "찾아봤지만": 8951,
      "▁찾아봤지만": 8952,
      "자부심을": 8953,
      "▁자부심을": 8954,
      "집은": 8955,
      "▁집은": 8956,
      "대머리": 8957,
      "▁대머리": 8958,
      "털복숭이": 8959,
      "▁털복숭이": 8960,
      "프가": 8961,
      "▁프가": 8962,
      "만지지": 8963,
      "▁만지지": 8964,
      "다니고": 8965,
      "▁다니고": 8966,
      "그거": 8967,
      "▁그거": 8968,
      "동물들에게": 8969,
      "▁동물들에게": 8970,
      "싸움을": 8971,
      "▁싸움을": 8972,
      "새로": 8973,
      "▁새로": 8974,
      "젖고": 8975,
      "▁젖고": 8976,
      "테디베": 8977,
      "▁테디베": 8978,
      "애완": 8979,
      "▁애완": 8980,
      "없다는": 8981,
      "▁없다는": 8982,
      "잡아당": 8983,
      "▁잡아당": 8984,
      "껍데": 8985,
      "▁껍데": 8986,
      "보게": 8987,
      "▁보게": 8988,
      "도중에": 8989,
      "▁도중에": 8990,
      "잃어버린": 8991,
      "▁잃어버린": 8992,
      "까마": 8993,
      "▁까마": 8994,
      "총을": 8995,
      "▁총을": 8996,
      "여서": 8997,
      "▁여서": 8998,
      "개도": 8999,
      "▁개도": 9000,
      "깜빡": 9001,
      "▁깜빡": 9002,
      "도둑": 9003,
      "▁도둑": 9004,
      "고프": 9005,
      "▁고프": 9006,
      "바람은": 9007,
      "▁바람은": 9008,
      "원했어요": 9009,
      "▁원했어요": 9010,
      "창문": 9011,
      "▁창문": 9012,
      "이모": 9013,
      "▁이모": 9014,
      "먹었죠": 9015,
      "▁먹었죠": 9016,
      "했으니까요": 9017,
      "▁했으니까요": 9018,
      "울부짖": 9019,
      "▁울부짖": 9020,
      "떠났습니다": 9021,
      "▁떠났습니다": 9022,
      "그늘": 9023,
      "▁그늘": 9024,
      "매운": 9025,
      "▁매운": 9026,
      "날아가는": 9027,
      "▁날아가는": 9028,
      "고치": 9029,
      "▁고치": 9030,
      "놀라고": 9031,
      "▁놀라고": 9032,
      "했다고": 9033,
      "▁했다고": 9034,
      "가능": 9035,
      "▁가능": 9036,
      "떨어졌어요": 9037,
      "▁떨어졌어요": 9038,
      "만들었답니다": 9039,
      "▁만들었답니다": 9040,
      "오두": 9041,
      "▁오두": 9042,
      "오두막": 9043,
      "▁오두막": 9044,
      "열매": 9045,
      "▁열매": 9046,
      "가로": 9047,
      "▁가로": 9048,
      "부드러": 9049,
      "▁부드러": 9050,
      "달리기": 9051,
      "▁달리기": 9052,
      "해골": 9053,
      "▁해골": 9054,
      "떠올렸습니다": 9055,
      "▁떠올렸습니다": 9056,
      "소음을": 9057,
      "▁소음을": 9058,
      "피아": 9059,
      "▁피아": 9060,
      "꼭대기에": 9061,
      "▁꼭대기에": 9062,
      "마녀": 9063,
      "▁마녀": 9064,
      "맥스야": 9065,
      "▁맥스야": 9066,
      "넣었어요": 9067,
      "▁넣었어요": 9068,
      "슬펐어요": 9069,
      "▁슬펐어요": 9070,
      "받았어요": 9071,
      "▁받았어요": 9072,
      "웃어요": 9073,
      "▁웃어요": 9074,
      "롭게": 9075,
      "▁롭게": 9076,
      "쉽게": 9077,
      "▁쉽게": 9078,
      "왔답니다": 9079,
      "▁왔답니다": 9080,
      "결심했답니다": 9081,
      "▁결심했답니다": 9082,
      "영리한": 9083,
      "▁영리한": 9084,
      "닿을": 9085,
      "▁닿을": 9086,
      "사다리를": 9087,
      "▁사다리를": 9088,
      "가운데": 9089,
      "▁가운데": 9090,
      "남자와": 9091,
      "▁남자와": 9092,
      "먹은": 9093,
      "▁먹은": 9094,
      "외쳤어요": 9095,
      "▁외쳤어요": 9096,
      "신고": 9097,
      "▁신고": 9098,
      "거품": 9099,
      "▁거품": 9100,
      "추를": 9101,
      "▁추를": 9102,
      "구하고": 9103,
      "▁구하고": 9104,
      "욕조": 9105,
      "▁욕조": 9106,
      "즐길": 9107,
      "▁즐길": 9108,
      "카드를": 9109,
      "▁카드를": 9110,
      "오랫": 9111,
      "▁오랫": 9112,
      "씨앗을": 9113,
      "▁씨앗을": 9114,
      "오랫동안": 9115,
      "▁오랫동안": 9116,
      "날카로운": 9117,
      "▁날카로운": 9118,
      "무서워서": 9119,
      "▁무서워서": 9120,
      "부탁했습니다": 9121,
      "▁부탁했습니다": 9122,
      "브로": 9123,
      "▁브로": 9124,
      "고양이의": 9125,
      "▁고양이의": 9126,
      "새도": 9127,
      "▁새도": 9128,
      "끌고": 9129,
      "▁끌고": 9130,
      "반죽": 9131,
      "▁반죽": 9132,
      "들어올": 9133,
      "▁들어올": 9134,
      "미아에게": 9135,
      "▁미아에게": 9136,
      "토머": 9137,
      "▁토머": 9138,
      "돌아갔답니다": 9139,
      "▁돌아갔답니다": 9140,
      "바보": 9141,
      "▁바보": 9142,
      "반짝반짝": 9143,
      "▁반짝반짝": 9144,
      "용서해": 9145,
      "▁용서해": 9146,
      "라서": 9147,
      "▁라서": 9148,
      "주지": 9149,
      "▁주지": 9150,
      "빙글빙글": 9151,
      "▁빙글빙글": 9152,
      "으셨어요": 9153,
      "▁으셨어요": 9154,
      "느꼈죠": 9155,
      "▁느꼈죠": 9156,
      "치가": 9157,
      "▁치가": 9158,
      "씨는": 9159,
      "▁씨는": 9160,
      "잘못": 9161,
      "▁잘못": 9162,
      "움직일": 9163,
      "▁움직일": 9164,
      "그려져": 9165,
      "▁그려져": 9166,
      "들렸어요": 9167,
      "▁들렸어요": 9168,
      "더미": 9169,
      "▁더미": 9170,
      "거칠": 9171,
      "▁거칠": 9172,
      "고집": 9173,
      "▁고집": 9174,
      "서로의": 9175,
      "▁서로의": 9176,
      "관한": 9177,
      "▁관한": 9178,
      "했는데": 9179,
      "▁했는데": 9180,
      "이거": 9181,
      "▁이거": 9182,
      "마른": 9183,
      "▁마른": 9184,
      "그릇에": 9185,
      "▁그릇에": 9186,
      "껴안으며": 9187,
      "▁껴안으며": 9188,
      "미안한": 9189,
      "▁미안한": 9190,
      "맛있게": 9191,
      "▁맛있게": 9192,
      "스카": 9193,
      "▁스카": 9194,
      "열었습니다": 9195,
      "▁열었습니다": 9196,
      "놀랍": 9197,
      "▁놀랍": 9198,
      "점심": 9199,
      "▁점심": 9200,
      "발견한": 9201,
      "▁발견한": 9202,
      "보낼": 9203,
      "▁보낼": 9204,
      "공중으로": 9205,
      "▁공중으로": 9206,
      "키스를": 9207,
      "▁키스를": 9208,
      "울었습니다": 9209,
      "▁울었습니다": 9210,
      "싶어졌죠": 9211,
      "▁싶어졌죠": 9212,
      "날아갔습니다": 9213,
      "▁날아갔습니다": 9214,
      "재빨리": 9215,
      "▁재빨리": 9216,
      "사과하고": 9217,
      "▁사과하고": 9218,
      "도왔습니다": 9219,
      "▁도왔습니다": 9220,
      "식물을": 9221,
      "▁식물을": 9222,
      "팔찌": 9223,
      "▁팔찌": 9224,
      "냄새나는": 9225,
      "▁냄새나는": 9226,
      "인형이": 9227,
      "▁인형이": 9228,
      "무언가가": 9229,
      "▁무언가가": 9230,
      "냄새를": 9231,
      "▁냄새를": 9232,
      "파람": 9233,
      "▁파람": 9234,
      "휘파람": 9235,
      "▁휘파람": 9236,
      "아래를": 9237,
      "▁아래를": 9238,
      "나기": 9239,
      "▁나기": 9240,
      "순간": 9241,
      "▁순간": 9242,
      "팀도": 9243,
      "▁팀도": 9244,
      "노인은": 9245,
      "▁노인은": 9246,
      "손잡": 9247,
      "▁손잡": 9248,
      "대화": 9249,
      "▁대화": 9250,
      "사나운": 9251,
      "▁사나운": 9252,
      "친구였어요": 9253,
      "▁친구였어요": 9254,
      "도우": 9255,
      "▁도우": 9256,
      "좋았을": 9257,
      "▁좋았을": 9258,
      "소중": 9259,
      "▁소중": 9260,
      "샐러": 9261,
      "▁샐러": 9262,
      "도와주려고": 9263,
      "▁도와주려고": 9264,
      "거니": 9265,
      "▁거니": 9266,
      "지막": 9267,
      "▁지막": 9268,
      "털이": 9269,
      "▁털이": 9270,
      "놓여": 9271,
      "▁놓여": 9272,
      "물웅덩": 9273,
      "▁물웅덩": 9274,
      "재미있다고": 9275,
      "▁재미있다고": 9276,
      "만들기로": 9277,
      "▁만들기로": 9278,
      "자매": 9279,
      "▁자매": 9280,
      "져요": 9281,
      "▁져요": 9282,
      "삼촌": 9283,
      "▁삼촌": 9284,
      "행복해했습니다": 9285,
      "▁행복해했습니다": 9286,
      "천만에요": 9287,
      "▁천만에요": 9288,
      "도와주세요": 9289,
      "▁도와주세요": 9290,
      "프레드는": 9291,
      "▁프레드는": 9292,
      "사랑하는": 9293,
      "▁사랑하는": 9294,
      "디어": 9295,
      "▁디어": 9296,
      "여자아이": 9297,
      "▁여자아이": 9298,
      "뭐야": 9299,
      "▁뭐야": 9300,
      "점토": 9301,
      "▁점토": 9302,
      "추운": 9303,
      "▁추운": 9304,
      "부탁해요": 9305,
      "▁부탁해요": 9306,
      "딱정": 9307,
      "▁딱정": 9308,
      "티머와": 9309,
      "▁티머와": 9310,
      "튀어": 9311,
      "▁튀어": 9312,
      "드디어": 9313,
      "▁드디어": 9314,
      "보냈고": 9315,
      "▁보냈고": 9316,
      "장난감들과": 9317,
      "▁장난감들과": 9318,
      "열었어요": 9319,
      "▁열었어요": 9320,
      "해주었습니다": 9321,
      "▁해주었습니다": 9322,
      "놀라워": 9323,
      "▁놀라워": 9324,
      "체를": 9325,
      "▁체를": 9326,
      "찾아보았지만": 9327,
      "▁찾아보았지만": 9328,
      "트에": 9329,
      "▁트에": 9330,
      "잔을": 9331,
      "▁잔을": 9332,
      "등에": 9333,
      "▁등에": 9334,
      "알았거든요": 9335,
      "▁알았거든요": 9336,
      "걸으면서": 9337,
      "▁걸으면서": 9338,
      "엄청나게": 9339,
      "▁엄청나게": 9340,
      "파는": 9341,
      "▁파는": 9342,
      "먹었답니다": 9343,
      "▁먹었답니다": 9344,
      "브라운": 9345,
      "▁브라운": 9346,
      "종이에": 9347,
      "▁종이에": 9348,
      "데려다": 9349,
      "▁데려다": 9350,
      "적혀": 9351,
      "▁적혀": 9352,
      "기타": 9353,
      "▁기타": 9354,
      "에게서": 9355,
      "▁에게서": 9356,
      "더라면": 9357,
      "▁더라면": 9358,
      "힘들": 9359,
      "▁힘들": 9360,
      "해보고": 9361,
      "▁해보고": 9362,
      "새들과": 9363,
      "▁새들과": 9364,
      "바꾸": 9365,
      "▁바꾸": 9366,
      "세상": 9367,
      "▁세상": 9368,
      "페인": 9369,
      "▁페인": 9370,
      "전했습니다": 9371,
      "▁전했습니다": 9372,
      "시작하자": 9373,
      "▁시작하자": 9374,
      "돌아와서": 9375,
      "▁돌아와서": 9376,
      "발톱": 9377,
      "▁발톱": 9378,
      "올라가고": 9379,
      "▁올라가고": 9380,
      "없었답니다": 9381,
      "▁없었답니다": 9382,
      "어둡": 9383,
      "▁어둡": 9384,
      "마시": 9385,
      "▁마시": 9386,
      "어디서": 9387,
      "▁어디서": 9388,
      "올리는": 9389,
      "▁올리는": 9390,
      "샐리라는": 9391,
      "▁샐리라는": 9392,
      "종을": 9393,
      "▁종을": 9394,
      "들어야": 9395,
      "▁들어야": 9396,
      "눈사람": 9397,
      "▁눈사람": 9398,
      "블루는": 9399,
      "▁블루는": 9400,
      "태양": 9401,
      "▁태양": 9402,
      "데려갔습니다": 9403,
      "▁데려갔습니다": 9404,
      "수리": 9405,
      "▁수리": 9406,
      "기다리고": 9407,
      "▁기다리고": 9408,
      "토미와": 9409,
      "▁토미와": 9410,
      "낯선": 9411,
      "▁낯선": 9412,
      "이겼": 9413,
      "▁이겼": 9414,
      "가방": 9415,
      "▁가방": 9416,
      "차와": 9417,
      "▁차와": 9418,
      "번째": 9419,
      "▁번째": 9420,
      "거기에서": 9421,
      "▁거기에서": 9422,
      "튀기며": 9423,
      "▁튀기며": 9424,
      "놓았어요": 9425,
      "▁놓았어요": 9426,
      "경고": 9427,
      "▁경고": 9428,
      "불이": 9429,
      "▁불이": 9430,
      "소리에": 9431,
      "▁소리에": 9432,
      "아니었습니다": 9433,
      "▁아니었습니다": 9434,
      "갔다가": 9435,
      "▁갔다가": 9436,
      "모으": 9437,
      "▁모으": 9438,
      "옥수": 9439,
      "▁옥수": 9440,
      "행복하지": 9441,
      "▁행복하지": 9442,
      "사랑했어요": 9443,
      "▁사랑했어요": 9444,
      "안타": 9445,
      "▁안타": 9446,
      "별을": 9447,
      "▁별을": 9448,
      "꼭꼭": 9449,
      "▁꼭꼭": 9450,
      "어깨": 9451,
      "▁어깨": 9452,
      "오랜": 9453,
      "▁오랜": 9454,
      "고마워했어요": 9455,
      "▁고마워했어요": 9456,
      "나비가": 9457,
      "▁나비가": 9458,
      "려서": 9459,
      "▁려서": 9460,
      "시계를": 9461,
      "▁시계를": 9462,
      "실망": 9463,
      "▁실망": 9464,
      "마구": 9465,
      "▁마구": 9466,
      "짓고": 9467,
      "▁짓고": 9468,
      "동의했습니다": 9469,
      "▁동의했습니다": 9470,
      "크레용을": 9471,
      "▁크레용을": 9472,
      "싶어해요": 9473,
      "▁싶어해요": 9474,
      "군요": 9475,
      "▁군요": 9476,
      "스티커": 9477,
      "▁스티커": 9478,
      "찾아주": 9479,
      "▁찾아주": 9480,
      "온종일": 9481,
      "▁온종일": 9482,
      "조개를": 9483,
      "▁조개를": 9484,
      "좋다고": 9485,
      "▁좋다고": 9486,
      "아빠의": 9487,
      "▁아빠의": 9488,
      "대답했답니다": 9489,
      "▁대답했답니다": 9490,
      "안나를": 9491,
      "▁안나를": 9492,
      "아닌": 9493,
      "▁아닌": 9494,
      "표하고": 9495,
      "▁표하고": 9496,
      "흥미로운": 9497,
      "▁흥미로운": 9498,
      "발생했습니다": 9499,
      "▁발생했습니다": 9500,
      "가게에서": 9501,
      "▁가게에서": 9502,
      "다치지": 9503,
      "▁다치지": 9504,
      "보세요": 9505,
      "▁보세요": 9506,
      "헬멧": 9507,
      "▁헬멧": 9508,
      "들어와": 9509,
      "▁들어와": 9510,
      "보여줬어요": 9511,
      "▁보여줬어요": 9512,
      "언젠": 9513,
      "▁언젠": 9514,
      "들에": 9515,
      "▁들에": 9516,
      "올빼미는": 9517,
      "▁올빼미는": 9518,
      "무를": 9519,
      "▁무를": 9520,
      "눈으로": 9521,
      "▁눈으로": 9522,
      "사랑했답니다": 9523,
      "▁사랑했답니다": 9524,
      "찾았죠": 9525,
      "▁찾았죠": 9526,
      "레오": 9527,
      "▁레오": 9528,
      "빠르고": 9529,
      "▁빠르고": 9530,
      "부엌에": 9531,
      "▁부엌에": 9532,
      "인형은": 9533,
      "▁인형은": 9534,
      "시켜": 9535,
      "▁시켜": 9536,
      "레오는": 9537,
      "▁레오는": 9538,
      "안도": 9539,
      "▁안도": 9540,
      "상자에서": 9541,
      "▁상자에서": 9542,
      "선생님이": 9543,
      "▁선생님이": 9544,
      "기차가": 9545,
      "▁기차가": 9546,
      "나왔습니다": 9547,
      "▁나왔습니다": 9548,
      "우편": 9549,
      "▁우편": 9550,
      "친구로": 9551,
      "▁친구로": 9552,
      "설레었습니다": 9553,
      "▁설레었습니다": 9554,
      "못했답니다": 9555,
      "▁못했답니다": 9556,
      "돌며": 9557,
      "▁돌며": 9558,
      "슬퍼졌죠": 9559,
      "▁슬퍼졌죠": 9560,
      "통해": 9561,
      "▁통해": 9562,
      "부엉이는": 9563,
      "▁부엉이는": 9564,
      "유명한": 9565,
      "▁유명한": 9566,
      "되지": 9567,
      "▁되지": 9568,
      "데려갔어요": 9569,
      "▁데려갔어요": 9570,
      "질주": 9571,
      "▁질주": 9572,
      "환하게": 9573,
      "▁환하게": 9574,
      "화살": 9575,
      "▁화살": 9576,
      "지자": 9577,
      "▁지자": 9578,
      "해졌습니다": 9579,
      "▁해졌습니다": 9580,
      "잭과": 9581,
      "▁잭과": 9582,
      "지게": 9583,
      "▁지게": 9584,
      "거에요": 9585,
      "▁거에요": 9586,
      "멈추지": 9587,
      "▁멈추지": 9588,
      "지낼": 9589,
      "▁지낼": 9590,
      "경쟁": 9591,
      "▁경쟁": 9592,
      "플라": 9593,
      "▁플라": 9594,
      "토끼와": 9595,
      "▁토끼와": 9596,
      "않았다": 9597,
      "▁않았다": 9598,
      "준비를": 9599,
      "▁준비를": 9600,
      "달걀": 9601,
      "▁달걀": 9602,
      "둘러보니": 9603,
      "▁둘러보니": 9604,
      "숲속을": 9605,
      "▁숲속을": 9606,
      "가다가": 9607,
      "▁가다가": 9608,
      "매끄": 9609,
      "▁매끄": 9610,
      "신나했어요": 9611,
      "▁신나했어요": 9612,
      "브로콜": 9613,
      "▁브로콜": 9614,
      "풀어": 9615,
      "▁풀어": 9616,
      "울타리": 9617,
      "▁울타리": 9618,
      "그래요": 9619,
      "▁그래요": 9620,
      "봅니다": 9621,
      "▁봅니다": 9622,
      "흔들었습니다": 9623,
      "▁흔들었습니다": 9624,
      "원이": 9625,
      "▁원이": 9626,
      "분을": 9627,
      "▁분을": 9628,
      "하기를": 9629,
      "▁하기를": 9630,
      "무렵": 9631,
      "▁무렵": 9632,
      "말씀하셨습니다": 9633,
      "▁말씀하셨습니다": 9634,
      "파스타": 9635,
      "▁파스타": 9636,
      "자랑스러웠습니다": 9637,
      "▁자랑스러웠습니다": 9638,
      "자랑스러워했습니다": 9639,
      "▁자랑스러워했습니다": 9640,
      "그만해": 9641,
      "▁그만해": 9642,
      "피가": 9643,
      "▁피가": 9644,
      "톰도": 9645,
      "▁톰도": 9646,
      "가져왔어요": 9647,
      "▁가져왔어요": 9648,
      "두드": 9649,
      "▁두드": 9650,
      "자석": 9651,
      "▁자석": 9652,
      "전을": 9653,
      "▁전을": 9654,
      "분이": 9655,
      "▁분이": 9656,
      "해줘서": 9657,
      "▁해줘서": 9658,
      "빛이": 9659,
      "▁빛이": 9660,
      "선생님은": 9661,
      "▁선생님은": 9662,
      "제이크": 9663,
      "▁제이크": 9664,
      "바닥을": 9665,
      "▁바닥을": 9666,
      "부탁했죠": 9667,
      "▁부탁했죠": 9668,
      "얼룩": 9669,
      "▁얼룩": 9670,
      "깃털을": 9671,
      "▁깃털을": 9672,
      "자신도": 9673,
      "▁자신도": 9674,
      "였다": 9675,
      "▁였다": 9676,
      "여기에": 9677,
      "▁여기에": 9678,
      "겸손": 9679,
      "▁겸손": 9680,
      "농장에서": 9681,
      "▁농장에서": 9682,
      "않으면": 9683,
      "▁않으면": 9684,
      "뼈다귀를": 9685,
      "▁뼈다귀를": 9686,
      "화난": 9687,
      "▁화난": 9688,
      "별로": 9689,
      "▁별로": 9690,
      "건너": 9691,
      "▁건너": 9692,
      "버섯": 9693,
      "▁버섯": 9694,
      "깨끗한": 9695,
      "▁깨끗한": 9696,
      "경주가": 9697,
      "▁경주가": 9698,
      "열자": 9699,
      "▁열자": 9700,
      "네이": 9701,
      "▁네이": 9702,
      "구름을": 9703,
      "▁구름을": 9704,
      "들어왔습니다": 9705,
      "▁들어왔습니다": 9706,
      "금을": 9707,
      "▁금을": 9708,
      "지갑을": 9709,
      "▁지갑을": 9710,
      "소리와": 9711,
      "▁소리와": 9712,
      "일이야": 9713,
      "▁일이야": 9714,
      "베이": 9715,
      "▁베이": 9716,
      "단어": 9717,
      "▁단어": 9718,
      "스토": 9719,
      "▁스토": 9720,
      "앉았습니다": 9721,
      "▁앉았습니다": 9722,
      "도마": 9723,
      "▁도마": 9724,
      "사랑한다고": 9725,
      "▁사랑한다고": 9726,
      "창밖을": 9727,
      "▁창밖을": 9728,
      "다람쥐를": 9729,
      "▁다람쥐를": 9730,
      "여성": 9731,
      "▁여성": 9732,
      "운이": 9733,
      "▁운이": 9734,
      "실수로": 9735,
      "▁실수로": 9736,
      "끼를": 9737,
      "▁끼를": 9738,
      "들처럼": 9739,
      "▁들처럼": 9740,
      "던지고": 9741,
      "▁던지고": 9742,
      "동그": 9743,
      "▁동그": 9744,
      "외쳤습니다": 9745,
      "▁외쳤습니다": 9746,
      "있단다": 9747,
      "▁있단다": 9748,
      "아이들과": 9749,
      "▁아이들과": 9750,
      "해변에서": 9751,
      "▁해변에서": 9752,
      "해줬어요": 9753,
      "▁해줬어요": 9754,
      "보여주었죠": 9755,
      "▁보여주었죠": 9756,
      "가지를": 9757,
      "▁가지를": 9758,
      "돌아온": 9759,
      "▁돌아온": 9760,
      "같아요": 9761,
      "▁같아요": 9762,
      "휘스커스는": 9763,
      "▁휘스커스는": 9764,
      "생겼어요": 9765,
      "▁생겼어요": 9766,
      "벽을": 9767,
      "▁벽을": 9768,
      "동물이": 9769,
      "▁동물이": 9770,
      "버렸고": 9771,
      "▁버렸고": 9772,
      "주실": 9773,
      "▁주실": 9774,
      "발로": 9775,
      "▁발로": 9776,
      "만약": 9777,
      "▁만약": 9778,
      "모모는": 9779,
      "▁모모는": 9780,
      "파티에서": 9781,
      "▁파티에서": 9782,
      "선택": 9783,
      "▁선택": 9784,
      "놀이터": 9785,
      "▁놀이터": 9786,
      "수지는": 9787,
      "▁수지는": 9788,
      "지켜보았습니다": 9789,
      "▁지켜보았습니다": 9790,
      "재미난": 9791,
      "▁재미난": 9792,
      "라디": 9793,
      "▁라디": 9794,
      "헬리": 9795,
      "▁헬리": 9796,
      "살았지요": 9797,
      "▁살았지요": 9798,
      "남아": 9799,
      "▁남아": 9800,
      "장으로": 9801,
      "▁장으로": 9802,
      "타이": 9803,
      "▁타이": 9804,
      "지켜보며": 9805,
      "▁지켜보며": 9806,
      "와플": 9807,
      "▁와플": 9808,
      "돌이": 9809,
      "▁돌이": 9810,
      "작업": 9811,
      "▁작업": 9812,
      "헬리콥": 9813,
      "▁헬리콥": 9814,
      "둘러보고": 9815,
      "▁둘러보고": 9816,
      "나에게": 9817,
      "▁나에게": 9818,
      "놀면": 9819,
      "▁놀면": 9820,
      "찾아왔습니다": 9821,
      "▁찾아왔습니다": 9822,
      "유연": 9823,
      "▁유연": 9824,
      "지우": 9825,
      "▁지우": 9826,
      "물어봐요": 9827,
      "▁물어봐요": 9828,
      "경을": 9829,
      "▁경을": 9830,
      "쳤답니다": 9831,
      "▁쳤답니다": 9832,
      "쿠션": 9833,
      "▁쿠션": 9834,
      "나아지게": 9835,
      "▁나아지게": 9836,
      "아이들에게": 9837,
      "▁아이들에게": 9838,
      "그날은": 9839,
      "▁그날은": 9840,
      "웃는": 9841,
      "▁웃는": 9842,
      "친구였죠": 9843,
      "▁친구였죠": 9844,
      "에밀": 9845,
      "▁에밀": 9846,
      "갇혀": 9847,
      "▁갇혀": 9848,
      "잭이": 9849,
      "▁잭이": 9850,
      "추가": 9851,
      "▁추가": 9852,
      "보여주며": 9853,
      "▁보여주며": 9854,
      "지르며": 9855,
      "▁지르며": 9856,
      "잡는": 9857,
      "▁잡는": 9858,
      "올린": 9859,
      "▁올린": 9860,
      "빨갛": 9861,
      "▁빨갛": 9862,
      "유용": 9863,
      "▁유용": 9864,
      "동의하며": 9865,
      "▁동의하며": 9866,
      "돌아다니며": 9867,
      "▁돌아다니며": 9868,
      "누구도": 9869,
      "▁누구도": 9870,
      "흔들었어요": 9871,
      "▁흔들었어요": 9872,
      "돌고래": 9873,
      "▁돌고래": 9874,
      "자랑스럽게": 9875,
      "▁자랑스럽게": 9876,
      "앤은": 9877,
      "▁앤은": 9878,
      "건조": 9879,
      "▁건조": 9880,
      "궁금해하며": 9881,
      "▁궁금해하며": 9882,
      "무지개를": 9883,
      "▁무지개를": 9884,
      "프레드": 9885,
      "▁프레드": 9886,
      "크는": 9887,
      "▁크는": 9888,
      "무서웠습니다": 9889,
      "▁무서웠습니다": 9890,
      "돌아갈": 9891,
      "▁돌아갈": 9892,
      "상점에": 9893,
      "▁상점에": 9894,
      "바구니를": 9895,
      "▁바구니를": 9896,
      "귀가": 9897,
      "▁귀가": 9898,
      "담아": 9899,
      "▁담아": 9900,
      "뛰어들": 9901,
      "▁뛰어들": 9902,
      "올라갈": 9903,
      "▁올라갈": 9904,
      "독립": 9905,
      "▁독립": 9906,
      "몇몇": 9907,
      "▁몇몇": 9908,
      "숲에": 9909,
      "▁숲에": 9910,
      "마스크": 9911,
      "▁마스크": 9912,
      "뛰어다니는": 9913,
      "▁뛰어다니는": 9914,
      "사무": 9915,
      "▁사무": 9916,
      "있으면": 9917,
      "▁있으면": 9918,
      "관에": 9919,
      "▁관에": 9920,
      "선인": 9921,
      "▁선인": 9922,
      "아보": 9923,
      "▁아보": 9924,
      "못해": 9925,
      "▁못해": 9926,
      "해주었어요": 9927,
      "▁해주었어요": 9928,
      "주인은": 9929,
      "▁주인은": 9930,
      "마구간": 9931,
      "▁마구간": 9932,
      "불쌍": 9933,
      "▁불쌍": 9934,
      "카메": 9935,
      "▁카메": 9936,
      "막대기로": 9937,
      "▁막대기로": 9938,
      "래요": 9939,
      "▁래요": 9940,
      "돌아왔을": 9941,
      "▁돌아왔을": 9942,
      "떨어뜨리고": 9943,
      "▁떨어뜨리고": 9944,
      "맞는": 9945,
      "▁맞는": 9946,
      "착지": 9947,
      "▁착지": 9948,
      "신나는": 9949,
      "▁신나는": 9950,
      "뜨거운": 9951,
      "▁뜨거운": 9952,
      "차분": 9953,
      "▁차분": 9954,
      "기뻤고": 9955,
      "▁기뻤고": 9956,
      "바이": 9957,
      "▁바이": 9958,
      "카드": 9959,
      "▁카드": 9960,
      "피아노": 9961,
      "▁피아노": 9962,
      "잡았습니다": 9963,
      "▁잡았습니다": 9964,
      "다행이야": 9965,
      "▁다행이야": 9966,
      "엘리": 9967,
      "▁엘리": 9968,
      "미에게": 9969,
      "▁미에게": 9970,
      "건초": 9971,
      "▁건초": 9972,
      "탐험을": 9973,
      "▁탐험을": 9974,
      "볼까": 9975,
      "▁볼까": 9976,
      "마당에": 9977,
      "▁마당에": 9978,
      "당신이": 9979,
      "▁당신이": 9980,
      "줄이": 9981,
      "▁줄이": 9982,
      "기쁘": 9983,
      "▁기쁘": 9984,
      "크림": 9985,
      "▁크림": 9986,
      "크리스": 9987,
      "▁크리스": 9988,
      "소녀의": 9989,
      "▁소녀의": 9990,
      "터널": 9991,
      "▁터널": 9992,
      "컴퓨": 9993,
      "▁컴퓨": 9994,
      "시간이야": 9995,
      "▁시간이야": 9996,
      "주셔서": 9997,
      "▁주셔서": 9998,
      "스쿠": 9999,
      "▁스쿠": 10000,
      "곰과": 10001,
      "▁곰과": 10002,
      "이길": 10003,
      "▁이길": 10004,
      "달아났습니다": 10005,
      "▁달아났습니다": 10006,
      "테디베어를": 10007,
      "▁테디베어를": 10008,
      "아몬": 10009,
      "▁아몬": 10010,
      "있습니다": 10011,
      "▁있습니다": 10012,
      "세웠어요": 10013,
      "▁세웠어요": 10014,
      "공주는": 10015,
      "▁공주는": 10016,
      "눈치": 10017,
      "▁눈치": 10018,
      "장식": 10019,
      "▁장식": 10020,
      "키티가": 10021,
      "▁키티가": 10022,
      "다리가": 10023,
      "▁다리가": 10024,
      "연못을": 10025,
      "▁연못을": 10026,
      "먹이를": 10027,
      "▁먹이를": 10028,
      "의사는": 10029,
      "▁의사는": 10030,
      "빌려": 10031,
      "▁빌려": 10032,
      "뻗어": 10033,
      "▁뻗어": 10034,
      "용기를": 10035,
      "▁용기를": 10036,
      "표지판을": 10037,
      "▁표지판을": 10038,
      "너가": 10039,
      "▁너가": 10040,
      "안나의": 10041,
      "▁안나의": 10042,
      "가까이에서": 10043,
      "▁가까이에서": 10044,
      "벌을": 10045,
      "▁벌을": 10046,
      "땅을": 10047,
      "▁땅을": 10048,
      "계단을": 10049,
      "▁계단을": 10050,
      "문제가": 10051,
      "▁문제가": 10052,
      "다이아몬": 10053,
      "▁다이아몬": 10054,
      "즐기": 10055,
      "▁즐기": 10056,
      "골라": 10057,
      "▁골라": 10058,
      "끼는": 10059,
      "▁끼는": 10060,
      "배우": 10061,
      "▁배우": 10062,
      "그러다": 10063,
      "▁그러다": 10064,
      "리본을": 10065,
      "▁리본을": 10066,
      "않니": 10067,
      "▁않니": 10068,
      "조가": 10069,
      "▁조가": 10070,
      "보고는": 10071,
      "▁보고는": 10072,
      "끔찍": 10073,
      "▁끔찍": 10074,
      "밑에": 10075,
      "▁밑에": 10076,
      "아보카": 10077,
      "▁아보카": 10078,
      "돌아가야": 10079,
      "▁돌아가야": 10080,
      "생겨서": 10081,
      "▁생겨서": 10082,
      "사라의": 10083,
      "▁사라의": 10084,
      "낙엽": 10085,
      "▁낙엽": 10086,
      "차로": 10087,
      "▁차로": 10088,
      "추기": 10089,
      "▁추기": 10090,
      "예쁘다고": 10091,
      "▁예쁘다고": 10092,
      "시지를": 10093,
      "▁시지를": 10094,
      "표범": 10095,
      "▁표범": 10096,
      "추며": 10097,
      "▁추며": 10098,
      "지면서": 10099,
      "▁지면서": 10100,
      "할게요": 10101,
      "▁할게요": 10102,
      "매력": 10103,
      "▁매력": 10104,
      "하곤": 10105,
      "▁하곤": 10106,
      "숲속의": 10107,
      "▁숲속의": 10108,
      "무시": 10109,
      "▁무시": 10110,
      "위험한": 10111,
      "▁위험한": 10112,
      "못하고": 10113,
      "▁못하고": 10114,
      "생각했거든요": 10115,
      "▁생각했거든요": 10116,
      "저건": 10117,
      "▁저건": 10118,
      "르르르르": 10119,
      "▁르르르르": 10120,
      "영화를": 10121,
      "▁영화를": 10122,
      "들어갔어요": 10123,
      "▁들어갔어요": 10124,
      "역시": 10125,
      "▁역시": 10126,
      "나오는": 10127,
      "▁나오는": 10128,
      "손전": 10129,
      "▁손전": 10130,
      "올라갔습니다": 10131,
      "▁올라갔습니다": 10132,
      "펼쳐": 10133,
      "▁펼쳐": 10134,
      "어디를": 10135,
      "▁어디를": 10136,
      "라라는": 10137,
      "▁라라는": 10138,
      "립니다": 10139,
      "▁립니다": 10140,
      "소년의": 10141,
      "▁소년의": 10142,
      "키티와": 10143,
      "▁키티와": 10144,
      "사랑했죠": 10145,
      "▁사랑했죠": 10146,
      "착하고": 10147,
      "▁착하고": 10148,
      "움직이는": 10149,
      "▁움직이는": 10150,
      "않다고": 10151,
      "▁않다고": 10152,
      "저울": 10153,
      "▁저울": 10154,
      "끈적": 10155,
      "▁끈적": 10156,
      "뭐예요": 10157,
      "▁뭐예요": 10158,
      "오르는": 10159,
      "▁오르는": 10160,
      "해는": 10161,
      "▁해는": 10162,
      "놀랐답니다": 10163,
      "▁놀랐답니다": 10164,
      "빼앗으려고": 10165,
      "▁빼앗으려고": 10166,
      "말할": 10167,
      "▁말할": 10168,
      "즐겨": 10169,
      "▁즐겨": 10170,
      "달아나": 10171,
      "▁달아나": 10172,
      "싶어하지": 10173,
      "▁싶어하지": 10174,
      "우주": 10175,
      "▁우주": 10176,
      "내내": 10177,
      "▁내내": 10178,
      "인형과": 10179,
      "▁인형과": 10180,
      "차가운": 10181,
      "▁차가운": 10182,
      "소방관": 10183,
      "▁소방관": 10184,
      "가져가서": 10185,
      "▁가져가서": 10186,
      "고파": 10187,
      "▁고파": 10188,
      "행운": 10189,
      "▁행운": 10190,
      "뭐지": 10191,
      "▁뭐지": 10192,
      "더군요": 10193,
      "▁더군요": 10194,
      "원숭이는": 10195,
      "▁원숭이는": 10196,
      "롭고": 10197,
      "▁롭고": 10198,
      "놀라움을": 10199,
      "▁놀라움을": 10200,
      "헤엄치고": 10201,
      "▁헤엄치고": 10202,
      "카펫": 10203,
      "▁카펫": 10204,
      "주방에서": 10205,
      "▁주방에서": 10206,
      "도와주길": 10207,
      "▁도와주길": 10208,
      "마지막": 10209,
      "▁마지막": 10210,
      "오라고": 10211,
      "▁오라고": 10212,
      "고양이야": 10213,
      "▁고양이야": 10214,
      "쥐가": 10215,
      "▁쥐가": 10216,
      "드럼을": 10217,
      "▁드럼을": 10218,
      "블루베": 10219,
      "▁블루베": 10220,
      "양말을": 10221,
      "▁양말을": 10222,
      "불편": 10223,
      "▁불편": 10224,
      "렸어": 10225,
      "▁렸어": 10226,
      "셔츠를": 10227,
      "▁셔츠를": 10228,
      "고치는": 10229,
      "▁고치는": 10230,
      "과일이": 10231,
      "▁과일이": 10232,
      "충분히": 10233,
      "▁충분히": 10234,
      "모아": 10235,
      "▁모아": 10236,
      "만들었어": 10237,
      "▁만들었어": 10238,
      "있으니까요": 10239,
      "▁있으니까요": 10240,
      "기름": 10241,
      "▁기름": 10242,
      "세웠습니다": 10243,
      "▁세웠습니다": 10244,
      "비밀을": 10245,
      "▁비밀을": 10246,
      "그럴": 10247,
      "▁그럴": 10248,
      "마리의": 10249,
      "▁마리의": 10250,
      "순종": 10251,
      "▁순종": 10252,
      "일하고": 10253,
      "▁일하고": 10254,
      "가려": 10255,
      "▁가려": 10256,
      "호박을": 10257,
      "▁호박을": 10258,
      "돌봐": 10259,
      "▁돌봐": 10260,
      "유령": 10261,
      "▁유령": 10262,
      "티머의": 10263,
      "▁티머의": 10264,
      "사과가": 10265,
      "▁사과가": 10266,
      "미아를": 10267,
      "▁미아를": 10268,
      "밀고": 10269,
      "▁밀고": 10270,
      "늑대는": 10271,
      "▁늑대는": 10272,
      "랐답니다": 10273,
      "▁랐답니다": 10274,
      "공유하고": 10275,
      "▁공유하고": 10276,
      "가루": 10277,
      "▁가루": 10278,
      "만나서": 10279,
      "▁만나서": 10280,
      "왕관을": 10281,
      "▁왕관을": 10282,
      "회전": 10283,
      "▁회전": 10284,
      "공부": 10285,
      "▁공부": 10286,
      "행복해졌죠": 10287,
      "▁행복해졌죠": 10288,
      "착해": 10289,
      "▁착해": 10290,
      "생쥐를": 10291,
      "▁생쥐를": 10292,
      "떨어졌습니다": 10293,
      "▁떨어졌습니다": 10294,
      "부리로": 10295,
      "▁부리로": 10296,
      "뒤를": 10297,
      "▁뒤를": 10298,
      "리얼": 10299,
      "▁리얼": 10300,
      "죄송": 10301,
      "▁죄송": 10302,
      "거리는": 10303,
      "▁거리는": 10304,
      "갔어": 10305,
      "▁갔어": 10306,
      "오리를": 10307,
      "▁오리를": 10308,
      "물었고": 10309,
      "▁물었고": 10310,
      "봉투": 10311,
      "▁봉투": 10312,
      "올려다보며": 10313,
      "▁올려다보며": 10314,
      "소풍": 10315,
      "▁소풍": 10316,
      "놀자고": 10317,
      "▁놀자고": 10318,
      "파고": 10319,
      "▁파고": 10320,
      "따서": 10321,
      "▁따서": 10322,
      "여왕": 10323,
      "▁여왕": 10324,
      "정말정말": 10325,
      "▁정말정말": 10326,
      "걸었어요": 10327,
      "▁걸었어요": 10328,
      "이기적": 10329,
      "▁이기적": 10330,
      "사러": 10331,
      "▁사러": 10332,
      "키티라는": 10333,
      "▁키티라는": 10334,
      "벗어나": 10335,
      "▁벗어나": 10336,
      "상해": 10337,
      "▁상해": 10338,
      "각자": 10339,
      "▁각자": 10340,
      "시리얼": 10341,
      "▁시리얼": 10342,
      "느낌을": 10343,
      "▁느낌을": 10344,
      "슈퍼": 10345,
      "▁슈퍼": 10346,
      "다르": 10347,
      "▁다르": 10348,
      "리야": 10349,
      "▁리야": 10350,
      "인해": 10351,
      "▁인해": 10352,
      "발견해서": 10353,
      "▁발견해서": 10354,
      "그네에서": 10355,
      "▁그네에서": 10356,
      "슬프지": 10357,
      "▁슬프지": 10358,
      "목을": 10359,
      "▁목을": 10360,
      "작아": 10361,
      "▁작아": 10362,
      "찾았답니다": 10363,
      "▁찾았답니다": 10364,
      "버스": 10365,
      "▁버스": 10366,
      "찌푸": 10367,
      "▁찌푸": 10368,
      "내어": 10369,
      "▁내어": 10370,
      "가져갈": 10371,
      "▁가져갈": 10372,
      "돼지": 10373,
      "▁돼지": 10374,
      "위험해": 10375,
      "▁위험해": 10376,
      "하다": 10377,
      "▁하다": 10378,
      "드래": 10379,
      "▁드래": 10380,
      "모래성을": 10381,
      "▁모래성을": 10382,
      "았지만": 10383,
      "▁았지만": 10384,
      "뭐하는": 10385,
      "▁뭐하는": 10386,
      "드래곤": 10387,
      "▁드래곤": 10388,
      "넣었죠": 10389,
      "▁넣었죠": 10390,
      "햇볕을": 10391,
      "▁햇볕을": 10392,
      "망가뜨": 10393,
      "▁망가뜨": 10394,
      "될까": 10395,
      "▁될까": 10396,
      "노래하고": 10397,
      "▁노래하고": 10398,
      "뱀을": 10399,
      "▁뱀을": 10400,
      "만한": 10401,
      "▁만한": 10402,
      "높고": 10403,
      "▁높고": 10404,
      "우체통": 10405,
      "▁우체통": 10406,
      "청했습니다": 10407,
      "▁청했습니다": 10408,
      "리라와": 10409,
      "▁리라와": 10410,
      "알았답니다": 10411,
      "▁알았답니다": 10412,
      "렀어요": 10413,
      "▁렀어요": 10414,
      "조깅을": 10415,
      "▁조깅을": 10416,
      "루나는": 10417,
      "▁루나는": 10418,
      "도구": 10419,
      "▁도구": 10420,
      "플루": 10421,
      "▁플루": 10422,
      "맛을": 10423,
      "▁맛을": 10424,
      "게으": 10425,
      "▁게으": 10426,
      "타기": 10427,
      "▁타기": 10428,
      "돈이": 10429,
      "▁돈이": 10430,
      "가득했어요": 10431,
      "▁가득했어요": 10432,
      "울음": 10433,
      "▁울음": 10434,
      "걸으며": 10435,
      "▁걸으며": 10436,
      "오르고": 10437,
      "▁오르고": 10438,
      "키가": 10439,
      "▁키가": 10440,
      "지며": 10441,
      "▁지며": 10442,
      "남겨": 10443,
      "▁남겨": 10444,
      "정글": 10445,
      "▁정글": 10446,
      "자물": 10447,
      "▁자물": 10448,
      "자물쇠": 10449,
      "▁자물쇠": 10450,
      "배웠고": 10451,
      "▁배웠고": 10452,
      "스파게": 10453,
      "▁스파게": 10454,
      "환영": 10455,
      "▁환영": 10456,
      "쥐고": 10457,
      "▁쥐고": 10458,
      "읽는": 10459,
      "▁읽는": 10460,
      "질은": 10461,
      "▁질은": 10462,
      "목이": 10463,
      "▁목이": 10464,
      "었을": 10465,
      "▁었을": 10466,
      "인내심을": 10467,
      "▁인내심을": 10468,
      "지붕": 10469,
      "▁지붕": 10470,
      "되게": 10471,
      "▁되게": 10472,
      "나오": 10473,
      "▁나오": 10474,
      "사라진": 10475,
      "▁사라진": 10476,
      "덩굴": 10477,
      "▁덩굴": 10478,
      "나아졌어요": 10479,
      "▁나아졌어요": 10480,
      "저으며": 10481,
      "▁저으며": 10482,
      "맛보고": 10483,
      "▁맛보고": 10484,
      "우아": 10485,
      "▁우아": 10486,
      "걸어가다가": 10487,
      "▁걸어가다가": 10488,
      "말씀하세요": 10489,
      "▁말씀하세요": 10490,
      "일어났": 10491,
      "▁일어났": 10492,
      "바이올린": 10493,
      "▁바이올린": 10494,
      "보라고": 10495,
      "▁보라고": 10496,
      "질렀어요": 10497,
      "▁질렀어요": 10498,
      "지하": 10499,
      "▁지하": 10500,
      "행복을": 10501,
      "▁행복을": 10502,
      "시냇": 10503,
      "▁시냇": 10504,
      "치마를": 10505,
      "▁치마를": 10506,
      "않았으면": 10507,
      "▁않았으면": 10508,
      "바나나를": 10509,
      "▁바나나를": 10510,
      "눈사람을": 10511,
      "▁눈사람을": 10512,
      "도토리를": 10513,
      "▁도토리를": 10514,
      "올랐습니다": 10515,
      "▁올랐습니다": 10516,
      "친절해": 10517,
      "▁친절해": 10518,
      "말이야": 10519,
      "▁말이야": 10520,
      "기뻐했고": 10521,
      "▁기뻐했고": 10522,
      "토끼에게": 10523,
      "▁토끼에게": 10524,
      "게를": 10525,
      "▁게를": 10526,
      "방은": 10527,
      "▁방은": 10528,
      "있니": 10529,
      "▁있니": 10530,
      "불꽃": 10531,
      "▁불꽃": 10532,
      "조심하라고": 10533,
      "▁조심하라고": 10534,
      "동의했어요": 10535,
      "▁동의했어요": 10536,
      "가난": 10537,
      "▁가난": 10538,
      "동물은": 10539,
      "▁동물은": 10540,
      "나아질": 10541,
      "▁나아질": 10542,
      "모르겠어요": 10543,
      "▁모르겠어요": 10544,
      "생각해서": 10545,
      "▁생각해서": 10546,
      "다루": 10547,
      "▁다루": 10548,
      "가져가고": 10549,
      "▁가져가고": 10550,
      "적힌": 10551,
      "▁적힌": 10552,
      "제리는": 10553,
      "▁제리는": 10554,
      "멈췄어요": 10555,
      "▁멈췄어요": 10556,
      "싸우는": 10557,
      "▁싸우는": 10558,
[...]
